[PAD]
[unused1]
[unused2]
[unused3]
[unused4]
[unused5]
[unused6]
[unused7]
[unused8]
[unused9]
[unused10]
[unused11]
[unused12]
[unused13]
[unused14]
[unused15]
[unused16]
[unused17]
[unused18]
[unused19]
[unused20]
[unused21]
[unused22]
[unused23]
[unused24]
[unused25]
[unused26]
[unused27]
[unused28]
[unused29]
[unused30]
[unused31]
[unused32]
[unused33]
[unused34]
[unused35]
[unused36]
[unused37]
[unused38]
[unused39]
[unused40]
[unused41]
[unused42]
[unused43]
[unused44]
[unused45]
[unused46]
[unused47]
[unused48]
[unused49]
[unused50]
[unused51]
[unused52]
[unused53]
[unused54]
[unused55]
[unused56]
[unused57]
[unused58]
[unused59]
[unused60]
[unused61]
[unused62]
[unused63]
[unused64]
[unused65]
[unused66]
[unused67]
[unused68]
[unused69]
[unused70]
[unused71]
[unused72]
[unused73]
[unused74]
[unused75]
[unused76]
[unused77]
[unused78]
[unused79]
[unused80]
[unused81]
[unused82]
[unused83]
[unused84]
[unused85]
[unused86]
[unused87]
[unused88]
[unused89]
[unused90]
[unused91]
[unused92]
[unused93]
[unused94]
[unused95]
[unused96]
[unused97]
[unused98]
[unused99]
[UNK]
[CLS]
[SEP]
[MASK]
<S>
<T>
!
"
#
$
%
&
'
(
)
*
+
,
-
.
/
0
1
2
3
4
5
6
7
8
9
:
;
<
=
>
?
@
A
B
C
D
E
F
G
H
I
J
K
L
M
N
O
P
Q
R
S
T
U
V
W
X
Y
Z
[
\
]
^
_
a
b
c
d
e
f
g
h
i
j
k
l
m
n
o
p
q
r
s
t
u
v
w
x
y
z
{
|
}
~
¡
¢
£
¥
##o
§
##a
©
##e
«
¬
®
°
±
²
³
µ
##i
·
¹
º
»
¼
½
¾
¿
À
Á
Â
а
Ä
Å
Æ
Ç
È
É
##а
##n
о
Í
Î
Ð
Ñ
Ò
Ó
Ô
Õ
Ö
×
Ø
Ú
Ü
Ý
Þ
ß
à
á
â
ã
ä
å
æ
ç
è
é
ê
ë
ì
í
î
ï
ð
ñ
ò
ó
ô
õ
ö
÷
ø
ù
ú
û
ü
ý
þ
ÿ
Ā
ā
##о
ă
Ą
ą
Ć
ć
Č
č
Ď
ď
Đ
đ
и
ē
##и
ĕ
е
ė
ę
ě
##е
ğ
ġ
##r
##t
Ħ
ħ
ĩ
##s
ī
н
##н
İ
ı
т
ķ
ĺ
##т
ļ
Ľ
ľ
Ł
ł
ń
##k
ņ
ň
##z
ŋ
Ō
ō
ŏ
##l
ő
Œ
œ
ŕ
Ř
ř
Ś
ś
Ş
ş
Š
š
Ţ
ţ
Ť
ť
ũ
Ū
ū
ŭ
ů
р
ű
ų
##р
##c
Ź
ź
Ż
ż
Ž
ž
Ə
ƒ
ơ
##d
ư
ǎ
ǐ
ǔ
ǫ
с
Ș
ș
Ț
ț
ɐ
ɑ
ɔ
##с
ə
ɛ
ɡ
ɣ
ɨ
ɪ
ɲ
ɾ
ʁ
ʃ
ʊ
##u
ʒ
##m
##y
ʰ
ʲ
в
##в
##p
ʻ
ʼ
ʾ
ʿ
ˈ
ː
##w
л
̀
́
̃
##л
##.
##v
к
##к
͡
΄
Ά
Έ
##,
##j
Ό
д
##д
##h
Α
Β
Γ
Δ
Ε
Ζ
Η
Θ
Ι
Κ
Λ
Μ
Ν
Ξ
Ο
Π
Ρ
Σ
Τ
Υ
Φ
Χ
Ψ
Ω
ά
έ
ή
ί
α
β
γ
δ
ε
ζ
η
θ
ι
κ
λ
μ
ν
ξ
ο
π
ρ
ς
σ
τ
υ
φ
χ
ψ
ω
ϊ
п
ό
ύ
ώ
Ё
Ђ
##п
Є
м
І
##м
Ј
Љ
##b
##í
у
##у
Џ
А
Б
В
Г
Д
Е
Ж
З
И
Й
К
Л
М
Н
О
П
Р
С
Т
У
Ф
Х
Ц
Ч
Ш
Щ
Ъ
Ы
Ь
Э
Ю
Я
з
б
##з
г
я
##я
ж
##á
##г
й
##g
##ł
##1
##б
##:
ч
##ч
##ě
##0
##é
ф
х
ц
##й
ш
щ
ъ
ы
ь
э
ю
##ы
ѐ
ё
ђ
##"
є
##ř
і
ї
ј
љ
њ
ћ
ќ
ѝ
ў
џ
ѣ
##S
##2
##-
ғ
##9
##ó
##ъ
##ą
Қ
қ
##ę
##ý
ң
##ж
##ь
ү
##P
##ц
##ž
##č
##)
##(
##х
##f
##š
##ż
##ś
##8
ә
##5
Ө
ө
##щ
##ш
##3
Ա
##M
##W
##4
##ů
##ю
##ф
##A
##K
##7
##6
##B
##С
##N
##П
Հ
##I
##V
##T
##C
##D
##R
##В
##J
##К
##O
##L
##А
Ս
##М
##H
##G
##Р
##Z
##ć
##F
##ń
Ֆ
##Н
##Б
##О
„
##„
ա
բ
գ
դ
ե
զ
##Т
##Д
##E
##э
ի
լ
##И
##Г
կ
##U
##ú
##x
##Л
մ
յ
ն
##Ф
ո
##Е
##Х
##/
##У
ս
վ
տ
ր
##X
ւ
##З
##Č
##«
##»
##ź
##Ш
##ň
ְ
##;
ֲ
ִ
ֵ
ֶ
ַ
ָ
ֹ
ּ
##Ч
ׁ
ׂ
##Š
א
ב
ג
ד
ה
ו
ז
ח
ט
י
ך
כ
ל
ם
מ
ן
נ
ס
ע
ף
פ
ץ
צ
ק
ר
ש
ת
##ť
##Ц
##'
##%
##Ю
##Ś
##Э
ء
آ
أ
##Я
إ
ئ
ا
ب
ة
ت
ث
ج
ح
خ
د
ذ
ر
ز
س
ش
ص
ض
ط
ظ
ع
غ
ـ
ف
ق
ك
ل
م
ن
ه
و
ى
ي
##Y
##Ž
##_
َ
ُ
ِ
ّ
ْ
##Ż
##Ж
##²
##Й
##q
##Ł
##ď
##Ř
##Ú
##ü
##*
##ö
##Q
##Щ
##ѝ
پ
چ
†
##†
##°
##!
ک
##ä
گ
##+
##]
##=
ہ
##[
##?
##&
##è
ی
##>
##<
##̀
•
##•
##α
##ο
##É
−
##−
##×
№
##№
##ν
ं
##ι
अ
आ
##ρ
##ō
##ô
##ç
##ς
##ë
##τ
##י
##³
##ø
##ß
###
क
ख
ग
##І
##ε
च
##λ
ज
##â
##Á
ट
##ا
ड
##σ
ण
त
थ
द
ध
न
प
##μ
ब
भ
म
य
र
##ו
ल
##|
व
श
ष
स
ह
़
##κ
ा
ि
ी
ु
ू
ृ
##ā
##ר
##ñ
े
ै
##à
ो
##§
्
##ã
→
##→
##π
॥
##ľ
##ל
##ה
##і
##υ
##$
##η
##å
##ă
##Í
##ل
##Ö
##ί
##Ź
##ū
##́
##Ó
##ė
##β
##γ
##Ť
##ά
##Î
##Ъ
##א
##ב
ক
##מ
##ό
##ѐ
##δ
##ת
##ı
##ê
##נ
##ё
##ò
##ي
##ω
##ر
##ş
##ש
##م
##ð
##ח
ন
প
##ע
ব
‰
ম
##‰
র
ল
##æ
##õ
##ن
##Ľ
##و
া
ি
##ș
##ī
##ד
##@
ে
##ő
##έ
##ə
্
##ή
##ן
##ب
##χ
##Κ
##~
##Α
##د
##ύ
##φ
##Ć
##î
##θ
##ē
##Σ
€
##€
##·
##Δ
##Π
##Å
##Ď
##ק
##ï
##Μ
##س
##}
##ג
′
##′
##פ
##Đ
##{
##½
##ğ
##ة
##ם
##đ
##כ
##ा
##º
##û
##ס
##ּ
##ј
##ì
##±
##्
##ώ
##ț
##ŏ
##\
##ָ
##Ι
##ع
##צ
ა
##ა
##ù
##ˈ
##Ü
##£
##ְ
ი
##ი
##Τ
##Ε
##ت
##ح
##µ
##र
##ַ
##Ο
##ζ
##ִ
##ז
##ː
##Ν
་
##་
─
##─
##Χ
##ه
##Ø
##Λ
##Ы
##Β
##ج
##ט
##Γ
##ա
##Ç
##ف
##ق
##œ
″
##″
##ʻ
##ی
##ش
##ك
##Ş
##ї
##İ
##ų
##ѣ
##ћ
##म
##©
##ţ
ე
##ე
‚
##‚
##ξ
##Ω
##न
##Ä
##Æ
##ֹ
##Ρ
##त
##Ō
##ز
##Θ
##ि
##ط
რ
##რ
##ŭ
##أ
##÷
##ն
##ֵ
ー
##ー
##ո
##®
##क
##Υ
ლ
##ლ
ン
##ン
##Η
##Φ
##ր
##ी
##व
##स
大
##大
ო
##ო
ệ
##ệ
##द
##ĕ
##خ
க
##य
ச
ს
##ს
ட
##ɛ
த
##ǎ
##^
ப
ம
山
ர
##山
##َ
##ֶ
##ׁ
##प
##Ý
##ल
##ـ
ா
ி
##Þ
ு
##ص
##ψ
≤
##≤
##є
ნ
##ნ
்
##ु
ვ
##ვ
##ի
##ņ
##¹
##ÿ
ạ
##ạ
##ɪ
##ў
##þ
←
##←
##े
ル
##ル
##ű
国
##国
##¼
##Ё
の
##の
##Ζ
##ह
##њ
中
##中
ོ
##ོ
##ւ
ร
##ร
##ग
მ
##მ
≈
##≈
##Ј
ṣ
##ṣ
##ى
♦
##♦
##ף
##غ
##ज
##ɔ
ా
##յ
##ِ
##া
##Ά
##љ
უ
##უ
თ
##თ
##ं
##்
్
ḥ
##ḥ
า
##า
ἀ
##ἀ
ར
##ར
ས
##ས
Ἀ
##Ἀ
≥
##≥
ス
##ス
##ʃ
##ʿ
##ư
市
##市
イ
##イ
##श
↔
##↔
ῖ
##ῖ
∈
##∈
ラ
##ラ
ồ
##ồ
##Ș
##ե
##ो
ბ
##ბ
♣
ರ
##♣
##ץ
ṭ
##ṭ
##ǔ
™
##™
##ǫ
##կ
##ّ
##ک
##ɑ
##ļ
ῦ
##ῦ
##¾
ế
##ế
ག
್
##ག
ἐ
##ἐ
ễ
##ễ
##À
∞
##∞
##ә
ῶ
##ῶ
##ơ
天
##天
##إ
##տ
子
##子
##Ą
リ
##リ
##Ա
♠
##♠
ク
##ク
日
##日
島
##島
##Ь
本
##本
##ŋ
道
##道
བ
##བ
##ө
დ
##დ
##ُ
น
##น
##қ
ầ
##ầ
ả
##ả
ッ
##ッ
三
##三
##Ñ
海
##海
##¡
##ब
##ך
ང
##ང
##È
མ
##མ
##ֲ
##ϊ
一
##一
##բ
##ǐ
##ħ
##մ
♥
##♥
##¬
##Ò
ト
##ト
##ئ
##پ
##ŕ
式
ර
##式
්
გ
ก
##გ
↑
##↑
ง
ხ
##ხ
ช
隊
##隊
ὶ
##ὶ
ῆ
##ῆ
ア
##ア
##च
ด
ต
##ء
ท
##ध
タ
บ
##タ
##ْ
ṇ
พ
##ṇ
##ض
ม
ย
##ү
##ʒ
ล
ว
##Ā
კ
ส
ห
##კ
อ
⇒
##⇒
ะ
ั
##ġ
州
ิ
ี
##州
##ķ
ุ
##अ
ན
เ
##ན
マ
##マ
ὐ
##ὐ
田
##田
##র
王
##王
##ʊ
文
##文
人
##人
⅓
##⅓
##ष
ộ
##ộ
上
##上
།
##ण
太
ཆ
ད
##太
པ
##ད
##भ
東
##東
ལ
南
ི
ེ
##南
##լ
##ม
ྱ
ὁ
##ὁ
ტ
##ტ
ἰ
##ἰ
ド
##ド
≡
##≡
##آ
会
##会
##ท
##ू
寺
##寺
ロ
##ロ
●
##●
##க
シ
##シ
မ
神
##神
川
##川
カ
##カ
社
##社
西
##西
##̃
##ி
##ா
##ս
ქ
ိ
##ქ
ု
##ट
##ர
█
##█
##ƒ
##্
##ʼ
်
##گ
##်
い
##い
皇
##皇
##ظ
##ི
##ེ
安
##安
明
##明
##Ə
≠
##≠
キ
##キ
##ก
##ث
北
##北
##ย
##Ξ
##Â
京
##京
ზ
##ি
##ذ
戦
##戦
##ལ
行
##行
漢
##漢
國
##國
##ђ
√
ფ
##√
##อ
金
შ
##金
ị
ძ
##ị
##͡
平
##平
ジ
##ジ
##ம
城
##城
##ิ
長
##長
高
##高
##ძ
주
##주
##เ
り
##り
##ہ
学
##学
##ʁ
空
##空
ọ
##ọ
도
##도
小
ḍ
##小
コ
##コ
Ḥ
##შ
新
##新
##ɡ
##ʾ
ナ
ṃ
##ナ
ṛ
ố
##ố
和
##和
##Έ
##த
##Қ
⅔
##⅔
##Ț
機
ấ
##機
##ี
##Հ
家
ậ
##家
法
##法
##ส
##ྱ
手
##手
オ
##オ
##ṛ
ề
艦
##艦
##พ
花
##花
ὸ
##ὸ
##Ð
フ
##フ
##ũ
##ׂ
##Õ
・
##・
한
##한
武
##武
ウ
ụ
##ウ
ủ
##ั
ứ
江
##江
木
##木
ỳ
##ง
##ɨ
##ʰ
##ủ
ἄ
##ड
##ম
ἡ
##ุ
ニ
ἱ
##ニ
##Ψ
宗
##宗
##Œ
ὰ
##ứ
ὴ
部
##部
##Ţ
##Є
し
##し
##པ
ん
##ん
↓
##↓
##ɐ
‟
チ
##チ
##Ό
公
##公
##ზ
代
##代
二
##二
生
##生
##ล
郎
##郎
野
##野
##ḍ
株
##株
♭
##♭
字
##字
名
##名
水
##水
##ќ
##ု
区
##区
##վ
##ấ
ノ
##ノ
##Љ
##ব
시
##시
김
##김
李
##李
##್
##ন
##ң
##‟
帝
##帝
十
##十
##ἡ
バ
##バ
##ĺ
##ἄ
ブ
##ブ
대
##대
##џ
林
##林
グ
##グ
##॥
##ว
地
##地
##ʲ
##چ
##්
な
##な
##บ
レ
##レ
原
##原
治
##治
語
##語
##Џ
白
##白
##ল
##།
ム
##ム
ガ
##ガ
##ṃ
龍
##龍
正
##正
##़
##ப
⋅
古
##古
る
##る
う
##う
##ғ
##ĩ
##ด
ま
##ま
선
##선
##Ḥ
町
##町
##գ
##ै
##ு
##ะ
テ
##テ
국
##국
司
##司
五
##五
民
##民
산
##산
九
##九
少
##少
이
##이
元
##元
##Ֆ
##ὰ
##ფ
女
##女
##¢
石
##石
軍
##軍
##ὴ
プ
##プ
강
##강
##ɾ
河
##河
##Ђ
##ཆ
き
##き
조
##조
下
##下
##¥
四
##四
##ậ
##ে
立
##立
##ụ
み
##み
##¿
##΄
사
##사
兵
##兵
お
か
が
ィ
##ィ
佐
##佐
##ช
メ
##メ
ゴ
##ゴ
##Ū
##ख
航
##航
##आ
##ರ
##դ
##ச
##Ô
た
ュ
##ュ
村
##村
パ
##パ
##ட
風
と
##風
ダ
##ダ
##た
##ỳ
方
##方
##⋅
心
##心
##か
門
##門
##Ħ
##ต
##ห
##が
政
##政
吉
##吉
周
##周
##थ
##ề
仁
##仁
松
##松
##お
##ර
##ἱ
省
##省
月
##月
時
##時
県
##県
ハ
##ハ
モ
##モ
ケ
##ケ
##ɣ
##զ
氏
##氏
##Ө
##ृ
##প
##ా
##ိ
成
##成
##と
合
##合
音
##音
##ɲ
##ক
信
##信
##్
##Ս
##မ
##ie
##st
##ch
##ни
##an
##ст
##en
##on
##ра
на
##ra
##ow
##то
po
##sk
##ов
##ен
##ro
##та
##al
##er
##ре
na
##ри
##ni
##ov
##ли
##на
##ze
##ar
##но
##те
##ва
##ní
##le
##at
по
##in
##ро
##or
##ск
##la
##cz
je
##ce
##li
##em
##ou
##od
##ла
do
##ak
##ле
19
##ał
##ci
##ti
##zy
##ku
ro
##ad
за
pr
##ec
##ти
##да
##ка
##mi
st
от
##ер
##go
##na
se
##ej
##ци
##ди
za
##ho
##ka
##ет
##ed
##го
##no
##ло
##el
ко
##ów
##ol
##ан
20
##ny
##во
##ени
##ię
by
##nie
##ко
##ль
##ви
##it
##et
##il
##ми
##ны
př
се
##je
pro
##ia
##tion
od
пре
##es
Sec
Section
##ck
##ски
##sz
ob
##om
##ма
##ru
##ně
не
##zi
##ne
##не
го
wy
kt
##ор
ра
из
##си
про
##ки
##ty
##ry
##ob
##га
##ова
до
##ud
##ek
##ých
##as
##cj
##де
##ру
##to
##ся
##сти
##aj
prze
pod
##ля
##po
##tu
##ър
##am
się
##lo
со
об
##ме
##по
##ran
##ist
##ве
##is
##че
##зи
##iej
##cy
ка
при
##ost
##ть
##ско
##ча
##ния
##ské
200
##rá
vy
##ła
##мо
##ki
##па
##ko
roku
##ści
##ier
##ski
##за
##dy
##os
##ста
##ta
##wi
##ych
##mu
ре
##owan
##ší
##wa
##он
##re
##чи
##dz
jak
##sta
ne
##ení
##ub
##cí
##ach
##ска
##об
во
##ky
##ар
##ду
##cie
##се
##ří
##né
##ym
##ги
##пи
##ot
roz
nie
##vě
18
201
##ło
##rze
##ров
##oj
са
##бо
jed
##сто
##by
##du
##si
да
съ
sp
re
##ем
kter
##лу
##ová
##ut
tak
##ech
##ща
##ego
##gi
де
что
##ак
##id
##ál
##щи
раз
byl
##ent
##op
си
in
##ali
cz
##cji
##ur
kon
##un
jako
то
##лед
##мен
##jí
##же
##ją
##ca
##ние
##ство
199
##nia
##wie
##би
##czy
По
##raz
Po
ve
##sti
##nych
##ши
##skie
##ден
##ez
##ение
##са
##ту
##us
##ové
##lá
zá
##пе
под
##im
##vá
##ść
##um
##ná
##kt
któ
##ово
to
##ała
ме
##uje
##va
##za
##ým
ná
##ще
##ъл
ми
##жи
pow
##ств
##ран
те
##ich
##лен
Na
##vní
pra
##ví
##ку
##ul
##cze
##ения
vý
##00
##de
##гра
мо
##rod
пред
##ната
##bo
##up
##ция
St
ма
##ните
roce
przy
##ного
mo
##ос
##kow
вы
##ры
##ове
##ły
##ani
##mě
##ят
##ной
бы
jest
##ции
##жа
##до
##szy
##ных
ko
ch
##ick
##tě
На
##rzy
##sp
##iem
##ina
os
##ró
##oval
##da
##сь
##dě
##хо
##фи
##ok
##ého
##ają
##zie
##ну
sv
op
##wo
##nej
пе
te
##ře
##fi
ста
##ży
mě
##тель
##át
##lu
ok
че
li
##zen
przez
##ът
##kon
##ska
##era
##łu
##iejs
wie
##nik
##iv
##lov
##рия
##ря
zost
##ей
##ap
##mie
##ства
##ji
##тра
##rov
##owi
##ma
##ri
##тел
##ур
##ник
##skiego
##zna
годи
##sto
##ня
pří
lat
##nego
##ron
##iny
##te
spo
##ца
##chod
##rz
miejs
let
##ба
##пу
##niej
15
это
##sa
като
ně
но
##lad
##gra
##му
##ност
##ním
кото
##тов
sk
ин
##ови
Пре
##ład
през
##and
##ale
##ев
ty
##lem
##ží
při
před
сооб
##nym
##ена
17
##sze
##ват
Ch
##из
##ół
##wó
##owo
##ana
##res
197
##ala
##ване
##она
кон
му
##mo
##ało
##owa
##ba
##ev
##ną
oraz
##лю
194
ли
##ský
že
въ
гра
##осси
ком
##ona
##ycz
пра
бо
sz
##nost
198
##pra
##ních
##tí
##sou
16
sou
##pad
##ém
ze
ви
##ше
##że
##ter
10
##ii
##ga
de
mi
##ania
dru
##dzi
##aw
##est
ве
##owy
##ři
##vo
12
##ръ
##ný
Pol
nej
##ют
##bi
##ast
##ara
##со
##ред
##my
##gu
byla
##ные
##ется
ос
##ęp
ча
##нов
##бе
##став
mu
##av
##led
ale
##жда
##pi
##mí
sy
##že
##len
gm
##ały
сво
Ка
##ony
вре
##ный
##nu
##owej
##sy
##any
##вер
##skiej
miejsc
къ
##stęp
jsou
##men
##ského
##skim
vz
##owie
##ты
##про
vě
##ската
zna
14
jeho
kom
##нии
##anie
##ал
An
##vy
Mar
года
13
sam
poz
##ly
##пра
##wy
##bě
##ing
##след
##тив
##ční
##olo
Od
##ství
II
ar
##ето
##vod
##уд
##ena
##vět
##ká
##гу
##чен
##ole
##he
година
nad
##ierw
##sko
##lan
196
##ент
##ab
zd
##nou
##ке
##ков
##ской
##az
##ным
##ím
##кра
vš
##ował
rod
##кто
##dzie
ji
##дин
Fran
та
##lou
фи
jej
który
##чески
##czą
##ir
##owych
##кт
ро
##ności
сообща
11
##owe
##су
193
##cyj
За
През
km
бе
nebo
wz
##istor
##rop
an
##йски
##ská
##lí
##ęd
па
##ají
le
Ко
který
mí
##alo
které
##це
##нски
##стан
##zí
##bu
##art
##oru
##ности
##řed
##бли
##ствен
si
Ма
nap
##пре
##ic
##enie
##ory
naj
##ního
że
co
##ского
##ълга
##kov
след
##stav
In
195
##ard
##кс
##тер
for
##аз
##one
##ków
był
Je
##zą
##ane
стра
##стра
##дер
##ků
##дна
##ers
pot
так
##зна
##oh
Росси
##chá
pop
##nosti
##ery
tra
##ště
pou
##ха
##ských
##enia
##ují
##зва
кра
##čí
##ád
také
Ми
##лож
##ление
ди
дол
ру
##ном
##cja
##skich
latach
##тели
полу
##лав
##stra
##kou
##ezi
Ro
został
би
or
Pod
##ują
##жду
##atel
##lav
cel
##ja
##ada
##ice
##nika
ав
##nak
192
##вър
которы
až
##ono
##ag
жи
##стви
##oje
##яви
##ných
пере
bud
##ate
##лей
##рова
##зу
##uch
дру
są
##for
##нг
mie
##jší
рас
##мер
##сте
če
##raj
pierw
ор
##hy
##пол
рабо
су
##ено
##gl
##án
##сту
##ew
##ша
##stup
woj
##ct
##лия
191
ни
ni
пи
##мя
zak
пров
##каза
##стави
dal
##ене
pů
##se
##дно
##iu
##eck
сто
част
##dzt
jego
fil
##сле
##sob
30
##owego
al
##ката
pol
bylo
То
##val
##ha
##зо
czę
##ór
##sku
pa
##ób
##wor
##ман
Pro
Pra
##ato
##ování
dzi
Мо
tym
##cia
##ant
##łów
##iego
##kem
##лли
##row
##ąz
его
##ubli
этом
##стоя
пла
##klad
##фор
или
сообщает
vel
##ve
##вя
Об
##ojewó
ст
pos
Ar
Al
##hu
##leč
##вет
poli
naz
слу
##eri
dzie
bez
jedno
gru
čá
##iel
##mé
##koli
##ovan
##цен
wojewó
##onie
##циа
sku
##lub
уча
##лся
все
##ber
##hod
miejscowo
té
##žen
##unk
dla
как
czas
произ
око
##ep
rep
ost
przed
první
Со
gmin
##бы
им
##erv
Wy
##sza
##ин
само
##bie
для
By
##ел
##вы
##пор
##dá
##sty
##ców
##cké
##ální
stan
##kaz
##eb
##uk
##aty
lub
##ově
województ
има
поли
##cích
ak
także
rów
##wię
bi
která
##прав
##бу
##žit
ot
##рика
##ито
##zem
##мы
гру
##stwa
##ното
нача
##aro
##лов
list
хо
##ды
##czas
##owany
воз
Do
Ви
##ver
##хи
par
##szcz
bý
това
##ili
##erw
##cen
##ort
##rů
##lin
##oby
met
##клю
##зда
zem
##ovat
милли
ut
Ob
##вши
Ko
пар
##last
kole
25
##rad
##чни
##рен
также
##ależ
##lat
ad
ак
##łoż
##rat
пър
най
##ходи
##rom
##ек
##зиден
##гани
##рат
##ром
ис
##що
##ami
##gani
##ług
kdy
##sky
letech
##cję
России
он
##цион
##рой
##ari
между
##eč
##ary
Ma
ma
вой
##ването
które
##ady
druh
Па
ten
##род
##вест
##ję
сре
##zd
krá
stud
##гов
##las
##тор
Sz
##ться
##ati
##ята
kde
##ън
##ový
zp
##olu
##ierz
ар
##ále
##ano
##лото
czy
##się
Le
##vr
##зы
Са
##oni
##лко
##гла
##ное
am
##onu
Če
##anych
##pod
##pis
##ova
tr
##лова
##nice
##ври
však
##pu
dě
##cu
mezi
##йто
##ge
##rę
към
##лись
##so
##edy
další
##вро
При
компа
The
които
##ника
znaj
##áv
##owym
Li
##ąd
##ане
bar
##ilo
##kań
##ata
около
##owania
zde
byly
mia
wsp
##niu
году
ur
##бор
##II
poł
okres
##pa
aut
заяви
вла
##ении
##oł
##roj
má
stole
Mi
##nież
świ
##лан
prac
##бря
ter
##bud
##gen
ус
##su
был
който
##ách
##ная
##ления
дан
století
##wod
чи
##tor
Ме
##sią
Ин
##rani
##ových
Бо
##cą
##zu
##cych
##при
прави
##red
##жен
společ
ří
pat
##ność
we
##ството
již
##сно
zn
##war
##ую
##ун
пер
##мира
ví
##wiąz
##czne
##рии
mod
Та
ку
##kład
##rem
21
jednak
##дар
##мерика
тре
##ний
##uż
##ila
##ól
##ход
обра
##eł
##зе
##ью
##ného
президен
##тия
##лось
##им
tě
##ené
##lé
##пера
miejscowość
##ową
również
22
##edług
##нима
въз
##man
##ologi
##eny
ба
##pie
време
Mo
190
2010
##stí
Re
##bí
##chází
##мет
ле
От
##cer
wię
##рата
##ято
histor
pi
Ан
органи
Ро
##liv
regi
##ými
##skou
##leg
##ългар
##bor
##ския
kap
##ród
##ero
ka
kraj
powie
##овы
##mini
##тся
##чно
буд
2011
Sp
##ig
##sce
##cznie
##den
обла
funk
##вата
други
dv
oby
syst
бу
dy
##теля
След
##ické
1998
ки
24
будет
##tick
##sie
##má
zač
##стран
Из
##сс
zw
##co
##sled
wzgl
##inu
dí
Za
##há
Kon
ry
##чва
Ки
##dzy
##нист
във
##kter
##zn
дей
тя
##rál
##py
##яв
росси
##ům
##cznych
##kie
##hem
mat
##ele
2006
mno
##ody
##kol
##ruk
osób
##še
tego
Kar
##nict
##дения
время
##лове
2009
červ
##ву
мар
##ką
##ís
##ět
##rob
##loven
její
Prze
své
lud
Ба
2008
zap
Ре
##ském
##фия
Polsce
##kiem
sil
##лько
či
pře
##зова
##ците
prá
Histor
ży
##логи
położ
над
##ную
23
процен
##lit
stran
2007
ved
спе
##ment
miesz
град
##stě
ozna
Jed
##шен
##тен
ня
skup
пол
До
War
Ра
##ral
##ście
##rav
##owane
воен
aby
##публи
три
kil
фон
##dział
##dí
##ари
znajdu
##шение
##нали
obec
##ге
##rowad
souč
Ве
zí
##ším
głów
ду
była
##atu
ex
zv
należ
слова
##oup
##kę
Ни
Ру
све
##ovala
##руд
lid
Pa
##ovi
organi
tu
of
Ли
sez
##nię
wieku
##iz
##ково
cí
##циона
##ющи
много
##ява
##лага
##ław
Во
vět
##št
##iędzy
##bli
Не
Си
##lavní
##cem
##рак
##nit
после
##ději
Bo
##ministra
##стро
##пер
##форма
##сен
gen
Ve
##ód
же
něm
Как
##бра
##óź
авто
##ust
сред
##zv
pomo
лет
##owanie
исто
kul
##анд
mar
челове
##стре
Те
##nější
rok
извест
##ině
##ien
prů
##vatel
28
klub
50
Jan
2012
##graf
##чение
zes
rze
##рите
##let
Моск
отме
##вен
##ord
послед
go
##arzy
##onych
##ksz
представи
##szych
##czę
nich
produ
##ovou
##ком
og
następ
živ
zm
Pr
##cza
proto
##ското
přes
jejich
pak
maj
formu
kont
26
Am
##omu
##нова
од
odp
##čení
долла
sie
были
##ity
която
##цию
##лиза
prost
dob
##фе
##nem
##di
объ
того
listop
rodz
##zemí
vál
osob
27
2004
administra
##том
зна
##cząt
##коно
със
##ября
US
2005
##íd
mal
Раз
##лет
189
##lko
##цията
пу
години
Ва
##cje
тер
българ
Według
##от
##lick
ci
##ným
##oz
заявил
##jící
##adu
skład
##prav
##ность
##рита
##ys
##ců
което
kró
##tá
dział
1990
jin
dost
америка
##ържа
##znam
několi
##тре
kolej
powst
##рон
tur
един
prow
wyd
##kry
##ША
США
##три
име
два
##сы
2014
kor
##ké
pon
##lep
##owano
mist
at
so
##stą
отк
##bur
той
svět
##ik
##łon
##ár
словам
stanowi
глав
##ierzch
##nymi
##ton
##óźniej
##lekt
být
jen
##лась
##йн
Cz
poj
##сть
też
star
Би
резу
##nes
##мата
Eu
##th
Ха
##жение
##ef
вто
Дж
##рито
##кон
sw
Br
##кой
##vé
ты
získ
##jev
##писа
kla
##ству
dů
Ди
##дов
##циаль
miejscu
##ут
изда
poč
člen
##pl
2013
##ников
Але
Се
##wia
##чки
fin
##ner
##жет
##ans
##ového
km²
##ník
##ską
proti
##orem
została
##itu
pół
ru
тыся
вер
##бер
##мей
stal
прове
licz
##ám
было
##гда
##ният
##днако
##prowad
1975
##тин
zamie
##ela
lit
##ován
vys
##ved
##станов
war
podob
##nosi
##rch
полити
vlá
formula
ho
##les
Съ
##řen
##нес
000
##простран
чет
względ
Jak
Bi
запо
##tem
##ecz
##czył
swo
obyvatel
formula_
##телей
##съ
dom
##ней
информа
bě
спо
##кре
Sa
fran
##rą
ich
2000
##полож
##óż
Nie
##ению
kar
29
187
188
##мите
stav
##ając
##noc
##ская
podle
między
##шения
##łod
##рио
wi
офи
bo
części
##nienia
##szyst
##eli
Ку
##ńst
ти
występ
40
##ření
Uni
##zení
##ган
##mys
zach
##сов
##рез
později
##лее
nem
##onal
##ńskiego
##лно
##rzym
теле
Ka
moż
jeden
obd
организа
Ji
##ané
##ników
území
##tury
##byt
##ван
mů
##miast
##oto
vlast
uży
##мина
Ná
##aniu
kan
##arz
##мента
použí
Op
долларов
##chodzi
gra
##ский
##waż
##бур
##ските
##ются
##owana
##ącz
původ
31
sm
##če
##вод
ад
rad
III
##сия
##чита
100
##itel
pan
##szym
##краи
względem
gdzie
##gie
##ęt
później
оста
##ýchod
Or
Ар
komp
film
##cej
část
wieś
##vrop
hod
получи
##жно
praw
##тата
аг
##труд
rozpo
##ради
##пла
##spě
фор
ang
než
##тро
bra
##do
##nist
Ně
##ským
##žení
powiecie
##kach
nato
##rot
##skup
##мент
##пад
##niku
Мак
рай
##eni
##анее
##мени
право
##ставля
zamiesz
##чава
разли
##нистра
2002
zah
##ском
kam
без
toho
było
##nek
вз
##ces
том
##rab
##лни
elekt
тех
##hl
##oli
##дата
##рабо
реги
plan
administracyj
##ující
няко
Par
##cznej
wł
##zenia
##azy
##ont
repre
##emi
##ence
который
##селение
##зыва
##au
Бе
##kami
##пы
##řej
##ники
##ными
związ
##дут
cent
Про
im
##mier
Кон
města
svě
##говор
Евро
województwie
2001
отно
ní
arch
hlavní
Sch
Бълга
stát
уже
яв
Пе
##раз
сообщи
gmina
położona
rů
voj
ostat
sta
prav
гла
##огра
##osti
XI
wszyst
помо
syn
сов
vol
vyt
##wał
##yd
ke
wynosi
##poj
ию
kol
##śród
##тил
##ński
##чна
##ospod
Де
##ките
##ler
##пис
управ
jednot
България
Ber
изпол
zat
di
уби
##zw
60
##stan
kat
минист
##онов
мест
##vi
hrá
##rodní
##ily
##szą
свя
##ání
byli
zalo
Stan
tej
##alist
powierzch
##řel
Pi
zas
първи
##ций
Ad
cy
##ine
##aliz
боль
##stąpi
вид
век
##дера
которые
##sah
##lek
ned
##кти
##ступ
vznik
##fa
Wil
их
##гово
##vají
основ
##gor
##rej
##рово
tech
zná
член
míst
##ян
##omi
danych
него
##ži
2003
Вла
186
лю
##цу
вклю
##лата
##kra
##čen
##ida
##wier
##der
##сите
семей
##nick
Ос
##мври
##тери
USA
##дом
##owała
##iec
Ге
##бре
##ęzy
человек
##rost
były
две
miejsce
##реди
progra
##цы
##iná
общи
##of
##лин
části
pouze
##our
##стов
##ang
róż
##bum
czerw
става
фина
##cháze
##cześ
2015
##eniu
##пъл
##льта
##вар
плани
střed
##кла
##odu
##děl
med
##кан
nep
##wiet
##мия
##aly
vyh
##lik
době
##či
##kiw
##cego
czasie
##бира
Pet
ва
##ых
##сни
##łuż
##мь
##ений
kie
Ла
Мар
##дена
учи
##son
dod
##omo
úč
##зия
уни
##дия
##ствия
XV
przeci
##říklad
mieszkań
##czny
wrze
Bar
живо
Ty
##ници
##sch
La
dokon
голя
Лу
począt
může
##ним
##ктор
Да
авгу
gminie
тур
působ
inter
ov
явля
##jed
led
руб
край
prof
##wór
##чина
Ru
це
všech
spoj
zal
##tr
republi
тысяч
która
газ
##inou
nau
Фран
mas
Той
80
##wal
Sy
województwa
##ować
wrześ
##ora
##fika
##nut
##лна
пока
Ново
##qu
##нию
май
##cin
Украи
##сли
##struk
##łos
dep
zdoby
може
##kich
бли
##žel
обе
##szej
##тура
##imo
lé
##ůsob
село
miasta
##стве
chara
ofi
##тите
New
##йки
##сси
Vy
bardz
цен
чем
ta
##50
měst
пло
Mu
zam
Wie
Го
tele
Kra
stej
##forma
##god
##рий
бан
кар
Га
por
proje
##zenie
более
cał
świat
##нето
##телно
##рав
pl
##kowo
##ciu
данным
##jem
тем
##преде
переда
##дето
spra
##gn
##седа
побе
##stoup
her
##obie
para
kra
компании
##щен
podczas
Joh
##следова
обви
фев
kost
##ских
współ
prowad
Zá
Roz
прод
##върш
също
участи
Lu
##chy
##tiv
обще
##roz
více
##ък
Nej
Ста
no
Wiel
##etu
Rad
stá
dvou
игра
##pły
##wer
Niem
##kla
natomiast
hud
##hou
sr
Francji
##ень
ок
груп
ves
##tk
tam
vyu
##me
##ността
##staw
stycz
Ten
##skos
##šení
on
této
stron
##eří
##bit
ново
##van
##roni
разви
čty
##ństwa
produk
служ
##зан
květ
##ěl
pros
Te
опера
агент
sch
висо
результа
tem
Vý
##ována
бъ
##щата
преди
##ind
organiza
dva
Ju
##stycz
##пас
mož
##lim
свои
##šen
миллиар
##рес
##aru
##tał
To
już
цент
wal
1945
pís
перио
##ема
сай
##lasti
##cou
Фи
Ja
ist
##kim
fir
stos
##ností
##zná
##fer
70
zaj
rek
Naj
gdy
##amen
##лище
##ráv
##žil
против
obdob
##ница
człon
tylko
ek
posi
##ném
např
Пър
komu
##дение
была
And
##ckiego
Ak
wład
niemie
##we
##ристи
posta
čas
połud
języ
postav
##судар
##бург
където
##твер
кри
##гато
br
amer
##вор
Au
ani
Europ
##lą
##cją
##řet
##žně
##čit
##nd
2016
създа
być
znajduje
##vý
##тии
ту
##cznego
##czes
když
##cha
##vání
zało
několik
##skosloven
des
##rou
tvo
##ември
неско
##kar
област
##hi
och
##рован
##утбо
##olí
ps
##ména
##szcze
##řez
uni
dow
Jeho
сотруд
du
powierzchni
sever
Jos
##министра
Mich
ее
dlou
##кономи
случа
работа
zespo
1999
Алекс
война
##дель
государ
velmi
##ovní
##cki
##жения
Ав
publi
еще
##дей
##зира
суд
##кова
regionie
национа
Ba
##ince
прода
##ствие
##reś
trze
De
##koło
mus
поз
вър
polity
призна
##rac
##дж
kultu
##ický
První
pozost
##ret
kni
##ził
##тни
##шего
##цев
##ten
zamieszkiw
которо
Evrop
##ren
##dzier
##мож
Przy
Ge
##schod
bit
##руп
należała
##ář
мя
гражда
##смо
этого
##nil
##лект
wojny
up
##вой
mieszkańców
Ros
což
както
##rie
przeciw
##ros
Ле
##mieni
##sed
##роме
##orzy
wsi
дву
##rát
##yw
##eg
кла
##чения
kry
##cią
například
##tów
##поль
##łości
někter
##стров
процентов
дви
Пи
##лы
##ium
součas
##ell
##cym
части
иг
umě
wykon
път
##vin
sty
##сла
lip
sier
případ
##nicy
90
##гат
div
##ża
##nic
hra
##ín
##rum
lok
Александ
Sam
##пен
zb
##ledu
dw
tv
album
правитель
růz
hor
grud
nazw
##ęsto
##vat
##ździer
##циал
dne
##вший
хи
долж
význam
##pe
my
měl
pre
##ety
Polski
основа
##ква
футбо
##gry
##спе
Гер
##слу
mają
Ra
##voj
пов
184
wśród
tedy
##měr
##льных
##ond
może
tři
##io
дъл
uli
будут
##точ
boj
##chu
##ремен
##her
##žd
větš
##оне
##дет
vod
paździer
##держа
##land
lo
пове
nachází
##stwo
už
zar
tom
východ
##ktor
období
този
Ал
##lez
depart
system
śred
вси
##ложи
##tivní
##łę
##лови
##ita
созда
##sí
##нет
##тур
Хо
##oń
sze
##jąc
dvě
##мпи
##льной
mili
asi
##nii
gminę
##čně
рублей
Влади
счита
евро
nes
##hled
##tora
##ография
##lii
cze
##дел
##порт
której
##nku
sierp
##lád
##енера
##ат
którym
##ecké
pas
##оби
##едера
##рията
zab
##чер
Pierw
##adem
prob
których
президент
##stawi
rov
ol
##ełni
##šlo
września
##iera
koń
##cent
objev
горо
##šší
##рук
dub
##zji
tří
obs
интер
##мир
##gy
##šel
administracyjnie
ран
##br
##льного
slou
##ток
dol
##ect
##пита
##čil
tran
##овете
защи
##evším
vrch
бор
только
pom
започва
процента
##kle
##ńskiej
muzy
##tyw
##mian
Lud
##omet
ještě
północ
##couz
Narod
##ъм
##usz
Интер
##ząd
Jest
##mit
ra
##нение
stat
может
cho
##анди
##ram
np
základ
##end
##eno
они
stop
##zra
страны
##ste
##tura
##gą
Sou
##inie
Ри
стро
##sá
##ъж
zad
##čet
pap
około
způsob
заяв
##ИА
Ne
##té
##щу
##ác
##pan
##лом
wła
##nat
rozhod
Вели
západ
##нер
##sł
zachod
##ore
##лено
obce
především
##народ
програ
късно
Ol
##мена
##мати
##jął
Jej
profes
Něm
##bior
##alu
##вали
ludności
ше
##пада
##lon
находи
ud
##owanych
##пар
соб
##gii
##оз
##дол
##ekt
неза
Пу
##ular
##чени
тях
Су
kwiet
##роны
##версите
##ických
Све
wraz
##они
typ
##держ
##eru
РФ
##fii
1992
приня
35
опреде
cest
га
pły
He
фа
představ
udział
##ovu
##kové
##тар
однако
ал
систе
biskup
##нен
##int
края
zwy
pierwszy
man
произо
поч
Star
Кар
##вать
дости
##tych
Бу
zast
финан
Кроме
уда
група
##нал
Новости
Че
эти
vá
září
Ost
ла
##gól
##aliza
##vol
президента
břez
Ти
ри
##kud
##ft
##átku
1997
země
руково
##лена
zawod
sym
##anii
us
российски
kteří
още
така
##фа
##ху
##нието
cią
##кола
ха
ско
Tur
миллионов
XX
##ńskim
říj
Se
nez
##sem
staro
една
##кар
##niki
ab
násled
1996
##тира
##нения
Сев
##prac
Bu
##мон
##ких
oblasti
##tok
место
##тат
##czna
rak
##min
##ранс
the
##ответ
пор
##šť
Woj
część
население
min
##syt
sí
является
války
fak
##ff
Be
stycznia
Sta
Historie
druhé
##гови
##ograf
жур
nah
wynosiła
##nich
##zysk
##ion
Пред
РИА
Gu
използва
##pas
##виа
reprezen
smr
Между
##tal
##ье
##тно
kości
##wem
##ůst
1991
##рази
##ках
svého
обо
##kty
politi
##ená
##прави
участ
umo
##ovy
##form
##nění
au
utwor
согла
włas
чтобы
##нием
ези
ан
##wan
##szego
режи
tzv
typu
##asto
##til
pam
##вели
Roku
##cię
голе
##ckim
śmier
Он
##тера
##owarzy
tý
Mat
##дени
powi
Сер
Bud
##20
Ży
trzy
Mal
фил
mm
kv
##opis
##ští
##rach
pozi
okreś
##róż
##ститу
zakoń
държа
##nutí
##und
##važ
##fin
американски
Car
##nim
нау
rych
##ниче
##дът
##erou
рес
Historia
není
##вания
během
Север
##вършва
##gin
##лаго
Tak
1994
Wal
San
##čka
spol
##тие
otrzym
ссы
##лий
którego
души
##ležit
Dal
odby
##rów
##álu
##кото
obsz
мал
neby
##жден
##mis
změ
кор
postup
1989
##ędu
znajdują
##nicz
Bra
rej
swoj
всички
slu
miał
można
намира
##rist
##рин
součá
czerwca
россий
##ré
##bal
tytu
##cka
връ
спи
##iemi
##pij
##losti
innych
##ступи
##ích
##nikiem
##hla
##ula
##czenie
комп
##nią
##star
##siąż
публи
##ček
##zev
##лите
smě
jmé
##джи
##хов
Vel
gminy
brat
##бора
място
środ
син
Mon
фак
vyd
##verz
##юз
ръ
##per
Ha
dwa
##ърт
##atolick
##rzost
183
IV
##бле
##řil
##щер
##ejména
дъ
Пет
продъл
##nými
grudnia
pě
Въ
Jana
пр
vytvo
wyk
##рей
##над
##lex
##tek
экс
##szaw
opera
результате
jedy
решение
město
1939
##ke
##дор
##entu
занима
##arié
místo
##ením
##ši
cm
ша
získal
##тельно
оп
informa
pla
liczby
дека
velk
##полага
срещу
francouz
##чат
##рая
##ovali
wyb
maja
##кта
Маке
miejscowości
##czenia
obchod
##zię
patří
škol
компания
Obec
##ново
##ości
доку
администра
##ствова
##ované
1995
##ospodar
posled
несколько
##пози
zalud
##řad
##stru
цър
twor
Ранее
prostřed
poprze
lod
ha
##ovým
клу
##eral
Разпростран
##pol
##сков
gęsto
##be
Кра
mají
##daw
##шел
tím
##виси
селото
##esti
185
ги
##бан
Warsza
##oma
##стъ
необ
dwó
jí
##mín
Ком
##aż
проце
szko
##ото
srp
svou
##ktu
##фер
České
##enu
##elem
##więk
bu
##дон
гово
departamen
rol
назва
##пан
американ
##erykań
##работ
##стри
пресс
дире
поги
1993
##лон
Му
помощ
семейство
български
##nici
dro
Her
##ckiej
##nicze
zejména
##říd
We
Rob
награ
koncer
##itul
##arze
##esz
čt
##кри
##cił
области
кни
##ługo
października
poté
bardzo
##чь
##ис
zaludnienia
когато
##kiej
##ващи
księ
кора
1944
оби
život
##anu
następnie
##ера
miasto
##álně
přek
##chodzą
##gh
##erem
##дат
няколко
ге
##eta
##vis
Os
sierpnia
##stytu
ku
slov
проек
##вобо
jazy
настоя
okrę
marca
ode
##ил
##wersyt
raz
##zá
##рам
##ръг
Bě
Jako
pis
бъде
##ická
osoby
мет
исполь
чер
##tis
Th
##чка
##pt
##bar
wod
##ota
##ill
сент
##ator
často
##cznym
Sk
mimo
systém
##dent
##едно
светов
##orm
ян
swoje
##dej
официаль
listopadu
32
террито
niż
kop
ponad
form
autor
##gro
##vu
dem
##olog
Pot
успе
##ьо
lipca
началото
duż
XIX
говори
Ok
##ген
králov
##owski
wschod
przypad
szy
##ета
университе
36
Пер
skupiny
##бро
2017
spolu
Ben
Był
stra
departamencie
něj
##лкой
přev
doby
##śli
##ляр
##alne
##ęż
##веро
mon
kraju
##дела
síd
181
##кры
##пте
Sh
##oun
##хра
##лек
dwóch
kterou
##зон
ло
Pow
Все
##емы
власти
sport
##ších
poh
##води
##zku
ver
##тий
север
##ostat
##řes
один
lut
tych
Сан
##kdy
Jego
##onej
##слав
nim
состоя
##zb
##щее
foto
отмеча
##él
Mor
##eci
Com
Při
##вал
Dol
запа
tohoto
вече
okresie
##łą
nás
##цер
rost
##ino
ци
post
materi
##вших
янва
Pan
##дри
##tel
##onym
Cent
##фак
Спо
kwietnia
ge
##ovány
##wój
urz
##ation
столи
##ość
##oc
##enci
wojsk
##чу
##тора
arty
##lán
##žní
власт
45
ссылкой
wiel
##чин
##ger
Исто
reprezenta
##лната
Герма
sł
##ское
##tra
Kor
jednost
##ские
обя
##ената
##руга
##шей
##рев
Mist
XVI
##публика
pomi
##kości
окт
boh
dalších
дома
позво
##ených
##liš
vů
Ta
пя
##oty
narod
##цата
##сса
сообщил
les
slo
oś
##praw
południ
litera
##един
##zent
##gran
##żu
každ
##zer
úspě
##rus
##ění
##ista
szcze
##koń
gęstość
##лета
grupy
terenie
Йо
##pół
##ените
polov
страна
sek
##льно
ху
umí
listopada
mał
daw
wers
##tar
społ
##rek
Украины
##kro
##ického
Podle
##ać
Pří
##ческой
тор
sed
мили
##ческа
charakter
ře
##лист
##zek
##мит
##alnych
##pr
gran
##ęg
##щения
##zm
čís
##jedno
So
остров
též
Но
Dru
##прия
жители
##elu
##gan
постав
provo
As
zostały
##ując
пос
Har
ją
##ружи
fi
pá
wyso
##сказа
##čky
##ovalo
##okra
##ovaly
lze
pal
##atun
##dł
##mii
hudeb
ba
##kan
##дите
zamieszkiwało
##čních
Ex
archit
##tyj
seri
33
поя
far
zni
žád
##нению
św
skon
##gryw
Lit
180
Wi
##něž
##čast
amerykań
vydá
##ału
река
##тя
февра
odpowie
ради
участие
Так
##ława
čin
##ismu
##roje
obsah
##ens
karié
světa
Kan
##rní
##моби
ast
##ших
##nęt
wielu
fot
заме
жен
##car
##cjon
тър
назна
##oną
planet
##ému
pozy
kr
##czną
##liwo
##rew
císa
##льный
##туа
##ństw
##дели
Josef
сказа
soci
##eň
głównie
##щего
##гут
разполож
národ
##ору
książ
##ává
býval
##ův
Kat
установ
##net
чу
транс
##чет
мно
##птември
апре
Ab
nos
##ecy
необходи
брита
##kách
Go
pu
##ováno
Mě
per
500
Интерфак
аре
En
мат
Byl
##kiego
května
##níků
Македо
ря
##щение
##któ
##apon
##aniem
##ckich
разме
##lost
pie
##stu
##строй
которая
новы
Анд
##цо
##bách
historii
Ита
lot
pił
zákon
parla
София
##грани
##пом
посе
Rep
Kom
teor
##prowadz
pię
дела
вопро
Однако
##ciej
##str
program
##ládá
Bry
##зд
кило
ры
##ovém
označ
Това
генера
##těz
Du
posiad
##odz
##tev
она
vysok
повече
Me
чрез
Hol
двух
которых
авиа
##owskiego
##konomi
##měř
For
##нача
teh
##ld
##ung
##каз
úd
##jawi
strany
większ
##zięki
СА
Af
##lej
##rud
где
##mar
гу
##cześniej
mor
doku
Ang
##менти
##пания
##държа
##oła
ши
uzysk
заедно
##onego
34
Inter
сер
инте
Ku
##muje
##cím
wykorzy
mecz
##owały
konce
největ
##owali
těch
filmu
##szech
##ůj
##ówczas
##bou
##romě
##SR
##nov
##lech
прош
##СС
początku
At
##ланд
titul
контро
soutě
obie
stani
Според
##por
Ло
##řád
##sal
spis
свобо
října
sva
Юж
Man
##дава
##tym
##зии
zápas
protože
młod
##вает
gospodar
##oda
Dy
##бова
využí
##ert
##ческих
tomu
światowej
Pos
oblast
председа
##cach
##jący
Hen
Ed
##кия
##grał
Spo
##erii
Это
ще
##шении
иск
właści
##али
ог
1980
##пло
Ry
men
lutego
стан
każ
##nout
тази
парла
##tiš
тези
получава
działa
Биография
##odob
##ające
неф
проду
Никола
##вшего
zawie
tzw
Сто
##zym
Ду
##80
день
##сил
сбор
vlastní
##íl
зем
см
měla
##тина
Геор
Praze
Dav
нару
##овата
##gar
00
передает
направ
##berg
##moř
Si
sh
участва
##пуска
syna
##zyw
##зопас
názv
##крати
производ
Rze
El
##стъп
výš
значи
подоб
Da
встре
##стои
##olen
Franci
бое
minist
rám
Co
##шет
##ama
divad
произве
сте
ap
Бер
САЩ
##šem
dr
журнали
септември
la
града
dále
##stawie
представ
Kości
##ект
возмож
##žití
Col
них
Mil
##чество
автомоби
června
##неш
##woj
утвер
Gran
opět
##лем
Stud
отметил
##ace
когда
Ис
граф
##alnie
stał
znám
##zal
##менно
##lice
##stal
wpły
##pozy
##encji
Чер
##ley
чемпи
exist
##nienie
spraw
убий
##lew
Tu
ruch
często
Гра
пъ
##kowie
Lo
znak
частности
сайте
##czyła
##ologii
##ева
179
##stąpił
wiele
března
##ający
150
##sol
##град
vo
името
преступ
музи
связи
duch
оказа
życia
##tach
##ким
poś
премь
##czął
Stanis
ram
маши
##раи
##raż
tab
polo
##ległości
Su
##ank
##ента
##ategor
##ckie
изпъл
##fik
##кин
ней
pob
dubna
Warszawie
##erní
proces
veřej
leží
импе
Českosloven
смо
##nica
ledna
mez
##соб
Lub
##inci
##сан
světové
едно
род
výro
##čan
muž
агентство
Велико
zůst
182
заклю
##čem
sztu
##ecj
##лъ
актив
коман
čtvr
##rany
##ied
univerz
ранее
třet
osią
##зер
tým
##кнов
seve
jmen
##лина
община
niem
##oro
терито
klubu
##ществу
первы
místě
сту
марта
čtyř
##stoupil
John
##stem
uved
круп
комите
vyp
##stva
##ровать
увели
závod
Македония
plas
studi
##zech
##żył
##syj
##ér
Praha
Kró
##кви
особ
##nio
společnosti
obraz
##zeni
##łem
##раст
začal
глава
##tické
##жава
##ide
##ждения
et
druży
##скую
##мат
##ствую
##ależy
Gór
##щих
анг
прин
филь
považ
##mię
součástí
Ту
##slu
Bur
czter
skute
zaś
Fer
července
##лены
##унк
##шо
##ývá
живот
##naj
and
Během
отде
samym
##насти
ucze
##ely
37
Ter
VI
##cel
##преки
několika
върху
##тон
##wią
##ступа
konstruk
1988
Hor
řek
Před
различни
матери
Дже
##rn
##ędzy
свър
програм
##tin
zespołu
lek
došlo
##тан
##тай
##ždě
быть
Uniwersyt
Миха
ener
##alny
wyp
regionu
vojen
##връ
##ająca
Char
kategor
откри
четвер
##rotnie
kilka
безопас
##lení
śmierci
##ac
архи
Mezi
##мов
##10
##станови
стать
дъщер
manžel
сле
kilku
##ктомври
##hov
##юр
##boru
naw
##волю
budy
##лит
Ша
прово
Dzie
често
##szczy
##кси
imp
rozpoczę
věd
mag
почти
свою
поль
wówczas
cie
провин
##atycz
vrá
##kl
gatun
##arza
работи
rodzaj
нари
Cho
которой
##álních
прав
показа
název
##щей
яну
мину
dek
Gen
##ръц
кул
##имо
drug
těchto
##ster
год
сентября
обна
##orf
декабря
srpna
sko
##ůli
Тур
##láš
##GC
plasuje
długo
sklad
Pop
попу
##kowej
sna
##бя
свое
roli
používá
##дра
chrá
депу
##льные
Rak
armá
##сии
siedzi
##нява
доба
ciągu
mot
которого
zmi
Zd
бю
##czeniu
##fek
##нат
##ovit
kw
##sil
пода
##лява
sprze
Živ
działal
úno
##ział
януари
ноября
##ille
Гос
##wach
имат
##берг
октомври
##гле
##бва
##овой
После
Dem
1948
##hor
##rvé
января
откры
##ному
konku
услови
центра
300
##żej
svých
dopra
##ВД
von
38
mlad
oh
август
##osen
состави
projekt
##нася
##aci
##обра
места
ходе
нем
Val
##skytu
kolem
kier
##вед
##rodz
2018
plo
jeszcze
Qu
##емо
##сова
##dop
##ian
юни
žen
##zyn
##owod
сти
##телите
миллиарда
##sek
##гия
nov
cír
##ón
совер
##wierdz
##голов
##ními
plat
юли
##ownie
##dem
volbách
##ющих
Poz
съп
1986
1970
##ые
секре
smrti
1941
ekonomi
экономи
prosince
množ
przedstawi
взры
благо
1968
дело
Krzy
Saint
проти
##ческого
Тя
терро
##ńskich
zwycię
##řilo
dni
##нира
##lach
Под
##áz
##ыре
оче
##ený
города
Sto
Bel
##гре
Jo
зе
##ph
##wać
##ková
рассказа
kos
świata
niez
##isz
##прил
##řeb
представля
##nictwa
##ající
##ologick
układ
Con
rámci
сро
178
##narod
тра
##gł
přij
Por
speci
##страда
меди
миллиона
mnoho
##нин
Интерфакс
##гли
genera
bry
rozší
ща
октября
##cześnie
##kowe
Gru
сви
##нее
информации
##стта
kiedy
kri
##ędą
##pat
elem
český
##ерт
##omb
отказа
харак
celu
jednym
граждан
##oucí
##iro
##onów
##rzu
kontro
##roveň
##pom
##og
първо
klasy
1981
подчер
wielko
kad
Rud
kieru
##lor
История
##rán
želez
март
##зар
##omie
##зов
łą
продол
psych
Pat
Ot
dat
katast
##lok
##kształ
##all
##ющий
##krač
su
организации
сообщается
##мар
##ks
дъщеря
##adzie
red
oj
стран
##вести
##něn
##ствено
##пусти
##čas
Františ
чове
proh
Per
Pl
постро
##řízení
##kowy
nr
пишет
##ством
##rąż
международ
struk
následu
tvoří
доб
organiz
otev
запре
##ницу
##ěj
ži
Mas
освобо
##ул
##nę
##кну
zostało
##enty
pomoc
zob
##ktery
##rich
##rag
##boj
##чните
##ńska
##mentu
konci
течение
мак
коми
##цией
Fin
##owaniu
Kol
виде
##rii
1918
##tami
##йския
##лии
##ających
en
##tce
##kowa
##lově
Němec
##mieszcz
mniej
##него
писа
##зват
mohou
##ологи
##nolo
bie
##czu
##ciel
ця
olym
региона
##ise
sub
##koj
език
Sal
nové
##чев
##бой
kur
##rych
води
пози
##orys
##мии
##ąt
##сло
##зом
##блю
1984
четыре
строи
1976
opis
##anej
известно
поле
##čního
Fil
километ
sob
##пит
рели
republiky
założ
Вер
díky
hlav
##роят
##kowych
этой
bad
Видът
истори
использова
należą
##arów
##anego
##хран
ноември
42
německ
април
##lém
##два
1960
založen
zespół
památ
##slav
##ecie
##grafi
Москвы
мая
wcześniej
Cel
##ением
##sób
##скому
Разпространение
##pp
кли
metrů
Ni
някои
числе
służ
дек
února
tento
vzta
niej
pochodzi
##owało
1987
##ształ
##gów
мор
##nictví
Вто
##lava
##vyšší
1985
##ází
Med
##vádě
Ор
км
Гру
потре
prezy
##хе
республи
нови
##цей
okoli
roze
używ
francu
pełni
##ňuje
Rod
##ус
запад
##rony
скоро
obecnie
##ůvod
рам
##och
##czony
Di
Георги
декември
1982
##дан
rodziny
##roc
##sen
перво
tys
1946
##hé
##rovství
пробле
přest
roś
##olf
##ější
федера
obě
составля
pochází
меся
jedna
##ностью
spolup
##łowie
pož
##держан
##leks
##кови
##вява
##зем
страната
Владимир
39
крал
Най
##aná
##zo
##ance
##obec
июля
мла
##ołnie
##лят
##ił
wyniku
смърт
##ниците
##кура
кам
jednotliv
będą
wszystkich
дво
квар
##aje
##šní
blí
##шли
##дина
tep
Jiří
1940
##роб
svůj
wspól
Met
pokrač
##mez
##nętrz
ukaz
коли
##zrael
##ложение
sposób
mistrzost
den
февраля
Sloven
čer
reprezent
##ater
##лении
подго
ну
##eniem
##szedł
Vz
##óze
reg
##dziej
##czonych
##ńskie
##еди
pomocí
jiné
##itě
##мест
##тал
##брита
Warszaw
eksp
##ссии
čtyři
##čné
stala
##гава
lata
zbud
dwie
стал
jedin
##řem
##czyn
проте
Zak
##лер
##ój
##wiad
##нала
брат
koniec
##rodu
tomto
Zem
июня
więk
1942
reak
Великобрита
1943
výraz
gór
училище
##nání
Tom
##ствени
1972
sezó
##сет
##пон
najwięk
spad
##ák
44
соответ
kilomet
##esp
##řich
věn
##реш
център
##ья
##час
##četně
##ič
My
система
профе
tex
Pres
##жество
Ser
##peč
którzy
апреля
разпростран
otrzymał
konf
##idel
##висимо
причи
opu
architek
##чели
1973
według
1983
##пример
členem
mogą
zamě
##cami
1969
pomiędzy
##рябва
##сты
подоз
Jaro
##bra
сказал
##nin
##nami
##hel
ja
##кие
specj
prowin
##циали
сезон
канди
##надле
Zost
##ham
период
##тей
##бран
účast
##skými
miała
##тить
podstaw
##anem
вме
съвет
rz
taj
##ujące
насе
##alnej
стар
okrese
polski
##телни
пострада
##фика
хра
43
##che
svat
Россия
##лния
Post
гос
ули
względu
včetně
połącz
##říve
##scy
##ward
управление
Ze
территории
všechny
1920
анти
ситуа
страни
##pos
Bor
##вно
конце
##rová
uzn
istnie
Mia
августа
služ
Tento
##туры
1938
##aku
##edera
Spoj
образова
pole
##ятся
Gra
действия
1978
##йти
Мин
худо
##дии
měsí
партии
řad
##echani
законо
ryb
1974
Лю
##фли
1979
мнению
##вил
##хва
jehož
cen
Nach
поне
niektó
##ługi
szyb
##тали
##мор
##gę
Tra
sing
##рева
##них
##háj
империя
lecz
каче
момент
lu
dnes
rodu
drá
албу
##lis
proce
##кет
##niczą
pracy
##lil
sc
Sev
jedn
##сей
Cy
принадле
Boh
##got
##tii
osad
##dopodob
Zjedno
poslan
suk
výkon
##łoń
velké
##щем
Бал
Население
съв
schop
##bą
голо
1950
Национа
linii
##лени
Fi
трябва
moc
##wit
могут
бил
ему
бло
##tů
##běh
##ństwo
Józe
##чета
своей
через
##rozen
если
75
##říž
##wyż
55
премьер
##вле
Pre
##stvo
wol
Rom
ona
европе
##odzie
нео
##žena
##idov
Naz
задержан
там
odkry
##yczaj
##rové
Podczas
tro
##вия
оба
##ряд
противо
##alaz
##paněl
университет
##лива
зако
##60
Анг
##ven
různých
lin
отбор
dop
gwia
ul
Минист
grup
предо
počí
##zj
##ходя
живе
nád
vlád
безопасности
Пра
##гро
Karo
obje
##ками
dzieci
##arch
svým
испол
nawet
ziemi
Италия
море
##jące
1971
autom
nakon
##stów
##ях
зда
##бар
##ciorys
министр
##ong
působil
##гей
наме
посо
sezonie
Америка
##бия
Иван
zim
47
vlády
Аф
##gres
##ární
znamen
nakonec
společnost
czyli
##ске
##зма
Kam
##лот
Życiorys
kvůli
##ologie
стало
присъ
hodno
района
Nor
мира
##zk
##чных
prezi
##ферен
##йм
Kdy
могат
drugi
rozp
zawiera
planeto
pí
нея
rovněž
уголов
Tim
##met
Май
##podob
Йор
##тем
еди
##niem
##тельства
Willi
żołnie
kapit
ovšem
177
Nad
studia
Cor
##díl
##uma
##порта
některých
##чват
малко
##nila
##usa
##като
##rak
41
vesnice
##jących
Ча
poprvé
řím
##ябре
odległości
револю
##BC
świe
##нец
##каде
##hal
Is
конку
контра
##uper
##писва
Bal
##дент
закон
Další
Vác
завършва
Sł
##нем
##рил
1977
сц
##rž
Германия
Москве
Hu
##шки
##вите
##рис
##tv
wysp
отново
##hrad
miej
nal
##лев
názvem
Geor
##вшие
vr
##имен
##ráž
Alex
vzd
##кого
Przed
##ены
městě
Mod
юго
Jer
##ският
okaz
48
##owymi
grani
негови
zdobył
Przez
дея
епи
##ктора
sem
##anym
##zbroj
##idae
##alek
##icky
##xi
Dob
jedynie
wid
проис
vítěz
северо
орган
##har
Pu
##czej
##парта
prote
наблю
##zuje
##40
появи
##owę
##rami
muze
##ристо
срав
##cela
##ris
pohy
ито
dzięki
wyt
Pav
Aust
ško
##jm
obvy
##ум
Świ
##руари
najlep
samo
ml
poch
1967
##дил
##asy
politick
намер
##kowi
##къ
Miejs
dodat
větší
##żli
obej
##jaw
##дни
umístě
náv
настоящее
straně
zmieni
vla
сдела
деся
poslední
##věd
Szko
##чной
февруари
##лимпи
##nitř
разработ
##зване
powod
кур
##'s
Хи
Sv
##mun
##řit
Pře
těž
brit
zám
##джа
##ciem
иде
českosloven
ответ
##ovaný
##obus
téměř
nacháze
Wsp
диа
przewod
##нологи
SS
големи
##шем
života
других
##čním
niewie
##aka
Ind
опубли
reli
##owanej
400
гръц
Ев
Henry
rząd
##30
dis
##помним
##яват
hran
##cyjnych
prv
##рует
##тки
сист
миллиардов
Фа
высо
вну
lidí
formula_1
strony
Kraj
Pie
obci
drugiej
bá
##cyjne
##nické
ограни
úto
этот
##рд
##ult
##onii
##ickou
Zach
nazwę
prvním
oku
popular
tytuł
Mag
obvod
##ovět
неиз
rady
množství
практи
екс
##mil
gal
роден
dra
Wład
##kání
времени
ukoń
sé
##alnego
pok
Бар
1964
Pon
##ął
głos
niego
##телна
финанс
##skému
zg
znajd
tyto
kobie
##rně
1919
##álním
bude
##aný
okresu
Димит
мы
##atem
cór
Yor
кръ
##szcza
Tato
##dziel
##denta
##znaw
most
##гор
Bran
носи
стре
бро
сум
spotk
samostat
руковод
Když
##atele
##rd
##става
osiąg
чети
##ip
zag
##rój
договор
##ojí
jméno
##ждение
##bardziej
tre
1947
##шая
popula
dře
всего
##ческата
olympij
##rb
nav
##ovo
периода
##личи
práce
##эро
##стин
##чена
##zor
podp
gener
##isí
##organi
##álního
vliv
реши
nom
Sez
Głów
1949
Газ
Франция
укра
##děpodob
##ovací
innymi
##ovatel
утвержда
##ckého
представители
celé
##dělen
Wieś
мене
биз
rež
Kole
объяви
ponownie
##нский
válce
Poli
рын
bod
filoz
импера
##skut
trans
##ile
65
Jam
##ser
##gram
##tom
##stwie
Čech
##нския
počet
##śnie
52
##ждат
##hra
населението
##ям
##щий
Ví
maz
Пар
лидер
##romad
Brit
##фици
Чи
нет
Федера
москов
stále
##ществ
##pozi
##akty
кол
##сна
##zim
##sad
fotograf
##ey
##ujący
ръково
##лез
państwa
##казва
1956
doty
воору
##бов
называ
nazwa
##czyć
способ
пост
poru
zakład
наро
##еры
музика
##nością
##zacji
umož
největší
спа
##жд
rozgryw
##owanego
##skem
##vid
wypo
съпруга
Puch
##vers
премина
армия
##onem
удалось
120
##бата
##rý
Ман
szczegól
суб
ju
##ющие
rosyj
soud
##niego
odpowied
##гата
Mc
сни
ple
##хода
##eda
реда
důvod
##год
##atów
turniej
Život
##rok
наре
stří
zbyt
świę
##тисти
погиб
eu
níž
ukon
всех
pun
##owanym
##fe
некото
Bla
##ędzie
Aut
##ckých
осу
вос
##niční
Напомним
##ational
51
человека
inte
Цен
##нь
необходимо
zaję
##ściej
Рим
##lina
телеви
##entów
##ons
zło
зад
hudební
##lika
Ира
##хан
Akadem
##рец
##щении
anglick
очеред
##któw
Гу
pierwszej
крити
сы
hrad
ide
Proto
stand
Гър
##кам
##това
##ade
стороны
##dził
absol
##torem
жени
Grand
##чено
należy
самы
##igh
##hrá
ces
непо
първата
свой
Rich
##liny
##пании
nabí
základní
##liwości
nech
państw
musi
##bę
##rody
влия
##сма
třetí
##анк
популяр
1954
jih
Mie
конфли
поради
powodu
литера
действи
49
Pla
състав
Ver
poku
rzą
Anton
собствен
ска
##mien
##skyt
площа
meziná
подчеркну
rez
król
Let
zví
предлага
выбор
Pół
##pit
##шно
кате
##ерман
pierwszym
Pom
nejlep
domu
Hel
46
##vádí
световна
rozlo
Ślą
sen
pojawi
лу
Air
##стана
Констан
##zav
военно
pochod
ści
Słoń
Świę
skupina
možné
Wor
Сред
##żą
##lar
доста
biał
mnoha
##liz
##poč
zpě
полови
centrum
##ите
české
zákla
##дже
zemřel
uczest
височина
którą
šest
##znamen
Ско
тро
##ówno
tor
##вари
##méně
##жу
##нията
правительства
1965
##чната
swoją
##ib
##дий
Европе
##nam
##fy
znovu
Następ
##božen
trzech
нор
город
##ira
Open
##тъ
případě
160
##mer
государствен
подтвер
усп
jezi
##odzi
wojnie
##ovice
##tedy
zł
Бра
dvoj
Ří
##тили
1966
##onia
функ
##връща
пое
problém
##śni
должны
císař
círk
радио
##храните
hvě
##waj
##szu
своя
##кий
nejvyšší
Вар
##onů
френ
##гласно
postupně
##телство
##фек
##nal
dél
тъ
##umie
##ria
provoz
##opol
różnych
##prve
##lia
##шед
##обре
##шь
moder
komunika
##fini
inne
##ОН
klasi
бълга
króla
##яването
##wania
Marie
dowód
##нев
powstał
муж
sprá
##цент
завер
обаче
uważ
голяма
##mienia
gry
Japon
##skok
элект
##yczne
Ga
##ps
Obecnie
pev
finan
Пол
##вят
##cjach
trady
sně
charaktery
преду
podpo
Русия
brytyj
předsed
##stw
zt
твор
France
Odkry
##enta
Piot
работ
##дено
Гор
##cký
##romá
##прово
##лните
##щото
prawa
1958
prowincji
##тори
широ
vl
##ссе
елект
избира
СМ
##lot
pew
дел
mieszk
##вей
##rócił
одного
##мин
Mer
##čila
според
##atecznie
społecz
остава
организация
uz
chy
ostrov
##шин
##owskim
bardziej
Polskiego
one
близо
##alnym
гор
Джон
Vi
1962
funkci
##aną
kostel
kształ
##ycznych
Aleks
били
potom
okolí
głównego
трех
форма
Pe
коло
sto
жиз
##zyj
бес
втор
Martin
zatím
evrop
Центра
##ij
##nictwo
aż
výsled
##kop
Zam
сла
Българ
probí
пят
praž
Kry
##шее
##гер
pt
stwor
самоле
Augu
##лого
mé
Лон
Sc
obvykle
##kowym
1930
přibli
нар
изку
zgod
Gre
газета
среща
##ána
ser
czyn
Петер
вра
перед
musí
stanie
pł
российских
##mysł
nag
nimi
##biut
##azen
##граф
работы
##lášt
##меня
##šla
получил
warto
1936
židov
některé
ran
##рина
Кор
##стру
Dí
bli
##cowo
zru
więc
Свети
Poté
Tar
situ
можно
Kap
roky
moh
někdy
zmar
przyję
аль
резул
czasu
zaczę
##xu
hospod
model
друго
издание
rę
##bav
##sięcy
##квата
##ране
Rakou
člově
napis
sur
тру
um
##bin
stanice
устрой
wok
фото
пти
firmy
autobus
##rup
образом
##polit
Жи
Ph
razem
поку
Lou
hrab
##azd
FC
говорится
dnia
ата
себя
národní
##cę
##tua
оцен
##čku
vývoj
##odní
вся
jejím
##čemž
##win
původní
##ол
určit
##běhu
teren
котором
начале
Глав
dosá
Nazwa
##dělá
tren
наслед
Mosk
##pole
postaci
1963
1952
pru
филм
skrzy
tisí
znalaz
64
stejně
host
Hlavní
tek
##сън
##яване
именно
ostro
53
označení
сам
poto
průmys
Ана
kultury
Гърция
symbo
##ностран
##onieważ
hled
##жай
фран
##ósł
cyk
roční
svém
##зин
кос
##ždy
přičemž
společně
##ařilo
##вра
programu
1961
##tur
wszystkie
эк
křes
połowie
poprzez
Paw
##тво
тради
średniej
Rady
##rza
Jednak
расследова
ек
##vala
оружи
pobli
##игра
Gal
умира
бой
związku
##лийски
twór
podnik
pil
Ад
часть
например
lev
Рос
udá
эта
ramach
##охраните
съществу
##ciela
струк
pravděpodob
wier
##cho
##лог
##нове
##ždění
Европа
spor
разде
nábožen
##burg
swojej
права
##ura
руководи
следу
##сер
##ясни
деятель
проекта
##stavě
Europy
tj
##ografie
##kom
Micha
odcin
adres
##gal
##víc
##nad
партия
piosen
получа
##gent
##ling
капита
СМИ
niewiel
vid
##kcie
ведом
odd
##риа
цел
Република
part
Dne
##tku
##лд
##жида
jež
původně
konty
mand
##ativní
##щите
nichž
исследова
rozpoczął
mini
консу
##тиви
decy
##хар
šk
##лега
czym
przypadku
jim
##графи
##сел
56
отмечает
креди
сим
##положен
podpis
žilo
Mont
domá
většinou
МВД
##чително
##cká
zahrani
1934
1957
включва
##raně
##ovaná
Дру
ów
Основ
News
mechani
Ху
##lam
54
1921
ludzi
##вид
##cenia
##szt
##тива
##anta
Gro
##ovaných
del
есть
съюз
бра
##ous
##тельство
fotbal
своих
служба
57
случае
Фили
začala
nic
##точни
##рист
должен
fy
район
##сом
реа
parlament
кре
celkem
nowo
pad
Biał
příslu
##atoli
##sport
mil
ital
samot
Сте
##rech
katolick
##szk
technolo
важ
##lel
1912
изгра
британ
zcela
Северна
počátku
##точно
##owiąz
спор
Населението
##ingu
##sied
##wicz
##бър
jiných
##щие
##фон
##koliv
пользова
##czni
Мон
1959
sobie
nazwy
##казыва
##вые
пле
##ujących
##90
##щая
Střed
видео
вероят
Miejscowo
Evropy
##ovými
##чо
##mag
dziel
##óz
смъртта
##разу
ракет
mlá
##стеза
предполага
възраст
námě
##вают
##писание
komi
Původ
krzy
##mia
szer
rzym
1953
ČR
##вается
дра
боеви
требова
##trz
Mad
средства
икономи
projektu
обвиня
Tr
зам
концер
клуб
Aleksand
иностран
jedním
играе
##гар
##pě
kru
институ
команд
##pera
Има
Sie
нарича
##рови
роди
sloven
##нских
vole
##sud
1951
задержа
převá
prostředí
swoich
obcí
цар
1935
William
рассказал
Сергей
shromá
Ho
tri
##дви
prod
##обе
##ławi
Cam
##рую
##ávis
##sław
Reut
стату
дължи
находится
strze
gr
днес
предприя
##véd
##ским
##ycznej
proved
пара
##átor
##volu
##SA
топ
forma
ofici
1932
близ
##zył
pierwsze
NGC
##cyjny
##ály
Hrad
systému
##ią
главы
роля
1928
Klub
Dom
kg
zlat
докумен
prób
Stra
месе
umění
1937
##vš
сообщили
##смот
кари
smlou
zeměděl
##ies
##viz
##держи
Księ
##ший
##mít
funkcję
##hledem
Въпреки
stosun
зада
провинция
окръг
takich
##řena
манасти
vi
Christ
пример
mieście
Ir
Fili
puł
дър
рамках
hand
děl
##eti
dál
пы
##ah
provin
komuni
понедель
сообщалось
pokon
Kost
##ландия
##тически
##ерцо
##mos
##21
zabyt
Бел
##saż
##okej
wojen
версии
##šk
občan
##стер
gó
##кува
dobu
tehdy
krále
##jících
времето
stad
##lob
##раиль
ocen
Gó
planetoida
słu
jiho
печели
##деж
Pal
přid
##owskiej
среди
zároveň
##зъм
проект
##iet
##orów
##szło
##рение
problem
176
Dop
přibližně
##овых
##łącz
źród
##alna
##хия
физи
Япо
женщи
úspěš
Amer
църква
Уи
krót
групата
##hlas
##íše
souvis
człowie
ośrod
##вни
##cieli
Вы
##ťan
##35
meda
aktiv
##mus
Александр
поме
správ
školy
Wind
правоохраните
rozwi
minu
Bole
Film
zařízení
##śred
130
Kromě
58
zmín
##стен
##ped
výrob
Minist
ziem
некоторы
##чить
utworz
##тивен
проводи
zbo
vzdál
slav
powiat
polovině
Bru
ky
рекла
klas
известен
nazyw
##andid
##awia
týmu
stanu
##ney
polskich
##чного
Также
##anów
Mał
##bert
государства
пси
##кро
##тек
Reuters
písem
уров
##erytor
##řila
jas
##hru
##овета
Gm
##níky
wysokości
ника
##шие
170
##aków
##aných
iż
##нах
Para
генерал
##isty
XVIII
провер
##бен
##esa
No
Wo
najbardziej
##šího
погибли
akadem
lep
написа
1929
posiada
запла
кино
##kowego
prowadzi
státní
##ejí
лишь
##ír
##ierze
##вел
##стите
##atyw
poza
император
154
##řeba
##zt
występuje
##рото
demokra
##účast
wew
оппози
oficj
##kość
umieszcz
неизвест
cię
Gar
Министер
смер
wło
##szenia
rodzin
##zmu
zarówno
Adam
##ával
Zjednoczonych
přímo
##ędz
##25
fron
връз
дни
Vol
##káz
обу
Lin
Republi
It
Фри
полиции
##ecyd
##гам
##lič
##usza
##cien
вари
vyrá
základě
##aki
ban
##рани
##dopodobnie
##вода
członkiem
##фан
подготов
##soci
scen
##пет
##bus
okrąż
bohat
mis
nevy
Vil
##tic
rozdíl
eg
cech
niep
##ането
ближай
začí
tř
prez
заседа
попы
озна
##ae
##ben
arab
kierow
света
král
##han
ti
##mują
##шна
##митри
státu
nor
##кат
řeky
суда
##czone
вторник
následující
##prowadzi
rozwoj
Čer
##ecký
szero
четири
##obil
##ostí
##częściej
представитель
полицей
##obod
##ременно
druhů
##bieg
грани
##креп
##струк
ší
##зона
pochodzą
доро
1913
koncert
##вез
##átu
получили
současnosti
##тър
Gdy
punk
verze
##чные
обеспе
##чник
##сон
##ký
##owaną
vyj
##měrně
dříve
Kul
пет
Южна
efek
1955
##níka
класи
одной
др
nepo
карти
##štění
юж
##wają
1000
диви
podí
Кали
právě
waż
##ěji
Mimo
##ścia
реко
##гова
gdyż
людей
spowod
Фор
##пов
podstawie
семь
dyna
prem
ден
директор
1933
изслед
wykorzyst
##však
##pon
otwar
com
понедельник
František
##lec
влиза
акаде
##70
службы
vody
##ádu
międzynarod
##ом
##ческите
1924
##fikacji
народ
движение
##lid
matem
##zkum
pasa
##ровали
министра
##not
nezávis
střední
Univers
кораб
##nému
возбу
jednego
##рю
опит
достига
společen
##poli
##мой
##ticky
Karel
дет
сей
##stroj
отношении
ograni
##тана
da
среду
##kuje
##bran
##zel
##ondy
демо
##niczy
##сор
wojska
готов
##olot
bram
##йдет
parafii
získala
смя
plá
dokonce
##ts
tury
изче
použit
##mot
##рих
Między
##owice
voleb
##ъра
oddział
Vlad
баща
##strze
##циите
##кое
##шава
##átní
granic
пъти
##сматри
wydaw
Rec
Алек
обы
##падна
##yj
pozostał
##idla
insp
roślin
Mic
severní
zapis
##ял
##inter
1900
ООН
тек
inst
Роден
osied
místní
1925
##tit
tradi
##лив
##ůr
důležit
##enes
треть
##ходит
peł
chor
христи
uk
drob
##сут
няма
окон
papie
министер
gwiazd
povr
swojego
##потре
##ímž
##zace
##нд
телека
##воз
rolę
##рения
wtedy
vyšší
las
výstav
kní
прекра
нов
warun
суде
##ствии
175
Alexand
##kově
Kali
##лору
##kup
redak
докато
Mora
подписа
##ждане
Ham
potrze
составляет
##hů
рим
##ровал
слож
stoli
počíta
Tele
omez
fyzi
hokej
разре
start
##łud
##таль
časopis
##bili
zali
##anou
Ant
парламента
##gos
##střed
##нос
дипло
##isti
hlas
##legł
as
##TA
заявили
Sport
funkcjon
следва
##юза
takie
##мно
hrani
##жар
недо
##ern
выступа
minut
kal
оръ
bran
##ickým
dostal
majet
##oba
przeciwko
broni
Хе
aw
##lý
##стър
##lił
Amery
sytua
##ečně
Мы
технологи
hlavně
##ann
летний
Bro
telewi
zvolen
żad
##послед
Począt
165
##arda
připoj
##organiz
изпра
tá
set
pojmen
kterém
сл
ilo
sám
продолжа
tvor
##ows
tato
террори
zpět
rzeczy
org
řed
pryw
władz
děj
##пата
Pas
##ezpie
85
bal
##аны
převážně
světě
metod
##турата
##rální
##част
wska
аэро
изклю
následně
Zas
Rol
izrael
świecie
прокура
##pośred
стали
##ativ
1927
rakou
учен
акций
интернет
##ового
##átel
##roval
##нам
##anton
предпри
##образ
##ecze
първия
zaw
1922
##еров
##тка
pohá
wpływ
62
produkcji
##ay
mom
##stat
aktor
##дал
hrál
działania
##див
осъ
##руг
konk
отношения
състеза
группы
##lak
Гла
Мария
##кновено
uzav
Instytu
Аль
сгра
scé
##ътреш
##piero
менее
ката
стране
pokud
переговор
выпол
dram
stylu
kl
вода
Три
пятницу
##шни
ny
kontra
отве
##rt
##imi
подчеркнул
больше
##kař
назначен
jedną
##ines
Ген
plán
širo
республики
##eš
męż
přístup
swoim
##сона
kandid
1923
norm
##entem
##wski
##ску
четверг
##ръб
návr
постоя
resp
dopiero
kościół
жерт
Tran
обществен
##gląd
##stanowi
начин
Associ
##11
76
##цени
подозрева
##que
##dzenia
jménem
##czyna
фе
##pila
специаль
##nů
Сей
Мал
произош
Est
##niejszych
popis
##зя
prakty
czar
Andrze
медици
mog
##кипа
World
Роб
качестве
Пари
Její
74
obou
jižní
účin
##ческие
##телството
kierunku
сиг
1914
Słońce
Was
zel
##нисти
Nap
polskiej
##dru
festi
David
wchodzi
първите
езе
бом
hř
skuteč
сме
Izra
##тому
##глав
Kla
##nios
1905
##daje
собра
Kop
mak
втори
Ameri
попа
##owców
своего
Sil
##pus
##тивно
powoł
hráč
##ым
бър
Nachází
закры
obsa
##ováním
jednoho
##емых
Москва
##old
##руется
##милия
тысячи
ówczes
производи
##NA
##мом
неу
piłkar
тъй
##ссажи
Im
66
##etí
godz
поддерж
Москов
rostlin
дава
Pri
##ческо
průběhu
Ши
##czych
##nął
zk
Towarzy
vybud
##misji
заня
информация
Gi
акции
sbí
zapew
##tia
худож
##ima
##gij
##linie
Václav
cięż
##hol
prywat
##działy
сили
конкур
Кара
##gia
##дой
##hom
статисти
##pí
przej
odbor
##eroid
##нските
твър
ори
##чил
stup
ряд
##ruch
команди
ини
тан
Михаил
Związ
vždy
Ст
pokry
stanowią
wice
neboť
##tural
funkce
wszystkim
wyposaż
Lond
##pen
регион
zmínka
##szenie
naci
meczu
Północ
##uter
зо
##манската
##зидент
##kový
##limpij
##gna
kriti
600
shromáždění
##out
##onor
##kró
drew
Ži
##wed
1926
73
всеки
przykład
##skytuje
пять
zastos
##раб
##wali
##сем
95
##ismus
##зви
продължава
Bad
##zdy
##АСС
##šet
auto
##ień
преда
деца
pravidel
бъдат
końca
vytvá
##rét
Gr
konkur
zaháj
##той
##dae
listy
standard
##uba
węg
интере
##ciąg
Согласно
##esát
городе
шко
sezon
nut
##лежи
##12
toto
##берна
##orze
szkoły
##ite
##лка
герман
Tech
Фе
##opak
##рана
řád
предвари
Robert
prezident
##ит
своем
данни
##áze
прибы
##mat
kryty
##iss
Mez
Polska
##вин
140
##rócz
připrav
##ampi
##žné
##níci
##kovi
obsahuje
##шка
съдържа
pozycji
##adań
miały
внима
борь
##nan
##elo
Mak
směrem
Han
powstała
##циално
площ
Gda
свърза
уче
##alną
##eckého
uží
angiel
предложи
dokument
Аб
которое
##cyjnej
druhy
моло
nástup
продук
py
##západ
##чень
Лен
szkol
Austra
##emu
районе
vra
zajął
##udy
59
Wit
stroj
##рования
##сили
##рах
Szcze
63
образу
шампи
You
##dělení
служи
práva
издания
##шев
секретар
działalność
##większ
##vrd
Ke
współprac
излиза
##cyjnego
rzecz
Can
##ropej
агентства
##sh
##йските
Kur
##скоп
zaměst
управления
парти
##rovi
обороны
Slov
##kům
kariéra
херцо
oba
kated
комитет
zvý
pła
нас
terytor
уточ
##налите
stojí
zakres
мир
голям
##йна
##koł
anty
##сед
очередь
##мът
##uz
##ляет
сейчас
##ďar
zkou
částí
němec
oprac
trakcie
##можно
Dar
Jind
minister
роман
##тинг
застра
##wist
Kal
трен
##форми
##siębior
##поря
##льным
##клон
1931
##rześci
мач
ВВ
пыта
##choty
##skop
wyróż
##owiec
##нил
deb
оконча
hry
dostęp
хора
##akt
bezpośred
##owiad
Като
баз
##panii
Дмитри
Podob
jednou
tar
Тре
Ива
zawar
baro
косми
##átky
##rzew
##čena
Кли
свет
pracoval
wybud
##шим
кому
##еты
menší
угро
ана
72
250
tę
der
un
взрыв
que
##aja
##тика
is
el
żołnierzy
##plom
die
##нав
und
złoż
##пора
сцена
was
##kových
месте
hospodář
Są
tehdej
##owaniem
kościoła
ТАСС
świad
##inem
van
zbior
Lot
sa
wyra
бизнес
Později
podzie
una
il
случай
начала
Evropě
##тието
Sm
Представи
Arch
##mán
er
pohyb
powiatu
##jim
вице
Paří
with
av
przygot
##бир
con
##телен
Китай
est
brze
sami
число
войната
som
los
##ght
ВМ
Les
Они
het
from
that
pěti
##зей
republice
стоимо
свиде
Fa
es
wersji
анали
ISBN
Александър
##czyni
экспер
##dce
##SRR
вне
себе
dwor
вызва
om
kup
powstania
brz
Ludwi
Nic
dan
námoř
Bryt
Поли
Wroc
##18
mit
Tat
swój
тит
клуба
his
инди
długości
##ńczy
##мъ
une
kterým
Kos
##iach
Den
Die
##точна
труд
песен
##yn
wybu
das
Wielkiej
групи
Jedná
wspom
Послед
Div
województwo
tworzą
kab
##níkem
##ческия
##чко
Нова
отбора
##orskim
nově
Ac
dans
he
che
království
пассажи
zależ
em
hy
тео
zajm
состав
it
Następnie
##ografia
##яс
uč
Путин
Fre
##ateli
han
незакон
77
Il
komór
Зем
prz
della
pobře
##дки
pět
ein
награда
##omy
##woł
Дей
##15
fizy
potem
коле
var
Species
are
wprowadz
пъл
zu
произошел
164
für
obu
количество
asteroid
blo
son
Vět
kostela
##йский
bás
vstup
##zeniu
bomb
působí
va
pour
##дро
vyst
##mem
českých
panství
##sic
auf
торгов
hlavním
чинов
szczy
miejsca
##СК
staveb
Life
##mann
pov
Intern
okrążająca
##беля
Димитър
Anglii
##hr
nel
be
адво
det
NA
Wol
velik
67
одно
qui
του
uměle
και
Бур
az
прид
wody
##lab
шо
ruchu
##vali
##щия
##nt
Em
wobec
##ьор
Kolej
Catalogue
had
předmě
##ng
ovliv
сведения
vrchol
68
zre
Tam
избран
луч
резултат
zemí
Władys
##biskup
siebie
обнару
мина
Jindřich
has
малки
##žila
Пор
законода
dos
##мани
сед
Для
##tus
Tour
University
Нор
##ickém
уч
eta
Първата
1917
era
##жат
Połud
kmen
Пла
##ант
##ány
##зад
специали
Pary
##žší
first
##cky
жела
Windows
##kal
счет
ogól
##ex
większość
ou
##tej
##кло
vzdělá
all
иска
uma
##ים
принима
древ
aus
двете
niektórych
Tyto
Der
non
156
темпера
Prů
##fon
##ií
af
har
##щава
jezd
##нами
##chem
францу
тогава
##vající
Госду
##skokatolick
спорт
##стник
bibli
##чей
bis
Hisz
##čin
##cielem
různé
not
but
##sel
Tor
soł
vrátil
ir
##SS
##kovou
##oví
York
Micro
dopl
orien
korun
пише
предпо
Má
Mexico
over
bei
##24
www
##нские
nach
iden
zemi
dei
##now
cca
jedné
крупней
интерв
##grafii
rodiny
российского
tuto
vznikla
vé
Národ
alla
emi
Fo
кандида
History
##hruba
##сколь
Ню
mělo
доби
Ше
UK
##дица
obnov
##ващите
ев
##wen
have
Muze
this
измен
##vou
этих
##ية
American
zmarł
opat
ed
Bat
установи
използват
sedm
##ckou
zasad
пря
este
174
ya
особено
two
##рем
obra
##гии
Krakowie
http
##ote
navr
amb
##тельной
bir
kláš
plus
Paul
walki
występują
второ
Press
przenie
##ządz
under
##kowski
##živ
постоян
двига
On
##ות
информацию
##ями
zum
република
##moc
Zde
978
pada
začátku
brá
##ína
Maria
Mac
dell
ini
##смотре
99
din
chem
kategorii
##дить
##говори
mów
rock
okra
множество
##гна
čtvrt
TV
towarzy
qu
United
##овые
гол
инци
##ałości
вида
aktyw
organizace
seu
##вета
získá
800
##tego
revolu
křesťan
Kirk
областта
oli
Джор
fra
Reading
Los
Michael
Stanisław
успява
##řízen
time
Czech
##ated
oce
##lejší
NASA
##дили
##тник
fab
##номо
Park
Pola
armády
choć
конферен
##нови
West
испан
bře
Liv
National
##писан
epi
сче
##fr
форми
владе
dzis
##én
przekaz
##бри
Det
Krá
zew
01
osada
dia
Das
##edago
sukces
cztery
##nya
liczba
come
##ya
současné
říše
украин
kterých
степен
##лой
System
opar
##prawi
##iece
##щайн
slouží
председател
замести
характер
пак
Джо
tot
nový
jihových
ZSRR
##йских
възмож
mistrovství
mohl
##łuma
##řejmě
silnice
into
##láv
Wh
##лота
гим
независимо
##roti
##gue
##жды
преминава
ble
06
166
##ів
Ай
##бите
Австра
May
důsled
aan
Paris
tempera
Chor
##éra
##рот
Хар
ven
August
zur
##наро
Czar
ут
първият
правительство
nebyl
ng
мето
##bliż
привле
This
závě
obszar
tram
new
##kazy
разпространен
aux
požad
##19
uwa
революцион
рей
oder
##ju
sind
zaji
umożli
##ان
Jean
Ban
astron
исклю
выступи
International
będzie
City
##zyst
##телям
Рай
zaved
Alb
##щества
April
Ca
##ствена
Ag
разру
##ый
samolot
przezna
západní
teat
osm
168
учени
iz
ce
sin
##enou
Er
more
nan
159
##arů
направи
предлож
práci
##áš
##inách
německé
##eme
Президент
##ción
projev
Pokud
Ня
04
zdroj
автор
údaj
##źnie
##wała
сборной
uch
Кана
съби
prawie
##яр
материал
Wło
pomocą
London
okolo
05
Dále
she
tan
шта
##ía
delle
##ofi
Record
##ranu
Hal
мага
стала
##вшей
фир
sus
претен
über
vede
##дем
##чный
начал
територията
cu
avšak
##жении
nazwą
первый
States
##лича
num
fan
собира
що
oto
czego
Het
##źni
Stef
##bol
armii
самолета
later
televiz
zniszcz
Ponad
##krótce
07
ki
отнася
##ež
##typ
##czeń
##kat
план
County
spíše
vzniku
premi
155
##ns
еже
only
##скольку
skal
##stry
##ins
Maz
##rząd
James
##ric
губерна
##ienia
##вая
najczęściej
sebe
03
часов
96
radi
me
Es
поня
##skach
nejvý
měly
##zda
jednej
##ждава
##des
##biera
##ção
энер
167
Charles
##скре
##ban
била
dosa
дове
##говата
vojá
##omou
arche
využívá
##льная
díla
##пове
práv
157
##mov
Organi
##rs
can
ind
ау
##chodu
samego
##pot
out
prawdopodobnie
prak
##stavy
warszaw
George
zatímco
him
děti
stě
loď
##тельных
##бай
szlach
##иск
Rus
juli
считает
alle
операции
każdy
mazowie
##мията
dnešní
ses
vyrábě
##ческий
Pou
##OS
Peter
východní
##ленных
приема
02
School
výboru
rem
przede
díl
терак
първен
история
НА
uspo
##stant
wys
zan
zamieszkiwały
organizacji
##niczych
budou
##šti
регу
##lian
kříd
fu
kou
Włos
заве
музы
либо
spoluprac
Earth
##róci
сотрудников
ben
Це
stronie
повы
made
англ
kara
##логия
ye
Кри
Józef
същата
##лай
prop
kterého
miast
used
koncep
уточня
##iště
09
vom
##ica
Un
##jo
##kował
nepří
##és
163
дейност
##nilo
##ССР
##стояние
125
such
##nějších
назад
08
##cką
##ité
##niesie
South
siedzibą
Lab
pobliżu
Ger
wybo
##ken
спец
##żyt
##siad
##ственно
совет
Został
środowi
Red
pierwszych
сп
číslo
League
##рос
##zja
катего
mó
##czel
живее
lí
dosah
##lla
##били
nu
##поли
rodzaju
seriálu
Wschod
počtu
domin
##hn
Sim
##wol
šlech
Thomas
##рию
India
parku
вопрос
All
##řazen
##ющей
State
изу
##тови
##ectví
konz
Oxford
kři
club
Akademii
заради
fakul
##zione
partii
##чния
Richard
##rovýchod
June
team
Az
##orů
budow
##ýn
1915
##szty
Христо
##šlen
letad
Min
##rol
olympijských
zen
ca
##шенко
Nel
##czego
##защи
даже
Lip
fol
přis
March
защита
większości
uvádí
Газпро
She
legen
nejen
пости
pravděpodobně
Santa
##něné
Av
Morav
1910
pierwszego
British
pe
##ждането
Lan
lig
data
съд
gli
area
##ódz
депута
##mniej
Sej
jedná
dzien
##niczej
třídy
awans
any
фило
несколь
##dos
kilometrů
uzyskał
kromě
serie
rozm
finále
очень
въста
vor
мощ
place
Berlin
##ržel
údolí
##kládá
##tes
kamen
zdecyd
##asa
##ппа
mít
##ble
сторо
##das
##wanie
мача
выбора
hrách
##nicj
Europie
podařilo
Sen
обнаружи
egy
##nen
szk
Jahr
препо
General
powszech
##зион
grupa
ожида
North
##rodze
spot
odmít
острови
dotyczą
##ll
hnutí
##ea
vše
Řím
pozem
убе
inten
##rzymy
##lic
албум
##лений
обвинения
region
##ée
prawo
XVII
Love
##никами
hat
Max
pracował
##ssa
##нуть
map
Society
##alista
158
poš
Lw
78
чего
Komu
##seň
друга
pero
##лекс
##ąż
##ning
##lle
##мерсан
##ado
##žený
##žené
##ske
kali
##кога
##čuje
##зен
добавил
Toto
wyco
bezpeč
Plan
##ęb
##tera
##22
odst
запи
koncent
##řili
##ой
pojedy
##ين
маке
ponieważ
##мана
##wolu
своята
##tugal
After
инициа
takže
сила
спу
států
liter
nord
pp
Niemiec
Database
Kościoła
Europa
Narodowego
##gó
Club
Music
parlamentu
Thom
obowiąz
срок
Armii
##тами
name
Museum
Cal
69
prima
тон
88
##16
rozwiąz
##там
Louis
právní
Występ
will
##ана
total
One
##lera
##рени
##řené
poświę
them
ai
mocy
Николай
##sbur
podmín
##uber
##рами
##zích
nur
firma
world
##14
dziś
zastęp
Само
##ściu
amin
Pap
stanowisko
przyby
series
won
pali
##czech
##wały
bur
zhruba
BBC
своите
José
single
Ram
ont
Joseph
sezonu
uno
##dější
нового
rozsá
##liwość
miało
may
state
general
##tas
Records
##фо
school
sous
solo
železniční
Art
polskiego
##aleko
##лям
##мыш
juni
СССР
##ловдив
##ávají
via
Рей
Minister
##istické
Ziemi
Niemczech
jednotlivých
Карл
zúčast
sowie
wyż
второй
zdrav
oznacz
trud
другие
##трен
##ית
##сам
##seud
people
памет
##рица
обрати
Encyclopedia
##krát
Коммерсан
опас
##ąty
wartości
Великобритании
zj
##тна
##чем
America
Lake
dwu
dyrek
Współ
##vaz
мъ
наход
##ílá
##ão
ply
##výcar
##ierę
Така
College
czasów
##ott
Union
nied
Ny
Poj
общината
Ostat
гро
##dgo
семейството
акт
żyd
##ít
nějak
gł
wa
navíc
contra
Van
##kam
blízk
прев
vzdu
nev
##ori
превы
##aria
резер
мэ
synem
history
##ющего
##átkem
Международ
zástup
Там
alba
##cenie
##rála
řada
решения
sekret
##mento
Втората
zani
##пиров
##ия
Его
##ец
##начално
zbi
кня
##lip
seku
юг
Гри
Wis
okol
Award
King
##строва
##ението
Las
bat
hi
Еги
##дово
Ist
##serw
Доб
Nacional
##tt
rzeki
Dr
zmian
еле
RP
##lt
příliš
##schód
velký
natural
##jan
водо
teplo
##grzy
##ai
Elle
Cup
House
sig
Rok
##мах
##ню
gatunków
##slov
##лището
##rodził
przeł
Italia
Първо
##роприя
друг
rozvoj
системы
same
##телями
##тури
řadu
източ
aber
суббо
utkání
##łaszcza
band
##ella
end
херцог
##запад
River
písemná
##13
Ги
katastrál
##ápad
albu
regu
Petr
city
##гент
Washington
демон
Оба
doj
ním
##are
Vš
China
брой
činnost
Royal
His
nek
Prahy
ing
instru
nále
сайт
ile
##жан
Mí
přech
##bec
Pierre
based
##ischen
86
##ствовать
##kową
kolei
English
czoł
Тай
Italy
##dyn
California
samolo
оцени
##illa
##стой
дължина
##ire
nejsou
многи
zorganiz
přísluš
Rzy
nazývá
##noj
Canada
отстав
przeprowadz
soused
##вън
##cht
135
геро
cment
##тиле
##оната
CD
##17
výjim
IC
kultur
try
výšce
Юго
##tická
дори
возду
Тра
##гля
книги
sud
game
##roby
pierwot
Południ
degli
##lich
dět
##ith
VII
niet
победи
##ische
Smith
тот
vez
##gon
аб
ug
##ałów
##śl
tres
tru
public
поступи
Velké
Juan
uprav
##kowskiego
członków
dit
Санкт
##вана
języka
pát
long
They
Cambridge
więcej
##служ
stro
England
##ologia
роли
nazý
опубликова
##ath
Ukra
závis
пяти
1908
пун
вза
итали
##ánu
nun
##26
неме
Seznam
Center
Tri
Ке
##czności
There
##lenie
##23
##тън
Madrid
услу
Australia
Best
sau
Bri
##warz
nazwi
##ratu
нама
poměrně
1911
Company
Don
dokumen
вод
služby
dce
##жде
пале
##ls
Central
nowe
Black
Association
věku
port
Ti
Ponadto
объяв
Christian
##rana
autorem
84
дом
defini
Hall
frag
##ставя
sovět
Europe
Hans
europej
mę
Festival
##stawia
land
nikdy
развитие
hyd
rozpad
##ini
пропа
UTC
nemoc
##nějším
Jon
Mai
1916
dvěma
nejd
Бан
##кер
##jezd
достиг
Daniel
vzdálen
Roma
group
Cie
##ryst
Francisco
królew
بن
##puszcz
##szer
wat
pog
zwłaszcza
надмор
Francie
Uniwersytetu
##cti
пово
##kova
##скресен
##рид
##ództ
##wiązek
home
Włoszech
pocháze
##jech
дар
lib
##świad
##niesi
nyní
##nis
поскольку
##ius
przedsiębior
Census
East
neb
стол
##льное
rozwoju
sice
##пред
augusti
Османската
music
дня
kníž
okru
bývá
national
##джет
high
##unda
Island
##dor
like
##din
##wil
1907
источни
##ux
mężczy
##ík
now
Fr
пръ
##nda
Karl
допол
##доне
okupa
Polskiej
wymieni
##разде
Mistrzost
##lých
fut
Frank
Antonio
hlad
dopo
moře
serii
Stadt
jenž
##ker
##bach
trené
зву
##ار
kapli
pořád
ga
География
##сима
98
Japan
Fed
##ון
French
негово
##ремо
show
off
##ок
##łość
раст
severu
##hlí
##сю
работу
otec
##ige
##ua
##chen
neu
##ico
##ted
premier
European
severovýchod
ostatecznie
##lut
test
Lov
Ves
stranu
major
выпла
wyzna
##бет
Super
prvních
Band
Journal
zachodniej
##erów
1906
турни
наказа
##hrál
drodze
голямата
art
1904
day
##cjonal
##ive
живота
1909
řady
rekon
Bibli
Spojených
##бю
Kr
самостоя
Společ
poprzed
Svat
wyborach
High
přem
District
ili
unik
делу
Street
americký
kontynu
jihozápad
Als
съвремен
každý
масс
nalez
dlouh
wykorzysty
израиль
strom
##atych
Zeit
##ającego
##šek
severoz
##pret
severozápad
голямо
Брази
Edward
##две
nejstar
Division
net
service
##ui
malí
rzad
содержа
znamená
Hit
Population
Mark
##ei
воскресен
Time
Land
110
заема
Nord
Кры
Lee
trakt
##перь
méně
населения
song
##skiem
##rio
back
upad
wybor
##няя
##uda
българи
Times
znacznie
##tuje
finans
##зах
##cení
German
inf
изток
Дмитрий
##цов
Institute
##ografi
банка
прие
российской
Microso
sul
##ńską
общ
##ами
hun
seg
##ville
идет
Och
симво
##lace
поки
128
Carlos
povol
км²
съответ
Group
##iła
Chara
компаний
суще
##tan
определя
##ene
##áno
Alexander
Muzeum
Live
##hlá
вероятно
obsad
##atur
всяка
jednostki
обикновено
теж
vnitř
firm
Děj
##вала
video
сил
Modern
обсу
sła
Radio
##социа
религи
##razil
сър
##amy
řádu
proud
evid
Мек
přírod
kys
фигу
##itelem
najwyż
jednu
##osa
spół
##ure
Regi
life
vítězství
mian
##cyjnym
Var
##nięcia
Rio
nadmoř
nastoupil
Atlan
Barcelona
São
##grała
status
line
правоохранительных
prowadz
гимна
meg
##ere
budyn
прия
##зни
main
fr
First
zastup
##kin
##tte
##gdy
##тове
ali
Index
White
čímž
centra
теат
Team
##ting
Тем
wprowad
внутрен
Information
##dan
Science
Una
##сий
##nce
początkowo
jednocześnie
left
##stické
badania
дней
kolejnych
Rock
Data
Len
Разпространен
kot
администрации
верто
série
##luv
zahrn
Europej
##fikace
команды
##ја
did
##łyn
бал
1903
Mary
ЕС
##ycznego
Олимпи
82
техни
##נה
rekord
##pravy
##rona
##tila
##tický
##кса
застрашен
Gam
przestr
самолет
nar
ros
##прос
##тельным
##isa
vystup
Ange
интервью
##tta
kraji
##níku
##ete
Friedrich
##niejsze
vydal
##czona
вместе
Ein
fa
Vě
vhod
jeze
##льном
##ın
systemu
##atunek
##wu
založil
надморска
From
Mus
jaz
Carl
zku
absolv
lan
Teat
97
##28
виз
Angeles
przewodniczą
Komit
techni
Simon
tempo
finale
##сата
famili
When
oznacza
##ère
##dorf
##zioni
poni
##27
кто
side
##owicz
přírodní
play
španěl
1901
мероприя
##dyd
кита
politik
partie
dobře
języku
##дното
Brasil
reprezentacji
publika
движения
даль
##inami
Króle
пора
chi
Von
banda
Rosji
##age
if
последние
##sche
италиан
##пус
##nili
помощи
primo
Atlas
water
##юн
турнира
Hill
станет
Пловдив
Roy
bývalý
rezer
što
Филип
bio
Jones
##ás
Anna
turnieju
ман
1902
пехо
##enos
##ido
Jor
realiz
Към
zprac
тен
##iększ
1890
61
Związku
Вол
Chicago
celou
линия
графи
##мери
##edi
radzie
81
trafi
##АР
App
XIV
##ТО
Mistrovství
point
życie
chtě
dohod
głę
Santiago
##liche
mort
List
Россий
Championship
Jack
pově
Bureau
##rea
Син
##шую
##cep
должна
##lacji
##пери
pozdější
##зата
##cyjna
173
состои
Awards
##stavu
Roman
Day
приобре
средств
nast
top
dov
Juli
700
doszło
tisíc
pró
##лением
lékař
Fry
Jag
etc
Juni
pri
dílo
##ور
ава
създава
Hav
Pozn
Real
##zego
министър
##ms
ciała
##tę
##ito
organ
##tet
##гно
мъж
Son
tysięcy
central
##inen
škola
крайце
вооружен
Първи
вели
Ара
utw
##ůže
##lı
83
Vo
Тър
ning
##lite
España
##jen
Кам
Internet
původu
Liber
изчезване
Krzyż
stavu
Albert
Culture
вън
Marine
cenu
##růst
prvního
radio
загу
japon
Miasto
Рабо
pen
87
literatu
комитета
##рованы
##сят
##atelem
филма
ust
##хвър
связан
манастир
přist
##атра
наблюда
##TP
##графия
náměstí
Zes
##мис
църквата
##zni
##alizacji
итогам
92
##jos
##риал
##вии
Ky
PDF
podep
##nih
Texas
liczne
##куро
last
współczes
sied
sní
##vací
small
Album
169
патри
Young
93
Big
тяже
компози
výbě
Когато
atmos
##častěji
pręd
##сок
What
неде
1898
Španěl
pel
Williams
książę
Dział
поста
wschodniej
Football
##tace
księcia
Associated
##дь
best
zi
Walter
podej
##мышлен
otevřen
##rof
нова
Hy
71
druhý
Este
##ologické
##com
media
91
##гон
matka
##łop
hot
##lové
##чан
albo
Men
##niony
Party
obję
##тельные
Amerika
hmot
Flor
##шений
zau
парт
##leri
podporu
gym
jo
Bez
##klád
Indian
##czono
сна
wycof
##něna
1897
146
1896
Stal
bas
##lig
zo
##zeň
death
Microsoft
##imna
субботу
английски
час
##ecji
elektry
DVD
air
##pora
граница
Hän
ответствен
1899
##gt
воскресенье
##кът
##ceae
##arm
Kariera
Academy
которую
nejlepší
místa
##оте
##žili
уво
сезона
##ія
##sten
##ах
KS
klášter
##ciec
Great
ela
Under
Sant
vznikl
kli
##rostřed
1895
##had
##мимо
Lac
lang
id
Стра
ночь
пись
control
Париж
Of
##спо
unie
With
##iska
##rzę
представителей
поясни
městem
##йские
gro
Dub
Bit
Brown
soutěže
##miot
##nikami
##wód
średni
##łach
Nowa
Johann
##нок
##ques
formy
odpowiedzi
##řů
ele
zwykle
hum
##chest
oper
89
79
началь
Nam
Werner
##еру
Road
##obraz
jihu
##телем
заверши
##par
оси
aktu
většina
znany
пен
##tą
##šky
##latego
władzy
Освен
##под
bieg
напада
песни
##woli
условия
##pospolit
Wilhelm
##кратно
данные
##styczne
Lib
##вич
Československa
col
Cerro
##szka
тай
vedení
1878
##веден
Top
##ие
troj
fou
jednotky
Church
temat
Uniwersytecie
kompozy
działalności
##дрих
##čel
Джа
парламент
Mit
остан
Pierwsze
pracow
Night
##tvar
##пуск
##ני
powin
wę
ostatní
Коре
wystąpił
Ак
провежда
##bet
145
##wane
##лению
##служа
вътреш
##vyš
##edl
1889
country
##тката
##дев
spisovatel
1880
Západ
##skar
##use
або
Шу
doprav
dniu
jde
источник
AF
Version
##wą
##бори
spoluprá
kraje
Pierwszy
tygod
Jacques
153
просто
book
94
футболист
##stii
człowieka
##гни
run
##mana
мини
##čný
reży
lednu
María
strana
Army
##стам
оке
##tacji
средата
Větš
mln
Mel
##schen
моби
##ue
газа
indy
Germany
кариера
следова
obo
##sia
##šil
була
Asia
##ras
транспорт
Port
Blo
causa
skupin
жа
svá
##lární
примерно
refor
centro
добре
wo
ano
Zachod
1870
Grande
##än
буду
финанси
происше
попада
##chi
type
pełnił
českého
měli
President
Scott
Белору
Брита
tai
Luis
##isch
##sse
##sazen
just
Council
##вна
##ija
Social
##hing
##десет
##lenia
##лното
Australian
przeby
изо
заявила
##iva
koście
Prix
Bie
##'a
Centre
производство
##litel
##тных
tour
инвести
końcu
wschód
středově
nauczy
##vad
Pedro
teorii
avant
Sir
Argentina
затем
poci
snad
použití
лич
zobraz
Kanada
Если
Ende
Дон
oddziały
##zid
санк
украи
органов
##álů
Popis
##ye
149
określ
piano
Świata
сол
##úspě
vyso
istni
Africa
znale
одним
Jejich
Britá
##рява
pobřeží
##zan
elektr
zdol
принци
řízení
сотрудники
##oná
##iusz
Liga
1886
##ющим
old
park
##klo
Iran
baz
##нда
Bul
##нар
wielkości
1885
vyhlá
##reszt
Bas
##нина
##yczny
Ale
Harry
nejprve
Mr
бывшего
nowy
Verlag
zakon
Нью
##mas
dar
##lichen
1894
jména
jist
czasem
Brytanii
##рига
kně
Nov
Department
##ський
down
Little
Arts
činnosti
Portugal
заявление
группиров
##ujících
##omě
фести
##cko
##hlé
nas
rejest
nowego
бя
kval
Power
##line
Али
документа
position
##оруд
##itele
Research
1893
##29
live
Meyer
Бы
социаль
Jr
1892
zdravot
персона
tajem
role
Blue
##líž
прину
sociální
Сам
Kie
univerzitě
##mější
доказа
##ксу
Sciences
1891
##zeń
Král
##eur
бывший
kulturní
##ça
order
Israel
François
pořad
strate
słowa
přesto
##aren
web
взе
car
zahra
Pru
aplika
stalo
##ěh
##кли
Ир
##их
bet
chemi
Deutschland
Dow
Ер
právo
odešel
Byla
Фридрих
нало
##вани
pedago
Стефан
odliš
grand
##ess
##лум
Кла
неда
you
americké
Вене
климат
достав
психо
Воен
mezinárodní
##ającej
Global
##widu
wewnętrz
общо
сдел
razy
Teil
##вили
##owań
Rzeczy
реак
pała
чемпиона
##eph
##ąc
##grody
##нета
1888
Węg
vybav
čele
Цент
##rześcija
##ika
##asu
Joe
##štej
Сов
##řské
##шинг
##торы
Green
134
pojawia
Universität
režis
Good
##lun
Els
odt
fel
##зите
изобра
Йорк
##ником
цели
Wilson
##торов
##esátých
make
toku
sbír
представлява
##dłuż
##uri
##wili
studio
hisz
##elní
##able
меха
miesią
religij
похи
probíh
считают
Py
##sion
Creek
konfer
náz
Manuel
##sis
Оби
imię
ez
szczególnie
sezóně
sans
лица
нарко
##къл
##tim
Afri
Гре
прото
odw
Nova
IUCN
tut
period
##vel
писател
##stein
совмест
##хал
дълбо
Arthur
##ring
##ves
##дио
Instituto
##ина
Stre
zmí
Кур
wielo
obron
support
Bay
##MS
##жие
##ses
Copa
Chris
připom
инстру
##ال
отношение
##ges
##ам
kun
##tiž
Bill
Násled
vst
Western
předpo
Pier
але
lokal
предъ
Jackson
way
Afrika
much
модер
Gemeinde
zemích
##tice
##ente
номер
политически
Song
##více
##éhož
power
termin
nahraz
Początkowo
stała
tworzy
pilot
##raní
##wany
mikro
třeba
nomin
musical
Cap
##czki
##wizji
##оръ
##рож
##ende
urzęd
##ogle
матча
niezależ
историята
założy
версия
Bon
Serie
producent
уголовное
Národní
Two
house
Law
##miar
Chile
##телства
zbroj
Zab
html
napad
napsal
##лар
##vale
##roduk
elektron
Dra
##ès
Dis
##bina
часа
коро
myśli
започват
Великобритания
berg
Series
Mae
Johnson
Někter
włącz
Mikoł
##dziale
пожар
##рит
активи
1883
Kościół
procesu
These
svatého
##неф
law
Кир
мас
Cas
##lín
Нико
##tických
втората
##вое
распростран
Сър
Африка
##tychczas
##ds
Hab
Mike
Platz
knihov
Michel
##ix
arci
напад
level
1887
##znamu
##педи
starší
kandyd
##hoří
газеты
Среди
##ającą
прибли
Thompson
эту
##ule
Bob
гри
zaznamen
##nom
face
##štině
Giovanni
rychle
Chinese
München
войски
##ilní
##вай
##klady
Register
olimpij
Long
Steve
dź
##тени
sieci
Żyd
chod
##nách
метров
maga
обяза
##tos
vil
wej
##ee
включа
нескольких
Philip
##ńców
MS
Stanisława
Кита
socj
##DS
##cs
žije
Dzi
расположен
##лища
1860
cap
Ce
##tà
Nak
Media
выборах
Dit
##ės
Ste
pseud
provozu
Office
##ola
трав
style
Sud
##чис
odzna
##ственной
Wikimedia
##сиона
##het
koloni
Paulo
Израи
времен
##ówka
##ИД
##tik
1884
военнослужа
##первые
фонд
Edu
##тельного
##via
Heinrich
състава
full
##анта
interpret
sprzed
##ограф
prostoru
защото
комплекс
came
Force
##РО
##prava
##ford
##erson
Publi
prosinci
milionů
ако
Město
ozná
административ
##cher
##ism
страте
Taylor
Един
celý
pracę
Tre
##issa
състои
styl
domácí
##field
##eného
жизни
Order
gan
##ան
##говора
##uka
powsta
php
historia
úř
##ss
przyja
##вшая
1848
debut
1882
1881
##ъв
przesz
prowadzą
pramen
partner
Лондон
Sem
##овый
сел
опа
metal
126
##ici
Lord
уси
Zaw
##kul
pierwszą
grun
есте
zl
##ственного
Вил
Show
##ES
аз
акть
##heid
Přesto
##kož
wpis
Грузии
Верхов
##way
škole
тюр
Russian
##вла
##дам
стандар
##годня
stre
Columbia
выборов
##rna
##ader
pokoj
Zag
przekształ
##служи
въпреки
крепо
##urs
prohlá
Russell
lety
лиц
включително
##tat
real
аппа
uspořád
Service
Anne
Are
##мето
Gor
тогда
Londy
Severní
rzeczywist
Piotr
##oupil
ukończył
malé
##чении
przemysł
##листи
katoli
bak
традицион
##rodzi
Une
1st
1871
##vané
Roger
trest
bł
##ës
Google
Ali
подразде
galakty
Billboard
возможность
Odkryta
##eld
мень
Mot
drogi
UEFA
##ницы
udało
программы
##rer
Bank
Cla
Испания
Women
било
##nn
Kim
pref
aktivní
sním
##szczegól
этим
900
##mes
vydání
Svět
past
Oś
dodnes
куль
предна
Your
Зе
игры
орга
totiž
fire
##ваться
бре
игро
##ingen
podd
##ese
##тила
Year
Zy
drewni
##тропо
информацион
Wojsk
Otto
последова
Filip
nepř
Čí
head
Фер
##stawy
nahrad
объек
trať
##cio
gov
##opat
nin
##pospolitej
lodi
##ňují
týd
##лял
hrabě
budowy
Мекси
class
Св
Дра
##ht
domů
##ți
##bami
бар
Inc
Няко
##bora
##ška
Ohio
uj
1861
úřad
Henri
hodin
pochodzenia
##гло
Lietuvos
story
jejichž
hom
##tyka
ac
группа
Lid
1864
Malaysia
knihy
wypad
dlouho
преподава
1857
1879
##льную
jmenován
Virginia
оружия
##никам
корпора
разрабо
druž
##tica
##yi
Empire
Brno
spojení
Entre
That
hranice
1800
dalek
##ket
plu
přej
##eren
1876
kus
Up
prace
fer
Wien
##ченко
Victoria
Win
ом
wykonyw
Oby
Esta
мен
Florida
Wilhel
dle
##ствует
##interes
Jaroslav
Андрей
tal
ulice
##fu
členů
Reference
profesor
Republic
Seine
Boston
design
zachód
handl
sia
четырех
##ismo
Special
##мират
##ungen
предимно
hvězd
##tz
turna
mer
##set
Tro
skla
##kł
##erium
сня
Queen
##roczy
##łat
FIFA
možnost
VIII
Администра
детей
Тео
zakończeniu
произошло
Program
short
Pen
czterech
term
##wskiego
wzmian
ресур
##knię
##bre
ат
##нить
инф
stí
Ri
Alfred
Ottawa
##ried
127
простран
west
136
##лец
Francis
##zdu
Dan
138
francouzský
Díky
постанов
vyrob
##циони
Francesco
##ement
Tony
leg
Ostra
Franz
Васил
němž
##gang
търгов
Międzynarod
Afry
Lewis
##bot
##اد
klim
##itz
ulicy
##vního
nauk
tun
OS
Czerw
##bel
Název
vie
Old
cc
##lij
1877
oficer
##rin
uživ
##ńsko
метра
тол
##owskich
pozna
ara
ft
##степен
##los
1873
1863
poskyt
1810
vari
d'
##кистан
uměl
1875
tenis
svými
характери
Book
##biutował
plav
1633
##jít
Opera
##ństwie
##ging
wzrost
Des
vláda
Commons
školu
1865
крат
##бин
Natural
prezydenta
##erd
łącz
1867
obok
sił
вырази
употре
погре
напа
Digital
známý
вечером
Dou
André
являются
Германии
##sunię
##finále
##ét
##вшем
African
##spek
##декс
Sky
века
##cet
Danie
México
##ьез
значение
##tern
Voj
střel
##dia
vedl
##лн
arte
##szał
mužů
##zaci
##rar
##шла
1868
siły
internet
##ede
войска
Stephen
Patrick
hit
nowych
##karz
Ray
ima
##rozumie
Indi
Villa
##zeniem
half
Fu
Произ
войны
1850
##żenia
##get
##šit
Some
##лян
prostor
lubel
##ën
теку
samochod
XIII
online
##řela
Robinson
##wę
bil
Home
nového
##ložen
Universidad
Costa
##iti
##ando
Miguel
sre
Agen
odvo
Johannes
##ręb
специал
##czyły
Trze
голосова
бюджет
силно
##jas
##if
Region
přítom
събра
1500
Produ
See
zmiany
##owca
Romania
консул
Buenos
изди
##dou
kontrol
##цар
eo
ass
Она
Nature
obli
field
uvádě
излъ
1866
agen
1872
##andii
výrazně
Tě
1859
wyłą
##кен
##achu
vita
vir
mię
##list
arm
sos
ztrá
Ia
Aires
free
Airport
##FA
свят
норма
wchodzą
Sun
Act
политик
Петербур
##ding
учеб
atak
maszyn
##wych
членов
Brian
1869
новый
##heim
148
137
mógł
##itou
##ett
dziedz
##kán
Боль
1862
тип
możli
Geschichte
##jon
Georg
##ña
##nas
Wikipedia
Karla
Andrew
##elle
biskupa
имени
Books
##эн
Lady
армии
##run
Jawa
works
##ness
Mario
Francii
деньги
неговата
God
##zeno
Amsterdam
hu
##респон
vzá
ген
Fernando
Canadian
Studies
git
vévod
##раба
Ci
допъл
zewnętrz
большо
podstat
1874
způsobem
vůbec
Oscar
Karlov
bol
party
##ceti
nebyla
##wił
##грам
зат
##átek
naopak
aj
##vních
lokomo
##линг
Panny
pomocy
Петър
жителей
##stąpiła
Online
Eric
##líč
фрон
Mari
Game
147
видове
##eje
zastav
##niach
##ու
##tre
филосо
Rzeczypospolitej
гър
окру
принадлежа
потребова
##lus
Slav
Institut
Франции
##tive
##вого
политика
konkrét
##ходят
##dad
##сказыва
Guide
open
##lli
##руют
najstar
Hot
Publishing
Dod
świąty
amerykański
Korea
XII
wysok
##ziej
Court
##nus
##нят
román
Ek
obszarze
Také
zabud
založena
Dictionary
##gór
EP
приро
бързо
běž
##шению
Ludwig
nabíd
##uta
sza
https
полностью
##тът
101
##зор
win
##ждено
винов
zy
магази
##вание
##OP
стади
Всего
##доров
rozdělen
color
Wales
Oslo
##vas
zagrani
vztah
километров
Point
Již
Library
Васи
##гане
potra
##что
дене
pola
банков
opubli
hlub
business
kro
Mission
całej
sprav
Marco
civil
##hře
##стор
##нера
##šov
hem
точки
##tyk
Mundial
Elizabeth
sołect
##ield
Victor
nationale
##ctwa
oprav
dag
Jim
human
Pour
Second
птица
Auf
##шу
Prince
относи
##щат
Krist
konkuren
Entertainment
jednod
filozof
Tade
ztra
Други
дополните
##риса
кръг
Jedno
Como
мире
française
##чик
action
skier
чемпионата
nią
представя
licen
Ян
váleč
##una
zají
##pust
##ecká
##álie
рус
Warszawy
назвал
##xa
Андре
tant
##сред
gab
уточни
##cus
trzeci
Posled
##нан
Alpy
Młod
Таким
пребро
причина
People
výzkum
##анти
##jąt
##tro
Вашинг
Pale
щата
rei
##пия
Set
преступления
Miss
105
anti
новых
упа
styczniu
##ecka
##wange
Ford
Stu
##zimier
Rów
Zast
командир
##ezpeč
Century
Англия
Хайн
##ktem
kwa
prodej
##jąca
##лью
Pavel
Ele
##mon
##bles
гръцки
##гри
ucie
Компания
lidé
telewizyj
##atora
Davis
reprezentant
##TV
inicj
osíd
Józefa
Mount
##чего
Dą
Wolfgang
sbor
##čná
нефти
##oji
Station
stál
małże
Osob
мон
Project
##ycznym
Gali
Comp
Jsou
dneš
ministra
##скан
публика
Alan
track
##вшим
##wana
literatury
Jas
čín
moment
ны
Claude
Bre
Mur
хората
##niz
Jes
Uk
напуска
Fort
roman
Dzięki
Carolina
##dal
PR
православ
body
ведомства
fakt
pora
##ścił
IX
Niz
##ור
##owska
ръководи
##нската
Nueva
##bia
129
lá
leży
kilk
##чены
##štiny
nacional
Nr
Джи
úřed
trů
Line
##tím
##wicza
##tuł
Most
##isk
Gold
Syn
военных
##žela
częścią
бюдже
большин
превръща
Norm
Завършва
úrov
sest
dochází
публикува
květnu
odehrá
124
Town
##туга
Narodil
##hin
musel
144
##nos
сторон
электро
Professor
Valley
властей
каса
##мости
Olomou
tłuma
##мага
##ovaného
Model
kas
zaczął
vodní
##вом
##път
Чу
##конча
##овите
##ик
funkcji
зла
posád
забо
проходи
##HL
##лоу
linie
event
##lui
vozid
Российской
оборуд
##eckých
специа
epiz
news
следствия
bíl
Auch
Golden
##cii
Zap
деятельности
performance
zda
##san
Cruz
Tep
Carlo
Bou
přirozen
мм
nam
Enrique
##лки
##etě
powieści
##ful
DC
Jersey
Тогда
Bernard
Zealand
##бло
Sur
związane
отправи
Corporation
##feld
szereg
pojedyn
bug
сыгра
##iecé
Голя
иностранных
##haus
##zimierz
##islav
Stone
sama
Sydney
fotb
ks
szybko
##ającym
Tem
Susan
##тания
връзка
Austria
ora
Committee
##avor
##ъз
krátce
potřeb
био
##spor
##ild
##miany
Other
##тино
Federal
##ибо
##del
##glą
##bb
##lio
pěst
put
vým
Games
Development
организира
Out
urzą
Kub
призва
niepod
hřbit
##kel
Princeton
##дова
инду
##смен
papež
Who
qua
Um
##зация
##стрия
испы
akce
мирово
Girl
##ович
арестов
Žid
##rodę
Климат
присъеди
temu
##траф
Fal
1830
If
Toma
големите
##deň
leh
oko
sent
##ments
чув
имена
##кован
българска
wiej
##známější
##rový
мате
hiszpa
siost
##isi
кризи
Bern
боле
Niemcy
Бен
vyhrál
Foundation
Ernst
Eesti
Sin
##мера
компью
реки
Мари
Space
##ose
krát
předcho
##fia
Тер
Německu
nových
##cyjną
Kong
##еть
właśnie
139
Government
##nar
##ленные
##ões
Paříži
muzeum
lag
sal
front
##arzu
bron
Rome
залож
krátk
gymná
села
Pacific
##aného
koncentra
##cal
земе
młodzie
Анто
повечето
rezerw
gor
Stockholm
san
Cze
můž
ludz
Master
##чното
##éru
Miller
##лизации
Latin
dotar
Für
рез
опро
komplex
судеб
common
náklad
полуо
здра
##жей
##mując
шесть
zaklad
august
позна
povin
zvíř
Web
Ireland
##oi
poloviny
##ante
Kas
Hollywood
##вица
##gas
##ствения
##сък
Public
Kingdom
##sun
##sson
kod
##ño
острова
pojem
##ая
Story
Kot
##горо
Hou
aust
##тация
nová
Prac
Russia
Diego
##йд
##раства
embargo
Leon
Wojcie
novel
součást
##atím
Япония
полага
podobnie
objął
любов
lodě
informace
француз
podję
rel
uzbroj
съпругата
Bruce
zmu
##uszy
dotychczas
dalšími
##чване
Marii
доступ
północno
Медве
Review
wrześniu
##rnu
kolejne
cały
1840
##AN
##niósł
dowództ
##žeb
##гран
rodin
валю
wyłącznie
Švéd
studoval
##wid
реали
druhou
sobą
eng
Premier
Nau
##wej
##owości
внимание
наде
Va
struktu
wielkopol
Pennsylvania
Islam
zmniej
science
przedstawia
student
##czek
##skimi
месяцев
##hot
##aryn
sztuki
knih
tém
мре
Sea
Premio
Board
предназна
Budapest
powro
университета
##шено
поряд
lotni
Anthony
##ądź
##nątrz
##ностей
##lal
##ggio
арест
южно
##wood
разбира
Марк
super
##pres
##гъл
##lostí
##ръж
##zia
Part
Festi
metrów
законопро
Wysp
##yer
находятся
zabytków
серьез
zřejmě
Tel
покри
Navy
##ovanou
##лис
##oa
Network
Movie
##hen
ptá
brąz
космо
Některé
##мини
##стъпва
Jez
zainteres
deseti
how
##anka
América
nechal
влияние
prezydent
Regional
tou
budovy
jihovýchod
преми
tras
myšlen
velkou
Battle
Въз
Last
##tického
##ston
Milano
uleg
wokół
102
północnej
smí
diece
Janeiro
осуществ
##čá
zvlášt
powrócił
##anty
##ozem
Samuel
Family
transport
##rání
Praw
##смотря
отра
vykon
kola
##isen
управля
##ία
немец
##ette
położone
ohro
dětí
Ort
верну
възду
##зации
##čno
благода
Vin
##рь
жена
Biografie
NBA
ští
##stava
##tie
Douglas
провести
ČS
##noszą
##kazuje
##ivo
metody
Виктор
новой
parti
имеет
##AM
określa
Rose
##чков
##ić
Vys
1858
zabi
Nowy
Fox
teorie
составе
Main
disco
четвър
##чето
sobě
##orov
Sol
Non
работе
##dt
poško
Ат
##реги
##вка
sdru
Gordon
Burg
Офи
процес
##нили
przysz
##werk
##eryj
Civil
##строи
duże
Disney
образование
minim
шести
ВВС
помощью
Monte
##czeństwa
ant
човек
civ
Запад
##тельный
Illinois
hon
Final
wywod
годы
personal
najważ
появ
zostali
času
idea
federa
##sä
Pia
##ровер
##денти
vedoucí
odbył
Республики
Commission
##burgu
##клад
moderní
использу
postanowi
masa
Roberto
Ki
jeziora
##dra
Georges
Santo
##lag
Česká
##cjami
Summer
grze
поко
##бил
##rova
How
отправ
festival
dok
Country
годах
##iery
##mów
przebie
происшествия
Борис
прио
здания
##ządu
nadmořské
##awal
średniowie
Okres
##щество
opie
българската
Rev
##valo
##less
восто
vs
Major
cas
Пло
komputer
350
Константин
Video
ojca
Ut
dowod
отбеля
живеят
##zny
приговор
nejčastěji
##zza
##arem
punkt
Trade
Anderson
rozhodl
плат
Уча
Vladim
pracovní
Norte
Nep
сумму
майка
МИД
Украине
urząd
##ör
Hamburg
podobě
##cos
##tions
##СКА
Vznik
ред
##vet
počítač
mel
dwuk
opak
##годи
рынке
stacji
ранения
kosmi
серии
##бина
fast
przeję
person
##ין
cuk
black
ese
Integrated
##новременно
телефон
Jezi
Brně
1856
návště
voz
dua
закона
preze
Okrę
Уни
Miejscowość
bądź
##нге
Education
příležit
bitvě
składa
Leipzig
##ings
##amp
девя
##tání
Alf
1854
Report
Net
Casa
##cznymi
Hong
hru
доллара
##don
Zim
uskut
Howard
Del
##hli
дивизия
##этому
przeni
smys
##пли
Země
Deutschen
полк
Heart
европей
##śle
##jekt
обрат
File
Allen
medal
břehu
##zh
Like
znaczenie
Йохан
Dla
олимпи
##ěti
Internacional
Plant
Víd
##esta
104
получить
държава
rządu
театра
Southern
##nić
turist
Massachusetts
Součas
jejího
Maj
Powst
ham
Ltd
zagro
Centrum
člověka
##АО
##giem
Mountain
ЦСКА
лидера
##rových
Three
chce
případně
postać
rozwój
##idi
Nations
Campeonato
bere
chłop
##глежда
##dar
1849
spi
дълго
систем
lodí
uzná
соответствую
Калифор
Хан
Theatre
hlavního
trój
trati
офицер
zwiększ
Алексей
Mlad
##няват
žeb
депутат
Wen
##det
##ned
##мос
maju
##gip
##μα
##ій
hradu
stor
Far
půl
Евг
Blu
##ofii
sprawie
##łami
##iste
liczyła
##чай
##ude
сети
##pravidla
Nová
Спе
křiž
bezpie
zásob
Joan
Jen
klasyfikacji
##jącego
stanov
##cion
Planet
jád
gar
sang
##шната
##áj
formie
убит
věnoval
ilości
казва
Village
mezinárod
##ân
учител
##ете
Sym
síť
##cov
1855
automobil
Frankfurt
Kara
poszczegól
dies
енер
##avy
увеличи
##voje
Georgia
popar
metro
mláde
##беж
Volume
##ченных
wykład
полиция
arcy
Christopher
medi
##istri
source
##ön
téhož
##adomo
##ván
днеш
##шните
Marc
округу
Toronto
motor
leś
##likož
##rigin
##imnazj
##iden
white
ядер
собой
jejíž
Мор
Catherine
режись
medaili
Québec
##leně
doch
##zję
этому
řešení
Andrzej
тому
##читы
которым
Business
Stad
cílem
dziedzi
Ul
лято
##zdob
##kých
łódz
ada
max
Фло
музей
profesion
potok
код
##комо
архитек
центре
##kteří
##hnout
академия
ovlád
hol
znajdująca
less
1852
Tokyo
ep
##éd
drużyny
modelu
flo
porów
##cům
Индия
##ლი
##жението
ligi
út
##грес
náro
władze
klima
##alizace
текст
służby
ego
get
Восто
религиоз
Norman
##šské
edy
3000
terra
zastáv
slova
скан
принято
przeniesi
##iga
##west
drama
соста
odpad
granicy
##sym
Manchester
фр
čist
Northern
wzię
доброво
obyw
##ить
Pak
##ез
nama
415
Národního
впослед
istnieje
##kola
истории
Еди
kvali
Zabyt
##ije
##řeny
##sin
Magazine
Moore
červnu
##gr
редица
Kevin
upon
##działu
Will
konflik
##ческая
Федерации
Boy
##ověd
143
##стей
##ries
Deutsche
Harper
##erami
równo
bratr
##odziel
##бий
Kir
курс
##ping
ним
Stanley
dlouhé
состоится
Minor
##vos
##anda
счетом
Наро
Philippe
obwod
##яло
Hotel
##tiště
sign
institu
Tym
neg
Izrael
##stand
означава
##czyło
##zwyczaj
произведения
##wedz
##wart
Jižní
Human
amerických
místech
zav
##żeli
Asi
Walker
##żynie
architekt
latin
Środ
Pakistan
##ęła
##обеща
vyvol
Middle
wyj
##pozici
##сион
##ningen
междунаро
Gabriel
##жит
##omí
##дър
šesti
mazowieckim
Uher
grad
Gab
македон
##нга
##čené
FM
##landii
Všech
podobně
##нией
##spo
##ias
klad
Death
##ционе
бив
Ам
##hus
ún
Catholic
Численность
Софи
Michigan
Try
osady
фильма
Director
Universal
##chů
##лья
kommun
road
DV
известна
sale
brzy
podla
духов
первого
Egy
instytu
vojenské
##ladu
Finland
ins
alt
energii
Кан
moci
##гру
##бах
Сирии
Sports
##gat
##its
určen
Sko
отда
Tal
sygn
Burton
##kwi
Gary
DNA
łac
Луи
##port
Bell
##ала
##hat
##ase
##asi
##anna
##блиоте
společností
##ish
Iz
princi
участников
malá
m²
stavby
##book
możliwości
потреби
Small
1851
text
podzi
##heit
##ála
пообеща
vesmí
Základ
rozkaz
Jane
##лес
Johnny
##cony
103
ger
##lie
телевизион
##нска
gol
##fen
Maurice
##dom
##house
диск
kosz
1853
sol
zjawi
##vor
žádné
##arzem
Demokra
##mist
przeszedł
##niczego
конститу
Спи
извън
drugim
рассмотре
wyjąt
hraje
tla
музе
##mal
##сро
##tore
##ios
nawiąz
##úspěš
stara
Eli
Repre
##лос
##yo
конференции
##valy
rekonstruk
církve
выступ
Jakub
##anga
Beach
##миш
гори
шест
##КП
mid
Partii
zade
високо
pięć
Dro
плен
##тим
##víj
Шве
##ient
Była
konie
format
##řiv
Łodzi
katalog
Irish
хими
low
gatunek
hrd
##king
center
Ivan
vu
##oupila
уничто
koali
##CO
Hitler
##лам
Kalifor
разно
Bratis
##bile
Ferdin
##că
děd
wybrany
##měru
размере
ła
сами
серви
polskim
Face
согласно
##коло
nova
##žky
боевиков
1846
lidze
Way
důsledku
wyści
więzie
##AR
Cross
наук
czerwcu
Towarzystwa
regular
zajišť
pozici
##tum
милиона
badań
сръб
##тики
##liga
Giuseppe
115
##лег
Light
##zów
Сейчас
##куп
Nas
najp
##mav
##АС
sąd
##czka
таки
Venezuela
момента
Турция
##arki
бир
положение
главно
Centro
poziom
##тых
##gs
Over
Prem
Johan
ситуации
Кос
Разполож
Ly
переговоры
церемо
południe
renes
Typ
ref
ly
##loub
##inach
Укра
opust
поте
przepły
##kázal
##čer
връх
##anci
wczes
Name
zgin
nazwie
Глава
punktów
zákona
léč
Aby
kříž
Univerz
фун
Clark
фамилия
собы
##tori
завър
рассматри
Mais
храм
указа
głębo
Fall
##τα
kadencji
##wym
люди
narodil
##обо
doktor
свързани
##мед
1847
leżą
doprowadzi
doświad
Hum
light
vůči
##duje
осигу
##тах
García
##řily
politické
říjnu
Ofi
1815
resta
##tou
nen
сигур
##usi
czele
катастро
тури
prowadził
zwier
стоимость
Kelly
pancer
fun
double
##ichni
##atek
Nové
socha
Później
Alberto
Josefa
##czym
желез
používají
##ierzę
spal
##zar
первом
##żyć
##mysłu
Milan
осман
точка
Loire
minulosti
##лът
неговите
komunist
##ecki
директо
220
Marcus
Institution
##styczny
111
kombina
##zacja
Ontario
różne
##top
vysoké
##prawy
Alpes
kobiet
Jesus
разположен
Hermann
##movny
Dance
##oryt
ženy
астро
březnu
центр
##овым
pag
lista
107
108
Hamilton
##hodob
trvale
Bart
čet
apod
čeled
zou
##gio
atd
##brze
możliwość
mise
ISO
##ου
Светов
##well
##téká
Prov
ante
działań
žá
##bory
##емого
Вме
##bau
##того
najmniej
възстанов
Мер
areszt
##zeit
сообщении
Ann
##nily
реката
##щта
Stand
vzájem
marcu
Извест
tabul
Dre
fung
##náct
strán
rychlost
скры
Billy
dir
##ilu
развива
Mann
Wild
semi
##жо
совета
cara
километра
Często
Ах
##спек
##syw
##sława
Sed
poslanec
##tivně
Kni
##rik
террористи
Lev
1845
##барди
dosud
##tki
приводи
##tico
##átů
##ovíd
Back
впервые
Ferdinand
##ER
muzyki
тюрь
Health
##czem
Provincia
budowę
360
vrst
самых
##oon
##гне
Vietnam
##čkou
взрыва
##nicí
Zar
Hugo
More
Хайнрих
píseň
PS
христия
grudniu
1842
południowo
następujące
polskie
##метров
одном
##ąst
середи
Horní
Kru
Nelson
##zio
patri
Technology
развития
Państw
Puerto
выда
##stání
Východ
марте
výmě
Пан
poblíž
##yan
##жать
контроли
Philadelphia
##зови
ląd
nemoh
FI
Congress
Edition
##raží
obrá
Sovět
насо
południowej
łączą
##ложения
мета
КН
dobrze
státy
##deł
##eo
zprá
иму
Bydgo
oro
Field
##ливо
Down
##arium
městské
cum
pier
Barbara
Fire
компен
##ades
##дя
##kyně
přátel
240
таких
намерен
доли
одоб
ulici
##ture
едва
Hospital
pale
gu
первой
шах
##жават
линии
Britain
##nictvím
конца
##нително
##ничество
ликви
##nocy
##gel
Not
Niektó
software
##kám
zapo
Studio
Apple
1844
Stuttgart
Sul
##kowicie
##roń
ABC
дис
žlut
пожа
Лев
DJ
департа
Nederland
Meziná
##телната
Alice
Colle
Miros
шампион
nową
umożliwia
cover
##ones
Česku
akcji
художе
Dave
##xe
důvodu
требу
kolek
поддержа
coraz
сокра
##hed
Vic
college
106
##риди
Moon
Miejscowości
##ša
grał
wytwór
gas
Zn
##uan
##вок
##бележи
budynku
марш
Sri
##ων
нынеш
Andrea
dítě
Coun
##lová
cer
Vl
zpravidla
коали
Западна
rzeź
##ślą
Россию
погибших
##chan
##PS
прось
filos
week
##shi
##sił
##ády
Free
##ěk
stře
oni
Nick
Directory
##ставить
112
Antoni
инциден
##pisu
присти
koło
nejvýznam
Ukraj
Сре
love
##niczył
Near
terytorium
kysel
##kte
продължи
##ced
przestrzeni
Jazz
1814
Spain
język
Серге
Nar
Намира
интерес
попро
нав
Джу
матче
spekt
югоиз
##zony
objevil
североиз
apo
Пен
социал
Branky
1837
##zant
Ich
##ienie
Jorge
##wajcar
Zyg
тран
hla
евре
##żnej
Vincent
Tru
stopniu
Leben
powy
úpl
Lad
rezi
клет
российские
Wa
##телност
synago
предупре
Dark
ам
domy
##lových
авиаком
Lawrence
space
##сев
##nąć
Dat
obserw
Rudolf
##нале
проведения
отличи
взаимо
##stąpie
velice
133
gaz
já
mistrzostw
nemá
##bes
ръковод
droga
cesty
##fall
1839
##rót
Theater
Fab
wido
Jimmy
uder
územ
Zu
dráhy
##хел
Et
##cího
Demografia
Adolf
американских
okam
wydany
выясни
buď
Rober
Nowym
прите
##пущен
конфликта
zjist
Opis
##uto
defin
Hun
##alność
bili
##lum
##lah
vedením
1834
vytvořil
##ять
##КО
About
nagran
планируется
Северо
Single
Sherman
hab
захва
обязан
първенство
1835
pia
##ches
ogni
##стя
tera
bitwie
Code
##лизи
Missouri
Nobel
Baden
Же
Prá
Scho
##TS
nowej
##lica
епископ
Jac
Гар
osobní
bin
federal
##лиз
##ałem
109
##ving
wych
##rk
Джейм
опи
karierę
Charlie
Moh
##nowa
Minnesota
##dur
##хен
##гове
Ap
Eastern
список
книга
Hod
##kus
снизи
##nh
tehdejší
lipcu
##ини
##ign
nadal
##гора
Khan
nigdy
##oja
barok
promě
расс
gang
Владимира
Sek
klu
предприятия
uniwersyt
Come
##amin
##шко
произход
правителство
##щим
##лението
Duch
##styka
žil
sezóny
1838
##шил
Dead
##će
произошед
alko
dalším
##pes
PC
Този
##sing
Guy
##rygin
##ckým
##biorze
рубля
##най
бря
alb
Jordan
wysł
letou
osmi
##řice
##ight
зависимо
##łowa
Era
##виг
возглав
Ana
получила
##ors
začíná
##jechał
свободы
##единен
##нете
soubor
październiku
rodzi
niemieckiej
šed
Blues
słow
novou
Mno
##телят
Jonathan
Ludví
Later
Pił
##film
vide
##ères
##yczna
остав
##tle
##ming
Тан
Цър
Porto
hory
##szony
Zakład
##ЧС
Ště
Junior
Unit
Mand
niemiecki
##овор
##dre
KSČ
vyskytuje
Nev
dřevě
Conference
трети
нач
##ческим
каби
##зията
##карва
IS
Boys
сра
barev
##ajem
1843
Donald
##kas
cit
Прави
asy
Hein
Nicolas
niemal
##rice
максима
zakończył
całkowicie
пала
jü
dní
кои
předsedou
regional
Тро
Кари
přijí
##lů
samej
císaře
Швей
##ες
##marł
batali
##lila
Ryan
Londý
##cena
kota
herbu
##vem
##ecko
патриар
příbu
Sar
mistrz
fas
воде
##таря
tutaj
##ай
Czę
Now
okraji
Management
##вшихся
##вый
поддържа
Ken
неодно
Спарта
kasz
Jacob
wybrze
Европы
svoje
пункта
współpra
седми
1831
sytuacji
UN
ФС
Hom
rue
zazwyczaj
Sze
механи
##nera
обяв
unit
декабре
Amt
čast
##fem
szwedz
Río
##tina
Duke
проведен
Washing
ета
hranici
##рование
Jugos
месеца
činí
##iche
##телните
brak
##robi
##емый
zdej
SIMBAD
AP
##gnie
##menty
Jeden
otra
##ər
powstały
nicméně
vice
Žije
кварти
vyjád
Tod
Sarah
##udoval
ostatních
##ból
sera
прошлого
svému
Ur
formula_3
##okol
Channel
AFP
Lar
##AS
Magyar
##ateř
Indiana
Вале
##dami
self
Maďar
hos
държави
pierwsza
utworów
##ury
Terra
##var
прием
связа
##stwem
##lili
##тру
odehrál
Ian
##ати
речь
реша
##vace
tron
##знава
wynika
1812
Анна
Sob
1836
внеш
editor
меры
##туру
##rit
##ül
znal
россиян
омъж
область
россия
Slovensku
1644
сразу
Levy
dones
##ила
роль
skladatel
dokład
uskuteč
płyty
##ister
удар
професиона
Zlat
подо
предпринима
snaží
1841
ustal
fabry
хиля
Шар
117
##aster
zawsze
układu
Stadium
основно
mono
provincie
Jde
Австралия
секу
##sor
většinu
Kostel
anu
Ved
Franco
##nemu
единствен
Winter
swego
málo
Казах
Игра
pamię
bronz
##чном
Киев
Švýcar
##stoupení
odsou
Museo
##יר
количе
##idu
Bruno
##bro
Paryżu
##over
Harris
okręgu
spojen
Rosa
grote
western
став
123
##ower
##anami
Афгани
Zespół
França
objekt
##зването
##ара
##mení
Общи
Keith
##osław
cząst
Mis
клю
Ross
##стом
##ánů
##jski
otro
nebylo
руски
Българската
##wierdził
León
camp
останалите
##ierzy
René
##dery
Význam
Poslední
otrzy
##rovou
1600
niemieckich
przebud
Александра
postęp
polska
##lické
chrześcija
МЧС
450
nalé
въл
крайбре
Иванов
rejonie
situace
Gesellschaft
##miu
Francu
Karol
zahrnuje
Chief
##пър
Зи
##vaný
##idy
Kansas
etapa
##pisy
fort
Atlantic
##nických
согласи
ogłos
zpěvá
Harvard
##pre
сфе
Railway
Зла
mao
Благо
Kanton
1832
Girls
##kého
částečně
Apollo
Arab
celém
1833
rozbud
Warszawa
##sztor
Pays
изследвания
Brazil
symbol
hudby
Bir
##elt
види
язы
##logia
Four
Landkreis
театър
1820
End
japo
głównym
##ario
российский
Germania
Frau
прожи
##nił
поставя
MTV
Third
rewolu
обстре
##стка
##לי
лег
provádě
##šli
Jason
Haus
získat
Teatro
##bun
odn
Andy
Mach
epo
114
Pucharu
##номор
##ute
##éry
Benjamin
monarch
Renaissance
##bio
umožňuje
##май
##ánské
kre
exper
trat
връща
divá
indywidu
IP
##sus
##щую
cyklu
выигра
zůstal
wel
Head
##eu
##печат
метро
##ires
Jiho
##тной
Salvador
popu
мястото
Machine
годишна
встречи
Segunda
##ствата
wygrał
mur
televi
pás
Wielkiego
Sing
създаването
Органи
##nocení
korzyst
całym
novo
##ischer
anul
zgodnie
Жан
Herbert
zalicz
lidu
Слу
Baker
##schaft
przyrody
pay
Napole
Kle
nomina
Islands
##fal
Radzie
Oliver
##imnazjum
вместо
##или
Два
postavení
poję
hně
##ats
Leo
ziel
Fe
Fred
230
##явява
pdf
1793
Gol
##ýval
historie
войск
Генера
ква
Рус
Sierra
Asian
Scotland
##пълно
přesun
poby
świet
учре
##ерата
skupině
##žad
Bos
učitel
filmie
утром
раке
Stanów
Mek
##zimierza
огром
##rzą
rap
písně
Szy
вд
digital
Erik
Jerzy
Form
Graham
планирует
католи
##ławiu
городских
sprzeda
увер
manager
първото
Kreis
don
dospě
##wojen
genom
ag
##рането
Lincoln
Sein
##aux
artyku
ri
Collins
##вени
składzie
nadz
##veřej
##щето
Adams
bass
rá
forte
##alem
přiv
предизви
##ата
##vější
code
сегодня
dubnu
celého
jednání
stříbr
прокуро
одна
mj
##ienne
dziesię
Matt
But
piechoty
północy
##cina
Wright
##ics
label
Представители
Songs
udrž
poważ
##owiem
##nul
Nag
113
##itní
ami
##čín
##dio
skončil
##ür
##weg
jednoduch
##zone
управлението
комплек
Stanach
##ța
Бор
Republik
Zygmun
##скор
červenci
listopadzie
nauki
ISSN
svoji
Body
dość
##леност
изго
Prize
quattro
##umi
##ivní
ей
продължение
борту
sú
domów
śpie
цялата
ниво
HMS
##KS
inform
##wad
Tag
author
НАТО
хоро
стил
Skup
Fried
1821
##wienia
объявил
аналоги
обща
arts
Przykład
svaz
rozšíření
сътруд
Położ
##вяват
750
##ük
прогно
přel
представителя
##ento
czasach
druhém
##logie
##ški
##nostní
založení
Castle
sierpniu
##рик
oblí
stejné
Stev
zámku
seis
##gem
Baby
Съедин
rund
působení
##PR
##нт
##lles
Champion
přestěh
oblastech
zakresie
Partido
kontrakt
Justice
Elekt
млн
сконча
orbit
sedan
##ides
Nazionale
##cit
116
пройдет
брон
##kopol
Arizona
алко
Another
причаст
zamknię
Welt
Play
tereny
austria
##зован
moto
##czyk
Colorado
saw
опровер
Ван
ближайшее
Just
##ština
##ovské
Jewish
División
farnosti
státech
полномо
##жены
новые
Regiment
połowy
ilu
двое
Помимо
210
Frederick
Morgan
zámek
Много
известни
##ets
wydał
legal
##cono
Gustav
Фо
##вых
предложение
##ır
##onim
##atické
##encie
svobod
management
Sainte
Miku
Роман
##тава
Bet
tvrd
Została
Musik
возвра
Today
Morris
gwiazdoz
завръща
другите
letoun
Revolution
##чным
боев
Елиза
pohř
Pierwsza
##рус
písmen
##ake
Бразилия
Дэ
souvislosti
##ałę
##gické
Robin
##dus
zajmuje
Zel
vzác
przyzn
##ёт
##стата
Charlotte
Studios
zarządz
##nicę
##oč
staw
сообщила
UNESCO
zkušen
##žek
Většina
Pablo
Bayern
##док
Anti
##owskie
Суд
разби
vesnici
##láště
podél
Guinea
широко
Object
kaple
##bas
pozba
Демо
Sand
##помина
Jeff
##stoj
мю
официальный
przet
Santos
Podział
##ður
Cuba
Gallery
##sme
Азия
фонда
quasi
##lami
Og
1200
Express
шоу
литература
stopni
Šk
##wami
Straße
##TO
Hiszpanii
Many
Itálie
##ствената
решава
Corps
Králov
Wang
##hausen
Daily
##ovic
##eza
##ърх
##ciele
Plat
utrzym
##iai
König
uzna
CIA
Edwards
Championships
Christmas
Contemporary
česká
Luigi
##jú
намират
Тази
##зву
srpnu
##южет
##ament
výtvar
Większ
disk
бази
3D
stadi
1825
Pomi
активно
##ities
##скоре
bul
divadla
hal
Mars
Од
Oprócz
##ivu
разположени
mnohem
propag
смята
##pin
##степенно
118
непри
członek
епо
Wszyst
выну
позиция
##lod
Remix
##AC
##otu
tová
rezy
market
Fritz
koncem
Dream
uruch
##wając
сега
гимназия
velká
1700
bí
гр
дале
Raymond
prvky
Instytutu
bezp
брига
##čnou
Vir
rest
госпита
Pozna
Andreas
Paolo
подпи
ас
Ces
Survey
феврале
Stat
dostar
##ול
dům
Medal
лятото
Египет
João
##рок
dziennik
##sar
island
стой
starożyt
Vilnius
Komisji
ирак
průměr
исполните
экипа
##жени
řadě
krę
noc
##ционной
статье
Първият
##fica
##ель
##мула
успех
##alý
##vange
Doctor
vyv
budynek
Джордж
кан
mans
county
маги
jeśli
Age
švéd
neut
pohoří
##ča
таким
##сить
létě
библиоте
##aa
Enter
Солу
отказался
1829
Stefan
президентом
##skytují
##nictwem
##tiva
##leb
ед
zwyczaj
действую
Kv
ole
Бай
kW
##rzem
neob
##фектив
гола
male
mieli
121
nazy
uczel
AS
##фект
krzyż
dopravní
szpit
Bridge
Zabytki
##gne
Papa
##aní
stati
Sound
zostaje
kaž
problémy
5000
přep
##мят
Cultural
serialu
Champions
##dis
THE
pomorskim
1828
our
přím
Captain
001
fotbalový
nejvíce
Place
##пел
1806
poż
kształt
Ран
израз
popisu
profesorem
žebří
imi
##ałe
правителството
Иран
ориги
Някои
rozpoczęła
утверждает
предостав
##רי
Orchestra
żół
Memorial
##рить
Pietro
##lap
неговото
kwietniu
mani
doprava
##шта
##cida
122
użyt
zamieszk
разши
##ес
ua
istot
секретарь
бряг
Stewart
cele
Преди
##gus
##мества
Coast
станции
rozwij
svěd
##jar
dlouhodob
Fir
##żd
Lor
konstrukcji
##енин
wzdłuż
Laura
микро
непосред
##bil
čeledi
##szto
размер
##inę
##non
араб
##cku
LP
lý
metra
##кая
##mm
Euro
процесс
obdržel
Sultan
##ction
nádraží
##чават
Gray
релизе
типа
oblastí
пояснил
zostać
dlatego
Get
##šena
лат
Stav
raket
##ος
владель
Kazimierz
##син
кварта
Coupe
hus
maxim
report
jazz
автобу
ано
całkow
##azdu
признал
##endo
##tickou
##owicach
otce
##ческую
лей
лъ
Angel
объем
Steven
##лица
Inne
odrzu
Muhammad
energie
издава
Bishop
únoru
аст
##gol
Wrestling
объясни
##esi
zatrud
##щена
Władysław
сентябре
##stvím
círke
druhého
Garden
pozn
Znaj
##alii
obchodní
идва
začaly
##ůležit
honor
Ez
##jącym
опубликован
##сена
níz
fos
połączenia
Grant
посла
##nel
умер
електро
посвя
режим
хозя
архе
##ät
##ical
##ande
Пале
Nort
Société
состоянии
Предполага
Лит
Мла
##sledu
Miami
mys
##kur
Причи
Woman
##канската
bakter
mężczyzn
##znak
последните
Projektu
##ovce
##лдин
##кул
vycháze
редак
dot
действие
Умира
##krom
patřil
velkých
##тере
znalazł
ноябре
двата
Еще
Bull
##tivo
zwierzę
blíz
byd
Królestwa
##arach
Johna
Wyż
východě
departament
těla
YouTube
Forest
Tím
Berg
bodů
##ione
##ниц
равни
Rafael
същото
району
щати
blízkosti
Official
екзар
wojewódz
Route
присут
##коп
ИТ
##BA
Jerry
каж
twórcz
Полу
убийства
Praž
zależności
Dutch
##йт
январе
dynast
anga
fand
руководство
Колум
дума
Water
##pel
половина
Marshall
раск
##серва
figura
##лкото
##лами
krajach
##hne
SM
armád
nedaleko
Collection
службе
##rolo
Silva
##eruzal
stanowiska
Catalunya
##rator
šampi
wydar
##dź
stroje
López
##fie
Cast
бюджета
Design
Arnold
##сной
Haute
Селото
банк
##alog
##skę
potrzeb
материа
rozhodnutí
нее
drzew
Вал
minor
Sons
Muzy
##ровала
ligy
EU
##ženil
ул
зве
##ард
otáz
##ссия
##швили
##енти
##eckiego
##nk
##ρα
разлика
Mix
dzielnicy
povstání
##šené
Airlines
##gorz
ukry
##сети
ślą
zdob
мае
переписи
obrę
##dat
robot
Wer
atmosf
Gdań
Gli
##щенко
Melbourne
Тома
libre
##בר
##wiek
френски
Държа
str
##jer
ГУ
1802
##sos
##cas
дре
поддержи
przer
смерти
zne
заместитель
Dame
сена
publik
ostatni
Jab
финала
Zdroj
Primera
gymnázi
Włoch
##lić
povod
Area
##tivy
Kennedy
społe
малка
милиции
Тези
##дове
номина
некоторые
upraw
zapoj
##листы
Lea
ciąg
tvaru
1824
лицен
веду
совершен
dog
lingua
##pia
známé
Zb
González
##żna
возбуждено
senior
Павел
podpor
действий
seznam
Израиля
ročníku
ster
##зай
##ФА
Warner
Springer
Burgund
##chten
##olet
lutym
280
##лизация
Standard
##stní
paramet
Dep
##gum
Полша
typy
Дан
igrzy
##keit
##fo
Sommer
Chart
##шния
скорост
пояс
апреле
набра
Poland
##até
Poznaniu
Avenue
##hip
reform
wykaz
##ican
1789
Większość
ojciec
Описание
спомена
##ein
1813
##fekt
проф
Tomáš
Stars
Academia
nou
społecze
##rojekt
Сърбия
##ствуют
view
култур
##ware
skrzyd
podziel
Wisconsin
1826
##rali
разположено
капитан
планина
##town
buň
Murray
Assembly
меда
лига
##deb
Поль
##אל
sólo
Ned
Antoine
síly
populace
##worth
##хват
##zet
1818
##dav
Госдумы
AG
изви
конта
znane
класа
##arstwa
засе
celem
Lucas
##ryj
##лять
kariéru
##gami
260
dużą
##DA
Arena
Olympic
potrav
mes
prim
##кос
##цами
##nast
należał
położony
своим
Сак
119
полномочи
##zili
##igit
Cí
##ён
сообщения
Wolf
##ческото
##чението
##цам
##hání
boku
предъяв
Prof
могли
orygin
Lyon
Nový
##ologiczne
смогут
управлява
##нул
##eník
Leží
##ulu
prostřednictvím
jednostek
Wz
kategorie
konzerv
lize
пъту
Alle
Facebook
Peel
departem
Lost
##szymi
##бели
Franklin
Siedzi
съществува
kres
##log
зи
Alexandre
##rato
herb
##ственных
UE
Margaret
председателя
Canal
##rata
Istnie
Gmina
##ходы
Born
мер
въве
dźwię
Участва
##borg
něho
самолетов
наличи
##feren
dzień
отмен
Fame
институт
svazu
odeb
ště
mul
##iče
sukce
Вилхел
##вайки
##lega
Studi
##ела
##ube
Carter
сестра
baru
potře
Police
Bus
origin
##óg
##мых
Kinder
компют
##oth
Sony
##ędzi
##lini
trasy
stru
wide
територия
##чили
posledních
##rios
Municipal
Krzyszto
bowiem
szach
##ain
практически
##шата
červen
kdo
WWE
##mila
стаби
##sat
##wencji
Köln
označuje
##eva
##time
Mei
heb
##ema
Поради
Wielkopol
samodziel
Красно
dostala
точно
##ology
рейти
eru
##nów
Lew
штраф
písní
##side
##IS
##ène
##věty
kariery
vrcholu
принять
наибо
##eko
##rny
szkoła
##kového
Gminy
##nácti
##чов
##celá
hlediska
Barry
центъра
неоднократно
##itor
Vladimir
1016
uszk
dysk
фла
##рад
сериа
##dza
AC
1790
Funk
bombard
ремон
SC
industrial
podzim
vedle
##noty
amor
##ора
Phil
##rově
оте
##рове
годов
NHL
эфи
členy
Julie
Ač
kří
##řech
династи
##AF
Peru
орби
##něji
##idge
##рал
druhá
##гите
obvodu
eli
konfli
Matthew
osa
image
столкнов
Campbell
Ev
##ales
překlad
##гас
выпусти
италь
Helsinki
митропо
##jmu
Cha
Белоруссии
задъл
##stä
Som
Кирил
nemo
выдви
Kurt
sled
temperatura
выстав
Kil
univerzity
чис
##ав
obrony
стратеги
plod
USS
Wrocław
##štěv
##rovat
CN
##ists
Čechách
ото
##cat
turnaj
wersja
Żydów
folwar
протеста
склон
Králové
primi
унищо
ska
řeka
##ětí
работать
zájem
##rał
požadav
špat
операция
##zila
Nob
вина
Dies
występował
Rov
##bat
##ционного
prix
##eth
Европей
##чите
engine
SP
zřízen
klien
polityk
Швейца
horní
Warren
Ast
Here
Rhône
Cover
столицы
ono
nadále
##sé
Největ
grafi
Lam
ibn
математи
znaczą
Хер
полета
Page
elim
находя
Children
osv
##zempl
##láštera
Макси
Holland
начали
Brothers
rzeką
Cer
gwiazdozbiorze
esto
Szw
напълно
wymag
Им
pred
пови
температура
##roba
##inger
##ваку
##тинента
Aus
##ас
Protože
1801
nejznámější
##сията
heavy
##atý
wielok
возник
uroczy
##BS
270
##puště
rozpoczęto
##yczną
развитието
Plzeň
Cat
##zed
spolupráci
##ący
studiu
бомбарди
##nická
Wood
ATP
актьор
##sona
1816
nacházejí
vzor
принял
причиной
Кей
##gé
##ranění
dáv
пореди
wzi
##tir
##istów
Abu
##mine
1822
##gd
##osp
PlayStation
##els
Turner
evidováno
Frydery
##mek
Dě
dużej
Kad
площад
prędkości
##rant
игри
morav
nejstarší
pozor
představuje
Brytyj
kláštera
Grupa
название
ústí
uwagę
resz
децата
охра
Medical
Vysok
помощь
али
##ures
##ador
##yle
vnit
portr
131
Madonna
##лски
##istes
Liverpool
прошлом
zysk
informacji
въстание
Что
##genty
вис
албума
132
##ža
głosów
##jącej
Amor
##cis
poeta
wesz
##wego
национальной
Feli
##хард
ролята
serv
Metal
##ели
bezpośrednio
Evans
звез
přesvěd
Konstan
Хен
##nieniu
začalo
##лона
циф
аф
покуп
##tter
вось
октябре
Německa
mode
демократи
členové
łat
Iowa
##etr
miesięcy
Bol
##lands
komer
pokład
площади
só
##iana
##stycznych
Racing
##мс
papa
люби
tok
##ør
недоста
Fernández
válka
##стами
Wśród
##ektor
key
1819
##nojmen
##čník
##ваются
##станции
sposob
##etan
SK
##ческое
Denis
##тев
Müller
mistrzostwach
ač
##zać
##нут
ущер
вок
##szki
přenos
Our
Astronomical
jąd
Roberts
##maga
##бал
##мести
nemě
1827
каталог
Marcel
##וב
choroby
##iment
Rozhod
##arnych
битката
ustan
cod
##akrát
distri
##ząt
##činy
velitel
Dia
районов
##itas
Запо
Tennessee
stoup
##ковник
jednotek
приблизи
двамата
zadebiutował
hold
##czność
Dolní
##owce
Варна
odpor
Hra
Java
представител
skutek
##sně
##kai
обстоя
##цяло
##теше
atom
Bis
můžeme
služeb
zásad
televizní
##nier
##vit
Jel
Pictures
сли
Pauly
Rada
школа
##kář
imienia
синг
отмечается
##jet
##ää
Television
euro
пои
JR
образ
##vest
врата
##тс
заво
bru
třech
##čce
Wayne
Юрий
sex
##cát
Houston
##орва
Community
Stowarzy
подкре
Zur
##orząd
##kor
Jay
Във
liga
Komitetu
1758
##amil
egzempl
ochron
Ленты
Imp
cywil
избра
Wojska
Vývoj
##mp
##vio
zachodni
##inc
повре
moderni
ukáz
zastupitel
##wacji
przełomie
##logy
##йл
Zoba
dlouhá
участия
которому
řeč
těle
152
ИТАР
##uh
graf
составила
dopravy
následujících
skupinu
##zon
rundzie
Ел
пари
##скими
20th
Louise
Slez
1792
Gilbert
##saz
Early
##inář
Karola
##менить
кры
рекорд
##nemoc
rada
VM
клас
другой
##essa
##lož
posti
##letí
Itá
нака
podat
Hud
zabit
минут
##купа
возра
Fra
##zik
přejmen
samolotów
фильм
##ickými
комиссии
##atan
българските
Cape
asist
poráž
##řování
##екта
свързва
сделать
technik
Feder
Flo
stejnojmen
##gre
##idos
logo
рису
Dean
linky
něco
Apo
фотографи
Highway
##wienie
Света
спецслуж
##back
##семь
##hle
##ич
открива
Lima
Игор
dostup
Lí
pé
##cks
малък
##cido
середине
##czyli
##скар
##nech
prezidenta
улице
часто
Pic
zagrał
склад
##мум
епизо
tímto
polsko
protein
folk
1817
гео
##uel
Spring
самоу
Následu
niektóre
уд
Julius
##hý
odwie
отдел
Gil
##тации
##prowadził
Popular
každé
Stuart
evidence
##ващия
##обита
##ňování
Smi
такой
měsíců
Delhi
цяло
начина
##taci
действа
чита
prochází
Bau
##nického
armáda
китай
##ждении
rzymskokatolick
Hockey
Sb
##tig
официально
pár
kamie
епар
Only
##лиан
Eva
Such
Moscow
конструк
Атана
wspar
basen
##را
Allan
Вър
изцяло
Marina
##ленный
##sów
seria
sídlo
jednom
Castro
##bahn
военной
мрежа
##ciaż
Тор
##тельное
wiadomo
Vladimír
wą
Zobacz
administracyjny
Broadway
градове
##owani
Ок
trenér
##тото
Petra
Zbi
współpracy
##ними
##rado
Lorenzo
Północnej
##сад
##rium
Parker
Chr
głównych
поддержку
sportov
офор
Nato
модерни
##žování
пользу
Spar
prodá
směru
##ования
jediný
Temple
ага
existuje
##кор
##ciąż
srebr
Oba
jinak
Тимо
конкре
Лан
ana
##ovité
Pis
německy
srov
Życie
рок
Rej
приклю
##board
церкви
##лок
dniach
Pozost
##grup
naczel
позволява
##pozycji
Mrs
##col
##ged
stali
составит
1808
aku
Yang
stało
Pin
дальней
1809
pułku
opan
##dziela
##kos
Austin
##nant
##ńca
cost
общей
krąż
Blood
полуостров
##noślą
struktury
přišel
malíř
důstoj
Bab
předchozí
##něných
kard
Канада
Om
zajist
##стреби
##óny
##леку
kontak
##tycznej
##ame
silně
Sztu
должно
CBS
изби
Earl
Polen
Scottish
ceny
Фон
otrzymała
##čna
spotkania
япо
##zat
Vyu
Hills
Cooper
oskar
Deep
##wala
zboží
każd
Presse
отли
Alto
##бом
##wz
Valencia
Воз
процент
font
Джеймс
sportovní
návratu
Political
##kladu
##wości
poleg
военные
vých
##ün
финансов
изкуство
Václava
имя
##itut
повърх
320
военни
cast
elektro
##iko
##kolwiek
##стика
důvodů
дете
zákaz
Анти
сайты
хран
##leté
##mili
lagu
Луд
Украина
značně
cha
Zna
##amięt
komplet
prom
флот
Бре
Prus
источники
##nione
данных
##voří
Years
Engineering
Systems
obrębie
коллек
německý
Исла
обрабо
1795
замен
##wierdzi
divi
Brze
Университе
Bach
klasztor
нарушения
Inst
sedmi
mana
Prezy
zwierząt
пунктов
##adi
Federation
особи
##лети
vaz
выборы
agent
##szek
finanční
Zone
przebieg
кого
Londynie
HD
1803
##icu
##овия
##num
Bot
##ностите
##vre
##рас
кораба
oficiálně
##ós
Henryk
конфликт
verzi
htm
##dice
Arbeit
Původně
##хрид
американской
##jącą
zách
##nímu
##víd
Кю
restaura
искус
Dnes
Rodríguez
##ersch
Ци
приводит
Silver
Мос
Guerre
предложил
Yorku
##вую
##otopis
imie
основан
япон
soudu
člán
vešk
##никът
kapaci
редактор
Mexiko
убийство
niemieckiego
Bron
добы
Кръ
dev
##купи
rozšířen
преброяването
##регистри
##uer
##eus
##tak
Elisabeth
##czno
##шением
československé
Съвет
vysvět
przyj
леген
liczbę
##tain
výše
Poč
##own
##sach
Arte
##uti
сих
заседании
устройства
Daw
Ernest
##try
kart
контракт
mír
##ária
Sau
łaci
##ума
##počátku
Economic
Exist
sak
Обе
rád
speed
подроб
##čů
Srb
добро
považován
léta
рынка
Совет
##pet
##нять
##чать
wil
##eton
треньор
Авто
##walu
Stej
##регу
École
комунисти
sebou
němu
случаи
warmi
985
hlavních
1823
##cing
wkrótce
##dag
Pawła
изиск
hard
##TC
неговия
Fischer
favor
nedostat
Martín
zased
Сара
SA
внутренних
rytí
stanici
Eduardo
говор
степени
округа
официальном
##хайм
Андже
stráv
kov
независи
Сооб
езици
režim
дали
##горе
сократи
urodz
Kunst
Мино
##eria
##ime
prakticky
##cker
яко
модели
twierdz
hotel
промени
Valle
dá
Lok
##rada
Dopra
воздуш
обнаружили
bel
Days
футбол
СПб
Ministry
директора
##ováni
Parliament
##ствието
высоко
##пара
##čeny
Wars
dív
органы
##ize
многие
prodlou
извършва
членове
blisko
теперь
##лайн
prací
utworzono
##szel
linia
позиции
такие
Rost
целью
rozloze
тонн
##upeł
celá
##dit
austra
гаран
Nik
##женер
Podstaw
Akwit
##vách
удо
##ær
главен
##rocław
княз
Vice
kolo
##žuje
ничего
##bury
##owiada
Class
##řaz
DDR
##ër
##tique
Bulletin
dług
##stes
podróż
Watson
Nintendo
całego
##ering
Federa
устройство
сина
Vzhledem
##ois
Lat
stopnia
стр
Front
Около
##owatych
##фел
Rodan
##léze
Iron
##lom
##зербай
obejmuje
##ование
потеря
częściowo
праз
věž
поэтому
deset
Plus
##cemi
УК
ředitel
##чело
cesarza
индиви
něk
pracuje
смет
Five
##är
##tili
##бют
##nastu
rynku
Pel
близост
##licher
##шката
##raw
целия
осъществ
гло
Kazimierza
##rovol
журналист
sit
ostatnich
сможет
nieco
Nicholas
przypom
Linux
охран
##eve
vlaj
англий
doz
ukra
1811
ků
бива
výbor
sound
wyspy
okrętów
##dam
##лъж
pozd
##zing
stały
##eter
nástroj
Complete
цена
stwierdz
Partei
kód
ум
Before
показва
##зит
Parks
##ува
dolarů
Františka
##zin
Евросо
серио
обеща
##ια
Кристи
##щиков
Julia
Mezinárodní
##iri
Czer
Kota
##mica
identi
Spider
zbliż
##rm
tymczas
професор
odbud
Lloyd
Bog
##чке
nakład
PZ
Разположено
Najwięk
##ględ
here
##вати
двой
##pravě
##aga
szla
Michal
rodzina
##пере
##rel
планината
jakie
Ari
##чиков
Strze
významné
bus
katastrálním
Bobby
Wraz
wąt
Rolling
стават
BC
##минава
##ПР
wro
Domenico
wybran
##hm
московскому
слав
nik
Ruch
Yu
современ
dynastii
##mel
gól
##ice_
Kent
находились
зона
Reich
szta
Pérez
zahraničí
годината
králem
##af
штата
##riu
Struk
Unión
wspólnie
przebiega
ogrom
##bij
setk
Фин
записва
Eddie
Čá
potwierdz
zajmował
diecé
rukou
распоря
пръв
ochrany
bank
Вси
Military
Pam
чест
bohater
кру
serve
Hon
исторически
СК
przyczyni
pośred
##mach
Singapore
Miasta
журналистам
Motor
konsek
##áním
##чает
viz
liście
ситуация
anime
czwar
povrch
нападения
##емые
Raja
спаса
energia
посоль
отговор
изпълните
##mor
oženil
god
mladší
postavena
Serv
##шает
Square
##ration
Napoli
Шо
Lé
Мексико
Газпром
kolejny
##лева
probě
българско
тата
kariéry
##cle
Ball
Language
codice_
Desa
Dok
Guatemala
poszu
##xy
budova
провел
автомати
##ownik
##να
##чност
2019
##lne
оператив
Gospodar
Secret
ofiar
##řuje
##ździe
##ovky
колле
zastąpi
събира
Mos
##rym
1804
Гай
##правед
човека
Bergen
##ardub
Крал
##łt
жан
##ško
взи
розы
Гон
Sankt
##etta
rostliny
Wall
Świat
включая
Рес
element
##bs
##тый
##sila
##ει
Films
адвокат
##sm
poly
Nouvelle
Dragon
##antów
zdrow
##gura
věz
Henryka
расследования
skar
Стара
появява
Kanady
přines
chci
лекар
Лин
министерства
##żyw
##pun
##ственный
got
Spi
##ждены
##ТС
##ávání
łącznie
komed
Мат
##пти
##ára
navští
prototyp
восемь
piłkarz
nastąpi
##рена
##pou
listę
elementy
włó
vnitřní
dwukrotnie
141
##zes
##кович
Вилхелм
##ρο
сва
postaven
Oklahoma
skutečnosti
Słowa
Ancient
Lisa
##вец
Ciudad
расследование
Discovery
##more
##jak
GmbH
Министерство
hereč
1807
Atlanta
##tona
успешно
vystav
tim
povrchu
##stadt
dosáhl
Gruppen
##вено
torp
majetku
přit
arcibiskup
koron
##ющая
всичко
##нуне
Коммерсант
duchow
компенса
pozwal
##τος
Schmidt
mohla
Maryland
nižší
Kentucky
přelomu
Larry
cross
onemoc
##áci
Източна
##anů
mundial
адрес
využití
fre
parafi
Bed
koni
извърш
Imperial
Parti
przeniósł
jezera
česky
idi
Bylo
esk
Narodowej
velikosti
арестован
náboženství
Všechny
хотя
##vár
възник
##une
1805
##ple
##ано
##fur
небо
##луб
##otek
pomoci
##пите
związany
##mund
июль
Ai
члена
Чар
Harold
kosm
Kod
vypad
maksym
mieści
меня
подвер
бун
##shire
manželství
пострадавших
Neil
отдель
##jedná
1794
dyplom
изпълнява
събрание
zasię
Chica
meta
##бера
турнир
frá
вестник
impre
##гането
състояние
architektury
vsi
лип
##ходов
##pozice
Анато
stosunku
Ven
Histoire
##eau
##вард
République
Verein
studium
##lation
Mayor
monument
аварии
podjął
Soul
##žívá
##zier
Oregon
Detroit
столицата
maszy
rejestru
Sunday
##ляли
##тные
Елена
##ziem
soutěži
Alp
##mise
Hannover
Sebastian
##čích
##OR
избе
Torino
zamku
##вшийся
Pomor
dawniej
океан
##ЭС
albumu
karierze
##erna
честь
##jä
university
##ujícím
Zemřel
departementu
vzniklo
Box
Original
обявява
kort
недели
Magic
uvol
OL
##tika
pasaż
Mississippi
Ath
Urban
помощта
работал
index
##ally
приш
##rate
Alfonso
##íná
##íme
##rození
##livé
jazyk
Unii
śmierć
##чная
дя
zakaz
##ridae
##hon
dopły
##žitel
mac
пору
##ровано
Bird
##ativně
uplat
##stroje
boje
##фал
##bos
##ball
приве
NHK
przekon
Roland
обедин
##рие
rugby
##lady
##וד
изключително
##eckou
liczą
тоа
##off
##етом
Wagner
##szył
námořnict
relations
zlik
podwój
##зь
##пят
hlá
Ogól
Přes
##zono
##gach
студен
Хол
Ostatecznie
##эр
Кру
Sara
Oj
пило
##ъд
##lík
drze
Harrison
пада
##щането
Knight
потом
приняли
Ligue
Geographic
Беларусь
uživatel
jich
utwory
официално
Tex
okruhu
druhu
##тья
##onymi
villa
note
vyb
Alabama
rus
extra
Odkrył
Polish
romá
Cu
porad
Dennis
##oły
Raj
Österreich
mistrza
największych
##езд
ocenění
Ralph
fal
жало
##omp
pomá
Mir
председатель
следващите
##vnitř
shod
посред
142
Piotra
январь
##повед
Shakespeare
skaz
##sper
##względ
výhod
Terry
##мил
##hes
wywoł
Mitchell
##fied
Puł
vytvořen
sum
поводу
##cip
##тного
хок
udě
встреча
отрица
марки
укреп
Гро
##глави
obyv
природ
Prime
##unt
##icus
podmí
politiky
месяца
boji
никаких
##dze
Дар
запаз
##čeno
fik
##zona
Base
Isabel
zakup
##сните
Preis
июне
Южной
skončila
Abraham
kapely
##дит
##шена
##rácen
##ug
##ovídá
pohybu
cestu
Mans
logi
истреби
Hus
dynastie
##mut
культуры
rzeka
##лах
поема
Henrik
##lev
Zaj
нужно
chud
результаты
současně
##iano
##pravu
Osten
svob
Puchar
tvořen
wybuch
Jar
участвова
##ującego
Laurent
technologi
ukrai
Zürich
самым
liší
Dick
##деля
##zygn
##řením
Michał
##uby
Hier
##die
##škol
formula_4
##jn
##вена
положи
##оръж
песента
Dallas
##ад
##rávní
##łot
##eckiej
Queensland
pobytu
задержаны
##tische
pozycję
предположи
Hughes
структура
tvar
создан
milionów
Изда
Camp
Kaiser
pory
nedok
##váleč
земи
Wrocławiu
lini
##bezpie
##кове
##rest
Din
Сар
ученые
съгла
utwór
##несен
##нской
тера
##air
začali
psychi
##dea
Hunter
Член
##lja
организаций
##ovník
##líd
прекрати
архие
##brzy
##estr
SSSR
использовать
селище
##líně
##cca
##seku
Ирака
##kiewicz
Hi
západě
kapitu
člověk
кораби
мужчина
Арм
##туал
sídlí
Zden
##щено
památka
Nancy
ponadto
оппозиции
оказались
oddělení
Kina
Novi
Natomiast
Pob
отсут
Control
trium
##oe
##aně
муниципальных
rzędu
vstoupil
##рай
снима
култура
Rick
спря
пътя
матч
полет
въпро
1798
постоянно
аэропор
velite
Петербург
poraż
vychází
Лос
потен
##MA
##لي
władzę
##туре
Singles
dynami
diri
пассажиров
inżynie
##енко
úkol
Rez
##цем
##зирани
Балка
cesta
##банка
nepod
##лният
zmien
fotografie
##шить
##możli
##лил
Хай
##fikov
##рабаты
продаж
Tommy
##czeniem
UA
процеду
артиле
Serbia
титлата
Anny
затво
krajów
##godnie
##iusza
актриса
Długo
пунк
podział
##sków
vzhledem
WTA
##дении
##teen
опла
ими
##též
Sint
všichni
##als
##sas
przyw
výrobu
ras
serw
Wkrótce
jednotlivé
Tab
нефть
Boeing
wymi
alan
granicach
obyvatelstva
##szów
ane
NFL
заплани
stavba
дьо
##ores
пото
zaměř
Charaktery
hro
Dort
zařazen
oficjalnie
Perry
кратко
##dh
##ánem
socialist
Pek
##ppen
wskaz
Independent
Jules
Konstant
##hof
Rodz
Królew
##ávat
Guardian
##żenie
Jeruzal
zji
##atorem
zachy
nowym
##oso
##stad
##раг
##ук
##НК
rozhlas
##áře
Kaz
wygran
системи
мнение
proz
графиня
##хт
##yla
Services
##ległość
francouzské
Note
nagrodę
##нского
следващата
203
Itálii
##сюл
planety
dus
Polaków
Chi
##dziesią
маршру
двор
łu
##yt
dzisiejs
##tein
##rung
##бек
попыта
##ołów
diecezji
Берлин
przyczy
nota
Dorf
##нис
оказва
епоха
Ricardo
##see
takové
##леп
Путина
##rka
выход
skládá
техните
##ên
##áž
přez
##писи
##речи
demon
Leopol
Foreign
Carmen
пад
strá
smlouvu
летнего
тук
##ßen
Сла
kles
##мые
zdję
##ńc
производства
założył
PK
##ako
първоначално
##skom
jaki
##iers
případech
dołą
šampion
Sab
1799
##драт
августе
Rou
##зм
Австрия
Лудвиг
##enti
dopad
variety
##isation
przywód
wojna
написал
##osi
преды
Leonard
американского
obháj
бума
телеканала
obrov
##ider
победа
##cest
##inské
Prima
##spira
151
##ссер
##wiat
promieni
Polskich
Aleksandra
oltá
##gua
zahrnu
дер
Danny
##ojusz
setr
##хам
##obili
Уилям
##angaż
експеди
tvrz
##ясь
galaktyka
Бил
Rey
isla
##nický
Riv
##нему
зарегистри
kaz
##bru
##рована
1791
GMT
sort
jsem
млад
голосов
Już
Ron
edu
sloužil
##вшегося
pový
Brow
Habsbur
данный
##ët
naby
oprócz
##świę
úspěch
достигат
сним
предусматри
Najwyż
mecze
втором
Учи
энерге
Kiedy
Grze
##head
Boe
##mů
общество
##wn
Один
pořadí
##nicza
virus
pocz
vest
wios
##циалисти
napisał
vyšet
Зо
anglicky
##фен
Unter
##прокура
letiště
dance
##pur
nedost
##ίας
akt
Projekt
Dei
##vaná
##льными
cykl
факту
##żeń
Evropské
1400
siedziba
соответствии
Muslim
Neu
##ryt
Lech
přeru
##бка
##gion
dnech
neza
koment
##кина
změny
Egypt
węgier
your
Baron
Alain
постепенно
Том
elektroni
Comics
##лим
piv
##لا
Never
gatunku
##zas
fiction
eksplo
освен
##dung
chví
dalej
автоно
основава
##нати
Лука
Kun
Schloss
##ume
##золю
Naval
##вли
статьи
##razem
Felipe
Limited
Россией
##нена
Licz
Król
наимен
przyjął
##джан
fla
geografi
Zmarł
1797
skó
##къс
альбом
договори
Frauen
Notre
Nat
##cco
azt
Dublin
spl
##сист
следните
schod
Ocean
Korean
режима
##rig
výstup
##lár
завърш
##стани
Natur
sala
Нидер
převz
intern
Zatím
biegu
предыду
maďar
soukrom
gatunki
##rób
##lova
##ovaným
osoba
мъже
Baw
dvakrát
##amer
##skon
##maa
нуж
участват
Отме
César
##сента
##lara
Viktor
Mercedes
alkoho
##ционни
nadaw
eksper
Uruguay
Classic
iP
##otbal
vojska
kontakt
Союза
Emma
якобы
Singh
рост
стопан
vyšlo
съхран
##йдут
sítě
Orange
speciální
указыва
Über
##летво
Jerzego
подкреп
330
opuszcz
podmínky
Ye
religion
EM
wzniesi
##нице
отбра
##нген
arcybiskup
call
rond
##коми
##has
съоб
Původní
uznaw
reál
##bank
mazur
fem
Ferrari
мог
Alaska
каза
Vienna
jízd
разположена
kusů
instrument
rozdě
Władysława
vozy
elementów
Jerusalem
utr
atrak
##cone
ewange
своето
##лях
всем
Flora
Ираке
##tul
úsek
##jana
prince
Kongres
Maine
Six
existence
Graf
забележи
Guillaume
рода
##rica
Masters
Chryst
bla
Powszech
Niemców
нена
Haut
документ
Torre
родствен
chroni
##působ
демокра
drugiego
работает
substan
##банк
техниче
Metro
německého
екипа
československý
příjm
podílel
Poza
силы
wywal
niebie
utra
Демократи
водата
##ranie
Экс
Hrá
##aret
patron
оши
##ovský
##řá
Buch
##ostęp
ogło
изменения
сотрудниче
brał
PGC
sześć
##andy
Medicine
Berliner
##wald
##ческом
празд
Tou
550
žebříčku
národního
##дят
бассейн
##рт
wszel
Computer
##arka
страх
корреспон
výroby
konfliktu
туристи
переговоров
pary
úřadu
##rzbie
sat
Litera
tkan
mole
титу
партий
##pěl
значително
##enz
##grafie
##ująca
Peace
##wel
Димитров
моно
barvy
##раж
zlep
##oy
wykształ
kterému
córki
Parla
##зирана
wiz
##něny
оказался
Oriental
сообщ
возоб
koneč
probo
##znám
Mnich
##yr
затвор
собствено
Охрид
##platz
autora
Елизабет
agit
райони
##реа
Совета
venkov
##мън
Azji
разполага
pokus
osi
макар
##óbr
Republika
##jek
Hand
Phili
Anders
prywatne
Side
Mare
колонии
stars
vila
такива
##owszech
návrh
Měst
liber
union
##rian
##rzęd
Colin
hned
probíhá
Production
wynik
##jila
##зина
глу
числа
Marek
мероприятия
Лат
перево
allo
купи
езерото
prawdzi
zwol
находился
##вий
барре
новата
Soli
Historic
německých
##band
filosof
##kap
FA
Ještě
transpor
##יל
związek
raj
Martínez
секун
okolicy
приятел
бизне
Egyp
литератур
profesora
teki
Federico
obrazu
1796
dispozici
потер
Турции
ostrova
Централна
##iger
Český
nahrá
okolicach
##áč
příbuz
началник
##atorów
##mir
елементи
##ъка
Lanka
группировки
губи
излож
отставку
úrovni
бед
толкова
Egip
jazyka
##bility
dzieła
dolarów
##vaj
##tości
225
Książ
Lane
1775
walk
##haj
участието
Hugh
Theo
##чаване
Гви
inteli
Калифорния
##ývají
Френ
##ún
##дие
mieć
kontyn
205
##лить
Dějiny
Vrch
Дъл
Sánchez
zápasy
##hry
Joachim
zastával
Struktura
Индоне
člá
orient
##nidae
отказва
sdružení
##turze
##ös
bitwy
##stvu
polos
местообита
##летов
obecně
zaty
Nem
altern
Ren
Affairs
proceso
Dresden
boli
ew
Къ
##iki
обез
##мяна
zaměstnan
cestě
Seattle
Willem
Jorku
палестин
motory
построен
книгата
Každ
Jord
Einsatz
пресе
##recht
##тона
##чика
##cznik
amerického
июле
Université
kierun
##гом
litew
регуляр
Security
neboli
Například
конкурен
malý
Śred
##ensis
проблем
dostate
mam
военнослужащих
##yk
novela
Sweden
комму
##щени
армията
провинции
##onec
ФК
определен
Меди
Hudson
symboli
startu
Fron
електри
Werk
##валифика
##ałość
##oko
##isu
##pili
пропаган
##owick
Grammy
утверждают
атом
vyz
pięciu
##ggi
Kate
наркоти
##кали
1300
##ствените
##řetí
obser
prior
Both
Bil
деятельность
##idas
Ведо
##kowskiej
Vídni
konstru
Oce
swej
денег
dowódcy
##omen
##gli
##чную
urodził
reżys
Montreal
##IA
примен
Dam
##zos
##oče
##тивни
доме
##дзе
Deut
poniżej
##onomi
Edgar
Giorgio
##чению
Ако
завод
Japonii
##эй
ukončení
сигурност
##czer
Rico
Žele
облада
##gut
соглашения
nutné
Wat
убийстве
##ące
nocy
521
špi
dvo
##ché
niemieckie
m³
порта
ФСБ
##ánského
události
избу
##iew
##ري
poszczególnych
##lingen
бога
##ctor
събития
Brod
Донец
##atywy
Ara
prezent
##scher
názvu
##odem
военен
официал
uprch
interes
vzdálenosti
sui
флота
Spiel
##падно
Ober
Energy
включват
##ęło
##энер
##шал
prov
публику
Následně
##чне
pobo
IB
Управ
Вален
správy
dobrovol
vyzna
##лда
płyt
##тет
Seven
Newton
trval
##гнат
republika
bou
siedem
нефтя
regist
zaprojekt
##ars
Kore
Vicente
##MP
поро
##ppe
Мала
hlasů
oczy
большинство
Miej
деву
##water
charakterze
Phoenix
документы
Йоан
местных
##долф
заги
атмос
Норве
##řebí
transfer
wią
##ckém
##čili
##лищ
Cook
сло
модел
##тех
##ити
dywi
objevuje
Augusta
soutěž
jižně
údajně
známá
##gg
mile
Miroslav
numer
##muni
650
Ani
nego
žádný
##ięk
##КОС
290
ochrony
vysílá
##unkiem
Electric
нос
##čilo
Bush
##vil
Институ
преж
Angola
opev
nasazen
nosi
wybuchu
rodina
наши
klen
Jagiel
##щане
složit
upo
база
##mina
161
nese
Batman
омъжва
vzdělání
семи
##vál
##лс
расши
##nop
Skupina
Kel
##ove
Software
еми
премества
##laci
Marvel
##cken
##ezie
##еве
finał
дипломати
opery
##bon
Operation
Emmanuel
chwili
##рет
Zum
добър
Feb
##чное
kons
##jedn
Delta
Haw
Take
Solo
соглашение
##etów
rozszer
##lane
roste
fora
Action
##mme
##дес
Унга
Drama
interview
##ssen
fragment
##iero
wystawi
Teresa
Velká
##ционных
канал
##udi
факт
##пени
##eckim
představitel
##zena
эф
mem
силу
##eks
portugal
##berta
Spa
istnienia
машины
##сейн
брак
Ирак
##lena
Sus
powstało
Pardub
Braun
##cić
rodině
multi
##odě
проу
##mr
wielkopolskim
Генпрокура
peri
политики
vešker
позволя
##stica
Още
Caroline
ds
отстран
Galerie
největším
##iną
Власти
Biskup
меж
Дина
обсужда
odhal
Theory
##straße
рано
kancelá
##áty
##niejszym
długi
naru
животни
Via
ЮКОС
mianowany
teoria
Игорь
##rda
Sean
celkové
itp
Olym
##davatel
přelo
sien
dowol
##glie
permanent
zpí
създадена
##zkumu
Ps
evropských
Beatles
##ован
копи
Type
##gate
Petit
джа
##суль
Кубка
zrezygn
herec
FK
stolicy
częst
##aya
noh
kó
удов
##udzie
##единения
sekun
##чку
singl
отметили
##тията
Kč
Rzymie
##ология
ostrově
posléze
##jin
Sejm
##тельств
wziął
Część
годините
uděl
Helen
zlo
Унгария
църков
Cleveland
##ologicznych
Ward
##lovou
Grace
filozofii
Sachsen
промиш
Klaus
Първоначално
проблеми
##ike
##работа
správní
подвод
Reg
stronę
znajdował
odpovíd
smlouvy
Jennifer
platí
klubem
##encj
literatura
Powi
##niosła
лед
огра
Спа
Edinburgh
dcera
manga
kurz
##ródeł
nebyly
Związek
длъж
Sophie
półfin
составил
vedou
odv
vysoko
Blan
centrem
uher
##фы
седем
##сток
##стане
посвящен
komise
##EC
##oslav
##erie
награди
nest
Základní
работата
Sarajevo
sołectwa
Fla
comes
Świętego
забра
narci
супер
Antonín
фо
zvyš
Baltimore
výkonu
powt
Sofia
duży
litur
Tower
rec
Румъ
Buděj
##dik
поп
агентству
##сив
##owiedzi
##ционный
##strzy
продолжи
Църквата
Adama
Capital
Pero
Dakota
Ау
итоге
tvr
Eduard
Sevilla
Minh
##rina
předtím
premiera
Sweet
##тный
понякога
vládě
##meister
Chelsea
skončení
pražské
Cur
##слов
Republiki
Każ
reference
##con
Formula
сельского
##rius
##zami
Boris
Napoleon
Potter
Вен
zatytuł
całą
kardyn
Ryb
pomě
dużych
##ыми
Ronald
256
##pal
##ставили
niepo
Round
квадрат
severně
##něná
##lerii
bl
Run
odhad
##żyła
Вместе
Luke
zdobyła
Sex
экономики
ukazał
похо
Rem
##aure
magnet
rycer
trzecie
посети
##iar
Koście
ploch
Szwajcar
##skami
##ict
takto
Future
box
Чел
наиболее
##owników
##něno
sídlem
Théâtre
Фил
##landz
Nation
продажу
##turę
Německo
ministrem
Ziel
Sof
zvláštní
długość
##lista
рав
изд
Masary
Административен
Zgodnie
##vik
Skład
divadelní
Krzyżem
Вин
příběh
Nakonec
Mundo
Vancouver
sens
борьбе
dziewię
напом
##ących
strzel
veřejnosti
mnoh
ring
Например
развед
диза
strategi
##zec
CH
Ring
Niektóre
drugie
##cií
Хил
Tan
##skej
позволит
предварительным
##ровки
Łu
geomet
kuch
##tri
сериал
Mart
територии
Lars
##форд
команда
Wiener
ležící
żon
Zad
252
##stila
всей
##терна
##romady
Socj
Цари
konflikt
Vegas
Węgier
ofer
##ök
##ziono
##vinut
Dek
porozumie
##ded
##uf
##luví
##bii
##spiel
##ciła
Медведев
pravidelně
##nieniem
състоя
angaž
ozdob
службу
едноимен
Wszystkie
ulic
##imb
приходи
регистра
mluv
dłuż
Nowej
техники
докла
сериала
papieża
##cke
юм
электрон
##lata
нефте
формата
tin
Building
##wers
přich
čísla
hou
fit
Francouz
Ústí
162
Isaac
Child
kolum
Heritage
##rico
AB
źródeł
rzu
##lib
моря
##psis
сметка
217
224
objem
filmy
4000
drużyn
науки
компанията
отбелязва
Wide
Holy
NATO
Key
stopień
##łgar
vyboj
случи
главного
покупа
възможност
##hold
##ženo
seni
##anymi
беспоря
sti
Divad
Cameron
##пка
anglič
Americe
##против
Felix
regul
уточнил
профессор
musiał
tyl
IBM
Zg
Canton
##nictwie
##wano
раза
ata
##катери
Pov
##žených
##его
##тинга
osiem
##wszy
Craig
втория
##севдо
десет
Emil
начало
Počet
##uga
Jin
##leń
vztahy
##нея
MP
эваку
206
##jąć
eduka
nowoczes
tělo
##üm
doporu
absolvoval
oproti
фунтов
průmyslu
hři
Hawaii
Чечни
oboru
местообитание
obozu
Nejvyšší
drużyna
налогов
Paweł
obtí
ala
##жал
Connecticut
situaci
##eid
##tele
Sně
chart
kujaw
hovo
##фикси
zápasů
месец
tradicional
##ждый
выво
коме
##věcen
##jat
Nizozem
пам
licznych
vydala
NBC
Браун
použít
Kane
Štěp
obyd
##lay
učit
##eným
Alessandro
##kovice
sorti
jaře
выразил
##твори
пользователей
Ponieważ
chování
##ejt
Ouest
generała
статут
чуж
##тором
Stato
некоторых
Богоро
protéká
##toku
##abin
žena
Официаль
znaleź
zgromad
Následující
użytkow
##sami
tradycji
Името
возможности
Pomimo
Rugby
##rier
##lade
Luk
Японии
придоби
оце
##ών
висока
Store
národů
zabí
doktora
##нгар
Transport
##вере
построена
navštěv
ataku
záležit
Justin
dosahuje
##spie
##вым
tysią
reformy
identy
1780
diplom
##oder
ludność
factor
kanad
первую
Again
##enne
Renault
##hir
##chyl
stacja
1784
britské
##лър
транспор
vytváří
Door
WW
navá
Cet
know
##uro
junior
używane
zaled
задержали
Leży
повлия
Archive
##kać
235
##ock
vzniká
1787
Parku
Holstein
agres
Wier
##ovicích
##кция
сексу
protiv
вариант
Впослед
##ционеров
Dev
пострадали
měří
Бър
208
wyraż
##lement
##czania
##kes
##ао
Agency
наси
Shaw
##мули
##ters
Alliance
митрополит
Bał
Forum
samolotu
##шать
Szkoły
християн
##рое
lov
рамките
##телното
промышлен
Urodził
172
kata
vyžad
Brigade
zdra
условиях
българския
принадлежит
##rien
Polonia
lor
домакин
##éf
Мюн
uwagi
vozů
poślub
##стью
opi
инженер
##кол
##teli
изследова
##ross
##roda
##kowskim
hrát
Plaza
##oku
Bulgaria
Archit
podk
##jska
tane
##ографи
вве
Bee
##šta
##днев
pozostałych
##нику
Брат
##hos
opublik
1783
Côte
zpěva
AK
Сергея
##rée
коор
##gię
Języ
trůn
##otani
##стреми
opad
##вшиеся
##годно
##este
dří
uczni
тялото
Alter
моз
предме
cos
Когда
jaké
##rastruk
##tační
orchest
##witter
##тва
Butler
Autor
Bonn
##рее
##mont
##etti
##med
profesionální
ście
Kings
ber
Kolum
сложности
депутатов
Poni
wyzn
##жных
##бат
ясно
##рованных
прого
заместник
Administration
ciem
##rzeb
Вашингтон
##řelil
депутата
столице
klíč
руководитель
VF
цены
master
oficiální
Palace
knize
памят
южната
##nickou
##łe
Ленин
уточняется
212
##емой
сын
##ilí
Cristo
компанией
buně
##kovým
принце
szkół
kapel
Пле
##isko
Between
опитва
przeważ
##àn
Uma
výšky
rzeczywistości
иденти
uhlí
Nigeria
naklad
прокуратуры
##фт
souhlas
215
finału
Spencer
1788
кали
##ctus
герои
практика
kościele
Wspól
##fication
##uli
Comté
Około
oddělen
Zají
213
Фу
chtěl
##ставил
уровне
volební
připad
kniha
злоу
Metropolitan
skladby
najpierw
##czew
##тию
низ
Calais
госпо
Spraw
Franche
##ikan
##fel
##рано
zwolen
odbyła
Hindu
Hope
военного
голов
drog
аук
##шан
сделки
odbo
##стина
##tidae
##gło
иран
rud
националния
требования
търгови
##tech
##hard
##носи
Jakob
филми
сайта
Emperor
##lup
##цето
гре
úz
##fikacja
Македон
вступи
Объ
##ими
трибу
##лосова
##zzi
Hansen
Mes
noci
##went
opra
Румъния
##стрел
източни
jezu
Sergio
команду
Rusku
Study
трени
столица
lou
pion
##álek
кампании
Glasgow
vytvoření
pokračoval
никто
спортсмен
юриди
списание
зафикси
##ственные
Kultury
ćwier
Wallace
reži
obrazy
majątku
Dílo
##hire
evange
dobra
территорию
основните
drugą
Hell
Alo
##tyn
każdym
202
grandi
Domingo
должность
границата
Опера
Chen
nesou
##vina
##ág
okazji
етни
##opom
kampanii
big
десяти
северозапад
Campo
##временно
задача
Lang
недово
Challenge
Tartu
ранен
##pio
mohli
тела
zvláště
располага
##lies
zaangaż
Akademie
##box
dóbr
jelikož
##ДР
powierzchnię
turné
Youth
Beat
Rainer
znana
властта
Londýně
přitom
grupie
Berkeley
reprezentace
##нта
##čítání
statku
Organisation
pahor
##gium
##постав
Linda
zvol
реклам
Tury
Wydziale
лично
sexu
Коста
vězení
půdy
описа
rozegrał
##ženy
zkrat
Works
wartość
ką
komun
poháru
przedmiot
фрак
przech
##гры
odrů
##inus
здание
204
zajmują
duchovní
програма
rela
##ML
##tislav
отря
##щему
vysí
##šly
##чал
sięg
vyšla
Meksy
inici
Жен
Спорт
Trust
художник
##dzenie
nation
nak
krwi
##care
предот
Productions
Kiss
##бъл
Mol
MM
северно
Liberal
Локомо
##нка
среднове
Lis
Short
vydavatel
Princess
сведениям
вышел
Helena
380
Nachal
cena
muzea
правят
##ode
Výsled
Herman
Roll
Rights
hrob
отте
##lené
турец
гости
gitara
Nicméně
obor
##nám
##ης
##лле
##ivi
позд
Forces
pocią
mistrzostwo
bub
##чива
##eng
stíha
Freedom
зас
делега
нанес
вяр
##фин
##рор
##обла
formula_2
кот
ид
Až
trener
##něný
ustanowi
##ówki
Elena
Chal
##одо
##etro
Hart
zrealiz
István
##жной
argum
##бороны
grupę
spons
tradiční
##punkt
staré
letu
Sum
##нули
##αν
##íku
впоследствие
przerw
Př
Diana
vypl
powstanie
literární
Kenneth
zby
##istika
принят
яд
Brooklyn
Zač
##nalo
propoj
alg
##удар
дружество
pami
miastem
Olivier
##стон
Apol
majitel
##удов
ustanov
Инди
Cop
modlit
Gregory
maximum
Syna
##ясня
выро
обратно
##ссиона
presti
předná
##ști
přestav
przewi
##lunce
340
podpisał
Warszawskiego
##gens
terenach
Ней
##зий
поселения
големият
##зани
##ид
Deux
кара
Utah
nepřátel
##fikaci
##чается
деле
starově
dochodzi
telef
##теров
##ryp
попыт
майор
Murphy
prawosław
##kimi
##ralna
##лили
póź
źródła
##рийски
Greg
##КС
owo
##ropon
wpływem
Player
поступа
założony
##omorf
Разположен
211
dana
baseball
##ome
директоров
##хвърля
##iten
spod
##гой
grzy
аресту
##вки
hloub
Хр
Anglie
алкого
ton
региону
hráčů
każdego
##chyb
странах
##ственик
отмечают
##рота
veřejné
mapa
##щается
##леты
Sá
171
wnęt
##ezji
##нюю
изъ
създаден
##гал
базе
сравнению
изпълнение
Пав
Tamil
Lwowie
##bla
Владими
##ującą
Červ
Test
Theodor
Zdeněk
сграда
Korpus
pamięci
##js
Негови
budynków
лагер
Първите
Zło
Administra
##dale
Marne
дебю
Пере
IATA
absolut
vlastnosti
fili
##styki
stáv
McC
вет
губернатор
##ας
бивши
peč
рядом
хиляди
konstytu
поля
##стаи
##ible
##cznika
##ционен
Leopold
większych
годам
zveřej
vyuč
sep
##nutím
Sza
##ulo
góry
Dodat
Zv
arter
przypis
кандидат
северната
rank
paměti
NY
##ктом
efekt
##stů
pojawił
ústavu
debiut
kobiety
1785
оказыва
ID
tow
panowania
odróż
##cona
##iere
posledním
дебют
начело
##kazyw
czte
##солю
победу
Leonardo
trz
Reprezen
argent
Первый
Pierwszym
chorob
##olfa
Squadron
pracovat
##čných
Jakuba
##stości
псевдо
Бей
pozostaw
ресто
##стове
занимава
##rur
пункты
Indii
##ants
##берт
проверки
##вказ
ev
velkým
Izraeli
Ислам
Commonwealth
##действие
Nu
##dil
Сен
##казан
##cept
całości
##rno
délce
Rebecca
килограм
Bologna
1776
свер
западно
##iejęt
##нется
##рили
немски
##ther
##ló
##ченные
znanych
семейства
lubelskim
##сбург
taki
##телния
warmińsko
politycznych
fund
Zároveň
##low
wyst
Wir
##ującym
##schule
заба
Ameriky
##gady
Alla
Postup
trafił
##jezdu
##тински
stol
ład
подчи
отказ
Jonas
Рича
státě
##ери
##vent
##kono
##oo
předseda
##ičů
Тодор
wiat
Venezia
##kli
секретаря
##кую
Конститу
разкри
Bond
##hlav
сопер
Оста
##år
Португа
##styczną
услуги
Happy
##niczym
##mani
elimina
поселений
акция
##кара
държав
Pers
Брю
коммуна
одну
найден
##žto
Południowej
Local
Ice
Austrii
##тирани
##ciół
fakultě
##szyscy
możliwe
Source
вести
soft
##eckém
grands
Nauk
Fantasy
фестива
пролет
Vídeň
източно
Birmingham
##жено
Балканската
Tadeusz
Lucky
222
присо
##mark
##itím
нап
brněn
Británie
Přestože
##gis
czasopis
##alis
камен
##bev
207
бежан
##žích
Torres
Allah
машин
odkud
поправ
Harvey
systémy
##vát
Lim
Vra
аэропорта
historické
##řka
Sever
možno
##ycznie
##álem
лишения
##łow
##жена
platform
ryw
##ukle
подразделения
Апо
János
мюсюл
##ème
образования
ká
##doro
##etem
Labem
##usze
spośród
Tot
школу
первым
wrócił
dnešního
Race
##arna
Celkem
Werke
##тинопол
##ciw
divadlo
příklad
Auguste
кост
pozice
Франк
Екатери
židovské
Gene
##tokrzy
książki
Australii
osiedla
опо
Twitter
čase
tat
родена
dvor
Alta
zespołem
Oh
Petersburg
Площта
##eném
##łych
Led
##lę
wrocław
přijal
ochot
Mind
##pil
##новь
żoną
Turkish
продажи
teprve
Orleans
odzysk
Дъ
##нс
дли
##jus
Ain
описва
Pir
Атлан
##cyjnie
wag
Коло
инцидента
poro
Île
nahráv
dcer
##leh
Góra
заявлении
Югосла
ски
##skiemu
##šila
школы
powyżej
jesie
##norod
SN
##iente
неизвестно
Ła
Weg
ожидается
психи
основни
швед
utrzymy
Javier
Поп
десе
znajdowała
##дне
prominent
plně
сезоне
служе
zaledwie
##jeme
##sili
Had
Тек
wiąz
парк
##rast
bon
Klein
powoduje
европейски
блоки
##fte
##ТВ
zaczęła
Също
##овом
##utí
##tiques
##dora
Louisiana
sboru
##ffer
barokní
sněmu
##тик
Aircraft
Ameryki
удовлетво
Формула
útoku
##alt
##aným
Градът
##exist
muži
Senior
##anki
vyhláš
##isté
Kin
ракеты
Formu
nagrody
rozgrywek
Wojciech
мужчи
##лацията
Upper
sprowad
##лън
поиск
войни
Marx
komunisti
oriental
Clarke
NS
Provence
добра
##čením
staly
objevila
##rodzenia
historique
##дка
##czyków
Ond
фронт
повер
Moravě
jiného
##mum
##prze
Magnus
Орден
przemian
романа
ina
CO
Norwe
slab
стъ
государство
Luna
pokaz
появилась
##yar
причин
##лта
нелега
Orderu
##eron
##žu
Heaven
biskupem
zespole
klaví
Životopis
въоръж
osvob
##the
десять
Angelo
Ted
##zwol
stosuje
##город
##sył
krótko
Викто
отраз
##ourt
Has
Ну
##erer
намере
кариерата
Swiss
přední
сельских
napoj
##гел
Дунав
dystry
Matki
AD
Musée
подозре
obiektów
##nau
Urb
MH
##čina
duo
езеро
Price
членом
##cional
Етно
porówn
walce
цер
##ision
Bowl
funkcje
Ośrod
Нау
Mikołaja
prova
##рна
##ET
generál
val
odręb
##ницата
Xbox
látky
##сах
##ining
inicjatywy
нито
Konstruk
Jose
Igna
национален
SR
Wielki
zał
guber
Baptiste
##jích
##rania
střet
серия
слън
Rangers
символи
##fort
areálu
sztuk
зри
hodnoty
stadion
card
Scien
operace
##еното
цве
##ференду
SE
пристани
##idea
Carol
##spoň
alespoň
меньше
Trans
původního
Пове
Common
##arski
военна
Wę
všeobec
Wu
Elect
rozbi
skladeb
Once
защит
Creative
stąd
югозапад
обхва
##aron
Obie
##жением
Кирги
Cre
Clara
Лай
поведение
пригла
inžený
##tung
Brazy
pw
politických
##óna
зар
##atak
##tah
Отечественной
Всички
Své
Klad
gun
Soc
Алексе
Spolu
Pete
pozoro
bolo
właścicielem
Albums
zamord
Friends
несмотря
Manhattan
выступил
Vila
Falls
vlivem
Reserve
zahrad
##pta
##рыв
##uni
čísel
##buch
##oph
warunkach
formal
Působ
заявления
narozen
намерены
##ovka
разделя
##лых
нико
Олимпиа
Nell
sole
Vlast
##кологи
Łą
480
dun
##эл
резуль
Gerhard
Amy
##juk
pochowany
życiu
Rek
Julian
prospě
##ścić
##борите
Минобороны
чемпионате
канала
jednalo
obsługi
откло
документов
analý
potrzeby
skupinou
благодаря
РСФСР
##but
неболь
##stoupit
взят
решил
placów
##wien
статистиката
##eto
Season
Днес
выра
polską
##odp
tytułem
результата
##zne
wez
Emi
żela
скончался
Grund
##говаря
мало
Czas
##способ
двама
jesky
file
##dium
Glob
##oka
międzywojen
podíl
телеканал
dziew
emo
##тък
ряда
Hrab
сделал
журналистов
łódzkim
divadle
Теле
używany
mládež
zwycięstwo
запрещен
магни
córkę
kościel
##idem
Кер
Пон
##блъ
културата
Szwecji
влизат
próby
Wyso
frek
деец
##ictví
Notes
##bis
Paz
##vězd
jednozna
##gle
OF
##дева
meczach
##iad
Landes
среда
Roberta
##stać
Koz
##аков
записа
второго
здоров
Северной
blue
uzy
szczyt
vedla
Государ
Malta
polityki
Clar
##ура
формира
wym
Auto
Que
přechod
высказа
Profes
adap
novým
operacji
Toledo
леги
Studium
##tow
Свет
Kow
##atyczne
ль
герой
Вой
Florence
##łam
Nig
Sad
##ény
пообещал
wstąpił
opiera
opa
Rain
Philipp
Jmé
архиепи
Českého
авиакомпании
používat
etap
zbiór
dosavad
formě
##мут
Jad
Change
Ас
forward
выпуска
##ývající
##nium
rozlohu
##ир
##alni
##stone
##sha
sérii
związanych
Dog
##щност
экра
##kovit
režisér
Budap
контрол
ен
##оров
SPD
##stavní
Through
Bak
soupe
několikrát
##нским
Nash
mostu
##spon
severním
ostatnim
Pit
##něl
##ания
занимает
Бол
##глед
osídlení
natá
##stev
pist
##šením
Кул
urban
приток
##чева
uvě
północny
Rych
##šice
Каро
Sci
221
музыкан
studií
americká
хе
Stein
zaczyna
законопроект
Halle
швей
Róż
Musical
##žením
klubie
##IC
крупнейших
свещени
##ln
uvnitř
informací
udziału
##bour
##nova
soustřed
склю
Кал
къщи
Ses
##lda
rozwinię
##kiedy
tekst
pilo
kultural
сохран
хъл
1100
Proceedings
Madison
завла
měsíce
Liczba
выде
##кистана
209
odvozen
Heinz
##ceni
Generation
proběh
Ото
голосования
особен
Pink
rokem
##čelem
Rogers
Dywi
##шени
zemědělství
Karlovy
Pala
решили
##стки
odvol
Alejandro
vojáků
различных
Bahn
##czycy
##rim
Maciej
##ray
##ever
Стро
Holmes
минимум
технологии
Alexandra
##чеството
##km
##nień
вокруг
гора
установява
##antem
Hil
vis
ико
sla
##евро
издаден
##жений
Położenie
Minas
lac
Liu
klę
госпитализи
##ázi
výroba
обек
stavební
seda
większe
1786
рефор
piosenki
Düsseldorf
стоит
oznaczenie
##яли
##бла
##kończył
bazy
Christoph
Sullivan
vlh
премьера
##cery
болни
1770
podleg
Biel
##pii
Agence
zříd
экстреми
Right
##licz
Off
AM
olej
отка
Село
bývají
slovo
##rah
текущего
фамилията
##ecí
Toru
zahraniční
jižním
zpracování
čest
Mobile
ćwierć
žán
##žka
##kej
просьбой
стена
##adě
pięci
негов
niewy
fon
ке
druga
Atlético
wiek
##яла
brzegu
##orzyst
Where
Кай
##niny
вновь
1750
компо
непре
nakladatel
oček
Académie
##prawie
241
усилия
Солун
Davies
Азербай
лов
Oblast
растения
трое
odpowiednio
##гот
zdroje
тренер
Białoru
ордена
Hlavním
terminal
Call
środowiska
Ramón
##дуард
восстанов
регистри
зарпла
mieszka
generace
##arv
рассчиты
punktu
twórczości
##ideo
plem
##говой
ślub
##дная
##ряване
##adí
##zka
tzn
Ower
pozbawi
letect
převzal
pozwala
Динамо
Башкортостан
Левски
##янов
##onau
##atus
trasa
wewnątrz
Christine
##kowice
zlikwid
##šu
Wielka
собирается
бивш
povíd
очков
получават
harm
opustil
##ционна
Zatímco
ig
Miles
głównej
Wied
mieszkańcy
2020
премии
Евгений
оружие
Неза
Executive
##mać
Kated
Или
smrt
Julio
astronomi
същия
спече
braku
hoj
##tycznych
maryn
Mother
szkole
##stawa
napię
niepodległości
Cinema
##tif
mr
##dr
Mem
Nowe
Республи
úseku
##album
губернатора
произошла
##ave
Abdul
##ense
##tna
средно
##graph
Andrzeja
Был
исследования
##lokaliz
Full
rezervace
##eken
zápase
Double
pojazd
##ица
пришлось
площадь
Константинопол
##anza
первые
##москов
##еха
##szono
Яну
opowiad
wydana
должности
jader
крепост
Evolution
##ляване
##дением
##zozem
Morning
216
##éma
##мая
moral
##skutek
Serra
географ
Beck
audio
planeta
вещества
srb
##aném
члены
зави
opol
ситуацию
Тех
##rového
##żbie
Heidelberg
##tacja
мере
##onami
Text
odpowiad
##телю
##rné
říká
neust
kant
stoj
##ός
Sig
Rap
##чаква
peně
Punta
XXI
##нца
округов
rozši
struktura
neúspěš
majetek
##cum
potoka
Jefferson
Код
продукции
Jméno
nizozem
třetím
шан
Eurovision
##ходе
##anské
Peak
Katalog
časopisu
##onen
##omości
##рка
Израиль
říši
осем
Intel
Mili
HC
такого
##bok
dálnice
Córdoba
расти
Ката
rodzinie
##сау
hní
sloup
##ющихся
dużym
Ligi
214
emigra
##поле
Rachel
Nav
агре
коммента
Xavier
skupi
##тория
Михай
знамени
##nově
Aleksander
папа
inwest
аген
226
встрече
panovní
Rumun
##krotnie
těles
renesan
pozorov
MHz
##ństwem
##бол
кг
готови
дав
vládu
studiów
spisu
Boj
Śląska
defi
spočí
centrální
##áři
Cole
##landu
мошен
dělí
nedo
допусти
sestav
##ologických
##шир
Château
540
кризиса
Започва
Pittsburgh
nelze
руководителя
##sberg
Irak
смес
Největší
podobné
##ardy
основана
przemysłu
hlubok
Союз
stez
##énu
režimu
okup
mówi
Schleswig
Украйна
wykonaw
angličt
rejencji
##лик
László
##оти
Създа
##pop
street
##oti
##йнер
промен
Bros
бер
Dos
Boleslav
##нская
смен
Owen
##вига
##cové
odcinku
Quebec
##сию
эпи
Марга
autorstwa
избя
Virgin
##чването
církevní
##żeni
NCAA
##wic
##ID
епархия
Корея
rozegran
Golf
крайцера
##ející
Сотруд
Pope
##zaje
kolejowa
zvítěz
Arty
pło
Китая
срещат
Инци
Ankara
osiągnię
místních
частично
Yale
Осе
dowódca
Marian
##róg
##mak
##owiska
Storm
Prav
275
rozum
założona
Augustus
serial
dwoma
избори
Luxembourg
##дого
Měl
вечер
##nir
##дире
жертва
Fauna
Neue
mang
Теперь
##етнам
##кей
опти
ели
korpus
angol
Pomo
Koch
достатъ
##гур
končí
##lejbus
Бон
zajęła
Adrian
Organization
картины
##сар
##cé
лидеров
маха
посока
mimořád
##стрий
##park
родился
самой
создать
##иму
##зоне
232
Command
Hard
Biology
Акаде
Уа
Zbignie
##kirche
Гвинея
контроль
##шили
брази
Arkansas
въоръ
##gues
coming
Linie
изпраща
zdoł
robo
##bé
##elli
##vie
Portal
palub
hře
miejskie
magist
voda
##ническата
Rzeszy
parking
Швеция
жизнь
Вра
Ruth
Bass
Sku
kawal
##rub
##спи
výsledky
Pont
Dziedzi
dane
референду
Res
автомобиль
произлиза
310
budouc
generał
tytułu
##tka
BMW
##шното
Mk
лек
Money
czer
karabin
ogłosił
##вото
Pyrénées
##tio
Италии
##поте
##jal
przebywał
##gruppe
mírně
произведен
polu
skle
Вир
##ливи
vítě
smyslu
##ůležitější
##entes
255
przetr
wynikiem
подписал
##alności
нам
##ónů
##hly
bog
гале
żony
vyhled
суп
Их
када
##дото
нужда
dny
Stanford
##ьше
мед
##anse
vylou
Ол
руководства
##fan
##ónu
czemu
главный
##dera
Grey
нарушение
вижда
jednostka
vyprá
Mercury
Jugosláv
Piosen
##owią
Albrech
jazyků
žijící
големия
##bourg
Wasser
гене
##тивных
##odo
Jeśli
##кус
катедра
обучение
##większą
##ington
##emp
True
блок
osiągnął
##рият
сопрово
бизнесмен
##раел
hřeb
##mid
Колумбия
престо
##žná
volby
районы
основе
изобраз
Phillips
budov
ciep
Мен
##край
zapewni
компютър
творчество
materiale
zbraně
улица
thi
Mountains
Walt
##дила
Paříž
##вшись
функциони
Великой
##lový
##ages
Kö
Автор
momencie
мона
Sier
Jeanne
Mason
Ach
Хри
##zemní
##пур
Петербурге
zbudowany
Elżbie
##щать
przemy
##sit
spisov
##tun
Performance
technologie
split
##kají
Clinton
Крем
##rang
##ист
hudbu
Moskva
370
zamiast
kongres
вопросы
прошед
започна
##ревнова
brata
судь
##can
временно
договора
##nach
sklád
рабочи
Constitution
fotografi
Бывший
Brandenburg
vyskytují
Esto
пок
##zej
barwach
Religion
Nos
##vána
кампания
kujawsko
infek
zoba
##дорож
papież
nit
risk
##בי
Shanghai
Food
##ander
Ведомости
turnaje
zúčastnil
##ującej
##sma
vd
##sahu
Eg
Weekly
##pers
break
Link
Górna
холдин
tvůr
открити
Absol
francuski
##бон
сохра
wysz
##të
подписан
##рони
обвинение
Vilém
##чики
мэра
##arzeń
##iza
Krakowa
##нети
свидетель
предше
rozliš
významných
specif
Bachelor
БКП
##zyć
zez
zvířat
stanovi
započ
Boga
революция
indu
tábor
раскры
следует
studiował
vním
##cular
##дръж
##wang
Suisse
##деб
trhu
naps
##owicza
Pí
południowy
редов
výjimkou
##джър
##уа
Sied
хар
Кни
420
Фамилия
канад
nada
zwany
##assa
##tea
kytar
Клин
характеристи
##говете
Rot
##alogi
Étienne
masy
##owem
##лакти
Know
винаги
Mozart
cesarz
revoluce
ośrodek
##nikach
odkryta
wyspie
użytku
Bohu
##эт
##kować
wytwarz
Ker
več
Internationale
ředitelem
zaatak
##opřed
##cta
Got
уголовного
лен
взима
##zić
lepší
Enrico
Piechoty
##rey
намерена
hora
наричат
писто
##enberg
##sman
ръководството
обос
prezyden
każdej
##light
acid
konstrukce
ON
sop
skraj
вру
Мартин
Бру
Industrial
смогли
Blake
Británii
##lk
wyja
##iek
Сим
##etto
Argent
органах
прос
слабо
##vést
458
Sak
základních
Piano
Střední
Polit
zachodniopom
наказание
Alonso
stavbu
komor
proni
úvod
wyróżni
сде
##роваться
подтвердил
Tres
##częszcz
Avery
záliv
Aaron
##átem
kolejowej
Case
Sub
informacje
полуфи
Решение
Univerzity
##wiec
цвет
Бой
přístav
##aran
schopnost
uczelni
reżyser
Living
Obyvatel
wyjechał
##zak
trop
##ędził
Katarzy
пилот
vypuk
Athletic
PRL
##аку
лон
##ents
vzduchu
dějin
##rini
238
самого
populární
Tren
Paula
požád
##roż
Říšské
Tomasz
ucz
charakteru
надо
земята
niesp
uzavřen
farnost
Dylan
názor
##mur
##ives
Montana
Гран
Obě
##blí
poziomie
Erich
абсолю
223
правила
Edmund
państwo
Palazzo
##člen
Инцидент
##arnej
земя
séri
swych
##жем
Mali
##ening
sezná
##ulk
ukraj
Trophy
Мир
##tery
díle
корруп
##юри
##aceae
Нови
##anti
##нема
Етнография
особо
##турен
obiekty
większą
daleko
Claire
uczestniczył
stanowisku
##štejn
Zeitung
Bang
кмет
Чет
желе
gara
proná
Natu
##образи
визи
проголосова
całkowit
##násob
използвани
Alt
##trza
Joel
##нила
metoda
sbě
Armstrong
##cek
Ing
##ovec
Ruska
bada
tenden
Produk
podrob
разу
figu
Через
ministr
Indie
błęd
powierzchnia
##inn
Sav
posun
Prob
младеж
elektrá
##socia
##кома
Shah
vele
lidové
stab
Свобо
Spirit
гроб
Peters
powrocie
jíd
formula_5
доктор
Смо
произвежда
Bryan
zrušen
##лика
wszedł
1774
##fil
potvrd
Maur
##эль
určité
Szkoła
kadł
experiment
Роснеф
главе
##БР
Repubblica
##čená
przyłącz
zamek
Pradesh
1782
końc
Мур
Physics
концеп
někteří
wprowadzono
mari
Berlinie
##lama
последнее
Zało
Milo
##szone
Włod
налага
sráž
dwudzie
##encia
Plata
Zhang
akademie
Poprvé
Montréal
Góry
CEO
Weber
##day
Komp
Karen
stacjon
Pil
террористов
Награ
Нов
městy
##vky
##eden
Ladislav
Лей
##АН
obejm
##bul
Этот
Мето
ССР
Vyst
##ácti
Colum
Soci
гъ
Simpson
##льному
##эм
присъединява
берегу
obyvatelé
Taj
уточняет
##стват
конкурс
obszaru
Stevens
##licy
ответственность
##март
Dollar
Away
218
бур
##ąb
повтор
##tag
мусуль
utworu
##icht
délky
středověku
##mami
Kvůli
Mayo
отказались
Philosophy
большой
Dwa
долината
konserw
stosunkowo
Proces
##цин
Народ
конкурса
##bad
сумма
Say
##lna
залив
největších
puch
##ussa
внес
##можен
poet
останови
zwar
manželkou
zvu
##ierów
procent
płci
##esse
kostele
##нята
oblou
##grywając
Nevada
Ludwika
##oviny
grzbie
MC
Bahnhof
Komis
440
Mid
вед
##чката
Argenty
rządów
asyst
respek
Monaco
mobile
chociaż
##дис
##sau
Бела
matemati
karo
šach
varie
místopřed
##stri
wielokrotnie
vznika
индекс
грузи
wybudowano
ček
warunki
Trzy
##sedy
##ryw
ryt
Laut
Буш
delší
Obsah
обнов
Scientific
##центра
moleku
##adil
##tyl
spotyk
##ХЛ
ploš
vnější
filmów
girl
rozmě
Dalším
местните
Derby
##rovy
bezpieczeństwa
экипажа
CA
Todd
лиде
vývoje
организацията
##sazení
имеют
##ovně
zdejší
##anice
Ahmad
Чис
Armenia
Министр
Next
уз
##terak
##rezent
цялото
intensyw
Cment
ассоциа
Symphony
нега
Syd
Bristol
Представитель
държавата
miliony
Dopiero
девять
профессиона
spu
dotyczące
протя
obni
řece
Авгу
храни
Барсе
##хове
##дона
zlokaliz
Mistrz
zabezpie
Kongo
Джей
слуша
Společnost
gło
лети
koresp
Szczecin
věže
санкции
Jedy
прокуратура
Želez
археологи
напред
##szewi
Granada
##gina
факул
##ални
Ville
sčítání
pokračuje
##cara
przechodzi
##grad
напре
департамента
dcery
Why
##фф
функции
triumf
остават
##eksu
Дел
##alizaci
тр
полковник
změně
rival
festivalu
Ники
Również
budoucí
##áru
1772
##ombard
Олег
труда
zapal
Zo
##АЗ
římské
##ovského
ТВ
Dán
dědictví
kontin
1778
ow
##jom
poloost
memoria
##ME
жителите
местността
węz
##wick
Podobnie
Rozhodčí
hindi
ochranu
přesně
języków
teatral
женщин
##ello
глас
Лебе
výrobě
Dąbr
2500
Gram
Vla
наречен
сканда
Voice
korzy
Тимошенко
Státní
##endá
##osłowa
Romano
Fine
Map
Saturday
##rul
##зеф
##unku
Have
siat
##nka
Guard
инцидент
##ίου
Reed
##tość
obv
Synago
Bernhard
обект
десят
войници
clear
тим
USD
najít
Kri
Kind
##tiku
rychlosti
##zację
##razí
zpráv
osobist
износи
melod
последний
посещава
hydro
pohled
неделе
обмен
stává
utrzy
vysokou
248
Utrecht
Sokol
písni
##рел
##isia
Bible
бас
австра
заминава
úlo
Dor
pust
Arno
##варя
hen
##шком
##inga
Fisher
##grafia
klaszt
gene
sup
##тогава
podziału
пространство
žal
##čej
##dyj
wydarzenia
регионов
Charts
postavy
rat
dolnoślą
zprávy
przyrod
чин
okręt
udělen
Number
Hessen
vous
Ferenc
střech
850
krzyża
Marcos
инвест
выс
##колкото
Zwy
Greatest
vyrov
Nowego
##имену
Frederik
отива
##žily
##zew
nemus
Сту
obiekt
statek
##rzyja
консерва
symbolem
1781
##жеството
##leckiego
zarej
еги
мора
Хит
бозай
eksperym
##ations
234
wielki
##tad
##ovacích
##stka
objaw
Andrés
##чением
взема
пот
автоном
Ángel
Rei
високи
обита
##amt
chlap
двумя
теория
ciz
защиты
съвмест
материали
##лара
достъп
записи
Университета
Rumu
Cham
музея
##ленной
Arm
##Tube
фер
IF
Тук
úspěšně
Panama
##iser
chvíli
трилли
соли
заповед
##upa
vesmíru
kompon
##esen
Транс
1777
przest
Marseille
Jur
проходит
производството
rozdělení
Gry
spełni
jejích
касается
колек
Край
##coli
##žbě
одрин
##тари
Kraków
przeno
futbol
231
instala
окръ
моду
hroz
аэропорту
Кър
działacz
##stycznym
anim
integra
Thomson
odej
##bek
создание
##lám
zbytek
Ала
doplň
Polsku
titulu
##inec
há
рекомен
ćwierćfin
Mikołaj
středu
zapropon
tworząc
##wagen
Ellen
страну
##щият
DE
##ъри
Americans
szkołę
nebezpeč
##чников
nahradil
Gómez
dzieli
Mesa
komend
администрация
bývalé
##ws
profit
zachrá
собе
Firma
meczów
##hav
##ious
##okrat
tomuto
Grab
Зени
Cold
вол
oddziałów
Jednot
##aste
sept
vej
##λή
dark
Państwa
Laur
Руково
312
Rita
Спартак
различните
##ńcz
##niejszy
Bydgoszczy
Holly
305
stosowane
брен
##шия
тю
прис
Paraguay
tip
innym
пограни
статистика
##вис
253
terytori
транспорта
##rzut
kapela
сравнително
юно
##fahrt
Gibson
електрон
лейтен
mogły
Rotterdam
##indu
##prawdopodob
Late
квартал
přešel
BM
Бургас
вул
##fiku
##cymi
Бран
Ya
##lety
регионе
##iku
účelem
słup
týmem
odol
torpéd
подня
Oro
##нки
posiadał
Hersch
##λος
##kwida
pisarz
komory
##onald
bratra
Hits
Bordeaux
отделя
Stage
předchů
Beneš
Diamond
##nien
##žená
odnosi
напомина
wyproduk
Ска
dlouhý
teore
Сюжет
##istů
západním
организова
Rakouska
Andre
дисци
velikost
Moun
осужден
##ИК
mało
Slovenska
белору
Земята
tma
zůstala
##née
##oga
швейцар
Стар
Голяма
##letý
##tiky
nauczyciel
medaile
##мирал
ryzy
##ота
podwod
przekład
енергия
##ługu
zawodach
stałe
Istanbul
строительство
Total
##atyka
chrám
Nielsen
округ
dekora
Drive
Week
пункт
indi
боя
съответно
oblé
##ror
Rakousko
потому
GP
Коман
племена
najlepszych
nosiła
##зират
##resz
niezwy
Superior
##руя
##нителни
##tne
свобод
##itt
##ojewod
эфире
##унд
##sey
##хожда
футболи
титла
##dać
ulo
přeb
Toulouse
призвал
государств
środków
Ov
frak
synów
##waniem
Legend
##grali
Баща
postanowił
produkt
##minik
Бос
programy
Hora
##lea
##ленного
##uru
турски
##ани
Emily
Ježí
дал
##yu
bývalého
##ełm
populacji
dodatkowo
Honda
přemě
onemocnění
punkty
CC
dostat
dramat
##lash
Хам
перевоз
komit
##ruje
чечен
##święt
публикации
materiálu
užit
początek
##rick
potencj
Ekonomi
osobností
Mul
штат
храма
medy
##odor
##емен
Convention
kapal
główny
##менты
создании
наградата
##lene
Wells
##ünde
gh
##obój
##stych
##andia
##ждений
široké
##tacz
ofen
tisk
Ini
mění
239
Raven
bloku
целом
Вай
Springs
##owic
лета
odpově
##ební
Foster
ogranicz
nemůže
оно
семье
widz
neexist
Ulrich
264
Rog
desta
227
dnů
seznamu
strávil
##бит
лондон
##skać
kory
##wiera
Patri
pli
входит
członkowie
Тогава
chá
##ividu
##hlo
Tol
hip
Kloster
kanoni
нападение
Portland
стадион
##tokrát
Tales
365
šir
зару
##tha
##тории
odznaczony
terenu
лице
##кора
##ПС
minuta
##ложен
Московской
Зна
##awi
пенсион
##ори
životě
375
Vodní
vyjad
Хър
útok
роста
zbudowano
Devil
НТВ
patrně
olympi
Hunt
Prawa
имало
высказыва
cmentarzu
новия
Birds
zakladatel
итальян
заключения
komis
Дю
##разум
##ču
Ричард
složení
Škoda
поло
momentu
przewo
získali
##вете
powiet
проживали
IT
пас
Powell
##зиран
napětí
József
##šín
##érem
detek
драма
Dir
автомобилей
vlastním
Richmond
SV
związkowym
##arskich
сх
режисьор
минуте
Komuni
##rogram
ruské
ort
portré
##prawa
řez
niezn
Москву
významu
tax
Eyes
##bergu
podíle
##мым
Кле
##kém
Harald
##торите
##łaści
možná
upadku
záznam
zase
vymez
divize
периоди
průměru
##wało
ukončil
Alberta
tyle
##rski
предложения
Сал
Třetí
вторият
sojusz
##cław
##lung
##cano
Venus
##šku
tradice
##лация
blok
##logi
Informa
##sini
##рещ
##плу
##ционер
aga
##регули
Петров
lidské
francouzského
##ovem
Ozna
месяц
преодо
##ЕФА
roll
265
##voz
obrany
bole
##room
остается
уровень
mora
##ющее
Ahmed
Стив
zrušení
týmy
минима
##rád
Груп
##dách
Lie
Industry
Jud
godzin
больницу
Стан
##ádě
##owanymi
##atyki
##ellen
Тъ
вооруженных
Антон
##ument
Kultur
##ůl
Flight
Epi
Швейцария
szczę
##pla
nacházející
zbrod
rekrea
Nebraska
Československu
věci
участники
podkreś
własność
##луч
начальник
##пле
##dę
Cra
Zw
##dziesiątych
CS
##тят
летом
западната
doslov
Цариград
##öt
основата
cvi
##oria
liv
1773
Arsenal
##ots
##nae
твърди
osud
Советского
drogą
демонстра
funkcí
Vá
##šev
##гонь
Ама
Champi
Inde
научно
##стън
знак
##čují
Labour
континента
krátké
Youn
262
reklam
Syria
Wing
Crown
##rovala
##fat
##łoni
wspiera
УЕФА
отделения
samostatné
doprov
snažil
арестова
wschodnim
##asti
Tyler
Dane
Quan
унгар
##гий
zasady
Tai
Fiction
wzor
slune
Yves
##arne
Annie
sekund
Work
корпус
konfi
##ären
позволяет
228
подписва
полицейских
##wing
специ
společenství
суме
##owość
zbie
administrativa
метр
Jagiello
Curtis
##ickie
Chemical
комплекса
##antní
główne
nale
Виена
Manu
##ира
nehod
##раструк
##брой
средновеков
ostatnie
Człon
připomíná
Jessica
520
##mond
станция
##вежда
joint
vidět
мировой
překon
wst
inspira
Кре
намалява
událost
##ulta
планински
przywi
##nata
Basketball
jam
KM
rang
Fair
картина
mg
slovenský
majątek
Саксо
восьми
jejímž
dopis
##ojen
českém
Barcel
Prowad
##декса
cykli
Эти
przedstawie
##строен
umíst
ochran
Ful
короля
lesní
Ral
podg
proběhla
##eh
создания
##дрид
trolejbus
občas
кандидата
##iy
помага
celów
243
##uen
známo
patřila
Odz
воды
##тые
##kers
kterými
dziedzinie
италиански
##fs
pozůst
administracji
nesta
ск
##lés
##gger
Sejmu
Głównym
групп
ръководител
Wers
##dina
powietrza
##щены
přezdí
oddí
Амери
##гали
Konstytu
##fera
Велики
Ожида
##elor
pozwoli
chron
объявила
Franciszek
Normandie
węd
градът
получит
res
rizi
##oly
##jeździe
##ders
komunikace
##фу
носител
Commander
битка
zdrojů
zvy
Nagrody
obrán
##ival
##mysl
justice
silnik
помощник
egypt
Člen
gaze
борьбы
каждый
##mata
zadní
Around
Сити
##sam
Тракия
Сбер
Оскар
nabízí
Liebe
pry
Conrad
##кими
##кани
##skal
добави
wzmoc
Tree
##grywa
233
##antes
Мила
отряд
okupacji
българското
Cohen
участием
терактов
lah
RAF
řetě
malých
Nazi
amerykańskich
хор
фактически
##atorium
Znajduje
##зно
кубо
##днага
miejscem
Miranda
Schneider
325
glob
орден
Stadion
Charakter
Ital
##тельная
rozmi
кръст
##łom
245
теракта
##dzkiego
stejném
##čík
стрел
##miana
Луций
##šte
глоба
stupně
сет
объявили
офице
Kid
šlo
уверен
метал
побеждава
decyzję
##prawdopodobniej
219
партнер
Поро
Skar
Katolick
zle
Gö
spodní
Lesz
1760
Należy
czwart
naukowych
##риев
cerem
Soj
преиму
##комменти
##еми
##лод
Madame
ВМО
tą
noir
Polskie
Tiger
Григо
востоке
ilość
background
Ridge
životní
Tá
románu
Pho
меч
povodí
##ús
szac
народа
Soccer
##hové
Spojené
wybit
otwor
największe
сгради
powietrz
hrála
cal
Norton
популя
начальника
opuścił
##ánský
terenów
##ждението
##otta
##гин
Нача
szó
doprová
wyru
Holandii
оръдия
##bní
313
niemieckim
##фикация
специално
Leslie
vysoká
przeciwie
отделни
zvět
kin
Jung
##AT
##OL
установить
##gado
Stories
спорта
rośliny
Hof
jediným
1763
Pearl
##ief
раньше
zbraní
černo
zanie
Wyd
##ologický
##ýr
Helmut
prefek
Stefana
dokt
резолю
##key
позже
Speci
Orlando
##крат
obchodu
skutečně
прокомменти
ЦБ
##uj
provincii
Android
##zją
kalendá
mody
Buffalo
południu
rejon
Jedna
наци
Сви
Манче
манастира
##sné
okamžit
##rip
Luca
##inte
semifinále
Леони
druhým
##гона
Коди
čtver
##arskiej
##GB
Черно
албан
пострадал
выбра
zaprezent
Jour
przedstawicieli
samoloty
проекти
##alla
##дини
##formu
Жу
вынес
Рас
статус
##жието
infrastruk
uruchomi
fáze
Испании
Kuala
połączenie
##кому
Ен
Hampshire
зим
Югославия
ван
##лете
музыка
##odí
обозна
sň
mluví
Koncem
молоды
индивиду
крайцери
potřeba
Stejně
kryzy
výc
порядка
jednakże
сове
Złot
znalazła
Stalin
названием
##сява
##ovol
Isa
Sr
##льского
hráči
конгрес
игр
environment
долго
настаи
списа
každoro
automat
Bennett
основном
Kosovo
Augusto
Server
innego
##očich
rozpoczyna
източната
##тивна
Josh
Първа
učení
##газ
295
husit
jinými
Belgii
вар
хан
marszał
превод
dobré
egzemplarzy
zachodnim
palác
##ствием
Ангел
relativně
##indo
##енис
boho
powróci
Morza
принцеса
Powiat
sf
Обама
Defense
306
zabrá
##woje
Вис
##жного
ostrovy
dočas
Wag
sezoně
251
##eres
Emmy
##eris
prezidentem
muže
##anaście
Lind
móz
Verde
##erz
##ops
vytvořit
административен
Kut
obywatel
вскоре
##източна
печа
Kateř
mogła
Информа
specializ
pokou
CNN
##рда
равно
Beyond
Match
##пие
stadionu
Nassau
fly
док
nastąpiło
Def
променя
российским
Palmer
skró
##שר
##uly
ущерб
Mine
##леда
ВВП
Wydziału
Ghost
##ates
usług
Индии
поезд
Politech
reag
##ød
důležité
zaká
zakończyła
002
Zero
światła
Эр
##führer
Romeo
Jun
pacien
wojennych
старо
##ël
link
черно
##imbled
Хаджи
##стира
машина
##ъгъл
powstaw
alp
##skij
Glenn
##jeżd
превър
значительно
селе
Thai
míru
Gloria
Darwin
Dun
kanton
określon
уровня
główną
229
vztahu
kurs
##знание
##СА
Biu
##áni
дворец
301
údaje
пие
PTT
##niono
revoluci
##ственият
wciąż
##phone
Bí
nádr
instruk
Pad
Голе
##vara
Jiřího
##tés
Illustrated
##enství
existují
transportu
Bour
pomor
Mini
##pper
beta
борба
Afryki
многих
Асен
Už
oficerów
aero
254
Asii
Edwin
Concert
Důvod
430
304
##git
chlad
Basel
подчерки
следствие
системата
východně
Ela
własne
urządzenia
Коро
небе
otá
plochy
проведение
##nová
poprav
президенту
рассказали
##зопът
бирже
potenci
##IN
##cation
##út
Germain
телеком
трите
vznikly
Патри
filmů
##вшейся
колони
digit
rolí
wydoby
##počet
jednotka
##orn
artylerii
принес
банки
západně
organizací
wizy
Ple
Ус
камер
doká
##рористи
termín
Olimpij
##atycznych
##tex
236
Vera
Хари
Римската
##ары
rozh
linka
посту
Hopkins
программ
Giacomo
Hai
misji
##rida
Dio
Лондоне
систему
spędził
rokiem
##bang
čtvrti
Josep
Układ
uvedena
Большо
радика
##owisko
praxi
броя
Filo
##obi
Krzysztof
Father
zaob
mobil
szefa
Honor
##кут
odsouzen
Бла
##kovy
Gérard
przejął
pałac
živočich
##теры
##западно
Почта
##inové
Vlta
Пау
hop
бокс
##čený
niewoli
Ibn
Szent
почет
басейн
рейтинг
##минира
zástupce
комменти
Stefano
газете
##osau
Bois
wokalist
##lína
Kai
##iens
##кл
##денбург
int
Tibet
Solar
##точната
##формира
pojawiły
##защит
Waw
Naczel
Claudio
##битра
stowarzy
Track
##нна
##čily
uložen
410
достаточно
##tics
##чек
##isy
##cil
##оба
udziałem
##кър
vedlo
##zzo
##iam
##stel
##šné
Banks
napęd
Индонезия
женщина
##inas
pokar
##tef
##ула
##ционно
służył
facto
przyst
##коном
##начала
Działalność
myśliw
gimnazjum
##pem
246
Перу
odmítl
Training
SD
Бю
##aries
##ardu
зависимост
##съюз
митинг
Ella
##ιά
звезда
kompozytor
řídí
jem
Jednocześnie
##bice
фоне
przewodniczącym
fed
существу
Gdańsku
Dost
Rzym
ozbroj
##менте
Then
zarejestr
християни
служеб
Origins
пожара
Anno
Oksyt
Bd
Palest
wielkiego
##lidae
Lucy
##zki
gromad
nazwiska
Průměr
##ók
velkého
Uno
Poslan
powszechnie
Rosario
тенни
##lektu
Kolonia
Тю
církev
##verein
NK
Stru
Europejskiej
##шат
##йо
профи
Ener
minimum
отметить
##rden
провели
##dura
provedení
Fútbol
sprzedaży
rakiet
Room
Průběh
тут
Остров
##lého
amerykańskiej
možnosti
příležitosti
концерт
бен
##жни
AFC
Architek
зато
diecéze
ODS
dowództwem
##дец
сложи
Поз
фанта
##rotu
##бива
kluby
##árních
Обла
Want
ztvár
##uca
ныне
Janem
Pascal
249
Mexi
спечели
##iah
Eugène
jiný
Hero
Nagy
diag
Authority
Frid
километрах
strzelił
##ádí
##ално
Слов
telefon
wyjątkiem
##rozoli
Paříže
открит
##ровой
##čného
Вътреш
министерство
własnością
cechy
osiągn
Malcolm
ústřed
strojů
zawodników
wd
postava
Oksytania
##ouště
Dawn
wap
##stek
vyhrála
##ест
Garcia
producen
##utów
Palermo
Luc
##ardo
певица
dopravu
Gymnasium
węgla
d'A
##ářů
роботи
świątyni
дово
орке
##зацията
Belle
Tang
сградата
лабора
Artist
Sap
sej
Chem
##еро
historických
подгот
Alba
pokonał
Именно
potřeby
яр
сне
българите
Kro
zemského
Nathan
Globe
##czo
zvon
трудно
##дън
żyw
Twór
##eszcze
Félix
##plat
##osto
возможно
##ece
pracowników
rozhov
Ala
Geografie
żona
Скоро
проник
портре
Bitwa
първа
##čany
Zgromad
ограничения
##тист
къс
ребен
бюро
bílé
Michele
##lada
towns
dużo
bazie
первых
##att
государственной
Frédéric
##nicą
Moz
##Dr
##stic
##нският
##метри
нараства
##zań
Wojewó
vodou
spolupracoval
Ющенко
ner
wierzch
Asie
nevě
bán
##tida
wymaga
театр
Саксония
смарт
Търново
Над
Эта
chrámu
silnie
##вария
поставки
Obsz
языка
Слова
##НР
##acji
##zivní
zdrowia
sněmovny
##цио
Díaz
римски
Хон
обязанности
króle
музикан
Пала
##eku
##anan
pałacu
porost
Hardy
własną
interak
##stycznej
##стойчи
##τι
ауди
##liste
mohly
##RA
носят
Nina
vedlejší
дево
Julien
езика
272
##ěm
##ściem
potrafi
Letních
rozgrywkach
přestavě
unes
##рги
domě
sezony
neměl
tramvaj
##vole
Make
Orient
ММ
Advanced
##vů
##rzał
europejskich
##логии
местному
Patricia
собесед
dané
Bischof
cześć
vystoupení
gle
автомобиля
игру
семьи
Guitar
Fund
##mistr
##áti
##tyczne
przestęp
piece
książek
grob
Akwitania
##жна
##niczo
##śc
Synagoga
##graphie
времена
соревнова
##livě
выше
продаже
техника
odpovídá
materiału
кубометров
usunię
referen
Mistrzostwa
właściciela
експери
307
кога
##стендил
řem
uprostřed
грузин
młodzież
obklo
Alfredo
##eníze
develop
działanie
##станция
проблемы
школе
discip
sklep
границы
##otní
wojskowych
Vega
##dek
##tai
Коми
академи
##sida
признан
Виз
Ее
Цар
Beautiful
akci
##ovních
likwida
kung
гей
##произ
адре
mládí
1768
Пока
Eugene
vyznamen
hym
##onna
##дек
##pro
квалифика
oboz
sad
ръко
ближайшие
Making
изигра
nebud
Rub
Jihla
działał
ren
##niesienia
подпо
Každý
evropské
švýcar
##łuch
сухо
Учен
##нени
уве
uveden
##vyšším
003
##enem
##toria
коммер
Chuck
##kali
Private
Sezon
nezávislost
Española
lekko
##овер
Пара
разо
##lä
odkaz
##ump
kombin
Luther
sni
nakaz
olimpijskich
##бания
противоречи
коне
zpočátku
nazywa
Richter
účasti
алу
##ои
окончил
Заедно
краси
снаб
Lut
##dob
Бли
hmy
přestoupil
learning
dve
zdobywając
Martha
boy
textu
počátkem
fia
zub
##пля
жест
осъществява
zmiň
Technolo
##berga
mohlo
słyn
Nice
vybí
##ucha
избирателей
Мона
##omier
##apar
Baj
reality
botani
Всемир
дем
obdr
Sel
Dywizji
małe
миналото
pres
fen
doctor
заказ
vůz
Přem
ов
Кариера
Работи
вошли
iTunes
Петербурга
Lista
hypo
córka
połą
Mé
Linu
lik
отдела
distribu
Marka
Кън
##рои
Оте
##jk
политическа
průzkum
Gard
##łonię
##lud
весь
zwie
дълбочина
swą
názvy
kořen
zagranicznych
pisma
консо
зависи
městeč
wyraz
info
wieży
hvězdy
##брь
недавно
причем
Jednym
istniała
##osta
рядко
##kta
Хоен
##atelit
národnosti
257
słab
когото
umiejęt
pierwotnie
##PA
преимену
стойност
poznat
przegrał
seksu
Tit
##тирует
найти
Уз
къща
##ffe
podró
inspi
Konf
##mb
##дать
představení
##ierarch
##niejszą
karty
продукти
Слав
zupeł
##цеп
уника
wypadku
spotkaniu
##igur
porząd
dawna
639
огне
buňky
##řitel
průmysl
##ląd
солдат
Право
прошли
резиден
архите
##ňů
Honduras
Edge
MW
významným
Duk
pięk
кралство
полка
##zation
водного
инфраструк
specy
hodow
##'ego
Range
pieni
dywizji
##mic
##odi
ukazuje
##gge
оправ
Michelle
##уна
Jednalo
najważniejszych
Jeszcze
##raca
pedagog
Leiden
orze
określenie
крупных
Тим
устрои
Lorraine
obvině
##hur
дивизии
Asociación
receptor
##owską
věří
uprawi
Baseball
Vedle
компьютер
Jeremy
автомобили
общества
mohut
Ře
възможно
накануне
Igrzy
małopol
##пал
dekan
piel
Martina
Franciszka
##ссию
271
озву
##тият
##сила
trá
reakcji
такое
##ментов
другим
##перка
radar
mandát
центром
Trój
chciał
##lavě
miejscowością
popraw
считается
Berger
trad
ответственности
МВ
##akan
značné
znajdowały
ovo
neo
##itus
délka
##qi
formula_6
##arten
##пись
kroni
##remu
perkus
wywo
Vyso
odpo
Nicole
podmínek
православна
wysokość
przekra
##циален
Lion
Dana
фигури
##aten
Léon
ranking
##уда
Rozší
Druhá
Rat
тюрьмы
дат
##down
Максим
Sala
##мень
matki
отделение
Magdalena
303
bala
výhrad
##gni
kanc
Start
237
образува
koru
materiál
prohlásil
stejný
Wisły
Rakousku
sel
##osob
dceru
rozt
umie
Ameryce
##десь
впечат
mandat
##minen
gitarzy
##illo
většiny
##ňovat
##nische
szczególności
##tory
##verse
ада
##śnię
dětství
Continental
Terre
Vítěz
##фей
предпочита
lau
зала
паза
tao
Wola
ray
Jesse
Římě
столкновения
Montgomery
упал
##западна
##świet
Vista
Omar
braci
Ukrai
samorząd
występowania
mazurskim
режиссе
Adelaide
protest
##plo
systémem
takiej
Występuje
poziomu
zavra
Ama
dráha
занимается
моди
Maritime
существова
Kab
333
революционер
слишком
застре
datu
##сада
##eux
##ović
Obs
Kras
Komunika
FBI
памя
Hauts
poszukiw
wio
tramwaj
заслу
Solidar
##čko
##EN
специалисты
##штаб
Газета
Rosyj
##нике
vhodné
Kier
magazyn
holen
filozofi
Miał
##rane
Marion
MA
Marcin
##cera
шпи
UCI
zawodnikiem
Кен
утра
##gno
selek
odtud
##øy
rab
мост
известните
##ползва
Liberty
##stém
##iter
460
242
онлайн
клубу
##bing
##правител
##lny
уви
muslim
ręce
##stro
Piłsud
нес
Posi
летняя
klasztoru
různými
##ческими
studyj
polega
závodě
podepsal
Michała
подкрепа
##loužil
Lich
депутаты
##ender
##вори
американские
##St
obhájil
Rh
Ирана
##jní
mech
московского
1779
##pania
ВМС
redaktor
dolin
wystąpi
własności
Williama
Emilio
zdecydował
##шенных
pivov
##xon
Ожидается
Премь
##gren
##ляют
běžně
##yně
stanął
seriál
##nci
##stol
представляет
получат
bom
мусульман
systémů
##rají
core
Chan
EC
Angela
okraj
##ряс
Позд
##láda
вест
первое
uję
śmi
Chrystusa
дърво
сор
здесь
##начально
правил
Tennis
##тельстве
##mans
кандидатов
минава
Ferra
##ниях
обнарод
отлича
узна
Sami
pohybuje
обратился
##λα
##нит
##АМ
občanské
1740
zaopat
##ссий
Адри
288
civili
##beth
zdě
Towarzystwo
##lius
Wojen
rozkład
бизнеса
tvorbě
talent
wystar
snadno
Русе
seks
Sněmovny
Albrecht
odbywa
##чният
ore
##дца
koup
dokázal
##eckich
паметник
##iety
oddziel
Communications
##люс
Мей
Флори
морски
kwali
mnich
Dios
Stavba
подозреваемых
##nář
Polsko
Иванович
##nicki
Ole
ČSS
##alizmu
Eugen
zatrzym
##gad
Bien
pojawiła
Steel
obejmują
домов
##мую
отколкото
EMI
nejvýznamnější
setká
##ares
kolor
АО
rzadko
DS
dcerou
samosp
##desátých
##дос
Малай
##vez
1753
Ари
стане
##ктов
Konstanty
Welsh
##ecku
Hop
##dle
wywodzi
Günther
##nicích
##тельную
bord
кроме
Maro
285
Соответ
хотел
křižovat
rozsáhl
##EL
предстоя
##манитар
минути
##jah
##stre
##vence
союз
##ieł
uczniów
prud
Пакистан
музиката
počát
Jamie
baza
##skot
Policy
опы
курор
Крыма
lès
Hay
##лога
##entní
##geta
gda
принц
Search
нашли
ръце
zpěvák
Partia
ВМОРО
##sař
byt
##chop
krok
##cm
CDU
přízni
##enn
zasiad
##öld
Becker
Československé
##rid
моми
decyzji
doliny
upamięt
wstęp
účel
Sti
неделю
огонь
мито
Drugi
боевых
Emilia
księży
##mission
pokoju
##chia
Предполагается
Evil
подро
slavnost
Universe
##otera
zamieszku
Samo
Dieu
Hradec
запрет
Kou
Ludwik
Still
##ρος
respektive
предмет
реките
##eon
кисе
селата
##шены
Bratislava
Yorkshire
Guillermo
##quet
престъп
Sieg
Us
##мма
##ést
Součá
Chorvat
potla
##ptera
Публи
244
Testament
наблюдава
##awa
dzieł
##itos
výzkumu
Najbardziej
kultura
##вшую
##шек
партията
tratí
ústav
individu
překladu
jedynym
##IM
##зывает
##ící
Без
sprz
Poto
izol
водят
Cannes
Konrad
##ovitých
norwe
Kre
dochod
##polita
Księstwa
Malé
Dlou
Brooks
východním
vstřelil
muzik
doba
##езда
##śmie
Tale
Flying
плате
##mą
daily
navaz
plánu
##arskiego
trh
apara
CV
##хол
никога
przystan
##mul
manželka
wód
UNES
většině
závěru
##yl
Stade
##tonu
##anus
Engels
Sos
дороги
##яд
##америка
##íž
najwy
wspomni
miejscach
žup
tamtej
##olt
Двина
okna
##zuł
maximální
skut
podlaskim
Zbroj
##zně
pán
zasob
Ranking
Белгия
Grove
Moselle
перене
##ródz
ciało
podporząd
nejméně
Fun
зай
postavit
##baven
##vati
Wiele
связано
Fou
Sąd
Бито
турската
instal
rewolucji
придется
památky
vzpom
##czeni
измер
bok
wyniki
městech
комиссия
##мост
гибели
##ляции
состояние
přenes
##pli
Российский
##aris
gnie
Alpha
##iona
административно
utká
##ległych
работят
экономического
mówią
Forbes
315
bor
##wicy
jiným
chłod
##inka
рынок
usu
poko
виновным
##сул
WWW
prvků
Rysz
wolności
Socie
pinyin
##roid
Проект
radik
Hubert
Fak
technologii
необходимости
Franç
nápad
Wahl
##EG
##лана
задол
##onom
Roosevelt
##illi
televize
systemie
сообщение
konec
Bernardo
##kowana
городского
silnika
##отно
##фикации
##čtí
ročník
Powierzch
##isto
náhod
Too
subsp
прибыли
##ентов
аппара
údajů
##odzien
##anja
##hone
Tallinn
Локомотив
##дика
awansował
##agi
Skot
източници
предстои
Председа
doros
##cre
##ison
účastnil
##zina
Новый
siedzibę
##ON
тъм
krat
kai
rozk
daje
новую
Horse
##enda
боевики
nieu
##хията
водос
niszczy
závodu
pokro
sąsied
предотвра
Lower
брега
podstatě
рассказыва
създават
##тиране
Попу
##iat
позднее
variant
нейната
wykry
Częstoch
Herzog
obsahují
##nové
Pierwot
##σα
třemi
##należ
Bost
amerykańskiego
pedagogi
сингъл
##mistrz
##дру
Choice
победы
последних
белорус
##niona
дял
Ig
linię
##mír
Til
wskutek
Dunaj
nástroje
##стието
##press
zatem
Arabia
Shadow
popisuje
##циан
##stycznego
Legen
Chase
##wyczaj
beat
##lni
##ванията
zasá
Pologne
hlavy
think
##зам
##put
##vých
##хин
Deutsch
фильме
Steph
půd
##выше
wojną
nakladatelství
problemy
znaku
pout
pahorkat
##льна
wyro
późniejszych
starosta
##icki
##ционеры
palá
vytr
zastosowanie
Ellis
Betty
баталь
работают
měření
обхваща
залива
##alizacja
Съществу
związków
ugrup
pacj
##тис
##лници
Vienne
##alit
stadium
tie
katastrálního
##iae
##hia
Пути
Využití
Krát
##ěst
zvo
narodowej
Томас
Междунаро
##жали
##ňující
##lony
Jezioro
własnych
руководством
bezpečnost
Bulhar
używa
Robot
úplně
zkrácen
světla
маса
Auvergne
ox
wywi
vyrůst
podziem
wojewod
społeczeństwa
Дмит
письмо
договорен
přijat
rozpozn
cíl
##образу
DL
категории
paříž
Flores
rozsáhlé
centru
Giro
Ruiz
Duncan
##glia
pozostałe
Axel
wygląd
##скет
##знен
потра
размери
##мере
vydává
##hrn
Stron
produkce
##ninger
##ędzia
успяват
Докато
##wodniczą
##dum
##cząc
F1
Amazon
GT
zemřela
##сец
produkcję
sześciu
holender
продава
247
będący
житель
ока
Pły
порт
dawnej
magne
##sio
исполня
зарубеж
incident
услов
Railroad
Дона
Eagle
португа
##вова
tentokrát
uvedl
##jach
крайна
министров
Spol
Africe
женщины
Поч
лейтенант
бере
Община
ликвиди
##liště
Trek
##rija
proměn
##čními
Ръ
Затем
firmę
porazil
Jerozoli
dach
koncerty
jím
обслужи
techniky
Deportivo
##unu
běhu
studiové
##cc
jezioro
##uszem
ramienia
##orum
gier
małżeństwa
заин
slá
##bbe
##nionych
Kij
##нау
Forever
Jupiter
определени
Newcastle
Gun
чиновников
Основа
kolejno
##тивной
Донба
lar
Doug
выступления
футболу
##istiky
1660
odchodu
Грузия
отказыва
bojů
příležitost
zwięk
Teh
vze
406
zespołów
Klu
##жает
участник
##жества
##alistów
Vit
całe
vůd
1648
##жела
Lambert
##owni
икономически
VL
какие
прежде
Vor
vyvíj
##oupili
##adyj
Gri
отчет
##тични
souboru
kryst
Zemi
##graphy
předpoklád
урегули
służy
##турни
завода
dziesią
Wid
достатъчно
използван
##nais
американский
##спекти
doskon
místem
památek
следващия
Побе
Bezpie
##kis
##зиат
Ran
výsad
Angels
Wac
##тивы
rosną
přírody
##szeniu
Palma
płyta
Even
Jürgen
продължават
##fab
Owernia
uważa
##гун
спира
выхода
ama
narození
Kids
aktivity
vylep
Snow
советский
##jna
Moskwie
blues
зара
Czy
Кюстендил
##arę
líst
##cili
##ED
Professional
##eja
##cop
##isse
vystříd
рос
Гражда
velko
##пин
nucen
##czyński
Guido
##rand
преслед
##сейна
Horn
zaczęły
záslu
francuskiej
Кова
Porter
Croix
rodiče
Трам
fyzik
Fast
##cens
##upełni
чиято
##даго
адвока
armádě
##itate
dřívější
Olszty
##hotov
Bret
##ровых
##писват
вопросам
##сие
przeprowad
##rent
категория
Сли
stromů
фол
##mání
překva
bonus
##štejna
##cci
Робърт
ежегодно
ниже
Rang
##зора
zřízení
zachodu
##chodem
войвода
Eri
założenia
náleží
złoty
dyrektorem
pomimo
Валерий
паци
Скопие
mix
тяхната
Animal
Gulf
##ogi
vystavě
vlastnictví
Židé
nazywany
występujący
podobu
nedalek
młodych
корпу
##нений
думи
издадена
##łó
częstot
Pokémon
Dominique
reduk
zrze
Междусъюз
Służ
##tější
viri
Dvo
##US
хозяй
##colo
##ална
##polis
Caro
Михаила
##znamy
Prvním
##osła
търговски
##бере
Кала
kamien
przewa
Ботев
##blą
Někteří
kryp
przegran
przestrze
Davida
Cristina
##ющую
Fiat
единствено
##yes
Měsí
příjmení
##stik
##лие
предви
intelektu
КНДР
zranění
Stil
##antu
podniku
Kalifornii
właściwości
Ким
встрети
табли
съще
ръка
sprawy
temperatury
hodiny
Cru
původních
майстор
Circle
какой
боепри
Titan
##лье
zaczęto
Pavla
##язви
390
onu
blu
медаль
katastrof
peníze
##лады
##CA
Аржен
преследова
##żony
##różnic
umoc
##вов
##oan
втора
celkově
Bag
социалисти
Ottoman
využít
стига
ciś
magazy
odc
dlouhou
Słońca
uh
Hyd
##lementa
Obama
##жению
введен
dotarł
##čice
muzykę
jednodu
##ingham
społecznych
Broadcasting
##jmy
ostate
##чила
количества
последния
карь
##rované
Vas
kamp
Lille
тръг
Ada
zero
příkaz
##ssi
Samot
milit
uszkod
Regina
##бана
menš
страда
ludzie
Berlín
появились
rozdí
##rzest
регули
stavě
umístěna
миллион
лаге
##šav
inteligen
protestan
przeciwieństwie
гендире
##ака
fázi
##тират
brytyjski
##ąg
##мили
šampionátu
Sudan
Pfalz
Market
##sket
Vid
##inarium
Filippo
273
##eran
Monach
cm³
Circuit
##ъци
Запа
Göteborg
konkrétně
straty
ewolu
империи
Petro
философ
##sley
осна
##ziony
Najświęt
##mou
przekro
Tvoří
Staat
nikdo
największym
asp
##енец
порно
Without
експло
zahrady
dílem
Magdal
Velik
draft
archi
##pečí
Вита
Nowo
zahraničních
##pravod
Лор
училището
Nationale
свыше
##ceu
Crystal
zvítězil
ученых
##rzeć
emit
Uniwersytet
##жки
##gow
ponor
##czeb
въпрос
группе
противника
Hochschule
##фона
wież
##нически
Simone
266
jar
##úhel
приз
звание
строительства
spotkań
danego
docháze
корпорации
беспла
prý
##aca
Як
Несмотря
пазар
Sør
палести
diváků
gwiazdy
ryby
chirur
эле
zpo
Jednakże
режиссер
##glio
dowódcą
bitvy
болель
Мака
vídeň
zůstává
##jel
cud
заместителя
творби
строе
charakteryz
Movement
идеи
knihu
związana
##bius
сторона
prová
rzek
##гах
Flash
Прин
nastąpił
květy
##ragon
##anth
##quer
místopředsed
konfedera
isto
Тъй
koko
##фов
zakáz
Christina
##rino
piłkarski
##чными
ścież
stolicą
Chang
Hoh
разказва
поверх
Cou
323
Trybun
##ink
identity
posiadają
směr
##cata
Wellington
krze
Luís
trasie
Aviation
##рън
конфи
otcem
##öl
приложение
##czest
Порошенко
##ńcu
Satur
##шите
Někdy
vych
Funda
школи
##рек
Eye
Velký
nejm
růst
##uss
dwór
268
##ину
zain
норве
prostředky
##ałami
absence
##НС
Nez
##sak
##tyki
подходя
##ващ
##ýš
Ukończył
dokonał
##ždí
##zmem
Wielkie
odniósł
znaleźć
istnieją
jazyky
##нодорож
##евич
projekty
##zín
263
pomnik
##ąk
Herb
302
Herschel
арен
Hung
сформи
dokáz
Walk
##rzeg
соответственно
Конго
Mnoho
niewielkie
##плуа
wrę
vojsk
##pokoj
akademii
##ходить
věcí
##awy
Frankfur
bior
программу
Castillo
##лла
Mill
scena
Jake
използването
террористической
яй
##ladi
контракта
rocz
zajat
Novo
mór
Sup
odbi
##сторон
Leeds
nepři
Jul
##ранов
Adventures
##bah
slovenské
námořní
Междусъюзническата
Jensen
Hercegovina
оригина
Иск
setrval
##същност
##hyl
moři
tank
6000
##хла
zbarv
severo
##едини
##ову
централната
wojnę
ambas
twar
Ghana
chrom
rozpowszech
Dziedzictwa
##pak
##рено
Revue
tronu
Bonaparte
nożnej
Berry
##víti
uwzględ
Draft
##пто
##рона
kontrolu
##lines
językiem
##рят
факултет
Една
dokumentu
Gott
ustawi
Řád
##zela
Рейн
##kaw
sportu
kształcie
##nig
##трин
Aero
цвят
рекон
птици
soukro
singel
##cket
1771
zabezpeč
Wydaw
třiceti
herečka
fauna
##rine
##oha
##rotny
hitler
zdar
##mito
Maya
mórg
Return
Хитлер
##nija
Krajobraz
vozu
ČSSD
причастности
ES
российская
##alizację
Św
286
Dreams
##ót
pohledu
obran
Lek
politycznej
##ites
AR
пакет
wszyscy
dostalo
dyspon
obal
##leni
выяснилось
Ogólno
příslušní
pozytyw
Chin
сеть
граду
Осетии
##обще
Пана
Газпрома
motoru
Tymczas
pozornost
##лини
##istický
##stěh
Manager
##ochód
křídla
rostoucí
schvál
Powie
zajmując
##тед
kierował
##mią
Нем
моги
магистра
należało
Вя
железопът
световно
спон
рада
klasické
takiego
государственного
Svenska
Igor
Low
Позднее
282
Kamen
##jícím
Economics
divok
##šuje
предава
Součástí
tvorby
##ventu
##kovat
актер
##льти
##суди
nejdůležitější
Аэро
administrativní
Cont
položený
Подоб
1766
Často
Laguna
vojsko
##чью
##дда
Západní
Št
Nejstar
fond
edycji
беспоряд
přip
przypomin
почи
perform
zastąpił
1769
řadí
Crazy
##ariusz
objekty
sav
większej
забран
Cemetery
##mujący
276
Hann
Intelligence
##rego
##iaj
zdi
wszech
len
ocze
podaje
славя
быстро
##следствие
volně
tlen
Bloom
Travel
Участ
divadel
środkowej
pierście
AN
обръ
##ющем
Попов
##érů
Zdroje
футболен
студи
odnot
невоз
##xt
277
Kategorie
##lęż
Brand
zvýšení
Ден
Olga
##кле
##никова
bó
rozpadu
Tich
Dieter
národním
urzędu
Można
Освобо
rozwiązania
TVP
Крас
##ленд
Clube
##дора
##лежа
##gir
takzv
Block
##átorem
reakce
Osied
##úto
##jonal
Fridrich
самом
церемонии
ОАО
znaky
Dodatkowo
kolejnym
konal
##manna
274
Sla
##ownika
##istka
Кол
cung
Albania
bolszewi
##кты
1765
Mazowie
линей
дълги
žijí
pras
gospodarki
снаря
споменава
wschodu
równ
Deutscher
титул
Seventh
##ubi
Papua
liberal
Powierzchnia
stod
##леко
##рически
##olla
връзки
Mass
объектов
dur
okrętu
bydgo
středo
##žný
##inský
##eční
niekiedy
biu
##pada
Things
Były
francuskiego
##nina
Brat
Полиция
президенты
тема
Ras
##zko
Klim
##alizm
następnych
Phi
разных
входят
návštěvní
##део
##кал
zales
Pucharze
Агент
letouny
властями
gwał
granicę
Toyota
Moravy
##rog
náhrad
Seba
заявлял
останки
Paradise
топлива
legendy
wszystko
Němci
избух
holding
spory
Woods
АН
##enburg
usil
##ňoval
hierarch
##museum
Staff
Mayer
hromad
liczb
боеприпа
пристига
буква
Salzburg
##istic
обнаружены
Aleksandr
anali
рождения
zostanie
##rodziła
##hala
boga
duża
Тар
сфере
##zené
obrat
pohár
##ářem
następuje
##сът
затова
##łecz
trzeciej
závislosti
Brna
musela
Münster
защитава
handlu
podeps
figur
Termin
Kawal
1767
dróg
##sána
Хенри
jedyny
coby
##čov
##лое
вышла
tuż
Pała
Szczy
институты
liczy
jezero
##czyny
Rossi
##eret
Navíc
германски
такъв
революционна
Afriky
LA
kláv
Rusko
##nickiego
ośrodkiem
261
Tournament
Стру
kritiz
AU
využit
Hendrik
Tell
##овото
##zę
nastav
laure
##rowie
Обитава
skał
##roy
uspořádání
##terní
##tava
Jaz
##еруса
мужчин
##ládání
wzrostu
pewne
umístění
Richards
специфи
испыта
něhož
komórki
menších
протяжении
1650
обяс
распро
Wiki
##овая
##тоци
ustawy
резулта
přestup
Monachium
##dla
гръцката
##onne
radě
##pení
uzupełni
inva
Boží
inny
Syl
284
логи
горе
##логията
##omin
opowie
znaczenia
##tui
##разви
Едуард
Neal
prędkość
##tily
autostra
главным
Szkole
бел
Националната
##ziale
jmenoval
Parma
##moto
##fic
Deb
Filipa
cor
начался
здраво
##пта
##ziv
Sidney
##elek
научни
Bli
przeszłości
Виктора
Zám
protek
mord
przedsiębiorstwa
garde
полномочий
##ющими
filma
затруд
##пей
методи
##фелд
оценка
odwoł
zapro
Richardson
##жил
Powszechnego
##хос
подзем
поражение
złot
Stop
považována
печат
сценарий
эксплуа
wywodzą
pret
##oler
##igan
kwad
уро
##провод
Inside
открито
днем
студент
племен
##защитник
miastecz
gymnázium
281
světel
układzie
##niami
газо
odehrává
mark
Pau
hust
bag
события
258
smíšen
эксперты
здании
смог
470
počítače
řemes
Enterprise
zawodnik
Oldřich
Technical
Соответствую
##dé
откъ
##bir
Monica
Salt
##ív
##шний
##дените
хокке
##obor
##utta
Mills
Inf
buku
Челси
##ционные
вле
есента
##ecky
Vystudoval
##kolem
##owisk
обстанов
Ida
oblíb
fanta
SB
Купата
powiąz
287
ww
##sburg
##tiop
Prim
##bridge
##сит
inwesty
konkret
portal
Илия
jaką
##řadu
żadnych
##vere
Freiburg
стрель
##ътре
##ovců
Status
komórek
##grega
IN
Зу
прив
měšť
mý
##kým
Trois
##ици
konkursie
těsně
příč
##jne
констру
takim
Szwajcarii
Corpora
баррель
Бара
Bradley
##čané
okręty
Ган
указ
##álové
Miesz
jedinou
osvět
hoc
##eckie
сом
poety
##enými
Мюнхен
Jeffrey
##гол
mah
никогда
zakresu
získalo
##lant
następnym
##liwi
утвър
скорее
odbyły
podnikatel
rozvíj
интен
##vana
obchody
któremu
starost
Fighter
zagad
стер
Анаста
бригада
grający
Milton
правило
látek
возле
reprezentu
##рич
Абду
равен
отношений
Denver
##elen
выйти
porusz
własnej
otevřena
Крым
намерении
motiv
##jó
zobrazuje
pogląd
поет
##ландии
##ąć
Горна
znalazły
Интерфаксу
гърци
Prior
Загора
významnou
Wimbled
Orléans
##čnost
Brad
##дений
Zawod
##ющиеся
притежава
##eně
##klé
satelit
nazwisko
Родо
świętokrzy
królem
stromy
##товой
1762
благотвори
Музи
##rady
prefer
napl
##мият
Comedy
##йс
запро
гара
závěre
zařad
Центро
##тое
warunków
proudu
##kopis
Rena
наричан
срещи
278
výhradně
událostí
skali
подготовка
uznał
##loučení
egz
hodnotu
##szczenia
##amu
Nokia
пехотен
Pato
делам
##анали
manželky
##žilo
gay
##KO
338
създаване
##áků
##jednodu
dvůr
##icko
Hali
##вшему
богат
Ačkoliv
zasah
Příklad
nab
жертв
Bryant
##loup
##лийския
предстоит
измени
##бни
##zeku
dosáhnout
##vesti
##pend
##mac
##ján
fotbalista
патру
marketing
##шина
dolní
małych
297
dřeva
заседание
synt
posel
wiedzy
##atury
soli
292
Churchill
##DR
královské
przeboj
##áše
ukazała
návrhu
sloučen
Grecji
Bod
1764
пожи
Acta
Homo
cier
Brisbane
Cell
bost
разпо
Alžbě
recep
mezinárodních
начались
Семей
ГУВД
przeży
Trinity
Źród
Doprava
защитник
пришли
sok
Mail
св
ujaw
собственост
##ровании
ЦК
obroń
##teil
Manchest
všem
##teri
reforma
Ultimate
##kala
560
Adventure
śle
оценивается
stanowiły
##zaur
odcinek
procesie
съпро
##phus
полицейские
Norfolk
деревни
Град
##cembur
содержи
##evrop
pochop
##lul
inni
spolupráce
осен
камък
rail
atmosfer
##czyńskiego
##cąc
CF
##raf
постъпва
Bolesław
wit
федерация
Аржентина
Connor
259
Deus
listů
ubo
fazie
##eder
исти
Dante
historię
##áky
Георг
reprezentaci
SL
говорят
Обедин
разпреде
##znání
Mun
D0
Leone
więźni
обнаружен
##кте
Picture
Andrews
Стре
příprav
Together
dalšího
zróżnic
задержанных
другими
##yne
##dž
Tay
Наука
Train
##luk
##cra
Соб
##bów
фраг
ročně
Kami
mete
Правительство
##мый
válku
Ostrava
##etra
родния
##itelné
##фур
##zist
##czen
Moreno
##řele
##escu
bruk
##ау
##tini
##IT
настъп
Кае
##acht
ражда
zmienił
Jaw
Śląsku
Palais
Gren
samice
przepływa
##подоб
Ox
dlu
##rij
Opa
##szona
животных
OH
##дим
Host
училища
Kultura
308
bro
##eckým
рекор
задачи
Обще
Vita
Johanna
niž
MB
formę
tažení
##edná
##bry
mistrzem
##burga
нещо
##bund
портал
raczej
##uso
энерго
сотрудник
свети
##дана
подс
Krajowej
Бри
##вшими
nedě
obslu
Uganda
##ścin
оставя
пройдут
преподавател
оръжие
LL
powołany
##owcy
##rique
promo
staje
uzd
##berka
Второй
##вычай
##гана
setkání
##kowany
imieniu
cíle
interna
Сочи
výročí
Бори
квартале
##кулп
##тельности
Стани
менедж
Киеве
##овица
sieć
##ślad
##фту
старите
##ree
разрешение
##тната
дават
posádky
vit
Obyw
321
Marino
##ortu
katastru
nowot
Galaxy
věnuje
Епи
uvaž
Iv
pewien
267
Sociedad
##far
vysoký
Lau
Pur
##stvem
Fol
выру
##cut
##ůž
šíř
##kování
##kiew
##nuto
radom
269
datab
równowa
улуч
работни
координа
Нава
vodu
##ovaném
##nota
ss
polityczne
язык
провеждат
média
nemají
Bailey
Československo
Ondřej
##arii
млади
Zdoby
Rodrigo
objektu
Randy
спустя
##verband
##доно
языке
Зам
ukończeniu
##дное
technické
##тельном
##уди
311
##нении
минера
Chrá
кримина
вила
одержа
papí
Ходор
kult
Anglo
Airways
Bułgar
walkach
оказалась
Министерството
Letters
Адво
##μος
poda
Реги
гражданин
vzdělávání
zbytky
lát
prezesem
Cala
блока
objevují
Against
zahy
Uczest
děkan
miejskich
възпри
smrtí
nowi
Série
Quest
hmotnosti
turnaji
##сколько
budowie
336
Дет
remix
##тово
Ца
##ulus
Berlíně
Ensemble
meč
Část
##TE
vystudoval
Jeżeli
poji
integ
поколения
споразум
излъчва
odmí
Singer
medium
należący
Portu
Trump
Giovan
Gwia
##хождения
новостей
Nur
Ученые
уе
plast
##ujícího
vrtul
283
Architecture
Saints
##ляется
народен
Оль
Dž
##rys
##lop
DP
##сами
##kot
##tycznego
którymi
udzie
Сотрудники
кафе
##ждению
Parc
náklady
##pravodaj
prospěch
Zygmunta
эксперти
więzienia
významný
północnym
подтвердили
wiary
Gilles
Tři
нев
Parlament
Trail
Polskę
##jícího
##idů
elip
##dejší
łączy
Date
spokoj
wystąpiła
rostlina
компанию
месторо
##fikowany
parlamentních
federace
Krzyża
Isla
##átory
stopniowo
warszawskiego
директ
чемпион
Fédération
##нести
##фонов
přímě
vysílání
hřbitov
Fren
Lied
chal
Watch
Свя
допро
действительно
проигра
Rozšíření
альбома
международных
Василий
неуспе
инспе
devět
Negro
Imperium
załogi
Fryderyka
Creation
Софийския
мол
Ходорков
dzisiaj
mineral
##ługuje
wygrała
##omera
храна
materiałów
##kost
pouh
##манов
##ądu
jazdy
udr
ówczesnego
zwal
512
##ovna
Barba
Лидер
прокурор
последната
Атина
Даге
záření
Robertson
najprawdopodobniej
Made
wraż
vývoji
Mainz
обеди
Michaela
многочис
ICAO
těžké
##vrz
mik
пры
umożliwi
Fl
Anhalt
bara
##tland
##__
ведет
kláves
Депу
десетиле
върха
motocy
szef
добри
##пользова
ose
Alexandr
950
Lennon
zastoup
faz
Bild
Kenny
Istnieje
##skryp
předlo
navrhl
модель
zálo
natura
##яти
samoz
Malmö
##vert
##puštění
Bíl
Maison
Окръг
Henderson
##lory
Zajímav
##cad
дейността
pę
ekonomické
##adz
rub
jakości
прести
Gay
Grad
##рые
Willy
долара
Mistrzostw
českou
Italiana
Přemys
doh
КНР
##zdě
čtvrté
spotyka
замък
##лера
държавен
##ТП
gradu
Superman
mail
udał
Morrison
anglický
hodnot
##czonej
##мпион
ними
rou
##lét
Najlep
každého
kwe
Dąb
1730
##uren
наречена
session
Banco
grupą
Beau
Gir
IA
##ственная
граждани
##хии
Института
##фера
mlé
miner
vyšel
Pole
swe
Mast
##ěn
Ludvík
##хау
бежен
##тиран
vybavení
##tickým
Spe
letadla
##бел
poškození
pav
nejdříve
začne
##ệt
uc
##щихся
готовы
общини
##ули
изключение
Лав
источника
Багда
płycie
обекти
Murder
пролетта
Spart
Hur
bed
schopnosti
Psych
##érie
Beethoven
głowy
Rzymu
Kiel
pozostaje
##дената
##hood
pojetí
zahájil
Fan
640
Eduka
Yellow
Reynolds
##фалц
Ion
##прият
Mlá
Кост
щаб
zabývá
Język
Latina
wojskowej
gali
ostatními
обеспечения
##ховен
Руската
##inů
míry
##tish
журнал
podobne
Burgundia
полагают
Белград
##льм
Ради
идеята
odnale
Hub
Caesar
##karpa
##lier
##ož
krajobraz
изработ
##вано
Адам
Einstein
##vs
ГТ
програми
hp
mistrů
planetoidy
##ledy
состава
proku
Rozpo
fe
pravé
Lice
##бок
участвовал
A1
Vittorio
поръ
опол
нали
##lee
потерпе
mąż
typů
##kanów
serca
gitar
##щими
биологи
##vek
Klasy
Stern
##лау
szerokości
##roma
##ляните
##rix
термина
katolí
pułkow
Joze
материалы
volné
pH
zato
vyvinut
##връщането
матчей
##jala
начи
собствени
##жаване
##ranž
użyciu
##hang
správu
pit
##iteli
sand
тюрем
dyscy
Wes
wicepre
##tara
Израел
##rut
##naté
Blanco
##place
Brz
##uge
##жный
mrtv
hous
demonstra
ца
##hlen
tvrdí
neprav
rosyjskiej
Triple
##антий
otacz
метод
обикнов
Причиной
поде
Need
zginął
ułat
##boje
kolonie
ptáků
##OM
маси
железнодорож
анима
hovoří
##avi
celost
##scha
335
Вся
Trio
прошел
##czką
letecké
Pís
1755
Smo
Lynn
##chus
изображения
badaw
zarazem
##kazem
bibliotek
danej
wróci
345
умень
##вио
Columbus
##inda
Узбе
vědy
vozidla
анализ
Atlanty
interi
тело
##дията
Strasbourg
paz
prosaz
międzynarodowych
Montevideo
rozma
rankingu
ала
Důvodem
zwycięstwa
Floyd
новите
##тит
нер
vydáno
##uten
zwane
самолеты
призы
совместно
ошиб
Абха
flu
Toki
systemów
Person
##łowi
изкуството
попали
##osvět
Zalo
##IP
Česko
316
##gada
##szyła
współpracę
Lep
потвър
Abbey
клон
Шан
тари
wschodzie
omezení
##enské
Rise
##zky
naukow
Fish
PT
wiki
pur
##мисъл
##пой
Poznań
Woł
silnici
##тео
кален
noszą
metry
Bawaria
córką
přestože
##kreis
Бро
подал
přiz
AA
##kowała
Claudia
Swift
##tyczna
kolonia
всю
Nine
##рованной
regionální
##ějším
Amanda
Młodzie
отговаря
singla
299
##хнов
##рира
soutěží
kontakty
##chas
##tainment
Enterpr
жъл
дружи
poně
uči
Sid
Senator
Tadeusza
лечение
##ordy
reżyserii
Куз
теоре
##arstwo
##86
##тните
zraně
spadá
##antasy
1720
##куль
выйдет
Повечето
Вел
академии
Dale
psal
Ludowej
zakonu
##чны
Sep
sklon
##harm
Medi
osiedle
poskytuje
щат
spin
Bio
британски
экспертов
395
Верховного
##table
293
zamów
okazało
wydania
Poly
предприятий
##hají
koncertu
úspěchu
ува
późniejszym
Хор
##нено
кори
станови
използване
возрасте
Държав
##brá
Jaime
##głos
##štěm
##kad
Ud
относительно
международни
fragmenty
Piper
279
desky
odmów
##ises
dopływ
##rovým
britský
válek
##óra
##ьян
##vaných
##шло
Евросоюза
sprawował
oporu
listopad
гар
чрезвычай
экспери
Кънчов
Gerald
Anth
1640
duše
mniejsze
##стал
сирий
běžné
realizacji
отвер
##ровка
zawodów
ля
##жия
Benz
Fungi
занял
Архи
##телността
навлиза
stare
brązowy
przepis
będąc
режисьора
##tav
##lka
земедел
procesy
##view
Zygmunt
##śmy
chu
Heroes
ponech
Niemie
spada
##warda
журнала
##tację
naukę
##rování
ścian
##ologicznej
skąd
Rhein
едновременно
Gib
Armia
библиотека
##рно
hodnocení
skry
warstw
buněk
1021
ożeni
Rivera
trzydzie
наем
jediné
##ctwo
podium
##urt
разве
##lée
потреб
rozwią
Nürnberg
należały
##eníku
AT
##tres
zabur
церковь
##rici
Ern
vyk
południa
подозрению
палаты
największą
účely
выполня
Jackie
farm
##гръц
##aut
##сован
priv
##zyli
zasadzie
дефици
Ingrid
причини
najm
крайцер
squad
##пки
Spół
odzie
предоставля
спас
Комите
ИГ
pers
##ającymi
kře
péče
Slunce
słowia
применя
владетел
##eke
отметила
Pass
stworzył
Тру
объяснил
драмати
##ού
dává
Kit
Monster
vyš
гиган
загуби
Позже
okazał
##owol
Angli
##arth
##czesne
монар
Симе
sebev
postavil
##vazuje
##stąpienia
##dów
Druhý
italské
Format
wspólnoty
obszary
luk
комисия
Въл
parafia
посольства
##ęły
fakulty
admi
prezbit
abs
McCartney
schopen
Макар
Koł
##шаване
##овое
płytę
##λη
sociálních
provd
Виетнам
линията
Wew
světovou
rozwin
корпуса
Дмитрия
##оке
reper
Jejím
rąk
братя
каких
ефек
внутри
паша
podróży
Yo
dráhu
309
##slava
хро
318
пути
podejm
Bożej
Интернет
употреб
важна
Fraser
aplikace
оскор
дефи
многоброй
rakouské
studovat
doslova
Дело
попал
celku
Indu
##bilit
331
пассажир
ostrovů
wywalczył
wyłącz
Wtedy
##něním
srdce
заявява
medicí
polské
##ландски
поход
rozhraní
##ronic
##вит
Soł
katolické
zarzu
návrat
rozvod
кръсто
Raw
жесто
Габ
przyjaciół
Gate
bratrem
objektů
института
Zato
drużynie
nemocnice
324
Haag
zaklád
architekta
Ibrahim
американската
Glen
służbę
museli
Sonic
диамет
поддръж
##raž
##ccia
Laboratory
Financial
Danii
наследство
přírodě
Konkur
##ress
##syl
písk
relacji
Olomouci
kníže
личности
дата
##сира
##ódź
dopuszcz
Faith
##чений
Lý
lotu
Rab
##eal
триллиона
дълга
Еква
materiał
delta
tvá
l'
Friday
протест
Анатолий
severovýchodně
##nay
Chu
Резу
atle
Budowa
demo
ел
появяват
Герман
Jens
GNU
kř
popularność
filmové
mala
Telegraph
##gers
największy
View
##biu
Gon
muzyczny
##enátu
Aktu
Westminster
nieli
sześci
liczbie
##šeno
сосед
карта
предизвиква
fanou
Gerais
засел
založili
Ústřed
dzw
##razit
izo
##owate
играч
Volta
Южен
Derek
событий
##ěť
Karié
zdravotní
katedrá
cmentarz
zmieniono
##право
Slovensko
Polskim
Newman
koupil
##лат
##йският
ЦИК
командването
сравнение
stavbě
letounu
szlak
##markt
Farm
nadał
Stock
kulturních
будущем
характеристики
zadaniem
347
lokalnych
##kyní
Obrony
přítel
марк
путеше
##дентов
Drake
tas
frontu
HIV
Siedziba
прекарва
zobowiąz
##kki
Depart
##manem
śród
Kolem
Normandii
##macie
##ходу
##hned
френския
веднага
silné
łam
##áže
wzgó
Staré
Markt
##bytek
##жът
##tivi
Такое
осигурява
##gwaj
##iven
радиостанции
устана
moř
изпратен
склонове
##tychmiast
natychmiast
##kalo
słabo
religii
уволь
педаго
типи
Kasz
młodzieży
dokumenty
##osexu
zachodzie
bob
spiralna
ptaków
przeprowadzi
Sebasti
ký
iPhone
Che
##górza
Společně
klucz
inženýr
##čným
Лау
##гами
поредица
319
цяла
středně
Nejstarší
##čím
społecznej
Czechosłowa
Amb
soustavy
апа
Cox
##siół
Every
Ignacio
przyczyną
##kowane
мани
системе
Георгиев
nesmí
zespoły
wyścigu
vysokých
##znacznie
##rike
запу
Kill
Siedzibą
Krátce
György
падения
Celtic
Speed
čo
съм
##рни
штате
отразява
židovského
rekla
broń
niemiecką
novin
##adami
реестр
Oli
##pola
частью
##ети
атаки
##xia
##чих
Andersen
##дови
##зания
##чая
Admiral
Polską
##ological
Moj
wari
##para
Salon
##iami
Isle
hranic
травмы
Луч
Яро
317
sław
lec
znaczeniu
##amo
##tid
austral
Abra
##казват
очка
przybył
##vice
##дителем
##щики
##anią
vládou
Кня
напус
интернете
отгле
ЮКОСа
staty
dut
igrzyskach
Montre
##сал
Ниге
##стие
##řídil
Rocky
plemi
Labor
Katowicach
присво
термин
прекъс
pape
populacja
ostatniej
legi
##ętnie
Colonia
альбо
организован
Хал
фотографии
odmian
materia
Champagne
rating
##וע
trenerem
##uth
322
policie
##áda
опъл
Уил
##front
dą
##органи
společné
przystos
начать
Tří
Christophe
Herald
##spekty
komput
1759
Maryn
##тым
Wings
предприема
klí
tłu
rodzaje
Sporting
##stavba
##проду
наследник
Уол
финансовой
изли
Gábor
obiektu
dvacát
skot
swym
doma
##вале
##cené
CE
##toky
##alle
##play
##Station
Фла
przewodniczącego
Raya
budynki
##eman
wzmianka
жените
współczesnych
добрите
слов
drogę
stranách
deleg
słone
guru
аку
Sang
wersję
mni
formula_7
vydavatelství
dou
##onka
trwał
existenci
СП
Boż
udostęp
##sterdam
organizaci
##voli
тяло
stabili
sumie
Jezusa
Polo
milionu
nazna
Ей
powstaniu
przeciwnika
участвовать
Cricket
##мила
##лига
texty
Sor
Wyższej
##щик
porównaniu
Част
Австралии
Wii
##товете
либера
usy
disku
сторону
сотрудника
zależy
Gimnazjum
планет
платфор
градски
smy
Arrondissement
kolonii
Leg
literatuře
##omunika
Саха
vymě
##ńczyków
Síd
##elů
opatření
Electronic
##ciera
##ávala
##fra
нейните
princip
##сибир
пеще
Dur
селища
##zací
Ped
##gata
##цвет
прилага
##ИЗ
Parlamentu
##rale
Zastos
Hello
gnia
##tani
##lai
демонстри
Grupy
##ße
Stanislav
vlák
Czerwonej
##smu
##ziła
странице
URL
Gang
##seł
##vědomí
##kształt
anglického
Piren
Sebastián
фло
основен
Таджи
Кавказ
##hren
списке
СС
používán
состоялась
водитель
имен
##ковой
##доз
эффектив
##czają
##nowi
##nch
łag
##janie
тяхното
Дом
размести
Kolí
oslav
##кръ
zaměřen
документи
UFC
šéf
Йоси
источников
úroveň
Patří
##razy
##ality
эпизо
Ленинград
týmů
krize
zewnętrzne
dostał
291
искусства
budově
##strá
##dliwości
nejlepších
Łuka
##taire
певец
Rai
##кона
přil
чийто
##чани
местные
Infanterie
odes
Cincinnati
dawnego
##letni
zachowania
##тельству
296
своими
dor
##OH
понима
vrchu
dvojice
Dęb
##hti
поиска
##gner
##ůraz
krew
Wiedniu
relief
##nět
EN
zjedno
filmech
Vida
Португалия
##сексу
едино
Стоян
##пси
##ждена
vádí
čí
эвакуи
##äs
##řiz
Mou
Nin
tvořili
образуват
##дации
Saône
приостанов
фирма
wydarzeń
polí
Ewange
фу
Crime
Футбо
##смотрен
повстан
Fredrik
##rí
talk
Nacht
Kanadzie
самия
właściciel
##niec
Ед
кръв
Jura
##atky
объясня
Обикновено
третьем
страните
uczęszcz
záchran
Trinidad
аппарата
užívá
teledy
kwas
##telem
Českých
##vora
##tací
problemów
Squ
dosáhla
Jenny
циви
благодарение
powieść
##zhou
Území
Monroe
wind
Lei
##оны
кад
Édouard
Фердина
Suk
##vus
historik
предусматривает
Съюза
##stin
telewizji
реке
vodních
##социация
##him
украинского
##ствовал
##положение
обраща
dosavadní
Liceum
##rano
орденом
Rolf
##cles
##šina
MVP
Sach
наля
Leś
##řazení
drz
##bana
autobusy
##jemy
wypełni
zadania
elektrické
Elvis
следующий
передачи
##wand
признали
здраве
vrací
umělecké
Святого
plasti
нашей
##единение
błę
siód
##шният
игре
Vasco
##рета
##formy
Ow
armádou
ret
spowodowało
dialek
kanadyj
декабрь
прошла
byzant
Wcześniej
czasami
кър
##sum
Шот
##cast
спрямо
международного
республикан
Rice
Киргизии
съсед
možností
německá
kilometrów
nízk
Homer
Proti
spółki
Sandra
społeczności
показания
značky
##emat
dyrektora
Плевен
##ована
wnio
těm
zpravodaj
скулп
чисто
##груз
Narodów
##alogu
##восто
федерального
Émile
dokončení
##šan
původním
řekl
##lanych
pova
##мали
църкви
Nit
innej
Kyle
судом
исте
wir
Кьо
Вирджи
Сама
##aven
bratem
##mile
MIT
увеличить
упра
Estonia
##pově
rakouský
##ckými
рассказала
władcy
gwar
##опа
Břez
dziej
Radzi
literaturze
новым
Клуб
ребенка
przywró
desít
##toři
352
##zdory
играят
египет
##выбор
listu
Indo
repres
Chap
Prawdopodobnie
спекта
лиги
produkty
elementem
Nothing
##long
428
##rei
##aniec
Казахстан
##эконом
##болов
союза
ponow
struktur
matur
##eka
właściwie
studie
функция
dusz
Solomon
kněz
##rce
čtyřech
##zbęd
przynależ
ery
постига
frame
tematy
koszt
404
обвиняют
pravidla
журнале
maszyny
łańc
Словения
Мил
298
употреба
570
mogli
zmienia
385
Rotten
ведомство
преде
##řím
obserwa
aktorka
подобные
Stephan
##gół
Look
Číně
słów
Nicola
выстре
##ciální
Obyvatelstvo
exped
Jindřicha
##FC
oblęż
toru
sporu
##znes
zachodniopomorskim
hnízd
pronásled
порядке
předsedy
369
##cházel
Ул
stosowany
Lago
řazen
Йорке
##езде
СН
1756
sdí
Reader
ostatniego
Gaze
осве
високата
odszedł
pošt
blízko
specyfi
lépe
Става
muzuł
Spisu
старший
##utor
Cir
##krat
razie
Oscara
Хел
режиме
##plan
##ęci
nukle
praktycznie
##съл
471
мне
Komen
##fej
měsíc
##нст
пълно
Defence
Thing
городской
программа
oznámil
##шкин
талан
Богородица
konečně
##hradu
používal
osobnosti
Afryce
##sios
hodnota
oběma
Кады
##ствовали
##kající
poży
##vier
Mys
##inos
Barto
básník
##zyła
местного
активов
Reyes
беше
##kův
południowym
##izm
##myśl
##aryj
Mechani
teologii
сул
mnohé
Listy
následujícím
Kli
uzyskała
напит
##kamp
баскет
vyná
powojen
Suite
Bear
zarząd
##glomera
angl
убы
Тбили
##печа
fotografii
niebezpie
Trend
Sý
##lát
Stos
##níkům
RNA
tle
задолжен
##çe
##нъж
диплома
Darmstadt
##ax
737
francouzská
pádu
Sheffield
Dlatego
námořnictva
Suzuki
Доми
##блоки
наше
důvě
barw
##urn
pozostałości
состоялся
##летряс
проби
vodě
##tisk
##niak
Верховной
выдели
декла
ФБР
bramek
Barnes
въпроси
тура
jihovýchodně
podez
podaw
vlastního
##odon
##kiewicza
коалиции
капа
Není
##żer
týden
##strak
Premi
kilkanaście
##śla
Edwarda
покинуть
общност
Сибир
лъче
definitivně
Nového
##ед
Dzien
redaktorem
obránce
Коммерсантъ
Рио
##bly
мом
настоящий
používání
pops
lam
Perth
Verona
tworzenia
социальной
##entů
tud
##gard
финал
dys
světového
##щению
каф
##bl
##чук
специалистов
touto
##шись
wytwórni
nowa
flag
##лые
školní
Janusz
RCA
třída
Большая
потребовал
Более
hmotnost
považuje
украинских
##árně
съоръ
Роберт
##ънс
новое
Mohamed
каталога
програмата
##wanego
ФР
straż
rozkládá
##żne
##емым
маща
срока
##šeny
Japonsku
##rve
wielkie
министром
певи
Contest
##пинг
vrátit
##lehl
Charle
##cid
началась
Казан
328
Банк
##chodził
Lund
Winkler
odczy
krajiny
##žnou
пони
##мбле
pseudonim
organizacja
Vision
lasy
klubów
Objev
malou
čtvrtfinále
OSN
всяко
зав
szeroko
piosenek
Lock
uniemożli
помещения
Малко
Haven
matky
Johnston
Pracy
zale
propa
rozhodla
вину
##кур
##еле
главой
##ственное
##noucí
Byly
##гресс
Pohá
Rząd
сектор
##ril
Wonder
чета
философия
Oise
прежнему
программе
Blanc
сексуа
##weight
wprowadził
##мър
propor
посвет
##атри
##уз
najbliż
step
tratě
Saturn
1757
tekstów
Gerard
kompleks
kontroli
treści
Nikola
##вина
zdraví
##йского
правления
Луган
фракции
##átorů
zwycięz
milion
Stary
formacji
letounů
cestou
uf
Bezpieczeństwa
идея
лесно
Vojtě
letní
Irene
blog
tisíci
продю
##menta
Present
##esis
Bertrand
##льд
každoročně
##witz
jakim
komplek
##dli
Heavy
stanowiła
##reich
neve
съществуват
Truth
postoj
wad
##дежи
##žnost
harcer
Bella
zamian
Мел
увеличава
1761
главния
[...]
