{
  "version": "1.0",
  "truncation": null,
  "padding": null,
  "added_tokens": [
    {
      "id": 0,
      "content": "[PAD]",
      "single_word": false,
      "lstrip": false,
      "rstrip": false,
      "normalized": false,
      "special": true
    },
    {
      "id": 1,
      "content": "[UNK]",
      "single_word": false,
      "lstrip": false,
      "rstrip": false,
      "normalized": false,
      "special": true
    },
    {
      "id": 2,
      "content": "[CLS]",
      "single_word": false,
      "lstrip": false,
      "rstrip": false,
      "normalized": false,
      "special": true
    },
    {
      "id": 3,
      "content": "[SEP]",
      "single_word": false,
      "lstrip": false,
      "rstrip": false,
      "normalized": false,
      "special": true
    },
    {
      "id": 4,
      "content": "[MASK]",
      "single_word": false,
      "lstrip": false,
      "rstrip": false,
      "normalized": false,
      "special": true
    },
    {
      "id": 5,
      "content": "[CTX_DAILY]",
      "single_word": false,
      "lstrip": false,
      "rstrip": false,
      "normalized": false,
      "special": true
    },
    {
      "id": 6,
      "content": "[CTX_EPIC]",
      "single_word": false,
      "lstrip": false,
      "rstrip": false,
      "normalized": false,
      "special": true
    },
    {
      "id": 7,
      "content": "[CTX_LIT]",
      "single_word": false,
      "lstrip": false,
      "rstrip": false,
      "normalized": false,
      "special": true
    },
    {
      "id": 8,
      "content": "[CTX_LEGAL]",
      "single_word": false,
      "lstrip": false,
      "rstrip": false,
      "normalized": false,
      "special": true
    },
    {
      "id": 9,
      "content": "[CTX_CHURCH]",
      "single_word": false,
      "lstrip": false,
      "rstrip": false,
      "normalized": false,
      "special": true
    },
    {
      "id": 30000,
      "content": "[CTX_TOROT]",
      "single_word": false,
      "lstrip": false,
      "rstrip": false,
      "normalized": false,
      "special": true
    },
    {
      "id": 30001,
      "content": "[CTX_BOOK]",
      "single_word": false,
      "lstrip": false,
      "rstrip": false,
      "normalized": false,
      "special": true
    }
  ],
  "normalizer": {
    "type": "BertNormalizer",
    "clean_text": true,
    "handle_chinese_chars": true,
    "strip_accents": false,
    "lowercase": true
  },
  "pre_tokenizer": {
    "type": "BertPreTokenizer"
  },
  "post_processor": {
    "type": "TemplateProcessing",
    "single": [
      {
        "SpecialToken": {
          "id": "[CLS]",
          "type_id": 0
        }
      },
      {
        "Sequence": {
          "id": "A",
          "type_id": 0
        }
      },
      {
        "SpecialToken": {
          "id": "[SEP]",
          "type_id": 0
        }
      }
    ],
    "pair": [
      {
        "SpecialToken": {
          "id": "[CLS]",
          "type_id": 0
        }
      },
      {
        "Sequence": {
          "id": "A",
          "type_id": 0
        }
      },
      {
        "SpecialToken": {
          "id": "[SEP]",
          "type_id": 0
        }
      },
      {
        "Sequence": {
          "id": "B",
          "type_id": 1
        }
      },
      {
        "SpecialToken": {
          "id": "[SEP]",
          "type_id": 1
        }
      }
    ],
    "special_tokens": {
      "[CLS]": {
        "id": "[CLS]",
        "ids": [
          2
        ],
        "tokens": [
          "[CLS]"
        ]
      },
      "[SEP]": {
        "id": "[SEP]",
        "ids": [
          3
        ],
        "tokens": [
          "[SEP]"
        ]
      }
    }
  },
  "decoder": {
    "type": "WordPiece",
    "prefix": "##",
    "cleanup": true
  },
  "model": {
    "type": "WordPiece",
    "unk_token": "[UNK]",
    "continuing_subword_prefix": "##",
    "max_input_chars_per_word": 100,
    "vocab": {
      "[PAD]": 0,
      "[UNK]": 1,
      "[CLS]": 2,
      "[SEP]": 3,
      "[MASK]": 4,
      "[CTX_DAILY]": 5,
      "[CTX_EPIC]": 6,
      "[CTX_LIT]": 7,
      "[CTX_LEGAL]": 8,
      "[CTX_CHURCH]": 9,
      "!": 10,
      "\"": 11,
      "'": 12,
      "(": 13,
      ")": 14,
      "+": 15,
      ",": 16,
      "-": 17,
      ".": 18,
      "0": 19,
      "1": 20,
      "2": 21,
      "3": 22,
      "4": 23,
      "5": 24,
      "6": 25,
      "7": 26,
      "8": 27,
      "9": 28,
      ":": 29,
      ";": 30,
      "<": 31,
      ">": 32,
      "?": 33,
      "A": 34,
      "C": 35,
      "D": 36,
      "E": 37,
      "G": 38,
      "H": 39,
      "I": 40,
      "J": 41,
      "L": 42,
      "N": 43,
      "P": 44,
      "R": 45,
      "S": 46,
      "T": 47,
      "U": 48,
      "V": 49,
      "W": 50,
      "X": 51,
      "Y": 52,
      "Z": 53,
      "[": 54,
      "]": 55,
      "_": 56,
      "`": 57,
      "b": 58,
      "d": 59,
      "f": 60,
      "g": 61,
      "h": 62,
      "i": 63,
      "l": 64,
      "m": 65,
      "n": 66,
      "r": 67,
      "s": 68,
      "t": 69,
      "u": 70,
      "v": 71,
      "w": 72,
      "z": 73,
      "{": 74,
      "|": 75,
      "}": 76,
      "~": 77,
      "¦": 78,
      "¨": 79,
      "«": 80,
      "¬": 81,
      "­": 82,
      "°": 83,
      "´": 84,
      "·": 85,
      "º": 86,
      "»": 87,
      "×": 88,
      "á": 89,
      "ë": 90,
      "ó": 91,
      "÷": 92,
      "ú": 93,
      "ý": 94,
      "ı": 95,
      "ł": 96,
      "ȣ": 97,
      "Ȥ": 98,
      "ȥ": 99,
      "ʹ": 100,
      "ʼ": 101,
      "˙": 102,
      "Α": 103,
      "Β": 104,
      "Γ": 105,
      "Δ": 106,
      "Ε": 107,
      "Ζ": 108,
      "Η": 109,
      "Θ": 110,
      "Ι": 111,
      "Κ": 112,
      "Λ": 113,
      "Μ": 114,
      "Ν": 115,
      "Ο": 116,
      "Π": 117,
      "Ρ": 118,
      "Σ": 119,
      "Τ": 120,
      "Υ": 121,
      "Φ": 122,
      "Χ": 123,
      "Ψ": 124,
      "α": 125,
      "β": 126,
      "γ": 127,
      "δ": 128,
      "ε": 129,
      "ζ": 130,
      "η": 131,
      "θ": 132,
      "ι": 133,
      "κ": 134,
      "λ": 135,
      "μ": 136,
      "ν": 137,
      "ξ": 138,
      "ο": 139,
      "π": 140,
      "ρ": 141,
      "ς": 142,
      "σ": 143,
      "τ": 144,
      "υ": 145,
      "φ": 146,
      "χ": 147,
      "ψ": 148,
      "ω": 149,
      "ϕ": 150,
      "Ё": 151,
      "Є": 152,
      "Ѕ": 153,
      "І": 154,
      "Ї": 155,
      "Ћ": 156,
      "Џ": 157,
      "А": 158,
      "Б": 159,
      "В": 160,
      "Г": 161,
      "Д": 162,
      "Е": 163,
      "Ж": 164,
      "З": 165,
      "И": 166,
      "Й": 167,
      "К": 168,
      "Л": 169,
      "М": 170,
      "Н": 171,
      "О": 172,
      "П": 173,
      "Р": 174,
      "С": 175,
      "Т": 176,
      "У": 177,
      "Ф": 178,
      "Х": 179,
      "Ц": 180,
      "Ч": 181,
      "Ш": 182,
      "Щ": 183,
      "Ъ": 184,
      "Ы": 185,
      "Ь": 186,
      "Э": 187,
      "Ю": 188,
      "Я": 189,
      "а": 190,
      "б": 191,
      "в": 192,
      "г": 193,
      "д": 194,
      "е": 195,
      "ж": 196,
      "з": 197,
      "и": 198,
      "й": 199,
      "к": 200,
      "л": 201,
      "м": 202,
      "н": 203,
      "о": 204,
      "п": 205,
      "р": 206,
      "с": 207,
      "т": 208,
      "у": 209,
      "ф": 210,
      "х": 211,
      "ц": 212,
      "ч": 213,
      "ш": 214,
      "щ": 215,
      "ъ": 216,
      "ы": 217,
      "ь": 218,
      "э": 219,
      "ю": 220,
      "я": 221,
      "ё": 222,
      "ђ": 223,
      "є": 224,
      "ѕ": 225,
      "і": 226,
      "ї": 227,
      "ј": 228,
      "ћ": 229,
      "џ": 230,
      "Ѡ": 231,
      "ѡ": 232,
      "Ѣ": 233,
      "ѣ": 234,
      "Ѥ": 235,
      "ѥ": 236,
      "Ѧ": 237,
      "ѧ": 238,
      "Ѩ": 239,
      "ѩ": 240,
      "Ѫ": 241,
      "ѫ": 242,
      "Ѭ": 243,
      "ѭ": 244,
      "Ѯ": 245,
      "ѯ": 246,
      "Ѱ": 247,
      "ѱ": 248,
      "Ѳ": 249,
      "ѳ": 250,
      "Ѵ": 251,
      "ѵ": 252,
      "ѷ": 253,
      "Ѹ": 254,
      "ѹ": 255,
      "Ѻ": 256,
      "ѻ": 257,
      "Ѽ": 258,
      "ѽ": 259,
      "Ѿ": 260,
      "ѿ": 261,
      "Ҁ": 262,
      "ҁ": 263,
      "҂": 264,
      "҃": 265,
      "҄": 266,
      "҅": 267,
      "҆": 268,
      "҇": 269,
      "Ҍ": 270,
      "ҍ": 271,
      "ґ": 272,
      "ӏ": 273,
      "ӑ": 274,
      "ӱ": 275,
      "჻": 276,
      "ᲂ": 277,
      "ᴤ": 278,
      "ᵕ": 279,
      "᾿": 280,
      "‐": 281,
      "‑": 282,
      "–": 283,
      "—": 284,
      "‘": 285,
      "’": 286,
      "“": 287,
      "”": 288,
      "„": 289,
      "†": 290,
      "…": 291,
      "″": 292,
      "※": 293,
      "‿": 294,
      "⁓": 295,
      "⁖": 296,
      "⁘": 297,
      "⁞": 298,
      "№": 299,
      "∙": 300,
      "⋮": 301,
      "☺": 302,
      "⟦": 303,
      "⟧": 304,
      "ⰴ": 305,
      "ⰹ": 306,
      "ⱉ": 307,
      "ⱔ": 308,
      "ⱕ": 309,
      "ⱖ": 310,
      "ⱚ": 311,
      "ⷩ": 312,
      "ⷪ": 313,
      "ⷮ": 314,
      "⸭": 315,
      "ⸯ": 316,
      "⸱": 317,
      "Ꙁ": 318,
      "ꙁ": 319,
      "Ꙃ": 320,
      "ꙃ": 321,
      "Ꙅ": 322,
      "ꙅ": 323,
      "Ꙇ": 324,
      "ꙇ": 325,
      "ꙉ": 326,
      "Ꙋ": 327,
      "ꙋ": 328,
      "Ꙍ": 329,
      "ꙍ": 330,
      "Ꙑ": 331,
      "ꙑ": 332,
      "ꙕ": 333,
      "Ꙗ": 334,
      "ꙗ": 335,
      "ꙙ": 336,
      "ꙛ": 337,
      "Ꙩ": 338,
      "ꙩ": 339,
      "Ꙫ": 340,
      "ꙫ": 341,
      "ꙭ": 342,
      "꙯": 343,
      "꙳": 344,
      "꙽": 345,
      "ꙿ": 346,
      "##о": 347,
      "##з": 348,
      "##н": 349,
      "##е": 350,
      "##а": 351,
      "##в": 352,
      "##и": 353,
      "##д": 354,
      "##ѣ": 355,
      "##ы": 356,
      "##щ": 357,
      "##ꙁ": 358,
      "##ъ": 359,
      "##҆": 360,
      "##с": 361,
      "##л": 362,
      "##ш": 363,
      "##ь": 364,
      "##ѧ": 365,
      "##я": 366,
      "##ꙋ": 367,
      "##р": 368,
      "##і": 369,
      "##ꙿ": 370,
      "##к": 371,
      "##м": 372,
      "##ч": 373,
      "##ꙙ": 374,
      "##т": 375,
      "##ю": 376,
      "##҄": 377,
      "##ц": 378,
      "##ꙗ": 379,
      "##у": 380,
      "##б": 381,
      "##г": 382,
      "##҇": 383,
      "##х": 384,
      "##ж": 385,
      "##п": 386,
      "##ѡ": 387,
      "##ѹ": 388,
      "##ꙑ": 389,
      "##ѳ": 390,
      "##ⸯ": 391,
      "##ʼ": 392,
      "##є": 393,
      "##ⱕ": 394,
      "##ф": 395,
      "##ѫ": 396,
      "##­": 397,
      "##ї": 398,
      "##҅": 399,
      "##҃": 400,
      "##ѯ": 401,
      "##ι": 402,
      "##κ": 403,
      "##ω": 404,
      "##ν": 405,
      "##π": 406,
      "##ε": 407,
      "##φ": 408,
      "##ο": 409,
      "##υ": 410,
      "##ρ": 411,
      "##α": 412,
      "##τ": 413,
      "##7": 414,
      "##4": 415,
      "##ѥ": 416,
      "##ѵ": 417,
      "##꙽": 418,
      "##i": 419,
      "##й": 420,
      "##ѩ": 421,
      "##ѿ": 422,
      "##ѭ": 423,
      "##ѻ": 424,
      "##σ": 425,
      "##θ": 426,
      "##1": 427,
      "##꙯": 428,
      "##β": 429,
      "##λ": 430,
      "##ψ": 431,
      "##ς": 432,
      "##÷": 433,
      "##ё": 434,
      "##ѕ": 435,
      "##ꙃ": 436,
      "##ȥ": 437,
      "##μ": 438,
      "##ѱ": 439,
      "##ⷩ": 440,
      "##ꙇ": 441,
      "##ꙅ": 442,
      "##᾿": 443,
      "##ћ": 444,
      "##џ": 445,
      "##m": 446,
      "##s": 447,
      "##0": 448,
      "##6": 449,
      "##r": 450,
      "##u": 451,
      "##ζ": 452,
      "##ҍ": 453,
      "##γ": 454,
      "##δ": 455,
      "##η": 456,
      "##ꙉ": 457,
      "##t": 458,
      "##5": 459,
      "##ꙍ": 460,
      "##¬": 461,
      "##h": 462,
      "##ӱ": 463,
      "##ӏ": 464,
      "##l": 465,
      "##ґ": 466,
      "##3": 467,
      "##ⱚ": 468,
      "##á": 469,
      "##ꙩ": 470,
      "##2": 471,
      "##ξ": 472,
      "##Ѣ": 473,
      "##ҁ": 474,
      "##χ": 475,
      "##⋮": 476,
      "##ȣ": 477,
      "##ʹ": 478,
      "##э": 479,
      "##ⰹ": 480,
      "##ı": 481,
      "##8": 482,
      "##9": 483,
      "##҂": 484,
      "##d": 485,
      "##g": 486,
      "##ј": 487,
      "##I": 488,
      "##ⷪ": 489,
      "##∙": 490,
      "##ђ": 491,
      "##¦": 492,
      "##°": 493,
      "##ó": 494,
      "##ⱖ": 495,
      "##´": 496,
      "##С": 497,
      "##ë": 498,
      "##n": 499,
      "##T": 500,
      "##X": 501,
      "##º": 502,
      "##b": 503,
      "##ý": 504,
      "##v": 505,
      "##Д": 506,
      "##E": 507,
      "##G": 508,
      "##A": 509,
      "##L": 510,
      "##ⰴ": 511,
      "##О": 512,
      "##ѷ": 513,
      "##f": 514,
      "##В": 515,
      "##Т": 516,
      "##И": 517,
      "##Y": 518,
      "##ϕ": 519,
      "##N": 520,
      "##К": 521,
      "##H": 522,
      "##U": 523,
      "##R": 524,
      "##C": 525,
      "##Л": 526,
      "##А": 527,
      "##Г": 528,
      "##Р": 529,
      "##Н": 530,
      "##˙": 531,
      "##ⷮ": 532,
      "##ꙛ": 533,
      "##М": 534,
      "##z": 535,
      "##Е": 536,
      "##ⱉ": 537,
      "##ꙫ": 538,
      "##¨": 539,
      "##ⱔ": 540,
      "##ᴤ": 541,
      "##P": 542,
      "##ӑ": 543,
      "##ł": 544,
      "##ѽ": 545,
      "##w": 546,
      "##ᵕ": 547,
      "##ꙕ": 548,
      "##V": 549,
      "CT": 550,
      "CTX": 551,
      "##ст": 552,
      "по": 553,
      "##го": 554,
      "LI": 555,
      "LIT": 556,
      "##во": 557,
      "##ко": 558,
      "пр": 559,
      "на": 560,
      "##ен": 561,
      "##ра": 562,
      "##ла": 563,
      "##ли": 564,
      "##ло": 565,
      "CH": 566,
      "##UR": 567,
      "##CH": 568,
      "CHUR": 569,
      "CHURCH": 570,
      "##мъ": 571,
      "##ти": 572,
      "##но": 573,
      "не": 574,
      "##ва": 575,
      "##ро": 576,
      "##ни": 577,
      "##ет": 578,
      "въ": 579,
      "##то": 580,
      "##на": 581,
      "и҆": 582,
      "##да": 583,
      "##же": 584,
      "##ер": 585,
      "да": 586,
      "##ка": 587,
      "##ем": 588,
      "##ди": 589,
      "##ри": 590,
      "то": 591,
      "##ть": 592,
      "же": 593,
      "во": 594,
      "##хъ": 595,
      "EP": 596,
      "##IC": 597,
      "EPIC": 598,
      "##ша": 599,
      "##ви": 600,
      "ко": 601,
      "##ны": 602,
      "##та": 603,
      "##ше": 604,
      "бо": 605,
      "##ре": 606,
      "##ми": 607,
      "##де": 608,
      "##до": 609,
      "##вѣ": 610,
      "до": 611,
      "при": 612,
      "##тъ": 613,
      "вс": 614,
      "##те": 615,
      "##ки": 616,
      "##мо": 617,
      "мо": 618,
      "##въ": 619,
      "се": 620,
      "ра": 621,
      "##ле": 622,
      "##ль": 623,
      "сво": 624,
      "##ве": 625,
      "##по": 626,
      "##не": 627,
      "##рѣ": 628,
      "го": 629,
      "за": 630,
      "съ": 631,
      "##сть": 632,
      "##лъ": 633,
      "со": 634,
      "ни": 635,
      "##ма": 636,
      "##ще": 637,
      "##ста": 638,
      "##ши": 639,
      "##бо": 640,
      "сѧ": 641,
      "##сти": 642,
      "ве": 643,
      "про": 644,
      "ст": 645,
      "##лѣ": 646,
      "##си": 647,
      "ка": 648,
      "##са": 649,
      "##дѣ": 650,
      "оу": 651,
      "##нъ": 652,
      "бы": 653,
      "DA": 654,
      "##IL": 655,
      "DAIL": 656,
      "DAILY": 657,
      "##рь": 658,
      "##чи": 659,
      "##іе": 660,
      "##нѣ": 661,
      "##нь": 662,
      "##мь": 663,
      "##га": 664,
      "##че": 665,
      "є҆": 666,
      "та": 667,
      "##іи": 668,
      "##къ": 669,
      "##жи": 670,
      "##сѧ": 671,
      "##хо": 672,
      "UN": 673,
      "ТЕ": 674,
      "##МР": 675,
      "UNК": 676,
      "ТЕМР": 677,
      "##ръ": 678,
      "си": 679,
      "ре": 680,
      "##ск": 681,
      "##сто": 682,
      "##му": 683,
      "па": 684,
      "##сла": 685,
      "##вы": 686,
      "тво": 687,
      "##жа": 688,
      "лю": 689,
      "##ча": 690,
      "##би": 691,
      "LE": 692,
      "##GA": 693,
      "LEGA": 694,
      "LEGAL": 695,
      "но": 696,
      "##ца": 697,
      "пре": 698,
      "##ени": 699,
      "##лю": 700,
      "##ся": 701,
      "ва": 702,
      "##дъ": 703,
      "ми": 704,
      "бе": 705,
      "##пи": 706,
      "##ры": 707,
      "##ско": 708,
      "от": 709,
      "##еть": 710,
      "##се": 711,
      "те": 712,
      "##ща": 713,
      "вѣ": 714,
      "ма": 715,
      "##бѣ": 716,
      "##мѣ": 717,
      "##вь": 718,
      "са": 719,
      "##ну": 720,
      "хо": 721,
      "##лѧ": 722,
      "##етъ": 723,
      "ли": 724,
      "##дь": 725,
      "къ": 726,
      "ро": 727,
      "##па": 728,
      "из": 729,
      "##ха": 730,
      "##ру": 731,
      "##щи": 732,
      "##ере": 733,
      "его": 734,
      "##гѡ": 735,
      "##за": 736,
      "ста": 737,
      "ви": 738,
      "##іа": 739,
      "##бе": 740,
      "##лы": 741,
      "##съ": 742,
      "бра": 743,
      "или": 744,
      "##ень": 745,
      "вели": 746,
      "##со": 747,
      "гра": 748,
      "##ня": 749,
      "##уд": 750,
      "жи": 751,
      "де": 752,
      "мно": 753,
      "##ку": 754,
      "##ба": 755,
      "вь": 756,
      "Да": 757,
      "##нѧ": 758,
      "##рѧ": 759,
      "По": 760,
      "че": 761,
      "##ци": 762,
      "##ме": 763,
      "##мꙋ": 764,
      "а҆": 765,
      "зем": 766,
      "##тво": 767,
      "##ты": 768,
      "все": 769,
      "бѣ": 770,
      "вы": 771,
      "ꙗко": 772,
      "прѣ": 773,
      "ꙗ҆": 774,
      "##це": 775,
      "пос": 776,
      "##ство": 777,
      "##бра": 778,
      "дѣ": 779,
      "##спо": 780,
      "##ски": 781,
      "пи": 782,
      "лѣ": 783,
      "##лу": 784,
      "##ска": 785,
      "##лаго": 786,
      "##бы": 787,
      "##оу": 788,
      "ѡ҆": 789,
      "##ена": 790,
      "##сь": 791,
      "##ды": 792,
      "свои": 793,
      "свое": 794,
      "сто": 795,
      "ца": 796,
      "##у҆": 797,
      "сы": 798,
      "что": 799,
      "##кы": 800,
      "##л҃": 801,
      "ты": 802,
      "ᲂу҆": 803,
      "##ву": 804,
      "##сѣ": 805,
      "##іѧ": 806,
      "##гда": 807,
      "И҆": 808,
      "##ги": 809,
      "ти": 810,
      "##кѡ": 811,
      "тако": 812,
      "сло": 813,
      "воз": 814,
      "і҆": 815,
      "всѧ": 816,
      "пра": 817,
      "##лен": 818,
      "##ду": 819,
      "##н҃": 820,
      "##вер": 821,
      "##мѹ": 822,
      "раз": 823,
      "##сп": 824,
      "##шь": 825,
      "и҅": 826,
      "ру": 827,
      "##чь": 828,
      "##су": 829,
      "##жь": 830,
      "##мы": 831,
      "доб": 832,
      "цр": 833,
      "##ля": 834,
      "##ене": 835,
      "ме": 836,
      "мѣ": 837,
      "##гъ": 838,
      "тѣ": 839,
      "##стъ": 840,
      "Не": 841,
      "##тѣ": 842,
      "##цѣ": 843,
      "##ря": 844,
      "ту": 845,
      "нѣ": 846,
      "##сте": 847,
      "чело": 848,
      "поло": 849,
      "того": 850,
      "гд": 851,
      "##енъ": 852,
      "буд": 853,
      "##дѧ": 854,
      "##рꙋ": 855,
      "##цы": 856,
      "стра": 857,
      "##ію": 858,
      "##г҃": 859,
      "##емь": 860,
      "гд҇": 861,
      "##зъ": 862,
      "##зи": 863,
      "##сты": 864,
      "##зы": 865,
      "##нꙋ": 866,
      "ст҃": 867,
      "##дꙋ": 868,
      "св": 869,
      "##сл": 870,
      "есть": 871,
      "им": 872,
      "##ено": 873,
      "всѣ": 874,
      "##ніе": 875,
      "##моу": 876,
      "ѻ҆": 877,
      "сѣ": 878,
      "кня": 879,
      "##ць": 880,
      "##вати": 881,
      "##зь": 882,
      "под": 883,
      "сла": 884,
      "##ныи": 885,
      "рече": 886,
      "су": 887,
      "##еніе": 888,
      "яко": 889,
      "их": 890,
      "##лꙋ": 891,
      "##пра": 892,
      "##твори": 893,
      "##ное": 894,
      "чи": 895,
      "##ете": 896,
      "##стави": 897,
      "На": 898,
      "##суда": 899,
      "##бь": 900,
      "ско": 901,
      "сь": 902,
      "кто": 903,
      "##емъ": 904,
      "пе": 905,
      "бг҃": 906,
      "госуда": 907,
      "пок": 908,
      "##мер": 909,
      "без": 910,
      "є҆гѡ": 911,
      "бж": 912,
      "##вꙋ": 913,
      "кото": 914,
      "##гу": 915,
      "аще": 916,
      "би": 917,
      "То": 918,
      "ꙁа": 919,
      "дво": 920,
      "гла": 921,
      "##рю": 922,
      "Въ": 923,
      "ча": 924,
      "глаго": 925,
      "##рем": 926,
      "отъ": 927,
      "##ту": 928,
      "он": 929,
      "##горо": 930,
      "##скы": 931,
      "##ню": 932,
      "госпо": 933,
      "ꙗ҆кѡ": 934,
      "##ных": 935,
      "##став": 936,
      "ку": 937,
      "##нѡ": 938,
      "##наго": 939,
      "ради": 940,
      "##нѹ": 941,
      "##вори": 942,
      "об": 943,
      "горо": 944,
      "##ные": 945,
      "въз": 946,
      "гри": 947,
      "грѣ": 948,
      "##вра": 949,
      "свѣ": 950,
      "рѣ": 951,
      "посла": 952,
      "##рѹ": 953,
      "##ꙑи": 954,
      "##ены": 955,
      "бл": 956,
      "ино": 957,
      "воло": 958,
      "бꙋ": 959,
      "ле": 960,
      "ло": 961,
      "##гы": 962,
      "##ства": 963,
      "како": 964,
      "лѣт": 965,
      "##ꙁа": 966,
      "бꙑ": 967,
      "вз": 968,
      "има": 969,
      "видѣ": 970,
      "пол": 971,
      "##вич": 972,
      "земли": 973,
      "##сло": 974,
      "##кь": 975,
      "мѧ": 976,
      "пои": 977,
      "ис": 978,
      "пере": 979,
      "Бо": 980,
      "##слс": 981,
      "о҅": 982,
      "мои": 983,
      "люде": 984,
      "твои": 985,
      "пове": 986,
      "тъ": 987,
      "сꙋ": 988,
      "пла": 989,
      "##детъ": 990,
      "пер": 991,
      "##слав": 992,
      "Ка": 993,
      "б҃": 994,
      "##тѧ": 995,
      "##доша": 996,
      "въꙁ": 997,
      "##коже": 998,
      "##мѧ": 999,
      "благо": 1000,
      "твое": 1001,
      "мꙋ": 1002,
      "иже": 1003,
      "кра": 1004,
      "сѹ": 1005,
      "вла": 1006,
      "кре": 1007,
      "много": 1008,
      "как": 1009,
      "ихъ": 1010,
      "##сы": 1011,
      "еди": 1012,
      "##зо": 1013,
      "дру": 1014,
      "мы": 1015,
      "будет": 1016,
      "ба": 1017,
      "##тро": 1018,
      "##ке": 1019,
      "и҆хъ": 1020,
      "##ют": 1021,
      "##дно": 1022,
      "писа": 1023,
      "##кꙋ": 1024,
      "##стѣ": 1025,
      "ему": 1026,
      "##каза": 1027,
      "добро": 1028,
      "ес": 1029,
      "##дни": 1030,
      "##тв": 1031,
      "г҃": 1032,
      "##хь": 1033,
      "##щь": 1034,
      "##лѹ": 1035,
      "велико": 1036,
      "##дѹ": 1037,
      "##ств": 1038,
      "него": 1039,
      "гл҃": 1040,
      "##сно": 1041,
      "кро": 1042,
      "ла": 1043,
      "раꙁ": 1044,
      "тебѣ": 1045,
      "Та": 1046,
      "##юще": 1047,
      "##цъ": 1048,
      "Го": 1049,
      "пред": 1050,
      "сего": 1051,
      "##кѹ": 1052,
      "люд": 1053,
      "три": 1054,
      "##хꙋ": 1055,
      "##ніи": 1056,
      "##вше": 1057,
      "кнѧ": 1058,
      "ѡб": 1059,
      "##лова": 1060,
      "вра": 1061,
      "дь": 1062,
      "еже": 1063,
      "тѧ": 1064,
      "##роу": 1065,
      "##ков": 1066,
      "##нѫ": 1067,
      "имъ": 1068,
      "мое": 1069,
      "##хи": 1070,
      "еси": 1071,
      "##про": 1072,
      "Во": 1073,
      "##и҃": 1074,
      "люди": 1075,
      "##бъ": 1076,
      "##писа": 1077,
      "намъ": 1078,
      "слово": 1079,
      "брат": 1080,
      "мнѣ": 1081,
      "наш": 1082,
      "##ні": 1083,
      "ѡт": 1084,
      "бол": 1085,
      "и҆з": 1086,
      "##ску": 1087,
      "Аще": 1088,
      "Се": 1089,
      "му": 1090,
      "##аго": 1091,
      "##вѣда": 1092,
      "тут": 1093,
      "##мен": 1094,
      "пог": 1095,
      "свя": 1096,
      "га": 1097,
      "##ему": 1098,
      "наше": 1099,
      "пу": 1100,
      "е҆": 1101,
      "##с҃": 1102,
      "##лыша": 1103,
      "землю": 1104,
      "##ного": 1105,
      "##пе": 1106,
      "ны": 1107,
      "і҆и҃": 1108,
      "врем": 1109,
      "ѥго": 1110,
      "##лко": 1111,
      "##ноу": 1112,
      "своего": 1113,
      "чю": 1114,
      "##ц҃": 1115,
      "##цо": 1116,
      "княз": 1117,
      "До": 1118,
      "бл҃": 1119,
      "которы": 1120,
      "вси": 1121,
      "##каз": 1122,
      "день": 1123,
      "##ють": 1124,
      "##нꙑ": 1125,
      "грамо": 1126,
      "бысть": 1127,
      "ду": 1128,
      "Но": 1129,
      "сп": 1130,
      "мь": 1131,
      "##емꙋ": 1132,
      "бь": 1133,
      "повелѣ": 1134,
      "##ние": 1135,
      "##ныхъ": 1136,
      "##жен": 1137,
      "##аше": 1138,
      "нъ": 1139,
      "вер": 1140,
      "##ан": 1141,
      "##дра": 1142,
      "пріи": 1143,
      "вел": 1144,
      "ди": 1145,
      "##ху": 1146,
      "дн҃": 1147,
      "гд҇ь": 1148,
      "бога": 1149,
      "наши": 1150,
      "нача": 1151,
      "Ко": 1152,
      "##гра": 1153,
      "себѣ": 1154,
      "##хомъ": 1155,
      "##ут": 1156,
      "##комъ": 1157,
      "два": 1158,
      "сѫ": 1159,
      "##ходи": 1160,
      "##тель": 1161,
      "они": 1162,
      "##ложи": 1163,
      "##кꙑ": 1164,
      "помо": 1165,
      "свою": 1166,
      "нас": 1167,
      "##тчи": 1168,
      "боя": 1169,
      "них": 1170,
      "сотвори": 1171,
      "вои": 1172,
      "##нии": 1173,
      "мило": 1174,
      "ше": 1175,
      "##шка": 1176,
      "ть": 1177,
      "##бою": 1178,
      "ѥ҅": 1179,
      "нь": 1180,
      "мѹ": 1181,
      "##ето": 1182,
      "##ение": 1183,
      "проти": 1184,
      "##пѣ": 1185,
      "##жда": 1186,
      "##тел": 1187,
      "##ющ": 1188,
      "зна": 1189,
      "живо": 1190,
      "ива": 1191,
      "рꙋ": 1192,
      "##славъ": 1193,
      "##рт": 1194,
      "##жде": 1195,
      "##доу": 1196,
      "слу": 1197,
      "себе": 1198,
      "##вѧ": 1199,
      "##оло": 1200,
      "ри": 1201,
      "##реб": 1202,
      "##сту": 1203,
      "бж҃": 1204,
      "##щен": 1205,
      "ан": 1206,
      "##пол": 1207,
      "##пъ": 1208,
      "оубо": 1209,
      "покло": 1210,
      "##стро": 1211,
      "##ным": 1212,
      "##ите": 1213,
      "дв": 1214,
      "быти": 1215,
      "тр": 1216,
      "моли": 1217,
      "бу": 1218,
      "сер": 1219,
      "слове": 1220,
      "чер": 1221,
      "вся": 1222,
      "##пу": 1223,
      "##жд": 1224,
      "нико": 1225,
      "тем": 1226,
      "##нов": 1227,
      "хра": 1228,
      "ск": 1229,
      "##ком": 1230,
      "##вш": 1231,
      "человѣ": 1232,
      "##шли": 1233,
      "ꙗкоже": 1234,
      "дер": 1235,
      "володи": 1236,
      "пот": 1237,
      "сем": 1238,
      "є҆го": 1239,
      "твори": 1240,
      "бѹ": 1241,
      "мл": 1242,
      "коро": 1243,
      "нб": 1244,
      "тех": 1245,
      "тои": 1246,
      "кого": 1247,
      "##ев": 1248,
      "царь": 1249,
      "сꙙ": 1250,
      "ся": 1251,
      "##ніѧ": 1252,
      "имѣ": 1253,
      "При": 1254,
      "само": 1255,
      "##насты": 1256,
      "мен": 1257,
      "##три": 1258,
      "мъ": 1259,
      "##а҆": 1260,
      "ар": 1261,
      "##ште": 1262,
      "##ною": 1263,
      "##тсѧ": 1264,
      "ки": 1265,
      "##лѡ": 1266,
      "##нити": 1267,
      "##ета": 1268,
      "пло": 1269,
      "реч": 1270,
      "вамъ": 1271,
      "дꙋ": 1272,
      "роди": 1273,
      "##ется": 1274,
      "##тр": 1275,
      "##лем": 1276,
      "мѣсто": 1277,
      "дѣла": 1278,
      "є҆мꙋ": 1279,
      "##ника": 1280,
      "##вали": 1281,
      "ꙁем": 1282,
      "##бя": 1283,
      "##деть": 1284,
      "любо": 1285,
      "##стья": 1286,
      "пꙋ": 1287,
      "##гѹ": 1288,
      "мене": 1289,
      "пѣ": 1290,
      "хри": 1291,
      "было": 1292,
      "иꙁ": 1293,
      "##никъ": 1294,
      "своѥ": 1295,
      "##доб": 1296,
      "грив": 1297,
      "##твор": 1298,
      "##мѡ": 1299,
      "Ни": 1300,
      "соу": 1301,
      "бла": 1302,
      "##наѧ": 1303,
      "##ят": 1304,
      "сн҃": 1305,
      "##тер": 1306,
      "##ном": 1307,
      "За": 1308,
      "##лико": 1309,
      "кни": 1310,
      "##ꙁъ": 1311,
      "##номъ": 1312,
      "##ніа": 1313,
      "є҆сть": 1314,
      "поса": 1315,
      "кон": 1316,
      "пока": 1317,
      "тому": 1318,
      "исп": 1319,
      "слыша": 1320,
      "##зе": 1321,
      "цр҃": 1322,
      "##ной": 1323,
      "кр": 1324,
      "тебе": 1325,
      "##вед": 1326,
      "сл": 1327,
      "зла": 1328,
      "цар": 1329,
      "##яти": 1330,
      "##гꙋ": 1331,
      "том": 1332,
      "моло": 1333,
      "жа": 1334,
      "##ге": 1335,
      "жен": 1336,
      "##зѣ": 1337,
      "чет": 1338,
      "ст҃о": 1339,
      "##стра": 1340,
      "уч": 1341,
      "гро": 1342,
      "пакы": 1343,
      "иде": 1344,
      "кор": 1345,
      "насъ": 1346,
      "##шѫ": 1347,
      "ска": 1348,
      "пото": 1349,
      "##цѧ": 1350,
      "самъ": 1351,
      "всѧко": 1352,
      "##дати": 1353,
      "д҃": 1354,
      "цѣ": 1355,
      "##кла": 1356,
      "##ское": 1357,
      "##скаго": 1358,
      "бг҃ъ": 1359,
      "в҃": 1360,
      "црк": 1361,
      "##бѡ": 1362,
      "##дити": 1363,
      "##ѕ҃": 1364,
      "##неже": 1365,
      "##нова": 1366,
      "вотчи": 1367,
      "государе": 1368,
      "##дер": 1369,
      "ха": 1370,
      "Ва": 1371,
      "##коу": 1372,
      "ѹбо": 1373,
      "##сли": 1374,
      "челове": 1375,
      "##вал": 1376,
      "##хѫ": 1377,
      "гл": 1378,
      "сице": 1379,
      "Са": 1380,
      "велики": 1381,
      "##грѣ": 1382,
      "коу": 1383,
      "гр": 1384,
      "Ра": 1385,
      "##тва": 1386,
      "ѡ҆б": 1387,
      "руб": 1388,
      "##бры": 1389,
      "##ров": 1390,
      "васи": 1391,
      "град": 1392,
      "##гна": 1393,
      "҂ѕ҃": 1394,
      "##наа": 1395,
      "гс": 1396,
      "побѣ": 1397,
      "##ютъ": 1398,
      "##лоу": 1399,
      "господи": 1400,
      "##сꙋ": 1401,
      "##вити": 1402,
      "##рова": 1403,
      "##нымъ": 1404,
      "прише": 1405,
      "##шъ": 1406,
      "##вѣща": 1407,
      "##фа": 1408,
      "бл҃го": 1409,
      "мнѡ": 1410,
      "а҆ще": 1411,
      "бѧ": 1412,
      "князь": 1413,
      "тогда": 1414,
      "##воло": 1415,
      "##рѡ": 1416,
      "##вать": 1417,
      "##рски": 1418,
      "Ꙗко": 1419,
      "##выи": 1420,
      "и҆же": 1421,
      "смо": 1422,
      "##дет": 1423,
      "##ющи": 1424,
      "това": 1425,
      "##зна": 1426,
      "бꙋдетъ": 1427,
      "##вя": 1428,
      "##лꙗ": 1429,
      "##пь": 1430,
      "нов": 1431,
      "##кра": 1432,
      "##ную": 1433,
      "##ными": 1434,
      "хотѧ": 1435,
      "##хѹ": 1436,
      "мало": 1437,
      "бес": 1438,
      "лу": 1439,
      "нимъ": 1440,
      "##десѧ": 1441,
      "##ского": 1442,
      "вое": 1443,
      "##ѧть": 1444,
      "прода": 1445,
      "дрꙋ": 1446,
      "##цу": 1447,
      "є҆си": 1448,
      "пет": 1449,
      "##шен": 1450,
      "##вет": 1451,
      "сътвори": 1452,
      "зако": 1453,
      "##дѫ": 1454,
      "##ныя": 1455,
      "##имъ": 1456,
      "неи": 1457,
      "##що": 1458,
      "##гла": 1459,
      "Нъ": 1460,
      "лѣт҃": 1461,
      "запо": 1462,
      "с҃": 1463,
      "Ми": 1464,
      "цер": 1465,
      "володимер": 1466,
      "смер": 1467,
      "##вое": 1468,
      "крѣ": 1469,
      "##жъ": 1470,
      "хр": 1471,
      "##вича": 1472,
      "нихъ": 1473,
      "##нои": 1474,
      "миха": 1475,
      "прав": 1476,
      "##ез": 1477,
      "какъ": 1478,
      "сте": 1479,
      "роз": 1480,
      "##еха": 1481,
      "постави": 1482,
      "кам": 1483,
      "ѳе": 1484,
      "##нꙗ": 1485,
      "исти": 1486,
      "велика": 1487,
      "которые": 1488,
      "##бу": 1489,
      "##лади": 1490,
      "Мо": 1491,
      "людей": 1492,
      "рѹ": 1493,
      "мѫ": 1494,
      "##дите": 1495,
      "##лени": 1496,
      "##ныѧ": 1497,
      "старо": 1498,
      "##иде": 1499,
      "##нꙿ": 1500,
      "жена": 1501,
      "вꙑ": 1502,
      "болга": 1503,
      "##щꙋ": 1504,
      "##лни": 1505,
      "##врати": 1506,
      "ведь": 1507,
      "Съ": 1508,
      "##чен": 1509,
      "брата": 1510,
      "##ема": 1511,
      "##ная": 1512,
      "##връ": 1513,
      "бъ": 1514,
      "всѣхъ": 1515,
      "Ма": 1516,
      "А҆": 1517,
      "##тꙋ": 1518,
      "вь҆": 1519,
      "гор": 1520,
      "нꙑ": 1521,
      "тре": 1522,
      "##цю": 1523,
      "##шо": 1524,
      "поме": 1525,
      "радо": 1526,
      "паче": 1527,
      "поко": 1528,
      "ср": 1529,
      "##їе": 1530,
      "Па": 1531,
      "спа": 1532,
      "##им": 1533,
      "своихъ": 1534,
      "##тра": 1535,
      "##емо": 1536,
      "##прав": 1537,
      "##схо": 1538,
      "васъ": 1539,
      "убо": 1540,
      "##ві": 1541,
      "##лся": 1542,
      "послѣ": 1543,
      "въсѣ": 1544,
      "##при": 1545,
      "##и҅": 1546,
      "Добры": 1547,
      "##юща": 1548,
      "##лек": 1549,
      "##ерь": 1550,
      "##сꙗ": 1551,
      "##шѧ": 1552,
      "добры": 1553,
      "нем": 1554,
      "положи": 1555,
      "бѫ": 1556,
      "см": 1557,
      "сеи": 1558,
      "##вши": 1559,
      "написа": 1560,
      "приве": 1561,
      "хлѣ": 1562,
      "##стан": 1563,
      "##гь": 1564,
      "над": 1565,
      "бг҃а": 1566,
      "##рі": 1567,
      "творѧ": 1568,
      "##скои": 1569,
      "града": 1570,
      "створи": 1571,
      "##дръ": 1572,
      "печа": 1573,
      "Про": 1574,
      "є҆же": 1575,
      "ши": 1576,
      "а҅": 1577,
      "сты": 1578,
      "що": 1579,
      "дъ": 1580,
      "новгоро": 1581,
      "бли": 1582,
      "пода": 1583,
      "тꙑ": 1584,
      "прі": 1585,
      "беꙁ": 1586,
      "взѧ": 1587,
      "##сѹ": 1588,
      "##кви": 1589,
      "##еши": 1590,
      "##шта": 1591,
      "##стои": 1592,
      "##вно": 1593,
      "сторо": 1594,
      "князя": 1595,
      "##шти": 1596,
      "говори": 1597,
      "##вых": 1598,
      "##лич": 1599,
      "##лев": 1600,
      "Влади": 1601,
      "##цꙋ": 1602,
      "##ковъ": 1603,
      "##зда": 1604,
      "##стꙋ": 1605,
      "свѧ": 1606,
      "гсд": 1607,
      "##кѣ": 1608,
      "прп": 1609,
      "##тоже": 1610,
      "Ты": 1611,
      "держа": 1612,
      "##хом": 1613,
      "своимъ": 1614,
      "тот": 1615,
      "Он": 1616,
      "доу": 1617,
      "##слов": 1618,
      "ры": 1619,
      "непо": 1620,
      "меня": 1621,
      "Си": 1622,
      "быва": 1623,
      "кꙋ": 1624,
      "##нове": 1625,
      "##ких": 1626,
      "которо": 1627,
      "є҆ди": 1628,
      "##нни": 1629,
      "а҆зъ": 1630,
      "##тца": 1631,
      "ц҃": 1632,
      "##кою": 1633,
      "гнѣ": 1634,
      "ꙗ҆коже": 1635,
      "##дца": 1636,
      "##ж҃": 1637,
      "еще": 1638,
      "##жени": 1639,
      "наро": 1640,
      "кла": 1641,
      "глагола": 1642,
      "дни": 1643,
      "тор": 1644,
      "дре": 1645,
      "тꙋ": 1646,
      "ѡбра": 1647,
      "дружи": 1648,
      "##тье": 1649,
      "нам": 1650,
      "и҆мъ": 1651,
      "##ѥ҅": 1652,
      "##дро": 1653,
      "##мир": 1654,
      "сам": 1655,
      "##дрѣ": 1656,
      "##зни": 1657,
      "##щю": 1658,
      "##вѹ": 1659,
      "##ломъ": 1660,
      "подо": 1661,
      "добра": 1662,
      "дне": 1663,
      "обра": 1664,
      "іѡ": 1665,
      "##шю": 1666,
      "монасты": 1667,
      "лѣто": 1668,
      "крестья": 1669,
      "чл": 1670,
      "нашего": 1671,
      "о҅тъ": 1672,
      "дере": 1673,
      "дн҃ь": 1674,
      "тро": 1675,
      "аг": 1676,
      "Со": 1677,
      "приде": 1678,
      "голо": 1679,
      "##ті": 1680,
      "чл҃": 1681,
      "право": 1682,
      "##нѣи": 1683,
      "##тя": 1684,
      "тоу": 1685,
      "##дя": 1686,
      "##ници": 1687,
      "учи": 1688,
      "##нет": 1689,
      "##тся": 1690,
      "зло": 1691,
      "врѣ": 1692,
      "##стѧ": 1693,
      "понеже": 1694,
      "ль": 1695,
      "##леніе": 1696,
      "Госпо": 1697,
      "##бꙑ": 1698,
      "##ствꙋ": 1699,
      "холо": 1700,
      "домъ": 1701,
      "##фи": 1702,
      "ст҃ы": 1703,
      "##чени": 1704,
      "томъ": 1705,
      "##рѫ": 1706,
      "це": 1707,
      "сере": 1708,
      "##ꙁь": 1709,
      "##шꙋ": 1710,
      "пь": 1711,
      "##шасѧ": 1712,
      "Ре": 1713,
      "б҃ъ": 1714,
      "мѡ": 1715,
      "##люби": 1716,
      "##т҃": 1717,
      "##ству": 1718,
      "##ван": 1719,
      "бити": 1720,
      "##слава": 1721,
      "сына": 1722,
      "ю҆": 1723,
      "блго": 1724,
      "фе": 1725,
      "испо": 1726,
      "слѹ": 1727,
      "##прѣ": 1728,
      "пом": 1729,
      "Тако": 1730,
      "мла": 1731,
      "##тоу": 1732,
      "##в҃": 1733,
      "##шени": 1734,
      "##ному": 1735,
      "##гоу": 1736,
      "##шки": 1737,
      "і҆ꙋ": 1738,
      "##е҆": 1739,
      "##емѹ": 1740,
      "##чю": 1741,
      "воро": 1742,
      "##влѧ": 1743,
      "##цко": 1744,
      "своѧ": 1745,
      "##лі": 1746,
      "##кмо": 1747,
      "##чер": 1748,
      "яро": 1749,
      "##дова": 1750,
      "##скую": 1751,
      "##выхъ": 1752,
      "ꙗ҆же": 1753,
      "наре": 1754,
      "Вы": 1755,
      "##скому": 1756,
      "кѹ": 1757,
      "Васи": 1758,
      "пѹ": 1759,
      "подъ": 1760,
      "##въше": 1761,
      "высо": 1762,
      "после": 1763,
      "ними": 1764,
      "##шко": 1765,
      "быс": 1766,
      "і҆ѡ": 1767,
      "##нꙑи": 1768,
      "господ": 1769,
      "всѣмъ": 1770,
      "немъ": 1771,
      "многи": 1772,
      "егда": 1773,
      "тер": 1774,
      "##їи": 1775,
      "##ꙁи": 1776,
      "сви": 1777,
      "Ки": 1778,
      "нѣко": 1779,
      "##ром": 1780,
      "##пре": 1781,
      "чь": 1782,
      "##щіи": 1783,
      "##дѡ": 1784,
      "сед": 1785,
      "##бѧ": 1786,
      "жити": 1787,
      "##тре": 1788,
      "пох": 1789,
      "ходи": 1790,
      "##нье": 1791,
      "##лож": 1792,
      "Тѣ": 1793,
      "##кѫ": 1794,
      "тамо": 1795,
      "сами": 1796,
      "##сни": 1797,
      "конь": 1798,
      "##ходѧ": 1799,
      "дрѹ": 1800,
      "##зва": 1801,
      "своих": 1802,
      "##ловѣ": 1803,
      "смѣ": 1804,
      "мол": 1805,
      "азъ": 1806,
      "##рь҆": 1807,
      "##том": 1808,
      "чисто": 1809,
      "##зѧ": 1810,
      "##спѣ": 1811,
      "дх": 1812,
      "мне": 1813,
      "ша": 1814,
      "суд": 1815,
      "##вꙑ": 1816,
      "государь": 1817,
      "градъ": 1818,
      "##ш҃": 1819,
      "небе": 1820,
      "слꙋ": 1821,
      "##сан": 1822,
      "рабо": 1823,
      "##смь": 1824,
      "##лика": 1825,
      "фа": 1826,
      "пошли": 1827,
      "ваше": 1828,
      "##ять": 1829,
      "##фо": 1830,
      "вни": 1831,
      "##домъ": 1832,
      "стро": 1833,
      "х҃": 1834,
      "сть": 1835,
      "ѥму": 1836,
      "обы": 1837,
      "мар": 1838,
      "были": 1839,
      "воево": 1840,
      "своими": 1841,
      "##жно": 1842,
      "изъ": 1843,
      "##ские": 1844,
      "преда": 1845,
      "богаты": 1846,
      "ще": 1847,
      "святы": 1848,
      "тѹ": 1849,
      "пога": 1850,
      "пис": 1851,
      "##скыи": 1852,
      "##кло": 1853,
      "емꙋ": 1854,
      "##лго": 1855,
      "##шт": 1856,
      "михаи": 1857,
      "емѹ": 1858,
      "поми": 1859,
      "каза": 1860,
      "весе": 1861,
      "дръ": 1862,
      "кы": 1863,
      "сіѧ": 1864,
      "глагол": 1865,
      "великого": 1866,
      "паки": 1867,
      "##лага": 1868,
      "##това": 1869,
      "тата": 1870,
      "##цемъ": 1871,
      "##мыш": 1872,
      "Хри": 1873,
      "дроу": 1874,
      "##деже": 1875,
      "##ити": 1876,
      "##бли": 1877,
      "##вѣр": 1878,
      "емоу": 1879,
      "ꙗ҅": 1880,
      "дати": 1881,
      "##нут": 1882,
      "людем": 1883,
      "бори": 1884,
      "##скꙋ": 1885,
      "коне": 1886,
      "челоби": 1887,
      "##дꙑ": 1888,
      "спо": 1889,
      "##ской": 1890,
      "онъ": 1891,
      "Как": 1892,
      "гь": 1893,
      "собою": 1894,
      "поле": 1895,
      "е҃": 1896,
      "дн҃и": 1897,
      "##ѣло": 1898,
      "хощ": 1899,
      "ст҃го": 1900,
      "тя": 1901,
      "царе": 1902,
      "##блю": 1903,
      "##енье": 1904,
      "##лено": 1905,
      "##быва": 1906,
      "гре": 1907,
      "вода": 1908,
      "##бити": 1909,
      "всю": 1910,
      "людеи": 1911,
      "##҄у": 1912,
      "##ниѥ": 1913,
      "сихъ": 1914,
      "##юр": 1915,
      "око": 1916,
      "приказ": 1917,
      "Вь": 1918,
      "золо": 1919,
      "##мена": 1920,
      "челом": 1921,
      "##хра": 1922,
      "##вѫ": 1923,
      "тѣло": 1924,
      "сынъ": 1925,
      "##ія": 1926,
      "бѧше": 1927,
      "##ница": 1928,
      "брати": 1929,
      "въсе": 1930,
      "##сии": 1931,
      "##торо": 1932,
      "ваши": 1933,
      "##бро": 1934,
      "і҆и҃ле": 1935,
      "весь": 1936,
      "доро": 1937,
      "Ве": 1938,
      "##чести": 1939,
      "##ꙁы": 1940,
      "пору": 1941,
      "##тити": 1942,
      "##шаго": 1943,
      "##мѫ": 1944,
      "сын": 1945,
      "##сѫ": 1946,
      "лѣта": 1947,
      "боль": 1948,
      "##ѧти": 1949,
      "##дꙋтъ": 1950,
      "зо": 1951,
      "##раз": 1952,
      "##рица": 1953,
      "имѧ": 1954,
      "ѥсть": 1955,
      "кн": 1956,
      "##ницы": 1957,
      "поиде": 1958,
      "вол": 1959,
      "прине": 1960,
      "##а҅": 1961,
      "царю": 1962,
      "##дви": 1963,
      "дѣло": 1964,
      "каба": 1965,
      "##ихъ": 1966,
      "она": 1967,
      "##пꙋ": 1968,
      "стар": 1969,
      "хва": 1970,
      "што": 1971,
      "рее": 1972,
      "##ю҆": 1973,
      "полъ": 1974,
      "мѣстѣ": 1975,
      "##щы": 1976,
      "##шꙙ": 1977,
      "имати": 1978,
      "бере": 1979,
      "каз": 1980,
      "семь": 1981,
      "поу": 1982,
      "десѧ": 1983,
      "##ян": 1984,
      "мож": 1985,
      "хотѣ": 1986,
      "сле": 1987,
      "сказа": 1988,
      "покла": 1989,
      "дх҃": 1990,
      "стре": 1991,
      "##мени": 1992,
      "##ѭ҄": 1993,
      "##еми": 1994,
      "мѣста": 1995,
      "##їѧ": 1996,
      "пръ": 1997,
      "##дит": 1998,
      "црь": 1999,
      "##тѹ": 2000,
      "хоро": 2001,
      "послу": 2002,
      "От": 2003,
      "ап": 2004,
      "быша": 2005,
      "тысѧ": 2006,
      "христо": 2007,
      "##дна": 2008,
      "##вые": 2009,
      "блг": 2010,
      "ке": 2011,
      "##н҃ѣ": 2012,
      "и҃": 2013,
      "той": 2014,
      "вл": 2015,
      "запа": 2016,
      "своеи": 2017,
      "моѧ": 2018,
      "##има": 2019,
      "к҃": 2020,
      "лв": 2021,
      "##҄е": 2022,
      "прос": 2023,
      "указ": 2024,
      "##ємъ": 2025,
      "##рен": 2026,
      "##емоу": 2027,
      "тобою": 2028,
      "Како": 2029,
      "##вни": 2030,
      "##ѳа": 2031,
      "##стви": 2032,
      "боу": 2033,
      "твоѧ": 2034,
      "милости": 2035,
      "##д҃": 2036,
      "гривь": 2037,
      "соло": 2038,
      "стѣ": 2039,
      "ос": 2040,
      "##ꙁѣ": 2041,
      "і҆ер": 2042,
      "##ских": 2043,
      "Ста": 2044,
      "##тіе": 2045,
      "для": 2046,
      "плем": 2047,
      "море": 2048,
      "##ждь": 2049,
      "болѣ": 2050,
      "##лта": 2051,
      "едино": 2052,
      "миръ": 2053,
      "##их": 2054,
      "кому": 2055,
      "##леи": 2056,
      "сꙗ": 2057,
      "##ждо": 2058,
      "повѣда": 2059,
      "нич": 2060,
      "грѣш": 2061,
      "здра": 2062,
      "##ріи": 2063,
      "##ный": 2064,
      "##гоша": 2065,
      "##бꙋ": 2066,
      "##ваго": 2067,
      "глаголю": 2068,
      "##мно": 2069,
      "вьсѣ": 2070,
      "сынѡ": 2071,
      "##кова": 2072,
      "##ꙁо": 2073,
      "##тью": 2074,
      "##лья": 2075,
      "сынове": 2076,
      "сна": 2077,
      "ꙗже": 2078,
      "взя": 2079,
      "кь": 2080,
      "##лены": 2081,
      "##шень": 2082,
      "##ѥть": 2083,
      "меж": 2084,
      "дш҃": 2085,
      "##и҆": 2086,
      "наказа": 2087,
      "##чки": 2088,
      "##евич": 2089,
      "##жни": 2090,
      "##҄о": 2091,
      "людь": 2092,
      "четы": 2093,
      "прпб": 2094,
      "ѥси": 2095,
      "##вою": 2096,
      "##ева": 2097,
      "##пы": 2098,
      "запи": 2099,
      "##щѹ": 2100,
      "ѡби": 2101,
      "ника": 2102,
      "многа": 2103,
      "##ахѫ": 2104,
      "##томъ": 2105,
      "види": 2106,
      "##дов": 2107,
      "нѫ": 2108,
      "реко": 2109,
      "##чет": 2110,
      "изѧ": 2111,
      "Уж": 2112,
      "ѡц҃": 2113,
      "гу": 2114,
      "ꙗро": 2115,
      "##лати": 2116,
      "куп": 2117,
      "##вичь": 2118,
      "##врь": 2119,
      "коли": 2120,
      "##соу": 2121,
      "##дом": 2122,
      "учнут": 2123,
      "где": 2124,
      "##хы": 2125,
      "проси": 2126,
      "##рꙑ": 2127,
      "землѧ": 2128,
      "кн҃": 2129,
      "серд": 2130,
      "##мень": 2131,
      "даже": 2132,
      "##вол": 2133,
      "##жати": 2134,
      "Ви": 2135,
      "сі": 2136,
      "##гнь": 2137,
      "манасты": 2138,
      "##вла": 2139,
      "##лга": 2140,
      "##ѧи": 2141,
      "Говори": 2142,
      "##сков": 2143,
      "ѧ҆": 2144,
      "##гꙑ": 2145,
      "стол": 2146,
      "прь": 2147,
      "ге": 2148,
      "##ковь": 2149,
      "князю": 2150,
      "##шу": 2151,
      "семъ": 2152,
      "бѡ": 2153,
      "коня": 2154,
      "##гѵ": 2155,
      "##кон": 2156,
      "своею": 2157,
      "##кие": 2158,
      "тебя": 2159,
      "люби": 2160,
      "будеть": 2161,
      "мл҃": 2162,
      "плѣ": 2163,
      "сро": 2164,
      "##люб": 2165,
      "ᲂу҆бо": 2166,
      "повѣ": 2167,
      "нѣсть": 2168,
      "кора": 2169,
      "##мꙑ": 2170,
      "собо": 2171,
      "##ленъ": 2172,
      "##хѡ": 2173,
      "пожа": 2174,
      "постав": 2175,
      "добрѣ": 2176,
      "##льни": 2177,
      "градѣ": 2178,
      "сіе": 2179,
      "недо": 2180,
      "##немъ": 2181,
      "тра": 2182,
      "времѧ": 2183,
      "чюдо": 2184,
      "расп": 2185,
      "##мже": 2186,
      "##ромъ": 2187,
      "ниже": 2188,
      "##мꙿ": 2189,
      "##мене": 2190,
      "богъ": 2191,
      "дон": 2192,
      "лѹ": 2193,
      "многы": 2194,
      "чловѣ": 2195,
      "##стѹ": 2196,
      "##наꙗ": 2197,
      "язы": 2198,
      "б҃а": 2199,
      "поч": 2200,
      "##лися": 2201,
      "всеволо": 2202,
      "##иши": 2203,
      "здѣ": 2204,
      "мер": 2205,
      "н҃": 2206,
      "##гн": 2207,
      "##хов": 2208,
      "име": 2209,
      "##ар": 2210,
      "##ді": 2211,
      "##веде": 2212,
      "плъ": 2213,
      "##его": 2214,
      "##тина": 2215,
      "мн": 2216,
      "слав": 2217,
      "нн҃ѣ": 2218,
      "##мя": 2219,
      "Хо": 2220,
      "о҄у": 2221,
      "нога": 2222,
      "##вѣтъ": 2223,
      "нами": 2224,
      "напа": 2225,
      "проро": 2226,
      "Что": 2227,
      "сре": 2228,
      "кръ": 2229,
      "кри": 2230,
      "##дѣте": 2231,
      "##скъ": 2232,
      "є҆гда": 2233,
      "крѣп": 2234,
      "##ѵсе": 2235,
      "жены": 2236,
      "##стѫ": 2237,
      "и҆ли": 2238,
      "##ствова": 2239,
      "##етсѧ": 2240,
      "тѣхъ": 2241,
      "оби": 2242,
      "суть": 2243,
      "##тися": 2244,
      "вьсе": 2245,
      "послꙋ": 2246,
      "ѣко": 2247,
      "был": 2248,
      "вар": 2249,
      "томѹ": 2250,
      "##҇ли": 2251,
      "##носи": 2252,
      "домо": 2253,
      "рек": 2254,
      "##ден": 2255,
      "якоже": 2256,
      "пріиде": 2257,
      "слѣ": 2258,
      "##нка": 2259,
      "преже": 2260,
      "слова": 2261,
      "сама": 2262,
      "Миха": 2263,
      "И҅": 2264,
      "всего": 2265,
      "людіе": 2266,
      "будут": 2267,
      "##шку": 2268,
      "дья": 2269,
      "ꙗ҆зы": 2270,
      "Еще": 2271,
      "##дари": 2272,
      "приго": 2273,
      "##дою": 2274,
      "гд҇а": 2275,
      "##ниꙗ": 2276,
      "человѣкъ": 2277,
      "почи": 2278,
      "##воу": 2279,
      "кои": 2280,
      "достои": 2281,
      "##жо": 2282,
      "##ния": 2283,
      "мьсти": 2284,
      "##трь": 2285,
      "нынѣ": 2286,
      "даві": 2287,
      "##нію": 2288,
      "Пр": 2289,
      "игу": 2290,
      "##мре": 2291,
      "##гѵп": 2292,
      "ржи": 2293,
      "своѥго": 2294,
      "въда": 2295,
      "Пре": 2296,
      "Ꙗ҆": 2297,
      "четвер": 2298,
      "##іс": 2299,
      "##лько": 2300,
      "##воли": 2301,
      "##нович": 2302,
      "въск": 2303,
      "отда": 2304,
      "разꙋ": 2305,
      "##тѡ": 2306,
      "старѣ": 2307,
      "##цов": 2308,
      "ѳеѡ": 2309,
      "Бѣ": 2310,
      "##биша": 2311,
      "##зыва": 2312,
      "може": 2313,
      "матер": 2314,
      "подви": 2315,
      "##ньі": 2316,
      "домꙋ": 2317,
      "##вци": 2318,
      "поро": 2319,
      "##рти": 2320,
      "##гнѣ": 2321,
      "##лє": 2322,
      "##щаго": 2323,
      "##лена": 2324,
      "л҃": 2325,
      "##нию": 2326,
      "бого": 2327,
      "кнѧзь": 2328,
      "##дре": 2329,
      "##кыи": 2330,
      "##лка": 2331,
      "##гли": 2332,
      "##лн": 2333,
      "зане": 2334,
      "црк҃": 2335,
      "##біе": 2336,
      "дѣти": 2337,
      "митро": 2338,
      "Вѣ": 2339,
      "пр҇": 2340,
      "собра": 2341,
      "творити": 2342,
      "слы": 2343,
      "скоро": 2344,
      "хр҇": 2345,
      "рѫ": 2346,
      "таково": 2347,
      "ест": 2348,
      "выше": 2349,
      "стои": 2350,
      "##брѣ": 2351,
      "двѣ": 2352,
      "ги": 2353,
      "и҄": 2354,
      "##лексан": 2355,
      "##пере": 2356,
      "##поли": 2357,
      "нет": 2358,
      "##скии": 2359,
      "подоба": 2360,
      "Из": 2361,
      "села": 2362,
      "##скѹ": 2363,
      "##вен": 2364,
      "моу": 2365,
      "соро": 2366,
      "##слави": 2367,
      "##ею": 2368,
      "##щеніе": 2369,
      "скор": 2370,
      "ѡбрѣ": 2371,
      "очи": 2372,
      "рас": 2373,
      "бго": 2374,
      "##щени": 2375,
      "себя": 2376,
      "##вымъ": 2377,
      "##тѫ": 2378,
      "##теи": 2379,
      "нашь": 2380,
      "дома": 2381,
      "веле": 2382,
      "##рав": 2383,
      "слава": 2384,
      "ѹ҆": 2385,
      "##нагѡ": 2386,
      "двор": 2387,
      "##полкъ": 2388,
      "##динъ": 2389,
      "сꙋть": 2390,
      "##щихъ": 2391,
      "##десѧть": 2392,
      "пора": 2393,
      "треть": 2394,
      "Ро": 2395,
      "поги": 2396,
      "въс": 2397,
      "зи": 2398,
      "м҃": 2399,
      "##тов": 2400,
      "разу": 2401,
      "##лет": 2402,
      "дела": 2403,
      "##ѧт": 2404,
      "жела": 2405,
      "і҆ер҇ли": 2406,
      "ѕ҃": 2407,
      "##женъ": 2408,
      "наша": 2409,
      "ним": 2410,
      "брать": 2411,
      "##лѫ": 2412,
      "невѣ": 2413,
      "##мира": 2414,
      "##номꙋ": 2415,
      "лѣтъ": 2416,
      "гн҃": 2417,
      "ѡн": 2418,
      "ѡни": 2419,
      "##дить": 2420,
      "свобо": 2421,
      "апо": 2422,
      "днь": 2423,
      "архи": 2424,
      "рь": 2425,
      "ответ": 2426,
      "##ступи": 2427,
      "##вить": 2428,
      "Ива": 2429,
      "##мьже": 2430,
      "##ствѣ": 2431,
      "позна": 2432,
      "земля": 2433,
      "##ехал": 2434,
      "дело": 2435,
      "##ліе": 2436,
      "похо": 2437,
      "жере": 2438,
      "##сен": 2439,
      "##доро": 2440,
      "государю": 2441,
      "##пова": 2442,
      "егѡ": 2443,
      "праз": 2444,
      "горѣ": 2445,
      "собѣ": 2446,
      "##лых": 2447,
      "есмь": 2448,
      "полу": 2449,
      "посадни": 2450,
      "##кого": 2451,
      "лица": 2452,
      "##нааго": 2453,
      "божи": 2454,
      "твоего": 2455,
      "сн҃а": 2456,
      "##еи": 2457,
      "дв҃": 2458,
      "нач": 2459,
      "словеса": 2460,
      "##деши": 2461,
      "є҆ѧ": 2462,
      "ник": 2463,
      "нена": 2464,
      "царя": 2465,
      "##кре": 2466,
      "зе": 2467,
      "##лꙿ": 2468,
      "##хі": 2469,
      "##новъ": 2470,
      "тобѣ": 2471,
      "ꙁако": 2472,
      "служи": 2473,
      "трꙋ": 2474,
      "##ніемъ": 2475,
      "Добрыню": 2476,
      "ꙁъ": 2477,
      "рат": 2478,
      "##щъ": 2479,
      "взы": 2480,
      "##или": 2481,
      "##тели": 2482,
      "стрѣ": 2483,
      "моск": 2484,
      "##кую": 2485,
      "##пло": 2486,
      "пост": 2487,
      "прѣда": 2488,
      "жер": 2489,
      "##бла": 2490,
      "подоб": 2491,
      "##вор": 2492,
      "##торы": 2493,
      "##скихъ": 2494,
      "##сль": 2495,
      "была": 2496,
      "естъ": 2497,
      "##вым": 2498,
      "тѣмъ": 2499,
      "##дѣти": 2500,
      "##дья": 2501,
      "##р҃": 2502,
      "##мет": 2503,
      "##бира": 2504,
      "Свя": 2505,
      "##щеши": 2506,
      "твою": 2507,
      "##вои": 2508,
      "##вари": 2509,
      "##того": 2510,
      "##кіи": 2511,
      "##кры": 2512,
      "въста": 2513,
      "мѡѵсе": 2514,
      "сила": 2515,
      "##скіи": 2516,
      "Христо": 2517,
      "##шати": 2518,
      "так": 2519,
      "гръ": 2520,
      "лоу": 2521,
      "##тки": 2522,
      "пож": 2523,
      "##нѹю": 2524,
      "моего": 2525,
      "ꙁло": 2526,
      "толко": 2527,
      "против": 2528,
      "Васили": 2529,
      "##нья": 2530,
      "ві": 2531,
      "всё": 2532,
      "##нча": 2533,
      "мц": 2534,
      "милость": 2535,
      "Бе": 2536,
      "Оу": 2537,
      "исто": 2538,
      "##ват": 2539,
      "мою": 2540,
      "такѡ": 2541,
      "мною": 2542,
      "заповѣ": 2543,
      "всѧка": 2544,
      "вда": 2545,
      "правед": 2546,
      "##҇а": 2547,
      "##таго": 2548,
      "##споди": 2549,
      "##держа": 2550,
      "гл҃а": 2551,
      "володимеръ": 2552,
      "##рою": 2553,
      "бѣше": 2554,
      "мꙑ": 2555,
      "оста": 2556,
      "##шоу": 2557,
      "прем": 2558,
      "христи": 2559,
      "##ѥго": 2560,
      "пома": 2561,
      "##вѡ": 2562,
      "лꙋ": 2563,
      "блю": 2564,
      "мя": 2565,
      "гдѣ": 2566,
      "##ѣи": 2567,
      "##бѹ": 2568,
      "русь": 2569,
      "##нѣмъ": 2570,
      "бело": 2571,
      "имя": 2572,
      "рѣша": 2573,
      "Владимир": 2574,
      "##лꙑ": 2575,
      "##ники": 2576,
      "##проти": 2577,
      "велми": 2578,
      "Ли": 2579,
      "##пѹ": 2580,
      "##тисѧ": 2581,
      "стоя": 2582,
      "##щѫ": 2583,
      "въса": 2584,
      "отро": 2585,
      "Божи": 2586,
      "торго": 2587,
      "былъ": 2588,
      "##нно": 2589,
      "въсп": 2590,
      "ре҇": 2591,
      "##вле": 2592,
      "токмо": 2593,
      "зап": 2594,
      "своегѡ": 2595,
      "##кьі": 2596,
      "кони": 2597,
      "##сомъ": 2598,
      "##ствоу": 2599,
      "##леѯ": 2600,
      "пѡ": 2601,
      "сіа": 2602,
      "##ліа": 2603,
      "##жу": 2604,
      "##жіе": 2605,
      "бы҇": 2606,
      "грѧ": 2607,
      "##рии": 2608,
      "своя": 2609,
      "свѣт": 2610,
      "тру": 2611,
      "##тꙑ": 2612,
      "##҄ь": 2613,
      "новгород": 2614,
      "сынѡвъ": 2615,
      "ево": 2616,
      "##твер": 2617,
      "##жю": 2618,
      "##дѣи": 2619,
      "сп҃": 2620,
      "таи": 2621,
      "##шеніе": 2622,
      "##нови": 2623,
      "дале": 2624,
      "прок": 2625,
      "ваша": 2626,
      "Все": 2627,
      "вѣч": 2628,
      "учини": 2629,
      "Ино": 2630,
      "##жаше": 2631,
      "чтобы": 2632,
      "ново": 2633,
      "нощь": 2634,
      "грамота": 2635,
      "пови": 2636,
      "четыре": 2637,
      "##вѣсти": 2638,
      "новгородь": 2639,
      "похва": 2640,
      "дми": 2641,
      "пѧть": 2642,
      "сⱕ": 2643,
      "мни": 2644,
      "отпу": 2645,
      "обрѣ": 2646,
      "городе": 2647,
      "свѣтъ": 2648,
      "ѿвѣща": 2649,
      "акы": 2650,
      "молѧ": 2651,
      "сътвор": 2652,
      "вѣр": 2653,
      "##ская": 2654,
      "бц҃": 2655,
      "прика": 2656,
      "жъ": 2657,
      "ин": 2658,
      "##щер": 2659,
      "друго": 2660,
      "##ваше": 2661,
      "Ру": 2662,
      "##зю": 2663,
      "приложи": 2664,
      "твор": 2665,
      "срѣ": 2666,
      "##дне": 2667,
      "оучи": 2668,
      "Же": 2669,
      "время": 2670,
      "##женіе": 2671,
      "роу": 2672,
      "##вша": 2673,
      "страш": 2674,
      "немо": 2675,
      "приста": 2676,
      "свет": 2677,
      "##рина": 2678,
      "##деи": 2679,
      "посы": 2680,
      "бга": 2681,
      "##мі": 2682,
      "##жень": 2683,
      "пропо": 2684,
      "пребыва": 2685,
      "ответчи": 2686,
      "##лью": 2687,
      "есте": 2688,
      "ꙗв": 2689,
      "гл҃ѧ": 2690,
      "противу": 2691,
      "ада": 2692,
      "##езжа": 2693,
      "##сени": 2694,
      "##рин": 2695,
      "##тꙿ": 2696,
      "##писко": 2697,
      "##вь҆": 2698,
      "клю": 2699,
      "трь": 2700,
      "ф҃": 2701,
      "еи": 2702,
      "##емы": 2703,
      "бгъ": 2704,
      "##слы": 2705,
      "нб҃": 2706,
      "##вка": 2707,
      "бесѣ": 2708,
      "діа": 2709,
      "иска": 2710,
      "воста": 2711,
      "##тати": 2712,
      "бг҃о": 2713,
      "##рда": 2714,
      "оп": 2715,
      "##жены": 2716,
      "##скꙑ": 2717,
      "всегда": 2718,
      "крас": 2719,
      "созда": 2720,
      "столь": 2721,
      "такоже": 2722,
      "##еви": 2723,
      "##ход": 2724,
      "##дете": 2725,
      "##жена": 2726,
      "Му": 2727,
      "вⸯ": 2728,
      "##жꙋ": 2729,
      "##стꙑ": 2730,
      "##стію": 2731,
      "служ": 2732,
      "митрополи": 2733,
      "##ровъ": 2734,
      "съм": 2735,
      "гле": 2736,
      "ѡнъ": 2737,
      "единъ": 2738,
      "##дше": 2739,
      "буду": 2740,
      "обо": 2741,
      "Того": 2742,
      "Тут": 2743,
      "##чка": 2744,
      "дол": 2745,
      "##твы": 2746,
      "##цѫ": 2747,
      "##ть҆": 2748,
      "твоихъ": 2749,
      "##евъ": 2750,
      "##ими": 2751,
      "##ꙗ҆": 2752,
      "глаголѧ": 2753,
      "пае": 2754,
      "##лею": 2755,
      "кромѣ": 2756,
      "дерев": 2757,
      "ал": 2758,
      "кꙑ": 2759,
      "##гды": 2760,
      "вас": 2761,
      "све": 2762,
      "прр": 2763,
      "##дел": 2764,
      "сн҃ъ": 2765,
      "церкви": 2766,
      "##ей": 2767,
      "##цки": 2768,
      "силы": 2769,
      "##дут": 2770,
      "человека": 2771,
      "Или": 2772,
      "Ꙁа": 2773,
      "##щемъ": 2774,
      "##бави": 2775,
      "крь": 2776,
      "томь": 2777,
      "присла": 2778,
      "имать": 2779,
      "хѹ": 2780,
      "надо": 2781,
      "своим": 2782,
      "наслѣ": 2783,
      "жо": 2784,
      "##смо": 2785,
      "и҆мѧ": 2786,
      "##види": 2787,
      "гл҃етъ": 2788,
      "иго": 2789,
      "##ѣха": 2790,
      "##тръ": 2791,
      "є҆гѵп": 2792,
      "гюр": 2793,
      "прия": 2794,
      "смерти": 2795,
      "Прѣ": 2796,
      "##знь": 2797,
      "такъ": 2798,
      "города": 2799,
      "##вую": 2800,
      "##нꙋю": 2801,
      "##городи": 2802,
      "немь": 2803,
      "бжтв": 2804,
      "апосто": 2805,
      "ꙁла": 2806,
      "##ѳо": 2807,
      "сти": 2808,
      "дасть": 2809,
      "##вѣт": 2810,
      "господине": 2811,
      "поклони": 2812,
      "дондеже": 2813,
      "среб": 2814,
      "уби": 2815,
      "##ском": 2816,
      "##жет": 2817,
      "велѣ": 2818,
      "видѣти": 2819,
      "нему": 2820,
      "##ниго": 2821,
      "всꙗ": 2822,
      "всемъ": 2823,
      "##храни": 2824,
      "нака": 2825,
      "Ба": 2826,
      "мт҃": 2827,
      "##ьі": 2828,
      "учнет": 2829,
      "ию": 2830,
      "ден": 2831,
      "цр҇": 2832,
      "погре": 2833,
      "немꙋ": 2834,
      "##чест": 2835,
      "бж҃іи": 2836,
      "##рени": 2837,
      "показа": 2838,
      "цари": 2839,
      "ꙁна": 2840,
      "##рови": 2841,
      "##неи": 2842,
      "єго": 2843,
      "##слыша": 2844,
      "##ꙗ҅": 2845,
      "памѧ": 2846,
      "чест": 2847,
      "като": 2848,
      "жалова": 2849,
      "своему": 2850,
      "людемъ": 2851,
      "прѣдъ": 2852,
      "##воз": 2853,
      "##тыи": 2854,
      "указу": 2855,
      "##жество": 2856,
      "##жеств": 2857,
      "пам": 2858,
      "стары": 2859,
      "##менъ": 2860,
      "##жѫ": 2861,
      "попо": 2862,
      "и҆зы": 2863,
      "съгрѣ": 2864,
      "дра": 2865,
      "братъ": 2866,
      "пы": 2867,
      "##оумѣ": 2868,
      "сѣдѧ": 2869,
      "ед": 2870,
      "жь": 2871,
      "##хоу": 2872,
      "двора": 2873,
      "##нина": 2874,
      "боле": 2875,
      "##довъ": 2876,
      "приходи": 2877,
      "##стью": 2878,
      "мат": 2879,
      "своемъ": 2880,
      "царѧ": 2881,
      "прави": 2882,
      "погꙋ": 2883,
      "##ешь": 2884,
      "горы": 2885,
      "##реи": 2886,
      "хъ": 2887,
      "##вѣдѣ": 2888,
      "послꙋша": 2889,
      "ами": 2890,
      "##враа": 2891,
      "##зꙋ": 2892,
      "##лою": 2893,
      "##таи": 2894,
      "##лити": 2895,
      "великому": 2896,
      "крѣпо": 2897,
      "##тіа": 2898,
      "далъ": 2899,
      "##слови": 2900,
      "##проси": 2901,
      "##шни": 2902,
      "##шел": 2903,
      "присно": 2904,
      "##шіи": 2905,
      "Тогда": 2906,
      "з҃": 2907,
      "ѕіс": 2908,
      "##ч҃": 2909,
      "##валъ": 2910,
      "##лей": 2911,
      "обла": 2912,
      "Тъ": 2913,
      "##цем": 2914,
      "покланѧ": 2915,
      "трѹ": 2916,
      "##жѧ": 2917,
      "##пити": 2918,
      "боярски": 2919,
      "рублев": 2920,
      "совер": 2921,
      "государя": 2922,
      "шесть": 2923,
      "пакꙑ": 2924,
      "люб": 2925,
      "мира": 2926,
      "҆ꙁ": 2927,
      "##стити": 2928,
      "##жит": 2929,
      "дани": 2930,
      "##лом": 2931,
      "##леѯан": 2932,
      "Бы": 2933,
      "глю": 2934,
      "лѧ": 2935,
      "влады": 2936,
      "##лес": 2937,
      "##кѡвъ": 2938,
      "##слав҃": 2939,
      "всѧк": 2940,
      "препо": 2941,
      "мату": 2942,
      "своей": 2943,
      "цет": 2944,
      "Ꙗкоже": 2945,
      "##ник": 2946,
      "##ріа": 2947,
      "##лов": 2948,
      "пришли": 2949,
      "агг": 2950,
      "глѧ": 2951,
      "дете": 2952,
      "##сер": 2953,
      "рекъ": 2954,
      "цръ": 2955,
      "##неть": 2956,
      "##вꙿ": 2957,
      "##вьр": 2958,
      "##слѣ": 2959,
      "всем": 2960,
      "ем": 2961,
      "##нё": 2962,
      "Воло": 2963,
      "книга": 2964,
      "суда": 2965,
      "нашъ": 2966,
      "грамоты": 2967,
      "ски": 2968,
      "със": 2969,
      "мнози": 2970,
      "перед": 2971,
      "Богъ": 2972,
      "рещи": 2973,
      "взяти": 2974,
      "##чію": 2975,
      "##славу": 2976,
      "зъ": 2977,
      "согрѣ": 2978,
      "сꙑ": 2979,
      "прости": 2980,
      "##ꙁна": 2981,
      "всеа": 2982,
      "Ай": 2983,
      "##ила": 2984,
      "##щу": 2985,
      "##тора": 2986,
      "##леб": 2987,
      "дес": 2988,
      "снъ": 2989,
      "##бор": 2990,
      "новъ": 2991,
      "##кити": 2992,
      "род": 2993,
      "ѥ҅го": 2994,
      "Мы": 2995,
      "воды": 2996,
      "##жьство": 2997,
      "обѣ": 2998,
      "помы": 2999,
      "##цею": 3000,
      "оте": 3001,
      "трѣ": 3002,
      "дань": 3003,
      "рус": 3004,
      "##ствѹ": 3005,
      "##йло": 3006,
      "симъ": 3007,
      "григо": 3008,
      "истин": 3009,
      "##еву": 3010,
      "##жеи": 3011,
      "##лые": 3012,
      "Ти": 3013,
      "остави": 3014,
      "##стве": 3015,
      "##щеи": 3016,
      "і҆а": 3017,
      "руку": 3018,
      "пти": 3019,
      "сра": 3020,
      "##нти": 3021,
      "пого": 3022,
      "##вомъ": 3023,
      "н҄": 3024,
      "##чно": 3025,
      "##фе": 3026,
      "##нѣхъ": 3027,
      "плака": 3028,
      "и҆ма": 3029,
      "##дѣже": 3030,
      "брате": 3031,
      "ѻ҆т": 3032,
      "крестьян": 3033,
      "вне": 3034,
      "глѣ": 3035,
      "ез": 3036,
      "##диша": 3037,
      "пусто": 3038,
      "##вери": 3039,
      "снѣ": 3040,
      "##мр": 3041,
      "##кои": 3042,
      "давати": 3043,
      "тоже": 3044,
      "ѥс": 3045,
      "##нем": 3046,
      "тамѡ": 3047,
      "##слъ": 3048,
      "мир": 3049,
      "##т҇": 3050,
      "свер": 3051,
      "небо": 3052,
      "##дин": 3053,
      "сок": 3054,
      "##вна": 3055,
      "поне": 3056,
      "##ваѧ": 3057,
      "рабъ": 3058,
      "году": 3059,
      "ѡ҆брѣ": 3060,
      "о҃": 3061,
      "ѡста": 3062,
      "твоегѡ": 3063,
      "вмѣ": 3064,
      "чре": 3065,
      "##дино": 3066,
      "болгари": 3067,
      "прии": 3068,
      "##бав": 3069,
      "желѣ": 3070,
      "##жѹ": 3071,
      "мор": 3072,
      "##стию": 3073,
      "лице": 3074,
      "уо": 3075,
      "ѿвѣ": 3076,
      "##нима": 3077,
      "патри": 3078,
      "##ками": 3079,
      "Пи": 3080,
      "вдѣ": 3081,
      "пов": 3082,
      "##лма": 3083,
      "##чо": 3084,
      "##трѣ": 3085,
      "поно": 3086,
      "сіи": 3087,
      "##скимъ": 3088,
      "бꙑстъ": 3089,
      "испра": 3090,
      "##дрь": 3091,
      "##бер": 3092,
      "таковы": 3093,
      "рости": 3094,
      "посѣ": 3095,
      "Еже": 3096,
      "еп": 3097,
      "##чку": 3098,
      "##бои": 3099,
      "##уды": 3100,
      "Ту": 3101,
      "пѧ": 3102,
      "##нью": 3103,
      "##сели": 3104,
      "тъгда": 3105,
      "##плем": 3106,
      "возврати": 3107,
      "писано": 3108,
      "##т҄о": 3109,
      "поча": 3110,
      "боуд": 3111,
      "хи": 3112,
      "##бє": 3113,
      "могу": 3114,
      "человек": 3115,
      "василь": 3116,
      "широ": 3117,
      "ея": 3118,
      "даде": 3119,
      "##нь҆": 3120,
      "великаго": 3121,
      "##сі": 3122,
      "##перь": 3123,
      "кровь": 3124,
      "грамоту": 3125,
      "тое": 3126,
      "вѧ": 3127,
      "мс": 3128,
      "##тое": 3129,
      "грѣхъ": 3130,
      "слꙑ": 3131,
      "целова": 3132,
      "стъ": 3133,
      "##шет": 3134,
      "##бой": 3135,
      "начаша": 3136,
      "##н҄": 3137,
      "наи": 3138,
      "прежде": 3139,
      "Те": 3140,
      "пъ": 3141,
      "##лё": 3142,
      "Добрыня": 3143,
      "мнѡго": 3144,
      "кое": 3145,
      "гѹ": 3146,
      "ѡбѣ": 3147,
      "##гѫ": 3148,
      "##боу": 3149,
      "вѣру": 3150,
      "##крѣ": 3151,
      "##ѥ҆": 3152,
      "##телю": 3153,
      "##щее": 3154,
      "покры": 3155,
      "оже": 3156,
      "##рть": 3157,
      "##лива": 3158,
      "придоша": 3159,
      "##дѧтъ": 3160,
      "кѡ": 3161,
      "великъ": 3162,
      "мужи": 3163,
      "бер": 3164,
      "жено": 3165,
      "кры": 3166,
      "лъ": 3167,
      "рад": 3168,
      "прои": 3169,
      "ні": 3170,
      "##дри": 3171,
      "##сва": 3172,
      "##лень": 3173,
      "напи": 3174,
      "раба": 3175,
      "##чего": 3176,
      "всѣх": 3177,
      "вѣда": 3178,
      "выш": 3179,
      "благослов": 3180,
      "ничтоже": 3181,
      "##шы": 3182,
      "гора": 3183,
      "##скаѧ": 3184,
      "бꙋдꙋтъ": 3185,
      "Василий": 3186,
      "ере": 3187,
      "##еніа": 3188,
      "събра": 3189,
      "##прави": 3190,
      "##дох": 3191,
      "##мест": 3192,
      "Сего": 3193,
      "клѧ": 3194,
      "пль": 3195,
      "##щ҃": 3196,
      "##шее": 3197,
      "любовь": 3198,
      "Нѫ": 3199,
      "##дина": 3200,
      "прихо": 3201,
      "ѡ҆бра": 3202,
      "воевода": 3203,
      "камен": 3204,
      "##зрѣ": 3205,
      "##сті": 3206,
      "посре": 3207,
      "лежа": 3208,
      "въсхо": 3209,
      "половци": 3210,
      "колѣ": 3211,
      "вель": 3212,
      "сконча": 3213,
      "идеже": 3214,
      "##тка": 3215,
      "приꙗ": 3216,
      "москов": 3217,
      "а҆р": 3218,
      "господь": 3219,
      "##лии": 3220,
      "##нею": 3221,
      "кара": 3222,
      "безъ": 3223,
      "##щих": 3224,
      "брань": 3225,
      "нашихъ": 3226,
      "ико": 3227,
      "##дора": 3228,
      "кораб": 3229,
      "сь҆": 3230,
      "сердце": 3231,
      "дастъ": 3232,
      "раи": 3233,
      "##дꙿ": 3234,
      "неже": 3235,
      "престави": 3236,
      "перво": 3237,
      "ꙁвѣ": 3238,
      "##зри": 3239,
      "посо": 3240,
      "##кой": 3241,
      "##сс": 3242,
      "##жено": 3243,
      "нарица": 3244,
      "##чемъ": 3245,
      "гд҇и": 3246,
      "заповѣда": 3247,
      "##слу": 3248,
      "##демъ": 3249,
      "##лно": 3250,
      "воск": 3251,
      "царство": 3252,
      "ꙗ҅ко": 3253,
      "приш": 3254,
      "поима": 3255,
      "##бѫ": 3256,
      "надѣ": 3257,
      "поместья": 3258,
      "ѡбы": 3259,
      "##йте": 3260,
      "##темъ": 3261,
      "грь": 3262,
      "##лись": 3263,
      "сест": 3264,
      "городъ": 3265,
      "Бога": 3266,
      "потреб": 3267,
      "моя": 3268,
      "##лех": 3269,
      "помыш": 3270,
      "##зами": 3271,
      "Къ": 3272,
      "бжи": 3273,
      "мсти": 3274,
      "##ните": 3275,
      "##ереи": 3276,
      "дети": 3277,
      "тѣмь": 3278,
      "##говори": 3279,
      "##р҇": 3280,
      "##стер": 3281,
      "поп": 3282,
      "##скаа": 3283,
      "есми": 3284,
      "ѥ҅моу": 3285,
      "погы": 3286,
      "##пати": 3287,
      "разо": 3288,
      "лоша": 3289,
      "дрѣ": 3290,
      "кли": 3291,
      "ѕѣ": 3292,
      "##тно": 3293,
      "##дать": 3294,
      "##мири": 3295,
      "товары": 3296,
      "вами": 3297,
      "Нь": 3298,
      "##чу": 3299,
      "Моск": 3300,
      "досто": 3301,
      "отца": 3302,
      "##щимъ": 3303,
      "##стѣи": 3304,
      "мл҇": 3305,
      "Илья": 3306,
      "хꙋ": 3307,
      "##твꙋ": 3308,
      "##вица": 3309,
      "##шѹ": 3310,
      "слоу": 3311,
      "страна": 3312,
      "город": 3313,
      "мі": 3314,
      "##ске": 3315,
      "нощи": 3316,
      "##стыни": 3317,
      "##зу": 3318,
      "дворя": 3319,
      "власть": 3320,
      "пле": 3321,
      "##ших": 3322,
      "всѣми": 3323,
      "сегѡ": 3324,
      "##нее": 3325,
      "##чей": 3326,
      "вина": 3327,
      "здрав": 3328,
      "##тья": 3329,
      "рать": 3330,
      "съвръ": 3331,
      "напо": 3332,
      "вам": 3333,
      "оба": 3334,
      "нечи": 3335,
      "вотчины": 3336,
      "пожи": 3337,
      "##цѣхъ": 3338,
      "страны": 3339,
      "##тен": 3340,
      "непра": 3341,
      "##дитъ": 3342,
      "##ким": 3343,
      "##ения": 3344,
      "уда": 3345,
      "##вели": 3346,
      "бьі": 3347,
      "камень": 3348,
      "Нѣ": 3349,
      "имь": 3350,
      "##лны": 3351,
      "##ѧтъ": 3352,
      "##ман": 3353,
      "##городѣ": 3354,
      "господство": 3355,
      "кру": 3356,
      "оц҃": 3357,
      "ѿвер": 3358,
      "##тою": 3359,
      "вет": 3360,
      "##дѣла": 3361,
      "##дыи": 3362,
      "##цом": 3363,
      "А҆ще": 3364,
      "послуша": 3365,
      "чюдотвор": 3366,
      "дене": 3367,
      "##илъ": 3368,
      "преж": 3369,
      "Мно": 3370,
      "великии": 3371,
      "новъгоро": 3372,
      "##҄а": 3373,
      "##коша": 3374,
      "велик": 3375,
      "пити": 3376,
      "Сы": 3377,
      "уж": 3378,
      "цто": 3379,
      "##гомъ": 3380,
      "##зако": 3381,
      "слс": 3382,
      "##деса": 3383,
      "##ским": 3384,
      "##той": 3385,
      "кнѧзѧ": 3386,
      "поклонъ": 3387,
      "нѧ": 3388,
      "хто": 3389,
      "##нна": 3390,
      "##пль": 3391,
      "##мина": 3392,
      "своемꙋ": 3393,
      "сък": 3394,
      "ев": 3395,
      "ѥже": 3396,
      "##ов": 3397,
      "поз": 3398,
      "мимо": 3399,
      "жит": 3400,
      "тыся": 3401,
      "##сѣхъ": 3402,
      "елико": 3403,
      "иса": 3404,
      "##кое": 3405,
      "киев": 3406,
      "седмь": 3407,
      "фара": 3408,
      "ер": 3409,
      "ѡс": 3410,
      "##щет": 3411,
      "##ѹмѣ": 3412,
      "и҆спо": 3413,
      "ѥмѹ": 3414,
      "##фъ": 3415,
      "##дѣли": 3416,
      "вѣка": 3417,
      "дщ": 3418,
      "посъ": 3419,
      "##рати": 3420,
      "бѣжа": 3421,
      "гото": 3422,
      "мана": 3423,
      "вд": 3424,
      "##шедъ": 3425,
      "бг҃ꙋ": 3426,
      "патриар": 3427,
      "##лемъ": 3428,
      "оуго": 3429,
      "##лѭ": 3430,
      "##тю": 3431,
      "##iе": 3432,
      "ивана": 3433,
      "##ꙁе": 3434,
      "млад": 3435,
      "чево": 3436,
      "##сѡ": 3437,
      "##стно": 3438,
      "сон": 3439,
      "смир": 3440,
      "##видѣ": 3441,
      "##били": 3442,
      "величе": 3443,
      "сѣде": 3444,
      "славы": 3445,
      "а҃": 3446,
      "нѹ": 3447,
      "лѣпо": 3448,
      "иско": 3449,
      "ръ": 3450,
      "##вая": 3451,
      "Ду": 3452,
      "глу": 3453,
      "##жеть": 3454,
      "бывш": 3455,
      "грады": 3456,
      "##ския": 3457,
      "дворъ": 3458,
      "ити": 3459,
      "спи": 3460,
      "##рꙿ": 3461,
      "бѣсо": 3462,
      "гн҃е": 3463,
      "одно": 3464,
      "##шѣ": 3465,
      "##ѳъ": 3466,
      "чего": 3467,
      "##спро": 3468,
      "щи": 3469,
      "юрь": 3470,
      "ѡстав": 3471,
      "##зем": 3472,
      "твоимъ": 3473,
      "##дил": 3474,
      "божь": 3475,
      "##льи": 3476,
      "вѣрꙋ": 3477,
      "##жды": 3478,
      "##ются": 3479,
      "которых": 3480,
      "глагол҄": 3481,
      "Говорит": 3482,
      "ну": 3483,
      "##кли": 3484,
      "словѣ": 3485,
      "имѣти": 3486,
      "голову": 3487,
      "лет": 3488,
      "##зя": 3489,
      "вино": 3490,
      "дрь": 3491,
      "оть": 3492,
      "село": 3493,
      "чадо": 3494,
      "цр҃кви": 3495,
      "Су": 3496,
      "##раꙁ": 3497,
      "тож҃": 3498,
      "##жить": 3499,
      "гд҇ꙋ": 3500,
      "фо": 3501,
      "##ѥмъ": 3502,
      "##долѣ": 3503,
      "##чити": 3504,
      "силою": 3505,
      "##скою": 3506,
      "тѣх": 3507,
      "##ѳи": 3508,
      "е҆го": 3509,
      "##шити": 3510,
      "аки": 3511,
      "твер": 3512,
      "і҃": 3513,
      "ѿда": 3514,
      "##лася": 3515,
      "стѧ": 3516,
      "вѣкъ": 3517,
      "ина": 3518,
      "##діе": 3519,
      "живу": 3520,
      "деся": 3521,
      "возми": 3522,
      "объ": 3523,
      "помоли": 3524,
      "##жден": 3525,
      "соуть": 3526,
      "остав": 3527,
      "рѧ": 3528,
      "ѳ҃": 3529,
      "##жѣ": 3530,
      "попа": 3531,
      "##нес": 3532,
      "време": 3533,
      "у҃": 3534,
      "##дб": 3535,
      "##номѹ": 3536,
      "морю": 3537,
      "##чина": 3538,
      "возмо": 3539,
      "ныне": 3540,
      "женѣ": 3541,
      "##стꙋпи": 3542,
      "трои": 3543,
      "неправ": 3544,
      "коло": 3545,
      "болѧ": 3546,
      "##ремъ": 3547,
      "рати": 3548,
      "праве": 3549,
      "цѣлова": 3550,
      "Є҆": 3551,
      "##щоу": 3552,
      "##пря": 3553,
      "вос": 3554,
      "##дой": 3555,
      "послѹ": 3556,
      "нашо": 3557,
      "рꙋкꙋ": 3558,
      "пшени": 3559,
      "ꙗви": 3560,
      "бывъ": 3561,
      "вѣсть": 3562,
      "##бря": 3563,
      "##стя": 3564,
      "##мец": 3565,
      "##деся": 3566,
      "а҆г": 3567,
      "всех": 3568,
      "##клони": 3569,
      "##гнѣва": 3570,
      "Иже": 3571,
      "пѫ": 3572,
      "оуже": 3573,
      "едно": 3574,
      "##ꙗше": 3575,
      "##ѡнъ": 3576,
      "##кѡмъ": 3577,
      "двд҃": 3578,
      "посыла": 3579,
      "Лю": 3580,
      "второ": 3581,
      "пости": 3582,
      "##тесѧ": 3583,
      "##стоу": 3584,
      "гласъ": 3585,
      "слышавъ": 3586,
      "Сад": 3587,
      "прино": 3588,
      "##гива": 3589,
      "##стей": 3590,
      "арх": 3591,
      "дружину": 3592,
      "##рми": 3593,
      "поклоно": 3594,
      "іѡа": 3595,
      "Киев": 3596,
      "##нѣмь": 3597,
      "живꙋ": 3598,
      "место": 3599,
      "бꙑти": 3600,
      "самого": 3601,
      "молоде": 3602,
      "##держи": 3603,
      "петра": 3604,
      "ав": 3605,
      "сни": 3606,
      "пош": 3607,
      "видѣвъ": 3608,
      "людіи": 3609,
      "воин": 3610,
      "дша": 3611,
      "тръ": 3612,
      "##жене": 3613,
      "##їю": 3614,
      "яже": 3615,
      "##лⸯ": 3616,
      "##ліи": 3617,
      "##чини": 3618,
      "і҆и҃лє": 3619,
      "холоп": 3620,
      "##стре": 3621,
      "##токъ": 3622,
      "##скіѧ": 3623,
      "пако": 3624,
      "##твами": 3625,
      "съсⸯ": 3626,
      "уго": 3627,
      "даи": 3628,
      "##жетъ": 3629,
      "##жемъ": 3630,
      "блажен": 3631,
      "мра": 3632,
      "ѿц҃": 3633,
      "##п҇": 3634,
      "толико": 3635,
      "нимь": 3636,
      "вечер": 3637,
      "оубѡ": 3638,
      "воздви": 3639,
      "били": 3640,
      "є҆динъ": 3641,
      "христосъ": 3642,
      "звѣ": 3643,
      "##шеть": 3644,
      "##тни": 3645,
      "дал": 3646,
      "##чь҆": 3647,
      "свѣта": 3648,
      "велеть": 3649,
      "поля": 3650,
      "##рецъ": 3651,
      "##мана": 3652,
      "прочи": 3653,
      "всѧкъ": 3654,
      "##л҇": 3655,
      "##ский": 3656,
      "##сцѣ": 3657,
      "##твѣ": 3658,
      "##поу": 3659,
      "межи": 3660,
      "крест": 3661,
      "злато": 3662,
      "никтоже": 3663,
      "Яко": 3664,
      "дет": 3665,
      "ой": 3666,
      "соба": 3667,
      "малы": 3668,
      "имен": 3669,
      "##ꙑи҅": 3670,
      "Ами": 3671,
      "##льга": 3672,
      "силу": 3673,
      "хотя": 3674,
      "шь": 3675,
      "##нетъ": 3676,
      "##іꙗ": 3677,
      "свидѣ": 3678,
      "манастырь": 3679,
      "разꙋмѣ": 3680,
      "##ꙁнь": 3681,
      "прѧ": 3682,
      "наде": 3683,
      "рꙋцѣ": 3684,
      "законъ": 3685,
      "##вⸯ": 3686,
      "##ѕѣ": 3687,
      "прослави": 3688,
      "таких": 3689,
      "стоѧ": 3690,
      "конца": 3691,
      "петръ": 3692,
      "##кто": 3693,
      "##рину": 3694,
      "и҅ꙁ": 3695,
      "матери": 3696,
      "ѕѣлѡ": 3697,
      "##метъ": 3698,
      "##пр": 3699,
      "княги": 3700,
      "купи": 3701,
      "абіе": 3702,
      "ото": 3703,
      "тѡ": 3704,
      "ѡстави": 3705,
      "##ново": 3706,
      "##дес": 3707,
      "##жити": 3708,
      "твоеи": 3709,
      "##рити": 3710,
      "прием": 3711,
      "мала": 3712,
      "ꙗ҆ко": 3713,
      "жало": 3714,
      "##сна": 3715,
      "##дили": 3716,
      "##чал": 3717,
      "послоу": 3718,
      "бре": 3719,
      "ꙋбо": 3720,
      "##шⱕ": 3721,
      "моегѡ": 3722,
      "сѫтъ": 3723,
      "покаꙁа": 3724,
      "Сь": 3725,
      "дви": 3726,
      "ѡле": 3727,
      "##бл": 3728,
      "##тей": 3729,
      "две": 3730,
      "Володи": 3731,
      "чем": 3732,
      "##чни": 3733,
      "намѣ": 3734,
      "##доста": 3735,
      "прибли": 3736,
      "закла": 3737,
      "крепо": 3738,
      "ѳеѡдо": 3739,
      "##ина": 3740,
      "##млѧ": 3741,
      "поб": 3742,
      "##лежа": 3743,
      "росто": 3744,
      "великы": 3745,
      "кнѧзи": 3746,
      "великий": 3747,
      "##цоу": 3748,
      "##шед": 3749,
      "говорил": 3750,
      "православ": 3751,
      "##а҅ше": 3752,
      "уже": 3753,
      "єже": 3754,
      "##мол": 3755,
      "##повѣ": 3756,
      "##стье": 3757,
      "брату": 3758,
      "прѣжде": 3759,
      "пришед": 3760,
      "попе": 3761,
      "##сити": 3762,
      "быть": 3763,
      "вьꙁ": 3764,
      "пришедъ": 3765,
      "##нен": 3766,
      "##цѹ": 3767,
      "##зан": 3768,
      "вьсѧ": 3769,
      "##еніемъ": 3770,
      "Га": 3771,
      "##воль": 3772,
      "##нами": 3773,
      "##каꙁа": 3774,
      "всеи": 3775,
      "мъно": 3776,
      "аште": 3777,
      "##обра": 3778,
      "##щымъ": 3779,
      "##нить": 3780,
      "##ехали": 3781,
      "##цкого": 3782,
      "Бра": 3783,
      "настав": 3784,
      "горе": 3785,
      "потрѣ": 3786,
      "мс҃": 3787,
      "ѡбла": 3788,
      "ѥ҅стъ": 3789,
      "трет": 3790,
      "ѡтро": 3791,
      "##зно": 3792,
      "##нена": 3793,
      "##чено": 3794,
      "##вой": 3795,
      "множество": 3796,
      "і҆е": 3797,
      "дворе": 3798,
      "##щется": 3799,
      "##ури": 3800,
      "нонь": 3801,
      "##щаѧ": 3802,
      "старѣиши": 3803,
      "ов": 3804,
      "##шя": 3805,
      "##доби": 3806,
      "Кто": 3807,
      "##шеи": 3808,
      "##домо": 3809,
      "изы": 3810,
      "бояр": 3811,
      "чере": 3812,
      "##сю": 3813,
      "##чаи": 3814,
      "анто": 3815,
      "ць": 3816,
      "##чъ": 3817,
      "послаша": 3818,
      "проповѣда": 3819,
      "сѵ": 3820,
      "наси": 3821,
      "##вѣшта": 3822,
      "буде": 3823,
      "Пет": 3824,
      "ими": 3825,
      "##штоу": 3826,
      "##снова": 3827,
      "жени": 3828,
      "##шке": 3829,
      "##кро": 3830,
      "##цемь": 3831,
      "##кови": 3832,
      "##вѣе": 3833,
      "зави": 3834,
      "пречи": 3835,
      "ц҃рь": 3836,
      "##дцать": 3837,
      "Ме": 3838,
      "еѵ": 3839,
      "сль": 3840,
      "##ѫтъ": 3841,
      "##ѭтъ": 3842,
      "полю": 3843,
      "когда": 3844,
      "##ныа": 3845,
      "хлѣбъ": 3846,
      "вме": 3847,
      "коню": 3848,
      "моѥ": 3849,
      "бꙑс҃": 3850,
      "которой": 3851,
      "погу": 3852,
      "исцѣ": 3853,
      "корми": 3854,
      "егоже": 3855,
      "##дѧть": 3856,
      "иного": 3857,
      "Михайло": 3858,
      "Лѣ": 3859,
      "обе": 3860,
      "##жди": 3861,
      "пое": 3862,
      "##лови": 3863,
      "##манъ": 3864,
      "##евѣ": 3865,
      "##скꙑи": 3866,
      "вѣрою": 3867,
      "хощеши": 3868,
      "##хва": 3869,
      "допра": 3870,
      "моихъ": 3871,
      "кле": 3872,
      "##комь": 3873,
      "наоу": 3874,
      "жесто": 3875,
      "##мати": 3876,
      "сту": 3877,
      "хот": 3878,
      "грамоте": 3879,
      "идо": 3880,
      "##жы": 3881,
      "поль": 3882,
      "##лося": 3883,
      "томꙋ": 3884,
      "хоу": 3885,
      "##город": 3886,
      "живота": 3887,
      "##строи": 3888,
      "Аже": 3889,
      "юже": 3890,
      "##ѡбра": 3891,
      "##вод": 3892,
      "сич": 3893,
      "животъ": 3894,
      "потому": 3895,
      "Ио": 3896,
      "Ѻ҆": 3897,
      "##ѧлъ": 3898,
      "##тить": 3899,
      "##вести": 3900,
      "стго": 3901,
      "##ховъ": 3902,
      "##сеи": 3903,
      "мак": 3904,
      "родъ": 3905,
      "і҆и҃съ": 3906,
      "Е҆": 3907,
      "##сво": 3908,
      "##рот": 3909,
      "##како": 3910,
      "##шелъ": 3911,
      "вав": 3912,
      "маи": 3913,
      "гнѣвъ": 3914,
      "посредѣ": 3915,
      "҆ѡ": 3916,
      "##ѫще": 3917,
      "новѣ": 3918,
      "господа": 3919,
      "г҃ь": 3920,
      "погѹ": 3921,
      "є҆гоже": 3922,
      "##ымъ": 3923,
      "там": 3924,
      "помощь": 3925,
      "трети": 3926,
      "кланѧ": 3927,
      "##блѧ": 3928,
      "мед": 3929,
      "г҇": 3930,
      "ово": 3931,
      "надъ": 3932,
      "томоу": 3933,
      "##вѣта": 3934,
      "дѣт": 3935,
      "моеи": 3936,
      "сквер": 3937,
      "Егда": 3938,
      "бжь": 3939,
      "##леть": 3940,
      "##ую": 3941,
      "долго": 3942,
      "винова": 3943,
      "грѣха": 3944,
      "государевы": 3945,
      "длъ": 3946,
      "##ква": 3947,
      "##ствомъ": 3948,
      "##бран": 3949,
      "всѧкое": 3950,
      "##идоша": 3951,
      "##шенъ": 3952,
      "воли": 3953,
      "вес": 3954,
      "стал": 3955,
      "ѻ҆чи": 3956,
      "степа": 3957,
      "людье": 3958,
      "кн҃зь": 3959,
      "##дови": 3960,
      "тѣле": 3961,
      "волости": 3962,
      "ху": 3963,
      "ѧзъ": 3964,
      "##стіи": 3965,
      "##енью": 3966,
      "ѻ҆тро": 3967,
      "гсдрь": 3968,
      "члв҃": 3969,
      "можеть": 3970,
      "##чѧ": 3971,
      "##трѧ": 3972,
      "призва": 3973,
      "##творѧ": 3974,
      "пꙋти": 3975,
      "##іемь": 3976,
      "давідъ": 3977,
      "игѹ": 3978,
      "##фь": 3979,
      "##момъ": 3980,
      "потре": 3981,
      "е҇": 3982,
      "##вар": 3983,
      "ходити": 3984,
      "черниго": 3985,
      "весели": 3986,
      "ѕло": 3987,
      "##вки": 3988,
      "##телѧ": 3989,
      "быт": 3990,
      "нашимъ": 3991,
      "словес": 3992,
      "чꙋ": 3993,
      "Ѡ҆": 3994,
      "##ваа": 3995,
      "тово": 3996,
      "##мыи": 3997,
      "##враща": 3998,
      "братіе": 3999,
      "иван": 4000,
      "Добрынюшка": 4001,
      "алеѯан": 4002,
      "ѡв": 4003,
      "҆е҆": 4004,
      "##҄и": 4005,
      "побе": 4006,
      "даша": 4007,
      "волю": 4008,
      "##сали": 4009,
      "Понеже": 4010,
      "государеву": 4011,
      "прпдб": 4012,
      "сме": 4013,
      "реку": 4014,
      "ваш": 4015,
      "бг҃ѹ": 4016,
      "мужь": 4017,
      "с҃то": 4018,
      "ѹго": 4019,
      "напра": 4020,
      "комѹ": 4021,
      "ѻ҆тца": 4022,
      "слезами": 4023,
      "денги": 4024,
      "##коло": 4025,
      "силь": 4026,
      "ихь": 4027,
      "челобитчи": 4028,
      "намь": 4029,
      "городо": 4030,
      "възврати": 4031,
      "знам": 4032,
      "всѧкои": 4033,
      "глеть": 4034,
      "держати": 4035,
      "Бу": 4036,
      "##летъ": 4037,
      "##тію": 4038,
      "##пно": 4039,
      "##ѥмь": 4040,
      "##конь": 4041,
      "врата": 4042,
      "##велъ": 4043,
      "русии": 4044,
      "всяких": 4045,
      "ꙁемл": 4046,
      "##сквер": 4047,
      "Такоже": 4048,
      "бѫдетъ": 4049,
      "Благо": 4050,
      "али": 4051,
      "##ѧ҆": 4052,
      "стори": 4053,
      "##сыпа": 4054,
      "болгар": 4055,
      "црк҃вь": 4056,
      "ио": 4057,
      "ря": 4058,
      "##пѧ": 4059,
      "##ёт": 4060,
      "##вода": 4061,
      "соли": 4062,
      "##ющіи": 4063,
      "т҃": 4064,
      "##тая": 4065,
      "##дели": 4066,
      "##скомъ": 4067,
      "##еное": 4068,
      "буди": 4069,
      "хвали": 4070,
      "повы": 4071,
      "##тин": 4072,
      "##тор": 4073,
      "Господь": 4074,
      "Они": 4075,
      "ч҃": 4076,
      "##ица": 4077,
      "##др": 4078,
      "##шихъ": 4079,
      "вѣкы": 4080,
      "изо": 4081,
      "аже": 4082,
      "зде": 4083,
      "ѡп": 4084,
      "михаила": 4085,
      "всеволодъ": 4086,
      "##ꙗти": 4087,
      "восхо": 4088,
      "##скѫ": 4089,
      "пребы": 4090,
      "руси": 4091,
      "молодец": 4092,
      "##влѣ": 4093,
      "##ꙁда": 4094,
      "##лки": 4095,
      "##ючи": 4096,
      "##хже": 4097,
      "##роч": 4098,
      "тобе": 4099,
      "мона": 4100,
      "просто": 4101,
      "дѣлѧ": 4102,
      "ст҃а": 4103,
      "хощеть": 4104,
      "ок": 4105,
      "граду": 4106,
      "вьси": 4107,
      "кнѧзю": 4108,
      "рѹко": 4109,
      "##кия": 4110,
      "##чат": 4111,
      "пещер": 4112,
      "чада": 4113,
      "людьми": 4114,
      "детей": 4115,
      "иску": 4116,
      "##шена": 4117,
      "##добь": 4118,
      "престо": 4119,
      "прѣсто": 4120,
      "побѣди": 4121,
      "##ченѣ": 4122,
      "Кня": 4123,
      "ѡво": 4124,
      "##дали": 4125,
      "дава": 4126,
      "##оумоу": 4127,
      "ѡ҆стави": 4128,
      "оуби": 4129,
      "##ждѫ": 4130,
      "спра": 4131,
      "оум": 4132,
      "дѣлъ": 4133,
      "людми": 4134,
      "е҆мѹ": 4135,
      "##глъ": 4136,
      "##стѡ": 4137,
      "пріѧ": 4138,
      "нау": 4139,
      "##чера": 4140,
      "є҆лика": 4141,
      "возда": 4142,
      "билъ": 4143,
      "наших": 4144,
      "дѹ": 4145,
      "глаголюще": 4146,
      "изѧславъ": 4147,
      "##нт": 4148,
      "##шимъ": 4149,
      "##исѧ": 4150,
      "##дѧше": 4151,
      "##города": 4152,
      "сердца": 4153,
      "вашихъ": 4154,
      "велети": 4155,
      "ненави": 4156,
      "сва": 4157,
      "##лин": 4158,
      "молод": 4159,
      "##евича": 4160,
      "##пер": 4161,
      "твоя": 4162,
      "##тріа": 4163,
      "п҃": 4164,
      "##сле": 4165,
      "##їа": 4166,
      "колико": 4167,
      "##дове": 4168,
      "##щим": 4169,
      "хрст": 4170,
      "алты": 4171,
      "ꙁѣло": 4172,
      "наче": 4173,
      "нашим": 4174,
      "##плѧ": 4175,
      "##енѣ": 4176,
      "руки": 4177,
      "число": 4178,
      "короле": 4179,
      "добрых": 4180,
      "Муро": 4181,
      "ѡк": 4182,
      "негѡ": 4183,
      "ноги": 4184,
      "##соже": 4185,
      "сѹть": 4186,
      "##ꙁни": 4187,
      "##клю": 4188,
      "##ѡна": 4189,
      "##вом": 4190,
      "дои": 4191,
      "рода": 4192,
      "кунъ": 4193,
      "мꙋжъ": 4194,
      "ст҃ополкъ": 4195,
      "дн": 4196,
      "ѡчи": 4197,
      "##ври": 4198,
      "##ꙁꙑ": 4199,
      "##род": 4200,
      "вѣры": 4201,
      "##бр": 4202,
      "##дохъ": 4203,
      "чети": 4204,
      "##дѧще": 4205,
      "свѣти": 4206,
      "##твѹ": 4207,
      "Ла": 4208,
      "шу": 4209,
      "##тину": 4210,
      "##бож": 4211,
      "просѧ": 4212,
      "##іемъ": 4213,
      "##сподине": 4214,
      "оучени": 4215,
      "г҃и": 4216,
      "Всѧ": 4217,
      "##пса": 4218,
      "полꙋ": 4219,
      "##ловъ": 4220,
      "допря": 4221,
      "гости": 4222,
      "##ставъ": 4223,
      "людех": 4224,
      "дьнь": 4225,
      "Муромец": 4226,
      "подья": 4227,
      "##леніи": 4228,
      "часть": 4229,
      "Болга": 4230,
      "серг": 4231,
      "коуно": 4232,
      "допряма": 4233,
      "##хꙑ": 4234,
      "нечести": 4235,
      "и҆мѣ": 4236,
      "##чит": 4237,
      "##чих": 4238,
      "##гати": 4239,
      "іѡан": 4240,
      "городех": 4241,
      "есь": 4242,
      "ог": 4243,
      "ѕвѣ": 4244,
      "намест": 4245,
      "##пис": 4246,
      "вѣра": 4247,
      "##ныих": 4248,
      "андрѣ": 4249,
      "пріем": 4250,
      "работа": 4251,
      "слъ": 4252,
      "ѯ҃": 4253,
      "##кі": 4254,
      "##вает": 4255,
      "##рую": 4256,
      "пир": 4257,
      "чтоб": 4258,
      "Никити": 4259,
      "грв҃": 4260,
      "##нос": 4261,
      "рабы": 4262,
      "##несе": 4263,
      "варѧ": 4264,
      "господства": 4265,
      "##҃и": 4266,
      "##гыи": 4267,
      "путь": 4268,
      "книги": 4269,
      "монастырь": 4270,
      "еха": 4271,
      "кѫ": 4272,
      "треб": 4273,
      "##ниче": 4274,
      "проч": 4275,
      "вѣрова": 4276,
      "чемъ": 4277,
      "сыщется": 4278,
      "Въꙁ": 4279,
      "раꙁоумѣ": 4280,
      "трапе": 4281,
      "##вꙑи": 4282,
      "##стрѣ": 4283,
      "##хомь": 4284,
      "иванович": 4285,
      "слн": 4286,
      "ею": 4287,
      "поби": 4288,
      "##дилъ": 4289,
      "ѻ҆те": 4290,
      "преподоб": 4291,
      "##шно": 4292,
      "##рка": 4293,
      "нова": 4294,
      "##зира": 4295,
      "имене": 4296,
      "пожалова": 4297,
      "новгородьци": 4298,
      "Де": 4299,
      "а᾿": 4300,
      "пяти": 4301,
      "##вшаго": 4302,
      "##дар": 4303,
      "сыску": 4304,
      "никому": 4305,
      "сребро": 4306,
      "Много": 4307,
      "Ца": 4308,
      "ако": 4309,
      "дарова": 4310,
      "цѣса": 4311,
      "вотчин": 4312,
      "дръжа": 4313,
      "двер": 4314,
      "##ии": 4315,
      "соко": 4316,
      "сиро": 4317,
      "##рѧщ": 4318,
      "крови": 4319,
      "помощи": 4320,
      "водою": 4321,
      "##стин": 4322,
      "сия": 4323,
      "пала": 4324,
      "всѣм": 4325,
      "государ": 4326,
      "твоеѧ": 4327,
      "дш҃а": 4328,
      "лꙋка": 4329,
      "мс҃цѧ": 4330,
      "аꙁъ": 4331,
      "огнь": 4332,
      "саꙋ": 4333,
      "##тых": 4334,
      "есмо": 4335,
      "дву": 4336,
      "##стии": 4337,
      "честь": 4338,
      "##стыню": 4339,
      "послѣд": 4340,
      "федо": 4341,
      "мѡѵсеи": 4342,
      "зѣло": 4343,
      "##лово": 4344,
      "только": 4345,
      "солн": 4346,
      "##чин": 4347,
      "##нул": 4348,
      "##соша": 4349,
      "##скими": 4350,
      "своеѧ": 4351,
      "числа": 4352,
      "г҃ла": 4353,
      "рꙋки": 4354,
      "человѣка": 4355,
      "тоур": 4356,
      "Сла": 4357,
      "##плъ": 4358,
      "##воря": 4359,
      "##ноплем": 4360,
      "##вьі": 4361,
      "Богу": 4362,
      "красно": 4363,
      "##пусти": 4364,
      "рекоша": 4365,
      "##ченъ": 4366,
      "##пі": 4367,
      "прч": 4368,
      "##нихъ": 4369,
      "є҆смь": 4370,
      "##щии": 4371,
      "писати": 4372,
      "мерт": 4373,
      "зме": 4374,
      "тимо": 4375,
      "Видѣ": 4376,
      "кѣ": 4377,
      "сію": 4378,
      "ѳо": 4379,
      "##мотри": 4380,
      "написано": 4381,
      "дха": 4382,
      "юно": 4383,
      "вско": 4384,
      "бывше": 4385,
      "котора": 4386,
      "Рече": 4387,
      "пошлины": 4388,
      "бориса": 4389,
      "блъ": 4390,
      "чоло": 4391,
      "##ках": 4392,
      "##диши": 4393,
      "така": 4394,
      "теле": 4395,
      "имени": 4396,
      "платити": 4397,
      "ды": 4398,
      "##нинъ": 4399,
      "##славь": 4400,
      "гъ": 4401,
      "иск": 4402,
      "##ило": 4403,
      "##ждꙋ": 4404,
      "##дал": 4405,
      "гд҇нѧ": 4406,
      "буй": 4407,
      "авра": 4408,
      "##лете": 4409,
      "поли": 4410,
      "##сья": 4411,
      "нбс": 4412,
      "остро": 4413,
      "ѧко": 4414,
      "иные": 4415,
      "##ныꙗ": 4416,
      "##ньи": 4417,
      "дѣи": 4418,
      "ѡ҆би": 4419,
      "##слѹ": 4420,
      "##славль": 4421,
      "Воз": 4422,
      "всѧкомѹ": 4423,
      "ее": 4424,
      "гд҇емъ": 4425,
      "ци": 4426,
      "##iа": 4427,
      "топерь": 4428,
      "мощ": 4429,
      "##пада": 4430,
      "просвѣ": 4431,
      "слꙑша": 4432,
      "##віи": 4433,
      "##іє": 4434,
      "##гг": 4435,
      "бор": 4436,
      "промы": 4437,
      "##ством": 4438,
      "всѧки": 4439,
      "пути": 4440,
      "##ниа": 4441,
      "##миру": 4442,
      "любѧ": 4443,
      "бꙋдꙋ": 4444,
      "пріидоша": 4445,
      "казак": 4446,
      "жене": 4447,
      "сѡ": 4448,
      "сен": 4449,
      "ѡца": 4450,
      "##нко": 4451,
      "##псва": 4452,
      "наказ": 4453,
      "брани": 4454,
      "вьз": 4455,
      "Раꙁ": 4456,
      "рубль": 4457,
      "ѹже": 4458,
      "малѣ": 4459,
      "челомъ": 4460,
      "полови": 4461,
      "времени": 4462,
      "дꙋма": 4463,
      "деревни": 4464,
      "і҆и҃левыхъ": 4465,
      "мцса": 4466,
      "Ису": 4467,
      "ор": 4468,
      "ѿиде": 4469,
      "##ліѧ": 4470,
      "невиди": 4471,
      "съвѣ": 4472,
      "сии": 4473,
      "жита": 4474,
      "мꙋжа": 4475,
      "суду": 4476,
      "иму": 4477,
      "опа": 4478,
      "##жє": 4479,
      "##ём": 4480,
      "богороди": 4481,
      "сих": 4482,
      "##зывати": 4483,
      "печенѣ": 4484,
      "поидоша": 4485,
      "##ходит": 4486,
      "приказе": 4487,
      "вавѵ": 4488,
      "##ѧше": 4489,
      "##чем": 4490,
      "##лѣн": 4491,
      "вѣдѣ": 4492,
      "а҆н": 4493,
      "своима": 4494,
      "нꙑнѣ": 4495,
      "помещи": 4496,
      "пошел": 4497,
      "костѧ": 4498,
      "рос": 4499,
      "ярославъ": 4500,
      "##лаа": 4501,
      "мати": 4502,
      "##ствовати": 4503,
      "потом": 4504,
      "##против": 4505,
      "пса": 4506,
      "вод": 4507,
      "##твѫ": 4508,
      "лета": 4509,
      "##ление": 4510,
      "своѫ": 4511,
      "прово": 4512,
      "##енья": 4513,
      "##тые": 4514,
      "главы": 4515,
      "час": 4516,
      "##зоша": 4517,
      "менє": 4518,
      "небес": 4519,
      "##шенько": 4520,
      "Сто": 4521,
      "тюр": 4522,
      "хе": 4523,
      "ꙗвѣ": 4524,
      "##бие": 4525,
      "##десѧтъ": 4526,
      "десѧть": 4527,
      "днѣ": 4528,
      "дето": 4529,
      "иных": 4530,
      "##врѣ": 4531,
      "##нимъ": 4532,
      "приказа": 4533,
      "всея": 4534,
      "стоꙗ": 4535,
      "власти": 4536,
      "далече": 4537,
      "Москве": 4538,
      "Его": 4539,
      "##яше": 4540,
      "житіе": 4541,
      "##купи": 4542,
      "##вичю": 4543,
      "священ": 4544,
      "камени": 4545,
      "разумѣ": 4546,
      "##рги": 4547,
      "постра": 4548,
      "стани": 4549,
      "всѧкомъ": 4550,
      "переꙗ": 4551,
      "пꙋть": 4552,
      "казнити": 4553,
      "влд": 4554,
      "крѣпко": 4555,
      "покланѧние": 4556,
      "гю": 4557,
      "##҇в": 4558,
      "пола": 4559,
      "##вии": 4560,
      "раст": 4561,
      "свой": 4562,
      "есмя": 4563,
      "свѧщен": 4564,
      "дв҃дъ": 4565,
      "##крестъ": 4566,
      "цетвер": 4567,
      "пско": 4568,
      "пять": 4569,
      "тко": 4570,
      "ѿпꙋ": 4571,
      "##еве": 4572,
      "##каѧ": 4573,
      "бж҃іѧ": 4574,
      "срд": 4575,
      "глаголати": 4576,
      "вниде": 4577,
      "жє": 4578,
      "##бло": 4579,
      "##ствь": 4580,
      "##волъ": 4581,
      "##етсе": 4582,
      "пришь": 4583,
      "пристав": 4584,
      "##лез": 4585,
      "ᲂу҆бѡ": 4586,
      "полоц": 4587,
      "воиска": 4588,
      "нꙑне": 4589,
      "ꙗ҅коже": 4590,
      "даръ": 4591,
      "прослав": 4592,
      "ѡ҆став": 4593,
      "##ющихъ": 4594,
      "гнѣва": 4595,
      "серебра": 4596,
      "влъ": 4597,
      "ню": 4598,
      "##вова": 4599,
      "въсто": 4600,
      "толи": 4601,
      "##чим": 4602,
      "##жат": 4603,
      "##чати": 4604,
      "##праша": 4605,
      "іс": 4606,
      "створ": 4607,
      "кали": 4608,
      "носи": 4609,
      "чинити": 4610,
      "##слове": 4611,
      "поклон": 4612,
      "пѣс": 4613,
      "дружина": 4614,
      "инъ": 4615,
      "##шено": 4616,
      "##ѹю": 4617,
      "##шася": 4618,
      "послы": 4619,
      "##меръ": 4620,
      "бж҃е": 4621,
      "Ан": 4622,
      "дніи": 4623,
      "божеств": 4624,
      "##чее": 4625,
      "предѣ": 4626,
      "братье": 4627,
      "ᲂу҆го": 4628,
      "правь": 4629,
      "##стеи": 4630,
      "ктомꙋ": 4631,
      "государева": 4632,
      "цр҇тво": 4633,
      "новѣгородѣ": 4634,
      "гне": 4635,
      "црѧ": 4636,
      "ꙁде": 4637,
      "##гло": 4638,
      "##дила": 4639,
      "##димъ": 4640,
      "гд҇ень": 4641,
      "городу": 4642,
      "николи": 4643,
      "Ку": 4644,
      "нбо": 4645,
      "єсть": 4646,
      "##дем": 4647,
      "##чꙋ": 4648,
      "гость": 4649,
      "тебє": 4650,
      "##щати": 4651,
      "##нюю": 4652,
      "братіи": 4653,
      "нашему": 4654,
      "ѡлегъ": 4655,
      "вместо": 4656,
      "игна": 4657,
      "##два": 4658,
      "##чены": 4659,
      "немѹ": 4660,
      "##нит": 4661,
      "и҆хже": 4662,
      "боѧ": 4663,
      "защо": 4664,
      "є҆ще": 4665,
      "##бель": 4666,
      "прѣпо": 4667,
      "такова": 4668,
      "сѣмѧ": 4669,
      "##гьі": 4670,
      "челобит": 4671,
      "соломѡ": 4672,
      "междꙋ": 4673,
      "жеребь": 4674,
      "стольне": 4675,
      "##хсѧ": 4676,
      "##лось": 4677,
      "##ноѥ": 4678,
      "##писи": 4679,
      "##семъ": 4680,
      "##дникъ": 4681,
      "словесъ": 4682,
      "і҆ѡа": 4683,
      "бро": 4684,
      "връ": 4685,
      "##сіа": 4686,
      "##гою": 4687,
      "нар": 4688,
      "##ныѫ": 4689,
      "своꙗ": 4690,
      "##скомꙋ": 4691,
      "свѣть": 4692,
      "радость": 4693,
      "гꙋ": 4694,
      "ѡба": 4695,
      "кога": 4696,
      "ство": 4697,
      "##леніѧ": 4698,
      "злата": 4699,
      "Бл": 4700,
      "аꙁь": 4701,
      "##ченіе": 4702,
      "##жут": 4703,
      "съмѣ": 4704,
      "паде": 4705,
      "преста": 4706,
      "возра": 4707,
      "добродѣ": 4708,
      "##ющаго": 4709,
      "ѡц҃а": 4710,
      "##слыши": 4711,
      "двь": 4712,
      "фили": 4713,
      "ӏ҃": 4714,
      "##нкъ": 4715,
      "доса": 4716,
      "заха": 4717,
      "##сом": 4718,
      "единого": 4719,
      "друга": 4720,
      "##нꙑи҅": 4721,
      "Ꙗ҆ко": 4722,
      "киевской": 4723,
      "мръ": 4724,
      "##ѳе": 4725,
      "приво": 4726,
      "##жали": 4727,
      "батю": 4728,
      "жво": 4729,
      "вса": 4730,
      "моꙗ": 4731,
      "##въши": 4732,
      "бѹдеть": 4733,
      "кну": 4734,
      "крт": 4735,
      "##тву": 4736,
      "##нин": 4737,
      "сие": 4738,
      "стало": 4739,
      "спас": 4740,
      "почто": 4741,
      "заповѣди": 4742,
      "##свѧ": 4743,
      "##мсѧ": 4744,
      "лихо": 4745,
      "възѧ": 4746,
      "Дѣ": 4747,
      "иду": 4748,
      "##вр": 4749,
      "##іо": 4750,
      "##ствъ": 4751,
      "##мь҆": 4752,
      "рѣза": 4753,
      "возь": 4754,
      "стефа": 4755,
      "татар": 4756,
      "наза": 4757,
      "сел": 4758,
      "##поста": 4759,
      "мꙋжеи": 4760,
      "смерть": 4761,
      "старца": 4762,
      "здоро": 4763,
      "ока": 4764,
      "##слаб": 4765,
      "всегды": 4766,
      "своѥму": 4767,
      "врѣмѧ": 4768,
      "пр҇ро": 4769,
      "є҆гѵпет": 4770,
      "женою": 4771,
      "оно": 4772,
      "##зер": 4773,
      "##меть": 4774,
      "възь": 4775,
      "отдати": 4776,
      "передъ": 4777,
      "мꙋжіе": 4778,
      "##а҆ше": 4779,
      "Соло": 4780,
      "Чури": 4781,
      "##діа": 4782,
      "##варь": 4783,
      "восто": 4784,
      "##стомъ": 4785,
      "вѣрѣ": 4786,
      "такожде": 4787,
      "ивано": 4788,
      "кр҇": 4789,
      "Садке": 4790,
      "і҆и҃лєвы": 4791,
      "нес": 4792,
      "##вит": 4793,
      "##вичи": 4794,
      "вещь": 4795,
      "жили": 4796,
      "погреб": 4797,
      "ꙁемлю": 4798,
      "Раз": 4799,
      "лука": 4800,
      "ества": 4801,
      "порѧ": 4802,
      "є҆и": 4803,
      "црю": 4804,
      "##бь҆": 4805,
      "перея": 4806,
      "мьстиславъ": 4807,
      "аз": 4808,
      "дше": 4809,
      "ѕла": 4810,
      "##арѡ": 4811,
      "сохрани": 4812,
      "будетъ": 4813,
      "##ступа": 4814,
      "смы": 4815,
      "##ненъ": 4816,
      "##тинъ": 4817,
      "##вана": 4818,
      "##тьи": 4819,
      "собе": 4820,
      "##чаю": 4821,
      "прѣста": 4822,
      "молити": 4823,
      "исповѣда": 4824,
      "можетъ": 4825,
      "внѣ": 4826,
      "##гом": 4827,
      "##лина": 4828,
      "##ваи": 4829,
      "##ников": 4830,
      "брат҃": 4831,
      "противꙋ": 4832,
      "посад": 4833,
      "боудеть": 4834,
      "е҅": 4835,
      "чо": 4836,
      "воспо": 4837,
      "ѻ҆лта": 4838,
      "скво": 4839,
      "церковь": 4840,
      "больши": 4841,
      "҆же": 4842,
      "##ꙁꙋ": 4843,
      "поче": 4844,
      "##жие": 4845,
      "полоу": 4846,
      "##ютсѧ": 4847,
      "глть": 4848,
      "хре": 4849,
      "##ꙁоу": 4850,
      "##їемъ": 4851,
      "полага": 4852,
      "##еме": 4853,
      "жив": 4854,
      "##стые": 4855,
      "печ": 4856,
      "плоть": 4857,
      "##трен": 4858,
      "ѡ҆бла": 4859,
      "крестьяне": 4860,
      "асѣ": 4861,
      "азь": 4862,
      "хы": 4863,
      "##ѡмъ": 4864,
      "поѧ": 4865,
      "##кове": 4866,
      "речи": 4867,
      "предъ": 4868,
      "девѧ": 4869,
      "##леніа": 4870,
      "церков": 4871,
      "немже": 4872,
      "впере": 4873,
      "##чн҃": 4874,
      "прв": 4875,
      "##ваеть": 4876,
      "тогива": 4877,
      "##шесѧ": 4878,
      "##домь": 4879,
      "##въша": 4880,
      "##ль҆": 4881,
      "своем": 4882,
      "бѧхꙋ": 4883,
      "приведе": 4884,
      "богатыр": 4885,
      "мсца": 4886,
      "впре": 4887,
      "##нⸯ": 4888,
      "##бі": 4889,
      "неде": 4890,
      "силѣ": 4891,
      "тек": 4892,
      "различ": 4893,
      "леѵ": 4894,
      "женѹ": 4895,
      "цркв": 4896,
      "##дят": 4897,
      "##ꙿно": 4898,
      "##горѣ": 4899,
      "заложи": 4900,
      "миро": 4901,
      "возвѣсти": 4902,
      "ризы": 4903,
      "тꙋр": 4904,
      "##ванге": 4905,
      "искати": 4906,
      "Писа": 4907,
      "нє": 4908,
      "##ѧсѧ": 4909,
      "на҇": 4910,
      "##дость": 4911,
      "ѡ҆крестъ": 4912,
      "тѣла": 4913,
      "##сыла": 4914,
      "##ющꙋ": 4915,
      "около": 4916,
      "кеса": 4917,
      "послѹша": 4918,
      "дары": 4919,
      "приноси": 4920,
      "стали": 4921,
      "б҃у": 4922,
      "блага": 4923,
      "вотчину": 4924,
      "ц҃р": 4925,
      "і҆и҃левъ": 4926,
      "дмитре": 4927,
      "вну": 4928,
      "иди": 4929,
      "##нему": 4930,
      "##ср": 4931,
      "насто": 4932,
      "белы": 4933,
      "липсва": 4934,
      "##дь҆": 4935,
      "великыи": 4936,
      "возложи": 4937,
      "тѣм": 4938,
      "мѹжь": 4939,
      "гроба": 4940,
      "Жи": 4941,
      "##ꙋмѣ": 4942,
      "##гни": 4943,
      "и҆сп": 4944,
      "своє": 4945,
      "##ховь": 4946,
      "беꙁа": 4947,
      "##ствен": 4948,
      "монастыря": 4949,
      "вашего": 4950,
      "##таа": 4951,
      "##леши": 4952,
      "совѣ": 4953,
      "а҆арѡ": 4954,
      "землѣ": 4955,
      "тыи": 4956,
      "объя": 4957,
      "ѡна": 4958,
      "##ана": 4959,
      "наа": 4960,
      "##лѣхъ": 4961,
      "врагъ": 4962,
      "покои": 4963,
      "стыи": 4964,
      "прпбнаго": 4965,
      "Пер": 4966,
      "кіи": 4967,
      "семꙋ": 4968,
      "##что": 4969,
      "проча": 4970,
      "##житъ": 4971,
      "сил": 4972,
      "хоте": 4973,
      "славѣ": 4974,
      "ст҃ыи": 4975,
      "і҆ер҇лимѣ": 4976,
      "вавѵлѡ": 4977,
      "исте": 4978,
      "игра": 4979,
      "помѧ": 4980,
      "тоя": 4981,
      "##вѣи": 4982,
      "нѣтъ": 4983,
      "бл҃жен": 4984,
      "##ходил": 4985,
      "##полка": 4986,
      "вотчина": 4987,
      "народъ": 4988,
      "дх҃ов": 4989,
      "нед": 4990,
      "въско": 4991,
      "##дела": 4992,
      "##сов": 4993,
      "##мера": 4994,
      "сыи": 4995,
      "цр҃к": 4996,
      "погѹб": 4997,
      "Ско": 4998,
      "ѡбо": 4999,
      "##лв": 5000,
      "##глаго": 5001,
      "##пла": 5002,
      "живъ": 5003,
      "радости": 5004,
      "Владимиру": 5005,
      "михаило": 5006,
      "глубо": 5007,
      "Ѡн": 5008,
      "##дры": 5009,
      "##нець": 5010,
      "сиби": 5011,
      "црт҇": 5012,
      "князи": 5013,
      "скобе": 5014,
      "помощ": 5015,
      "ꙁы": 5016,
      "##нца": 5017,
      "##к҃": 5018,
      "##тна": 5019,
      "дочь": 5020,
      "домы": 5021,
      "мой": 5022,
      "##нѣе": 5023,
      "##выми": 5024,
      "пиру": 5025,
      "##твръ": 5026,
      "Говорил": 5027,
      "Фе": 5028,
      "ща": 5029,
      "ѡгнь": 5030,
      "##рє": 5031,
      "нощ": 5032,
      "##нути": 5033,
      "Под": 5034,
      "Защо": 5035,
      "вотчинни": 5036,
      "##ч҃е": 5037,
      "Гу": 5038,
      "ели": 5039,
      "сно": 5040,
      "ѡка": 5041,
      "наꙋ": 5042,
      "тобо": 5043,
      "събо": 5044,
      "сосꙋ": 5045,
      "##уду": 5046,
      "всѣволо": 5047,
      "суде": 5048,
      "##городу": 5049,
      "моимъ": 5050,
      "тѫ": 5051,
      "троу": 5052,
      "ѥсмь": 5053,
      "##ѧли": 5054,
      "##ꙋм": 5055,
      "##хри": 5056,
      "дали": 5057,
      "вѣро": 5058,
      "лицемъ": 5059,
      "мечь": 5060,
      "другу": 5061,
      "цр҃ь": 5062,
      "потомъ": 5063,
      "ꙁо": 5064,
      "##з҃": 5065,
      "##вли": 5066,
      "##ріе": 5067,
      "##чко": 5068,
      "##нили": 5069,
      "затвори": 5070,
      "велицѣ": 5071,
      "гд҇еви": 5072,
      "Вели": 5073,
      "##говорит": 5074,
      "кі": 5075,
      "убы": 5076,
      "##четь": 5077,
      "##гнꙋ": 5078,
      "помѣ": 5079,
      "##мьі": 5080,
      "сади": 5081,
      "нихже": 5082,
      "сынѡмъ": 5083,
      "Стра": 5084,
      "еда": 5085,
      "ини": 5086,
      "ука": 5087,
      "##нтъ": 5088,
      "##сіи": 5089,
      "##хꙿ": 5090,
      "насла": 5091,
      "нево": 5092,
      "##бить": 5093,
      "##ениѥ": 5094,
      "мики": 5095,
      "вѣки": 5096,
      "Посла": 5097,
      "##прак": 5098,
      "##тую": 5099,
      "лебе": 5100,
      "тъкмо": 5101,
      "семоу": 5102,
      "кꙋп": 5103,
      "серебро": 5104,
      "младен": 5105,
      "осо": 5106,
      "##ловати": 5107,
      "##рове": 5108,
      "дак": 5109,
      "##мор": 5110,
      "стꙑ": 5111,
      "##чески": 5112,
      "##мѣхъ": 5113,
      "бѣло": 5114,
      "полѹ": 5115,
      "##цовъ": 5116,
      "духов": 5117,
      "сотвориша": 5118,
      "рубля": 5119,
      "##и҅мъ": 5120,
      "гсдрю": 5121,
      "архие": 5122,
      "Христос": 5123,
      "обь": 5124,
      "неб": 5125,
      "боꙗ": 5126,
      "твоемꙋ": 5127,
      "а҆ки": 5128,
      "сыны": 5129,
      "возо": 5130,
      "дѡ": 5131,
      "рѡ": 5132,
      "коле": 5133,
      "патріа": 5134,
      "мать": 5135,
      "бѣша": 5136,
      "прѣд": 5137,
      "учинити": 5138,
      "посъла": 5139,
      "оти": 5140,
      "сли": 5141,
      "яви": 5142,
      "##ꙁѧ": 5143,
      "##мⸯ": 5144,
      "##пта": 5145,
      "##сть҆": 5146,
      "пав": 5147,
      "##луи": 5148,
      "##г҃о": 5149,
      "красо": 5150,
      "мужа": 5151,
      "а҆гг҃": 5152,
      "щь": 5153,
      "##кори": 5154,
      "тога": 5155,
      "сташа": 5156,
      "##скаꙗ": 5157,
      "писал": 5158,
      "ѥ҅же": 5159,
      "доправити": 5160,
      "гы": 5161,
      "мнѧ": 5162,
      "##лію": 5163,
      "##ѥва": 5164,
      "##рами": 5165,
      "##лась": 5166,
      "##лости": 5167,
      "##ток": 5168,
      "##мое": 5169,
      "##скьі": 5170,
      "пад": 5171,
      "мног": 5172,
      "ᲂу҆мре": 5173,
      "истинѣ": 5174,
      "отпусти": 5175,
      "##анъ": 5176,
      "##лица": 5177,
      "##томь": 5178,
      "присъ": 5179,
      "мори": 5180,
      "изволи": 5181,
      "бжіи": 5182,
      "мѹжа": 5183,
      "стоит": 5184,
      "##фѣ": 5185,
      "прше": 5186,
      "премꙋ": 5187,
      "##неши": 5188,
      "прош": 5189,
      "болгарски": 5190,
      "головы": 5191,
      "цра": 5192,
      "##одо": 5193,
      "##сꙑ": 5194,
      "##ος": 5195,
      "год": 5196,
      "тать": 5197,
      "##бил": 5198,
      "великую": 5199,
      "вьс": 5200,
      "ѹм": 5201,
      "##немо": 5202,
      "приходѧ": 5203,
      "теми": 5204,
      "поставиша": 5205,
      "положиша": 5206,
      "фари": 5207,
      "взял": 5208,
      "и҆ноплем": 5209,
      "доста": 5210,
      "прилѣ": 5211,
      "##дѣть": 5212,
      "вѣрѹ": 5213,
      "множа": 5214,
      "##енаго": 5215,
      "страха": 5216,
      "ѻ҆в": 5217,
      "##ющѹ": 5218,
      "##вшꙋ": 5219,
      "посади": 5220,
      "женꙋ": 5221,
      "врѣме": 5222,
      "##діи": 5223,
      "##міа": 5224,
      "##ниде": 5225,
      "тою": 5226,
      "бесп": 5227,
      "##тѣхъ": 5228,
      "##зии": 5229,
      "первое": 5230,
      "всѧкого": 5231,
      "##множи": 5232,
      "хитро": 5233,
      "##жение": 5234,
      "##ницю": 5235,
      "дом": 5236,
      "приим": 5237,
      "приспѣ": 5238,
      "##рѣти": 5239,
      "ноу": 5240,
      "##ении": 5241,
      "вьсь": 5242,
      "Дани": 5243,
      "##ныихъ": 5244,
      "части": 5245,
      "покори": 5246,
      "памяти": 5247,
      "послоуша": 5248,
      "##тіи": 5249,
      "##горе": 5250,
      "нею": 5251,
      "проме": 5252,
      "ходѧ": 5253,
      "##слꙋ": 5254,
      "ꙁаповѣ": 5255,
      "рѣхъ": 5256,
      "##ꙑи҆": 5257,
      "і҆ꙋди": 5258,
      "похвали": 5259,
      "Дю": 5260,
      "вре": 5261,
      "кѵ": 5262,
      "ѡбь": 5263,
      "синё": 5264,
      "видѣхъ": 5265,
      "##ствіе": 5266,
      "коробь": 5267,
      "смерт": 5268,
      "вьсѣхъ": 5269,
      "слыши": 5270,
      "Князь": 5271,
      "А᾿": 5272,
      "Есть": 5273,
      "хле": 5274,
      "##нц": 5275,
      "порѹ": 5276,
      "##каго": 5277,
      "##лѣдъ": 5278,
      "##твою": 5279,
      "##тѣи": 5280,
      "страхъ": 5281,
      "лосо": 5282,
      "##нѫѭ": 5283,
      "плоти": 5284,
      "дрꙋга": 5285,
      "вороти": 5286,
      "новъгородъ": 5287,
      "ѿ҃": 5288,
      "##зѹ": 5289,
      "##хе": 5290,
      "##ждъ": 5291,
      "##риа": 5292,
      "##шаѧ": 5293,
      "симь": 5294,
      "ᲂу҆слыша": 5295,
      "бж҇": 5296,
      "постри": 5297,
      "##еру": 5298,
      "бож": 5299,
      "моемꙋ": 5300,
      "деи": 5301,
      "множьство": 5302,
      "дворо": 5303,
      "рѣчи": 5304,
      "крести": 5305,
      "##дника": 5306,
      "і҆и҃лѧ": 5307,
      "ѳедо": 5308,
      "сичкы": 5309,
      "ꙋ҆": 5310,
      "погоу": 5311,
      "неп": 5312,
      "невѣр": 5313,
      "##кама": 5314,
      "##веди": 5315,
      "##жите": 5316,
      "Баты": 5317,
      "жръ": 5318,
      "яз": 5319,
      "ѡг": 5320,
      "##ью": 5321,
      "и҆мꙋ": 5322,
      "низ": 5323,
      "##ньскы": 5324,
      "пан": 5325,
      "безбож": 5326,
      "братіѧ": 5327,
      "пусти": 5328,
      "кнутом": 5329,
      "сн": 5330,
      "фро": 5331,
      "##воро": 5332,
      "##лой": 5333,
      "бои": 5334,
      "боро": 5335,
      "##може": 5336,
      "беꙁъ": 5337,
      "праꙁ": 5338,
      "странѣ": 5339,
      "##ступ": 5340,
      "трех": 5341,
      "подобаетъ": 5342,
      "##ꙙтъ": 5343,
      "##льца": 5344,
      "сътво": 5345,
      "деле": 5346,
      "пища": 5347,
      "погрѣ": 5348,
      "сотворити": 5349,
      "мнѡга": 5350,
      "печали": 5351,
      "фра": 5352,
      "пова": 5353,
      "копь": 5354,
      "##вый": 5355,
      "поити": 5356,
      "тъи": 5357,
      "дрꙋго": 5358,
      "і҆акѡ": 5359,
      "бгѹ": 5360,
      "гру": 5361,
      "##ꙁѫ": 5362,
      "##юри": 5363,
      "##повѣда": 5364,
      "сидит": 5365,
      "пас": 5366,
      "##лую": 5367,
      "блѹ": 5368,
      "дия": 5369,
      "словеси": 5370,
      "бѹдѹ": 5371,
      "Владимира": 5372,
      "Пра": 5373,
      "р҃": 5374,
      "##нїе": 5375,
      "##нич": 5376,
      "богоу": 5377,
      "##нецъ": 5378,
      "съпа": 5379,
      "какѡ": 5380,
      "слобо": 5381,
      "часъ": 5382,
      "волосте": 5383,
      "мур": 5384,
      "тьчію": 5385,
      "а҅ште": 5386,
      "помꙑ": 5387,
      "ѡц҃ь": 5388,
      "деревня": 5389,
      "братьею": 5390,
      "ей": 5391,
      "оца": 5392,
      "пѧти": 5393,
      "##ям": 5394,
      "пой": 5395,
      "##тьѧ": 5396,
      "##меши": 5397,
      "##скати": 5398,
      "і҆и": 5399,
      "говорит": 5400,
      "Господи": 5401,
      "никакоже": 5402,
      "Моло": 5403,
      "##еш": 5404,
      "##мено": 5405,
      "##гле": 5406,
      "##ѹ҆": 5407,
      "сотво": 5408,
      "столѣ": 5409,
      "господинъ": 5410,
      "близ": 5411,
      "дружиною": 5412,
      "алексан": 5413,
      "##ꙁѹ": 5414,
      "##л҄": 5415,
      "сиꙗ": 5416,
      "река": 5417,
      "бесер": 5418,
      "##дръжа": 5419,
      "идоша": 5420,
      "схо": 5421,
      "##всѧ": 5422,
      "##євъ": 5423,
      "##ѕа": 5424,
      "дан": 5425,
      "##рию": 5426,
      "##рить": 5427,
      "имаши": 5428,
      "которои": 5429,
      "детем": 5430,
      "Олё": 5431,
      "ѹбѡ": 5432,
      "##имь": 5433,
      "поехал": 5434,
      "##кому": 5435,
      "прет": 5436,
      "непри": 5437,
      "##нитъ": 5438,
      "прибѣ": 5439,
      "##чил": 5440,
      "прель": 5441,
      "Богороди": 5442,
      "##град": 5443,
      "товаръ": 5444,
      "принес": 5445,
      "лвкъ": 5446,
      "ѡже": 5447,
      "##ѡб": 5448,
      "##никь": 5449,
      "##товъ": 5450,
      "прое": 5451,
      "##чеи": 5452,
      "##билъ": 5453,
      "носѧ": 5454,
      "меч": 5455,
      "повели": 5456,
      "древ": 5457,
      "днесь": 5458,
      "внегда": 5459,
      "Алексан": 5460,
      "Свѣ": 5461,
      "##нє": 5462,
      "##стръ": 5463,
      "несъ": 5464,
      "коп": 5465,
      "вещ": 5466,
      "прѣстави": 5467,
      "возлюби": 5468,
      "Наста": 5469,
      "възда": 5470,
      "дꙋша": 5471,
      "доуша": 5472,
      "і҆ер҇лимъ": 5473,
      "##ꙗко": 5474,
      "восп": 5475,
      "##жать": 5476,
      "вѣроу": 5477,
      "болши": 5478,
      "времена": 5479,
      "хлѣба": 5480,
      "ю҆же": 5481,
      "тысѧщъ": 5482,
      "##зли": 5483,
      "##рꙗ": 5484,
      "##дии": 5485,
      "рекꙋ": 5486,
      "##тѣша": 5487,
      "##зима": 5488,
      "ѥгоже": 5489,
      "рим": 5490,
      "вдо": 5491,
      "лѫ": 5492,
      "мрь": 5493,
      "ѧзо": 5494,
      "##сма": 5495,
      "костан": 5496,
      "молю": 5497,
      "##дѣхъ": 5498,
      "##лѧти": 5499,
      "стаго": 5500,
      "король": 5501,
      "ꙁемлѧ": 5502,
      "пришелъ": 5503,
      "немощ": 5504,
      "Ин": 5505,
      "Слыша": 5506,
      "Че": 5507,
      "тіи": 5508,
      "##омъ": 5509,
      "##роди": 5510,
      "##него": 5511,
      "всею": 5512,
      "дѣломъ": 5513,
      "ѡ҆бѣ": 5514,
      "##славли": 5515,
      "скажут": 5516,
      "ближ": 5517,
      "взѧша": 5518,
      "##стꙋп": 5519,
      "##скꙋю": 5520,
      "Лу": 5521,
      "олта": 5522,
      "##ель": 5523,
      "##внѣ": 5524,
      "##щение": 5525,
      "##сви": 5526,
      "дамъ": 5527,
      "##весели": 5528,
      "оустро": 5529,
      "ꙗ҆ро": 5530,
      "глава": 5531,
      "чюдеса": 5532,
      "творитъ": 5533,
      "пꙋсти": 5534,
      "##дрость": 5535,
      "##волно": 5536,
      "Азъ": 5537,
      "Ибо": 5538,
      "жень": 5539,
      "это": 5540,
      "ѡколо": 5541,
      "ѥмоу": 5542,
      "##гмен": 5543,
      "##лами": 5544,
      "нев": 5545,
      "колко": 5546,
      "довед": 5547,
      "прие": 5548,
      "съблю": 5549,
      "казни": 5550,
      "преи": 5551,
      "##ениꙗ": 5552,
      "##ждаше": 5553,
      "##телꙗ": 5554,
      "розбой": 5555,
      "##рг": 5556,
      "наѧ": 5557,
      "##номь": 5558,
      "##дех": 5559,
      "домѹ": 5560,
      "твоему": 5561,
      "##ружь": 5562,
      "места": 5563,
      "великою": 5564,
      "пошлин": 5565,
      "глаголетъ": 5566,
      "памѧть": 5567,
      "вꙿ": 5568,
      "еписко": 5569,
      "##щє": 5570,
      "##гри": 5571,
      "рау": 5572,
      "##скоу": 5573,
      "##скомѹ": 5574,
      "вины": 5575,
      "##сѣи": 5576,
      "послалъ": 5577,
      "благочести": 5578,
      "г҃лѭ": 5579,
      "##десят": 5580,
      "дро": 5581,
      "идѣже": 5582,
      "хлеб": 5583,
      "##стри": 5584,
      "расто": 5585,
      "##пита": 5586,
      "чинов": 5587,
      "плати": 5588,
      "други": 5589,
      "дꙋшꙋ": 5590,
      "ꙁемли": 5591,
      "##дрости": 5592,
      "##шна": 5593,
      "##рⸯ": 5594,
      "##ου": 5595,
      "##точ": 5596,
      "##намъ": 5597,
      "даны": 5598,
      "твоѥ": 5599,
      "самь": 5600,
      "лиць": 5601,
      "сыро": 5602,
      "меся": 5603,
      "сѹща": 5604,
      "і҆и҃ль": 5605,
      "с҃нъ": 5606,
      "##правда": 5607,
      "взѧти": 5608,
      "гсдр": 5609,
      "Тѣмже": 5610,
      "москвѣ": 5611,
      "съмрь": 5612,
      "Ле": 5613,
      "##нки": 5614,
      "##где": 5615,
      "##ѕи": 5616,
      "пря": 5617,
      "##надесѧть": 5618,
      "##шею": 5619,
      "мирь": 5620,
      "видѧ": 5621,
      "и҅же": 5622,
      "безо": 5623,
      "##щеніа": 5624,
      "дѣлати": 5625,
      "є҆дино": 5626,
      "древо": 5627,
      "##ѥ҅мъ": 5628,
      "помысли": 5629,
      "женъ": 5630,
      "ква": 5631,
      "сръ": 5632,
      "##рха": 5633,
      "##мета": 5634,
      "##хⸯ": 5635,
      "##нѫѧ": 5636,
      "нашегѡ": 5637,
      "##ѥ҅тъ": 5638,
      "чл҃къ": 5639,
      "коней": 5640,
      "пригоже": 5641,
      "ꙁлато": 5642,
      "королевич": 5643,
      "Иван": 5644,
      "аль": 5645,
      "насы": 5646,
      "оуч": 5647,
      "великіи": 5648,
      "прѣже": 5649,
      "црство": 5650,
      "пеа": 5651,
      "дворов": 5652,
      "##нꙑѧ": 5653,
      "молодца": 5654,
      "игумен": 5655,
      "аминь": 5656,
      "сокрꙋ": 5657,
      "Ны": 5658,
      "ьто": 5659,
      "яв": 5660,
      "##шть": 5661,
      "##гль": 5662,
      "поꙁна": 5663,
      "въси": 5664,
      "ком": 5665,
      "моѥго": 5666,
      "рожь": 5667,
      "##закон": 5668,
      "чиста": 5669,
      "гласа": 5670,
      "бꙑва": 5671,
      "благослови": 5672,
      "помина": 5673,
      "велѣлъ": 5674,
      "манастꙑ": 5675,
      "Сѣ": 5676,
      "сю": 5677,
      "умер": 5678,
      "хрт": 5679,
      "ꙁь": 5680,
      "##дны": 5681,
      "##҆мъ": 5682,
      "##імъ": 5683,
      "поба": 5684,
      "##ену": 5685,
      "неве": 5686,
      "бобы": 5687,
      "измѣ": 5688,
      "стати": 5689,
      "вид": 5690,
      "дев": 5691,
      "##дума": 5692,
      "##ꙑихъ": 5693,
      "святаго": 5694,
      "##анна": 5695,
      "никого": 5696,
      "##вшю": 5697,
      "грци": 5698,
      "сторону": 5699,
      "наказание": 5700,
      "поте": 5701,
      "непрѣ": 5702,
      "и҆сти": 5703,
      "даст": 5704,
      "приима": 5705,
      "##выя": 5706,
      "мирѣ": 5707,
      "ᲂу҆пова": 5708,
      "гль": 5709,
      "гсь": 5710,
      "недѣ": 5711,
      "дать": 5712,
      "##левъ": 5713,
      "оувѣ": 5714,
      "ѡ҆чи": 5715,
      "ѡ҆пол": 5716,
      "свꙙ": 5717,
      "доброго": 5718,
      "##кѹю": 5719,
      "##печа": 5720,
      "##цкои": 5721,
      "Христа": 5722,
      "соломо": 5723,
      "ѡбихо": 5724,
      "Оу҆": 5725,
      "опри": 5726,
      "сему": 5727,
      "ѥди": 5728,
      "##нче": 5729,
      "##мрь": 5730,
      "##четъ": 5731,
      "пріа": 5732,
      "##раи": 5733,
      "##дивъ": 5734,
      "раби": 5735,
      "##шисѧ": 5736,
      "оумѣ": 5737,
      "вѣси": 5738,
      "вседержи": 5739,
      "цртво": 5740,
      "подра": 5741,
      "##слоу": 5742,
      "сꙋдъ": 5743,
      "нашеи": 5744,
      "сп҇": 5745,
      "бояре": 5746,
      "сотвориши": 5747,
      "королев": 5748,
      "Сам": 5749,
      "##гласи": 5750,
      "рыда": 5751,
      "Сице": 5752,
      "народа": 5753,
      "недостои": 5754,
      "ответчик": 5755,
      "нꙋ": 5756,
      "пор": 5757,
      "##миръ": 5758,
      "##скіе": 5759,
      "роду": 5760,
      "стадо": 5761,
      "##нѧѧ": 5762,
      "тихо": 5763,
      "мѣсте": 5764,
      "гали": 5765,
      "двена": 5766,
      "племя": 5767,
      "ничто": 5768,
      "алек": 5769,
      "вторы": 5770,
      "ины": 5771,
      "##ꙿже": 5772,
      "##брѧ": 5773,
      "немоу": 5774,
      "##вала": 5775,
      "##ниша": 5776,
      "въмѣ": 5777,
      "##рит": 5778,
      "престав": 5779,
      "прѣль": 5780,
      "столъ": 5781,
      "славꙋ": 5782,
      "власте": 5783,
      "кабалы": 5784,
      "християн": 5785,
      "кіиждо": 5786,
      "дхъ": 5787,
      "указа": 5788,
      "##ати": 5789,
      "##ѡвъ": 5790,
      "##гово": 5791,
      "надоб": 5792,
      "##вавъ": 5793,
      "съмь": 5794,
      "##чить": 5795,
      "сию": 5796,
      "избави": 5797,
      "пꙋстыни": 5798,
      "гривна": 5799,
      "гробъ": 5800,
      "вѡ": 5801,
      "врь": 5802,
      "вкꙋ": 5803,
      "##лат": 5804,
      "тоѧ": 5805,
      "водѣ": 5806,
      "##саа": 5807,
      "##дъше": 5808,
      "##спе": 5809,
      "послати": 5810,
      "богат": 5811,
      "мѹжѹ": 5812,
      "близь": 5813,
      "языкъ": 5814,
      "новгородци": 5815,
      "##кве": 5816,
      "##юсѧ": 5817,
      "##тии": 5818,
      "конѧ": 5819,
      "##ению": 5820,
      "##пиша": 5821,
      "##совъ": 5822,
      "чтобъ": 5823,
      "славѧ": 5824,
      "хваста": 5825,
      "стѣны": 5826,
      "почита": 5827,
      "свѣтло": 5828,
      "##ѫща": 5829,
      "##ванъ": 5830,
      "вслѣдъ": 5831,
      "##чие": 5832,
      "##любо": 5833,
      "вашъ": 5834,
      "твоих": 5835,
      "##хꙋсѧ": 5836,
      "муже": 5837,
      "віно": 5838,
      "матушка": 5839,
      "чюдотворца": 5840,
      "Она": 5841,
      "Обо": 5842,
      "##тря": 5843,
      "##вола": 5844,
      "нарѧ": 5845,
      "горь": 5846,
      "##шить": 5847,
      "кад": 5848,
      "бела": 5849,
      "тѧж": 5850,
      "смотри": 5851,
      "створити": 5852,
      "Гро": 5853,
      "##щѧ": 5854,
      "##рво": 5855,
      "##бни": 5856,
      "воров": 5857,
      "земле": 5858,
      "рѣцѣ": 5859,
      "исцу": 5860,
      "благовѣ": 5861,
      "творить": 5862,
      "сътворити": 5863,
      "рѹкодѣ": 5864,
      "новагорода": 5865,
      "один": 5866,
      "##рма": 5867,
      "##ѫщи": 5868,
      "тотъ": 5869,
      "воп": 5870,
      "##рець": 5871,
      "##ней": 5872,
      "##ньіи": 5873,
      "деви": 5874,
      "##ніемь": 5875,
      "неиз": 5876,
      "испол": 5877,
      "о҄убо": 5878,
      "идет": 5879,
      "и҆схо": 5880,
      "доспѣ": 5881,
      "##чаше": 5882,
      "##паде": 5883,
      "##чью": 5884,
      "рѣка": 5885,
      "раꙁѹмѣ": 5886,
      "грамот": 5887,
      "млсти": 5888,
      "плот": 5889,
      "сорок": 5890,
      "Гла": 5891,
      "##свѣ": 5892,
      "поя": 5893,
      "##дале": 5894,
      "##стить": 5895,
      "оуста": 5896,
      "бывши": 5897,
      "##сова": 5898,
      "Пове": 5899,
      "##слꙑ": 5900,
      "лодь": 5901,
      "слѹж": 5902,
      "племене": 5903,
      "пророкъ": 5904,
      "фараѡ": 5905,
      "ѿню": 5906,
      "##ѫть": 5907,
      "намо": 5908,
      "и҆скꙋ": 5909,
      "давать": 5910,
      "##кая": 5911,
      "##вите": 5912,
      "##въꙁ": 5913,
      "##бива": 5914,
      "словомъ": 5915,
      "храмъ": 5916,
      "дх҃а": 5917,
      "вере": 5918,
      "ѡл": 5919,
      "##денъ": 5920,
      "##ꙿто": 5921,
      "##дик": 5922,
      "приѣха": 5923,
      "гон": 5924,
      "вез": 5925,
      "всесо": 5926,
      "о҅ть҆": 5927,
      "##итесѧ": 5928,
      "хлѣбы": 5929,
      "доуше": 5930,
      "никако": 5931,
      "корабль": 5932,
      "Глаго": 5933,
      "еванге": 5934,
      "ѕѣло": 5935,
      "##рковь": 5936,
      "##рие": 5937,
      "##мова": 5938,
      "моря": 5939,
      "##пом": 5940,
      "стѹ": 5941,
      "##гами": 5942,
      "пакь": 5943,
      "твой": 5944,
      "телес": 5945,
      "вселен": 5946,
      "двою": 5947,
      "дворѣ": 5948,
      "городы": 5949,
      "бѫдѫ": 5950,
      "##іі": 5951,
      "##кши": 5952,
      "наса": 5953,
      "##рью": 5954,
      "##бами": 5955,
      "##цѣмъ": 5956,
      "полове": 5957,
      "тър": 5958,
      "дьсѧ": 5959,
      "коунъ": 5960,
      "напрасно": 5961,
      "Гра": 5962,
      "нра": 5963,
      "##ѫт": 5964,
      "##ниемъ": 5965,
      "##тои": 5966,
      "знамени": 5967,
      "бл҃гослов": 5968,
      "срц": 5969,
      "##крѣпи": 5970,
      "укра": 5971,
      "##день": 5972,
      "##ѥши": 5973,
      "##вого": 5974,
      "##рович": 5975,
      "воду": 5976,
      "морѧ": 5977,
      "любъ": 5978,
      "##куп": 5979,
      "такое": 5980,
      "ихже": 5981,
      "грѣхи": 5982,
      "раꙁоу": 5983,
      "##градъ": 5984,
      "д҃нь": 5985,
      "которое": 5986,
      "Ꙗ҆кѡ": 5987,
      "никто": 5988,
      "мощно": 5989,
      "##єть": 5990,
      "моему": 5991,
      "голѣ": 5992,
      "голова": 5993,
      "прогна": 5994,
      "##лым": 5995,
      "велику": 5996,
      "дѣть": 5997,
      "сьтвори": 5998,
      "бꙑло": 5999,
      "##с҃пъ": 6000,
      "##щыѧ": 6001,
      "гривьнъ": 6002,
      "можеши": 6003,
      "гюрге": 6004,
      "и҆зыде": 6005,
      "всесож": 6006,
      "##нное": 6007,
      "##ѧніе": 6008,
      "##тоша": 6009,
      "боло": 6010,
      "##рей": 6011,
      "##маго": 6012,
      "стꙋ": 6013,
      "преслав": 6014,
      "став": 6015,
      "многъ": 6016,
      "имамъ": 6017,
      "##славлю": 6018,
      "##славлѧ": 6019,
      "бж҃іе": 6020,
      "словесе": 6021,
      "жену": 6022,
      "многими": 6023,
      "другой": 6024,
      "нѡ": 6025,
      "ннѣ": 6026,
      "хво": 6027,
      "##ѡдо": 6028,
      "##ѳь": 6029,
      "поста": 6030,
      "##толѣ": 6031,
      "и҆мже": 6032,
      "гору": 6033,
      "вечера": 6034,
      "##скь": 6035,
      "павла": 6036,
      "##славо": 6037,
      "масло": 6038,
      "сыру": 6039,
      "сотворитъ": 6040,
      "степ": 6041,
      "которого": 6042,
      "десѧте": 6043,
      "леѵі": 6044,
      "ега": 6045,
      "жы": 6046,
      "##гл": 6047,
      "нема": 6048,
      "##камен": 6049,
      "коль": 6050,
      "моа": 6051,
      "мощи": 6052,
      "реда": 6053,
      "а҆враа": 6054,
      "всели": 6055,
      "имена": 6056,
      "семѹ": 6057,
      "смр҃": 6058,
      "святых": 6059,
      "Михаила": 6060,
      "Оле": 6061,
      "лжи": 6062,
      "##вени": 6063,
      "##щеть": 6064,
      "##твъ": 6065,
      "##бль": 6066,
      "и҆дѣже": 6067,
      "##ерва": 6068,
      "##доно": 6069,
      "дости": 6070,
      "гораз": 6071,
      "паш": 6072,
      "кънѧ": 6073,
      "жива": 6074,
      "##нѧго": 6075,
      "сѣмо": 6076,
      "##бьі": 6077,
      "взем": 6078,
      "##телем": 6079,
      "живот": 6080,
      "закона": 6081,
      "плѣн": 6082,
      "мень": 6083,
      "смь": 6084,
      "тварь": 6085,
      "ѿць": 6086,
      "##нта": 6087,
      "##рію": 6088,
      "##довати": 6089,
      "приехал": 6090,
      "##лье": 6091,
      "реки": 6092,
      "посрѣ": 6093,
      "##лꙋи": 6094,
      "спу": 6095,
      "##града": 6096,
      "Тъгда": 6097,
      "пѧт": 6098,
      "уез": 6099,
      "ѹкра": 6100,
      "##чѣ": 6101,
      "##ціи": 6102,
      "##гры": 6103,
      "вою": 6104,
      "прича": 6105,
      "стари": 6106,
      "гража": 6107,
      "пита": 6108,
      "чисту": 6109,
      "##скым": 6110,
      "иматъ": 6111,
      "старой": 6112,
      "Пакы": 6113,
      "стороны": 6114,
      "і҆ꙋде": 6115,
      "помилова": 6116,
      "рꙑ": 6117,
      "тща": 6118,
      "цоло": 6119,
      "ѥгда": 6120,
      "ꙅ҃": 6121,
      "##рна": 6122,
      "##чень": 6123,
      "##пли": 6124,
      "прибы": 6125,
      "своемь": 6126,
      "##дьі": 6127,
      "виде": 6128,
      "##кулич": 6129,
      "поспѣ": 6130,
      "правити": 6131,
      "грѣшь": 6132,
      "гривено": 6133,
      "цѣло": 6134,
      "холопа": 6135,
      "смѣр": 6136,
      "апостолъ": 6137,
      "ана": 6138,
      "ит": 6139,
      "инѣхъ": 6140,
      "##гре": 6141,
      "##ѫщ": 6142,
      "напол": 6143,
      "##лия": 6144,
      "тол": 6145,
      "ниче": 6146,
      "оудари": 6147,
      "рез": 6148,
      "##стов": 6149,
      "сѣвер": 6150,
      "пріидетъ": 6151,
      "##тцать": 6152,
      "плъть": 6153,
      "проповѣ": 6154,
      "пі": 6155,
      "##нку": 6156,
      "##кіа": 6157,
      "##чена": 6158,
      "##лам": 6159,
      "##наи": 6160,
      "ток": 6161,
      "доиде": 6162,
      "заму": 6163,
      "безако": 6164,
      "##щая": 6165,
      "вѣн": 6166,
      "##сподину": 6167,
      "и҆мать": 6168,
      "стѧжа": 6169,
      "ті": 6170,
      "##ить": 6171,
      "##сꙿ": 6172,
      "##лна": 6173,
      "##ѳѣ": 6174,
      "недел": 6175,
      "##техъ": 6176,
      "##нех": 6177,
      "##рья": 6178,
      "##дного": 6179,
      "людие": 6180,
      "слуша": 6181,
      "семи": 6182,
      "многихъ": 6183,
      "собор": 6184,
      "всѧкаѧ": 6185,
      "матере": 6186,
      "приближи": 6187,
      "бж҇тв": 6188,
      "Кра": 6189,
      "##сса": 6190,
      "##мна": 6191,
      "##҇ь": 6192,
      "##женье": 6193,
      "##єри": 6194,
      "##конъ": 6195,
      "##тиво": 6196,
      "дару": 6197,
      "кобы": 6198,
      "привед": 6199,
      "призыва": 6200,
      "сестра": 6201,
      "вещи": 6202,
      "твоемъ": 6203,
      "девя": 6204,
      "всеѧ": 6205,
      "пишет": 6206,
      "послал": 6207,
      "крове": 6208,
      "мьнѣ": 6209,
      "див": 6210,
      "ц҃рю": 6211,
      "кабал": 6212,
      "москве": 6213,
      "здравству": 6214,
      "сщен": 6215,
      "чу": 6216,
      "ꙗвлѧ": 6217,
      "##зло": 6218,
      "##кими": 6219,
      "##чины": 6220,
      "творя": 6221,
      "##сью": 6222,
      "##мысли": 6223,
      "ловѣ": 6224,
      "нашу": 6225,
      "##хуть": 6226,
      "молитва": 6227,
      "мнѡги": 6228,
      "Господа": 6229,
      "А҅": 6230,
      "зꙋ": 6231,
      "мня": 6232,
      "окла": 6233,
      "удари": 6234,
      "##лкъ": 6235,
      "ней": 6236,
      "##рово": 6237,
      "прииде": 6238,
      "изи": 6239,
      "бꙋди": 6240,
      "риз": 6241,
      "господина": 6242,
      "крѣпость": 6243,
      "оде": 6244,
      "##глѧ": 6245,
      "въпраша": 6246,
      "кол": 6247,
      "молеб": 6248,
      "веда": 6249,
      "своея": 6250,
      "руцѣ": 6251,
      "тую": 6252,
      "полоча": 6253,
      "слад": 6254,
      "б҃ж": 6255,
      "мысли": 6256,
      "великое": 6257,
      "млсть": 6258,
      "старому": 6259,
      "печат": 6260,
      "небесе": 6261,
      "лі": 6262,
      "ѡтъ": 6263,
      "##зды": 6264,
      "##вль": 6265,
      "##млю": 6266,
      "##біи": 6267,
      "##тать": 6268,
      "##льі": 6269,
      "годъ": 6270,
      "соблю": 6271,
      "живи": 6272,
      "бꙑвъ": 6273,
      "рꙋка": 6274,
      "ст҃ославъ": 6275,
      "принесе": 6276,
      "болѣзни": 6277,
      "сп҃са": 6278,
      "пакости": 6279,
      "еу": 6280,
      "цри": 6281,
      "зам": 6282,
      "ничего": 6283,
      "##битъ": 6284,
      "##пира": 6285,
      "посли": 6286,
      "страсти": 6287,
      "##ления": 6288,
      "положити": 6289,
      "нарече": 6290,
      "Тѣмьже": 6291,
      "марта": 6292,
      "матерь": 6293,
      "##скѹю": 6294,
      "всѧкаго": 6295,
      "проклѧ": 6296,
      "товарыщи": 6297,
      "10": 6298,
      "влѣ": 6299,
      "##кии": 6300,
      "годы": 6301,
      "състав": 6302,
      "хоче": 6303,
      "обро": 6304,
      "##врат": 6305,
      "видѣвше": 6306,
      "гаври": 6307,
      "дими": 6308,
      "володимеру": 6309,
      "чистом": 6310,
      "шло": 6311,
      "##шла": 6312,
      "наста": 6313,
      "##лить": 6314,
      "##ности": 6315,
      "##вию": 6316,
      "дому": 6317,
      "всемꙋ": 6318,
      "##вел": 6319,
      "оукра": 6320,
      "##читъ": 6321,
      "є҆ф": 6322,
      "городов": 6323,
      "##писано": 6324,
      "двадесѧть": 6325,
      "##ерусали": 6326,
      "Ше": 6327,
      "сщ҃": 6328,
      "##ин": 6329,
      "##ѣз": 6330,
      "##кос": 6331,
      "##тите": 6332,
      "нету": 6333,
      "##етꙿ": 6334,
      "волею": 6335,
      "боже": 6336,
      "богу": 6337,
      "##рее": 6338,
      "##теле": 6339,
      "сега": 6340,
      "##нехъ": 6341,
      "оумре": 6342,
      "##скѣ": 6343,
      "пакьі": 6344,
      "вѣсте": 6345,
      "нѣстъ": 6346,
      "полов": 6347,
      "полоть": 6348,
      "##скых": 6349,
      "послали": 6350,
      "##еных": 6351,
      "крото": 6352,
      "Так": 6353,
      "##нꙑꙗ": 6354,
      "##новен": 6355,
      "црква": 6356,
      "##ющим": 6357,
      "##десѧти": 6358,
      "вое҆": 6359,
      "блюсти": 6360,
      "дворян": 6361,
      "пят": 6362,
      "нео": 6363,
      "дочер": 6364,
      "прото": 6365,
      "простра": 6366,
      "каже": 6367,
      "##чис": 6368,
      "симо": 6369,
      "пасты": 6370,
      "ставити": 6371,
      "полот": 6372,
      "главꙋ": 6373,
      "исхо": 6374,
      "лаза": 6375,
      "начатъ": 6376,
      "с҃т": 6377,
      "помест": 6378,
      "##стѫп": 6379,
      "реклъ": 6380,
      "##і҃": 6381,
      "##҄ето": 6382,
      "а҆м": 6383,
      "ѡ҆сквер": 6384,
      "своимь": 6385,
      "##сѣмъ": 6386,
      "добри": 6387,
      "беззако": 6388,
      "било": 6389,
      "##скыѧ": 6390,
      "едина": 6391,
      "##ющю": 6392,
      "нб҇": 6393,
      "правды": 6394,
      "і҆ѡси": 6395,
      "терпѣ": 6396,
      "дроуга": 6397,
      "##ствие": 6398,
      "гюрги": 6399,
      "Ах": 6400,
      "Чер": 6401,
      "внꙋ": 6402,
      "ѡно": 6403,
      "##тви": 6404,
      "##тру": 6405,
      "##бля": 6406,
      "седе": 6407,
      "стру": 6408,
      "##чею": 6409,
      "таже": 6410,
      "пар": 6411,
      "къто": 6412,
      "добръ": 6413,
      "судити": 6414,
      "##ходити": 6415,
      "книж": 6416,
      "исправ": 6417,
      "##зера": 6418,
      "##ющимъ": 6419,
      "і҆ѡна": 6420,
      "околни": 6421,
      "Рѣ": 6422,
      "Сер": 6423,
      "##атъ": 6424,
      "##гіи": 6425,
      "напере": 6426,
      "##емѣ": 6427,
      "##диви": 6428,
      "воѥ": 6429,
      "##вѣст": 6430,
      "##мом": 6431,
      "##шим": 6432,
      "##лѧше": 6433,
      "жизнь": 6434,
      "##баче": 6435,
      "печер": 6436,
      "врага": 6437,
      "дубо": 6438,
      "царства": 6439,
      "говорити": 6440,
      "хр҇то": 6441,
      "николиже": 6442,
      "неделщи": 6443,
      "сми": 6444,
      "т҄о": 6445,
      "Ѡни": 6446,
      "ѡлго": 6447,
      "##ржа": 6448,
      "##ѭште": 6449,
      "##ниѧ": 6450,
      "##каа": 6451,
      "##рьи": 6452,
      "сими": 6453,
      "тых": 6454,
      "сколко": 6455,
      "обли": 6456,
      "сѹще": 6457,
      "писалъ": 6458,
      "бж҃ію": 6459,
      "бѹди": 6460,
      "плодъ": 6461,
      "ц҃рѧ": 6462,
      "агге": 6463,
      "архима": 6464,
      "##цкии": 6465,
      "і҆исꙋ": 6466,
      "сотворю": 6467,
      "оны": 6468,
      "##вію": 6469,
      "##ит": 6470,
      "пота": 6471,
      "пак": 6472,
      "ᲂу҆твер": 6473,
      "лов": 6474,
      "твориши": 6475,
      "##теръ": 6476,
      "подобно": 6477,
      "едва": 6478,
      "согрѣши": 6479,
      "вложи": 6480,
      "вдова": 6481,
      "пя": 6482,
      "ѱ҃": 6483,
      "##хѣ": 6484,
      "пожь": 6485,
      "##вон": 6486,
      "##кор": 6487,
      "неко": 6488,
      "##выше": 6489,
      "володимери": 6490,
      "##люблен": 6491,
      "христия": 6492,
      "тюрму": 6493,
      "вꙁ": 6494,
      "муд": 6495,
      "##дли": 6496,
      "##новь": 6497,
      "##вай": 6498,
      "##вают": 6499,
      "докла": 6500,
      "##кихъ": 6501,
      "раны": 6502,
      "##боша": 6503,
      "бых": 6504,
      "ст҃ꙑ": 6505,
      "часто": 6506,
      "##ноую": 6507,
      "шелко": 6508,
      "пья": 6509,
      "##шенька": 6510,
      "порабо": 6511,
      "белокамен": 6512,
      "деть": 6513,
      "зрѧ": 6514,
      "н҄е": 6515,
      "ули": 6516,
      "##тны": 6517,
      "##хвати": 6518,
      "полѣ": 6519,
      "пр҃": 6520,
      "волѧ": 6521,
      "себѧ": 6522,
      "##тыѧ": 6523,
      "развѣ": 6524,
      "ѻ҆ц҃": 6525,
      "##кꙋю": 6526,
      "бж҃и": 6527,
      "лвка": 6528,
      "мл҇ть": 6529,
      "впредь": 6530,
      "опричь": 6531,
      "ище": 6532,
      "##дн": 6533,
      "##св": 6534,
      "##рет": 6535,
      "наѹ": 6536,
      "##лит": 6537,
      "##шего": 6538,
      "##речен": 6539,
      "##мов": 6540,
      "года": 6541,
      "ники": 6542,
      "##жида": 6543,
      "##щаа": 6544,
      "##хан": 6545,
      "ᲂу҆чн҃": 6546,
      "раздѣли": 6547,
      "##енова": 6548,
      "крестъ": 6549,
      "един": 6550,
      "единь": 6551,
      "хранити": 6552,
      "Иванович": 6553,
      "мꙙ": 6554,
      "##вкъ": 6555,
      "##щенъ": 6556,
      "##шє": 6557,
      "##мра": 6558,
      "##лове": 6559,
      "##тине": 6560,
      "всеми": 6561,
      "##жимъ": 6562,
      "мари": 6563,
      "а҆на": 6564,
      "бѣга": 6565,
      "##цовых": 6566,
      "рꙋкою": 6567,
      "бг҃омъ": 6568,
      "кꙑѥ": 6569,
      "неправед": 6570,
      "Дру": 6571,
      "ввер": 6572,
      "##єт": 6573,
      "##ником": 6574,
      "##жества": 6575,
      "##дости": 6576,
      "заб": 6577,
      "є҆да": 6578,
      "ред": 6579,
      "есмы": 6580,
      "верстъ": 6581,
      "дн҃е": 6582,
      "храни": 6583,
      "порази": 6584,
      "погиб": 6585,
      "##смотри": 6586,
      "понома": 6587,
      "ѡбѣща": 6588,
      "Вла": 6589,
      "Сте": 6590,
      "цвѣ": 6591,
      "шю": 6592,
      "##щена": 6593,
      "##снѣ": 6594,
      "##мꙙ": 6595,
      "пон": 6596,
      "##никы": 6597,
      "##динь": 6598,
      "вост": 6599,
      "прио": 6600,
      "##рьі": 6601,
      "станет": 6602,
      "і҆ѻ": 6603,
      "верхъ": 6604,
      "дꙋши": 6605,
      "старого": 6606,
      "запла": 6607,
      "мт҃и": 6608,
      "соверши": 6609,
      "##лнышко": 6610,
      "второе": 6611,
      "Дми": 6612,
      "нѥго": 6613,
      "ѿи": 6614,
      "въспо": 6615,
      "тиу": 6616,
      "##спра": 6617,
      "гд҇ни": 6618,
      "славо": 6619,
      "##скыя": 6620,
      "креп": 6621,
      "##женіа": 6622,
      "цркви": 6623,
      "дороги": 6624,
      "рѫцѣ": 6625,
      "ꙁъло": 6626,
      "Русии": 6627,
      "вельми": 6628,
      "епи": 6629,
      "оного": 6630,
      "цо": 6631,
      "##бно": 6632,
      "##жею": 6633,
      "##сима": 6634,
      "прежни": 6635,
      "##пей": 6636,
      "человеку": 6637,
      "##левета": 6638,
      "сказалъ": 6639,
      "ногама": 6640,
      "Муром": 6641,
      "##жоу": 6642,
      "даждь": 6643,
      "коз": 6644,
      "взять": 6645,
      "плач": 6646,
      "платье": 6647,
      "кралъ": 6648,
      "кресто": 6649,
      "##твꙑ": 6650,
      "##нꙑхъ": 6651,
      "##лѡмъ": 6652,
      "сребра": 6653,
      "всѧкіе": 6654,
      "пльско": 6655,
      "свидѣтель": 6656,
      "҆ѡ҆": 6657,
      "сквозѣ": 6658,
      "въскорѣ": 6659,
      "Тро": 6660,
      "вхо": 6661,
      "иѡ": 6662,
      "смѧ": 6663,
      "##веть": 6664,
      "##щено": 6665,
      "##єи": 6666,
      "непре": 6667,
      "дано": 6668,
      "ѻ҆гнь": 6669,
      "дворы": 6670,
      "##писати": 6671,
      "##менꙋ": 6672,
      "словесы": 6673,
      "храми": 6674,
      "гривенъ": 6675,
      "##шеніа": 6676,
      "Опрак": 6677,
      "##земъ": 6678,
      "##лку": 6679,
      "##ваетъ": 6680,
      "##вааше": 6681,
      "своа": 6682,
      "съврь": 6683,
      "а҆дѡ": 6684,
      "##лене": 6685,
      "стран": 6686,
      "гюрг": 6687,
      "двенадцать": 6688,
      "лето": 6689,
      "оль": 6690,
      "ѡстро": 6691,
      "##вся": 6692,
      "##сны": 6693,
      "##чему": 6694,
      "##тем": 6695,
      "##ничи": 6696,
      "комꙋ": 6697,
      "ража": 6698,
      "кат҄о": 6699,
      "нове": 6700,
      "сава": 6701,
      "видите": 6702,
      "##нѧти": 6703,
      "пословъ": 6704,
      "добре": 6705,
      "мысль": 6706,
      "веленью": 6707,
      "смотрѧ": 6708,
      "мѫчени": 6709,
      "агг҃": 6710,
      "денег": 6711,
      "Дуна": 6712,
      "спраши": 6713,
      "Ди": 6714,
      "Иерусали": 6715,
      "Пере": 6716,
      "еѧ": 6717,
      "жрецъ": 6718,
      "ѹмъ": 6719,
      "##ші": 6720,
      "повер": 6721,
      "поправ": 6722,
      "полич": 6723,
      "##гови": 6724,
      "##етѣ": 6725,
      "давꙑ": 6726,
      "моемъ": 6727,
      "##льма": 6728,
      "софи": 6729,
      "##ньску": 6730,
      "раꙁꙿ": 6731,
      "правда": 6732,
      "створиша": 6733,
      "ѡбрѣта": 6734,
      "величества": 6735,
      "сне": 6736,
      "сбо": 6737,
      "фі": 6738,
      "##кти": 6739,
      "##чна": 6740,
      "нама": 6741,
      "вонь": 6742,
      "бою": 6743,
      "##доше": 6744,
      "сеже": 6745,
      "сози": 6746,
      "прозва": 6747,
      "##лѣп": 6748,
      "граде": 6749,
      "великом": 6750,
      "##нѫѫ": 6751,
      "хотѧще": 6752,
      "гривьнѣ": 6753,
      "записи": 6754,
      "порꙋ": 6755,
      "##никомъ": 6756,
      "дай": 6757,
      "##дие": 6758,
      "##тьі": 6759,
      "##тами": 6760,
      "прит": 6761,
      "нову": 6762,
      "грѣхы": 6763,
      "твоею": 6764,
      "бѹдет": 6765,
      "жеребе": 6766,
      "нашого": 6767,
      "именемъ": 6768,
      "ѿпꙋсти": 6769,
      "игꙋ": 6770,
      "начина": 6771,
      "##еніи": 6772,
      "замо": 6773,
      "казна": 6774,
      "##чили": 6775,
      "изба": 6776,
      "##лыхъ": 6777,
      "##нят": 6778,
      "землею": 6779,
      "бѣсъ": 6780,
      "прѣбꙑ": 6781,
      "ст҃ѣи": 6782,
      "Нов": 6783,
      "Само": 6784,
      "коунѣ": 6785,
      "дрѹга": 6786,
      "##штѫ": 6787,
      "кыевѣ": 6788,
      "большо": 6789,
      "дх҃ъ": 6790,
      "вьсѣмъ": 6791,
      "всѧкїе": 6792,
      "авгу": 6793,
      "другую": 6794,
      "архиеписко": 6795,
      "Кро": 6796,
      "чоу": 6797,
      "##ал": 6798,
      "##смъ": 6799,
      "##кну": 6800,
      "##чше": 6801,
      "##чные": 6802,
      "прѡ": 6803,
      "##нику": 6804,
      "тогѡ": 6805,
      "##маи": 6806,
      "камо": 6807,
      "##чек": 6808,
      "писаніе": 6809,
      "и҆збави": 6810,
      "ст҃опол": 6811,
      "правду": 6812,
      "федоро": 6813,
      "видиши": 6814,
      "отецъ": 6815,
      "ссы": 6816,
      "смири": 6817,
      "##грѧ": 6818,
      "##҅мъ": 6819,
      "##вие": 6820,
      "##кимъ": 6821,
      "##пить": 6822,
      "##зати": 6823,
      "##скагѡ": 6824,
      "славу": 6825,
      "есмъ": 6826,
      "##ходить": 6827,
      "хана": 6828,
      "камене": 6829,
      "игорь": 6830,
      "птица": 6831,
      "токмѡ": 6832,
      "брѣ": 6833,
      "цс҃": 6834,
      "##щемꙋ": 6835,
      "##сръ": 6836,
      "##рга": 6837,
      "##тⸯ": 6838,
      "##твь": 6839,
      "пооу": 6840,
      "##нори": 6841,
      "##ери": 6842,
      "дана": 6843,
      "паѵ": 6844,
      "##любе": 6845,
      "##любь": 6846,
      "##пали": 6847,
      "##щики": 6848,
      "сыски": 6849,
      "##чьскыи": 6850,
      "ѻ҆г": 6851,
      "которым": 6852,
      "##рские": 6853,
      "держать": 6854,
      "ꙁаконъ": 6855,
      "нежели": 6856,
      "прочіи": 6857,
      "Еда": 6858,
      "Якоже": 6859,
      "##днѣ": 6860,
      "##глых": 6861,
      "##ритъ": 6862,
      "бог": 6863,
      "##довь": 6864,
      "зара": 6865,
      "забы": 6866,
      "##дѣѧ": 6867,
      "дѣтемъ": 6868,
      "инозем": 6869,
      "людии": 6870,
      "диа": 6871,
      "андре": 6872,
      "##ждени": 6873,
      "скры": 6874,
      "млт҃": 6875,
      "треп": 6876,
      "нѣкое": 6877,
      "кыѥ": 6878,
      "##ворят": 6879,
      "Пе": 6880,
      "авраа": 6881,
      "҄е": 6882,
      "##мли": 6883,
      "##чє": 6884,
      "##ёр": 6885,
      "##стрем": 6886,
      "##лае": 6887,
      "##дей": 6888,
      "##пись": 6889,
      "##скор": 6890,
      "вѣрѫ": 6891,
      "хол": 6892,
      "сталъ": 6893,
      "дѣлы": 6894,
      "спс": 6895,
      "скръ": 6896,
      "кири": 6897,
      "чл҃вѣ": 6898,
      "і҆ꙋдеи": 6899,
      "##клон": 6900,
      "хорошо": 6901,
      "надобе": 6902,
      "игоре": 6903,
      "внеза": 6904,
      "богородицы": 6905,
      "жем": 6906,
      "уста": 6907,
      "ꙁлѣ": 6908,
      "##мни": 6909,
      "##гѣ": 6910,
      "##жли": 6911,
      "##прѧ": 6912,
      "##꙯а": 6913,
      "сово": 6914,
      "велено": 6915,
      "прока": 6916,
      "##сия": 6917,
      "тала": 6918,
      "самѣ": 6919,
      "изго": 6920,
      "анге": 6921,
      "речетъ": 6922,
      "василко": 6923,
      "беречи": 6924,
      "Володимеръ": 6925,
      "ѡпѧть": 6926,
      "истец": 6927,
      "І҆": 6928,
      "Отъ": 6929,
      "вста": 6930,
      "##о҄у": 6931,
      "##віа": 6932,
      "##єр": 6933,
      "побо": 6934,
      "нера": 6935,
      "##жаи": 6936,
      "жить": 6937,
      "Попо": 6938,
      "мест": 6939,
      "плачь": 6940,
      "Сегѡ": 6941,
      "душе": 6942,
      "живона": 6943,
      "срце": 6944,
      "воеводы": 6945,
      "Ꙗ҆коже": 6946,
      "помага": 6947,
      "жѧ": 6948,
      "тіа": 6949,
      "х҇": 6950,
      "ѥдинъ": 6951,
      "Ѿвѣща": 6952,
      "҆҆": 6953,
      "##емен": 6954,
      "торо": 6955,
      "приле": 6956,
      "сели": 6957,
      "##бомъ": 6958,
      "рекѫ": 6959,
      "пана": 6960,
      "##лют": 6961,
      "стави": 6962,
      "делех": 6963,
      "вьса": 6964,
      "а҆ве": 6965,
      "ꙗ҆ви": 6966,
      "посу": 6967,
      "месте": 6968,
      "##шов": 6969,
      "печаль": 6970,
      "прпбныи": 6971,
      "глѣба": 6972,
      "въсхотѣ": 6973,
      "пожаловал": 6974,
      "гер": 6975,
      "##шение": 6976,
      "##ях": 6977,
      "##м҃": 6978,
      "##стꙿ": 6979,
      "навы": 6980,
      "даль": 6981,
      "##шая": 6982,
      "голу": 6983,
      "##шите": 6984,
      "проꙁ": 6985,
      "прочь": 6986,
      "быхъ": 6987,
      "##дуть": 6988,
      "##дѧт": 6989,
      "Добро": 6990,
      "мѹж҃": 6991,
      "животы": 6992,
      "творите": 6993,
      "гробѣ": 6994,
      "##фана": 6995,
      "поставити": 6996,
      "ст҃ыхъ": 6997,
      "##стѹп": 6998,
      "рекше": 6999,
      "ѻ҆тецъ": 7000,
      "племянни": 7001,
      "Авраа": 7002,
      "О҅": 7003,
      "Яро": 7004,
      "блꙋ": 7005,
      "##бри": 7006,
      "позо": 7007,
      "коно": 7008,
      "коза": 7009,
      "##вѣди": 7010,
      "##веи": 7011,
      "є҆лі": 7012,
      "вашѧ": 7013,
      "##дье": 7014,
      "царица": 7015,
      "гл҃ю": 7016,
      "бьет": 7017,
      "скажет": 7018,
      "володимерь": 7019,
      "сподоби": 7020,
      "велел": 7021,
      "##ступиша": 7022,
      "службы": 7023,
      "костѧнти": 7024,
      "рцы": 7025,
      "єс": 7026,
      "##нʼ": 7027,
      "##вныи": 7028,
      "##ѣмъ": 7029,
      "##шемъ": 7030,
      "##дыха": 7031,
      "сьде": 7032,
      "христа": 7033,
      "см҃": 7034,
      "поруки": 7035,
      "тысѧч": 7036,
      "боярских": 7037,
      "заклад": 7038,
      "ѻ҆чима": 7039,
      "доведется": 7040,
      "зда": 7041,
      "инѣ": 7042,
      "##ыта": 7043,
      "##бна": 7044,
      "##тит": 7045,
      "##шаи": 7046,
      "богь": 7047,
      "селе": 7048,
      "жизни": 7049,
      "страхомъ": 7050,
      "видѣша": 7051,
      "дьни": 7052,
      "і҆и҃са": 7053,
      "бью": 7054,
      "шедъ": 7055,
      "пѣти": 7056,
      "исполни": 7057,
      "кыеву": 7058,
      "губ": 7059,
      "Ово": 7060,
      "##штъ": 7061,
      "##кри": 7062,
      "##ѹм": 7063,
      "##нице": 7064,
      "приѧ": 7065,
      "своемѹ": 7066,
      "завѣтъ": 7067,
      "падоша": 7068,
      "хоще": 7069,
      "рожи": 7070,
      "гд҇не": 7071,
      "волость": 7072,
      "какое": 7073,
      "поиди": 7074,
      "##сывати": 7075,
      "ба҃": 7076,
      "черв": 7077,
      "блажена": 7078,
      "молодой": 7079,
      "приведоша": 7080,
      "аплъ": 7081,
      "братьи": 7082,
      "фрагмен": 7083,
      "Бла": 7084,
      "Без": 7085,
      "Игна": 7086,
      "ген": 7087,
      "ннꙗ": 7088,
      "чѧ": 7089,
      "ѡружь": 7090,
      "ꙋбѡ": 7091,
      "##тіѧ": 7092,
      "##носѧ": 7093,
      "##нахъ": 7094,
      "рано": 7095,
      "нибу": 7096,
      "сапо": 7097,
      "Пои": 7098,
      "бѣси": 7099,
      "##ставити": 7100,
      "купе": 7101,
      "бѹдетъ": 7102,
      "творѧще": 7103,
      "рыбы": 7104,
      "древа": 7105,
      "молча": 7106,
      "кем": 7107,
      "мр҃": 7108,
      "ѡльга": 7109,
      "##дня": 7110,
      "##щі": 7111,
      "неѧ": 7112,
      "##дала": 7113,
      "##вин": 7114,
      "##дохомъ": 7115,
      "##лее": 7116,
      "веч": 7117,
      "листъ": 7118,
      "выслу": 7119,
      "мѣдѧ": 7120,
      "деньги": 7121,
      "бьрковь": 7122,
      "цркве": 7123,
      "государеве": 7124,
      "пришел": 7125,
      "хотѧше": 7126,
      "члкь": 7127,
      "конецъ": 7128,
      "##а҅хѫ": 7129,
      "может": 7130,
      "опять": 7131,
      "##женыи": 7132,
      "Тимо": 7133,
      "воскре": 7134,
      "мстиславъ": 7135,
      "Оборот": 7136,
      "Акы": 7137,
      "Ло": 7138,
      "ам": 7139,
      "акꙑ": 7140,
      "двери": 7141,
      "имоу": 7142,
      "ѣз": 7143,
      "##теніе": 7144,
      "##б҃": 7145,
      "посе": 7146,
      "реза": 7147,
      "##выѧ": 7148,
      "отве": 7149,
      "разгнѣва": 7150,
      "мѣся": 7151,
      "гласомъ": 7152,
      "бꙋдеть": 7153,
      "полкъ": 7154,
      "полтина": 7155,
      "##ходили": 7156,
      "и҃съ": 7157,
      "лѹка": 7158,
      "игуменъ": 7159,
      "отдавати": 7160,
      "старѣи": 7161,
      "стоитъ": 7162,
      "скорби": 7163,
      "мѡѵсею": 7164,
      "##ссіи": 7165,
      "погыб": 7166,
      "і҆ѻрда": 7167,
      "Три": 7168,
      "дшѫ": 7169,
      "фило": 7170,
      "ѣха": 7171,
      "##колѣ": 7172,
      "##ваша": 7173,
      "селѣ": 7174,
      "сото": 7175,
      "прожи": 7176,
      "прочее": 7177,
      "##лян": 7178,
      "речеши": 7179,
      "възложи": 7180,
      "верх": 7181,
      "богать": 7182,
      "началь": 7183,
      "шело": 7184,
      "нбсе": 7185,
      "великимъ": 7186,
      "Василью": 7187,
      "отрокъ": 7188,
      "ꙗвлꙗ": 7189,
      "##пс҃пъ": 7190,
      "##ромь": 7191,
      "##дарь": 7192,
      "вон": 7193,
      "конѣ": 7194,
      "заоу": 7195,
      "бѣаше": 7196,
      "ѻ҆рꙋ": 7197,
      "слави": 7198,
      "лесу": 7199,
      "которыи": 7200,
      "веліи": 7201,
      "правдѣ": 7202,
      "бѫде": 7203,
      "лошади": 7204,
      "днѣп": 7205,
      "Пу": 7206,
      "срь": 7207,
      "##гор": 7208,
      "нань": 7209,
      "наꙁна": 7210,
      "раду": 7211,
      "съвъ": 7212,
      "вѣмъ": 7213,
      "вѣкꙑ": 7214,
      "доброе": 7215,
      "пріити": 7216,
      "##доуть": 7217,
      "бѹде": 7218,
      "в҃і": 7219,
      "Тѣм": 7220,
      "домаш": 7221,
      "любве": 7222,
      "свидѣніѧ": 7223,
      "҂а": 7224,
      "##нны": 7225,
      "##ꙙшти": 7226,
      "##кати": 7227,
      "##тъкъ": 7228,
      "##моли": 7229,
      "проко": 7230,
      "малъ": 7231,
      "стаг": 7232,
      "##бежа": 7233,
      "земель": 7234,
      "##сь҆": 7235,
      "тѣми": 7236,
      "##нꙋтъ": 7237,
      "сущю": 7238,
      "Въз": 7239,
      "полё": 7240,
      "людехъ": 7241,
      "въꙁꙿ": 7242,
      "мꙋже": 7243,
      "мыш": 7244,
      "братіа": 7245,
      "корм": 7246,
      "сказыва": 7247,
      "блгть": 7248,
      "срок": 7249,
      "здѣла": 7250,
      "собака": 7251,
      "Дюк": 7252,
      "і҆ѡнаѳа": 7253,
      "идеть": 7254,
      "іе": 7255,
      "##нено": 7256,
      "##шены": 7257,
      "##рета": 7258,
      "##іѫ": 7259,
      "##мены": 7260,
      "##ницꙋ": 7261,
      "##вици": 7262,
      "##вѣсть": 7263,
      "##теля": 7264,
      "##шина": 7265,
      "мають": 7266,
      "друзии": 7267,
      "анну": 7268,
      "##жденъ": 7269,
      "мнѡгы": 7270,
      "заплати": 7271,
      "а҆рхі": 7272,
      "дрѣво": 7273,
      "Изѧ": 7274,
      "имѹ": 7275,
      "іер": 7276,
      "ѡбе": 7277,
      "ѹстро": 7278,
      "##хіи": 7279,
      "##стнѣ": 7280,
      "##гой": 7281,
      "##тивъ": 7282,
      "##новѣ": 7283,
      "и҆с": 7284,
      "##жеши": 7285,
      "##шаше": 7286,
      "##телѣ": 7287,
      "##чину": 7288,
      "##сей": 7289,
      "лав": 7290,
      "братя": 7291,
      "велкы": 7292,
      "диꙗ": 7293,
      "скаꙁа": 7294,
      "староста": 7295,
      "вь҆ꙁ": 7296,
      "древле": 7297,
      "поусти": 7298,
      "##стѫпи": 7299,
      "можемъ": 7300,
      "адама": 7301,
      "крепости": 7302,
      "ківѡ": 7303,
      "дя": 7304,
      "иным": 7305,
      "҆мъ": 7306,
      "##овъ": 7307,
      "##нїи": 7308,
      "##дню": 7309,
      "##чы": 7310,
      "##стіе": 7311,
      "поꙗ": 7312,
      "пово": 7313,
      "##номоу": 7314,
      "радъ": 7315,
      "##леа": 7316,
      "##лева": 7317,
      "соль": 7318,
      "вѣнь": 7319,
      "##енера": 7320,
      "главѣ": 7321,
      "##скые": 7322,
      "влади": 7323,
      "обыск": 7324,
      "хощет": 7325,
      "##разꙋмѣ": 7326,
      "##мретъ": 7327,
      "дщерь": 7328,
      "сѡтъ": 7329,
      "Кнѧ": 7330,
      "вто": 7331,
      "елика": 7332,
      "хѣ": 7333,
      "Ѡт": 7334,
      "##ꙙште": 7335,
      "##єцъ": 7336,
      "и҆де": 7337,
      "желез": 7338,
      "##шедше": 7339,
      "##подоби": 7340,
      "##нести": 7341,
      "занеже": 7342,
      "##стани": 7343,
      "##сию": 7344,
      "оужа": 7345,
      "десни": 7346,
      "ꙗ҆з": 7347,
      "въздви": 7348,
      "бꙑша": 7349,
      "дь҆": 7350,
      "##жденіе": 7351,
      "самомѹ": 7352,
      "слышавше": 7353,
      "привез": 7354,
      "ꙗ҆зыкъ": 7355,
      "премѣ": 7356,
      "тоуркы": 7357,
      "цр҃квь": 7358,
      "Уже": 7359,
      "ибо": 7360,
      "кнѣ": 7361,
      "тма": 7362,
      "твьр": 7363,
      "##из": 7364,
      "##ьсти": 7365,
      "##іѡ": 7366,
      "##тное": 7367,
      "##ꙗв": 7368,
      "##брь": 7369,
      "##стна": 7370,
      "##кол": 7371,
      "неѡ": 7372,
      "##щагѡ": 7373,
      "вѣдомо": 7374,
      "а҆ха": 7375,
      "тѣмже": 7376,
      "суди": 7377,
      "сужда": 7378,
      "чинъ": 7379,
      "куз": 7380,
      "грѣховъ": 7381,
      "иноче": 7382,
      "##тврь": 7383,
      "дум": 7384,
      "Мари": 7385,
      "житие": 7386,
      "##вѣрныи": 7387,
      "осми": 7388,
      "мн҇": 7389,
      "домови": 7390,
      "ѻ҆тцы": 7391,
      "вкꙋпѣ": 7392,
      "Сѹ": 7393,
      "млъ": 7394,
      "##дные": 7395,
      "##трꙋ": 7396,
      "полѧ": 7397,
      "##ломь": 7398,
      "недѹ": 7399,
      "##шаа": 7400,
      "##нец": 7401,
      "пить": 7402,
      "сьі": 7403,
      "часа": 7404,
      "рѣки": 7405,
      "бꙋдеши": 7406,
      "моеѧ": 7407,
      "противъ": 7408,
      "семо": 7409,
      "государевых": 7410,
      "высоко": 7411,
      "многие": 7412,
      "заповѣдь": 7413,
      "желѣз": 7414,
      "кѡн": 7415,
      "беꙁако": 7416,
      "Онъ": 7417,
      "дль": 7418,
      "ист": 7419,
      "м҇": 7420,
      "од": 7421,
      "опо": 7422,
      "ѿлꙋ": 7423,
      "##хма": 7424,
      "попъ": 7425,
      "прити": 7426,
      "могꙋ": 7427,
      "прохо": 7428,
      "какь": 7429,
      "сидо": 7430,
      "##дью": 7431,
      "рукою": 7432,
      "безу": 7433,
      "перево": 7434,
      "перь": 7435,
      "сѹды": 7436,
      "триста": 7437,
      "враги": 7438,
      "##аннъ": 7439,
      "исплъ": 7440,
      "бесче": 7441,
      "##шеніи": 7442,
      "##лении": 7443,
      "покор": 7444,
      "обыча": 7445,
      "грече": 7446,
      "любви": 7447,
      "исправи": 7448,
      "сниде": 7449,
      "знаменіе": 7450,
      "слнце": 7451,
      "вль": 7452,
      "утвер": 7453,
      "##дꙗ": 7454,
      "##щѣ": 7455,
      "##ркъ": 7456,
      "##кна": 7457,
      "##цкие": 7458,
      "прде": 7459,
      "##ньꙗ": 7460,
      "##тыхъ": 7461,
      "ѡ҆ста": 7462,
      "странꙋ": 7463,
      "##нѫти": 7464,
      "чл҃ка": 7465,
      "##цкому": 7466,
      "обрѣте": 7467,
      "боярские": 7468,
      "Об": 7469,
      "абы": 7470,
      "генера": 7471,
      "имьже": 7472,
      "тіе": 7473,
      "ѿтꙋ": 7474,
      "##ех": 7475,
      "##ита": 7476,
      "##ꙁн": 7477,
      "##суд": 7478,
      "нари": 7479,
      "##ницѣ": 7480,
      "въсѧ": 7481,
      "##вѣмъ": 7482,
      "дове": 7483,
      "##мою": 7484,
      "весу": 7485,
      "сирѣ": 7486,
      "панъ": 7487,
      "любе": 7488,
      "изиде": 7489,
      "##хар": 7490,
      "чисты": 7491,
      "раꙁо": 7492,
      "книгы": 7493,
      "##зеро": 7494,
      "##и҅хъ": 7495,
      "похвал": 7496,
      "распро": 7497,
      "хр҇та": 7498,
      "отече": 7499,
      "саꙋлъ": 7500,
      "патріар": 7501,
      "хь": 7502,
      "##треб": 7503,
      "##стіа": 7504,
      "##дово": 7505,
      "могѫ": 7506,
      "##стаго": 7507,
      "оубь": 7508,
      "##стом": 7509,
      "##люще": 7510,
      "пиро": 7511,
      "Кабы": 7512,
      "раꙁдѣ": 7513,
      "кнѧже": 7514,
      "боярина": 7515,
      "иванъ": 7516,
      "своѥ҅": 7517,
      "поместей": 7518,
      "печать": 7519,
      "Киеве": 7520,
      "дръꙁ": 7521,
      "челобитью": 7522,
      "дш҃и": 7523,
      "зимѹ": 7524,
      "грв҃нѣ": 7525,
      "Царь": 7526,
      "иныхъ": 7527,
      "клѣ": 7528,
      "ѥстъ": 7529,
      "ꙋчини": 7530,
      "##вное": 7531,
      "##щены": 7532,
      "##наі": 7533,
      "кости": 7534,
      "съво": 7535,
      "сиⸯ": 7536,
      "вѣкомъ": 7537,
      "##гѡвъ": 7538,
      "мѣстъ": 7539,
      "бꙋде": 7540,
      "##зом": 7541,
      "плода": 7542,
      "##ющих": 7543,
      "мѡа": 7544,
      "корабли": 7545,
      "скиніи": 7546,
      "алтын": 7547,
      "архимари": 7548,
      "апри": 7549,
      "##дю": 7550,
      "##дных": 7551,
      "##щетъ": 7552,
      "##цємъ": 7553,
      "##минь": 7554,
      "##доха": 7555,
      "##пов": 7556,
      "заста": 7557,
      "твоа": 7558,
      "лютѣ": 7559,
      "отпи": 7560,
      "роспро": 7561,
      "стара": 7562,
      "стое": 7563,
      "тѣлес": 7564,
      "подво": 7565,
      "бил": 7566,
      "трете": 7567,
      "мънѣ": 7568,
      "дрꙋгъ": 7569,
      "поместье": 7570,
      "конець": 7571,
      "игумена": 7572,
      "вмѣстѡ": 7573,
      "монасти": 7574,
      "глꙋ": 7575,
      "ля": 7576,
      "уме": 7577,
      "ѿвѣтъ": 7578,
      "##говор": 7579,
      "недѫ": 7580,
      "сов": 7581,
      "##мали": 7582,
      "разбои": 7583,
      "отъвѣшта": 7584,
      "исцом": 7585,
      "##женіѧ": 7586,
      "человѣче": 7587,
      "ст҃ое": 7588,
      "кꙋпи": 7589,
      "ярополкъ": 7590,
      "і҆и҃лева": 7591,
      "црк҃ви": 7592,
      "очима": 7593,
      "вѧче": 7594,
      "величество": 7595,
      "прч҇": 7596,
      "ѡ҆бита": 7597,
      "плѡ": 7598,
      "ѿпа": 7599,
      "##ꙿше": 7600,
      "##єтъ": 7601,
      "##αι": 7602,
      "попра": 7603,
      "присли": 7604,
      "##телеи": 7605,
      "##можно": 7606,
      "можа": 7607,
      "##полꙋ": 7608,
      "сол": 7609,
      "вашь": 7610,
      "маг": 7611,
      "брато": 7612,
      "ᲂу҆ста": 7613,
      "##верну": 7614,
      "доброй": 7615,
      "начало": 7616,
      "##штааго": 7617,
      "ꙗрославъ": 7618,
      "нечисто": 7619,
      "##ꙑи҅хъ": 7620,
      "солнце": 7621,
      "гси": 7622,
      "т҄а": 7623,
      "ѿкры": 7624,
      "##блѣ": 7625,
      "##ѭще": 7626,
      "позва": 7627,
      "##лици": 7628,
      "тоꙗ": 7629,
      "ниж": 7630,
      "нима": 7631,
      "пропа": 7632,
      "##лѣзе": 7633,
      "нонче": 7634,
      "белые": 7635,
      "нѣкто": 7636,
      "сѣча": 7637,
      "дворѧ": 7638,
      "поидох": 7639,
      "благодать": 7640,
      "сотворите": 7641,
      "животѣ": 7642,
      "закон": 7643,
      "трепе": 7644,
      "привести": 7645,
      "##станеть": 7646,
      "гсдрѧ": 7647,
      "рыба": 7648,
      "шатра": 7649,
      "вашеи": 7650,
      "службу": 7651,
      "через": 7652,
      "буйну": 7653,
      "дочери": 7654,
      "12": 7655,
      "Ст҃": 7656,
      "вє": 7657,
      "хвал": 7658,
      "ѕи": 7659,
      "##реть": 7660,
      "##тсе": 7661,
      "##енѧ": 7662,
      "воза": 7663,
      "кади": 7664,
      "##чиша": 7665,
      "##бии": 7666,
      "##цами": 7667,
      "мику": 7668,
      "##скова": 7669,
      "странъ": 7670,
      "сѣдѣ": 7671,
      "Тои": 7672,
      "##дной": 7673,
      "боярину": 7674,
      "мѫжь": 7675,
      "кнз҃": 7676,
      "гн҃у": 7677,
      "бц҃а": 7678,
      "ѡ҆брати": 7679,
      "Сынове": 7680,
      "пострада": 7681,
      "Слово": 7682,
      "ѡти": 7683,
      "ѣкоже": 7684,
      "ѻти": 7685,
      "##аи": 7686,
      "##дрю": 7687,
      "##смы": 7688,
      "##мете": 7689,
      "##чя": 7690,
      "##҄ѡ": 7691,
      "##҇е": 7692,
      "##ον": 7693,
      "##ѵм": 7694,
      "##гое": 7695,
      "##дома": 7696,
      "##шии": 7697,
      "творт": 7698,
      "избиша": 7699,
      "вите": 7700,
      "горды": 7701,
      "хлѣб": 7702,
      "пьр": 7703,
      "бц҃и": 7704,
      "съмръ": 7705,
      "ата": 7706,
      "мꙗ": 7707,
      "ꙋзе": 7708,
      "##ннаѧ": 7709,
      "##днѧ": 7710,
      "##сіе": 7711,
      "поща": 7712,
      "постъ": 7713,
      "##даше": 7714,
      "волъ": 7715,
      "водꙋ": 7716,
      "боа": 7717,
      "##рева": 7718,
      "##кий": 7719,
      "равно": 7720,
      "своемоу": 7721,
      "сотвор": 7722,
      "##биѥ": 7723,
      "ꙗ҆в": 7724,
      "##дуще": 7725,
      "и҅ма": 7726,
      "##тѣши": 7727,
      "мѧте": 7728,
      "въꙁь": 7729,
      "##гради": 7730,
      "тьі": 7731,
      "учени": 7732,
      "црквь": 7733,
      "рублѧ": 7734,
      "Москов": 7735,
      "спаса": 7736,
      "##вшим": 7737,
      "##леніемъ": 7738,
      "седми": 7739,
      "Тѣмь": 7740,
      "приказу": 7741,
      "четыри": 7742,
      "здравіе": 7743,
      "чолове": 7744,
      "наказѹ": 7745,
      "Спа": 7746,
      "ѹб": 7747,
      "##яху": 7748,
      "##тры": 7749,
      "##фра": 7750,
      "##тиѧ": 7751,
      "пришъ": 7752,
      "##кина": 7753,
      "оувѣдѣ": 7754,
      "преди": 7755,
      "##лыи": 7756,
      "братом": 7757,
      "чести": 7758,
      "и҅мъ": 7759,
      "рука": 7760,
      "добродѣте": 7761,
      "##аніа": 7762,
      "анти": 7763,
      "рубли": 7764,
      "творѧше": 7765,
      "красна": 7766,
      "Ча": 7767,
      "ѕе": 7768,
      "ѧ҅": 7769,
      "##дено": 7770,
      "##тве": 7771,
      "##стрь": 7772,
      "##стное": 7773,
      "потъ": 7774,
      "показ": 7775,
      "##говари": 7776,
      "въи": 7777,
      "въпа": 7778,
      "въпро": 7779,
      "даси": 7780,
      "тоби": 7781,
      "##мона": 7782,
      "солнышко": 7783,
      "##дѣꙗ": 7784,
      "##чимъ": 7785,
      "силе": 7786,
      "твоꙗ": 7787,
      "##сково": 7788,
      "отня": 7789,
      "##нуть": 7790,
      "##дьно": 7791,
      "изби": 7792,
      "живет": 7793,
      "сыну": 7794,
      "мечи": 7795,
      "чини": 7796,
      "скорѣ": 7797,
      "чару": 7798,
      "посланни": 7799,
      "ѡбре": 7800,
      "начал": 7801,
      "пришедше": 7802,
      "новѹ": 7803,
      "а҅кꙑ": 7804,
      "##тцати": 7805,
      "гео": 7806,
      "братья": 7807,
      "погреба": 7808,
      "Блг": 7809,
      "искѹ": 7810,
      "ѿсѣ": 7811,
      "##спа": 7812,
      "##ббѡ": 7813,
      "##піа": 7814,
      "наво": 7815,
      "##ломи": 7816,
      "##вающе": 7817,
      "вопроси": 7818,
      "##шин": 7819,
      "##галъ": 7820,
      "таким": 7821,
      "дел": 7822,
      "##вут": 7823,
      "##гихъ": 7824,
      "руками": 7825,
      "владꙑ": 7826,
      "молитвами": 7827,
      "##тери": 7828,
      "печати": 7829,
      "образъ": 7830,
      "хощетъ": 7831,
      "хощете": 7832,
      "мц҇а": 7833,
      "крѣпости": 7834,
      "аггль": 7835,
      "произ": 7836,
      "Ѻ҆нъ": 7837,
      "##рко": 7838,
      "##йся": 7839,
      "понѣ": 7840,
      "нераз": 7841,
      "##роси": 7842,
      "жез": 7843,
      "жеслс": 7844,
      "##вило": 7845,
      "##дол": 7846,
      "сим": 7847,
      "##жатъ": 7848,
      "##щаꙗ": 7849,
      "##чьскы": 7850,
      "##вшіи": 7851,
      "потомь": 7852,
      "побѣгоша": 7853,
      "старость": 7854,
      "пристани": 7855,
      "память": 7856,
      "обѣща": 7857,
      "глагол҄ѫ": 7858,
      "скобеев": 7859,
      "всѣволодъ": 7860,
      "Повелѣ": 7861,
      "ст҃ꙑꙗ": 7862,
      "аци": 7863,
      "гда": 7864,
      "юде": 7865,
      "##нде": 7866,
      "неꙁ": 7867,
      "давы": 7868,
      "##досте": 7869,
      "промыш": 7870,
      "##дѣа": 7871,
      "павелъ": 7872,
      "велича": 7873,
      "дѣтеи": 7874,
      "царѣ": 7875,
      "раздѣ": 7876,
      "влад": 7877,
      "##дники": 7878,
      "воевати": 7879,
      "многих": 7880,
      "митрополита": 7881,
      "бжтвны": 7882,
      "възьми": 7883,
      "Бер": 7884,
      "Гре": 7885,
      "##вны": 7886,
      "##внаго": 7887,
      "##кіе": 7888,
      "нае": 7889,
      "възъ": 7890,
      "##лехъ": 7891,
      "##подоб": 7892,
      "нинѣ": 7893,
      "вести": 7894,
      "кап": 7895,
      "##бит": 7896,
      "самы": 7897,
      "хода": 7898,
      "пише": 7899,
      "##ныимъ": 7900,
      "ꙁави": 7901,
      "платить": 7902,
      "вратъ": 7903,
      "##ходитъ": 7904,
      "##телꙿ": 7905,
      "пѣсни": 7906,
      "своѥи": 7907,
      "васили": 7908,
      "добрым": 7909,
      "бѫдеть": 7910,
      "межю": 7911,
      "отдать": 7912,
      "Тебе": 7913,
      "поправено": 7914,
      "злѣ": 7915,
      "##штя": 7916,
      "##ця": 7917,
      "##рам": 7918,
      "##тили": 7919,
      "##кам": 7920,
      "##мовъ": 7921,
      "твоѥго": 7922,
      "белу": 7923,
      "теп": 7924,
      "вѣтръ": 7925,
      "##дьци": 7926,
      "Поло": 7927,
      "цртв": 7928,
      "ст҃ѹю": 7929,
      "##скый": 7930,
      "городѣ": 7931,
      "писаніа": 7932,
      "нынь": 7933,
      "душа": 7934,
      "души": 7935,
      "мьнь": 7936,
      "Никулич": 7937,
      "с҃на": 7938,
      "братии": 7939,
      "гривьно": 7940,
      "чловѣкъ": 7941,
      "будуть": 7942,
      "смертию": 7943,
      "именем": 7944,
      "ехать": 7945,
      "ивановича": 7946,
      "Вси": 7947,
      "зва": 7948,
      "пто": 7949,
      "ѿпѹ": 7950,
      "ꙁемь": 7951,
      "##знов": 7952,
      "##сꙙ": 7953,
      "##єго": 7954,
      "поѹ": 7955,
      "##лицы": 7956,
      "##вають": 7957,
      "##наша": 7958,
      "дахъ": 7959,
      "точію": 7960,
      "кос": 7961,
      "##вель": 7962,
      "камѧ": 7963,
      "пада": 7964,
      "прекра": 7965,
      "росо": 7966,
      "исце": 7967,
      "сꙋббѡ": 7968,
      "##зомъ": 7969,
      "сотворилъ": 7970,
      "##стьян": 7971,
      "слышати": 7972,
      "говорить": 7973,
      "въскр": 7974,
      "##цемѣ": 7975,
      "а҆дѡнаі": 7976,
      "яс": 7977,
      "Ꙗже": 7978,
      "##чете": 7979,
      "##цєвъ": 7980,
      "##колюби": 7981,
      "##тины": 7982,
      "въне": 7983,
      "вопро": 7984,
      "собира": 7985,
      "проли": 7986,
      "силꙋ": 7987,
      "мнозѣ": 7988,
      "##нѧтъ": 7989,
      "лѣте": 7990,
      "возмет": 7991,
      "Томь": 7992,
      "имат": 7993,
      "первыи": 7994,
      "ѡ҆бле": 7995,
      "ѳеодо": 7996,
      "добрые": 7997,
      "близъ": 7998,
      "##фимь": 7999,
      "##нꙑихъ": 8000,
      "царемъ": 8001,
      "пръвѣе": 8002,
      "расꙿ": 8003,
      "срамо": 8004,
      "блу": 8005,
      "веніа": 8006,
      "д҄ето": 8007,
      "ꙗꙁы": 8008,
      "##чное": 8009,
      "##чника": 8010,
      "##ꙗи": 8011,
      "##бере": 8012,
      "##гне": 8013,
      "##рон": 8014,
      "##етца": 8015,
      "съдръ": 8016,
      "сож": 8017,
      "проре": 8018,
      "##сиꙗ": 8019,
      "##чита": 8020,
      "##ньство": 8021,
      "деше": 8022,
      "##нѧгѡ": 8023,
      "празни": 8024,
      "меща": 8025,
      "тутъ": 8026,
      "городи": 8027,
      "блжен": 8028,
      "противѫ": 8029,
      "тр҇": 8030,
      "кинова": 8031,
      "дꙋхъ": 8032,
      "покая": 8033,
      "святыя": 8034,
      "влд҃": 8035,
      "запасъ": 8036,
      "вьсего": 8037,
      "страшно": 8038,
      "##езжает": 8039,
      "Иорда": 8040,
      "челобитчики": 8041,
      "Тꙋ": 8042,
      "гѡ": 8043,
      "дхов": 8044,
      "ел": 8045,
      "ѹка": 8046,
      "##она": 8047,
      "##шло": 8048,
      "##вовъ": 8049,
      "##титъ": 8050,
      "и҆сто": 8051,
      "кость": 8052,
      "радꙋ": 8053,
      "миру": 8054,
      "къни": 8055,
      "рома": 8056,
      "ровно": 8057,
      "живѧ": 8058,
      "бѣда": 8059,
      "всѧких": 8060,
      "##жьдо": 8061,
      "славѫ": 8062,
      "безꙋм": 8063,
      "негоже": 8064,
      "крово": 8065,
      "враж": 8066,
      "двдъ": 8067,
      "короля": 8068,
      "конꙿ": 8069,
      "бл҃года": 8070,
      "серебря": 8071,
      "пѹти": 8072,
      "ѧ҆зы": 8073,
      "столпъ": 8074,
      "мл҃твами": 8075,
      "подвиза": 8076,
      "пытки": 8077,
      "##п҇пъ": 8078,
      "и҆ноплемен": 8079,
      "игумену": 8080,
      "Мъ": 8081,
      "абие": 8082,
      "ество": 8083,
      "хі": 8084,
      "хме": 8085,
      "ꙗзъ": 8086,
      "ꙗзи": 8087,
      "##нные": 8088,
      "##слѧ": 8089,
      "##мнѣ": 8090,
      "##жна": 8091,
      "##гов": 8092,
      "и҆ми": 8093,
      "даніи": 8094,
      "горꙋ": 8095,
      "стер": 8096,
      "##сила": 8097,
      "##чивъ": 8098,
      "теперь": 8099,
      "##мѣте": 8100,
      "сажень": 8101,
      "##пар": 8102,
      "##паче": 8103,
      "избра": 8104,
      "старецъ": 8105,
      "##ська": 8106,
      "о҅бра": 8107,
      "писали": 8108,
      "великои": 8109,
      "раꙁѫ": 8110,
      "гривнѣ": 8111,
      "##зеи": 8112,
      "##коупѣ": 8113,
      "прокля": 8114,
      "воинство": 8115,
      "ѕлаѧ": 8116,
      "колесни": 8117,
      "Мѣ": 8118,
      "ьсть": 8119,
      "ѡпа": 8120,
      "##ꙗть": 8121,
      "##ѥю": 8122,
      "посто": 8123,
      "##колюб": 8124,
      "прно": 8125,
      "##вае": 8126,
      "##телемъ": 8127,
      "##льно": 8128,
      "##вець": 8129,
      "##поль": 8130,
      "зато": 8131,
      "сот": 8132,
      "ниь": 8133,
      "##болга": 8134,
      "стр": 8135,
      "##чад": 8136,
      "преле": 8137,
      "стола": 8138,
      "сынꙋ": 8139,
      "руко": 8140,
      "мечемъ": 8141,
      "лазо": 8142,
      "##теліе": 8143,
      "##гнаша": 8144,
      "господинь": 8145,
      "##нꙿно": 8146,
      "творѧть": 8147,
      "щото": 8148,
      "хвалѧ": 8149,
      "##евичю": 8150,
      "чловѣка": 8151,
      "обрѣта": 8152,
      "нб҃се": 8153,
      "двд҃ъ": 8154,
      "вскорѣ": 8155,
      "липсваслс": 8156,
      "вавѵлѡн": 8157,
      "Бл҃": 8158,
      "глѹ": 8159,
      "твари": 8160,
      "##нце": 8161,
      "##аг": 8162,
      "##свя": 8163,
      "##нием": 8164,
      "##стили": 8165,
      "стг҃о": 8166,
      "изь": 8167,
      "брал": 8168,
      "Пото": 8169,
      "##сповѣда": 8170,
      "таковаго": 8171,
      "##дѧи": 8172,
      "##ствіа": 8173,
      "крова": 8174,
      "Вои": 8175,
      "пусты": 8176,
      "Которы": 8177,
      "любовию": 8178,
      "соуще": 8179,
      "правдꙋ": 8180,
      "мѫжа": 8181,
      "женам": 8182,
      "##стꙋпа": 8183,
      "##штꙙ": 8184,
      "и҃с": 8185,
      "просити": 8186,
      "погибе": 8187,
      "##езжал": 8188,
      "деревень": 8189,
      "искоу": 8190,
      "праведни": 8191,
      "сосꙋды": 8192,
      "надобно": 8193,
      "Дунай": 8194,
      "нибудь": 8195,
      "Али": 8196,
      "Сіѧ": 8197,
      "азо": 8198,
      "внити": 8199,
      "втора": 8200,
      "спроси": 8201,
      "##пко": 8202,
      "посты": 8203,
      "почер": 8204,
      "##ламъ": 8205,
      "##роша": 8206,
      "##санъ": 8207,
      "##дѣтель": 8208,
      "оумъ": 8209,
      "сиа": 8210,
      "##мѣр": 8211,
      "девка": 8212,
      "##брая": 8213,
      "питье": 8214,
      "сыне": 8215,
      "грѣхомъ": 8216,
      "блж": 8217,
      "##пѣли": 8218,
      "знаю": 8219,
      "скрь": 8220,
      "##вшѹ": 8221,
      "иꙁь": 8222,
      "старости": 8223,
      "кѹп": 8224,
      "дн҃ии": 8225,
      "хр҇тіа": 8226,
      "скорбь": 8227,
      "начѧ": 8228,
      "ратма": 8229,
      "индик": 8230,
      "Є҆гда": 8231,
      "жєны": 8232,
      "пѣснь": 8233,
      "иг": 8234,
      "##вень": 8235,
      "##венъ": 8236,
      "##юю": 8237,
      "##ѡ҆": 8238,
      "##гоже": 8239,
      "##ниць": 8240,
      "стіи": 8241,
      "оупра": 8242,
      "##гату": 8243,
      "##ходоно": 8244,
      "предо": 8245,
      "ваю": 8246,
      "##скопа": 8247,
      "избы": 8248,
      "девица": 8249,
      "прѣбыва": 8250,
      "свѣтѣ": 8251,
      "помочь": 8252,
      "василеи": 8253,
      "Киеву": 8254,
      "небеси": 8255,
      "святый": 8256,
      "##ниѥмь": 8257,
      "сроку": 8258,
      "н҄емоу": 8259,
      "чернигову": 8260,
      "хлеба": 8261,
      "гораздо": 8262,
      "итти": 8263,
      "ꙁе": 8264,
      "ꙁи": 8265,
      "##нныи": 8266,
      "##єю": 8267,
      "##даи": 8268,
      "всему": 8269,
      "##мого": 8270,
      "събла": 8271,
      "прост": 8272,
      "##чилъ": 8273,
      "##чали": 8274,
      "##сею": 8275,
      "сара": 8276,
      "многѡ": 8277,
      "##бье": 8278,
      "обря": 8279,
      "ѡбли": 8280,
      "нашемꙋ": 8281,
      "и҆збра": 8282,
      "погꙑ": 8283,
      "гривни": 8284,
      "смоль": 8285,
      "холопъ": 8286,
      "седла": 8287,
      "внима": 8288,
      "хоробры": 8289,
      "##ствия": 8290,
      "ꙗ҆зыки": 8291,
      "взыде": 8292,
      "оц҃а": 8293,
      "клевет": 8294,
      "дѣтми": 8295,
      "объяви": 8296,
      "Вдѣ": 8297,
      "ид": 8298,
      "ѡдолѣ": 8299,
      "ѿм": 8300,
      "##нски": 8301,
      "##щмъ": 8302,
      "##яся": 8303,
      "##рмо": 8304,
      "##єніѧ": 8305,
      "##ѥм": 8306,
      "поехали": 8307,
      "нага": 8308,
      "##емлю": 8309,
      "##риѧ": 8310,
      "пристави": 8311,
      "##поло": 8312,
      "##поры": 8313,
      "съхра": 8314,
      "стря": 8315,
      "ночи": 8316,
      "литов": 8317,
      "видя": 8318,
      "сѣмене": 8319,
      "##зьі": 8320,
      "главу": 8321,
      "Госуда": 8322,
      "##ющымъ": 8323,
      "##щеніѧ": 8324,
      "смоли": 8325,
      "добрый": 8326,
      "бываетъ": 8327,
      "млады": 8328,
      "святыхъ": 8329,
      "запись": 8330,
      "ѡбрѣте": 8331,
      "москвы": 8332,
      "глеши": 8333,
      "разори": 8334,
      "ѿтꙋдꙋ": 8335,
      "##ходоносо": 8336,
      "Що": 8337,
      "ора": 8338,
      "фи": 8339,
      "##сень": 8340,
      "##ленье": 8341,
      "##рва": 8342,
      "##тят": 8343,
      "##стенъ": 8344,
      "прис": 8345,
      "годи": 8346,
      "##сил": 8347,
      "##бѣжа": 8348,
      "стада": 8349,
      "прѣмѫ": 8350,
      "нѣкыи": 8351,
      "глас": 8352,
      "##скыа": 8353,
      "грѣх": 8354,
      "иной": 8355,
      "Таже": 8356,
      "нашѧ": 8357,
      "##женіи": 8358,
      "случи": 8359,
      "##десѧт": 8360,
      "володимерю": 8361,
      "дружинѣ": 8362,
      "повѣдаша": 8363,
      "ѡц҃ю": 8364,
      "гера": 8365,
      "Тимофе": 8366,
      "грѹ": 8367,
      "дщер": 8368,
      "ѡе": 8369,
      "##нгу": 8370,
      "##рта": 8371,
      "##рки": 8372,
      "##рене": 8373,
      "поры": 8374,
      "посте": 8375,
      "##ниемь": 8376,
      "заꙋ": 8377,
      "каи": 8378,
      "##чите": 8379,
      "##нѣте": 8380,
      "саме": 8381,
      "къде": 8382,
      "бѣды": 8383,
      "выи": 8384,
      "ᲂу҆мретъ": 8385,
      "пославъ": 8386,
      "##еныхъ": 8387,
      "блѫ": 8388,
      "креста": 8389,
      "володимера": 8390,
      "сказал": 8391,
      "нб҃о": 8392,
      "##жествен": 8393,
      "погꙋб": 8394,
      "вдвое": 8395,
      "архе": 8396,
      "Мꙋ": 8397,
      "жреб": 8398,
      "оди": 8399,
      "##срь": 8400,
      "##кше": 8401,
      "##҇ви": 8402,
      "##кову": 8403,
      "и҆мене": 8404,
      "вонъ": 8405,
      "гоу": 8406,
      "пагꙋ": 8407,
      "вѣсти": 8408,
      "изре": 8409,
      "стану": 8410,
      "##тый": 8411,
      "пись": 8412,
      "##чье": 8413,
      "имян": 8414,
      "##городе": 8415,
      "дьне": 8416,
      "братію": 8417,
      "нашими": 8418,
      "начала": 8419,
      "констан": 8420,
      "Микити": 8421,
      "въсѣмь": 8422,
      "Василь": 8423,
      "болѧре": 8424,
      "змеи": 8425,
      "ага": 8426,
      "взима": 8427,
      "жꙋ": 8428,
      "зь": 8429,
      "иное": 8430,
      "##кꙿ": 8431,
      "##мки": 8432,
      "##ꙑта": 8433,
      "##єм": 8434,
      "##ён": 8435,
      "почест": 8436,
      "тобой": 8437,
      "##ревъ": 8438,
      "моля": 8439,
      "собѧ": 8440,
      "є҆ѵ": 8441,
      "є҆сте": 8442,
      "тат": 8443,
      "тати": 8444,
      "а҆да": 8445,
      "тые": 8446,
      "страсть": 8447,
      "##стыя": 8448,
      "подли": 8449,
      "судъ": 8450,
      "пеще": 8451,
      "##городѹ": 8452,
      "исцо": 8453,
      "е҆сть": 8454,
      "ст҃ослав҃": 8455,
      "град҃": 8456,
      "рѹцѣ": 8457,
      "женами": 8458,
      "рыб": 8459,
      "монастыри": 8460,
      "чл҃кѹ": 8461,
      "стрело": 8462,
      "глѣбъ": 8463,
      "##чок": 8464,
      "с҃тославъ": 8465,
      "сырой": 8466,
      "Цр": 8467,
      "ємоу": 8468,
      "##еди": 8469,
      "##бре": 8470,
      "##ѵс": 8471,
      "примѣ": 8472,
      "прогнѣва": 8473,
      "##гаѧ": 8474,
      "вамь": 8475,
      "##меѡ": 8476,
      "ѡ҆правда": 8477,
      "ᲂу҆вѣ": 8478,
      "##ствіѧ": 8479,
      "##нии҆": 8480,
      "храма": 8481,
      "##ющаѧ": 8482,
      "взяли": 8483,
      "всеволода": 8484,
      "ꙗ҆зыцы": 8485,
      "ѥсмъ": 8486,
      "возвратисѧ": 8487,
      "половина": 8488,
      "Богородица": 8489,
      "месяца": 8490,
      "вземше": 8491,
      "##глѧда": 8492,
      "Ст": 8493,
      "мню": 8494,
      "огн": 8495,
      "ч҇": 8496,
      "ꙇ҅": 8497,
      "##нкы": 8498,
      "##сн": 8499,
      "##шне": 8500,
      "##гну": 8501,
      "##хла": 8502,
      "налѣ": 8503,
      "##лите": 8504,
      "##тиша": 8505,
      "##рев": 8506,
      "дону": 8507,
      "##моуд": 8508,
      "завѣта": 8509,
      "##гах": 8510,
      "маке": 8511,
      "столо": 8512,
      "##ющее": 8513,
      "бояри": 8514,
      "тꙋка": 8515,
      "серебр": 8516,
      "писма": 8517,
      "достоинъ": 8518,
      "поживе": 8519,
      "гюрь": 8520,
      "укажет": 8521,
      "дщи": 8522,
      "ег": 8523,
      "еты": 8524,
      "зу": 8525,
      "идѣ": 8526,
      "сде": 8527,
      "ѕа": 8528,
      "##рл҇": 8529,
      "##тє": 8530,
      "пона": 8531,
      "##нокъ": 8532,
      "##ваніе": 8533,
      "и҆са": 8534,
      "томо": 8535,
      "всемѹ": 8536,
      "съкаꙁа": 8537,
      "##дьни": 8538,
      "извѣ": 8539,
      "ᲂу҆разꙋмѣ": 8540,
      "княже": 8541,
      "муж": 8542,
      "чюде": 8543,
      "знамен": 8544,
      "##ятся": 8545,
      "запове": 8546,
      "бѫди": 8547,
      "феѡдо": 8548,
      "ворота": 8549,
      "##дѡвъ": 8550,
      "работы": 8551,
      "кела": 8552,
      "геѡ": 8553,
      "достоить": 8554,
      "мьстислав҃": 8555,
      "Всеволо": 8556,
      "немощи": 8557,
      "пустоши": 8558,
      "бѣсовь": 8559,
      "неправды": 8560,
      "блъга": 8561,
      "димитр": 8562,
      "новугороду": 8563,
      "веніамі": 8564,
      "20": 8565,
      "гнь": 8566,
      "ги҃": 8567,
      "дши": 8568,
      "мета": 8569,
      "##вса": 8570,
      "##віе": 8571,
      "##кр": 8572,
      "##кръ": 8573,
      "##жное": 8574,
      "наго": 8575,
      "накла": 8576,
      "нея": 8577,
      "##тови": 8578,
      "и҆сцѣ": 8579,
      "##шааго": 8580,
      "припа": 8581,
      "моги": 8582,
      "съконь": 8583,
      "##сех": 8584,
      "##щаше": 8585,
      "хоти": 8586,
      "ᲂу҆слыши": 8587,
      "##шьдъ": 8588,
      "##тѣли": 8589,
      "чимъ": 8590,
      "двое": 8591,
      "##еныи": 8592,
      "владѣ": 8593,
      "многое": 8594,
      "##ніꙗ": 8595,
      "мьі": 8596,
      "покаꙗ": 8597,
      "гроб": 8598,
      "хал": 8599,
      "дрꙋги": 8600,
      "льсти": 8601,
      "##цкой": 8602,
      "богатыри": 8603,
      "золота": 8604,
      "волх": 8605,
      "Стал": 8606,
      "достоино": 8607,
      "помаза": 8608,
      "похвала": 8609,
      "приказъ": 8610,
      "Руси": 8611,
      "ключни": 8612,
      "великꙑи": 8613,
      "##нꙑи҅хъ": 8614,
      "Исп": 8615,
      "Сво": 8616,
      "скѹ": 8617,
      "##ѣше": 8618,
      "пру": 8619,
      "##тилъ": 8620,
      "##ваю": 8621,
      "##шит": 8622,
      "рев": 8623,
      "##няго": 8624,
      "жил": 8625,
      "пила": 8626,
      "мел": 8627,
      "##цыи": 8628,
      "страти": 8629,
      "какова": 8630,
      "нбсь": 8631,
      "холопи": 8632,
      "і҆ꙋда": 8633,
      "кѹпи": 8634,
      "болѣзнь": 8635,
      "Свято": 8636,
      "бц҃ѧ": 8637,
      "накаꙁа": 8638,
      "ерети": 8639,
      "насиль": 8640,
      "садился": 8641,
      "лѫка": 8642,
      "ѡ҆полчи": 8643,
      "августа": 8644,
      "Гд": 8645,
      "Ке": 8646,
      "Смо": 8647,
      "хер": 8648,
      "ꙗкѡ": 8649,
      "##немь": 8650,
      "##дка": 8651,
      "##днъ": 8652,
      "##рмы": 8653,
      "##҇ъ": 8654,
      "##горь": 8655,
      "прсно": 8656,
      "##еніѧ": 8657,
      "нед҃": 8658,
      "придеть": 8659,
      "##весе": 8660,
      "##рѣи": 8661,
      "##стилъ": 8662,
      "самꙋ": 8663,
      "старин": 8664,
      "##няется": 8665,
      "деже": 8666,
      "##бае": 8667,
      "раꙁли": 8668,
      "раꙁвѣ": 8669,
      "чюдь": 8670,
      "корсу": 8671,
      "деревлѧ": 8672,
      "пѹть": 8673,
      "дроугъ": 8674,
      "здравъ": 8675,
      "жертвꙋ": 8676,
      "глють": 8677,
      "сонмъ": 8678,
      "Томьж҃": 8679,
      "стряп": 8680,
      "Пріи": 8681,
      "фрѧ": 8682,
      "ѡнѣ": 8683,
      "ѿстꙋпи": 8684,
      "##ч҇": 8685,
      "##упа": 8686,
      "##ων": 8687,
      "##ѕло": 8688,
      "поѣ": 8689,
      "##шавъ": 8690,
      "кождо": 8691,
      "##въшю": 8692,
      "през": 8693,
      "##мѣни": 8694,
      "всѧкѹю": 8695,
      "полож": 8696,
      "страну": 8697,
      "бить": 8698,
      "свѣи": 8699,
      "свѣто": 8700,
      "мѧса": 8701,
      "б҃ь": 8702,
      "въꙁра": 8703,
      "моею": 8704,
      "времене": 8705,
      "тьма": 8706,
      "самодер": 8707,
      "мъного": 8708,
      "##треть": 8709,
      "гривене": 8710,
      "кр҃": 8711,
      "шиш": 8712,
      "кабалу": 8713,
      "блг҇в": 8714,
      "племѧ": 8715,
      "Хотѧ": 8716,
      "б҇": 8717,
      "кні": 8718,
      "оць": 8719,
      "основа": 8720,
      "ску": 8721,
      "ѡгн": 8722,
      "ѿвръ": 8723,
      "##нї": 8724,
      "##лсѧ": 8725,
      "##кіѧ": 8726,
      "##благо": 8727,
      "##гр": 8728,
      "##х҃": 8729,
      "##ѭшти": 8730,
      "нераꙁ": 8731,
      "и҆ди": 8732,
      "##еръ": 8733,
      "##таѧ": 8734,
      "дохо": 8735,
      "говѣ": 8736,
      "стѫ": 8737,
      "лигату": 8738,
      "##ции": 8739,
      "ᲂу҆стъ": 8740,
      "возвра": 8741,
      "правую": 8742,
      "Только": 8743,
      "възлюби": 8744,
      "моим": 8745,
      "краи": 8746,
      "дьа": 8747,
      "нашемѹ": 8748,
      "##ніє": 8749,
      "смотря": 8750,
      "##тября": 8751,
      "зимѣ": 8752,
      "всѧкагѡ": 8753,
      "##щѫѧ": 8754,
      "книгах": 8755,
      "простира": 8756,
      "##ꙑи҅мъ": 8757,
      "всѧкимъ": 8758,
      "калики": 8759,
      "подража": 8760,
      "але": 8761,
      "або": 8762,
      "куд": 8763,
      "##чков": 8764,
      "##ради": 8765,
      "недꙋ": 8766,
      "въни": 8767,
      "##рия": 8768,
      "кост": 8769,
      "горѧ": 8770,
      "съхрани": 8771,
      "##стьі": 8772,
      "##мать": 8773,
      "стена": 8774,
      "##лѣи": 8775,
      "капи": 8776,
      "##славича": 8777,
      "##цари": 8778,
      "##бѣже": 8779,
      "##цей": 8780,
      "и҅сти": 8781,
      "##ляти": 8782,
      "##стынѧ": 8783,
      "##ныхь": 8784,
      "городом": 8785,
      "бꙑсть": 8786,
      "другы": 8787,
      "дьр": 8788,
      "гр҃и": 8789,
      "розбо": 8790,
      "рѹсь": 8791,
      "##лениꙗ": 8792,
      "бъ҃": 8793,
      "ворон": 8794,
      "братиꙗ": 8795,
      "кнзь": 8796,
      "службе": 8797,
      "томьж҃": 8798,
      "хѹдо": 8799,
      "книгам": 8800,
      "берет": 8801,
      "ерма": 8802,
      "живут": 8803,
      "##гг҄е": 8804,
      "печенѣзи": 8805,
      "ѻ҆лтарь": 8806,
      "ищ": 8807,
      "тврь": 8808,
      "чс҃": 8809,
      "ѻста": 8810,
      "ѿврати": 8811,
      "##нїѧ": 8812,
      "##сенъ": 8813,
      "##жꙿ": 8814,
      "##фу": 8815,
      "поди": 8816,
      "##вото": 8817,
      "настави": 8818,
      "##рите": 8819,
      "радоу": 8820,
      "##помъ": 8821,
      "бывша": 8822,
      "##ньска": 8823,
      "##гамъ": 8824,
      "##скі": 8825,
      "##стоѧ": 8826,
      "любы": 8827,
      "любити": 8828,
      "##чатъ": 8829,
      "##щиком": 8830,
      "##лену": 8831,
      "добр": 8832,
      "тѣхь": 8833,
      "бжіе": 8834,
      "сѫд": 8835,
      "Самъ": 8836,
      "правдою": 8837,
      "торгѹ": 8838,
      "##шкой": 8839,
      "нѣкои": 8840,
      "Велико": 8841,
      "##мꙿже": 8842,
      "давідꙋ": 8843,
      "четверти": 8844,
      "пришла": 8845,
      "оц҃ь": 8846,
      "новегородѣ": 8847,
      "Ст҃о": 8848,
      "еста": 8849,
      "кло": 8850,
      "снь": 8851,
      "тꙙ": 8852,
      "умыш": 8853,
      "ябло": 8854,
      "ѡсо": 8855,
      "##аа": 8856,
      "##чным": 8857,
      "##ницѫ": 8858,
      "дала": 8859,
      "##емете": 8860,
      "добы": 8861,
      "сеѧ": 8862,
      "защи": 8863,
      "протв": 8864,
      "##чаты": 8865,
      "отцов": 8866,
      "##пан": 8867,
      "пиш": 8868,
      "##вичу": 8869,
      "перваго": 8870,
      "##кех": 8871,
      "г҃а": 8872,
      "самои": 8873,
      "великихъ": 8874,
      "Паки": 8875,
      "нападе": 8876,
      "полуно": 8877,
      "индѣи": 8878,
      "іѡанъ": 8879,
      "рекуще": 8880,
      "хрести": 8881,
      "фрол": 8882,
      "груди": 8883,
      "аб": 8884,
      "бже": 8885,
      "бяше": 8886,
      "мрт": 8887,
      "чему": 8888,
      "эту": 8889,
      "ѹспѣ": 8890,
      "##вца": 8891,
      "##дв": 8892,
      "##ыѧ": 8893,
      "##тенъ": 8894,
      "##҇ѣ": 8895,
      "##ατ": 8896,
      "нава": 8897,
      "нале": 8898,
      "##лого": 8899,
      "съмо": 8900,
      "сънѣ": 8901,
      "##лъга": 8902,
      "##мая": 8903,
      "##болѣ": 8904,
      "##дѣй": 8905,
      "##щими": 8906,
      "старець": 8907,
      "и҅мѣ": 8908,
      "подле": 8909,
      "благодати": 8910,
      "##зор": 8911,
      "мыта": 8912,
      "самовла": 8913,
      "##а҆го": 8914,
      "архі": 8915,
      "грче": 8916,
      "##хѹть": 8917,
      "неиже": 8918,
      "створилъ": 8919,
      "неподоб": 8920,
      "варва": 8921,
      "Божия": 8922,
      "опѧть": 8923,
      "погꙋби": 8924,
      "лѧхы": 8925,
      "возможно": 8926,
      "члв҃къ": 8927,
      "впередь": 8928,
      "филосо": 8929,
      "новѹгородѹ": 8930,
      "Аꙁъ": 8931,
      "Пла": 8932,
      "Цѣ": 8933,
      "впа": 8934,
      "олек": 8935,
      "трѧ": 8936,
      "убь": 8937,
      "хв҃": 8938,
      "шо": 8939,
      "ꙗша": 8940,
      "##дроу": 8941,
      "##ені": 8942,
      "прикос": 8943,
      "##въз": 8944,
      "промꙑ": 8945,
      "паро": 8946,
      "##вьно": 8947,
      "винѣ": 8948,
      "Пос": 8949,
      "стольни": 8950,
      "##енецъ": 8951,
      "ꙁапа": 8952,
      "грѣхѡ": 8953,
      "перем": 8954,
      "##ютсе": 8955,
      "е҆же": 8956,
      "спѣ": 8957,
      "срца": 8958,
      "шатер": 8959,
      "татарина": 8960,
      "старцы": 8961,
      "недоста": 8962,
      "Чтобы": 8963,
      "стоить": 8964,
      "приближа": 8965,
      "макси": 8966,
      "соломѡнъ": 8967,
      "а҆гг҃лъ": 8968,
      "аф": 8969,
      "мере": 8970,
      "тв": 8971,
      "тꙗ": 8972,
      "цвет": 8973,
      "ію": 8974,
      "ѿидоша": 8975,
      "##дть": 8976,
      "##лѥ": 8977,
      "##ѧна": 8978,
      "##пѧть": 8979,
      "нако": 8980,
      "навꙋ": 8981,
      "коего": 8982,
      "приимъ": 8983,
      "прилага": 8984,
      "##нешь": 8985,
      "запеча": 8986,
      "##бом": 8987,
      "велѧ": 8988,
      "##гали": 8989,
      "##хове": 8990,
      "нозѣ": 8991,
      "##сея": 8992,
      "а҆вра": 8993,
      "##чьсти": 8994,
      "куда": 8995,
      "волоки": 8996,
      "нашемъ": 8997,
      "і҆и҃ли": 8998,
      "князей": 8999,
      "##ложити": 9000,
      "анг҃": 9001,
      "є҆мꙋже": 9002,
      "гривны": 9003,
      "##емое": 9004,
      "бываеть": 9005,
      "воевод": 9006,
      "здѣсе": 9007,
      "двѣма": 9008,
      "гл҃ати": 9009,
      "старые": 9010,
      "колѣна": 9011,
      "пещерѣ": 9012,
      "зер": 9013,
      "инии": 9014,
      "кдь": 9015,
      "ѡного": 9016,
      "ѡсѫ": 9017,
      "ꙗз": 9018,
      "##ннымъ": 9019,
      "##елъ": 9020,
      "##аніе": 9021,
      "##км": 9022,
      "##хрі": 9023,
      "##флян": 9024,
      "наю": 9025,
      "и҆ꙁ": 9026,
      "##рети": 9027,
      "приклю": 9028,
      "жидове": 9029,
      "Потом": 9030,
      "ᲂу҆би": 9031,
      "ᲂу҆мер": 9032,
      "##сѣкоша": 9033,
      "половь": 9034,
      "ст҃аго": 9035,
      "имже": 9036,
      "сьмь": 9037,
      "кучю": 9038,
      "бл҇в": 9039,
      "булат": 9040,
      "сквръ": 9041,
      "человѣчь": 9042,
      "самому": 9043,
      "речен": 9044,
      "коуне": 9045,
      "грвна": 9046,
      "богатыря": 9047,
      "сердцемъ": 9048,
      "сіѡ": 9049,
      "посылати": 9050,
      "Бысть": 9051,
      "боудет": 9052,
      "тѣлеса": 9053,
      "прпдбнаго": 9054,
      "глубокие": 9055,
      "дьсѧть": 9056,
      "Испро": 9057,
      "всто": 9058,
      "дрова": 9059,
      "хс҃": 9060,
      "ѹма": 9061,
      "ѿтолѣ": 9062,
      "##лт": 9063,
      "##стен": 9064,
      "##нину": 9065,
      "тоа": 9066,
      "##шаꙗ": 9067,
      "собер": 9068,
      "##шивати": 9069,
      "стрꙋ": 9070,
      "кан": 9071,
      "##лыя": 9072,
      "гради": 9073,
      "живе": 9074,
      "вьі": 9075,
      "Послѣ": 9076,
      "##скааго": 9077,
      "полон": 9078,
      "судья": 9079,
      "беззакон": 9080,
      "бояръ": 9081,
      "посадиша": 9082,
      "д҃і": 9083,
      "д҃ни": 9084,
      "товари": 9085,
      "спаси": 9086,
      "смрт": 9087,
      "написаны": 9088,
      "днехъ": 9089,
      "##нꙑи҆": 9090,
      "спор": 9091,
      "##а҅го": 9092,
      "сказати": 9093,
      "і҆ер҇лима": 9094,
      "Нѣсть": 9095,
      "дщєри": 9096,
      "глагол҄ꙙ": 9097,
      "вседержитель": 9098,
      "воньже": 9099,
      "гря": 9100,
      "овь": 9101,
      "спол": 9102,
      "уви": 9103,
      "##нныѧ": 9104,
      "##ам": 9105,
      "##щем": 9106,
      "##цр": 9107,
      "##ια": 9108,
      "##кола": 9109,
      "##далъ": 9110,
      "##ката": 9111,
      "прилежа": 9112,
      "мог": 9113,
      "събѡ": 9114,
      "##дѣлъ": 9115,
      "творь": 9116,
      "изво": 9117,
      "многꙑ": 9118,
      "полоцкого": 9119,
      "##туда": 9120,
      "лес": 9121,
      "вземъ": 9122,
      "бояром": 9123,
      "##пѣти": 9124,
      "нбса": 9125,
      "царствова": 9126,
      "смена": 9127,
      "є҆динагѡ": 9128,
      "ходилъ": 9129,
      "стрел": 9130,
      "пръга": 9131,
      "тысѧщы": 9132,
      "наслѣдіе": 9133,
      "мт҃ри": 9134,
      "старый": 9135,
      "пречистые": 9136,
      "вѣровати": 9137,
      "і҆исꙋсъ": 9138,
      "лкъ": 9139,
      "уро": 9140,
      "чт": 9141,
      "є҄": 9142,
      "##҆м": 9143,
      "##спи": 9144,
      "##лмѣ": 9145,
      "##бны": 9146,
      "##доли": 9147,
      "##небе": 9148,
      "прого": 9149,
      "проста": 9150,
      "ночь": 9151,
      "бедер": 9152,
      "изва": 9153,
      "##хали": 9154,
      "жиро": 9155,
      "Давы": 9156,
      "##цевъ": 9157,
      "##ствомь": 9158,
      "ᲂу҆зри": 9159,
      "добрꙑ": 9160,
      "грѣхꙑ": 9161,
      "##нія": 9162,
      "шесто": 9163,
      "всякого": 9164,
      "дъвѣ": 9165,
      "бывають": 9166,
      "высок": 9167,
      "обыску": 9168,
      "средѣ": 9169,
      "среды": 9170,
      "живетъ": 9171,
      "ѻ҆вцы": 9172,
      "Лука": 9173,
      "аи": 9174,
      "еѫ": 9175,
      "ествѹ": 9176,
      "зра": 9177,
      "кде": 9178,
      "нш҃": 9179,
      "скꙋ": 9180,
      "упова": 9181,
      "чръ": 9182,
      "##все": 9183,
      "##дру": 9184,
      "##дрꙋ": 9185,
      "##ꙁꙿ": 9186,
      "##яли": 9187,
      "поѣха": 9188,
      "невер": 9189,
      "вънѣ": 9190,
      "всь": 9191,
      "сохра": 9192,
      "каѧ": 9193,
      "оумь": 9194,
      "##щиков": 9195,
      "##щиихъ": 9196,
      "##нѧше": 9197,
      "ᲂу҆жа": 9198,
      "права": 9199,
      "месе": 9200,
      "##скыми": 9201,
      "бꙋдете": 9202,
      "добром": 9203,
      "бл҃ж": 9204,
      "дивно": 9205,
      "своѥмь": 9206,
      "молода": 9207,
      "нꙑнꙗ": 9208,
      "господствꙋ": 9209,
      "писмене": 9210,
      "казны": 9211,
      "милостию": 9212,
      "плъти": 9213,
      "слѣдъ": 9214,
      "Преже": 9215,
      "божия": 9216,
      "зелена": 9217,
      "въспри": 9218,
      "владыка": 9219,
      "ростиславъ": 9220,
      "намѣст": 9221,
      "прямо": 9222,
      "побаеть": 9223,
      "##о҄умоу": 9224,
      "Би": 9225,
      "Ть": 9226,
      "снови": 9227,
      "ін": 9228,
      "ѡ҄": 9229,
      "##чение": 9230,
      "##ствы": 9231,
      "##товати": 9232,
      "водѹ": 9233,
      "могѹ": 9234,
      "проз": 9235,
      "##чаѧ": 9236,
      "##чать": 9237,
      "бел": 9238,
      "##бѣг": 9239,
      "сахар": 9240,
      "дека": 9241,
      "выти": 9242,
      "и҅хъ": 9243,
      "црков": 9244,
      "##зывали": 9245,
      "Бого": 9246,
      "##тробѣ": 9247,
      "ладо": 9248,
      "ѡтца": 9249,
      "галаа": 9250,
      "бьют": 9251,
      "шел": 9252,
      "книгꙋ": 9253,
      "Паче": 9254,
      "послѣдь": 9255,
      "смра": 9256,
      "бывает": 9257,
      "прпбны": 9258,
      "кръвь": 9259,
      "съгрѣши": 9260,
      "Настасья": 9261,
      "Нынѣ": 9262,
      "хртіа": 9263,
      "резвы": 9264,
      "наꙁнамена": 9265,
      "лигатура": 9266,
      "Кре": 9267,
      "лут": 9268,
      "шъ": 9269,
      "ѹ҄": 9270,
      "##ать": 9271,
      "##вете": 9272,
      "##дт": 9273,
      "##щенье": 9274,
      "##свѣт": 9275,
      "##лніе": 9276,
      "##стю": 9277,
      "неу": 9278,
      "незна": 9279,
      "##ерѣ": 9280,
      "##емаго": 9281,
      "кола": 9282,
      "мого": 9283,
      "създа": 9284,
      "совѣтъ": 9285,
      "пропу": 9286,
      "кар": 9287,
      "а҆ві": 9288,
      "пит": 9289,
      "нѣту": 9290,
      "суще": 9291,
      "покле": 9292,
      "бꙑлъ": 9293,
      "ѡбрѧ": 9294,
      "Воль": 9295,
      "молитвѣ": 9296,
      "чернори": 9297,
      "корни": 9298,
      "глѫ": 9299,
      "Мои": 9300,
      "слѹгъ": 9301,
      "ярополка": 9302,
      "нѣкогда": 9303,
      "ап҇": 9304,
      "изѧславу": 9305,
      "имеѧли": 9306,
      "служити": 9307,
      "молѧше": 9308,
      "всꙗко": 9309,
      "мт҃рь": 9310,
      "ꙁнамен": 9311,
      "и҆сполни": 9312,
      "степана": 9313,
      "ᲂу҆готова": 9314,
      "Трои": 9315,
      "ѻ҆гнемъ": 9316,
      "вку": 9317,
      "оли": 9318,
      "тна": 9319,
      "уве": 9320,
      "ѻстави": 9321,
      "##води": 9322,
      "##лик": 9323,
      "##ливати": 9324,
      "##вина": 9325,
      "коры": 9326,
      "##мии": 9327,
      "записа": 9328,
      "оупо": 9329,
      "##гѡмъ": 9330,
      "возмꙋ": 9331,
      "нѣкіи": 9332,
      "сѣди": 9333,
      "печи": 9334,
      "врагы": 9335,
      "спса": 9336,
      "##лѡвъ": 9337,
      "василью": 9338,
      "##станетъ": 9339,
      "##хомся": 9340,
      "богатырей": 9341,
      "вашимъ": 9342,
      "казнь": 9343,
      "подобаеть": 9344,
      "цр҇тв": 9345,
      "облада": 9346,
      "вѣдаю": 9347,
      "і҆и҃лєвымъ": 9348,
      "ч҃лв": 9349,
      "просвѣти": 9350,
      "предѣлы": 9351,
      "щьть": 9352,
      "детьми": 9353,
      "вза": 9354,
      "дія": 9355,
      "мѵ": 9356,
      "одна": 9357,
      "сце": 9358,
      "чти": 9359,
      "҆мѣ": 9360,
      "##сну": 9361,
      "##яа": 9362,
      "##янъ": 9363,
      "##стры": 9364,
      "##ложь": 9365,
      "дадите": 9366,
      "жел": 9367,
      "##тал": 9368,
      "бо҃": 9369,
      "доне": 9370,
      "годов": 9371,
      "реке": 9372,
      "отвер": 9373,
      "март": 9374,
      "изгна": 9375,
      "##гъна": 9376,
      "нѣчто": 9377,
      "бию": 9378,
      "Тоже": 9379,
      "##ремен": 9380,
      "ложе": 9381,
      "твоими": 9382,
      "лак": 9383,
      "Вот": 9384,
      "братꙋ": 9385,
      "молитву": 9386,
      "черных": 9387,
      "##мѡмъ": 9388,
      "сторонѣ": 9389,
      "члци": 9390,
      "ст҃ымъ": 9391,
      "нѣкоего": 9392,
      "небесь": 9393,
      "борисо": 9394,
      "цареи": 9395,
      "жаловал": 9396,
      "помышлѧ": 9397,
      "бьіти": 9398,
      "игѹменъ": 9399,
      "возьми": 9400,
      "назад": 9401,
      "Ильи": 9402,
      "аѳо": 9403,
      "лы": 9404,
      "плен": 9405,
      "ꙋчи": 9406,
      "##діѧ": 9407,
      "##дров": 9408,
      "##щень": 9409,
      "##плю": 9410,
      "##ѡм": 9411,
      "дама": 9412,
      "горъ": 9413,
      "век": 9414,
      "пролива": 9415,
      "оума": 9416,
      "такие": 9417,
      "силно": 9418,
      "##рыни": 9419,
      "##щиимъ": 9420,
      "стааго": 9421,
      "бранъ": 9422,
      "брашна": 9423,
      "а҆біе": 9424,
      "ѡ҆к": 9425,
      "правъ": 9426,
      "##дучи": 9427,
      "и҅ли": 9428,
      "е҆п҇пъ": 9429,
      "никоторы": 9430,
      "молоды": 9431,
      "побѣже": 9432,
      "Мило": 9433,
      "##ченіи": 9434,
      "послѣже": 9435,
      "подобь": 9436,
      "##ствии": 9437,
      "сердцы": 9438,
      "обиду": 9439,
      "богомъ": 9440,
      "взыска": 9441,
      "ответчика": 9442,
      "приходити": 9443,
      "детеи": 9444,
      "рекъше": 9445,
      "напишет": 9446,
      "десять": 9447,
      "##ненавидѣ": 9448,
      "Андрѣ": 9449,
      "печерь": 9450,
      "живоначал": 9451,
      "архепс҃пъ": 9452,
      "Аз": 9453,
      "Мѹ": 9454,
      "Тво": 9455,
      "дш": 9456,
      "ести": 9457,
      "тпо": 9458,
      "ум": 9459,
      "ѡхри": 9460,
      "##дное": 9461,
      "##сⸯ": 9462,
      "##лм": 9463,
      "премо": 9464,
      "най": 9465,
      "##литъ": 9466,
      "##тисе": 9467,
      "неоу": 9468,
      "##ната": 9469,
      "##даль": 9470,
      "##емли": 9471,
      "##ться": 9472,
      "##кину": 9473,
      "##сафа": 9474,
      "вари": 9475,
      "бесъ": 9476,
      "##сего": 9477,
      "столни": 9478,
      "##гии": 9479,
      "рускую": 9480,
      "г҃лѧ": 9481,
      "##ствіи": 9482,
      "кров": 9483,
      "врази": 9484,
      "тькмо": 9485,
      "володими": 9486,
      "##штеши": 9487,
      "церкве": 9488,
      "взѧлъ": 9489,
      "доуха": 9490,
      "внидоша": 9491,
      "##скꙋдѣ": 9492,
      "Станови": 9493,
      "ѡндрѣ": 9494,
      "посадника": 9495,
      "діакѡ": 9496,
      "ѿц҃а": 9497,
      "молодцы": 9498,
      "андрѣи": 9499,
      "убытки": 9500,
      "бръ": 9501,
      "вдови": 9502,
      "крꙋ": 9503,
      "сказ": 9504,
      "##евичь": 9505,
      "##҆нѣ": 9506,
      "##рци": 9507,
      "##мка": 9508,
      "##мрт": 9509,
      "##ꙗхꙋ": 9510,
      "##ѡт": 9511,
      "##коль": 9512,
      "прї": 9513,
      "##новичь": 9514,
      "##еремете": 9515,
      "богда": 9516,
      "пристꙋпи": 9517,
      "##тех": 9518,
      "съв": 9519,
      "събира": 9520,
      "##бога": 9521,
      "ноя": 9522,
      "вѣь": 9523,
      "вѣдѣти": 9524,
      "изнемо": 9525,
      "брашов": 9526,
      "Тога": 9527,
      "рѣчь": 9528,
      "есмѧ": 9529,
      "мучени": 9530,
      "##ждахꙋ": 9531,
      "спасени": 9532,
      "##нницы": 9533,
      "##жениꙗ": 9534,
      "щедро": 9535,
      "подобает": 9536,
      "Ивану": 9537,
      "также": 9538,
      "крестьянских": 9539,
      "##шымъ": 9540,
      "##скех": 9541,
      "правьдь": 9542,
      "замуж": 9543,
      "с҄и": 9544,
      "шли": 9545,
      "ѡль": 9546,
      "ѡць": 9547,
      "ѹмре": 9548,
      "##он": 9549,
      "##чт": 9550,
      "##ꙗне": 9551,
      "прїи": 9552,
      "##вааго": 9553,
      "##ниц": 9554,
      "##кал": 9555,
      "##дошѫ": 9556,
      "приход": 9557,
      "завѣ": 9558,
      "каса": 9559,
      "##нѣй": 9560,
      "##жил": 9561,
      "рож": 9562,
      "##зано": 9563,
      "##няя": 9564,
      "живѹ": 9565,
      "дѣлѣ": 9566,
      "возметъ": 9567,
      "исцов": 9568,
      "е҆гѵп": 9569,
      "сѫща": 9570,
      "семен": 9571,
      "гривне": 9572,
      "цр҃ѧ": 9573,
      "хара": 9574,
      "бѧху": 9575,
      "сътворилъ": 9576,
[...]
