[PAD]
[UNK]
[CLS]
[SEP]
[MASK]
[CTX_DAILY]
[CTX_EPIC]
[CTX_LIT]
[CTX_LEGAL]
[CTX_CHURCH]
[CTX_SCIENCE]
!
(
)
*
+
,
-
.
0
1
2
3
4
5
6
7
8
9
:
;
<
>
?
A
C
D
E
G
H
I
J
K
L
N
P
R
S
T
U
V
W
X
Y
Z
[
]
_
`
b
d
f
g
h
i
l
m
n
r
s
t
u
v
w
z
{
|
}
~
¦
¨
¬
­
°
´
·
º
×
á
ë
ó
÷
ú
ý
ı
ł
ȣ
Ȥ
ȥ
ʹ
ʼ
˙
Α
Β
Γ
Δ
Ε
Ζ
Η
Θ
Ι
Κ
Λ
Μ
Ν
Ο
Π
Ρ
Σ
Τ
Υ
Φ
Χ
Ψ
α
β
γ
δ
ε
ζ
η
θ
ι
κ
λ
μ
ν
ξ
ο
π
ρ
ς
σ
τ
υ
φ
χ
ψ
ω
ϕ
Ё
Є
Ѕ
І
Ї
Ћ
Џ
А
Б
В
Г
Д
Е
Ж
З
И
Й
К
Л
М
Н
О
П
Р
С
Т
У
Ф
Х
Ц
Ч
Ш
Щ
Ъ
Ы
Ь
Э
Ю
Я
а
б
в
г
д
е
ж
з
и
й
к
л
м
н
о
п
р
с
т
у
ф
х
ц
ч
ш
щ
ъ
ы
ь
э
ю
я
ё
ђ
є
ѕ
і
ї
ј
ћ
џ
Ѡ
ѡ
Ѣ
ѣ
Ѥ
ѥ
Ѧ
ѧ
Ѩ
ѩ
Ѫ
ѫ
Ѭ
ѭ
Ѯ
ѯ
Ѱ
ѱ
Ѳ
ѳ
Ѵ
ѵ
ѷ
Ѹ
ѹ
Ѻ
ѻ
Ѽ
ѽ
Ѿ
ѿ
Ҁ
ҁ
҂
҃
҄
҅
҆
҇
Ҍ
ҍ
ґ
ӏ
ӑ
ӱ
჻
ᲂ
ᴤ
ᵕ
᾿
‐
‑
–
—
‘
’
”
†
…
″
※
‿
⁓
⁖
⁘
⁞
№
∙
⋮
☺
⟦
⟧
ⰴ
ⰹ
ⱉ
ⱔ
ⱕ
ⱖ
ⱚ
ⷩ
ⷪ
ⷮ
⸭
ⸯ
⸱
Ꙁ
ꙁ
Ꙃ
ꙃ
Ꙅ
ꙅ
Ꙇ
ꙇ
ꙉ
Ꙋ
ꙋ
Ꙍ
ꙍ
Ꙑ
ꙑ
ꙕ
Ꙗ
ꙗ
ꙙ
ꙛ
Ꙩ
ꙩ
Ꙫ
ꙫ
ꙭ
꙯
꙳
꙽
ꙿ
##о
##х
##т
##ѣ
##а
##ш
##е
##р
##в
##н
##м
##у
##ꙿ
##ц
##ѹ
##ꙁ
##и
##л
##ь
##с
##к
##ъ
##п
##г
##ѧ
##҅
##҃
##҆
##ѳ
##ѡ
##і
##ꙗ
##ꙑ
##д
##ы
##ч
##ⸯ
##б
##ю
##я
##α
##υ
##ρ
##ι
##ο
##λ
##ς
##ж
##ѫ
##7
##5
##щ
##з
##ʼ
##ꙋ
##й
##ѥ
##҇
##꙯
##ѭ
##є
##ѩ
##҄
##ꙙ
##­
##ѕ
##i
##ѿ
##ѻ
##ν
##ⱕ
##ҍ
##ѵ
##ꙅ
##ф
##ї
##ꙇ
##ꙃ
##꙽
##ѯ
##ȥ
##÷
##0
##2
##á
##δ
##ε
##μ
##ω
##ⰹ
##ѱ
##ξ
##γ
##η
##σ
##κ
##ё
##᾿
##b
##t
##τ
##ꙩ
##u
##l
##m
##s
##χ
##ћ
##4
##9
##џ
##6
##ζ
##1
##҂
##3
##r
##ȣ
##ӏ
##β
##Ѣ
##ⱔ
##ꙉ
##π
##¦
##v
##φ
##ⱚ
##ґ
##θ
##n
##g
##ý
##ꙍ
##ӱ
##d
##z
##ϕ
##˙
##¬
##ⰴ
##8
##э
##ʹ
##ѷ
##⋮
##f
##h
##ҁ
##I
##T
##ⱖ
##ψ
##N
##K
##°
##ј
##¨
##X
##ӑ
##A
##L
##Y
##ⷪ
##´
##ⱉ
##ó
##Д
##ђ
##º
##ı
##М
##Т
##ѽ
##ᵕ
##E
##G
##С
##ꙛ
##w
##H
##U
##R
##C
##ⷩ
##P
##О
##В
##И
##ᴤ
##ꙕ
##ł
##∙
##ⷮ
##Л
##А
##Г
##Р
##Н
##ꙫ
##ë
##V
CT
CTX
##ст
по
##во
##ко
##го
на
пр
##ен
##ти
##ли
##ло
##ра
##ла
##но
не
##мъ
##ро
##ва
##ни
##ет
CH
##UR
##CH
CHUR
CHURCH
##то
LI
LIT
##на
##да
##ри
##ре
##ка
то
DA
##IL
DAIL
DAILY
##ди
##ть
въ
##же
да
ко
во
EP
##IC
EPIC
##ем
же
и҆
##ви
##хъ
##ны
##ми
##ер
UN
UNK
до
вс
##та
при
##до
##ле
##де
бо
##ша
##ки
##мо
##те
мо
##ше
##не
за
##тъ
сво
се
##вѣ
го
##ве
со
##въ
ни
##лъ
##сть
##ль
##по
оу
ра
##ши
про
##бо
ве
##ма
##сти
##рѣ
##чи
##си
LE
##AL
##GAL
LEGAL
ка
съ
##ста
##ще
бы
##са
##рь
##нъ
сѧ
##жи
##че
##дѣ
##лѣ
##нѣ
##му
##нь
ст
##мь
та
##къ
##га
##ся
##хо
от
лю
##би
##іе
##сѧ
си
##ени
бе
ми
##ча
##ръ
или
ре
##ца
##сто
##жа
##вы
##ну
тво
##лю
те
##пи
є҆
##іи
##ск
##ры
но
па
##ско
пре
пос
##уд
##еть
##ру
ва
ро
хо
##вь
##дъ
къ
ма
##па
##бѣ
ли
са
##бе
##за
##мѣ
из
че
вѣ
его
##етъ
##се
##ха
##ща
де
##дь
жи
ви
##щи
##лѧ
все
##ме
ста
##ку
##лы
ти
##ня
##со
вели
что
бра
##нѧ
##ба
##лу
##сла
всѧ
ца
##це
##спо
##съ
##ень
гра
пи
свое
##рѧ
дѣ
мно
вы
##ги
пе
доб
свои
Да
##ты
##ци
##ски
##бы
##ды
зем
воз
##ена
##ву
По
##тво
##гѡ
##сь
##оу
##лаго
сто
##ду
вь
##ство
тако
##су
##гда
бѣ
##ля
сы
##ска
ты
##мѹ
ру
##л҃
##іа
##шь
буд
##чь
##ене
чело
пра
##ря
прѣ
##н҃
##бра
##жь
##мꙋ
##ено
##сѣ
раз
сло
лѣ
##мы
ꙗ҆
гри
##іѧ
ме
ꙗко
а҆
##сте
##вер
##сп
##зъ
##енъ
того
##у҆
##вати
ѡ҆
##гъ
##кы
##тѣ
ᲂу҆
##цы
поло
И҆
SC
##IE
##NC
SCIE
##NCE
SCIENCE
яко
##кѡ
нѣ
##суда
пок
тѣ
і҆
Не
есть
##г҃
мѣ
ку
госуда
рече
##стъ
##цѣ
##зы
кото
им
чи
стра
под
их
ино
без
##ць
ту
##сты
##зи
и҅
##ных
##лен
су
##емъ
##дѧ
кто
##бь
цр
##гу
св
##ете
##зь
##ное
ло
##емь
##моу
сѣ
##пра
ча
Бо
дво
кня
сла
ско
всѣ
##лѹ
пере
##ту
##твори
##рю
бг҃
##ные
ст҃
отъ
ему
гд
##рꙋ
##ію
##сло
сь
##ню
##зо
пла
би
горо
об
##рѹ
гд҇
##ке
люде
##ныи
##стави
глаго
##ены
##нꙋ
##нѹ
въз
##дꙋ
како
##ніе
аще
будет
##каза
му
кра
вз
##наго
##мер
ѻ҆
госпо
он
ле
ис
##лꙋ
гла
бж
ради
грѣ
##ют
##еніе
##ства
##вори
##мѧ
На
посла
##нд
##пе
има
дру
пол
еси
##ние
всѧко
добро
##ств
##став
бꙑ
сѹ
То
мѧ
дь
##кѹ
свѣ
грамо
##ему
ла
мои
г҃
рѣ
коро
##сы
пове
##горо
мое
твое
кре
своего
Го
пои
##ако
##каз
грив
є҆гѡ
пер
ес
##ного
Въ
воло
##нꙑ
много
него
земли
как
##вра
##дни
иже
##ноу
##хи
люди
ꙗ҆кѡ
ся
##лова
##реб
еди
твои
##ков
видѣ
три
которы
мы
благо
бꙋ
##дѹ
велико
##вич
##лко
тъ
ихъ
##нѡ
##тѧ
##детъ
##гы
##тчи
##тро
бь
##цо
вся
##ску
пред
##скы
писа
коу
##ение
люд
вла
##сл
##мен
##цъ
ду
покло
##сно
мило
##лек
ба
##роу
тѧ
тебѣ
имъ
##хь
сего
вра
##кь
##про
пу
##бъ
живо
бл
мѹ
Аще
##оло
бл҃
мнѣ
о҅
вел
кро
##лыша
##лев
гс
##доша
намъ
ива
день
##бою
ди
в҃
##щь
##слав
свою
##дно
вре
сꙋ
лѣт
##пу
них
##тв
кнѧ
ны
себе
слово
сотвори
##писа
сем
##вше
##ху
##юще
б҃
бу
царь
чю
ше
кого
бога
мꙋ
они
##аго
себѣ
любо
##ут
прода
##ным
##кꙋ
еже
бж҃
руб
##ц҃
боя
слу
##шли
ꙁа
тех
землю
бѹ
##стѣ
##коже
и҆хъ
мъ
мь
Се
##мя
##ныхъ
гр
тем
твори
тебе
какъ
нь
##дет
ѡт
сер
га
Ка
наше
бысть
княз
##лни
моли
два
нико
##бя
жен
##кꙑ
наш
##кла
дер
##ꙁа
##ложи
гл҃
вси
дн҃
##тя
пог
##дити
быти
проти
##ніи
хра
свя
мене
зна
ѡб
##пѣ
мен
въꙁ
было
ри
##и҃
нас
##доу
зла
##три
##ком
ѥго
Но
##сту
##лекса
жа
вер
##їе
##нити
##нии
челове
##жен
##ють
нача
##комъ
нъ
тому
ть
##вѣда
##дите
повелѣ
Во
человѣ
##стро
До
##нѫ
гсд
помо
кор
##хꙋ
Ко
имѣ
уч
брат
##ите
##ето
##вѧ
само
##ною
##стья
пло
##шка
государе
и҆з
##наѧ
тут
##цу
бол
вои
##пъ
##хомъ
##ште
##ной
##дит
вотчи
роз
##ника
жена
##ная
тр
##номъ
##лександ
самъ
##дя
##кра
##кѣ
##нов
##ев
##ется
слове
##ꙑи
##зе
##ні
раꙁ
людей
цар
##жда
пот
исп
лу
і҆и҃
дѣла
наши
##дра
##с҃
##еха
##гѹ
##коу
рѹ
##тель
##жде
##сли
##гра
взя
ры
подо
поса
пріи
ска
##лем
##рт
##щен
пѧ
тꙑ
При
##ге
##насты
моло
смер
##аше
##вꙋ
##деть
##вити
ки
сп
чер
своѥ
##ном
которые
##вать
##ную
вамъ
##вали
гд҇ь
том
мл
оубо
##ета
пѣ
##дати
##зѣ
велики
смо
##ныя
прии
бл҃го
чет
рꙋ
##слс
ар
сн҃
гривь
##нои
##нова
##сѹ
д҃
слыша
##рев
сѫ
вꙑ
##лико
##вет
##фа
нꙑ
пото
це
##ютъ
##емꙋ
добры
суд
слѹ
##тр
ѥ҅
##в҃
печа
##вя
кни
това
цр҃
бес
бг҃ъ
##жд
Александ
##ское
поме
радо
насъ
Ни
убо
которо
бла
##цѧ
##ерь
##зна
ск
дъ
##никъ
##їи
##мени
пока
кѹ
господи
васи
##ющ
##нымъ
цѣ
соу
##ніѧ
##ких
##стра
##лѡ
##твор
хри
##шъ
тои
мне
За
пет
миха
##славъ
тор
прише
##пь
Ма
##грѣ
##ными
Госпо
##рова
##цю
##лоу
##вых
##вед
##ского
тя
##тити
государь
##лени
##нет
ꙗкоже
старо
##шо
говори
мѣсто
є҆го
князь
##дер
нб
сꙙ
пꙋ
##бу
меня
##пол
зло
##ров
##ющи
бере
реч
##жъ
##тсѧ
##тся
##ланѧ
дꙋ
##їѧ
##шен
своихъ
##ходи
запо
##тра
пь
кон
нимъ
##бѧ
##слов
сте
##лся
холо
є҆мꙋ
Тако
##вш
чл҃
##неже
##тье
кр
##стои
тогда
##скаго
зако
##тел
хлѣ
##ан
##вое
исти
бг҃а
хр
##еши
ха
прав
гро
Ми
поко
учи
полъ
##мѡ
многи
томъ
тот
е҆
запа
Са
##имъ
кꙋ
володи
держа
##ские
##гна
гор
##ез
бити
##емо
##вал
чь
приве
взѧ
є҆сть
##чен
##зни
##кою
Ва
сице
##бѡ
положи
дш
иде
тре
##вича
##вѣща
неи
##бры
Мо
##гꙋ
##лати
ржи
##едо
пода
##ному
своих
велика
вое
##тца
##наа
цер
##шени
##ница
сторо
##ꙁъ
серд
сътвори
нем
Си
дѣло
##скои
##ніа
Ра
см
##тва
паче
наказа
ꙁем
##шти
чисто
егда
##схо
е҃
ан
ст҃о
постави
мало
добра
монасты
град
крестья
приказ
после
дни
##выи
крѣ
ши
##ныѧ
своимъ
пакы
##вши
##ковъ
##ници
##том
въда
##воло
бъ
хотѧ
вода
азъ
царю
спа
Та
гнѣ
##кви
всѣхъ
гн҃
бли
сл
брата
дома
иꙁ
побѣ
нихъ
##нут
дати
##что
##гла
ос
##фи
##споди
##хѫ
челоби
бꙋдетъ
##ный
написа
быва
людем
князя
##сѧть
##рѡ
##скому
##ских
конь
##жени
##хѹ
обра
##лич
над
##доб
а҆ще
гл
##при
непо
##тися
и҆же
голо
роди
домъ
мнѡ
жены
испо
ѡ҆б
##гь
хоро
коли
##вꙑ
##шта
ѡби
воро
дрꙋ
мол
##сꙋ
##жно
##ницы
##стѧ
люби
##мꙑ
обы
##ству
##ема
##цко
##зда
Нъ
домо
жити
васъ
##фо
##мыш
##ѕ҃
своими
##люби
##бꙑ
##вѹ
##емѹ
##х҃
є҆си
каба
##шѫ
ѥси
От
##҃и
##тоу
##шу
челом
дол
##и҅
пошли
##ники
Про
##ихъ
##чю
имати
##нꙗ
куп
тоу
доро
мѫ
Он
будеть
##пре
##що
##ловѣ
што
##дѫ
смѣ
##жу
##прав
##вичь
пору
ша
запи
Со
сеи
бори
указ
##рен
##ян
##тꙋ
ст҃ы
доу
свѧ
града
##мень
послѣ
сам
ѥму
##слава
сына
##иде
собою
ходи
поми
Вла
ср
бого
милости
ѹбо
##вно
##лꙗ
##юща
##ской
тобѣ
бѧ
небе
##реи
тамо
с҃
пох
##раз
Па
##вгоро
она
всѧк
Ты
сви
пожа
##шки
рабо
кому
ведь
послу
своѧ
нога
Съ
вни
##скую
были
ними
творѧ
Ꙗко
црк
ль
поу
тобою
҂ѕ҃
поле
вь҆
всѣмъ
приго
здѣ
ѥс
лѹ
хощ
въсѣ
зо
цет
##тер
ѡбра
якоже
##нье
Аже
воево
##дова
##жет
бѫ
мя
##шѧ
##дими
око
боль
право
дх҃
##кло
нашего
Добры
спо
##ром
учнут
очи
той
коне
##или
толко
дне
##домъ
##стан
##кто
нѣко
немъ
тро
понеже
дн҃ь
##ити
##стꙋ
дн҃и
всѧка
для
беꙁ
разу
стре
богаты
еще
##връ
##ят
вол
##врати
##зва
##нове
весе
##сков
##шко
##това
онъ
##вые
всегда
нам
людеи
брати
##шт
##чени
соро
є҆же
##а҆
##хом
а҅
сро
сказа
##сии
##щꙋ
боу
сед
##ния
ея
##яти
бояр
наро
высо
томѹ
##блю
##деши
стро
##еми
веле
царя
##ві
царе
##гды
##дꙑ
мла
##нѣи
##рти
уби
##сꙗ
покланѧ
прихо
всемъ
##цꙋ
дв
своему
##ломъ
уо
##зѧ
##чести
сты
сами
##им
пѹ
Тѣ
лѣт҃
##спѣ
новгоро
врѣ
емѹ
сть
дрѹ
мой
прине
дружи
гю
##быва
великого
прп
##нꙿ
есмь
против
аг
##бли
що
тꙋ
ог
сле
сама
подъ
ника
каз
##цемъ
є҆ди
##рица
##прѣ
кла
а҆зъ
##нию
##мена
##чет
##ковь
##жю
прі
рек
створи
глагола
скор
##вою
##томъ
себя
##ромъ
ваше
##жни
отда
будут
всю
##шю
##т҃
оби
##мене
преда
чл
##нѹю
##рі
отро
гу
соло
и҆мъ
##ѥ҅
паки
##хов
наре
грамота
дроу
каза
тебя
ꙗ҆коже
##ті
роу
о҅тъ
клю
##ѥть
моего
глагол
##рѫ
##стви
##кие
где
##жѧ
##дов
##въше
лоу
##рꙑ
михаи
оже
##тре
##воу
пис
семъ
##стию
##лены
##выхъ
Вы
Ре
семь
##вка
людь
##шасѧ
сынъ
села
тѹ
А҆
##пѧ
мар
слав
Васи
своею
##дить
господ
ѳе
проси
##ван
володимер
Ви
##вить
##гоу
дерев
всего
приде
язы
цто
##ствꙋ
и҃
гре
недо
ево
полу
зе
##лько
почи
##емоу
б҃ъ
надо
прос
градъ
глаголю
сихъ
мате
##леніе
свобо
##ниѥ
здра
чловѣ
сере
##дро
##стѹ
была
##лика
і҆ꙋ
##хра
##шꙋ
брать
своей
сол
##чер
##тки
##жати
ю҆
блго
Владими
##щю
##кова
##нит
##люб
дѣти
ответ
суть
Како
достои
##шаго
треть
мѡ
изъ
емоу
тер
##цов
##кмо
коня
##деже
к҃
ꙗ҆же
##мет
##бро
##ж҃
##дом
##кую
і҆ѡ
ще
мною
Ве
іѡ
##шати
##дѡ
поги
##тина
##лка
##тов
ц҃
##лага
зане
##его
нему
поклонъ
##чки
##ѣло
##их
##дна
время
##ждь
Что
чево
государю
невѣ
рь
##ꙁь
святы
гн҃е
##ѧти
##сни
лѣто
твоего
ѥсть
дело
Ки
стар
##теи
##вои
##боро
дш҃
хотѣ
творити
##торо
гдѣ
##рь҆
дела
лѣта
человека
##ева
##щіи
##дари
испра
моѧ
##н҃ѣ
золо
сми
жит
весь
##пере
реко
##лися
сын
##дръ
торго
есте
своеи
##ник
прика
##тѹ
нака
тата
##немъ
фа
##шень
скоро
##лі
##пы
##носи
оучи
##ять
тѣло
четы
жь
зап
тра
##ения
##бити
поро
поклоно
##ждо
велми
ке
##нно
отпу
смерти
сіѧ
моя
Как
##ꙁи
##леи
емꙋ
##жень
##воли
слꙋ
далъ
едино
дре
##жѹ
ваши
##рѣи
##лено
##мно
##нка
Вь
##вол
##лет
море
##дою
хва
##пѹ
подоба
стои
##скихъ
##дви
яро
болга
##ехал
четвер
кри
##влѧ
дръ
попо
##вна
ст҃го
##дца
##жо
оста
въсе
ниже
##вым
##кры
чюдо
ꙗ҅
х҃
пришли
вьсѣ
мою
##вла
##ваго
ге
##вари
име
буду
Ино
ответчи
##ар
##щу
быс
былъ
ест
кы
##и҆
##скꙋ
десѧ
##лыши
правед
имя
дья
архи
##ц҃а
##ємъ
кора
плем
мѣста
нѣсть
мл҃
быша
##҄у
##мыс
##тꙑ
##шни
имѧ
све
вьсе
блю
Ла
нет
поиде
##ѳа
##зу
пога
##лых
сре
тѣхъ
гь
служи
Пре
двор
вар
##неть
##тати
моѥ
чтобы
##тью
пити
своя
ныне
Александръ
##лена
болѣ
твоѧ
рѹко
похо
христо
городе
кони
землѧ
##пꙋ
добрѣ
пѧть
дон
##соу
всѧкои
проро
друго
##лта
##рови
возми
ѡс
##гꙑ
##дꙋтъ
кралев
миръ
мер
Ста
твою
нена
##щы
##удь
##а҅
##бꙋ
Божи
федо
##нови
собра
##лья
##зыва
оте
слова
Хо
пръ
види
##гли
сна
позна
бесѣ
##нее
собѣ
ѧзъ
вотчин
ѕ҃
##пити
сн҃а
боле
вѣч
з҃
л҃
кунъ
князю
человѣкъ
##шꙙ
##дѣте
##нча
учнет
##ѭ҄
пови
повѣ
повѣда
рее
##ским
Бога
своемъ
##неи
стѣ
бѡ
дра
отца
##ствѣ
##лес
грамоту
земля
##мѫ
такъ
обрѣ
многа
собо
словеса
иска
##ден
##лов
милость
##скыи
##н҄
дале
дене
сынове
преже
мат
нач
тысѧ
хотя
##кре
трь
##жеть
всѧкое
##кого
ден
нами
государя
##ія
постав
##нович
##дел
таи
посадни
указу
Из
##вѣтъ
руку
взяти
##кѫ
##ская
Вѣ
##жѣ
##женъ
прия
вет
мꙑ
григо
мужа
заповѣ
кн҃
##има
##десѧ
##вымъ
своим
сра
##знь
сереб
##торы
##рина
жела
Пет
слава
царство
грамоты
##деи
сил
сꙗ
пы
ап
игу
посы
##гоша
##лью
стол
жалова
##рин
##д҃
блг
буди
##тка
лоша
н҃
ото
##нина
рублев
Ива
##нить
давати
ничто
подви
і҆и҃ле
рат
##ском
##скии
##дут
##рою
##нааго
сынѡ
##хѡ
напа
такоже
даи
ним
##щаго
##ими
пост
всѧкомѹ
дани
крас
даже
Хри
##шед
Миха
##рити
##ске
##гово
крѣп
##ствѹ
две
##ѧи
##рати
Богъ
##жетъ
воста
всем
прпб
ги
немо
##ею
перед
Ро
Уж
подоб
бѧше
##слыша
наша
чест
##ким
платити
##леб
нынѣ
##сподине
пова
може
нн҃ѣ
##нію
коуно
вл
сꙑ
##ахѫ
##валъ
##рем
приста
праз
##таи
стоя
##ровъ
чемъ
богъ
времѧ
двѣ
##ріи
моу
##врь
##зю
сіе
расп
##щеши
напо
ию
остави
##рети
##зако
грѧ
##смь
##темъ
ꙗже
был
служ
пом
##мьже
##держа
нѫ
##лити
въс
Сы
##вую
##хы
м҃
тру
##дете
##того
##рии
шесть
##00
##дѣти
лица
ѧ҆
божи
изѧ
сп҃
исто
ꙗро
##рени
##чно
##ников
прок
Говори
кь
##бѹ
выше
##ходѧ
##шку
ем
##сомъ
мни
##лива
послꙋ
мѣстѣ
прави
##писко
плъ
##тно
##евич
вѣда
купи
чадо
сі
ᲂу҆бо
##веде
##смо
так
посо
таково
слѣ
дети
кн
##шѣ
##ꙁы
##воз
матери
спи
##скѹ
##щѹ
##динъ
моск
##вѣт
всеа
пребыва
похва
##еи
пора
митро
Все
зъ
##жены
тѣмъ
четыре
плѣ
жере
##лою
пого
прем
##стити
своѥго
жене
##сен
свет
дасть
грѣш
##ꙁѣ
зи
чтоб
і҆ер
##гнѣ
дет
##ов
корми
стрѣ
##проси
##слови
##пова
кръ
ць
##мꙿ
##жит
хи
цари
##ніемъ
пти
црь
о҄у
прь
приш
мор
##скимъ
##ступи
всѧкомъ
бж҃іи
##наꙗ
кои
страш
є҆гда
поче
##лех
суда
б҃а
жено
свой
памѧ
всѧки
и҆ли
жо
всегды
##ешь
покланѧние
господине
ей
ѣко
взы
приложи
##цем
вель
##вьр
манасты
##е҆
##нем
##мже
свер
##҇ли
##тели
##дѣи
ново
людемъ
сердце
ал
дете
##види
##лей
##їю
писано
цетвер
##бл
нашь
москов
христи
оба
ѡста
И҅
родите
Бе
согрѣ
жало
коню
##поли
##боу
##брѣ
ꙗ҆зы
оть
пож
никто
мн
н҄
грв҃
##щъ
##нею
гд҇а
Еру
поместья
Еще
##ді
али
##гѵ
многы
гѹ
##лые
##ниꙗ
людіе
поз
величе
совер
вас
даві
##лею
##скъ
еи
кꙑ
пшени
##мира
присла
покры
изба
уго
целова
пришед
хъ
##бои
кнѧзь
потреб
истин
##бла
##стве
##довъ
ѿда
##жена
попе
дворъ
столь
##трь
тыся
Бѣ
##вен
##ꙁо
##стер
##мр
лице
кли
безъ
посъ
Егда
хѹ
##ѵсе
ӏ҃
##вѣр
порѧ
##чка
##бой
##мысли
бг҃ѹ
вда
бг҃о
##мати
чего
погре
Ерусло
кланѧ
рѫ
##ремъ
##цею
##ліе
виде
##прави
домꙋ
лѣтъ
ключ
##щихъ
буде
ин
пъ
##лови
дастъ
##сѫ
прѣда
разꙋ
ѡбихо
Или
здо
нѹ
трѹ
##стѫ
томь
##кыи
##тѡ
градѣ
великаго
пріиде
##чено
пома
жита
наслѣ
фе
##жено
##҄о
ивана
дми
бело
Ли
ез
обе
комѹ
шь
бор
всеволо
##лє
##ѣи
##щет
единъ
и҄
Оу
аже
##слу
##дне
##слави
##трѧ
сила
серебра
##ѡдо
велѣ
напи
въск
##езжа
вотчины
##лись
##пати
обѣ
##ками
##ньі
рѹкодѣ
дворе
крь
##ѳо
##жество
соли
сок
##дья
##блѧ
##ский
##гѵп
##ѳи
##биша
##евъ
##нью
Господь
##рми
пош
прекра
противу
крестьян
акы
ее
##шя
##зно
могу
рекъ
дворя
Пи
##вая
яже
погу
дове
человек
##ните
рас
памя
##вица
##десѧть
винова
##еніемъ
і҆ер҇ли
мьсти
##тое
непра
въста
##посто
##мест
благослов
въсп
Васили
зави
дв҃
хр҇
##ваше
году
##щени
##лом
##новъ
патри
##шоу
вѣр
челомъ
##еви
немь
холоп
днь
##городи
пр҇
въса
##скіи
ваша
Свя
перво
црк҃
##таго
##фе
неже
прѣдъ
имать
Те
оп
##нти
лъ
юрь
##вѡ
##сль
##стя
##мол
є҆ѧ
Бова
города
хто
тое
вой
сꙋть
Моск
показа
##бор
плака
##цом
степа
полов
хрст
##щих
##шет
нощь
фо
чем
##зами
##лꙑ
оустро
Добрыню
##тою
##проти
попа
##домо
##нья
всех
##кіи
##нагѡ
желѣ
ѡг
##пло
поч
оуго
ѧко
изо
##скꙑ
##твер
твоихъ
єго
воды
присъ
##чат
двора
горѣ
брате
естъ
##жеи
покла
великому
елико
##бира
ѡбрѣ
##зри
дал
присно
созда
стары
таких
ꙁъ
мир
гл҃а
съгрѣ
воевода
Ру
рубль
##ствоу
нꙑне
##кси
##ших
пит
которых
василь
лв
##щ҃
мужи
##пря
##іс
##борот
ві
##дино
##шити
держати
сест
##енье
срѣ
##жꙋ
##йте
гость
##уды
##лемъ
дондеже
##сер
гсдрь
трꙋ
##нѣмъ
всё
##чит
##кия
честь
молит
ѡнъ
ѳедо
помыш
##ват
рѣза
королев
пола
люб
такѡ
##тръ
такова
коробь
книга
аште
ней
##жить
##стей
наказ
место
##жаше
пакꙑ
бѣше
Богу
свѣтъ
мѡѵсе
##бль
##біе
свѣт
полти
##ваи
##тора
Му
ѳо
##сени
муд
среб
##яше
братъ
##тить
##сити
которой
##нен
бго
##менъ
поклони
гр҃и
поно
церкви
##чей
Владимир
ед
##вша
##чего
обла
крепо
##вле
прости
силы
таковы
вѧ
сти
##їемъ
пѡ
бре
##лии
коло
приказа
##щемъ
Тогда
##шел
любовь
##стꙑ
лосо
друга
велеть
##тѫ
##ей
##сов
петра
возмо
##стыни
пропо
женѣ
##щеи
гсдр
нб҃
мт҃
чре
##кой
##рей
Прѣ
наи
##нами
рабъ
ре҇
мати
##заре
поима
##лки
##спи
##щется
##вит
пусто
наде
##емы
сынѡвъ
Пр
сме
##говори
ами
ꙁако
##кедо
лꙋ
поп
крѣпо
денги
тимо
новгород
##стно
всѣх
учини
##кои
надѣ
кры
Ꙗ҆
##шася
имѣти
иску
##дрѣ
симъ
сⱕ
митрополи
послѹ
Она
ѿвѣща
бц҃
##деся
##льни
ну
чада
##чу
##щеніе
##етсѧ
гото
объ
вме
лѧ
##нце
своегѡ
городо
##цѫ
небо
дес
город
Яко
ѳ҃
##зем
##ехали
патриар
##жіе
##лин
влады
снѣ
камень
##чемъ
##скомъ
прежде
товары
ѡни
##тьѧ
силою
звѣ
кѫ
боуд
##ются
кромѣ
##дать
ада
##҄е
##дин
ѧзо
##вѫ
людех
##р҃
##ѥмъ
молѧ
##хоу
пако
##рину
##мина
посѣ
вѣру
##ския
изы
Того
аки
спра
##жне
##тей
жени
##меть
твоя
русии
поне
рѣша
##кьі
##ѣха
##нетъ
##щѫ
##вь҆
деся
##полкъ
##юр
##нику
допра
слы
село
##мре
токмо
живу
мнози
ов
юно
##цоу
Нѣ
діа
ѿц҃
##ило
##чих
кам
господь
##женіе
пое
##рит
воск
грѣхъ
##ліа
закла
##тья
вина
сн҃ъ
ци
Тут
есми
долго
аз
##нима
като
Сего
ничтоже
##леши
брань
государевы
прѧ
##ново
##номꙋ
гости
обо
вмѣ
##мі
##раг
##чити
ѡбы
тобе
анд
##цки
##вѣсти
ство
городъ
потому
посыла
великий
сіа
##щимъ
##зывати
государеву
лука
лет
мѹжѹ
твор
##ствен
ества
##҇а
съм
здрав
##ѧлъ
##жѫ
##зрѣ
Ме
мц
##ленъ
##стре
вѣка
великъ
гл҃етъ
кѡ
##рав
ꙁло
##скоу
глаголѧ
лежа
челобитчи
егѡ
##тю
##тен
##бло
иного
##хе
##лго
пожи
възь
##леѯ
никому
пле
прием
всяких
нашъ
##стію
##шее
стоѧ
##нꙋю
красо
##лѫ
апосто
жъ
мики
##оумѣ
Бы
ок
оти
##токъ
##дитъ
раба
мату
живота
дань
и҆мѧ
##вки
##нѣхъ
мира
є҆гѵп
##дѧтъ
сия
род
детей
препо
##зира
гюр
ф҃
##били
всѣми
гсдрю
##нна
##спро
##щати
сконча
сие
##лга
##ть҆
котора
остав
вам
мѹжь
##шеніе
сиро
гъ
##шы
тово
##сели
великии
иго
##ждꙋ
##зꙋ
послꙋша
Ами
##ю҆
##жды
със
напра
быть
нощи
немꙋ
стѧ
гл҃ѧ
кру
##нена
людми
трети
велети
##храни
порѹ
мимо
##ере
##ври
поча
всѧкаѧ
намо
##вери
##вомъ
##стью
гривьнъ
говорить
чюдотвор
клѧ
ѥсмь
ѡв
##ꙗ҅
духов
##чо
##цѣхъ
Воло
Мы
Су
вд
##стье
муже
всѧкого
##слѣ
наоу
царѧ
мед
вне
опа
##тине
видѣти
Дру
вино
брату
клев
и҆зы
##демъ
##вести
разо
другу
трѣ
посре
Же
##леть
гривна
животъ
ико
грамоте
злато
##фана
послуша
прино
вѣкъ
##крѣ
##ч҃
печали
ꙗв
##ховъ
новъ
русь
##кѡвъ
волю
##ником
даде
##жьство
добрых
##рда
кара
сътвор
жену
Тъ
##дѣтель
пае
##гати
##рагмен
укра
##дина
блъ
твер
колѣ
свѣта
коунъ
весели
гръ
еха
##лꙿ
##кли
##ючи
посади
##дали
##нꙑи
##пѧть
нечи
горе
##доби
##чина
иван
##чем
приво
своѥму
рѧ
побе
##ниче
силу
егоже
володимеръ
городех
славы
ски
досто
допря
##скь
##кѹю
допряма
##шіи
твоимъ
##цовъ
##нїе
бга
наси
##дѣже
ѡбѣ
цр҃кви
широ
голову
всꙗ
##льи
людьми
твоѥ
##скими
##ством
##ман
мур
самого
##зя
петръ
приказе
слꙑ
цоло
##нё
##вом
сыщется
моеи
##держи
ды
боже
нꙑнѣ
Ай
Иже
ав
ими
##ила
уда
нау
##телю
вами
##тыи
всѧкіе
новгородь
##гомъ
совѣ
##бить
ѡц҃
ѹ҆
##дка
##вой
нарица
##лень
##кое
##вели
глѧ
Ꙗкоже
божь
мужь
ꙁла
сту
сыску
мъно
нашихъ
дш҃а
Ба
##нес
прои
##ление
##йло
камен
##вый
преж
ѥ҅го
дви
пль
##цѹ
король
прекрас
##рть
##поу
Лю
##днѧ
приходи
крест
сотворити
еп
##чин
Ду
ꙅ҃
ѿню
нимь
съвѣ
сѣдѧ
ху
##вля
##сподину
Кто
ово
ръ
восхо
безо
есь
мс
ѡн
##ниго
горы
рать
##стить
вѣрою
возра
всѧкїе
сва
пов
##шедъ
часть
твоеи
##дови
##ньи
ити
проме
##трѣ
##илъ
##рию
и҆ма
муж
ѻ҆т
дву
##рковь
себѧ
начаша
##клони
##рецъ
сон
ноги
тѣх
##тꙿ
стъ
##вает
имен
слышавъ
##комь
тамѡ
##враа
Лазаре
шу
##плем
##чку
рус
слезами
женѹ
##чати
##дят
впере
гне
о҃
і҆а
твоегѡ
разумѣ
моему
десѧть
только
##вию
##лез
##левъ
тѣмь
а҃
рад
старѣи
лѣпо
тъгда
цръ
прр
неправ
кое
полоу
##сꙑ
##ꙗти
тоже
своея
дх҃ов
Василий
##метъ
ненави
##фъ
колко
помещи
##чію
праве
##дрь
воли
##дох
браш
бꙑстъ
которои
шло
дому
##нь҆
##трити
ѥже
##ствова
смерт
двь
пригоже
кад
грѣха
молити
глѣ
##перь
##чъ
неде
главы
видѣвъ
уже
погꙋ
блѹ
дрѣ
иса
ѡ҆брѣ
прибли
всѧкаго
##еву
г҃ь
кровь
гнѣвъ
Стра
##бє
въсхо
суду
богатыр
сіи
ѡво
##сѡ
##ваѧ
камени
рости
ходити
мнѡго
пяти
дару
множество
выш
##стыню
Видѣ
рещи
государева
Добрыня
дро
##чѧ
##вичю
ꙁна
##чал
возврати
##щоу
толико
вече
руки
иму
ѕѣ
##лма
болши
кланѧю
челобит
алты
Москве
бгъ
агг
Ти
дѹ
##мец
княги
злата
ѿвѣ
##ріа
##коша
##дар
вечер
послоу
##сѣхъ
женою
глу
##штя
##нца
##л҄
##зѹ
короле
пришедъ
пожалова
бꙋдꙋтъ
##кро
##лож
##кити
бы҇
вместо
хвали
##гѫ
##номѹ
вско
а҆г
огнь
Азъ
Нѫ
##ченъ
##жемъ
обыча
одно
##славу
треб
##дил
възѧ
##кове
гора
фили
##лася
##щее
цр҇
##лё
слоу
беречи
##жити
і҆е
##ква
##ставъ
##уду
жив
##стѣи
сердца
грь
ні
поль
домѹ
сък
сь҆
##лете
намѣ
##тину
##ловати
##тьи
соба
веда
судь
пошлины
страны
власть
заповѣда
яз
##чест
кънѧ
малы
вѣсть
чинити
блажен
Христо
древ
иск
##скою
ѡ҆бра
гд҇и
чо
##той
дѣлѧ
жер
##тая
мала
кнѧзю
ꙗ҅ко
сидо
бориса
заха
##дѣла
сих
##творѧ
Еже
зми
дѣлъ
##жден
Мно
нѧ
##мѣхъ
кѣ
##ѥ҆
##нили
##нила
монастырь
подья
сни
тюр
смерть
монастыря
хитро
##ꙗ҆
##рить
роду
##енью
рекоша
Бра
##вана
гривьнѣ
оде
ря
цо
ѕіс
##род
##каѧ
пристав
ѥ҅моу
дрь
соко
прово
##нѣмь
коунѣ
радость
сквер
##ꙁна
реку
маи
хощеши
возда
##люблен
Илья
Къ
ѡчи
##вли
намест
##стии
межи
полови
вельми
снъ
##рово
оумѣ
зде
мсти
ѥмѹ
##еме
передъ
кѹпи
бжи
##бѫ
бои
сегѡ
тать
##шена
##вꙿ
##сво
боѧ
год
бл҃гослов
##бре
мѹжа
мл҇
имь
иных
кну
##чные
##ѕѣ
жесто
##стин
отдати
##сыпа
казнити
##лно
сыне
ква
##iе
когда
кнѧзѧ
бѹди
помоли
Они
събра
##гнѣва
иди
призва
##цкого
господство
Благо
##нихъ
##тых
сѹды
##сіи
пости
полю
##слав҃
носи
седмь
исте
ѡстав
##твы
поля
Госуда
смотрѧ
Его
щи
силь
хлѣбъ
##стꙋпи
##ѧтъ
число
ѻ҆г
##рено
##пр
своемꙋ
##скаѧ
православ
##никѹ
вод
##вии
зам
##нко
##жут
дои
##шею
оуже
##щим
господа
дщ
ѡстави
поби
##кому
македо
времени
срд
ѳеѡдо
бер
игна
##бер
престави
бꙑло
идеже
трои
смь
товаръ
Ту
зѣло
иные
удари
єже
##лась
наказѹ
чоло
##тіе
##момъ
рꙋкꙋ
впре
сли
указа
##летъ
##купи
##дѧть
##городѣ
крестьяне
Ца
млад
архие
мі
хꙋ
##лежа
новъгоро
##т҄о
и҆спо
##кими
чере
сль
##клю
##ться
##шелъ
оубѡ
бьі
##твꙋ
ею
погы
дать
бѹдетъ
вⸯ
ина
уж
Ꙁа
##҄а
гсдрѧ
##сі
##діе
##речен
##тесѧ
##вѣе
дѣт
##ствомъ
глаголати
фрагмен
прочи
искати
умер
##сті
##кови
бг҃ꙋ
Ио
Оборот
##ѳъ
томоу
бѣло
будетъ
моихъ
бьрковь
никтоже
бывъ
##пис
##славь
мечь
вотчина
молодо
гле
глю
##шено
дворо
моимъ
цѣлова
ио
ор
##вся
съвръ
рожи
А҆ще
##цемь
##мана
речи
пребы
дьнь
пѧти
кле
рꙑ
##хꙑ
##дили
реза
имене
киев
Бу
пав
##хва
##дие
прослави
##дных
##йся
##гою
иванович
##лѭ
бывш
мра
пско
##лово
##намъ
##дилъ
##шеи
слѹж
книги
##скіѧ
престо
##дри
##дец
##сѣи
николи
##дли
##деса
столъ
бжтв
хорошо
больши
глагол҄
Говорит
постра
лихо
братье
тяг
надъ
воин
ев
##шенъ
##пль
колико
##добь
##неши
фара
второ
женъ
ню
##воль
##вѣи
вес
помощи
реклъ
##чя
дом
##удъ
безу
нашо
радости
оно
ѿвер
##жене
##сеи
гд҇ꙋ
полѹ
##вѣдѣ
рати
##скомѹ
числа
гласъ
##сцѣ
##воро
##лости
##веди
##дыи
г҃и
наказание
##ках
просто
девѧ
правь
рыба
заповѣди
объя
##шке
различ
а҆р
Лазаревичь
вдѣ
стали
тотъ
придоша
конца
спас
иско
##видѣ
просѧ
##соша
воздви
суде
волости
глаголюще
половци
Є҆
##нни
##сле
##ям
законъ
хлѣб
памяти
жень
##хі
##тни
##ꙗше
##шихъ
##лѧти
всѧких
##скаа
доправити
пять
плати
молитва
##ненъ
невиди
##жие
мана
дѣтемъ
рубля
##ую
##нути
всѧкъ
##стые
бѹдѹ
спраши
Га
##бря
болѧ
хоу
##кѡмъ
человѣка
вотчину
взѧти
##дб
граду
прѣд
бѹдет
домаш
##нием
##гива
Сь
ука
і҃
##вода
наза
##тые
кралевна
сен
тръ
##ця
##чим
съмѣ
##твѹ
потре
потом
Петръ
присли
сѹть
путь
соуть
Киев
великую
грады
бꙑти
пути
никого
кѹп
Есть
толи
сѣде
доброго
##пусти
і҆и҃лє
запасъ
болгар
оуч
съсⸯ
ѕло
##тіа
##вкъ
намь
рабы
живꙋ
людіи
еѵ
##обра
дава
##ныа
исхо
Рече
##ѫще
пречи
##анд
##четъ
##жди
макси
тѣле
ивано
є҆динъ
Всѧ
##гѣ
воспо
##чь҆
посредѣ
##диши
##вѣшта
володиме
гн҃у
ѕѣлѡ
##ель
##лося
брани
врата
пусти
словес
посад
##ѹмѣ
##ѡбра
##ѫтъ
##кая
приспѣ
своем
раи
прѣжде
и҅ꙁ
потрѣ
ой
хлеб
##вни
##вꙑи
там
##бие
##жат
нонь
словѣ
мать
били
самомѹ
прииде
Господа
небес
вѣкы
стал
говорил
учинити
##рят
наших
инъ
##риѧ
доса
есмо
##ии
##стов
всея
##нюю
великою
писати
печат
##влѣ
нако
##дал
отве
ѡко
##одо
##кий
сколко
##ныихъ
царства
рꙋцѣ
игра
поли
давꙑ
оум
хот
волосте
Михайло
Кня
ѯ҃
##шѹ
##влю
##ѥва
восп
##дникъ
Ада
длъ
##тисѧ
пришь
вѣрꙋ
детем
кнутом
кобы
##тан
моегѡ
трет
дружину
отпусти
идо
##ліи
##ниемъ
##ток
имени
##ступа
которое
ере
жѧ
ꙁвѣ
##млѧ
##лось
даръ
##сквер
вьꙁ
гривено
мысли
Александру
Ны
##сю
##дость
##внѣ
##кса
великы
добре
##ныих
сѫтъ
##а҅ше
##ѥмь
##стоу
главу
дша
игѹ
##сна
##щно
теле
##щаѧ
послалъ
пѫ
##шⱕ
##раꙁ
##шаи
прош
бѣжа
##шеть
Воз
##т҇
##пса
морю
вез
беззако
написано
пошлин
людье
##слыши
##рила
##дех
##семъ
поити
##р҇
деле
вьсѧ
##мыи
власте
ѥ҅стъ
хе
рублѧ
##щымъ
Много
##ѡнъ
тоби
молю
##твою
##снова
##дре
дарова
боро
##дѣли
##шит
##еное
теми
поехал
##чее
посли
##рую
##нему
##диша
давать
водою
сѣмо
священ
нбс
Такоже
христосъ
жеребь
##кти
##день
велик
государ
ризы
розбой
гривьно
чл҃къ
чл҃кѹ
҆ꙁ
##ѭтъ
##нин
восто
прие
##іемъ
видѧ
сталъ
грѣшь
у҃
##штоу
##тоже
##како
собѧ
живот
##дцать
убы
##тря
##рко
##ниа
сии
разꙋмѣ
##фѣ
##ход
росо
##сом
власти
сел
миро
стани
##рка
поѧ
дочь
может
##шимъ
Де
од
##рꙿ
##пер
твоему
другой
Лу
тѡ
ꙋбо
##щер
свѣи
помощь
пꙋти
доведет
паве
чинов
##дѧт
татар
шю
##еве
даны
приноси
##нул
какое
рыц
кабалы
възьми
##фь
##ствъ
пор
##дила
##дове
##жаи
##луи
мѣсте
здѣла
мерт
##хіе
жереб
припа
платье
исцѣ
скажут
млсть
опри
##ана
##четь
нею
собе
сич
вины
всеи
дѣломъ
михаила
негѡ
конѧ
приꙗ
телес
повели
семо
і҆и҃съ
холопа
Ѻ҆
##лина
##мири
дѣть
возлюблен
грв҃нѣ
Глаго
ока
##вова
нечести
ставити
своима
повеле
бꙋдꙋ
бж҃їи
є҆гоже
алеѯ
остро
##рги
##кши
нарѧ
вьси
манастырь
##іемь
нес
всѧкѹю
обро
гнѣва
дще
ер
помысли
доста
богороди
земле
обря
дия
работа
##вшаго
##ꙁнь
пад
преста
гривни
печаль
ответчик
##рами
##повѣ
жили
питье
матерь
абіе
ѿи
помѣ
гораз
##оумоу
ѻ҆чи
заплати
надоб
##нимъ
##нинъ
томꙋ
кол
имаши
кнѧзи
напрасно
уста
сию
ѻ҆тро
покаꙁа
домови
двд҃
тою
##щии
грамот
настав
##нахъ
жизнь
чтобъ
архима
давідъ
Писа
Пер
яви
##ꙁе
##чаи
братіе
##глъ
##нос
##ниѧ
##мова
##бави
сыну
ст҃а
серебро
Чу
бро
пса
##хже
тоя
можеть
твой
##скꙑи
полот
анто
пой
пріѧ
##ховь
новѣ
любовию
##трен
##шенько
Добрынюшка
сребро
обь
##шне
##жение
вос
возо
вьсь
юже
##вре
##нки
повы
тож҃
##долѣ
годъ
ваш
ѻ҆тца
##тцать
прпдб
зме
##стри
##льга
час
исцу
гривенъ
слыши
##пла
##конь
##дии
##несе
дворѧ
батю
крѣпко
##пли
возлюби
такожде
##бран
##стеи
##спе
бж҃іѧ
Господи
трапе
##гре
молодец
##нї
##волъ
молча
далече
Жи
хле
##жы
копь
##рьи
вѣры
пиро
своеѧ
мьнь
покои
сю
##шть
##нҍ
##ёт
##чад
стори
послаша
помина
десѧте
##каꙁа
свѣти
##города
##ления
##ѧт
##жду
##лье
такое
нашему
бѫдетъ
надобе
бяше
вну
##плъ
##яху
силе
##соже
бж҃ію
сѵ
##лого
##стомъ
блага
торгѹ
ѡле
гривене
##мену
вниде
вашихъ
Нь
ѡже
##вала
##рия
ком
##шися
##совъ
меся
ихь
исповѣда
никакоже
лжи
п҃
ꙗви
##віи
##глаго
##дны
##нице
прибы
Понеже
крови
гюрь
михаило
почита
ч҃
прч
##ваеть
бывше
##сали
##лѣн
##лым
меч
вашего
##нду
пооу
##димъ
воров
домы
##доста
##чить
стго
##выми
прѣсто
##строи
роуси
проповѣда
ꙋчи
поте
нед
##вают
полтина
взял
скорб
приказъ
Сла
##нѧти
##лую
ѡ҆стави
сѣмѧ
слѹгъ
чл҃ка
древо
преподоб
гꙋ
##л҇
##дꙿ
вере
##меши
##дуть
всѣм
##еных
##кори
отпи
##слове
погреб
нашим
нашимъ
потомъ
г҇
є҆лика
вѣрова
##ствовати
нѣтъ
посъла
Муро
оц҃
##вѵ
##єн
нево
оуби
##дѣть
варѧ
самь
вѣра
##скати
рублевъ
человеку
словесъ
пакости
старѣиши
чꙋ
##дные
пошел
##нку
##мсѧ
##ліѧ
##жли
##ровь
##ницю
##дохъ
казни
##жите
бег
родъ
перь
##враща
цѣса
Соло
##стѡ
видя
##куп
нихже
гаври
человѣче
недел
всеми
хоте
##бель
станет
##сыла
велено
ели
##евѣ
промыс
изволи
живъ
билъ
молод
денегъ
нежели
осо
##рг
##ѹм
##сва
##ѳе
##ену
##ловъ
соблю
##жали
возь
шед
хощеть
сщ҃
##ѡна
##іꙗ
##еніа
дары
мънѣ
отецъ
##имь
бобы
оучени
##скѫ
пир
##ствие
вхо
зу
приеха
проч
##ению
вѣки
части
##ꙁꙑ
##гль
##выя
деви
мꙋжъ
отрокъ
Муромец
ѹго
##шение
##ица
##шев
сохрани
вься
12
Ку
ѥмоу
##нїи
прича
возложи
тѣм
страхъ
##тую
ѡбла
похвали
християн
братьею
##вого
насто
##мое
други
дѣлати
пѣс
вороти
хощет
изѧславъ
##яся
молеб
##рѣти
руси
серг
Сад
кабал
мс҃
слъ
##п҇
томо
голова
масло
грѣхи
твоеѧ
многих
многими
пріем
члв҃
господства
нра
даша
ноу
велѣлъ
е҇
малѣ
поклон
бж҃е
деревни
##десят
##кі
##҅мъ
кали
силѣ
пала
предѣ
стало
погѹ
##тріа
ули
коле
##вие
прилѣ
рожь
слобо
часто
которого
околни
кнѣ
ум
полꙋ
неве
##ваа
##дале
##ющіи
немже
исполни
неправед
ѡбь
##сма
##ѧть
въни
##нѣе
деше
очима
Еруслон
довол
##дели
##леніи
##печа
великое
семоу
старца
##нено
##ымъ
##енѣ
можетъ
рука
ѻ҆те
слуша
иг
добрые
церковь
Вели
слꙑша
а᾿
еда
кдь
ѕвѣ
ѡк
ꙩв
##ꙁда
##ѧ҆
##дем
##рове
тере
павла
##пали
изго
всехъ
вселен
куо
глаголя
дьсѧть
коуне
грвна
помест
цѣло
ща
дали
и҆мѣ
рос
хлѣбы
дружина
жеребе
Лѣ
##ꙁни
##стіи
лета
сему
##нта
##слъ
##въши
прослав
городу
храни
раꙁоумѣ
смоль
##женье
стоит
архиеписко
недѣ
##тои
дамъ
съмь
посу
саꙋ
правити
ествы
опричь
##ср
##гом
##дес
другъ
черниго
##ждѫ
##и҅мъ
помилова
москве
ключникѹ
ествѹ
ору
ѡтро
раст
##манъ
чети
знам
рꙋки
близ
Якоже
хме
##ении
##бами
свѣть
г҃ла
говорит
дш҃и
испол
мѡѵсеи
послѹша
##анъ
##щение
є҆смь
сотвориша
буй
тат
короля
которым
домочад
всеволодъ
ꙁѣло
##ваетъ
сели
сапо
пища
бꙑс҃
дх҃а
ц҃рь
стѧжа
Аз
еу
ести
топерь
##скочи
саме
вьз
Никити
въдале
вьсѣхъ
тва
##щеть
всему
##дела
врагъ
глеть
##ющаго
Сыну
памѧть
дха
##хвати
нея
своемь
##пом
##енова
болгари
##точ
голу
##скомꙋ
став
гд҇нѧ
възда
##ндрѣ
словеси
недостои
впредь
неделщи
##пта
записа
годы
твориши
господинъ
казак
т҃
##дивъ
предъ
крести
##ноую
единого
запись
ст҃ыи
іѡан
кн҃зь
##чете
##нець
вещи
рода
вѣдѣ
ѡ҆би
полоц
послати
време
словомъ
величество
лꙋка
вдо
##житъ
преи
руками
куз
гд҇емъ
поиди
##нїѧ
даст
и҆но
своє
##чины
##писи
възврати
##млю
##довати
така
ꙗ҆ко
##леніѧ
лѹчит
порѧднѧ
##іє
почто
желез
##мотри
##спра
##лꙋи
плоти
ако
аꙁъ
Ѡ҆
ꙗзъ
##лⸯ
моемꙋ
творя
всеѧ
##гели
церков
лѹка
подобаетъ
двер
##лой
##сию
места
людехъ
тѧж
хранити
Александре
і҆и҃левыхъ
црк҃вь
Фили
##тти
##ѥго
полага
##нич
приехал
мона
##хомь
безако
делех
##говорит
кі
##iа
##ём
##стрѣ
насы
##вѣта
##дыха
##тѣи
часъ
тюрму
Бер
##бля
позо
##ноѥ
##рович
##диви
быт
##чею
дѣи
месте
глава
бью
шедъ
погрѣ
дꙋма
##мꙑсли
языкъ
птица
ѕла
братіи
неиз
мсца
Че
сно
сію
уро
##хла
##рки
##ѧло
##ствь
##вичи
моги
##лѣхъ
вѣрѹ
творить
всѧкимъ
##вай
съпо
нова
судити
всѧкихъ
погуби
Ско
авра
##рта
насла
пря
##техъ
гово
##зан
девя
##сья
##сывати
бѹдеть
менє
слс
##и҅хъ
рыцер
Слыша
хре
ѡц҃а
ѿиде
##дала
дала
моꙗ
темъ
##ютсѧ
пьѧ
Ча
немѹ
своꙗ
##чие
блюсти
Дружне
ѹже
##др
##щено
##лаа
соль
вѣрѣ
##щики
возвра
##праша
писал
внима
##крестъ
Ле
дето
уте
##тна
##прѧ
##кихъ
прочь
стати
##дника
пꙋть
головы
схо
стѹ
отцу
живет
первое
с҃то
Князь
мт
ѿпꙋ
##зер
##єніѧ
##рие
##поло
инозем
князи
взем
##город
свѧщен
##десѧтъ
Еруслонъ
тобо
##мом
ᲂу҆бѡ
страхомъ
##гыи
##ступ
плоть
Раз
ꙗ҅коже
подобно
##чены
##щѧ
полич
##ритъ
##рева
селе
добръ
гривнѣ
богат
плот
пріидоша
Сам
осми
ины
поя
напере
##рость
##шеся
мирь
разсѹ
Богороди
благослови
покаѧ
е҆го
трех
лошади
хрстїѧ
впа
ѻсподине
дай
ничего
##гами
вавѵ
Под
молови
гривьноу
полтин
ибо
тко
##венъ
поб
заложи
измѣ
##лучи
имамъ
деньги
велел
принес
Дев
сѡ
##гл
##зли
##ней
вещь
##пит
##вьі
ᲂу҆го
лебе
людие
##цовых
##ющихъ
коней
##говор
хрстіѧ
жє
кю
спроси
##еш
##лове
непри
##нех
сотво
любѧ
поспѣ
переꙗ
гд҇ень
##слꙑ
творитъ
цело
просвѣ
денег
уви
##кати
##шесѧ
проко
землѣ
ктомꙋ
нашеи
кꙋп
взи
дніи
ѿц҃а
##хсѧ
##лам
и҆хже
докла
промыш
##рью
є҆ще
росто
стоꙗ
полоть
мꙋжа
пришелъ
##нное
##щены
##товъ
призыва
своѫ
гостѧ
бию
семи
богоу
посъли
другую
клѣ
оного
єсть
##ьі
##іо
тебє
прел
сыски
тѣла
мѧсо
поидоша
многие
соломѡ
деревня
запла
смертию
николиже
##гри
несъ
торо
воду
##мор
##шин
##щая
возве
грѣховъ
дн
ѡба
##рха
прибѣ
прожи
роже
лицемъ
лѣте
едина
веленью
серь
бесче
##ченѣ
грѹ
ѡна
##вр
##дры
въи
##дей
всею
##енаго
##слоу
##твѫ
послѣд
пр҇ро
истец
киевской
Сер
Тро
##дено
##щѣ
попъ
прет
##любо
тиу
##соли
ѡ҆став
добродѣ
скажет
Маги
ближ
именемъ
тѫ
чу
##҄и
##каго
низ
прое
страха
городы
запас
##сіа
##҄ь
вса
боꙗ
паро
масте
##мꙑш
дръжа
##чꙋ
бож
##маго
##нят
велику
##дѧше
послан
креп
животѣ
держать
записи
днесь
##хѣ
##рены
##ꙿже
##чѣ
##ерва
##гаѧ
паде
прѣпо
Наста
Въꙁ
присъли
внѣ
снови
уез
##рение
##свѧ
мощно
прото
мику
##енера
животы
господина
приведе
здѣсе
подобает
мл҃тва
100
Бл
азь
##томь
##ныѫ
заму
тъкмо
помощ
Александра
постри
дворян
чюдотворца
один
##врѣ
##ѥши
помѧ
##лить
горь
твоемъ
сади
стари
послал
латине
холопе
корабль
моѥго
є҆гѵпет
Али
##шить
##мь҆
река
тихо
##зоша
народа
влд
хѹдо
##тиѧ
доспѣ
##жать
вѣро
междꙋ
сук
мꙋжеи
мꙋжіе
цр҃ь
говорити
і҆и҃лєвы
Садке
влъ
##хся
##нⸯ
##сви
##въша
събо
городов
лазо
пѣти
исправи
##всѧ
##іѫ
є҆и
твоих
новѣгородѣ
оди
іс
ѡтъ
##ѧсѧ
##щетъ
прїи
добы
враги
##славль
рыбы
истинѣ
дорого
боярских
##племен
доведется
##арѡ
##чему
##димер
##ныꙗ
приле
##кина
##шим
##чески
жить
сыны
##бь҆
душа
будеши
млсти
врѣмѧ
##ч҃е
##ченіе
дано
кога
своемѹ
капѹ
велицѣ
пита
семѹ
государеве
стольне
ѿнюд
генера
иду
##гни
пона
##дума
сыро
##дѧще
ѻ҆лта
смена
приказу
##штааго
нарече
е҅
приѧ
моемъ
рѣчи
сотвориши
никако
солнце
житіе
боудеть
вложи
фило
##вⸯ
##їа
##тин
затвори
радъ
проча
бых
симь
вьс
тыи
гривена
##против
Девг
деть
лѫ
озе
##шно
##евича
##нц
наче
##домь
бою
хоче
святи
начатъ
великимъ
і҆ѡа
Дѣ
Иван
##ѡмъ
##вод
нету
непрѣ
##нитъ
тогива
пар
старѣ
славу
ѡбрѧ
скво
сторону
около
##ѳѣ
##чена
##дѣхъ
##бил
странѣ
городи
пьр
младен
отдавати
срамо
ожи
##еди
##чень
прис
##читъ
кр҇
положити
монастыр
умъ
ꙗвѣ
даль
симо
пиру
празни
ѡ҆крестъ
красно
Тѣмьже
Пе
бжь
еписко
коль
костѧ
##може
##нести
вид
печи
Боже
сьмь
##дѹтъ
государевых
старость
стороны
##цкой
і҆и҃левъ
Ин
връ
идет
нє
прит
##шии
леѵ
##дрость
сребра
Русии
вку
окла
##овъ
##кве
##ꙗко
чимъ
сѹда
храмъ
Сице
ѡ҆бла
поруки
зело
соверши
мс҃цѧ
года
##сова
земель
возмет
а҆арѡ
подра
славо
кꙋници
ст҃ополкъ
новгородьци
глубо
кем
##пет
дана
##телѧ
седе
съблю
любъ
##лѧт
##твръ
нашу
противꙋ
воиска
##с҃о
многихъ
варша
прпбнаго
впередь
Кра
зер
ѧки
позва
неко
##бож
сътво
граде
славѣ
видѣхъ
бꙋди
рыб
фрагмент
вавѵлѡ
мръ
уве
ꙩсподине
##ина
##жоу
на҇
сыи
дворѣ
гривне
гривнь
Какъ
правда
кꙋне
цетверте
позема
любви
ини
##немо
##грѧ
##тать
мори
рано
##чаю
мног
стран
Гу
Гра
Слыши
идѣже
кіи
пят
##ꙑри
##ыта
наꙋ
нама
въско
##чеи
##ходит
великіи
земль
мужу
бл҃жен
крепости
услыша
ѡпѧть
##ех
##нтъ
##гло
##҃ь
##знов
поста
##мов
оуб
##лѣп
бела
##бав
Пои
прѣста
покле
##лексе
богать
человекъ
Владимиру
пожаловал
нбо
##рно
##вон
конѣ
защо
пещер
възми
благочести
##ждаше
скорбь
Говорил
степана
ѡка
ѡца
##нт
наста
извѣ
мѣдѧ
семꙋ
##ходил
обыск
##слѹ
##ѧше
бо҃
##сати
деи
царица
принесе
скорби
святых
племян
пророкъ
і҆ер҇лимѣ
мьстиславъ
приказано
вдова
троу
чя
Ѡн
##ати
##будь
недѹ
##тор
##рехъ
сосꙋ
гласа
взять
Защо
крт
##твѣ
##зды
##поста
промы
любе
##скѣ
патріа
##зати
гд҇еви
волоки
души
поставиша
##гьі
бѧхꙋ
злы
ябло
##ѳь
##никь
##рее
рекла
пас
руцѣ
лав
кнѧз
скры
##ющимъ
сынѡмъ
еван
##нда
##где
приехали
сестра
нощ
есмя
поместей
блг҇
клевет
рѡ
уме
##мете
дак
##шивати
##билъ
къто
вѣси
рѣхъ
дъвѣ
Раꙁ
челобитью
##цкои
##брѧ
накла
##рости
##рили
дан
##дой
мирѣ
##енов
а҆ки
##тѣхъ
дворы
дв҃дъ
мцса
Ар
зва
побо
##ничи
##теля
##лѣдъ
теп
деже
дѣлы
своимь
иногды
какова
боярину
сътворити
##дрости
аминь
щь
##нкъ
пота
##ницу
##ньство
##скіе
прежни
##щаа
##ющꙋ
##цкому
а҆гг҃
нео
##кии
##нецъ
##тъкъ
раны
съпа
сидит
##пить
вѣдомо
##дь҆
великыи
##г҃о
бж҃и
противъ
ѥ҅же
попорти
гсдрнѧ
дщерь
Е҆
##тру
##рꙗ
##жею
коно
воп
##шисѧ
тай
послы
Посла
гроба
побѣди
аꙁь
вопро
срок
иным
##шнѧ
##рє
##ꙋмѣ
нема
сей
твоемꙋ
##слаб
печенѣ
чиста
страна
исцом
твоей
##лении
пригодит
вечера
гы
ожь
ссы
##вени
##чко
##ꙋм
пороу
пан
жива
жизни
##цеви
выслу
##лят
##зии
см҃
##креп
кормити
авгу
Сѣ
ѡстро
##даи
тога
сотвор
таким
лип
вѣроу
врѣме
губ
повар
Ше
оли
##діа
##вовъ
##лами
##кимъ
##бомъ
землею
ѻ҆в
мысль
хлѣба
ѳеѡ
съмрь
брашна
Аште
едно
##мра
##яна
посте
##лию
даждь
жел
купе
##пѣти
словесы
рыда
пришел
закон
Отъ
##вль
##лене
##кну
##яй
##лит
въсто
оубы
црство
творит
прекрасная
архимари
Кро
Пра
поѣ
прв
тол
##сть҆
прѣль
чинъ
перст
книж
староста
і҆ꙋди
можеши
приближи
Дю
днѣ
##ѧли
##фу
##горѣ
##номь
##кахъ
точи
волѧ
##льца
оус
вести
синё
хоце
возвѣсти
бѣша
##мысл
всякого
бж҃їю
царемъ
ярославъ
рѣзанѣ
А᾿
вторы
мрь
##ꙁоу
дости
##дости
ниче
##шите
послали
##нѫѭ
правду
плъть
мурза
ѡлегъ
ана
вѡ
##тію
##вавъ
##лехъ
##шая
##скор
прель
##бежа
##хати
##енья
Пове
ᲂу҆слыша
##мѧт
бꙋде
продаи
##тцати
большо
глаголетъ
избави
ѡгнь
Царь
Азо
Сто
хрт
ѡло
##ждъ
##ѕа
премꙋ
##тит
нера
коз
доко
лонь
чюже
самому
і҆и҃лѧ
положиша
сичкы
ище
сне
убь
шти
##к҃
##стръ
наса
коп
бесп
реки
вашъ
##чью
##леніа
диа
добрымъ
поместье
осмь
ногатѣ
хитрости
Моло
ѿ҃
##ѹю
##бҍ
даси
и҆мꙋ
сиꙗ
белы
разбои
платить
бж҇
великом
грв
закона
обрѣте
ветша
ѡбиходъ
живетъ
лето
ѹбѡ
поры
##тие
##тана
##шего
забы
проста
посе
жиро
дьни
братіѧ
##мыслъ
прѧмо
матушка
азо
хы
##ріе
##чн҃
##ности
прохла
##нѣй
винѣ
боудоу
болѣзни
заклад
иныхъ
҆ѡ
##черь
нераз
##миръ
оукра
##мьі
пив
бѣга
##славли
службы
крѣпость
і҆акѡ
҆е҆
##мрь
начина
##лая
литов
Дари
##цина
стола
рукою
бж҃іе
##ющим
отдать
ц҃р
отече
пшеници
вскоре
р҃
ухо
##лна
посто
зат
стадо
##гихъ
плате
лесу
бꙑва
врага
##ніемь
старости
ѥсме
а҅ште
котораѧ
послоуша
безум
Ибо
зь
##нени
##нены
##щенъ
оуста
##славо
і҆и
ихже
въдаи
двена
Христа
величества
ги҃
оль
ꙋ҆
##імъ
##два
##яние
##єть
##нехъ
прохо
дере
дѣтеи
##цѣмъ
стефа
##фоно
фари
премуд
мт҃ри
кно
ѹкра
##ѕи
въпа
##вите
какѡ
казна
роспро
листъ
пить
локти
сьр
един
тоур
кланѧюсѧ
мень
пя
іе
##діи
нез
кости
##стиѧ
сташа
##сподо
##енецъ
суди
доброе
коун
любов
ходилъ
Олё
##ях
постъ
непре
въмѣ
доиде
дежи
дьсѧ
тъи
целомъ
любити
поусти
сорок
стьпа
челобитчики
бьрковьске
ꙩвса
ѻста
тогѡ
##шаѧ
изма
доброи
Добро
боярские
стыи
Владимира
внегда
Спа
##аг
##чение
##ѫть
##тиво
##камъ
##тами
занеже
страхѹ
вземъ
Въз
женꙋ
дꙋшꙋ
чьто
доуша
і҆ер҇лимъ
едва
цр҇тво
Тво
##шла
##бі
вон
живи
вьрь
сунду
перея
милостыню
пѧт
##ждени
воеводы
класти
тысѧщъ
желѣз
сотворю
Ди
кѵ
умр
##омъ
##иле
##роди
##емен
и҆схо
##лее
кадь
##сково
обли
ба҃
бл҇
##тят
дꙋша
##правда
зꙋ
хрь
##чной
##євъ
##ничь
##ницѣ
##дора
##лют
росхо
##спода
##тый
Воль
анге
дороги
кеса
##множи
видиши
попеца
Бла
Онъ
тіи
възъ
своа
##вець
старецъ
столѣ
бѣл
дум
ꙁаповѣ
добраго
свидѣ
лѹч
##стѹп
оучити
Михаила
оустроити
твоѥго
гораздо
оца
ѿто
##хꙿ
##бру
приѣха
гору
##рыни
дев
##тыхъ
шелко
продажи
ризѣ
брат҃
правдѣ
е҆мѹ
##стꙋп
дружиною
ю҆же
бц҃и
вкѹ
жво
жем
##ѧна
##денъ
##ꙙтъ
боло
##чери
##скова
##вьрь
##цех
лодь
часа
гривны
народъ
Божия
москвѣ
сщ҃ен
Гла
чѧ
##шню
##кнѹ
пово
наа
##новѣ
небре
##тоша
##надесѧть
избы
моей
храми
женам
приведоша
небесь
нѣкоего
надобѣ
наказывати
службу
богородицы
поц
##рече
въси
прио
стꙑ
престав
##удеть
##сех
##ныхь
слад
перево
грѣхомъ
г҃лѭ
людии
б҃у
##анна
погиб
пытки
гсдрни
александ
##шены
погоу
##говари
изве
##няя
пиво
добродѣте
душе
мѹже
див
##вшю
будуть
алтын
ꙁде
##міа
##лку
##лію
##никовъ
бывши
##гаго
Дани
сыру
славꙋ
##кех
мужъ
сотворитъ
бояре
боярина
женами
і҆и҃ль
##вшꙋ
є҆дино
христия
ѡдѣ
##рци
##исѧ
##лица
##новичь
нетъ
пристави
##неч
##рья
сава
##щиком
куны
чисты
тую
и҅же
Бого
двою
доброй
##городу
пꙋсти
холопи
дрꙋго
##ѥ҅мъ
##смотри
товарыщи
##цкии
ажь
овь
##рма
##нїемъ
##свѣ
##ровича
##даю
изи
сьде
дьр
бьет
нашегѡ
знамени
беꙁако
##штю
##ѥ҅тъ
смир
память
##вола
коза
##шаше
сово
множьство
столо
##нꙑѧ
##скыя
рубли
##нѫѧ
молодца
старому
##ющих
инѣхъ
уми
##ꙁꙋ
расто
пагу
челѧ
дел
нѣту
црю
бжіи
##ющѹ
##полка
Москов
игум
сокрꙋ
дѡ
##кри
воза
сото
оупо
оупра
сирѣ
чести
иматъ
есмъ
розбо
запасе
##скꙋю
Володимер
Ису
мня
рцы
уз
хѣ
##рет
##ꙿно
##стен
наво
неу
дова
сов
сохра
##любе
пишет
Болга
взѧлъ
поставити
##цемѣ
алеѯанд
идоша
хво
ьто
##рцы
##жете
##стенъ
##никы
##ниемь
бог
рау
раби
изва
вите
всели
стала
ѡ҆чи
свꙙ
иванъ
##итесѧ
рѹба
слѹги
Паки
чловѣкъ
ѿнюдъ
Оу҆
сръ
##нче
##мета
повер
##тинъ
рекꙋ
тек
##паче
вѣжли
##сей
##скаꙗ
ѡ҆пол
подво
исцо
видѣвше
##ложити
дъми
##ходить
степ
ꙁемлю
цетꙑри
нѣкое
емли
итти
ꙁь
##тори
воспи
##ньіи
родит
нѣкы
гласомъ
твоею
коуп
слышавше
привести
идеши
Тѣмже
немощи
Ныне
абие
ѡбо
ѡпа
##суд
##ваю
ток
въспо
и҆сти
##вици
нибудь
##ль҆
##сехъ
великꙑ
руко
славѧ
всякие
злая
цр҃к
михаилу
июля
вдвое
королевич
##лок
##кама
##жеши
водѣ
##дово
вѣсти
вседержи
стаго
ѡ҆бѣ
чисту
иное
мѧс
##скых
диꙗ
ꙁемли
сроку
пытати
кіиждо
жы
идеть
##хⸯ
##реть
##гле
##ꙑта
##жимъ
##нѧѧ
тѣми
великой
дубо
крото
сп҇
скръ
пꙋстыни
четверти
##шедше
гюрг
ѡц҃ь
##нные
немоу
##роси
##рите
доми
стер
тати
##гах
прѣже
ᲂу҆пова
всѣволо
имат
##ствены
гривьнь
хваста
наполни
ѡколо
вслѣдъ
ничь
выи
бѣси
лов
##хꙋсѧ
пріидетъ
мнѡга
обѣща
віно
дѣтми
Уже
дше
##мли
##мни
##сну
##тира
##веро
просо
##чил
а҆н
плачь
##ствіе
творите
правдою
кабалу
стѣны
воскре
##гнꙋ
пожь
##ран
##рины
всемѹ
оука
вави
##щает
Почто
разѹ
##ватися
имена
чинѹ
рѣцѣ
храбро
##ꙑи҆
сказыва
горды
взѧша
вьсѣмъ
собор
вѣдаю
македоня
Пере
вꙿ
вкꙋ
##рца
##тины
##помъ
стря
вине
добрѹ
столни
бить
о҄убо
нечисто
ꙁлато
жръ
тща
##ѫщи
##доно
богу
##дъше
есемо
сꙋдъ
чюдеса
мьнѣ
трете
бл҃года
шатер
##дръжа
филосо
єди
##нє
почь
##рову
тоѧ
##дик
##гамъ
старин
##няго
вьса
##тѣша
часы
##град
с҃нъ
гео
манастꙑ
глѹ
мнѧ
##ѡвъ
##чна
##камен
и҆скꙋ
бой
мощи
##щей
быхъ
такие
сими
беꙁъ
праꙁ
прѣстави
##зирати
##ꙑихъ
судъ
оустрои
##крѣп
Афана
язъ
##ѫт
поꙁна
нее
своемоу
##шина
##стом
живе
##сож
пеа
грамотоу
о҅ть҆
##дной
никоторы
самои
приимъ
печати
пья
правды
Так
сказати
андрѣ
Рѣ
Фе
нꙋ
##дню
оудари
преслав
холѡ
мѣстъ
било
глаголи
короби
времена
плодъ
старой
ст҃ымъ
хощетъ
племене
створ
Тъгда
ιли
##немь
кап
отцов
##лѧтъ
грѣхы
послале
ꙁемл
помышля
##крѣпи
Анти
твьр
ѿпа
##҅хъ
моря
годо
оув
хоще
##зано
##зом
##лексѣ
риз
пожаловати
глаголаше
укажет
ивановича
Оже
Сте
аль
##мꙙ
##лны
##рек
##телем
заста
##въꙁ
##кър
##чаше
пакь
милосер
##щеніа
##гласи
бывает
неподоб
древа
Ꙗ҆кѡ
спу
порꙋ
налѣ
##тите
селѣ
голѣ
варити
пива
сѣвер
въздви
царству
бѫдѫ
матере
кораб
##щыѧ
шьсть
проповѣ
и҆зыде
дщери
прямо
вста
еѧ
҆же
##ꙿто
##чное
наго
##никомъ
заб
##любь
девка
всесож
началь
смотри
работы
братьи
августа
евана
оборот
ѡсподине
ѥди
ꙁо
##вное
##єт
##us
и҆мже
##нешь
запеча
камо
##баче
гривнꙑ
##славлю
храбры
кѹды
глс҃о
достоинъ
можемъ
лососи
новъгородъ
стряп
Без
въпраша
кола
волею
сот
##пов
##чивъ
##жает
бѣлъ
иной
исце
всякими
##сной
рим
смотря
бываетъ
приходѧ
вьсего
службе
порабо
войска
свѣтло
здравству
павлов
точию
цю
##ѫщ
поки
и҆дѣже
##чали
многъ
подлин
благовѣ
ѥгоже
створити
леѵі
ано
игꙋ
цвѣ
црѧ
ѿвѣтъ
##из
##кам
жез
моа
морѧ
сог
##битъ
сим
##пись
нове
брато
вымы
самодер
##сѹда
зову
писма
мт҃рь
имѹ
ѕѣло
##іі
поща
вонь
##дома
##шает
воздержа
мест
##зывать
тура
##скым
добрый
покори
глть
дх҃ъ
седла
і҆ꙋде
опять
Страти
правьдь
##св
##чке
##здъ
##саа
##ениѥ
##жае
##кулич
гривъ
а҆с
а҆враа
гр҃
корм
Которы
васили
домажи
достоить
живут
промеж
Их
Ло
Свѣ
елика
ѡгѹ
поеха
##ревъ
##лева
каже
стру
стави
скорѣ
сьтвори
възѧти
житие
сказалъ
возможно
второе
ѡл
##шкомъ
##єри
##гов
##ниша
##рець
##чать
тебѧ
##бере
вѣсте
Послу
многоцѣ
раꙁоу
скажи
речетъ
мѫжь
агг҃
обиду
стоитъ
зимѣ
и҆мать
зрѧ
##тви
##неніе
неп
##наи
вещ
##ньску
##бит
изь
##хали
тиха
братом
пись
дворов
плач
городѣ
послано
лавки
королю
жалу
дꙋши
написаны
мнѡги
поруку
цркв
Тѣм
##десѧт
здоровь
Ꙗ҆ко
насиль
мт҃и
##хри
костан
жерт
приви
##боша
беле
предо
изби
живѹ
ᲂу҆мре
страсти
бꙑлъ
сѹши
Горе
коупи
гали
ѡбре
верх
верхъ
пѣсни
волх
ветча
заповѣдь
бг҃омъ
книгах
30
Ах
дҍ
зве
пень
счете
##вҍ
##слы
##пі
##ниць
тобҍ
замо
##биѥ
ного
вѣтръ
добрым
холопъ
добраѧ
домочат
ст҃ыхъ
сп҃са
согрѣши
лвкъ
възѧле
фараѡ
А҅
оны
##тры
##ші
##ꙁѧ
##єи
най
##товати
##дим
##мота
##дѣй
сиби
посрѣ
тых
##ндра
тър
дими
бѹдеши
милостию
богатыря
марта
вездѣ
зда
сн
##шков
##бно
пру
##тивъ
##ницꙋ
пропа
пак
вѣвери
##бьі
ст҃ꙑ
бꙑвъ
##казу
веру
приима
слышати
запове
рекше
просити
ківѡ
Стр
Чер
лі
твари
##снѣ
стꙋ
рез
##дьно
жил
развѣ
медъ
живона
##твꙑ
белокамен
крѣпости
половина
тварь
Фило
нѡ
опо
это
##чную
##юю
##стна
##новь
##нину
капи
##нять
полоча
##пѣли
##града
чистом
всѧкіѧ
драги
порази
вечере
бж҇тв
дхъ
фи
ѥгда
приба
##сил
таковых
ловѣ
глас
ладо
храб
гробъ
обыску
##ствия
объяви
дя
Ѡт
##стры
наѹ
##мая
##чек
двадесѧть
##шеніи
##станеть
разум
боуде
солны
праздни
пришла
отьць
молитву
любве
именем
Дружневна
цра
ясти
##рна
##гг
##ѡт
##жє
##таа
є҆ф
къде
##славе
таковаго
иванка
дн҃е
доуше
##десѧти
похвала
юности
ч҃л
асѣ
##тіи
##раси
##моло
##чину
вѣчь
##дьі
безбож
##лену
##скыѧ
владꙑ
мъною
цр҃ѧ
стрел
кѡн
Государь
убытки
Бл҃
злѣ
имоу
ужа
##҄ето
##стное
##лец
##чилъ
##ньства
рев
ѡ҆сквер
иному
мѧса
мыш
##писати
ворота
отрока
і҆ѡси
посол
Дми
ржа
##ренъ
##ннаго
##кіа
##стнѣ
##кову
наря
##енѧ
сега
камене
таже
ходѧ
##лыя
добри
Потан
нѣстъ
кунꙑ
Бову
##зов
##ныимъ
радостию
старого
сподоби
і҆ѡна
ответчика
напишет
Потанцы
ора
олта
пі
##слꙋ
##щете
##ѭште
даю
##можно
оуро
##стани
##ньꙗ
стрѧ
##щиков
владе
рꙋкою
нб҇
близъ
дмитре
воеводам
гюрге
искѹ
##треб
##ѫща
##гое
##говъ
##дай
##дине
##мона
говѣ
##поры
оувѣ
##чахъ
носѧ
рого
хода
стара
выти
бѣсо
главѣ
христа
братии
чловѣка
целовални
Нѣсть
і҆исꙋ
Федо
авраа
ввер
##лные
##жба
##здо
полѣ
начи
##нокъ
ход
мари
пиръ
выве
Потомъ
ᲂу҆твер
нѣчто
##менꙋ
смр҃
ногама
спор
стоить
посылати
войско
брѣ
явля
ѕа
ꙁы
##шло
##сса
##щена
потъ
##тови
соч
каѧ
съво
##гали
розо
къни
изгна
##хан
житель
лес
многое
едину
иване
шатра
небеси
зоб
дроуга
ехать
дрова
епи
ист
утвер
##сме
##єю
##лат
##тех
##шемъ
заем
прочее
съврь
##еться
##мѣи
##сомо
Подо
##ляди
платьѧ
исцов
мꙋже
Македо
приходити
##шенька
красна
влд҃
божьств
произ
маия
влѣ
инѣ
помя
##ромь
##рило
вълъ
вохо
дочери
прикла
гоч
годи
##дѣя
пасты
сѣно
##ставити
триста
крове
немощ
мл҇ть
детьми
10
наими
##толо
##каа
ночи
видите
ᲂу҆чн҃
цртво
грамотѣ
которыи
благодать
шело
продастъ
словесе
бесер
##ющю
ꙁемлѧ
небесе
црква
##скех
новгородци
Оле
вѹ
ел
мꙙ
##рета
##чше
##з҃
##знѣ
##никѣ
##дохомъ
##бии
миру
пакьі
хол
мѣся
главꙋ
##нꙑꙗ
велмо
##новен
смотрити
заповеди
Пакы
конецъ
##а҆ше
седми
агге
напередь
ам
##рва
##ціи
прѡ
коры
събла
тамъ
##пиша
є҆да
##брати
разгнѣва
дьне
серде
никогда
##ходитъ
боярским
подобаеть
сокрови
дрѣво
Слово
врь
##спа
нари
бора
оуда
дѣви
і҆ѻ
речеши
иноче
слави
мыта
##градъ
##шов
ворон
срц
убий
ключника
завида
челобитчиком
гсь
ие
куд
ое
##атъ
##гне
##горе
всемꙋ
пришъ
простра
##рьць
##жим
##цами
носити
преле
вѣкомъ
жито
раздѣли
##стынѧ
сѣди
платно
гд҇ни
мълъ
гл҃ю
пѧте
молода
братия
іѡа
золот
##скѹю
ꙁъло
новагорода
сквозѣ
яс
ѡбе
##ꙁѫ
##ин
##дю
##҇ь
навы
##етѣ
##лѣт
##стоя
##ружь
царев
душу
печать
дрꙋга
творѧть
напои
хр҇то
вперед
липсва
сщен
узри
хвал
Ѡни
##єр
поба
##далъ
кость
##вина
##дье
суща
##ющу
моѥи
вѣчнѹю
землях
40
Опра
еста
инѹю
попро
комꙋ
##таѧ
ниж
##льі
##льно
##чимъ
нонѣ
а҆на
чини
##зомъ
есмы
единому
##левета
знаю
привез
мнѡгы
Муром
ѿц҃ѹ
ѻ҆гнь
въскорѣ
внꙋ
оц҃а
##ѥте
кос
волъ
доне
моля
гост
##жах
прелюбо
Покла
а҆м
а҆дѡ
##зывали
моим
##славлѧ
гривьна
слѹшати
бесчести
##лѡмъ
бережно
истинь
смра
спаса
четвертей
кыѥ
потребу
тысяч
двенадцать
имьже
іва
##ркъ
##рію
##нны
##ѡм
##дного
##ломи
##мого
##въз
прогна
##скомоу
бил
сѹща
видѣша
мъного
##тября
аршин
##ницахъ
мѫчени
строи
##смотрити
приложил
детеи
рѫцѣ
##стѫп
полаты
готово
чолове
володимери
Стро
ество
##рпи
##влен
##ꙁѹ
##вааше
коми
и҆сп
боа
зара
##мали
кат҄о
пана
падоша
ротѣ
##сею
дѣля
меду
##городе
всякия
##кꙋю
говоритъ
чьсть
достоино
Иванович
внеза
сьрдь
акꙑ
жрецъ
онь
##жное
кади
ночь
##луй
бѣсов
покѹ
##нѫѫ
##лема
чл҃в
ст҃ославъ
##фии
##сподинь
куплены
льсти
моѥму
здравіе
пречистые
промыслѹ
##усти
##еру
сози
##пия
добр
##сѣмъ
лоди
княже
обле
крали
другы
##нꙑхъ
бояром
##штеши
своѥи
арх
Сия
бываеть
образъ
дороге
боуди
грв҃нъ
Дуна
праведно
бесчестье
Три
фі
ї҃
ѡлго
ѧкъ
##янъ
почер
тобь
даӏ
ково
вонъ
сиха
множе
будь
прѣбꙑ
прѣбыва
црт҇
городь
въземи
коробѣ
писаніе
семѣ
плода
розмири
великихъ
д҃нь
##вшу
кабале
ногать
творѧще
сорока
дроужи
лоукѣ
погибе
коробьи
коробьѧ
мудры
лосось
кѫнѣ
апостолъ
надобно
пироги
ѡгѹрцы
искоу
кдѣ
спол
ѥдинъ
##б҃
пр҃
прше
##рам
##номоу
бочка
прока
състав
##чера
##ениꙗ
##купа
страну
скобе
златы
и҆збави
спс
##шеніа
##штѫ
пѹти
подвиза
книгам
##скьі
Мъ
ꙇли
##рⸯ
##реніе
##свя
поехали
##вале
кот
кост
воѥ
приез
богь
##вец
##дѣѧ
рож
вѣнь
делати
девица
видит
бѣлѣ
бѣсъ
скота
моею
семен
своѥмь
##телꙗ
трепе
свидѣтель
прокля
москвы
Пла
ску
ѿве
##рмо
заоу
##сан
тала
твоꙗ
##пира
вамо
вашь
стада
##няти
##ська
двое
##жденъ
богомол
братья
ц҃рѧ
пристани
питіе
простира
которая
пльско
токмѡ
гда
гря
ннѣ
уши
ѱ҃
ѿць
##рга
##дце
##благо
##юся
потро
##кос
нев
##етца
##емлю
правъ
лони
кнѧже
бѹде
многия
##штиимъ
ѡбразы
десѧти
корабли
створѧ
Баты
Государю
чоломъ
Девгени
бгѹ
опѧть
придеть
##доше
##моли
задни
пролива
##чила
такия
белые
ходя
делу
выда
Потом
такой
сѣд
лавка
рѣки
учени
##с҃пъ
Господу
чл҃вѣ
учинит
Таже
написати
солоду
і҆ꙋдеи
отпуск
страшнаго
нѹж
нашого
ѿпꙋсти
ил
ѥсте
##тї
##твь
##вства
##гіи
##꙯а
пожни
пріа
##нати
##теро
##нуть
масла
##лѧть
покра
краль
моеѧ
##хие
шел
мъне
черных
бл҃годар
##шения
##ницах
гюрги
глѣба
пострада
прелсти
холопей
Жена
ген
ѣз
҄е
##о҄у
##чы
##чных
##щемꙋ
нась
##миро
##выѧ
хоти
дѣлѣ
##лять
странъ
##зость
Толко
рѣка
б҃ж
случи
Сегѡ
##треть
молви
кыевѣ
начнеть
страшно
блѧ
звер
иѡ
ля
мета
упова
Ѿвѣща
##мⸯ
##даше
##тано
завѣтъ
съмо
съконь
ред
мак
Попо
ꙗ҆ви
локо
грѣх
сѹще
единь
Новгоро
приими
сердцы
наказаніе
хощете
въсѣхь
зъло
ѡбѣща
Игна
оса
чемѹ
єсмь
ѡсо
##тве
##днѣ
нань
насо
##лици
##хар
ложа
полкъ
никомоу
книгы
Марко
гроб
великая
непоко
ходить
покланѧю
прпбныи
королевское
наипаче
десять
ѻ҆тецъ
Вси
Вся
О҅
одна
тіа
шли
##щем
##ёр
поѥ
поди
попу
##кола
##вин
##рьі
таба
##жатъ
є҆лі
вашѧ
##мый
##ленїе
##бьѥ
взялъ
василе
смири
гераси
питие
столб
помага
вземше
блу
внити
иль
скѹ
ті
##вны
##чным
подати
нага
##кажи
дохо
зало
##вѣди
##велъ
твоа
ходит
мнозѣ
##скагѡ
цркви
сѹсѣ
Только
времен
исплъ
приидоша
блажена
сердцемъ
куплю
похвал
июня
патриарха
молодой
ѻ҆чима
Изѧ
зѧ
умыш
шъ
##ш҃
##нʼ
##ος
##тии
##дат
дабы
##минь
##дол
##нец
татя
реда
##халъ
##лыхъ
##сово
раꙁѹмѣ
і҆и҃са
убой
дъва
василью
##глас
непоро
порутчи
##пѧт
геѡ
видети
учинится
взо
сена
свари
##штъ
##гры
##єго
##стіе
##никоу
##стьи
ведомо
##мать
##сила
каких
посмѣхъ
вознена
тѣмже
сужда
ст҃ѣи
гд҇не
шесто
слуга
млт҃
голов
пожалꙋи
##ствии
смирен
игумена
божию
жалоб
пустоши
бц҃а
ꙋбѡ
##смъ
##рамъ
копи
кожю
нине
раду
##сия
пали
матер
вѣмъ
вин
##дый
##шьдъ
подли
г҃а
продажѣ
знала
##щеніѧ
млст
с҃т
дрѹга
##мретъ
ивановичю
Чадо
збе
ѹм
##аи
##чныя
повои
##досте
##вѣсть
##вей
сонъ
совѣт
отвѣща
техъ
посмѣ
вѣрѫ
правую
нѣго
имян
сотворит
насле
##вшим
срокъ
принести
володимеру
служилых
##а҅хѫ
божия
##женыи
погребе
накорми
20
І҆
##віе
##ѹ҆
##лке
##смы
##҆мъ
##і҃
##ѥи
##ний
кождо
вопроси
примѣ
##шают
##чиши
кар
сара
стану
нѣкто
гривен
##тврь
испыта
взяли
образ
и҃съ
ц҃рю
трава
гь҃
##мꙿже
въсхотѣ
одного
павелъ
Антио
і҆ѻрда
Кнѧ
исть
истер
лвка
фла
ѹмъ
##ѥю
##ливати
##етꙿ
прило
привед
##доки
моро
##жил
##выше
самѣ
##лѧше
##нꙋтъ
възлюби
мѧть
какь
диви
дватцать
корень
женамъ
##жденіе
кꙋпи
положит
цареви
##носити
двери
Тимо
намѣст
беглых
погѹб
лы
сено
фро
ѳили
##нете
##мка
попра
##колюби
##мъка
##вають
въпро
прити
борт
##шавъ
##тъкѣ
##чили
##галъ
отвер
##чалъ
возму
також
ѡ҆ста
##зить
ѻ҆рꙋ
исца
враж
плоды
цр҃ков
василко
дшѫ
ѡ҆брѧ
Василью
недоста
вашимъ
отец
игумену
пристава
##ступиша
мѡѵсею
взима
блꙋ
##хло
##ржа
##віа
##ьсти
##щє
въхо
боля
каи
##нѣте
вари
изво
##купати
двоѥ
отъвѣшта
всякому
кров
монастыри
##гласно
срце
ѥсми
млада
казнью
грече
невѣр
григории
съмръ
прежнему
свидѣніѧ
гвоз
упо
цето
##рец
дае
оутѣ
##сить
##стаго
сиа
родо
вѣкꙑ
гража
бѣда
тѣхь
полё
вражда
семена
пріити
челобитья
погибли
лошадь
Тебе
юрью
Дюк
Дарий
і҆ѡнаѳа
Еда
осу
срь
ѧкова
##хма
##ꙗть
##дене
##тили
##лие
##мои
##мою
низъ
##пита
чаро
чару
##зовъ
обя
сѹдно
архіе
добрыми
##ходили
##клон
богатырь
языки
служити
болезнь
красоту
отиде
дешево
але
кна
млъ
##тем
##тꙑи
##рена
##внаго
##мнѣ
##лсѧ
##клъ
##нок
##ваша
##момь
ники
##льма
съкры
панъ
мають
возметъ
##чье
чистъ
госпоже
ледѹ
бꙑша
##хуть
тьчію
вь҆ꙁ
посадника
григори
григорь
светы
сниде
молитвами
возьми
мр҃
сбо
##стꙿ
##етсе
##тьі
гостя
раб
съвъ
##гада
є҆ле
малъ
избра
свете
городом
власы
сотворилъ
##хуся
рѹсь
гробѣ
бѫде
ратма
источ
здорово
феѡдо
Яро
абы
гру
дѫ
тря
чему
##ꙗне
##стрь
наѧ
##еня
и҆де
приг
##жих
стена
бѣаше
ꙗ҆з
мечемъ
дьа
дь҆
дуб
мѹж
нашемѹ
##женіа
черв
великие
цр҃ю
велелъ
вашеи
просфи
повѣжь
Петра
ꙗ҆зыкъ
недель
сѡтъ
сукна
Ихнила
Маркобру
вꙁ
нѥго
утро
##дня
##чков
неѡ
нели
незна
ков
##дехъ
##стоѧ
##пиши
ваю
лише
лиси
лишь
##щагѡ
мѣсѧ
платѧ
какой
креста
нихто
водаи
ѻ҆тцы
брашно
подлинно
Ев
ѿпѹ
##цка
##кіѧ
##титъ
давы
прилежа
горѧ
прося
##ховѣ
отче
##скїи
тутъ
кресто
б҃ь
##нитися
испе
взѧли
испорти
члвкъ
царицы
вдовы
вкꙋпѣ
езе
чоу
ꙗвлѧ
##кле
##ламъ
##ниц
##даль
##риго
##дову
паѵ
хоч
##ляти
страх
##дѧи
##ныимь
друзии
##кѹтъ
бꙋдеши
поклоня
в҃і
государьства
хана
крестьянина
ближни
##фора
створиша
слѣдъ
взыде
пошла
молитвы
цр҃квь
аи
дль
скла
хв҃
ѡно
ꙁлѣ
##рку
##сꙿ
##зоу
##єцъ
##ꙙшти
дав
своѣ
нову
вину
##лый
##нял
велит
печер
стопа
а҆ве
нѣкако
тѣлес
помози
рѹцѣ
речен
анти
ст҃опол
смѣтити
борисо
свѧты
обители
бесѣдовати
понома
богатьство
звати
ѳа
##мки
##ꙗна
##дки
##щі
##єм
##рех
даетъ
даите
моем
##щими
меща
##врат
боярин
##женіѧ
рꙋка
благы
михалѧ
въсѣмь
##стꙋпа
блгть
воставъ
мн҇
##стѫпи
восхотѣ
Буди
саꙋлъ
Ст҃
гль
гнь
зря
кло
псков
уло
упра
ѡль
##ѣз
##ѣмъ
##рли
##сръ
##ου
##кол
неми
невоз
##ниде
##дана
восоли
госѹда
##весели
равно
весу
стены
##скопа
##цевъ
высѹ
возѧ
возло
##чьскы
разби
межю
##ндѹ
есвѣ
веліи
Кабы
болшо
своѥ҅
товари
покая
##шол
запасѹ
кабалам
с҃на
пригово
Киеве
##волно
варва
похочет
##ткамъ
премѣ
ѡстатки
кꙑѥ
порѧдни
холопство
свѣиские
съмьрть
капѹста
варшавы
ѡловѧ
умрет
бяху
вдови
гер
ега
мꙗ
пли
свъ
тма
чт
ѥстъ
##нныи
##дена
##бна
##носѧ
##ровы
въсѧ
вою
сож
##гаты
откуп
сиⸯ
васо
##гии
##скиих
возъ
##гѡвъ
подле
двои
сотворите
Канда
сн҃ѹ
кѹпити
нѣкогда
дрѹгѹ
мѡа
скиніи
рꙑба
змеи
оц҃ь
буйну
Имѣ
вль
тіе
##рво
##дру
помер
##тию
##локъ
##наі
##рио
дахъ
##таеть
##моуд
##неве
##сиꙗ
##ходе
лютѣ
лиши
велича
##верну
сколько
възра
дьжь
моими
твоея
единаго
##цомъ
писалъ
##буди
хотѧще
дрꙋгъ
##цкое
володимерь
делом
фомѣ
вмѣстѡ
месяца
прочіи
пче
##ьто
##ково
неща
##них
въкоу
кожи
##доха
##шааго
мочно
оужа
съхра
##жиши
люта
нозѣ
пакъ
мел
князей
святаго
##нѫти
братіа
##разу
принесоша
члкь
погибло
кела
##н҄ь
і҆и҃лева
памѧти
помаза
##квамъ
хлеба
прч҇
ѡ҆бита
вза
цвет
щу
##тⸯ
##вете
##єтъ
посты
недѫ
##нилъ
##мовъ
сеѧ
сеже
##хот
##цьмь
##стыя
чадъ
възложи
мѧте
волость
которыя
бьют
мѹжи
прииметь
челобитье
домов
житии
полез
Тѣмь
ꙁаконъ
митрополита
мстиславъ
через
вѣровати
оному
спро
спѣ
т҄а
ѥи
##шнее
##цкие
##кіе
##дныхъ
##ѭще
нале
##еніи
##лале
##новати
неѧ
##жем
кома
могѫ
заи
##вецъ
прошу
прозва
силꙋ
нонче
рома
пеца
##чька
нѣм
предпо
ивану
Кар
нашѧ
потомь
кр҃
сътворилъ
пожалуи
сороци
обес
хр҇та
требу
Ана
Би
бже
зра
пл
ѕе
##ал
##пка
##ꙗи
##ꙙште
поворо
##рон
##ремь
сотъ
сотворѧ
##ньми
##жьдо
ᲂу҆би
странꙋ
сѣдѣ
лати
погꙑ
ст҃ое
хотѧше
##вѹю
##разꙋмѣ
никакова
сп҃с
црк҃ви
ѳедора
ата
вто
х҇
ѣкоже
ѻти
ѿтꙋ
##блѣ
##зꙑ
прилага
##дець
##телемъ
госте
##чис
белу
роспра
къс
мале
##пан
##гип
чину
судом
обви
добром
мъл
грци
##страши
Салта
горко
осень
##фон
купилъ
юрьѥ
третии
твердо
божеств
Христос
доволно
Трои
замуж
Ан
зво
кнь
ѡсподину
##мна
##лца
##ями
поже
всемо
гоу
ража
такую
##нули
##питъ
преди
превоз
##мѣни
изли
##сель
и҅ма
бьрь
##женіи
##фан
конець
здравъ
четыри
Володимеръ
Подоба
вє
мню
##трꙋ
##немѹ
##яне
##гони
нае
##лины
##нощ
коего
##довь
боудь
##теле
##повѣда
пропу
прогнѣва
##щеся
##жай
##пать
стаг
##енаѧ
стое
раздѣ
гриво
имже
и҅мъ
крестъ
нашемъ
начало
покарѧ
лоукъ
кыеву
Ивана
Видѣвъ
древле
воспомина
знаменіе
Повелѣ
дши
ерети
осподину
рбль
трѧ
ума
цри
ѧ҅
ѧти
ѻсподину
ѿм
ꙩндрѣ
##тенъ
##тков
##ѧну
##д¦
##дное
##бр
##бри
полѧ
тогды
водꙋ
воспро
##шаа
моӏ
горъ
соц
##жига
##чай
презрѣ
посмо
мастер
вѣн
##щимь
дѣжѣ
бѣды
руць
лоне
ст҃аго
##ствіѧ
коуз
вратъ
семе
грвнѣ
рису
розда
розмиро
гривьне
##вшіи
держат
смет
въдае
Паче
ногато
а҅кꙑ
пѹть
надоби
золота
повинѹ
трьтиѧ
Сынове
цетверти
пришедше
видели
присълеши
неправды
молодога
поличное
позвале
грвне
овьса
солнышко
сихаилъ
Стер
одѣ
##хіи
##рк
##цємъ
##пръ
##ббѡ
##жя
поꙗ
неме
##нино
воля
водѹ
забꙑ
сино
##цехъ
##сью
куда
лег
первыи
##писано
вотчине
господинь
свещен
Божию
погреба
гл҃ати
##чок
глѣбъ
жестокое
Ѻ҆нъ
дхов
ид
яв
##шетъ
##вень
##стіа
пошелъ
##вающе
възи
богда
##монъ
##него
заклю
##вѣмъ
собира
век
ноя
рот
##сок
а҆ха
ᲂу҆ста
бꙋдеть
##вичу
животов
продати
##аннъ
поути
##шкой
глаголеть
ѳеодо
просить
надобь
кръвь
сестри
поживе
##леѯанд
и҆спол
глагол҄ѫ
третей
лени
шо
ѿкры
накреп
нежи
могꙋ
ражда
проез
веси
##жаѧ
##вьно
##пало
всей
##цыи
главою
пославъ
имам
добромъ
кормъ
василеи
бѫди
игуменъ
зимѹ
почелъ
крыль
Ꙗ҆коже
мц҇а
накрепко
еду
цс҃
ѿлꙋ
##еже
##лкъ
##куду
непро
тоꙗ
##тай
прида
совет
##чихъ
родити
##бѣг
плача
всѧкою
государево
господину
##фимь
##менемъ
глаголет
свободи
ꙗрославъ
сыскивати
ничево
генва
або
##ова
##вца
##мше
##сми
тота
##деви
##небе
##веи
##въшю
съдѣ
##ньѧ
посрами
##сот
##славоу
После
сыска
рѣчь
багаты
нынь
богате
знаетъ
рѹкѹ
Никулич
закону
дш҃ев
ратных
трѹдовъ
обеща
замкнѹ
срдце
новъгородь
дъмитра
куды
мет
піѧ
хс҃
юде
ꙁемь
наве
##лаѧ
##риа
даро
присту
мого
сея
оумь
##рьбь
##ции
тур
скотъ
Тои
перваго
есме
великои
сꙋббѡ
товара
котором
спаси
##ющаѧ
напасти
собака
калики
а҆дѡнаі
Мѣ
аци
иски
м҇
чс҃
Ꙗже
##шене
##рски
##дше
понѣ
проз
##стие
##чита
##рье
живы
межь
кун
сѣмъ
Нача
друг
моих
##нꙑихъ
великомъ
##вяза
чьрь
бъ҃
богомъ
воевод
бѫдеть
приходит
дьяку
искать
тысѧч
жалованье
жаловати
съгрѣши
ѡбыча
вечеръ
Пу
вки
д҄ето
оси
хрѣ
ѡти
ѡнд
ѡружь
##вство
##нде
##сѵ
##пру
##стру
##конъ
точію
приклю
заут
отку
самы
вѣцѣ
##сьи
##сь҆
править
страшь
часу
Томь
негоже
мѹжемъ
шести
бж҃ии
хранѧ
##пье
##емое
доуши
##теръ
днехъ
величеству
ѡбрѣта
десяти
сиротъ
игорь
клеветь
алтына
ѡ҆брати
костѧнти
Тимофе
Зла
К҃
Ово
гна
зри
снѧ
##тву
##теніе
##чє
##яни
##ѥмо
поѣха
##литъ
неви
##ровѣ
##ване
##рине
и҆сто
дово
боче
##поль
бывша
брал
выдати
меча
сущю
каково
коровы
врази
богатъ
гавра
дерзнов
верь
тр҇
бл҃гораз
сн҃о
слышав
##лениꙗ
подастъ
разумъ
исправ
федора
ѧ҆зы
дмитра
вѧче
подьячему
батюшка
и҆ноплемен
монасти
садился
Аки
##ён
нава
напса
##еніѧ
##ванъ
##ницѧ
и҆ми
##мии
мог
завѣта
оутвер
проли
##мал
##хова
##люще
пада
честию
месе
##тѣли
нѣкыи
безꙋм
перемы
обре
бꙑле
##сылати
##скые
словом
##лница
взяв
Приезжа
дꙋхъ
цркве
богатыри
славѫ
кормит
цьто
покрыто
борзо
королевна
цоломъ
погыб
печатных
ѕлаѧ
кюри
ара
глꙋ
скър
ѡсѹ
##шны
##мꙗ
##сꙙ
##кѧ
##енїе
невер
##риль
въне
водѧ
призывати
пристꙋпи
##докъ
##моро
моль
##дѣлъ
паволо
видить
пила
сынꙋ
плава
благода
бояръ
менѧ
ст҃ыѧ
высоко
щото
казны
славный
срачи
немощь
детемъ
микифо
Духа
деревнями
вавѵлѡн
ьсть
ѹстро
҂а
##имѣ
##щут
##коло
##роша
даѧ
нима
теперь
март
##щаꙗ
##щаше
бꙑла
ꙁави
братію
Мило
слнце
рабоу
##штꙙ
сказал
обрѣта
трѹды
опят
недѣлю
въину
мл҃твами
сырой
жемчю
веніа
дщи
ѡльга
##веть
##моль
радꙋ
##чите
##лѣи
##ньска
варит
разгра
грѣшни
дьѧ
единой
блжен
мѹж҃
бл҃гъ
кнѧжь
всих
въꙁь
тьі
великих
истина
послѣдова
тѹто
и҃с
братью
болѣзнь
также
старые
ехати
аггль
вскорѣ
Є҆гда
спрашивати
восхи
дверь
жєны
сосꙋды
Дунай
##дроу
##щета
поѹ
помы
дашь
##тецъ
могъ
готова
##ньскы
##ньскомѹ
##ходоно
##чает
ровно
##пар
страсть
##лѹи
гривнъ
бꙋдет
всяким
писание
##лникъ
держи
храма
начале
гсдри
самовла
поставили
мѫжа
црквь
дх҃о
строити
траву
похотят
ненаказа
пръво
аплъ
столпъ
поварен
сꙑнъ
н҄емоу
дворех
блаженныя
серьбра
Где
Сіѧ
Фа
Холо
аб
дѧ
клен
плѡ
рю
##вныи
##кръ
##пс҃пъ
##зло
толок
даніи
##шаетъ
запрѣ
оумъ
оучен
отсе
любы
павь
хоць
сани
сахар
пише
межу
краи
грѣхꙑ
рѣкы
бꙋдете
##лкоу
Вои
помога
злое
хоробры
братию
приятель
ꙗ҆зыки
прекрасной
адама
Серги
патріар
ат
ді
жреб
т҄о
чти
##тени
##шут
##мены
##ѳеи
настави
##нори
##ровичь
##чища
маг
ᲂу҆вѣ
страсѣ
сѣмене
посланъ
корова
пусты
Вое
##ющымъ
##лениемъ
треп
побѣгоша
хощу
##станетъ
Киеву
игумен
распро
##вѣрныи
въспри
Бысть
неделю
а҆рхіе
ѡбьѧ
комиса
##ходоносо
Сво
бѕ҃
исъ
убе
##рене
##веніе
##линъ
##ломь
##дастъ
горю
оувѣдѣ
проꙁ
какаѧ
##гат
##дуще
прѣмѫ
сѣнь
друж
которыми
писать
животине
великим
небесъ
разума
##хомся
Тѣмъ
старцы
древе
таино
мурзы
сидора
неизречен
Кре
вя
ув
ѡного
ѧвлѧ
##сро
##кшь
##ѳу
показ
##коше
##реви
вънѣ
сель
соста
ниь
##бирати
пато
##мѣр
##хажи
словъ
меж
ᲂу҆слыши
ᲂу҆мретъ
положено
ложь
нашемꙋ
помочь
смертью
##лению
Самъ
ослу
Отче
##ниѥмь
прислалъ
питїе
рѣзанъ
ненавидѧ
докладу
ѿтꙋдꙋ
Второ
оборо
смѧ
хь
##оби
##жна
называ
##лицы
##данъ
дадите
можа
##несоша
горꙋ
##сите
избран
выбор
воздыха
##лях
обло
кралъ
лаза
милосты
блѫ
##ющее
знамен
человѣчь
потомѹ
пьрь
анг҃
въдасть
богатырей
Москвы
##сению
боудет
ꙗвлꙗ
сонмъ
ιно
Гд
апри
вр
вҍ
одо
пта
ѿсѣ
##он
##ае
##лҍ
##кꙿ
##кҍ
##колюб
недоу
тобой
дажь
##мия
сее
гон
є҆ѵ
є҆сте
избиша
##щика
##нѧтъ
##ляй
мечи
Боя
левъ
##днике
влад
га҃
и҆збра
пѧта
добрыхъ
##вяше
правдꙋ
маломо
братиꙗ
гюрѧ
##леніемъ
терпѣ
рѹкодел
вотчинников
вельмо
порѧдли
ѡбиходе
ѡбиходѣ
ѡбиходѹ
##л҄ь
Иоси
росолъ
поместных
домочадцовъ
##грѧз
оубрѹ
попортило
затхло
лѹчшее
Об
ємоу
##тко
##твъ
##ленье
##фра
##ред
##кали
##шими
##боко
съста
##сона
братя
##нѧх
лѣно
перехо
влага
##лницы
##нии҆
##зеи
подобь
положил
##бꙑти
послѣдь
творѧше
дроугъ
марка
естество
среды
Божии
снаб
бесѣдова
серебря
сꙑна
обаче
ꙗ҆зыцы
крепость
возвратисѧ
Слава
уезде
здоровье
обесчести
Ему
Сѹ
жꙋ
идоу
менов
рк
ч҇
яи
##н҇
##чнаѧ
##щень
##щему
##зну
##йдет
##лае
и҆с
всь
собя
совѣтъ
оук
пару
##лѧда
##нѧго
градомъ
##брая
##дници
##снои
врагы
в҃ꙇ
человѣку
дѣлают
торгу
гн҃ь
врѣмя
##нномѹ
мнише
тысячей
неправь
нб҃се
изыде
колѣна
собаки
престолъ
манас
назад
предѣлы
добродѣтел
живоначал
идѣ
инии
##сем
##свѣт
подь
##годно
наю
##вае
##диꙗ
и҆са
##ерѣ
##теши
селу
##вѣст
оума
веки
съкаꙁа
##чевъ
изиде
живѧ
##мери
##нѧнъ
##сповѣда
пили
грѣхѡ
чюде
погна
скаꙁа
молоды
##аніа
вое҆
сказать
тꙋка
##дѡвъ
серебромъ
бж҃іимъ
##скꙑѧ
крепостя
другая
платежь
гочкомь
гѡ
гни
кль
ороу
ѻн
҆҆
ꙇ҅
##срь
##гꙑи
##дꙗ
##чни
##жных
##вов
наем
кодра
и҆сцѣ
бобро
бочки
оуча
прост
бесъ
ребра
##щаи
царѣ
добрꙑ
##тым
тые
##мыва
тѣмьже
сладость
глаголы
мучени
##нꙑи҅хъ
бато
булат
всимъ
знати
потру
василья
Микити
ѡ҆бле
недобо
Стал
пытать
индик
ѡбрѣте
мужей
помещиков
Лука
притча
холѡпъ
Девгений
веніамі
вле
кде
##об
##сіе
порти
##гости
##рокъ
дам
мостов
заꙋ
##жии
тепло
##вьци
виждь
дѣѧ
возбра
стоѧти
такого
ѡ҆правда
ᲂу҆по
чита
госпожа
тьма
##гради
черен
ха҃
кабала
стрело
противѫ
і҆ꙋда
солн
рьци
блюди
##н҄и
желѣзо
діакѡ
есьмь
невидимо
игѹменъ
хоцеши
бѕ҃ѣ
Ры
втора
сде
ꙁи
##мпия
##лми
##ч҇
помыс
прѹ
##даетъ
##нымь
##рѣто
##лѣзе
отка
ноне
##вьна
##сего
жидове
вида
##цей
дѣле
##тын
разѹмѣ
инои
видѣлъ
благоволи
писана
блуд
продажа
##дять
раꙁо
нбсе
нбсь
чл҃вка
малое
дорогу
доуха
третьи
третья
другои
жертвꙋ
лѫка
герасима
Томьж҃
плю
плен
ѥдино
ꙗкѡ
##шна
##ꙿше
##ѡнь
##дци
поправ
##гор
прде
##раи
вост
оумре
каша
съп
##нушка
##лють
##бѣже
изре
##сеѧ
##щают
##чьсти
между
##зова
##мѧни
святого
взяты
дрꙋгꙋ
дръꙁ
повѣдаша
наслѣдіе
давꙑда
Нынѣ
копье
тоуркы
димитр
Ска
ѡе
ѡто
##дв
##гоже
##вааго
##нил
##кала
##дило
коса
водъ
и҆ди
сос
нища
##стит
беско
самꙋ
##зань
тиву
многѡ
Полка
ᲂу҆стъ
суще
лежить
перет
##тробѣ
душя
##пущены
слуги
##мят
убогы
покаꙗ
всѧкїѧ
всѧкагѡ
средѣ
московских
##щѫѧ
мц҇
худо
рекуще
и҆сполни
тѣлеса
Потанцыяна
ати
аг҃
б҇
ннꙗ
оче
оць
остан
єси
іер
ꙋзе
##нется
##ѡб
##юже
##жны
##ѥм
##ѕло
##тиша
неꙁ
##родите
##нине
##виць
##мит
защи
радоу
##стите
##сит
##стовъ
пагꙋ
##беи
бракъ
##тыѧ
##спъ
и҅сти
ст҃ѹю
сьі
добромѹ
свѣтѣ
враче
мѹжеи
мьне
связа
##ніє
раꙁꙿ
##гель
бесчи
хал
володими
послѣди
правой
очию
высок
строите
дружинѣ
деревень
напасть
молитвѣ
изыма
разори
дх҃овнаго
имуть
берет
володимера
беззакон
жеребчи
ѻ҆лтарь
колачи
000
олександ
ссѹ
умо
##дла
##жные
назва
прсно
##тому
дарꙋ
комо
кодь
дож
домоу
моне
зак
нинѣ
##сиѧ
##чества
вамь
##мѣте
вѣдѣти
жиръ
##нѧние
ᲂу҆м
ᲂу҆разꙋмѣ
естьли
##цька
##ставили
исцы
##ствено
бꙑсть
##нꙑи҆
##вшеся
мьі
Нико
истинно
запися
##ренѣ
ѥсмъ
чловѣку
Чтобы
служилые
давідꙋ
погубити
нб҃о
красоты
помещики
болѧре
архимариту
непрестан
клеветьника
хоцьши
Що
иныи
ои
тꙙ
тврь
хер
ѻт
ѿхо
##тку
##ѣше
##біи
потаи
##води
##ливъ
##дает
въпроси
дасте
коже
##еръ
пристѹ
##шей
сънѣ
##ньце
##ходя
рождь
романа
листь
сѣча
сѹдъ
млтва
##лоую
Само
Разу
крестьяном
##жения
##шую
ярополкъ
бесѣды
силно
двѣма
избавлѧ
пошло
груди
Ст҃о
Ис
еѳи
идетъ
очей
тꙗ
ѹчи
##ору
##ветъ
##ью
##ѡби
##лик
дадут
##бом
##чеши
##сѧтъ
##столюби
през
вѣрꙑ
##ствомь
права
государы
ихꙿже
и҅мѣ
грѣси
##ствіа
бояры
погра
святеи
скатер
##ющы
Вар
приказным
пръвѣе
обрѣсти
жалованья
##бление
совершен
пакость
овса
приближа
инако
умерших
надобет
Исп
аѳо
ова
основа
сказ
эту
ꙇ҃
##нского
##км
##ѧхъ
##дть
##҇е
##ствы
постои
помꙑш
##емаго
##тал
приступи
рада
студ
новѹ
изнемо
##лыи
разъ
подру
лови
сѣн
славою
##мѧнѹ
моея
##стѣхъ
женоу
знамень
государевым
Зане
##словіе
учинить
приведут
бывають
борис
ходил
зове
нѣкои
царей
племѧ
плъти
вдаль
ѡвса
кобыл
чернигову
ᲂу҆готова
соломѡнъ
а҆гг҃лъ
розбое
сполна
Акы
Жа
гси
ивер
хі
ѿстꙋпи
ꙁе
##хна
##шє
##ешъ
##нїю
##прь
несо
##ваху
топо
давалъ
кожа
колько
и҆ꙁ
придет
##вел
##стой
поспе
измен
##дью
##лѧю
всево
станетъ
##бал
##творь
ложи
лаво
блг҃о
дивно
##лники
начал
і҆и҃ли
соуще
старои
є҆мꙋже
крс҃
Мои
Влады
внидоша
володимерю
достоитъ
четверть
силенъ
потребѹ
здоров
рекъше
въставъ
чрез
неправеднаго
1000
роспросе
нещадно
вен
иныя
мле
фрѧ
##цких
##ꙁн
##лѥ
##сень
##деніе
##жꙿ
##ѭшти
поце
навꙋ
непр
##мъке
комъ
кондра
морь
запре
##стилъ
##къмо
пословъ
##бѣжа
столе
##скааго
ᲂу҆мер
иметь
##творити
емуже
лего
посланы
дьмь
есмѧ
животина
крова
Коли
раꙁли
раꙁдѣ
идешь
неиже
сменова
##вꙑхъ
жития
Отпущены
дрѹжба
погибель
татарина
взыска
погребѣ
##щении
есьмъ
розбойники
Глаголеть
верешь
возвесели
глубокие
҆ѡ҆
вьрьшь
ѡ҆полчи
всѣволодъ
Афанасию
ст҃ꙑꙗ
##гг҄е
справ
##щмъ
##ради
неду
недꙋ
##рома
дат
домь
##тааго
зато
##вѣмь
оупро
стꙑи
##хове
##стою
робо
##щися
##правь
грамотꙋ
##лника
##штемъ
рꙋблѧ
речено
крестьянин
зелена
исправити
будучи
##а҅го
отець
моужь
плѣн
і҆ер҇лима
двьри
дщєри
глагол҄ꙙ
прпдбнаго
молебнаѧ
Настасья
воньже
Испро
ꙗз
##лное
##бет
дарѹ
##емѣ
##дешь
##льши
раста
##чими
##чиша
##цамъ
##стое
##дъх
##щаю
##тыя
##веръ
полоцкого
##зьі
славѹ
лесть
##скый
продавати
смоли
сѫд
наказати
хотѧть
дрꙋги
ѡбрати
братие
млады
є҆динагѡ
лоубо
пръга
Всегда
въскр
плакати
покланя
совѣтовати
мънога
резано
##времен
тиуном
воспита
і҆исꙋсъ
вте
гры
сдѣ
є҄
##еn
##ѡмь
##брь
наꙁна
нестер
въложи
прил
прите
притъ
прикос
##тери
##стиꙗ
##живо
##бати
Покло
##шькѣ
##чьскыи
ᲂу҆зри
сѣсти
перева
златомъ
сн҃у
##менити
законѹ
чьи
ст҃ыми
дн҃ии
просвѣща
святыхъ
смина
праведнаго
Хотѧ
тысѧщы
похвалы
хр҇тіа
старый
горахъ
спасение
приехалъ
генералы
празники
ѻ҆вцы
вседержитель
Строка
тв
##клѣ
##гѧ
##гну
##ѧніе
##чная
##ir
попри
##гой
##лович
нераꙁ
##дая
##ринъ
##тьѥ
##вее
##льника
оубь
оузѧ
прочих
бери
многꙑ
вычи
##цифо
бѣхъ
##еною
раздо
ᲂу҆жа
чинить
страти
сусѣ
обрѧ
##ныим
лак
единою
##тѧтѣ
##троу
бл҃гаѧ
о҅бра
храмѣ
ѡбли
въꙁꙿ
нꙑнꙗ
спать
свиньи
ногата
сподине
трое
ключи
Василь
здравие
Божий
денга
божии
похваля
пришле
виноватъ
ѡц҃ю
обычаю
сидоре
болгарски
ѡстрове
##о҄умоу
Vir
¦д¦
Идо
Пріи
Фрагмен
Цѣ
еѫ
кн҃ѣ
ол
огра
одинъ
оговор
ѥва
ѹка
ѻспо
##аа
##рм
##ить
##mus
##ӏ҃
пон
поӏ
побои
наца
несть
##дися
кобꙑ
восо
##вицы
примет
годов
##шилъ
весте
сихь
сигово
михи
микоу
##пивъ
##руо
сажень
дежѧ
воземи
возѧти
бѣю
разбой
нѣжь
и҅хъ
ложе
лежит
грѣсѣхъ
дьвѧ
поидеть
гривно
бьз
бьло
бьлъ
коунꙑ
люді
##лекси
продале
ꙁапа
грвно
Карта
молитвою
тьбь
вꙑшь
нꙑнь
михаили
Мало
пьшь
харѣто
##гнаша
Раду
бъръ
спасен
ворона
##любива
ѥсифу
тоудо
царева
пѹсто
гюре
роублѧ
клюц
господствꙋ
Велико
исправить
ѡсѫ
царствова
нападе
грв҃на
поместьях
въскрѣ
крьни
Руси
нꙑнеца
полату
коробьꙗ
вѧць
кѫнъ
поеди
воскрь
андре
напрас
блъга
петръкоу
##битьѥ
обычаи
##ковее
бѣлоно
резана
пѣснь
куонь
Богородица
##фоносу
стьпана
хѣри
турабьѥ
резвы
бѣсовь
зобница
столбце
рꙑбахъ
Ильи
Мне
гля
зѹ
крѹ
лут
оци
ѡ҄
##цєвъ
##щенье
##земъ
попѹ
##еню
притчи
##леже
##телъ
##стьі
##полꙋ
##сий
отто
сире
##ръва
##рыи
нося
пасти
##слали
##славича
таковое
##брано
а҆ві
велкы
сꙋди
чюжи
продавать
галаа
Вот
тріе
##евна
взято
##ревѹ
сѫща
Ники
которому
##телꙿ
срца
таможен
тꙋр
оучитъ
бесѣду
празникъ
ꙗрослава
правила
первой
сидору
ѻ҆гнемъ
воинство
длъго
везде
Поиди
Вдѣ
зѣ
ии
узна
четъ
ѡдно
ѧро
ѹ҄
##онъ
##ать
##лніе
##чныи
##ѕо
##ваꙗ
прияти
стѫ
##чаетъ
мал
##меи
##цев
##гѡмъ
вьі
раздра
страхом
скоти
поидох
владѣ
##сною
крово
человеком
тьр
бл҃говѣ
книгъ
покаа
господинꙋ
##лѡвъ
воевати
купли
##женья
болез
ап҇
лошад
прпбны
Сыне
будешь
блѹдъ
прочии
і҆и҃лєвымъ
шедше
настоѧ
щьть
Гл҃
М҃
бло
впол
ег
мз
##хрі
##шкою
##кров
##днаго
##фро
##ложь
##даеть
воль
селъ
##лѣнь
стрꙋ
стг҃о
##бина
##чаты
павле
преиде
роба
хошь
мали
##щиихъ
руце
разсѣ
а҆да
лоше
продать
всихъ
поможе
корни
имѣя
##лениѥ
любит
##нꙿно
почест
веселие
челобитнои
скверно
вкупѣ
Гре
Има
Ке
Л҃
Обра
Тꙑ
ухвати
ѹдари
##нкы
##кру
##дну
##тил
##лисѧ
##кал
комоу
завѣ
ведет
таф
бел
##чала
илии
##цари
є҆зе
##мей
##мемъ
стааго
множь
и҅ли
##бьра
сѣдоша
грамотою
благодѣ
писали
писаніа
архе
бересто
##мѡмъ
побѣже
##фона
цареву
приходя
житіи
Пречи
##евичю
ездо
рѹкодѣлью
сестру
имиже
Любо
второй
максима
двд҃ъ
##кориз
заплатити
Магилена
новугороду
Картау
Авраа
Будеть
абь
тю
устав
чст
ѡдолѣ
ѻстави
##тце
##твьр
##гнѹ
##ѳѡ
##ꙗв
##чны
прї
небы
нед҃
##ницѫ
##натцати
довѣ
всемь
##шаꙗ
солова
##въшоу
##болѣ
##стивъ
съв
отцы
бегах
миромъ
предати
##пала
лицемѣ
##скима
возмꙋ
Послѣ
нѣкіи
цртв
сье
имате
полтора
сѹд
ные
б҃о
продаже
скажу
книгꙋ
цр҃квамъ
петру
поставить
створилъ
Станови
Всеволо
детми
ѿдастъ
всеволода
##езжал
холопстве
всꙗко
цр҇тв
захарь
вотчинах
псковичи
ѿидоша
молодцы
Скоро
прожиточ
волокиты
сщ҃енниче
гюргю
Муромца
пристанище
Услыша
имо
мло
ост
ѡть
ѿдати
##влу
##смер
##бен
поноси
##ваніе
##минъ
прибꙑ
##телѣ
##тъко
съко
стр
бежа
рогъ
малень
##селе
брашов
цареи
##дывати
возвѣ
##сье
а҆біе
подмо
плачи
##дники
мыс
##левꙋ
##ложить
начала
радост
сквръ
иꙁь
##жении
##жению
глѫ
сороко
дроугоу
хваля
почела
бц҃ѧ
матушки
##шымъ
промежю
дх҃овных
погꙋби
съкроу
сергіѧ
колесни
съмьрти
Блг
хочеши
подража
прежних
ѿтолѣ
сирѣчь
самодерж
геѡрги
Смо
лкъ
с҄и
ѕи
ѡде
ѹпова
##аѧ
##рмы
##кр
##дныи
##гови
присѣ
можете
##вещен
##чинъ
##жио
##жина
преко
роспи
либо
вѣь
##селѣ
##хать
##щину
##нѧть
таком
рубе
##шьке
ложно
дворѹ
##дницы
женꙑ
въꙁра
человече
##ждааше
лук
Господень
запира
работ
казнь
##ꙁь҆
мл҃твою
погостъ
виноват
звѣри
оставль
оумѣетъ
ударил
домашнеи
местех
девять
Аче
Два
Елико
Мꙋ
иж
кні
тлѣн
умь
шве
ѻна
##она
##дҍ
##лиши
##носта
##вагѡ
##ваютъ
##нико
##дав
##дился
дави
давъ
боб
##матри
създа
съдръ
мину
носъ
рожд
старець
##лымъ
цара
питьѧ
возметь
##сьти
##жько
лѣни
ꙗ҆сти
ᲂу҆крѣпи
имаше
полскои
свѣто
г҃лѧ
##ющеи
мьрт
##валися
##трени
злоба
бывало
казну
дш҃ѹ
наказъ
кралевны
Литов
сестры
ѿц҃овъ
##стреми
Благослов
прожиток
прилежно
ѡ҆чисти
ноября
крь҆
мр
мль
ови
скꙋ
чтити
ѹспѣ
ѿврати
##бны
попы
побити
направи
премо
неѹ
расла
##маа
##сивъ
съе
##жира
##житель
стя
##гать
люто
реке
пашни
дека
##щиимъ
##место
вышли
сыном
будете
разры
##гъна
ᲂу҆тѣ
сьтвор
душю
мѹка
человѣкомъ
имѣи
стефана
##вшѹ
спасти
куплено
борисъ
покланѧнье
христова
кн҃зѧ
сімѡ
гѹща
ѿдавати
бг҃ови
старым
чрезъ
котораго
опас
имуще
замкомъ
крестьянех
росоле
прпдбныи
великꙑи
Алексе
Мь
Офимь
Ст
искех
смыш
ꙗша
##ане
##шкѹ
##мся
##иди
##ѵм
##жешь
дама
козе
присе
##неш
годех
##весъ
оуи
оуслыши
пробо
##сили
кана
##чая
##нулъ
хоть
вѣст
##сел
жизно
живѫ
брага
вытер
бѣлки
тым
##чьство
ѡ҆свѧ
ст҃хъ
онба
сѹндѹ
##городѹ
бѹдь
##ніихъ
человеке
братꙋ
##ніем
нашими
кинова
слѹшка
радослава
говорили
учинят
церкве
наказанїе
ст҃ослав҃
град҃
приказѹ
написан
##жениѥ
приход
члци
Выходил
погиба
рѹкоде
жаловаль
сꙑно
сіѡ
##смотре
стрѣл
памѧт
стольнё
дворяне
Святого
цого
наместником
кѹпить
бьіти
никогоже
окаян
Чурило
##словес
Бердову
с҃тославъ
святител
купец
оубытокъ
убьет
Молодой
ветшаное
боудоуть
попецалу
вѣжливо
мѧснаѧ
гр҃в
живѹтъ
мѧтьль
є҆леа
высѹшит
толокно
##грѧзнено
обесчестит
оуксѹ
вполне
Анд
Аꙁъ
Ть
Чет
бдѣ
жі
снь
сча
хѡ
ѿвръ
ꙇз
ꙗꙁы
##идоша
##сет
##҆нѣ
##вому
##горь
наз
наиде
нел
##нича
##ката
##димо
и҆мени
##мило
доме
мони
могѹ
раді
събира
съхрани
##нѣм
##ньѥ
творт
рожден
##дьр
##нѧт
##рѧтъ
прѣму
иногда
Тоже
ных
ѡтца
нашей
гром
поколо
##жениꙗ
##добро
обыски
обыском
работати
сорокъ
запѡ
##скꙋдѣ
проклѧ
четыредесѧть
жона
сверх
давіда
индѣи
Святых
ѳома
октября
дыха
цръкви
любез
см҃рти
Гдѣ
гли
иѥ
мѵ
хꙑ
єгда
ін
##тное
##прі
##даго
##див
въп
дают
коръ
заѧ
заку
##вѣри
гони
рабу
верити
##мата
каме
бесов
##чата
ревно
##пилъ
нож
изу
бран
##бае
курь
двору
благодати
##нѡмъ
семеи
менши
человѣкꙋ
і҆и҃лю
цеса
законѣ
анг
поставилъ
Такъ
##хѹть
Соко
делам
накаꙁа
ваших
федоровича
начѧ
правило
взыщет
войску
помышлѧ
княгиня
і҆ерем
змия
##стинну
и҆ноплем
своєго
съподоби
говорят
лебедь
помяни
хвати
ѡборо
Ѥгда
ѹма
##отъ
##нцю
##чнои
##яа
##ѥтъ
##фля
походи
напол
##лата
несте
##дами
тоа
въсъ
дону
##довѣ
соби
рабе
быв
##чах
##чают
мах
малѹ
жиꙁни
множае
вози
Поми
подписи
Бол
Бори
скором
бжіе
времене
мꙋжь
серги
ризь
##ніꙗ
раꙁвѣ
##штиихъ
##стѧт
шатру
борису
небеса
ногами
веселіе
дрѹгъ
є҆динаго
языка
святыихъ
хотѣлъ
Беꙁ
белой
въскрь
крестьянских
пустошь
владыка
ѿц҃ъ
каменіе
андрѣи
прошлых
недру
палату
Дрѹ
бръ
ленъ
укры
##цким
##ꙗни
##жется
##ѵс
##фі
##воти
##колѣ
неоу
##динь
котел
доити
##бота
##рѣвъ
##залъ
избѣ
##ляет
мѣр
обру
##хитро
##ющеся
чювь
святую
потер
своѥю
тяж
сторон
сътворить
близь
обраꙁъ
предаде
помра
##мреть
дворяном
мьстислав҃
гър
духовных
##глагола
а҆ссѵ
##ерусали
запѡвѣди
Але
Мнѡ
Тꙋ
анъ
еѣ
ого
сдела
ѹб
҆мъ
##тны
##тнеть
##шему
##с꙽
##кль
##дная
##лое
богѹ
могоу
засе
беспо
твоем
хоштеши
малѡ
извести
##щами
живяше
##мел
Данила
бѣсомъ
разоумѣ
##мыя
ѡ҆к
подпи
подписа
црков
##тура
тридесѧть
##вичъ
бѹдете
женѫ
держит
знать
##доуть
Когда
##ждахꙋ
##вят
книг
которою
Господня
написахъ
долгъ
дорогою
Соро
народи
двдъ
врѣмене
делать
служить
вотчинники
Говорила
морё
согрѣша
##брѣте
пожню
съгрѣша
молѧше
здела
умершаго
волостели
умрети
жеребей
богатство
просвѣти
проее
хртіа
Олёшенька
совокупи
Опрак
талантъ
невозможно
вкинути
записям
Пѣ
аче
зоу
истѧ
оц
сма
црѣ
##тє
##ткѣ
##авъ
##шеніемъ
##демь
##днаѧ
поꙋ
##лиѥ
##лака
##емся
##вита
##танъ
зав
гонѧ
собла
рай
ное
препис
пось
мака
бѣсы
сынов
страхо
света
сковоро
##ныихь
##ствіи
твоими
##тѧт
влади
животину
чюжа
дванадесѧть
корсу
сказывали
##геви
##лением
Сау
чьсти
въсѣко
дней
богатый
дружины
вашегѡ
деревлѧ
терпи
другом
въсхы
вѣренъ
посреди
смертное
требѹ
бжии
указал
возопи
оученици
претер
бл҃женныи
Феодо
поехалъ
произво
съконьча
еѳимо
ага
ису
увѣда
цср
##туду
##юсѧ
##ѫмѣ
поза
толь
##вицѧ
##дон
оуко
веро
##стая
##дьнъ
видь
##нѧгѡ
бѣла
полож
##зою
лазъ
##скыми
пустыни
Кате
##кланꙗ
##трия
##женію
##ждею
свѧто
##ющагѡ
волно
слезы
лоука
золотой
мл҃твѹ
стрѣлы
конюшню
##езжай
изоби
полата
лѧхы
Володими
клевета
ѻ҆тєцъ
погꙋб
ст҃аѧ
старѣишины
члв҃къ
предѣлъ
еуаг
железные
микула
ожида
А᾿ми
вторыи
заꙋтра
Чю
слю
чуд
ыз
єс
ѫ҅
Ѻти
##шкѣ
##пꙑ
##плю
##iи
##тини
##вади
##ваите
##реа
въкѹ
##таю
##дея
могли
##шекъ
завѣща
заволо
нивы
##полни
##чине
какую
състави
##лѣже
стіи
##бите
пале
ставить
грабе
разсу
полону
якож
страда
странамъ
##слом
обу
##нꙋти
ѻ҆ц҃
глав
##пей
многою
##славѹ
взят
сперва
цере
##ровна
крщ҃
покорени
исповѣ
предастъ
А҆зъ
славнаго
щедро
х҃а
ѡсет
изѧславу
купил
кнзь
зимы
силами
мудръ
крым
карабли
посадиша
овогда
Глагола
Великий
терема
съмрьть
добродѣтели
бл҃годарен
новегородѣ
кунгу
Гс
Дь
гн
руд
хса
цѧ
ѥмь
##лмѣ
##дн
##жство
помꙑсли
нар
прно
##лама
##жей
коть
оустав
##маше
##щева
отво
житье
вижу
##мера
гради
##сѣх
сущи
ст҃ль
##ныими
##тѧне
семено
чюдь
никона
##стьян
посадити
нбса
взѧл
Вави
Васька
положить
трехъ
коньць
##различ
##иметь
є҆диномꙋ
кланя
мл҃твы
болѣз
избав
градѣхъ
Святаго
аминъ
ростиславъ
филипа
жестоко
третіи
пѫти
въниде
сътворь
печенѣзи
Зен
вве
греб
дніе
мрт
осла
чѣ
ёго
Ѡнъ
##тіѧ
##шных
##нть
##αι
##҄і
когѡ
##шалъ
можаше
##вѣхъ
гой
софи
нихь
ранит
веду
събѡ
##ръми
носта
хочет
ходят
изда
##хал
##ень҆
мной
пешени
Поло
##творя
рускую
куно
##цѣмь
княжене
сладка
главѫ
Това
волост
воложи
##дѹт
предста
##твен
братцы
розных
кирпи
спса
цего
##вятся
##шоко
березѣ
конꙿ
##теліе
отдавать
полушоко
ще҄
##дѡмъ
ответчиком
Лаза
вотчинником
посадникомъ
христиан
отьця
рѫкѫ
пошлю
##емыи
апостоль
удалой
именемь
давꙑдъ
дѣтьми
неделщику
протопо
любъвь
клеветы
диаку
новѹгородѹ
Зензе
Григо
Мѹ
еф
исѣ
умы
Ѡле
##ес
##пя
##гнеть
##фоло
##лите
моуд
годѣ
оули
##гала
отвѣ
сиѥ
##жают
##сковъ
ваа
чей
##щик
##лѧи
велиши
братомъ
Дави
бѣсе
разве
ѡ҆бы
тѣломъ
възмо
крале
добротѣ
который
мꙋжꙋ
молисѧ
вершков
человѣцы
воинъ
##витися
черка
сн҃оу
д҃і
д҃ни
##трѡ
Мари
констан
крстъ
сторонѣ
ворот
убити
пороз
нетлѣ
##ленаѧ
похоти
повѣсть
жаловал
моуже
изѧслава
сп҃сен
пшеницѣ
Свято
кънѧзь
захарьи
тяглых
пѫть
славослов
пятна
ествою
никомоуже
Ако
аспи
искꙋ
ня
тна
юре
ѹби
##кше
##гр
##ѧса
##іхъ
##діѧ
##нимь
##шах
##тера
засѣ
забыва
своѭ
согре
##льцы
съли
##чество
##ръда
##пил
##скі
##скѣи
##лѧще
тии
братѣ
Дарию
земь
##твоу
межъ
полоцъ
страж
сѣмена
глаголеши
Тогива
моима
г҃л
##ноуоумоу
бара
противо
златом
книгу
непотреб
родиво
творѧи
##ктоже
писцовых
Василья
блгослов
золото
х҃с
видимъ
честно
които
манастыри
нб҃си
городовых
і҆акѡвъ
пожаловалъ
малыя
иоси
##пустил
Адам
хмел
яблока
старостам
любовію
Чи
брев
лѡ
мнит
нмъ
одолѣ
ѡви
ѿра
##хле
##ам
##евичь
##вке
##ꙗнъ
##ον
##҇ѣ
##вото
##лил
##ровичю
##томѹ
##нах
##вили
##мир
призо
##дошѫ
##льна
сътворѧ
##щею
##чаѧ
##скръ
##пает
вѣнецъ
бѣлка
гладъ
благодѣти
сотворихъ
никомѹ
злаѧ
верстъ
тькмо
##строю
##нія
тꙑсѧ
чернори
приимеши
архан
##в҃и
заповеде
законо
образа
купца
хотѣли
Тебѣ
ꙁъла
питіѧ
ехал
повре
ѻ҆тцꙋ
дрѣва
пятидесят
Многа
сундукъ
рекꙋтъ
Фара
Амира
Име
крꙋ
кроу
ось
тщета
умре
чръ
##о҅
##елъ
##цр
##гно
начь
назна
толика
води
##емли
пристꙋ
##делъ
болого
зае
##чима
каци
##сафа
творѣ
варе
вѣмы
витя
старь
тихъ
разли
ᲂу҆же
куну
чин
##ленꙑ
субо
сладъ
є҆гѡже
писанию
женки
повелѣніе
человѣки
добрыи
соуди
старостѣ
законь
хлѣбо
сторонни
последи
борисе
##ятно
святыя
##летѣ
вьсѣмь
кралевне
##новичю
Рокса
приставу
кръви
пришлю
всѧкими
старых
срѣтеніе
мужем
судьям
пребывати
кнѧземъ
поправено
18
ιм
вшед
вставъ
звери
лете
іоу
ѡдо
##тла
##ея
##вена
##гдѣ
##҃ι
поня
порт
пры
водати
##тали
примол
прове
проче
просты
##бонь
##ньца
послю
##удет
мамень
листа
сар
вѣли
##лѧетъ
мноꙁѣ
##тыми
Помест
##л҃ъ
ꙗ҆в
##цѣи
ча҇
кралю
##ствѫ
лазаре
всяк
бж҃їѧ
воинь
словесь
царіе
пѣших
благъ
кѹры
старосты
нбкм
берекове
законе
хлѣбомъ
дѣлом
ꙁеми
хоробрая
дрꙋгы
записей
бѧху
споро
пѹстыни
изъима
отпуст
собой
хотят
##ринки
праздникъ
##смотр
родитель
полтину
юноша
помещиком
змии
еѵа
након
идоло
Чурила
смольне
Никитинич
пароб
замужь
ківѡтъ
Попович
ковче
замкнѹто
здоровѹ
бце
вʼ
дня
кля
лвь
пшен
хреб
ѹста
ꙇже
##тча
##тныи
##нцы
##дша
##щения
##гои
##тилъ
##ноша
##новы
##ваѫ
##риши
##лець
##шеб
##вель
радѹ
##шивать
продол
кала
##дѣмъ
отпꙋ
роды
##мѣн
##щахъ
делы
велитъ
##славичь
Даже
разрѣ
##зор
пламень
городомъ
##казати
глати
Тога
##лкомъ
тъчію
ихъже
бл҃ж
и҆зве
і҆и҃левꙋ
пѣнѧ
дꙋмы
запасы
ꙁемлꙗ
ст҃ослава
##леные
здрава
солнца
н҃б
##лєніѧ
учинил
бц҃ѣ
##ненавидѣ
веселит
живꙋщіи
латинескомоу
вкѹпѣ
посрѣдѣ
ѕело
Бг҃
Дер
Зна
Иерусали
аса
абиѥ
вво
глеши
ицѣ
ивол
ію
ѻнꙗ
##мръ
##уму
##лне
##ѡ҆
##щерь
##ені
##реко
водꙑ
##мие
прилучи
##лесе
бозѣ
мост
моемѹ
сопроти
##лъга
промꙑш
кан
съсѫ
стмꙋ
##чаль
падъ
презри
къждо
лига
сажен
сажены
##щие
пеще
печерь
бѣса
бѣа҅ше
а҆вра
сѣти
##сломъ
сѹгѹ
лари
##пуска
верши
кири
грошеи
чьр
приведет
слн҃
##нꙗго
кладѧ
писмѣ
і҆ꙋдина
житіа
##шенье
##шних
список
##сеніа
московского
Русь
глѣбо
кѣмъ
спрашивать
приедет
##п҇пъ
кѡнстан
15
влка
демен
кемъ
тет
четь
щ҄е
##сны
##піа
##ѧзни
##дени
##года
##на҇
вънима
волы
жеслс
##вицу
дови
приз
нич
нито
никъ
проша
##бова
##чии
сънъ
##нько
людъ
сиси
##руши
ростов
вѣдати
вѣдыи
станѧ
градь
##гине
стоять
таковыи
ꙗ҆рость
мѣща
кур
##цѣте
странь
страдни
скоты
испи
глави
послать
полно
##городъ
Въсѣ
##скыа
б҃е
Воро
Которо
рыце
ѥ҅си
крі
##нутрь
бывают
а҅ꙁъ
высокою
самим
глаголютъ
третье
терпѧ
терпѣти
##жокъ
пророка
кнзя
расꙿ
мьстислава
первого
ѳомѣ
чрева
господь҆
ненависть
мл҇ти
бжтвны
нюже
алеѯан
братіею
вашему
смольнь
Алимпия
##сподарю
шелковые
алеѯандръ
скобеев
рюри
останется
Вс
алексѣ
в꙽
гж҃
дхь
дія
еле
мнъ
устро
цс
ѡсла
ꙗкы
##аху
##днъ
##ꙃѣ
нечем
##торе
##дах
##видит
приꙗти
##мон
сои
совести
##бога
##божь
##болга
##чев
##чеви
татѧ
сима
##чам
##жаеть
марь
##меѧ
всѧчески
добрь
разслаб
яковле
##зывал
подко
Гости
гривноу
бьѥть
власт
дватцати
въꙁъ
##дится
луги
млть
четверо
василѧ
сторожи
приказных
испор
послѣднѧ
стрелец
боярской
##ствꙋи
греки
ярополка
другое
восташа
кнꙙ
царице
оуготова
ѳедоре
пребысть
жеребья
мечта
казнить
є҆гѵпетскіѧ
хочешь
а҆весса
Г҃и
дм
кне
охо
обои
шла
ємѹ
єдино
ѧже
##ѡго
##чё
##кон
наведе
дождь
придетъ
присоли
заро
рая
##шитъ
тад
##іихъ
хочю
хочеть
мариѧ
лист
##занъ
##лыми
добꙑ
добру
возне
Поне
вьр
##скаки
а҆лекса
Нек
которую
##рѹг
каковъ
бжіа
лаꙁа
писани
баби
##прос
кроме
противѹ
печатью
товарѹ
##шъка
пꙋстыню
стеѳа
##вшоу
битися
##дѫтъ
Пае
окоше
Добрыни
царево
приходе
##чету
нынеш
повара
ꙗ҆зыкѡвъ
февра
напиши
виноватом
віна
##вь҆ѥ҅
третие
праведни
Туга
великых
сѵме
записати
сьмью
Грамота
синём
Воевода
крепостям
архепс҃пъ
Птоло
Црь
зя
имꙋ
плет
іса
ѡсѣ
ѡдинъ
ѹтѣ
##штѧ
##семь
##пѡ
##ꙗхꙋ
##яли
##ялъ
подиви
##лимъ
##лину
##рава
##нисѧ
##нике
##рево
въноу
копъ
и҆бо
прип
##телеи
оуз
протв
каши
съвьр
рекы
##жающе
теку
пагѹ
малу
##бери
измо
живыи
##мети
тию
дѣте
выпа
возы
стоу
сыскати
тымъ
а҆ма
полоня
##зите
сѣть
славь
какои
гласы
благосло
##прово
животи
блж
Сеи
князем
корч
испь
##ждения
##держати
пьре
##тьевич
гроз
покосы
многимъ
е҆же
неисто
Сие
ѡбители
солома
свободѹ
слꙋша
пѧтьдесѧтъ
кн҃ѕ
манастырѧ
родители
пошлет
и҆зыдоша
приходили
игната
глють
##стоуп
иноземцы
поварню
Дмитре
Изѧслав
Сем
адъ
ен
еꙗ
ипо
иныѧ
осквер
скь
твръ
ѥм
ѿри
##треи
##лета
##ѳꙋ
##ѻ҆
##ловь
##ромо
##родъ
##тат
##шевъ
##негда
сеп
оутре
раскопа
промꙑсли
съсь
быхомъ
##жики
##жище
ретиво
саблю
вѣрь
##щали
##еному
рѣку
всякъ
##славля
въꙁлюб
корчем
площа
##штеи
испъ
подавати
##лично
##вꙑѧ
житию
штобы
огнѧ
пріꙗ
рекѫ
##ѥ҅ши
лоукꙑ
торговле
похоть
посадникъ
Вѣдомо
проклѧтъ
##тѡмъ
вместе
третий
божествен
исаи
указалъ
сльі
фараѡнъ
Адама
роусиноу
бобыли
александра
жыво
манастꙑри
Кандавлу
Бж
Сіи
Ьто
еты
лва
нн
нѥ
уко
ѡ҃
ѳь
ꙗзи
##чныхъ
##зіи
##феи
поско
прꙋ
неро
несу
непло
##диноу
присо
##доко
##доли
##дею
заѹ
захо
селех
содѣ
оубити
радѧ
рабѡ
##ньемъ
##биць
твоемоу
сажени
вѣща
##щикъ
выт
нѣс
Небо
туто
##губ
въздыха
крась
##мѧто
имали
блга
противоу
хранит
знает
##женїе
самодръ
и҆збран
говорила
правдѹ
Милости
держали
положилъ
чистомъ
##жѧть
здрави
рекох
##глие
болезни
грѧды
зъла
птицы
приложити
родителю
многыми
разꙋмъ
покланꙗ
духовнаго
нечисты
ꙁнамен
отпустили
приносити
##ѳеѧ
рукама
оружие
зовут
владети
Ав
Грече
И҄
Идеже
Илью
Тоу
Треть
взира
иными
із
ѡбои
ѿвра
##ѣхъ
##амъ
##аще
##сце
##дным
##ⸯко
попре
##кона
##росто
##никꙑ
##нится
##ницею
##дам
##жеб
копа
приступа
зару
себє
солью
##въко
##пота
твоемь
##пина
пау
пашен
лито
десни
виѳ
статье
##няаго
##скиѥ
Пото
##лядь
правѧ
а҆в
мѣра
поднебе
безчест
супротив
доброму
первых
твоим
всяко
путемъ
мьр
молитися
##ꙁами
римъ
Кое
самое
##евꙋ
исперва
торже
стере
покор
полътора
ст҃омъ
##фиѧ
глщ҃
ст҃ыни
убил
нарекоша
Преже
трьпѣ
сверхъ
пшенице
облада
##жней
Ꙁане
потреби
давам
##ствъмь
помилованъ
а҆арѡнъ
поклеп
прельсти
##славомь
павловском
ревнѹ
липсваслс
Грѣ
Еу
Уви
ань
др
длѧ
тлѣ
худы
чето
южно
ѿрѣ
##ннаѧ
##глы
##ѳема
##дꙑи
##яния
неза
##дишь
възы
востро
догово
##тако
##верети
солю
нищо
##лъмь
##шие
проу
ката
камѧнѹ
##дѣну
татъ
таче
##чатъ
резо
теро
##писка
па҇
рост
##вьри
##бѣга
##щааго
##щина
пишу
дѣлѣхъ
стоуд
вьск
сыщет
прѣбы
размыш
полон
нѣть
гд҃
тритцать
душею
сꙋщихъ
##писан
мꙋж
##лнии
нашемоу
дерь
##тяти
верꙋ
##новꙑ
смерено
великия
смол
вꙑправи
сътворивъ
въдаль
гнѣвати
блины
бываютъ
торгом
вотчинных
##стеръ
погребоша
##скоую
дым
крестное
ѡ҆брѣто
горах
половину
различными
телеса
заплатиль
полотене
сѣмѧна
возьму
мирьскы
лазорѧ
казначе
добрѹю
твьрдѧ
навык
і҆ѡнаѳанъ
гюрѧтѣ
манассіи
раздольи
Идойло
Маринка
180
Нет
бд
берь
еі
злых
ине
оне
сце
сень
чрѣ
ѡзе
ѿъ
ѿнести
##оду
##хну
##хвал
##ткѹ
##рето
##нские
##ѹмѹ
##сенъ
##сію
##гнь
##ваномъ
##торъ
давно
корѣ
вопи
водѫ
приди
##лесь
##кию
мосты
гонить
оужь
прокъ
съмотри
##сят
любя
##бица
##чатые
терем
посматри
хожено
##лѧтсѧ
##нями
##бамъ
##лует
выкупати
Дай
##цини
##цихъ
##дучи
прародите
мере
покров
і҆саа
кузь
##бьи
##зокъ
ѻ҆ба
поими
едине
благово
блж҃
молите
нашымъ
сѫди
##лоуи
холопу
хара
долги
послѣже
послухи
іѡанъ
святый
торговые
##леное
царствовати
##хѡмь
подобенъ
н҄его
бг҃ом
питїѧ
брежно
посадских
заплатить
палаты
стѹдень
хытро
Данило
множества
просфиры
Ихнилат
навꙋходоносо
Гро
Еди
Ие
Иꙁ
Кы
Цар
аф
дх
жда
жре
лко
чъ
##трѹ
##еs
##вну
##нра
##сено
##ꙗнь
##ѥшь
нажи
##дию
коста
##витъ
##ныма
прив
седь
##льцов
##подоб
велѧ
велко
сътра
##бию
сили
беду
белых
ногу
валаа
##славѣ
землꙗ
вознесе
вьзь
сыра
меше
ѡ҆ѕло
##кѡтъ
покровъ
тѣлѣ
мѣры
плачю
биша
ѻ҆с
пермь
какⸯ
тъкъмо
пуста
мѹки
иваноу
николае
въꙁы
##женѣ
воиско
ѥ҅гда
скрь
хрі
кꙋница
ст҃опъ
любить
##жнимъ
прикажи
дьяволъ
поганых
многажды
Ивану
ᲂу҆боѧ
целование
Бѣше
шьли
##цкимъ
почаша
мсць
ряду
здесь
мстислава
кобыла
антонии
поличным
перстни
никоторыми
побаеть
##разумѣ
юрьѥвичю
южнослав
Чя
афана
вта
жоло
кнъ
клу
мете
оцѣ
олексѣ
сꙿ
сл҃
счетъ
тму
ѡ҇
ѡнѣ
ѡстѹ
ѹжа
ѿне
ꙗꙁ
ꙗсти
##шнаго
##міи
##плѧ
##гю
##іѕ
##il
##ним
тожде
кова
##мить
припло
призри
приклони
собер
##стьѧ
##льше
проре
веще
##мут
##гал
рекѹ
##жанъ
##нутся
тело
маръ
малых
выпи
выеха
##вут
##стемъ
куници
##ць҆
ст҃ѣ
##іютъ
сьгрѣ
гд҇ню
##нѹтъ
послала
##нꙑи҅мъ
предречен
духа
гсну
гала
николы
знали
вершити
гсдремъ
смотр
слѹгамъ
запасомъ
великаѧ
Там
любите
домовь
долгу
должни
##товаѧ
седмыи
отроко
гречь
полупол
свобод
приказо
##битиѥ
дворцовых
##леная
повѣдати
драго
приставом
н҄имъ
прислать
ѡбиход
сокров
первом
митрополитъ
пятинатцати
Брате
слѹжбе
гривенок
##сматри
позов
обыскные
умеют
прохлад
нѣкый
велможи
ѻ҆рꙋжіе
лигатура
Егип
Жены
Иди
Мнѣ
иева
ильи
смы
ѡнь
ѡци
ѥще
ѧсти
##хмо
##шн
##нски
##нство
##ꙿна
##цнь
##ꙁло
##фꙋ
##tе
##лиѧ
##лома
##раха
даваи
дозирати
##мола
##тее
##тец
мосѣи
софон
оуши
оубиша
оутвръ
##жаютъ
вама
лицем
##закѡ
##няние
дѣвка
таковъ
##мых
грин
ᲂу҆множи
чисти
подв
ѻ҆смь
леса
лежѧ
глааше
послаль
милое
нашы
Вольга
гсдры
розби
##градѣ
рыжь
молоти
кис
приимати
Мили
взѧле
ꙁемѧ
шапка
записывати
богови
конеч
племени
Пред
милостью
апслъ
##ремете
стояше
Сына
кормить
погубить
возрадова
##л҄ꙗ
възѧль
ѳеѡдосии
смьрда
нбсное
бж҃їимъ
пойдет
батюшко
прочаа
прочая
тъию
заповедь
сокровище
батоги
Варфоло
¦ӏ
Бѹ
Илей
Кла
Прав
ае
апо
внѹ
влко
едоу
еӏ҃
нҍ
осно
осподине
осподо
озовъ
сбира
смену
твъ
фу
цемоу
юрию
юриѧ
іс҃
ѡжи
ѧръ
ѫже
ѻнта
ѻсподинь
ѿмѣ
ӏхъ
ꙩспо
ꙩсподину
##м҃ь
##цето
##ьскы
##к¦
##жѡ
##жꙙ
##tа
##mi
##ӏи
##лана
##нощи
##дамъ
въхъ
кощѣ
вот
прибе
своӏ
созва
нигде
оупрѧ
рав
ведро
верети
вечно
верить
##рѣте
##хота
сивъ
паш
посмотри
ровъ
кълъ
маренѣ
маскима
##пают
##бѣтьѥ
изѹ
##сев
##щаетъ
##лѧтѣ
##мея
##нятся
##соко
выхо
пекѹтъ
возоу
возвести
бѣлкоу
рух
##жье
##сѣхь
грига
куницѣ
страдных
подвари
сухꙑ
св҃
лож
пересмотрити
мучи
полте
добродѣтель
сѹше
дьлѧ
свѣже
г҃ї
гривн
гривенѣ
благодѣть
коузь
кроити
в҃ї
в҃ӏ
продало
мьро
ньжи
ньдь
княземъ
молитвѫ
храбра
тьбе
гсдревѹ
рѹблѧ
оубогѹ
рꙋць
сѫще
нꙑни
целовати
бесуд
цѣлоую
соуща
торпи
береженье
крени
е҆сть
кꙋно
##тцатеро
сторови
чистое
е҃і
водае
гнѣд
домаслава
обрати
неповин
хорошенько
смѣтѧ
ходитъ
послуше
ѥсемо
цетверо
цетверети
##дꙑле
слегло
члв
глаголющи
дш҃ет
накапало
крини
ответчику
дьяк
моѥӏ
##лесневе
данила
приставов
грѧз
въспиши
почели
цетверка
цетверки
ꙗ҆зыцѣхъ
мнҍ
рѹкодѣлию
Добрынюшки
Добрынюшку
гостьѧ
рѣзана
ѡвсѧ
цоловѣ
боѧна
наказѹетъ
фрагмента
бьрковьска
Гаври
максиму
приспѣхи
матьри
поѧле
здѣлано
жеребѧтъ
домовитомѹ
еуглие
лѹкавства
хрестиѧ
хрстїѧнї
хрстіѧні
деревнях
грѹши
сновида
парфѣ
ѧкима
ѧкиме
выслужены
Кроме
перстень
навозъ
рѹбашка
коробиѧ
здравствуй
ѡбрески
домочатцовъ
А҅ште
Покланяние
ѧкъшѣ
погибели
гривоно
руцьѧ
рисунку
дьѧка
Второй
милостынею
порѧдливои
оубрѹсы
индикта
прѹтоваѧ
перетрѧ
ѡстровескои
нацате
¦ӏ¦
##лесневело
Здра
Т҄а
ад
идете
инѣмъ
оскор
плени
узо
ѿвраща
##тника
##шк
##ріѧ
##рл҇
##мрт
##греб
##дение
порѫ
##ната
##так
приа
моръ
##вера
##ведъ
ничем
##стьв
##повъ
оустра
##силъ
съдра
стры
симе
пану
папа
##вьць
лиха
лицемь
вижь
градꙋ
стояти
ꙗ҆рости
тѣлѹ
##цѣх
имень
бꙑхъ
ласка
сꙋдь
сꙋщꙋ
чюжь
рꙋкъ
аршина
злобою
чл҃вкъ
смрт
##вшимъ
##вшихъ
гнѣвомъ
ногаи
противля
слꙋж
ꙗ҅же
##зуть
Михай
московскои
климѧ
девѧть
воздвиже
максим
Бл҃го
хр҇тосъ
а҆ммѡ
имянно
нелицемѣ
сотворѧтъ
и҆ноплемєн
полуполтине
Блю
Вра
Лета
Мл
алек
бі
мли
утра
ѡлта
Ѥже
##аніе
##нных
##мето
##снаѧ
##яз
##яша
##ων
##стрѧ
поѧлъ
##тона
##дий
въже
въпи
воцари
оуто
каа
##чева
силъ
теж
хочемъ
##слать
множи
вышь
выбра
а҆са
##дѧху
свѣту
ласко
##вращен
##днихъ
##тѧть
##цовым
боярь
знае
въꙁмо
въꙁдоу
##ступати
имѣнье
женах
лучше
##любивыи
ст҃ыя
ходила
творѧтъ
разуму
предасть
языку
##ствꙋетъ
просле
чловѣчь
солнеч
породи
хвала
въсел
праведенъ
праведныхъ
похотѣ
мертва
нового
##тѡвъ
борзѣ
ѿвѣщавъ
горести
богатырское
соколъ
впред
порты
змея
##ꙁꙑкъ
а᾿ми
пищали
свꙙтꙑи
а҆нті
жертва
Б҃
Ги
Ха
вдов
входѧ
ж҃
мн҄
сє
сходѧ
умира
ѹпра
ѹтро
ѹч҃
ꙗзы
##хвали
##ахоу
##нение
##много
##жі
##жєніѧ
##щеніемъ
##нома
немьже
##кать
##дия
##довы
##леска
мощь
засо
оупа
провѣ
##бокъ
калика
быстъ
##рьми
##дѣше
творят
пребꙋ
##вьца
дѣтехъ
##гие
Повѣ
##лял
прѣи
лѣсъ
свѡ
переѧ
отъвѣща
глаголъ
##нꙋша
възлюб
муки
##ндри
полка
великомꙋ
##нѡвъ
всим
испро
лунѣ
пріидꙋтъ
покажи
крсти
володимиръ
чья
подасть
бываше
хоромы
##стѧтъ
а҅гг҄е
##нѣиши
ответу
Киева
повину
пребываше
иконы
достой
македонь
##сюдꙋ
жеребьи
ерма
прибыль
нощію
прѣльсти
і҆ꙋдиныхъ
Стефа
соглѧда
корысти
Новгород
херꙋ
Ари
Ерма
Цр
рж
Ѡво
ѡр
ѡць
ѡніа
##хіа
##вству
##ннѣ
##ꙁꙿ
##гръ
##дши
##жнаѧ
##щемѹ
неси
немец
##нам
даѧлъ
коре
козь
водо
заступ
година
сомо
нии
##маны
съвѣтъ
##жия
##ньцю
стлъ
##хови
##скове
##скомь
чесо
станъ
братоу
Давы
бѣсовъ
##чьно
##жьи
естьство
куни
подпись
королем
баи
продаст
гл҃ще
гл҃юще
тьмь
повелѣнию
Вол
самой
##грады
пріими
смотре
радостію
радоватися
соущь
конча
Такожде
##тел҄ь
дшю
сердцу
Сим
ср҃
волшеб
сказали
сказаша
пѹсти
нареч
рекохъ
Божие
##н҄ѫ
григореи
распѧ
##венѣ
##веніи
крьсти
васильевич
звѣз
прѧмѡ
требꙋ
пятьдесят
цѣсарь҆
игры
Магилены
губным
храбръ
Маркобрунъ
и҆саѵ
тврьдѣ
Нектана
Ні
Сви
Што
дховь
летъ
нш҃
сїе
уне
яша
якѡ
ѣха
ѹмь
##тц
##шем
##нскои
##ум
##сных
##піи
##гі
##҆м
##ατ
##ёшь
##стю
попь
##лита
##никѡвъ
##дасть
##каса
##тьникъ
воле
##мироу
##донъ
божъ
соз
сотен
проц
съна
є҆смы
сав
саве
##щать
вир
##щины
##споу
грани
Подъ
бѣха
лѣть
##стехъ
ѡ҆нъ
нѣсмь
##дѧхꙋ
##дѧтсѧ
свꙗ
отъпоу
##нѹт
възвра
доброю
##ственаго
королѧ
видѣх
##цова
животворѧ
мѹкѹ
продажю
рублей
князе
нашем
имѣѧ
сѫть
петрови
Садка
привезоша
шиш
иꙁво
ѡбида
Отве
сподо
дроуго
Велика
древѧ
останутся
помета
посолъ
нѹжа
езду
нунь
є҆гѵпта
сиротѣ
прекрасную
алтыну
судье
##стіѫ
##женеи
Никитича
##въшааго
и҆мꙋтъ
ольк
Вольх
жезлъ
белокаменну
зверя
локотъ
Офимья
Блго
Тѹ
встре
оск
ожени
пене
утѣ
умно
##тми
##шнемъ
##нми
##ꙁрѣ
##лїѧ
##петь
##дрѡ
##євы
пошь
помыслъ
наложи
пріе
##тище
##рона
##рода
##дих
вола
зано
##тъка
совѣща
нимо
оуслыша
прость
съда
съꙁда
##ганъ
##лютъ
вара
хошт
къне
##дьникъ
##мешь
велить
##бах
дѣвица
пещь
возле
руской
правые
правь҆
прѣклони
меже
ꙗкова
ѡ҆держа
##ленѣ
##лені
чающе
славя
главѹ
кресту
##нꙑмъ
##ноути
которыхъ
живоу
о҅г
кнѧжи
любовъ
нашея
гл҃ше
вотчинами
##коупѣ
запад
дний
гнѣздо
ѡ҆бли
##вномѹ
никакои
наречен
починить
##ꙁии
федор
##имати
данило
грѧдꙋ
томьж҃
таковаа
едного
брегу
десят
платит
доведетца
пчелы
Ст҃ополкъ
Дво
Дени
Сіа
ветъ
жрь
олово
реме
ѿлѹ
##ретъ
##мено
##ит
##лть
##пно
##пки
##глѣ
##бнаѧ
##жнему
##ꙋма
##стіѧ
по҇
##гове
##рича
колес
водить
донъ
приши
боѕѣ
##кинъ
морѣ
##весть
съмъ
##лѣно
сило
санъ
##мель
земи
а҆хі
ѡ҆скꙋдѣ
нѣціи
сѣна
главъ
полку
волода
мысл
благород
владеть
гснъ
иванов
##стѣмъ
галі
гл҃ть
братѹ
воини
розгра
испы
цр҃ковь
##пьно
образу
головою
##чюю
шатры
ст҃ых
свита
боудѣте
тꙋрци
глаголаша
писмо
святым
святыи
торговли
порока
##мысль
тысѧщь
хотяше
силꙑ
премно
грѣшнаго
цьр
истиннаго
сестрѹ
книгами
мудрость
женитися
вмѣсто
крестному
промежи
челобитную
і҆ерово
государство
востокъ
вашемꙋ
девицы
слободы
##далеча
см҃рть
ѿ҃ца
і҆ѡсифъ
бесчестие
бл҃годареніемъ
наꙁнамена
попрежнему
прослези
Вер
Лев
внем
иа
кл
лка
оспо
оправь
ѕвѣр
ѡндрѣ
ѹстав
ѿн
ꙗк
##шемꙋ
##рмъ
##цене
##ины
##гіѧ
##ѫи
##стной
поез
наме
нащо
небрѣ
##ватъ
##жецъ
дамо
прису
##дока
##шающе
сечь
оуга
оубѣ
оурѧ
##мат
быстꙿ
##рьди
стѡ
##бий
рекь
пресе
малые
##дьнь
##няли
брашь
грам
гражда
дѣтѧ
множаи
Дак
Положи
сыномъ
положена
##ленію
бив
ѻ҆ц҃а
полки
гривну
##дѹть
милостыни
##бъра
мъи
грче
нашѫ
гл҃и
знаемы
##дяше
кирила
блаженыи
##лениа
пꙋтемъ
многим
Сава
##гꙋтъ
блиско
##тꙋю
вь҆се
нѣколико
##въшемъ
начнет
силѫ
кꙑмъ
зависть
пр҇но
степану
##сениꙗ
вѣруй
духовной
одной
филипомъ
ведаю
тюрмы
потрѣба
хотꙗ
мертвыхъ
вѣрѹи
рыцерю
озера
еванге
македоняне
тихановичь
кыѥву
ратманом
абье
Милитри
Ге
Пь
Хра
ажио
вбор
мре
##квы
##дрѹ
##ια
##щникъ
пони
##годи
##нинь
##тово
вопло
##вил
##деле
##дель
мостъ
бывали
стръ
##хотвор
тесно
ног
саду
изна
чепи
чесно
видеть
##меле
сый
ᲂу҆кра
нѣцыи
скорѡ
платьи
полуд
г҃і
##тромъ
сꙋщымъ
##стѣй
женское
трі
лучь
рыбу
судное
книзѣ
поместьи
радовати
соущоу
Заба
говорилъ
##шеніѧ
коньца
свѧтаго
внимати
вь҆сѣ
огнемъ
Видиши
##влѧше
##дцати
герон
серебрены
сп҃си
климен
нѹжно
васильевича
поимали
тимоѳѣ
трѣбоу
русьскую
##дрьжа
ѡвогда
камениемъ
обычаем
филипе
##чествъ
хоудо
##стоупи
ѻ҆течествъ
ѡклевета
съборъ
городищи
думных
гюргѧ
ризкого
павловское
ч҃лв
олтаря
смр҃ти
бесермень
гостем
##числен
дверьми
Свое
Стре
гп
овъ
онѣ
сет
снима
узрѣ
этой
ѡвесъ
ꙑгна
##тень
##нрав
##ꙁра
##снь
##сение
##ѳі
##ꙗꙁ
##ꙙти
постѣ
##латъ
##вамъ
##ними
даромъ
конъ
##дошꙙ
борѧ
##шай
##шаеть
заж
##въка
ниту
прого
##бов
##стал
##лѣбъ
татей
##стова
прегрѣ
хоцѫ
##вьнѣ
вѣнець
старъ
бранъ
своег
выть
педъ
возмѧ
возѧло
таков
слову
кучю
и҅мꙙ
скоры
отъиде
сьла
муку
сѹжда
свѣдѣ
##дним
##днии
видѣніе
всякой
рима
жаль
корене
потра
Приказу
черные
д҃хъ
##ющемꙋ
дꙋбра
Такова
сердцо
написана
купчей
окольни
##нѣише
отданы
марко
язык
##ниѥ҆
##торока
##женьи
Вьсе
ненавиди
многая
трьї
прпбномꙋ
стоял
пришло
мнст
попецѧ
борзе
виновате
неправе
благословение
мирслава
коробью
приказали
кѫно
микиѳо
приказех
сонми
прркъ
прркь
дроци
щисла
престолѣ
тягле
девѧти
прислите
словѣнь
явися
##плих
благая
гюрьгѧ
гаврили
городищѧ
нѣтуть
всесожженіе
домажира
насильством
объявится
ржанꙑи
ходатаи
царевна
почерком
фрол
немилости
кюрика
Испроговорит
Еван
ао
втро
ила
смъ
їѡ
##шту
##ину
##смѣ
##гше
##дрю
##ял
##єв
нару
##новича
невъ
нечю
##росали
воску
дошь
пришол
##дона
##дович
##шева
сера
##вѣрь
##рѣхъ
съез
##сара
сий
синь
##ением
##патъ
лиць
великѹ
##лядеи
правѣ
полоцкии
купити
страст
подсу
##право
плачемъ
лежи
рѣшѧ
##тѧтсѧ
милоу
##ющесѧ
бѹд
гава
молим
знаете
товар
старожил
стороне
##ствует
приговари
разуми
нарочи
царевъ
обитель
соломо
##ствиꙗ
писмена
Реч
тѹтъ
достоин
яропол
пророче
собрашасѧ
видитъ
повиновати
кнзю
пришлет
##бленъ
дмитреи
дворяны
посылали
рѧдъ
ѡ҆брѣте
погыбе
обрящеши
ст҃аꙗ
знамение
і҆ꙋдины
ꙁаповѣди
болота
воскресен
мѣсяца
Кнѧзь
Стерляди
совету
Отца
чтѡ
ѡди
ѹбиша
ѹтвер
҆мѣ
ꙋви
##ани
##шема
##все
##с҇
пость
##лихъ
нечьсти
##вата
##вается
##точно
##наѣ
##римъ
кона
##емлѧ
и҆дꙋ
и҆стин
пристра
##ките
ник
оусъ
##дѣвъ
таѧ
отхо
твоѫ
##скїе
пашню
къня
##хаго
девки
стагѡ
мноꙁи
##гимъ
правая
##рять
лѣтѣ
имет
##стыѧ
##бью
скоре
##еныи
муро
ползу
повел
поиду
волоса
##нꙑѩ
тридцать
предсто
писаному
баш
веліе
буква
веры
помощъ
##шками
государев
воина
пріиметъ
черне
ѥ҅смъ
Сии
побѣдиша
срдца
сороку
седло
убилъ
писмене
языком
столпѣ
##ѧисѧ
честна
##рением
Лифля
таковаѧ
владыко
адамъ
Медея
королевича
срдцы
и҆сповѣда
дворовых
бывшю
ꙁвѣꙁ
воровство
іѡанна
іереи
Вольфан
нѣмци
ниьсоже
мц҇ъ
а҆ссѵріи
Иль
Кѹ
Мене
Ох
Пѡ
Увы
аж
бви
впро
зван
инь
иную
мтре
омо
олго
управ
ѡп
ѧла
ѿврь
##шныхъ
##немꙋ
##ꙿва
##сⸯ
##жнѣ
##щене
##҄ы
потира
##коль
нахо
наплъ
##лиза
##ноудь
##вахꙋ
тон
дожи
приѡ
заве
##чися
##чисѧ
##симъ
быста
##бивъ
вашо
маѯ
изра
деѧ
дѣтѣ
печ
перо
беззакѡ
ст҃и
##лком
буть
плод
##дятся
бл҃говоли
##ждение
соубо
торгъ
##ходила
хороми
купчих
высокы
двема
огнем
хотѣти
слꙋга
ярослава
праведных
блюда
болѣꙁнь
приятел
списка
дв҃да
##сениѥ
катор
ѡбычаи
игорѧ
приносѧ
смертію
квасъ
господарь
играть
##сюду
патріарха
евангели
сп҇ніе
і҆ѻрдана
ослуша
Четвер
чюжаго
вероятно
пьредъ
Ов
Соу
инꙑ
мтр
нї
орѫ
пуд
свыше
тпо
ѡч҃е
ѿго
##ахѹ
##шми
##рн
##нке
##нiе
##мрь҆
##церь
##ꙁва
##лм
##ьство
##дныѧ
##дєи
##чти
##чком
##ѥже
##ѥми
##ѥсть
##҇и
полюби
##воле
нав
навь
##ливо
##локи
##роб
##ваѥть
въдати
дають
воско
договор
пригоро
##пот
рабꙋ
съвѣща
събор
##лѣпи
##лѣетъ
ст꙯
##гатель
откры
бежит
решо
пара
##пада
##пание
вишне
такои
##скать
тыхъ
прадѣ
##жья
##жьно
слоновъ
а҆п҇
##справ
речеи
црковь
слабо
славно
полкех
лани
поистин
тъща
##скыхъ
тѧго
гсни
служат
темницы
противит
Воспо
Колико
трѫ
царстве
##щеніи
##пью
речет
конем
Созо
беꙁꙿ
новгородъ
о҅тъвѣшта
##леными
геде
имеѧли
десѧтъ
поидемъ
Божиею
поставлѧ
мꙑсли
Сынъ
сверѣ
родителемъ
мт҃ре
готовъ
възьмъ
никомуже
погꙋбити
агглы
постиг
бывшꙋ
просѧще
зубы
увидел
обыскных
избыти
храбрый
сибир
ѡ҆полчишасѧ
сѫдцꙋ
Вавило
бгꙋ
еги
сҍ
ссо
ён
Ѡна
ѹмо
ѿше
##шнѣ
##шнии
##лт
##лмъ
##҃а
##чкою
##фѳа
##꙽ло
##ёшенько
поку
поху
напре
##ваете
дане
доски
заим
замор
сею
нищих
просла
каса
##лѣе
отню
отсро
новые
рожьство
статка
##соб
##сови
##сомь
пещи
Полете
рукой
разно
раздели
ѡ҆снова
мѣру
куро
подмет
туре
гороху
полѕ
всѧкой
грамоти
коров
перси
дубу
ивашко
рубле
начат
рыбо
##вꙋю
млт
убоя
петре
старосте
мѣстомъ
хари
Митри
взѧть
сторонѹ
Тае
бывала
голосом
любимъ
свѧза
бѧхѹ
воеводъ
##хомсѧ
убитого
##ствию
михаилъ
чловѣкомъ
торговых
прикажет
ответчике
поганыя
вотчинныя
землям
соболи
пыток
подобна
стояли
кнз҃
стольно
погребы
##стѫпа
##езжает
поклаже
новгородские
городовые
закладной
ѻ҆тцємъ
шур
разумѣти
челобитной
дѹр
подьячего
оумѣла
бжиꙗ
побилъ
сливы
съмѣрени
отвечати
##коризна
съповѣда
##зерци
проести
Олёша
жемчу
пагубу
ѡ҆бѣща
оукарѧ
пеньков
є҆ліс
порутчиках
пономарь
жребіи
самꙋилъ
иверского
бл҃годаренїемъ
Нꙑ
адь
вшедъ
ида
идѫ
лжа
плу
чсто
іи
ѹмре
ѻнова
ꙗкѹ
##мн
##иль
##іна
##ꙗлъ
##чными
##щемь
##фѡ
наѳа
##тинѣ
##лиже
##вало
##ницоу
##казъ
въстав
данъ
##дети
боги
гостей
оукла
оуспѣ
##стила
какая
быхом
синю
бесе
рекоу
тельца
ноꙁѣ
преписи
лици
##мере
##няне
##сокъ
велию
##нѧше
##славомъ
пиша
сущу
Бовы
##меръ
доброво
сѹщѹ
душев
кнѧжа
бояра
##етою
раꙁѹ
посадь
прии҅
бл҃гослови
вꙑше
##шеноу
е҆п҇пъ
##вѣщати
Таче
образом
долж
##ѥ҅го
грамотам
Рее
житницах
въсеи
свети
землями
##н҄ѣ
грѧдетъ
##пискоу
мнстрь
пришедшю
индѣй
хр҇тѣ
ві҃
матушке
Амир
и҆зыдетъ
трѣбѹ
научи
глебо
настоя
вселенную
насыти
рыцеря
возвесе
съмрьти
купець
Спаса
##любез
Также
письмо
инѣх
гостю
своѥ҅го
суботу
Иса
Имя
алѧ
мха
мзда
счет
ѿкꙋ
##ом
##тци
##ннымъ
##ннаа
##гѻ
##ѧ҅
##дію
##бле
##бръ
##стрем
##вок
##лив
нель
##нивъ
коей
довлѣ
приѥ
моѫ
сотни
веди
##чики
съи
отне
людѣи
##жане
новых
новое
новаго
прео
маеть
листомъ
##мѣя
ставъ
великь
Побѣ
##ляя
нѣт
кунами
странахъ
безчести
супроти
##етесѧ
чашу
ст҃ꙑи
##ставиша
глаголем
Нам
полкы
##ставлен
Толико
дьꙗ
##хищ
##дномъ
сотворих
Като
свято
повелѣно
Конь
болше
##дяся
дѣлает
пріимꙋ
пѣніи
великими
слышахъ
пьшени
хар
##ченіѧ
ꙁемлѭ
Тамо
доушѫ
братиѥ
аглин
след
мл҃твѣ
Иванъ
трѹда
благословен
лъжи
мужики
таковыя
готови
доправить
слыхалъ
колѣно
приходить
неделе
блаженные
Мнози
призвавъ
Благослови
Егоже
срдцемъ
евреи
безумь
отпустил
нбснаго
прежним
300
Для
Ши
венецъ
жю
мрѣ
млѣ
одержи
сбы
укро
ѣхати
Ѥ҅
##шнова
##евь
##млъ
##лніа
##снъ
##кⸯ
##гря
поо
кою
вспѧть
мокро
зай
затвор
ведома
бысте
##жию
##жины
##лѣаше
##муть
преступи
вала
родомъ
##нѧне
##слати
##съла
##гих
возглаго
прѣслав
##н҃е
ѡ҆пꙋ
ᲂу҆мно
безоу
сѣдя
часѣ
скона
ст҃мѹ
ондрѣ
ползѹ
первѣе
владѣти
дино
##днои
сотворимъ
##ющемъ
бж҃ь
Сей
знаніе
черна
##ждю
##шъдъ
е҆гѵп
##стѧнти
любитъ
Павелъ
соромъ
просила
слꙋжити
единород
дръжати
дьяком
хотяще
прь҆
ѡстат
жалость
совершити
тысячь
вдасть
##сѫдоу
здорови
дмитри
борть
##ньіѫ
еднъ
приказати
возможе
апостол
матушку
жерцы
міра
чересъ
престола
полѹнощ
великія
жилище
премꙋдрость
разбоиникъ
разѹма
єдинь
всесожжєніѧ
заутра
лактеи
сиречь
Чядо
Блу
Днь
Н҃
Прі
Ци
бльга
введе
гну
клете
лво
нже
нмь
ону
темь
юдеса
ѣсти
ѹтра
ѿцъ
##аꙗ
##рете
##вено
##влꙗ
##ці
##лба
##лныи
##ꙗт
##дт
##дную
##чну
##брую
##юштааго
поем
постро
пораз
##кома
неть
##етша
##тьев
дачи
колъ
кощѹ
водити
##вицю
всхо
##льных
каси
бывшаго
##жихъ
##нька
##ньем
стль
ребя
##жаху
росіи
малѫ
вседне
##бавити
граб
множство
выгна
##жьнои
лѣтомъ
##мые
нѣкаа
црꙋ
свето
лопа
сѣчи
чадомъ
##слово
##кеи
полскимъ
бьютъ
тѧжа
нашею
молилъ
гл҃го
гл҃аше
въꙁда
начати
Кои
Коль
раꙁбо
испль
Прия
##ревки
пꙋсты
речеть
наказанье
чистотѣ
иꙁда
родила
##щомоу
##ловѣкъ
Сотвори
похвати
пожар
полезно
въсѣмъ
воеводе
предаша
члка
казаки
деревню
отпустить
##тꙑхъ
среди
болѣꙁ
обрѣтъ
собоѭ
поставлю
блгти
н҄ь
фоми
покланѣ
мирно
облакъ
поимаются
долготер
є҆гѵпетъ
мужеви
Царю
##ковиць
##фьи
мертве
сичко
полотня
поклоненіе
слꙑшавъ
прославлѧ
Филип
принесетъ
кротость
хощешь
Свѣй
генваря
самодержца
сѹгѹбо
кѡнстанті
нечювь
Ля
Ну
Сказа
ах
адѣ
арт
зѧти
здума
илі
сру
ѡхри
ѿв
##хти
##тше
##тсе
##шные
##нмъ
##ꙿсе
##ꙁнѣ
##иꙁ
##лв
##лется
##сныи
##҆го
##ꙗша
##знъ
##фею
##вона
##гошасѧ
насѣ
прпо
##лиша
##лосѧ
##вадно
въвръ
воде
воору
##достию
##моны
ничъ
ран
##шине
вера
##маѧ
##синоу
силен
##цахъ
##скре
нощъ
вѣк
жиди
земла
вознес
##чькъ
прѣзь
а҆минь
ᲂу҆бі
безвремен
част
слати
переве
переговари
пересматри
##зости
##еные
полени
доброволно
##ствѡ
персы
твоима
бьемъ
велка
велію
иванова
ꙁане
въꙁврати
ученому
потвер
посацкого
судных
судным
законꙋ
##ченіи
ст҃ою
обыскех
записке
сповѣда
##штение
солодъ
хотѣние
торговою
##женью
крилъ
попов
имея
кыевъ
возмите
желание
Петрович
##скиий
красное
Христу
почестей
христиа
ключникъ
расхи
холопства
##нтихрі
##говорил
посѣти
кѡнь
красота
##добит
широкий
смертною
пользѹ
кънѧзоу
пришьдъ
дружинушка
рыцерь
молчан
вьсякому
голуб
Бермя
Индей
игумено
вавила
бѫдѫтъ
целовалников
Македонию
Опракси
црт҇вова
збежит
роспрашивати
дожжа
окошечко
мн҄ѡго
Андрѣ
Взя
Прь
Сꙋ
брѧ
гнои
нд
с꙽
убѣ
ѕлыхъ
іа
ѿгна
##шете
##шком
##рду
##сницы
##клѧ
##дку
##бку
##зци
##҇о
##꙯и
пону
похажи
##кописа
прр҃
негли
##ваеши
##толѣ
тоѣ
и҆щꙋ
и҆менемъ
##вѣсѧ
раство
##ший
ведра
##стимъ
##чича
##сиша
съсѣ
бывать
##сава
##дѣніе
бещи
милая
##жая
творь
посломъ
##заетъ
вѣтр
##дьи
##дьть
живых
##сонъ
##цеве
своихь
##дутъ
праву
##мымъ
ꙗкож
перепис
##еныхъ
господы
##пера
бꙑхомъ
##кѹп
поидеши
##скымъ
##менѧ
сꙋдити
нашꙋ
святей
ризꙋ
златъ
##новенъ
испусти
##ехати
##ехать
посацкой
черны
приидет
потоп
соущи
петр
ханаа
любимое
##жую
поусты
зово
веселѧ
##нѣишіи
отдал
##тія
роука
марша
рекоше
праведными
болѣꙁни
федору
бесѣдоу
повѣсти
##деніѧ
денеж
пыта
мѣстѣхъ
##боуди
въсако
области
попла
##жнего
творца
##манта
прр҇
аггл
грьци
нѧже
хитрость
боисѧ
щитъ
Перси
причаст
растлѣ
домочадцы
##слꙑша
поѣди
зꙋстѣ
текст
Которые
Послух
съмотрен
блаженааго
ѿпѹсти
сн҃ове
недоумѣ
##ющыѧ
кровопро
Бг҃ъ
Ри
Слове
Це
атъ
бз҃
ети
емъ
ефи
ивъ
иста
идите
инымъ
иꙁъ
ома
осе
птен
ута
улу
фран
іо
і҄
҆ю҆
##рень
##нска
##идеть
##лва
##ꙗще
##чіи
##ꙋи
##ꙋсти
##ферь
потѧ
нало
##енно
##лище
##лисе
##ложени
##раѧ
##нинѹ
##ривъ
##рилъ
##реѧ
##каꙗ
вънѹ
доспе
притво
##шааше
моста
##шель
застѹп
голи
соха
##въи
нигдѣ
##лъть
оуми
кая
какие
##гая
##хово
рекꙑ
є҆ли
преложи
сажати
вѣко
бѣсѡ
сыта
разы
ᲂу҆клони
тѣлу
тѣсно
і҆дѡ
речей
именова
чимь
##гут
сѣмени
##туда
битъ
биль
легъ
левон
дьрь
##тѧжа
продал
##стѣмь
князеи
ѡбна
Добрѣ
испу
рѹка
##датию
дъще
##пь҆
дꙋхов
пьса
смѣрен
свидете
внидетъ
самаріи
грекъ
почитати
дш҃ю
фарі
свек
другому
ѡсмо
Ивашко
востани
уготова
въспроси
простите
другаго
ꙁакона
тимофѣ
ѡбычаю
плеч
послꙋшаите
вдру
рѧду
широки
княгинею
намѣс
ископа
видѧще
павечер
цѣсарь
помиловани
переꙗславлю
озеро
промысла
росход
ничьтоже
поработа
прелюбодѣи
бочкахъ
убойца
ст҃ополку
покарѧти
месеца
бз҃ѣ
Клю
Око
Пръ
една
иоу
кт҄о
нм
оѳ
смыс
ыных
##шное
##нчи
##ѧго
помь
##коле
прене
##тиноу
въд
възо
дау
воже
доз
приня
привоз
призира
##шали
забра
оукры
каким
##лѣѫ
##лѣти
тара
##къвь
отчину
##битье
##чало
тель
теши
родѣ
##пае
сан
вѣду
десе
стаа
всѧцѣмъ
пищи
вые
Пожа
Поехал
разсыпа
словѧ
а҆ра
а҆за
иномъ
##гую
сѣни
##править
исходѧ
всѧком
сѹщ
##дний
единомъ
видѣвши
видѣвъше
##скымь
продаите
молитвꙋ
молитвꙑ
и҆змѣ
воивода
##кѣхъ
##ꙑи҅мъ
киеву
сн҃ве
е҆дно
немного
приказные
##вꙑмъ
молвѧ
житиѥ
очисти
ѳео
братьєю
житіѧ
##леного
##ловени
##крепи
честенъ
конюха
пшеницы
угодья
истинну
помаꙁа
ездил
поношеніе
камение
лежало
приемлет
наоучити
медвя
иванко
насил
множествомъ
Христова
маиꙗ
ѳеѡдора
орды
пребыти
бѣжаша
антоніе
месяц
исповѣдати
воротиша
възвратиша
богатства
##слоуша
девку
степени
купленых
езера
Коло
Нѹ
двꙋ
едет
о҄
рци
срь҆
упа
цвѣт
этого
яч
ѧкоже
##нето
##м҄е
##лнѣ
посѧ
попꙋ
##вомь
##гова
наб
неѫ
##нища
##рею
тог
##диѥ
въспѣ
##миа
доволь
##тагѡ
приме
присло
простъ
##махи
##стиян
быка
##дѣꙗ
##лѣзъ
мирꙋ
милова
мироу
твора
васа
маѧ
масли
измы
жидовь
стадъ
ставит
пишю
Пору
прѣгрѣ
##кѡм
##стыи
##ленїѧ
сѣтова
скочил
##ставилъ
въздержа
глаше
полские
всѧкомꙋ
Тому
##городь
##лкомь
##меноу
мѹкою
чюдно
темницу
серы
##лник
дерзость
##жену
##нѫтъ
имѣй
##ꙑи҅хъ
##ніємъ
рѹки
пѣрѣ
Ничто
скри
дъвое
дълго
покой
##шении
сътвориши
Рас
градѡвъ
Такѡ
##гьіи
воротъ
двєри
обиди
естества
##шенья
собравъ
і҆и҃лемъ
проклѧти
кнз
прислал
зависти
мудро
митрополиту
владычи
тверды
молчаніемъ
хлебе
преподобнаго
##єнныѧ
нравом
архиепископа
сапоги
девяти
Богородицы
монастырских
вдовам
Азонъ
беспло
челѧди
тихановичю
ᲂу҆чн҃цы
лодию
Анаданъ
мастеры
ленивъ
багатырь
ѻ҆ц҃ъ
Авгу
херꙋві
шурмова
13
Рь
Сіе
ари
жт
орю
обою
юб
ям
ѱа
ѹстрои
##шніи
##дние
##днымъ
##чкѹ
##ждѧ
полы
напрѣ
##енѹ
##тинь
##линь
##даша
##жещи
даше
косно
ковши
доеди
прикры
пристѫпи
##леба
можно
горя
нищимъ
прочно
простре
весть
събьра
##жилъ
##къше
##гаи
милꙋ
твоі
##вье
вѣдо
дебе
жиꙁнь
винити
вишни
всегѡ
##мехъ
##нях
##рѧще
столко
сторова
бѣли
а҆мор
##стесѧ
Нео
естьства
чим
чистить
безхитро
тугой
кралѣ
ондре
доброты
многоразлич
твоимь
благодари
тѧжѧ
богатѹ
ѡтрѹ
святъ
верха
##дитель
##вѧза
рѹси
молоде
##лоучи
##вшы
истину
хрстиѧ
Сама
Мор
Рау
смрть
ꙁемлѣ
англъ
водаси
неповадно
ѡбитель
мѫжъ
вь҆сѣмъ
хощꙋ
больше
боярскими
нарее
казалъ
почитаи
блгода
##меты
татари
оучинити
единогласно
ответчики
служили
посадниць
заповѣдемъ
купит
жереп
прьво
взыдоша
новотъ
пълъ
разꙋма
езд
всеволоду
написѹ
срѣте
##сении
приводити
божью
приставной
прочита
киевский
объявятся
назадъ
печатные
беззаконіе
исцѣли
Ѻ҆ни
ст҃агѡ
Чури
слышите
воровством
посълалъ
бобылей
околничему
кюрила
##шнѧх
губных
доколѣ
чюжезем
сладко
воспитати
королевична
георги
оуроки
кудри
поѥди
ѳилипа
Троицы
воспроси
априлѧ
кодратъ
вострую
скатерти
втепоры
поколоно
Катерина
Поместном
Гостиной
кощѹны
14
Всѣ
Тер
бле
бля
брѹ
зле
ира
ога
олова
смысл
тѵ
хль
ѳла
ꙋм
##ржи
##нмь
##сне
##сеніе
##пле
##дрꙋ
##дрѣи
##чт
##ꙋва
помен
поут
##коро
##говѣи
##лади
##рос
##ваме
##ниши
вън
и҆ст
и҆ск
и҆доша
бонѧ
##кину
##несъ
ничи
рана
расѣ
ратью
##шиша
везу
##рѣт
кано
##ньемь
оттуду
##жааше
##любь҆
є҆л
нос
паны
патр
посель
роте
робу
романъ
савѣ
##зает
избѹ
бражни
##славич
питья
пивова
##тыка
возвы
возмете
стою
бѣс
бѣхѫ
руских
прѣстав
прѣложи
прѣкланꙗ
гришки
##верху
##гъше
безѹм
чарова
чадех
чадехъ
Бог
##словѧ
бит
грѣхов
грѣховь
перъ
##нꙑи҅
видѣхомъ
барха
тѧжь
##проста
о҅нъ
дити
##вшесѧ
мꙋжы
бояри
ꙁакла
насꙑ
##ступити
верхꙋ
лугу
##нетсѧ
##шомꙋ
холопь
Моли
подал
##шениꙗ
стрелы
стрелами
починки
келеи
хвалѧ
въсегда
дьяко
варницы
##н҄е
поставленъ
посадники
Петру
апл
апль
н҃бо
##евичу
##ешься
кꙑѧ
старыя
ѳоми
десница
понести
наоучи
и҆мамъ
Къто
щиты
Иоанна
укажешь
неволею
кузне
возвратити
##ченые
пояса
събора
генерал
окладу
вавѵлѡнъ
сичкыте
вавило
философ
а҆наѳема
внезапꙋ
воѥвода
жꙋпан
ркп
дарѹетъ
бѕѣ
жта
имы
ове
спе
цены
чꙙ
ьст
єѵ
ꙋже
##нныѧ
##ꙁем
##гер
##герь
##іти
##блъ
##ятъ
##ятся
##щна
##зде
побиша
нарѡ
некои
##ницъ
##ницѹ
##давъ
##дилѣ
въл
въве
дарь
дачь
жеи
дошелъ
припо
приче
прият
моѣ
замѣ
свого
свомъ
себ
ниць
##льникъ
прощен
ве҇
##сина
кабы
паном
##зади
измени
##сегда
винꙑ
##лѧнъ
##тымъ
##быза
вьда
вьсп
##ляше
##л҃а
##чья
ᲂу҆ча
иноѥ
переменити
сьм
възме
възнес
##дꙋть
ис҃
главо
друзи
добродете
латы
лакѡтъ
первую
трижды
крот
кротъко
динъ
шесте
гада
Кон
Кому
братю
##дитсѧ
##крат
луки
вꙑсо
Никтоже
##стоить
##анꙿ
хрстолюби
церковъ
иꙁꙿ
##чения
сроки
є҆дина
казаков
славенъ
і҆ꙋдєи
братьѣ
времяни
##шнихъ
свез
пръвое
жаловалные
н҃нѣ
оставити
посоль
пособи
пребываетъ
зиму
стрѣлъ
нѹжѹ
##рмить
виновата
оустроено
игоре
приношен
Люби
вышло
съкрови
сльзы
хоула
государства
нечестивыхъ
бывшее
возвратися
дръжава
одиного
пещерѣ
конопли
тайно
вопроша
мѹжеви
Нынешнова
имѹтъ
нижнее
богомолца
а҆нтіо
мнстря
Ша
Юрь
ак
вчера
внутрь
емѫ
икра
кнꙗ
лце
ннеш
оло
олек
одино
онѣхъ
тꙑи
хѫ
хсъ
хев
ѹмѣ
ѻни
ꙁри
##шть҆
##рска
##нков
##крѹ
##плѣ
##гꙿ
##іꙋ
##юшти
##ѫѧ
##фер
##їем
##σι
##нило
тобѧ
вънъ
дамь
во҆
дозира
дочерь
прикѹ
##лешь
бози
##мой
заво
солꙋ
состав
##лъсти
растер
##боѧзни
веѳ
##сино
##симе
съта
##ческіи
лютъ
пагоу
послов
хощемъ
лишен
##мѣй
##дьство
видно
станут
старꙑ
станеть
##куще
всѧкие
возгла
Посыла
бѣлыя
##енець
размѣ
##кым
ᲂу҆тро
пересѹ
перевоз
край
ѻ҆баче
лежаше
иссѹ
сѹсе
благоу
врагомъ
продала
грꙙ
ѡбле
риза
Коза
##дятъ
испроси
рѹкама
млстынѧ
ѥ҅динъ
скврь
кѹнъ
##страти
старост
концѧ
горноста
подаваи
##шениемъ
ꙁемл҄ꙗ
анф
свѧтꙑ
послуси
поучение
троѫ
врѣмꙙ
писму
##щіимь
древѣ
племен
христос
вѣчное
Ивашка
списку
почел
##е҆ть
ꙗ҆зыкѡмъ
мнстри
н҄ихъ
гѹси
потребно
здоровъ
дв҃о
##стях
васильеви
королевскому
таковыѧ
гсдрне
звѣзда
звѣзды
ѥ҅гоже
съвѣдѣтель
подьячим
рядо
##купить
вотчинам
бѹдѹтъ
прошлом
нечестивыи
Первый
християнскому
іѡаннь
полоцку
пр҇рокъ
є҆гѵпетстѣи
питьемъ
росходъ
християном
совето
воѥво
костѧнтинъ
и҆миже
оузѧти
Аристо
Савао
Вольфангъ
Лъ
Сл
злаго
згно
ищ
олени
петь
услыши
хро
ѕі
ѡне
ѡси
ѡкси
ѫꙁы
ѹга
ꙁре
##тных
##ссѹ
##семоу
##кмъ
##ыи
##чета
##бꙿ
##бнѣ
##зне
поды
повал
насели
##торѣ
##дано
доло
донь
##тамъ
присыла
##дери
мощеи
содѣла
оути
оумер
оуказати
##боръ
##маꙗ
##ститъ
##сие
каф
##мути
сиѧ
ногъ
преклони
поска
рога
родꙋ
хотел
сана
вѣж
вѣнаа
##себе
##дьна
##лѧте
статьи
##нѧми
##нѧют
пищу
дѣво
высѡ
прѣмѣ
разсꙋ
ᲂу҆з
полове
полоца
##леную
скоть
##лѹетъ
перекре
плаче
възгла
онси
испа
глада
сѹдите
свѣте
коровь
##дѹще
поклонитися
вражды
пустыню
святое
ризу
верст
##нѫт
плодовъ
и҆знемо
болша
раꙁѫмѣ
луди
взявъ
сказывати
киевъ
смона
приити
арсен
скро
кѹде
Господни
дꙋха
##словїе
Сами
анну
последѹ
блиста
освя
##фию
непови
непобѣ
небере
семью
##пѧтъ
полутора
іѡана
трапѣ
##жѹю
ярость
федорович
видимо
драницы
##хѡмъ
грѧзи
і҆ері
птиць
крьсть
въстани
##щениемъ
живущих
каменіемъ
оставля
дыни
##дках
змию
наместнику
оумѣет
наказѹи
спасения
##ѡбразно
мыслить
Первое
##плака
промыслъ
слобод
черниговѣ
призываи
святии
##слѹша
побол
Шеремете
##бежал
##мьіш
вкѹшати
манастꙑрь
леѵіти
Черниго
срьдь
къснѧ
посмотрѧ
бл҃горазсѹ
ꙁависти
непрестанно
деревлѧне
Кли
Куд
Язо
впря
впер
гет
діо
еа
лѵ
мҍ
окра
сїѧ
твьрь
цре
ѡснова
ѥсь
ѧбло
Ꙁако
##ада
##шлѧт
##есть
##вріи
##цкую
##лци
##лїе
##пѫ
##ꙗже
##чҍ
##чіе
##ю҄
##ямъ
##ιе
##ꙋю
##ѥвъ
##ҍза
поть
побить
нази
нагрѧзнено
##ликъ
##носе
нелѣ
неволи
##дава
въо
копѹ
вор
и҆ти
дошед
дополни
приу
прина
приславъ
припрѧ
##кисло
моѵсе
зая
замят
сокомъ
оутки
оумр
оуткамъ
оукоризна
просѹ
какия
кашею
##щесѧ
##ньскомъ
##гай
##хонько
##ръжа
##нувъ
телѣ
##скія
посл
валѧ
васѣ
ростѹ
лицꙋ
лишкомъ
лимоны
сабля
изʼ
измѧто
вѣсо
жила
вишны
##щинѣ
брагѹ
своево
дѣл҄ь
печет
##мѹтъ
##мѹты
руци
##шьды
прао
##жь҆
лѣднике
а҆нтихрі
нѣкий
страдные
туры
лошки
переди
передо
перепѹ
перебрати
ст҃ъ
бисе
възм
краков
крадли
краснова
леднике
гла҇
радит
грѣхь
Над
сѹдомъ
сѹшит
тъгъ
писанномѹ
мѹжнимъ
кровию
диꙗ҅
мънҍ
въꙁⸯ
Нова
повелѣлъ
человѣкѹ
луке
рыжики
посадить
скамъ
##ртвы
Приде
оубогихъ
##ревни
судные
слѹгами
дълъ
михале
##шенко
##шенїи
##анне
правде
гробꙋ
покоя
##штися
ст҃ополка
ширинки
водале
людеми
хорошенко
указной
послѣжде
ногатъ
поуст
ѡбразь
##щꙋю
высока
строк
двда
принеси
##прѣсно
##ствиѥ
семъе
семьѧ
свободѣ
терём
прикаса
остатки
въсего
ответчиков
Хотен
з҃і
красен
ꙗрополкъ
спири
погорѣ
морсъ
новому
писаномѹ
конюшне
покрыте
##венко
порѧдню
рѫкоу
рѹкодѣльни
рѹкодѣльи
солит
##блѧне
гостьи
вѧлаѧ
приказал
поплесневело
новгородскиий
кѫнҍ
ѡбыскѹ
##цкихъ
порѹкѹ
недели
блѹдникъ
##штяя
кѣльи
ѡчищено
кѹпит
кѹпишъ
седмьдесѧтъ
домашнемъ
домашнѧѧ
домашнемѹ
оучнѹтъ
тѣлесе
печатнику
свѣискихъ
дѣтьмъ
домовитомъ
домовитаѧ
Писано
полотенъ
пойдут
молчанїемъ
ꙋчинит
молодцов
возложило
другие
масломъ
околничих
хмелины
##скочил
ставцы
пьѧна
разсѹдѧ
спросит
мѧсое
бесчествѹ
помѧнꙋ
добыткѹ
приѧтно
начелꙿ
варшаве
рыбнѹю
пещеру
волокиды
оубытка
доколе
ищеа
снегѹ
пивцо
столовые
рѹбашки
вѣжливы
исцовы
коупно
хвастает
вымыто
сѹшилех
ветчаное
дҍлѧ
пеньки
стрѧп
ясные
волъх
Покланѧние
покѹпать
Батыга
отпускные
ꙗ҆висѧ
наследѧт
Васильюшко
возлогати
ѡловѧное
сметено
повареннаѧ
комисары
комисаров
патоке
Микитич
вытерть
оуксѹсъ
еуагѥ
заповедехъ
примолвити
ревнѹи
мешечке
жолобы
ѡстѹды
кислые
грѧзные
гостьѧми
провѣсъ
подсумки
навьѧло
подметено
полѹнощница
пересматривати
брѹсни
згноено
къснѧтина
дополнивати
вѣсовое
дѣл҄ьма
Бь
Брати
Оста
Сѧ
ет
зрѣ
зим
зима
ища
оч҃е
рче
упи
учал
чт҄о
эти
ѥз
ѥгѡ
ѳѵ
ꙁра
##омоу
##внаѧ
##нники
##кна
##ѡва
##ꙗли
##ѥт
##ѭштоу
##готова
набо
нарца
##лиа
##лиле
##вающи
##никꙋ
##толи
##рема
##тьна
въвѣ
въведи
дая
воя
и҆спра
долу
всы
##леѧ
гостеи
оумы
рабѣ
проща
прозо
промысли
стену
отра
сидел
прехо
робь
хотели
##вьнъ
кър
марти
##паеть
лиш
листы
чепь
дѣлѹ
Подоб
руках
##шьно
##зити
црства
црств
възбра
крала
лесы
имамь
##нꙑимъ
##скыѣ
думати
поклонь
гсне
ꙁатвор
мь҆нѣ
версты
воискꙋ
##евѡ
испꙑта
дѣлаи
кимъ
бл҃говѣрныи
рꙋви
слѹжь
радостью
тоиꙁи
пришествие
##пьрь
хлѣбѣ
сицево
смене
монастырѧ
дрꙋгьі
помилꙋи
работѣ
послушати
вь҆сꙙ
воеводу
конечно
нѣкоторы
кладе
глаголааше
вашемъ
щешь
ц҃ср
оучитель
моремъ
ярости
стѣнꙋ
столпы
##шѣи
поздо
угодно
рѫко
ездити
юрьи
плакася
ꙁаконо
патриарши
товарыща
провожа
тягло
нашому
вдѣт
словѣни
восприя
Луко
старѣишина
аврама
премꙋдрости
приѣхавъ
пагуба
живешь
насильство
добрим
сборъ
тр҇ца
Апосто
Дрꙋ
Лѹ
Суд
бца
глоу
е҄
еꙁы
иная
лца
нко
піа
рже
смꙋ
снѧти
умѣ
удобь
ѡпо
ѹкаꙁа
##ꙁно
##ьсть
##срѣ
##к҄и
##ѧнъ
повъ
поши
попол
##еноу
##лили
##лато
неꙋ
невре
##рока
##реꙗ
##дор
##мово
##теѧ
##тею
сох
##лькь
оут
раслаб
ведоша
##стия
##чик
##стали
бывь
таи҅
отре
бежи
ва҇
##бѣгоша
лих
вѣнча
##дьнѣ
##славом
Поса
Повѣда
бѣхꙋ
сыры
сыновъ
руча
будто
##ряти
мести
##тѣмь
лодья
Бове
облѣ
Наде
первен
##хим
##скыѫ
вратѣхъ
бл҃га
сꙋет
сꙋще
никои
въꙁв
##ждаѧ
д҃не
Госпоже
злобе
положили
анѳу
иꙁы
Проме
работу
золъ
мяса
##а҆хѹ
строение
пѹсты
стьіи
глаголахꙋ
писцов
писцовым
торговати
наказывать
праведны
##гꙑни
Ставра
лицах
ꙗропъ
погоста
##блго
велѣти
въскре
сестрѣ
нейже
Прѣдъ
ꙁаконь
крѣпокъ
учинилъ
##нимал
Медеи
приемлю
##ꙗ҅ше
мъногы
кънѧзю
одеяние
рꙑбъ
девѧно
женьска
тѣлесь
воспомѧ
трапезѣ
благаѧ
роусина
девицу
влдч
і҆ѡавъ
извѣстно
҆е҆рл҇
душегуб
текста
милосердие
##любьць
письма
асѣна
убийство
дроужинѣ
гривенки
гражане
убежати
венча
ѹдарить
Зензевей
ростовци
Небонъ
и҆ноплемєнницы
францу
60
Будет
Гюр
Зако
ама
гви
оле
пля
усо
хру
чсть
ѡспода
ѹслыша
҆но
##што
##мши
##цръ
##цком
##ѹми
##пля
##гля
##дко
##дбь
##бнаго
##ющь
##стны
##стныи
понꙋ
повое
направ
##тия
##ность
нек
несы
##валь
##ваемъ
##рещи
тока
##тьем
##жесѧ
даеть
##вице
дожда
придоу
##кин
##тече
зади
замол
сеꙗ
ниско
##пор
##поко
оупова
везе
##лѣꙁъ
##ньского
стрт
##гам
##гара
беска
речь
##цать
##пивше
є҆с
ров
хоцю
лиша
садъ
##бедни
вѣд
##хавъ
видъ
##щите
стару
##гиѧ
руса
##ряд
##ряет
прѣрѣ
прѣдь
подно
црс҃
ловъ
сѣко
сѣдъ
сѣбѣ
сьмо
##кее
ѻ҆ко
ѻ҆че
господеви
грѣсѣ
послании
Томѹ
дьми
свѣща
дума
пудо
животины
##дному
нашемь
##ниих
и҆зведе
пріимати
пѧн
##тріе
дъво
михаль
крст
гробу
володимира
горѫ
спати
свѧтыи
въсѣх
##шкове
##штени
покланѧни
ключь
людьмъ
і҆ѡсафа
##днако
подобаше
болгаре
мл҃тве
сред
собраша
##ѭ҄шти
июдеи
пребывающе
погосте
##скꙑхъ
трꙋды
справед
почалъ
дымъ
удалы
ꙁнамени
имут
хвалити
міръ
гледа
прославиша
пострадали
пятьсот
ѹготова
наперед
помѧни
одинои
лаврен
стефанъ
казначею
преставль
саваѡ
въспомина
##хⸯте
сѣверъ
пощады
невд
##хиеписко
самѣмъ
отъвѣштавъ
тряпе
веліимъ
обвинити
и҆сточ
Гд҇ь
курб
втрое
Дъ
Игорь
Мꙑ
Ннѣ
Сло
брт
бм҃ь
гво
еді
земъ
исо
опро
опу
онѣмъ
пт
сⸯ
устра
шѣ
Ѳе
ѹвѣ
ѹмреть
ѿходѧ
ꙁов
##еца
##м҃
##цꙑ
##лї
##плы
##ѧща
##҅ми
##ѡн
##ѡни
##ꙃа
поют
постомъ
##лиꙗ
##ноѭ
##варъ
##токо
##кано
томи
##дисе
##дице
##тьр
възалъ
дара
давали
давал
кожь
вож
придоста
##шат
##мому
мосто
заимъ
годꙑ
##льѧ
раска
рагоу
проꙁѧ
##малѣ
##мааго
##чия
##чини
съз
събꙑ
##щести
быше
сѧслс
##дѣх
##ньць
##ньскаго
тае
##къви
любь
##бину
паше
##удꙋ
вашꙋ
рог
ростѧ
##вьіи
##дьте
##лѧди
##меже
##лыци
##нѧтсѧ
дѣлма
пелены
стогъ
##шько
лѣности
мѣди
чина
сьло
облич
ѻ҆нъ
ѻ҆вецъ
полтреть
##ставливати
сѹщю
поимъ
поидет
##гымъ
вратомъ
богатого
бж҃їе
ꙁаха
нашеѧ
ризъ
рижѧ
##ються
испрво
бл҃говѣр
нꙑхъ
убояся
тяже
грозою
Мики
Молю
##волоки
поруга
свине
поустꙑ
конец
стрела
младо
дѣтии
##сниковъ
ярославу
имеѧлъ
свезли
федоре
посаднику
жаловали
##говоря
напослѣ
емлют
Всего
шьдъ
##десять
##чую
вмѣсте
##цкий
приводит
приводных
міха
живꙋщихъ
трапезы
голуби
заложит
##дрыи
ѻ҆лтарѧ
днѣпръ
Исуса
подворье
кротости
скръби
вавилы
Степа
никогдаже
василевѣ
мн҇трь
преписва
ѿнн҃ѣ
тимофѣю
Дето
Зем
Зде
Кни
Левъ
ау
анѣ
всто
внов
вѧти
дла
дрѫ
емати
жї
мца
о҆
ополо
утер
фло
чтите
шка
ісоу
ꙋкра
ꙩси
##лнаго
##сцѧ
##пꙿ
##чꙙ
##стные
похѹ
поꙁо
##воши
прє
##лость
##логъ
##лахо
##ларю
##рочки
##дину
##дицеви
във
въпло
##жедале
кори
вора
вожде
доци
##тари
моєго
##неа
закры
замъке
нище
##пове
оусѣ
веде
вези
каꙗ
##щевати
##нѣго
##ньх
##еника
##цам
##скрь
##скїѧ
посрам
роби
манꙋ
сал
##беꙁ
##беѧ
вѣде
витаеть
дѣѧти
выписи
##гина
Потяти
стоят
##шька
слов
мѣстꙋ
чимо
иноу
иноплемен
безмене
##цько
судии
##бьтьникъ
лоб
ложни
чаша
дворь
славити
слатися
взмоло
господоу
леж
исписа
Токмо
ласково
благовѣр
всякихъ
башни
сꙋща
мьрь
святой
Нове
Конеч
Костен
воистин
##ждати
потща
лутчи
##коупи
##фане
слѹжити
товарь
Александровна
бласлови
конʼ
истинѫ
трепет
##шению
##твами
наказанию
шиша
##жением
колика
домомъ
рабомъ
боудеши
врѣмени
огню
##т҃ь
казале
##тіѫ
Вь҆
##жоно
пришлите
##шним
погании
дворников
##нчалъ
тысѧчь
прияли
желаніе
плъкы
погосто
жалостно
отьчеви
пожгоша
рѫкама
##дней
##славиць
##лисьеви
дворецкой
могучи
распа
въсадивъ
нужи
патриарх
опаса
карабля
приходиле
возраста
ростислав҃
княгине
королевичь
##лёнко
грьчь
змиа
тюрме
носит
смьръда
клепание
Буславь
##вкъмъ
посадские
игѹмена
розбойников
приносит
несча
обрящет
ѻ҆троцы
пріѧтъ
отпиши
Соловей
зуба
сохраниши
вънидьте
неделщик
##лⸯко
клѣти
ѡбае
мастеровъ
божіи
кр҇ть
Гудими
пивнои
а҆враамъ
гр҃внѣ
домажирови
владеют
стараго
пришъдъ
попродале
боарь
непокорение
дьаку
поклоняется
кꙑѥвѣ
кꙑѥвѹ
##риону
роздачю
Приезжает
атче
обороте
отказывати
ѧрославли
дроугоую
видьло
Гсдрю
осьмь
##скакивал
полотенеца
грамотичу
кнз҃ѧ
посадницьство
хльбь
полоцанино
тъгъдъ
свинеце
ополош
взмоловить
віе
вноу
ину
рет
смыслъ
єму
ѡи
ѻбра
##аl
##шꙿ
##мл
##мем
##лла
##сное
##пси
##ѧно
##язы
##αρ
##зенъ
##ѭшта
##стерь
поь
позъ
##гомь
##номо
##нову
##рони
##роми
##ровя
##вань
##ваноу
##реши
костро
котѡ
и҆ліа
##хъмь
заго
зачер
##вех
созо
нифо
оумно
прорица
велят
##сифа
събы
съеха
##сахъ
##ньски
##бинѫ
мина
милу
##чами
рещ
рееть
холъ
##вьть
вѣре
вѣтра
живѡ
ставѧ
##сповѣ
вылѣ
Поро
Поиде
сложи
##мым
##мыхъ
мелки
нѣмь
которꙑ
имѫ
стража
безс
сѣи
сласти
гд҇ѣ
##ставить
муча
крамо
крадеть
ѻ҆нꙋ
госпожда
радила
##ютсе
персть
если
многомъ
видѣв
о҅ть
царьства
шелъ
продалъ
Кай
Каза
двадесѧти
въꙁвра
верви
тьи
ть҆
имѣние
братца
воины
пѧтѣ
кии
сплъ
черлен
сѫщи
сѫшти
потопа
печалова
цѣлъ
крста
хлѣбь
истинъ
##ешися
правну
е҆п
запада
идемъ
неиꙁ
церква
градʼ
побѣда
##рѡнъ
купцы
комуждо
поуть
ѥсмы
##а҆го
клад
створить
отрокоу
казали
роукоу
марке
и҃і
недооумѣ
Вел
татарове
##носить
криво
другого
кралевну
Старо
вѣчных
далее
прияша
кн҃же
ꙗрослав҃
слѣпы
свету
грѣшници
царицу
велѣл
срѣдѣ
кѡсти
апостола
съвѣта
есьмо
вечеру
дрьжа
псковъ
спасеніе
тръпѣ
##вꙑи҆
##ныихꙿ
мертвъ
оброси
татбы
горько
Дѣла
мѣдѧно
любезно
немало
меньши
і҆ꙋдеє
замокъ
заложена
возмут
##вернулся
идти
булатные
помыслы
є҆леаза
Дв
Ль
апрѣ
гꙑ
еꙋ
есо
мтрь
оѧ
осоу
сцѣ
списа
ссыла
щет
єдно
ѡспо
ѿстѹ
##оn
##они
##тлѣ
##тлѧ
##шї
##нныхъ
##ьства
##кїѧ
##ⸯнь
##бенъ
##женіемъ
##зны
##90
##колюбе
##год
навꙑ
##тири
##лицу
##томо
въꙁа
вълости
дарꙑ
коси
копати
воꙁ
##винъ
##добо
##дотвор
борти
годьно
оувѣда
оутврь
проль
простые
##бое
##мах
##стина
##чинѣ
##рьши
##хою
бесловес
нов
пари
посполь
варя
##вьство
мая
масти
литва
савра
вѣмь
##щающе
жирѧ
великѹю
##нѧта
печь
пепе
сынь
прѣмоуд
##кѡвь
мѣхъ
кунь
иново
судѣ
##бьꙗ
сласть
сьрь
била
обрето
##нѹти
възѧлъ
##ютца
сѹлта
##кѹпи
моисею
предстоя
##дною
слуг
знате
знаешь
рижа
##стую
тьмѣ
имѣите
лубо
слышаша
товаромъ
##цѧть
василѣ
соудо
##шенѣ
хрс҃
спасе
дрꙋг
молꙗ
житиꙗ
Проти
въсѣми
днеи
беꙁь
члкъ
свободна
дш҃ею
##дръжи
болгары
Пресвя
Став
Вѣдѣ
##хѡм
нападоша
двести
так҃
##брѣто
угодни
##ліемъ
лвкь
мѡѵсеа
небога
сѣдѧше
и҆мате
о҃т
богатырского
дробь
челобитные
обычаемъ
судью
##вꙿше
носилѣ
Всѧко
воспри
властелемъ
портъ
возлюбленный
горазно
двд҃а
преподобнагѡ
иноземцов
свѧщенницы
божію
прѣподобь
ѡ҆блакъ
блг҇ви
ссылка
ссылку
оусръ
і҆акѡва
бж҃іею
погоуби
суждаль
сыскав
микифор
Всеволодъ
Аг
Гь
Муд
блѣ
ела
еоу
егип
збирати
идуть
ніе
оску
цене
ьс
івана
ѣже
ѿказа
ѿтѹ
ѿч҃е
ꙗ҇
ꙗзо
##аса
##нб
##нная
##м҇
##лбу
##сетъ
##ѡ҄
##ⱕште
##волѧ
наь
наѧло
##енїѧ
неꙗ
##ровѣи
##никѡмъ
##намь
##дави
##ре҇
##релъ
##каше
дар
кожоу
и҆мене
##вину
придут
богꙋ
моглъ
завиди
##век
оуре
прокла
##сими
##рьскаго
##мьно
##іевъ
##ениемъ
бега
милым
##цамо
є҆лицы
роство
хому
##щику
##лѧхꙋ
##няеть
##нѧлъ
выноу
##гин
##оуть
бѣахѫ
межѣ
##кых
ᲂу҆шы
половец
мѣд
и҅мѫ
сукла
##етеѧ
славꙑ
перепи
##зовати
##лꙋю
бжтво
полето
дье
дьж
корол
бꙋрми
##слено
##менѹ
живото
##славѧ
кнѧги
б҃ꙋ
бура
шестѣ
любодѣ
служеб
Казна
##лнику
риби
смердъ
спсен
товаро
Ниже
дъл
василю
дꙋшы
##телство
##мѡвъ
чь҆
##шениѥ
братана
смѣрено
дх҃омъ
убиша
самимъ
стьство
предаю
гумно
просим
татарин
слꙋжа
хвалу
племенъ
служил
##ѭ҄ште
многаго
таимени
срам
праздно
емлет
плът
похваль
##словие
истиннѣ
дмитрѣ
Василия
хр҇т
первоѥ
почтити
гл҃ахъ
доправя
ѡц҃и
приходил
возрадꙋ
мужя
дрѣвѣ
ѡ҆брѣза
ѡставили
глюща
хотꙙ
волостелем
грѣшьныи
матерью
кузма
побно
жєртвы
умеет
сирѣь
##хⸯме
храбрости
гордыни
целовалником
Федор
смр҃ть
црт҇во
хв҃о
щука
скърби
читается
лошеди
француж
Єто
Доу
Иде
Псан
Слу
Свѧ
Трети
ави
глы
дно
кꙿ
птоло
свали
цъ
цвѣтъ
чту
шѹ
ѧку
ѱал
ѹвѣдѣ
ѻть
ѿтъ
##аn
##сіѧ
##ъноу
##петъ
##ꙑнѣ
##їмъ
нагы
намꙑ
##рози
##рини
въправи
въшедъ
въходить
##жества
дарѡ
всемоу
богѡмъ
мора
##не҆
соте
нице
##шимь
пропи
##маномъ
##рьска
##ньствѣ
тая
##ръкъ
илие
реш
ребро
нои
превели
посра
робѧ
салта
видать
всеславъ
бранитися
дѣꙗ
дѣлех
##цимъ
##цинѣ
воззрѣ
возвели
стога
вьзи
тыми
рукы
##енови
медо
ѡ҆скор
чините
подписати
безсуд
##цьне
лоудь
сѣвера
перемоло
пламени
госпожи
лев
грѣхѹ
Намъ
полтѣ
дьмъ
перв
видѣние
тъбѣ
всякое
багрѧ
животь
ивани
сꙋко
##пустить
##писать
рублѣ
знают
человѣкѡмъ
болꙗ
##ꙑимъ
потрѹ
Приходит
молотить
##ющемѹ
цѣлѹ
Мат
бересты
кꙋнъ
##ченїе
сътворимъ
крестьяны
въдамъ
глетъ
хороша
свѧꙁа
ходиша
богомоль
творѧху
ѥсм
конеи
разуме
строен
велели
царем
отроча
роусѣ
Ре҇
языцы
грех
хвалы
ярослав
четвертыи
попом
попомъ
вѣчныи
трьть
данилѣ
московские
отьцеви
гѹрмы
избавит
кликну
наслѣдите
всеволоди
ѡбрѣто
срѣтоша
##йтеся
бгомъ
область
поимаю
##говорити
тимофию
звѣрь
оклевета
##клина
##ковеска
сокола
воздастъ
троицы
хꙋдо
клещь
пречистыя
идохом
##дныѥ
погребенъ
оц҃ю
кабалных
исполнит
Лѣта
растет
селищь
неделщика
целомь
прочаѧ
##фоноса
зꙋе
оупокои
твьрди
голѣма
##изволи
говѣно
созида
Мъно
копие
всемогу
ѡ҆правданіѧ
вычистить
є҆зекіа
родивону
законопре
виѳле
##ilе
храбраго
ѿкꙋдꙋ
390
iu
in
¦к¦
ȥемли
Вместо
Вриону
Плёнко
Сты
алъ
ачи
гнѧ
дрѧ
жрѣ
знь
иꙗ
лкто
лену
ослоу
офоносу
пїѧ
рзнѣ
сени
снем
сдѣла
тще
уѥ
уму
улки
цоу
цимъ
чтен
ънъ
юмола
явѣ
їли
ѡсп
ѡгра
ѡсподинь
ѥло
ѥска
ѥсомо
ѥрмо
ѥрмъ
ѥлбу
ѧно
ѧковъ
ѧковь
ѧрꙑ
ѧбет
ѻлександ
ѻсподо
҆ꙁъ
ӏз
ӏже
ӏма
ӏване
⋮в
ꙁѣ
ꙩг
ꙩна
ꙩль
ꙩста
ꙩсподи
ꙩсподо
ꙩсподарю
##оmi
##ххі
##шяти
##ече
##нкомъ
##ита
##л¦
##плет
##гто
##ѧніѧ
##ꙑваю
##дє
##двы
##дрина
##юци
##жлѧ
##ꙋка
##ѥца
##ѥтсѧ
##ѥвица
##ѥмсѧ
##ꙙꙁа
##iоn
##bilе
##ri
##стян
поемъ
##воше
наль
наслава
##енꙑ
##тиꙗ
нежѧ
недили
##тошли
##натцатеро
##ритана
топьрь
##диню
##динович
даютъ
воют
вожанъ
##вирти
довоу
доселѣ
##тани
привь
прискор
##дои
##леско
##деславе
##кинѣ
монѣ
##шековее
загла
завьть
селема
гошити
нитоже
##льевич
оуѥ
оуци
продѧ
ведали
векоше
##мага
##симу
кадець
сънь
съдила
##стати
##щев
##рьбеѧ
##живѣ
##дѣл
##дѣноу
##нѣга
##нѣцѣ
стр҇
##бижо
сину
беросто
микꙑ
##жаа
##нутъ
твоӏ
##пила
панове
парени
преписа
робоу
родной
роспоу
хотъ
хомоу
хоцоу
маце
малѧтѣ
листом
садов
изꙑ
вѣды
вѣстѣ
вѣлью
##щаеть
жихна
тиши
великѣ
##луо
цасть
##еньтеѧ
грамъ
грамата
выю
вымут
пеюци
возмь
стоть
стоють
##дух
##дубо
вьни
вьсꙗ
вькшь
бѣжить
##скам
##скамоу
челоую
челобѣтьѥ
##ряжа
##рятся
прѣꙗ
разѹм
местѧт
ѡ҆сꙋ
положꙋ
нѣжи
поклно
тѣшеноу
мѣкѣ
куне
##стъкѣ
страдныѥ
лодие
##правити
пересуд
переставливати
сьмъке
гд҇нимъ
бжі
грѣво
грѣхо
грѣвни
грѣвенѣ
есиѳа
бꙑвъше
сѹщь
дьла
ларь
лаиди
моисѣ
г҃ӏ
рѣкою
короми
коровꙋ
коробеи
поведе
гривень
есмꙑ
волосе
многолѣт
бьли
бьла
бьль
бьма
бьжѧ
##скы҆
коуло
коуни
коунь
коуноу
коунахъ
дубие
##сному
милославь
пушка
пуоду
дитьи
дивии
в҃е
продае
рубл
мьду
мьзда
грудь
ньго
ньжѧть
##кланѧние
знамена
менѣ
рици
тьри
Кого
имѣше
учения
##итель
##краи
потклѣ
і҆и҃сѣ
нашихо
##рт҇
тꙑхъ
гривьнꙑ
гривьною
вꙑроу
вꙑдалъ
вꙑжлѧ
целовѣ
суды
##ждена
поместь
дъвь
дъбр
василіе
цѣрк
соукъ
михаӏ
михалѣ
михалю
##шого
##буо
##ходилъ
законы
Микулич
полътину
е҆мꙋ
Садился
кꙋнѣ
чьтвьр
взѧтъ
взѧлѣ
положиле
великааго
сторове
поставит
приказꙑваю
шидови
въдадѧ
##воложѧ
водаӏ
водано
гнѣда
домана
иꙁвѣ
нихъже
осѫ
исполови
дрꙋжи
ѥсифа
тоудора
дорофѣ
шадрина
бориць
льва
поуш
поутеши
зобижо
цетвьр
цетвете
цетвирти
сподиню
сороке
срочька
##щꙋтъ
##щꙋсѧ
##нꙿна
слез
кланисѧ
гурь
лоуди
лоутьѧ
просимъ
полутори
полуторъ
третьѣ
мѡу
тереньтеѧ
занежѣ
##ихꙿ
рьзнь
рьзно
рьзан
святые
хотѣноу
торговала
вашим
##ленои
вьсѣми
вьсеи
дворнюю
##ровицю
мертво
повинь
повиненъ
стѣна
дракѹ
трьтие
григорьи
кн҃а
кн҃ъ
лошачек
красенъ
июри
купиле
цьсть
пришлете
мордоко
цетверете
московка
ѡстафии
кꙑе
кланѧе
пъкланѧние
крьвь
##ѳию
##ѳиме
##шяся
могучие
степаноу
Добрынюшке
ѧколи
ѧкову
присълале
##щ҃ен
мужиков
рѣзане
коробье
полтиноу
ѳом
ѳомоу
колонка
нб҃сь
лѧшьке
##ственно
стоѧть
микити
##ннана
почали
широкой
цолобитьѥ
цолобитье
совѣтова
пльть
приходитъ
оводоки
а҃і
полоутора
##сꙑваете
помещик
жертвен
подьячих
##емеѧ
ѡставити
бьрковьскь
молодогь
помощию
девѧте
искорми
воздвиг
максиме
иванокоу
матьрью
давꙑжею
кобылка
властели
одну
шюба
нарѧжѧ
дворѧнину
дворѧнине
лживꙑѧ
гюрьгѣ
гюрьгеви
##словее
промыслы
молодцу
вхого
нравы
игрꙑ
ꙩвдо
терему
куоно
куона
поместные
поместныя
хмель
Филипу
##ревахъ
целомо
целобитиѥ
прокошь
серьбро
ѡнани
добродѣтѣ
паробокъ
сновидови
понабо
е҅пискоу
радъка
озеревахъ
младенца
зелоного
ѧкимоу
увечье
##лексея
бо҃го
кнѧзоу
поѣдите
возвѣстиша
Азона
лоньскиѥ
зьмлю
нездꙑле
костини
дьсѧто
стьпаноу
желѣзен
кадьць
бѣлкѣ
поцте
рцыте
иванъкоу
исцова
диꙗлось
домитра
ничьсоже
просоле
георе
братомо
гривънꙑ
жалуѥшь
пропасть
отьцьви
##слꙋша
ᲂу҆тверди
влд҃кѣ
наимитоу
мълъви
мълъвоти
коробѣѧ
илї
Поповича
блусти
илькѣ
кожюхъ
гривеноу
фларе
григориӏ
дубни
платѧце
испортит
плисина
сороцица
плтину
поворотом
бьрьковь
##гониле
боудьть
лоукънъ
ꙩндрѣю
лонеского
коузми
рисунка
нежиле
ꙁемь҆
хрѣсть
Акиръ
жемчюгомъ
павьлъ
ѧвлѧютсѧ
недоборехъ
жеребчикъ
ѻтдал
##еni
прилбица
Фрагмент
Фрагменты
ѻсподь
микоулѣ
дьвѧти
пьшьнѣцѣ
бъръзѣ
гюреге
клюцника
бѣлонога
бѣлоногъ
турабьѥвѣ
турабьѥвых
имоволожѧ
прекословее
бобрꙑ
разрыва
Святогор
гр҃вн
коръвоу
курьѥго
нестере
еѳимовичю
различь
пшенки
людъе
станѧте
гж҃е
въноухъ
ѳьдора
торжеку
татъбоу
хоженое
нажирꙋ
позовници
Илейка
сухꙑхо
ньжиль
ньдьлуо
рꙋцьи
бесудную
торпицѧ
климѧтѣ
воцарисѧ
Симбал
оурѧдило
възьмъши
куролѣ
касимов
голиное
оѳими
свезле
онсиѳо
ѳѵміа
исоправи
манꙋиле
Конечная
Костентину
шишакъ
которꙑѥ
сьрьбра
сукладни
перемолотили
iubilе
ѥрмолѣ
ѥрмълѣ
ѥлбугою
⋮в⋮
##оmin
топьрьво
паренину
лаидиколѣ
пуодуо
потклѣтѣ
цѣркв҃
чьтвьрть
шидовицихъ
исполовиѧ
оводокиѧ
мълъвотицѣхъ
имоволожѧнъ
iubilеmus
Елма
Мѫ
Отец
алекса
апре
дхомъ
збо
иѣ
инаѧ
идут
ищет
кⸯ
тмы
устъ
усты
укло
усну
црь҆
явки
є҇
ѻца
҆л
ꙋве
##ѧн
##чнаго
##бне
нали
##ложен
##лаи
##ваха
топ
волꙗ
и҆ска
призъ
могоша
запе
##вѣѥ
##лъкъ
оумо
рамо
раск
##ситъ
кало
##живъ
##лѣю
##хон
отрѣ
отце
откуду
рекою
##скоѥ
ван
росп
хождаше
малаго
мадіа
##паги
сабли
изьі
##сеа
десно
##лыга
тиме
##баеть
всѧкѹ
высе
Помо
Постав
сыт
разболѣ
а҆л
##верже
тогоже
##кыми
полонени
имꙗ
и҅сп
сѣдѣти
сладо
переу
переми
сьбра
лесом
##ствена
свѣдѣтель
лап
писаніи
поклоны
пуще
животе
животомъ
сꙋда
сотворил
семену
чюжо
##детсѧ
##лнице
##лници
женского
трудъ
словесꙑ
словесѣхъ
лукь
##лемо
Приказа
сѫшта
добрыя
покоити
трем
подать
##ꙁъва
немно
чистота
монастырѣ
ближь
близо
слн
побѣду
##фила
доухъ
пожалу
правовѣр
##иметъ
огня
достоит
татаръ
поганыхъ
донде
Божиимъ
Хоро
вѣчныѧ
##десѧте
силнаго
лошадеи
божиꙗ
плѣнъ
царие
Бес
целовать
крѣпостію
крыл
патриарху
владыцѣ
обоих
андрю
промежь
неправда
Многы
числомъ
съвръши
мрамо
небесных
убытка
достало
##нїа
другии
росчету
##деснꙋю
прелща
крепко
начелѣ
ѡбрѧщеши
Печат
вѡи
игуменов
стерлядеи
а҆нтѡ
новегороде
зовутъ
прелести
вѣньць
І҆и҃
зракъ
приданые
живѧше
оттоле
Новагорода
Дне
Иду
Ибѡ
Свои
Твое
аро
вступа
гло
грꙋ
кс
смысли
уречен
яр
ѡскѹ
ꙁдѣ
ꙋро
##еше
##мла
##уѕ
##снымъ
##г҇
##дрѧ
##юде
##ѫщіи
##йта
##стр
порѣ
насе
##лар
##новым
##ропу
##рици
воѡ
воню
вольно
прира
примо
прижи
##кима
могла
моемоу
зага
оуно
оусь
оудержа
проте
промꙑ
##чиноу
кану
##чатом
решет
є҆леи
##рый
вась
вашу
роса
маа
самоу
изведе
вѣтри
##щисѧ
##нѧтръ
всѧкꙋ
прѣѧ
разда
лѣп
мети
ѡ҆л
##тѣй
ᲂу҆ничи
страсто
подня
##дѧхѹ
##праз
сколь
всѣко
отъпа
##словѣ
плачем
обна
възне
красти
лежитъ
гладомъ
полза
коробе
Въста
какіе
благопо
тъчь҆
##нѡвы
писаны
путем
велі
кнѧѕ
##дитися
противи
раꙁдрѣ
приидеть
рꙋко
радова
покаме
пꙋтехъ
##ровла
берегли
##бѧть
громъ
наказаніи
правою
Тѣмꙿже
кладет
вашей
соломонъ
писмень
##ниѥмъ
##шꙋю
старци
житію
рекоха
кыева
гьі
собоѫ
начнеши
таинъ
серебрѧ
желаю
распра
служба
пребываеть
плѣнен
##ꙁѣмъ
конюх
##правит
##слуша
первому
єгоже
наказу
пустошеи
##ю҆ще
твердь
колѣноу
побежа
ѹ҆мре
прекрасный
русских
агглъ
судьи
малымъ
постиже
македон
берен
слѹжбѹ
кѹпно
припада
двд҃ви
поминати
сохранитъ
болгариа
Богородице
впаде
ѡбаче
пещеры
бж҃ию
странах
насади
і҆акѡвꙋ
сказывают
блуда
вѧчеславъ
пагꙋбꙋ
спасеніѧ
церквей
а҆лексан
Мен
Отецъ
Сему
Яз
ву
дхо
елма
зго
клика
оцъ
плес
плеть
пеня
срѧ
снове
шꙋ
єще
ірмо
ѻще
ҁ҃
ꙁлы
##теть
##нкь
##нема
##ченье
##бски
##йти
##ѭща
##ємь
попере
попира
нашли
прм
##лиса
##лобли
нечест
##ваны
##даво
токо
##тьа
въво
востав
востры
##емсѧ
##мите
дочер
прилу
моі
мосту
моленіе
##ше҇
оуени
оумножи
оутробѣ
##бора
##чивати
##нъи
##жиша
отказа
сине
##чане
##стори
є҆юже
роко
ману
##мѣмъ
вири
бранити
питѣ
дѣвъ
##быт
Пора
бѣд
будем
мешко
ѡ҆деснꙋю
И҆з
##кѡв
кунѣ
##стъв
чинит
##цьть
и҅цѣ
ловы
сьмрь
краля
сѹхо
моиси
рѣ҇
##ноуть
людиѥ
писаніѧ
тѧг
бл҃г
б҃жи
ꙁапрѣ
гал
никоторо
Ново
версту
Дону
и҆зваѧ
пѧтокъ
##витисѧ
пѣши
слышах
вꙑѥ
радосте
тяго
хрсь
державы
наказания
Тая
образомъ
ль҆
въсѣхъ
##клонь
высокие
пѹс҃
дрѹжи
дроугы
писцы
Резан
володимерѧ
починок
і҆ꙋдинъ
тѣлом
дьячь
служилым
донскихъ
федорова
Хощу
познали
повѣждь
искалъ
начꙙ
мꙑсль
подвиг
напоконь
шестьдесѧтъ
##000
емлю
птицу
н҄е
истинна
белого
комѹждо
##щениа
полатѣ
возможеши
молѧсѧ
діаволь
духовным
Суть
достоя
пль҆
худѣ
повете
и҆маши
сонмѡмъ
младенецъ
орду
глагол҄етъ
тяглым
ивановичь
третіе
третіѧ
повелитъ
возлюбленнаго
возлюбленная
дщереи
ѻ҆троча
пріѧти
прѣстолѣ
тобоѫ
ѡбрѧщете
сотона
витезь
сибирь
внꙋтрь
чоловекъ
внезапу
печерѣ
мѧтежь
Карпъ
превозноси
##леѯандръ
Поклонъ
##смотрел
пагѹбѹ
глщ҃е
множицею
80
Аꙁь
Дроу
Сра
Тем
абꙑ
вновь
вкоупѣ
орѹ
огоро
останеть
шко
ѧлъ
##тные
##ахъ
##нковъ
##нскую
##цꙙ
##ѹмно
##кію
##бнаа
##жбе
##ѫѭ
потя
неь
небє
##реван
въе
дает
долѣ
вскꙋю
##шагѡ
нищет
##поле
оубили
##рѣза
каꙁа
съд
бывал
##санъ
сиѫ
милый
##ръи
##скѡ
ногоу
пах
##рушко
роту
ман
##бѣли
ликъ
жилъ
##мех
##сътвори
дѣдъ
выси
Далее
##ция
возмѣ
##оубо
##скава
прѣти
прѣдѣ
##жьства
##мыѧ
месть
межа
ᲂу҆біи
половець
И҆же
і҆ере
##цѣми
подроб
безь
##моуи
бꙑшꙙ
рѣво
##аком
##хия
всякую
враг
ꙁаповѣда
двана
верста
имѣютъ
плото
царские
кимь
бл҃гочести
слѹг
печал
книжь
пришель
##телное
державу
##ницами
Сина
крѣпъ
бъра
##жениа
##гьмь
молвити
##ствуя
Прочее
вь҆си
спосо
сродни
боярского
самих
є҆динꙋ
є҆динѣмъ
нарекъ
казака
свободны
старцу
въселен
архистрати
вышелъ
зълы
н҄емъ
тысячи
видев
ключник
пр҇р
васильє
##тръпѣ
поклонися
поношение
изыти
##нимать
лежаща
є҆гѵптѧ
приноша
украси
скверны
наместни
даваите
повелеша
престани
грамотку
##скѫѫ
прилѣпи
Дружнев
леѵіи
оубіи
сосꙋдъ
вопче
вопрошати
дерево
храминѣ
##смотрить
ничьто
##гнꙋти
запечата
снве
авраама
влд҃ка
фіні
семѣна
возненавидѣ
дрѹгѹю
Полканъ
млтвами
государыня
Радуйся
жаловальнои
ꙗзикъ
Б҃ъ
є҆ліссеи
доньдеже
50
Ажь
Бꙋ
Иере
Лях
Оку
Ск
Слꙑ
Чего
исков
оха
пени
снѹ
трь҆
ут
уга
яку
яров
ѡва
ѹлици
҆мь
##ос
##рство
##вію
##ндо
##меніе
##идет
##слю
##сныѧ
##свои
##пку
##пцы
##іем
##дї
##ѫти
##҄ѫ
##ѕе
поде
побь
поника
почки
##волѹ
##голь
##тиши
##точки
точью
въсоу
дающе
замъ
ничимъ
##лъся
промол
##стаа
##нъка
##къла
##къва
##била
сидить
##жаемъ
ножа
посѹ
вашымъ
родна
ходите
##пари
##павши
лицы
##дьян
##лѧх
##няется
великѫ
градом
пиши
дѣва
##дывал
##жьнъ
##мыми
ѡ҆прѣсно
И҆ли
нѣси
нѣмец
покꙋ
##г҃же
мѣт
странѫ
подсы
чадь
княжа
платеи
въздати
ѻ҆б
твоеѫ
волостей
какїе
трии
благоꙋ
##цовы
всякаго
животворя
кроволи
дидьян
времꙗ
бж҃іа
николꙑ
въꙁбра
въꙁможе
началѣ
##евѹ
рѹс҃
чернь
черное
бл҃гочин
печатати
блажены
##страш
Господеви
##телно
держал
наказавъ
ꙁемле
добрая
монастырю
ближе
любили
##ющая
с҃тыхъ
пожаръ
пригожа
ѡбразъ
Добрыне
толкова
##стꙋпити
беꙁоу
##връже
##шкова
строки
члк҃
гулять
полутреть
терен
невѣрь
татары
Вьꙁ
имели
праведного
Хочет
стѣнѣ
тысѧща
срама
желаемъ
царствомъ
столпа
Михаи
всемл҇
повадно
##ливая
грѣшны
стрѣлами
хищ
сударь
женой
обае
стольний
белодубо
##ѳии
патриарших
творꙗ
початое
медвед
трѣбѣ
скинію
божествены
пльсков
гнев
воздаваи
православным
слив
Є҆да
Є҆вр
потребы
рабынь
даваны
воспла
государстве
змеены
прѣстола
недрѹ
беглые
уличат
смольньску
хмелю
Филипъ
тобоѭ
капѹстѹ
идуща
окладов
наꙋчи
достиг
большое
чюжево
отечество
сундуке
погибнетъ
стряпчих
шеломꙑ
съблазни
нарич
нижнеи
случилося
локот
збежат
езеро
гостех
повинѹи
Никулична
Холопье
абїе
яички
черенков
оговорных
окаянная
Сокольни
хмелново
маменька
поднебесью
сыщетца
мꙋжємъ
раздольице
хрстїѧнїнѹ
хрстіѧнінѹ
Ермак
создати
І҆и҃съ
Ляхет
яровчаты
tех
Бъ
Гда
Стои
Ц҃
ать
аси
бри
брь
лсти
мрь҆
овѣ
удиви
цы
цену
чрь
чꙿто
яго
єи
##шника
##мке
##ѧхꙋ
##ѫщаго
##҄ꙋ
покоу
##вомꙋ
##лоби
##ласъ
##нины
топере
толма
косма
волѣ
прискочи
##дони
соме
ништ
##льные
оузе
##стиша
съпроти
съдѣла
##дѣлати
##лѣеть
отчине
##бины
сидя
бесо
мире
##цаи
##жахъ
тече
ношаше
послови
##панъ
##щается
##дьрь
житья
виру
винѹ
##баръ
возвѣща
возліѧ
рукъ
##шью
прѣди
лѣстви
положенъ
нѣмъ
иметъ
подки
црское
лому
чадом
Богомъ
платья
ѻ҆бо
моисеѧ
рѣх
рѣше
королей
дуба
о҅стави
дивлю
кнѧзеи
никомꙋ
##кꙑми
держить
святая
воиску
взяша
Приво
##гелии
пѣшь
##ющимь
берегъ
дꙋна
##вшемꙋ
##шениа
##тварь
поставил
шиж
шири
образы
##х҃ъ
##и҅те
##штеть
боудѣть
грамотах
зелья
середу
ю҆но
невѣжда
рекоста
наказыва
дьяка
ненаде
Хоть
познати
собора
матфе
жаловать
красная
Роз
Рома
божиею
жалости
покрыти
целованью
напишите
##езжали
поклонисѧ
Прѣму
приемлетъ
сирота
порѹга
клѧтвою
карабль
нечистъ
##ленья
прежние
епп
въсходѧ
живеть
ѡчима
мстиславу
пострадати
воздвиза
наставлѧ
возопиша
неволю
хотелъ
##ѳеа
творяще
хрестьян
принесет
ростовъ
ростову
##думал
а҆арѡнꙋ
прельща
и҆сходѧ
пеаль
шеломы
борана
съмръти
дерзновеніе
ѧ҆зыкъ
держишь
а҆рхіере
грѣхѡвъ
дрꙋгꙋю
дръꙁнов
подивися
испьса
послушество
серебреные
нельзя
и҆скрен
tехt
а҇
асо
гѣ
с҄ь
узда
уяз
щѣше
яе
##оже
##тнаго
##ец
##рш
##рского
##нци
##нтина
##лнь
##кги
##крꙑ
##стрꙋ
##ковѣ
##гора
##тишь
##лопо
##ломѹ
##ровати
##ванꙋ
##нишь
толка
##дита
##дивше
водь
прися
пристѫ
##теку
солъ
соѳь
оумира
рабь
расыпа
прова
вежь
ведати
##стислав
##стиꙗ҅
касати
съезжа
събер
отцю
ножь
паметь
рово
изб
##мею
тим
##нѧмъ
выне
выбира
##гию
возмеши
##сками
рук
руша
##н҃и
ꙗ҆зва
медѹ
половь
##кѡмь
нѣщо
мѣхи
страхь
##гуть
##емь҆
##зоре
глад
латын
поите
бьетъ
вратом
бл҃гихъ
словомь
царьство
##ц҃ь
творимъ
ѡбро
ѡбетша
въꙁи
##триар
Кога
воину
пѣ҇
радостно
скѵ
учините
##ченію
смрти
ꙁемль
ст҃опо
##выих
домовъ
Соба
бѧшеть
Сътвори
##теры
спору
сподоб
народу
высоту
аггели
тꙋкъ
михаиль
просили
Видя
третью
хотѣше
слꙋчи
древомъ
дръжѫ
праведнымъ
имянемъ
познаша
повинова
обрѣза
грѧдѫ
проклина
вѣдаꙗ
слѣпъ
четыреста
##блѫ
согрѣшеніи
пожже
совершена
виделъ
мудрости
поклониша
городовую
юноше
плечо
мужемъ
златовер
##ч҃а
гръчь
свад
о҃тца
богатырскую
ѡвощь
##ложение
ведает
събравъ
клепати
весма
сапогъ
птицамъ
ᲂу҆годно
затвориша
совершивъ
Архиеписко
знамениѥ
заблꙋ
асѣнъ
Дмитри
с҃тго
҂а҃
сахарные
діакѡн
поцелова
никътоже
цсрѧ
беззакѡніѧ
Ихъ
Крѣ
Оли
Оть
взь
глъ
дхомь
емо
збира
мч҃
оа
одрѣ
пꙑта
сходи
усп
утаи
угле
хсья
юдо
ямы
ємꙋ
ѡмь
ѧꙁы
ѹстъ
҅и
ꙁми
ꙁбав
##хлен
##вето
##нѥ
##нфи
##млени
##сную
##пⸯ
##пета
##чіѧ
##юштю
##зду
##ѩи
поблю
##гохъ
прве
##ноѫ
##ноте
нече
##вался
##ету
##рините
##дира
##тьꙗ
и҆мена
##вимо
довь
догада
приемъ
пристро
богѡвъ
зати
зажь
загра
содом
##льць
##помина
оустави
прощеніе
вери
века
съсѹ
бывати
##сать
##лѣѧ
##мью
##стоꙗ
творю
##скврь
##бѣи
лишити
сата
самѣхъ
саженеи
изⸯ
извет
вѣс
вѣстъ
делъ
виною
старица
тите
дѣца
выбе
Пода
столомъ
бѣжати
тыѧ
пра҆
прѣчи
прѣбьі
##еномъ
ѡ҆бо
ᲂу҆мол
нѣка
і҆дꙋ
тури
ловити
сѣлъ
сѣдали
Боль
славоу
бисер
##кехъ
възвѣсти
възложити
мужю
ѻ҆ни
ѻ҆бѣ
перстъ
первый
##дних
##хии
тѧжѣ
блгѡ
сꙋщіи
въꙁдви
##нии҅мъ
Дома
##нѫвъ
кормы
##итеся
лучи
луку
киевѣ
млстию
д҃ша
слышат
блажени
дъмъка
Мати
##тьею
подаетъ
##вших
Така
гл҇а
дрꙋгіи
##сꙋтъ
Прода
помилуй
##шкин
работꙋ
больших
высоты
дрѹгы
принесъ
противень
рекли
рекши
гусли
свободне
чловѣчь҆
##дѡвы
##лками
смирѧ
житїи
торгов
##нномꙋ
поповъ
имешь
дьяков
имѧше
срещу
бесѣдѹ
можем
божие
изѧслав҃
##брѣтъ
мнть
присланы
помагати
пошлют
##щением
ѿвѣщаи
##десятъ
юношей
діавола
Было
медве
епс҃
возрасте
двух
праведъ
возвратитсѧ
сь҆мрь҆
собаку
судья
захарии
наместников
##сыпать
православную
павлꙋ
бжтвнаа
пустите
Адаровичь
бꙋдꙋт
дщере
##шнего
##нїем
внукъ
недлю
чꙋдеса
прилѣжно
покаѧніе
ростова
велицѣи
городищ
странных
племянников
желва
въстока
и҆стинꙋ
агг҃ль
фараѡнꙋ
дядю
годину
котла
свидѣтельство
чл҃вѣкъ
і҆ѻрданъ
возмуть
ѻ҆рꙋж
чародѣи
въкоупѣ
богдан
погнаша
знаменье
Давидъ
февраля
навꙋходоносоръ
Милитриса
вѣкошь
срь҆дь҆
апреля
ιз
Авра
Слѹ
Хѹ
ебе
ож
пси
пенѧ
тлъ
успе
устреми
хет
імя
ѹми
ѿѥ
ѿнѫ
##хію
##ат
##евом
##вной
##вїи
##цен
##лте
##пк
##іѡ
##дʼ
##чника
##чнымъ
##яго
##яны
##щема
##зди
##꙯ъ
постити
##рака
##лалъ
нечего
##ростію
##вайте
##карь
##тань
##дере
##шав
сек
серо
седѣ
сестори
##вѣка
нижь
ницъ
оулити
##шиихъ
съꙁа
##чекъ
##мую
##хото
люты
людомъ
ревни
ногы
пасту
ротъ
сало
##без
изв
##сея
##щинъ
##баѧ
питьи
дѣльма
печень
воззва
Позна
##сьі
##оугодно
таковыхъ
бѣста
нѣкаѧ
мѣдь
##зыде
безмол
##бьѧ
възви
##мерь
ѻ҆де
исхи
есифа
сѹдовъ
крещение
видѣста
мыты
мышь
писанію
пустити
животу
кровавъ
продаѥть
молимъ
женка
##ложиша
въꙁдра
имѣеши
и҆зби
и҆згна
##зеши
раꙁбои
раꙁꙋмѣ
царствия
нашие
##щенію
Прине
##гела
рꙋси
сн҃овъ
сѫщ
сѫщоу
потопъ
Марин
##ющии
береж
концы
кꙋмі
держав
гордостию
Ради
чистою
неподви
молвить
купчие
записки
Солны
свѧтъ
Влади
милостивъ
Съи
##клонити
##чению
срочные
высокъ
велела
казен
деревне
торговать
племяни
блюдо
поганꙑи
пѧтьна
Хотѣ
л҃кь
##кѫдоу
моужа
труда
труба
правилом
грѣшныи
кормили
##ченое
##сльі
пропове
бц҃ю
ꙁлобы
икона
послушавъ
##нꙑимь
мъногꙑ
неправдою
богатырская
челобитным
съкръ
дрьжи
##вливати
черезъ
дѣтем
прочими
глюще
бжтвныи
болѧръ
исходѣ
играти
##т҇ь
убытков
девиц
полꙋчи
послѹшаите
говоря
послѣднемъ
старине
е҅у
званъ
възъми
сокрꙋши
старинных
порꙋга
самодержецъ
жертвы
сибири
владꙑцѣ
заемных
инѣми
прикладывати
узрит
задницю
истерѧлъ
померли
ѧ҅же
разграб
аѳон
блг҃ослов
є҄си
лутче
множьства
захарьѧ
хртіане
сторонних
ѡ҆брѣтохъ
Михайлу
анѳупатъ
Ию
Лева
Пꙋ
Сми
Чему
еби
згово
ижь
илько
идѣте
ксино
осѣ
олисьеви
сене
сцовых
цеме
шля
ънфи
ѧриль
ѧбьтьникъ
Ѹ҆
ѿца
ѿпусти
ѿѧли
ꙋслыша
ꙑваномъ
##ови
##шники
##ннои
##ндар
##сци
##дреи
##яу
##яет
##їхъ
##ѯсиму
##ёй
похи
пожен
поволо
пожени
позѧ
покупати
поволно
##говале
назо
прлож
##мътрити
##вахъ
##дають
тоѫ
##тьство
въше
въплъ
даяти
вохи
жело
и҆детъ
##вины
дода
##тавимо
пример
приспе
придала
прислꙑ
##тък
##тъва
гориго
нинѧ
##льемъ
оустъ
оутрѣ
оудобь
везю
##стили
##рѣь
##сице
камѣ
какимъ
##дѣа
##дѣтѣ
##кънчалъ
оттуда
##сѧте
сидити
ситце
##ениа
бешть
миѯсиму
преб
посени
хоц
##дъкъ
кърините
либинѫ
садил
изви
измену
чел
чеда
вѣдома
вѣдуще
##седри
##дьё
виры
вином
##сотъ
велишь
градѹ
питати
выбо
печя
свои҅мъ
таковым
рудаво
будёт
прасъла
прѣлага
прѣбла
##жьствѣ
грици
ꙗкову
ѡ҆бѧ
половъи
нѣкъ
Недо
безⸯ
судит
свбонь
##пракси
славъ
сладости
перес
пересме
сьмъка
бири
възлюблен
мура
Наи
полне
полскому
мѧтлѧ
коровъ
кресты
поихали
которымъ
тък
##цове
представ
##скыихъ
врагѡвъ
бл҃женъ
кровать
##тврь҆
мъѥи
гавъко
Калину
знаѥмо
ѡблѣ
верховь
человеко
тьше
имѣниꙗ
потрѧ
##тельно
рыбе
рыбъ
пріидохъ
своѥгъ
пѣтьѧ
смолови
целу
дъкънчалъ
дꙋхомъ
гордость
неисправ
подарочки
церквы
стороговале
наказалъ
чистоты
бър
домагости
##рѡкъ
долженъ
шатри
запишет
помирятся
Пакꙑ
онание
льсть
зоро
бѫдеши
большего
разумь
братилови
высотꙋ
уомило
дрѹг
члкꙋ
нареко
##рѫсе
##воую
людьславъ
маркь
матее
третьих
третьюю
мѡѵ
##ꙁьі
исправꙑ
золоту
##шеньку
порожне
стоику
стоике
стоикомъ
попоу
##жом
поганыих
бесѣда
такъже
Издоли
прпбне
влч
напоити
мниши
правищи
плъскове
посоли
спиро
##женым
цьтъ
прьвое
почесь
##боудоу
кꙑмо
кꙑѥва
пришедши
рѫти
##ѳоноте
могут
завидꙋ
желѣза
присъле
присъте
васильви
брезѣ
колобью
возможетъ
наина
поимается
ѳ҃і
поедем
циха
челобитчиков
намово
ѡвсомъ
петръво
божеꙗ
Бате
еп҃
ръже
русские
гнеѥ
смертнаго
ростихѫ
вечерни
възѧша
кънѧжъ
кънѧгꙑни
чоты
помолисѧ
замки
игнату
иого
##хваста
исходя
Михайлович
ереси
полотна
поминала
ѡ҆ставиша
пакостил
Соловь
маслом
околничим
изготов
росмътрити
записаны
крестиян
лꙋкавое
гостѧтꙑ
торопь
претвори
сукне
вьсемь
зерца
земльныихъ
недѹга
лавке
накладꙑ
въстокъ
большого
азова
деревѧ
фарисѣи
измакле
умреть
поцнешь
смирного
рауи
дубовые
гордынею
столникъ
цюле
аноѳи
найми
фипе
имоуть
сочкꙑми
съводꙑ
розобь
наимита
срцето
прелюбоде
будьть
ѡсотавимо
млстнею
с҃тхъ
мородоки
мѧтьле
светыи
пригвоз
испеки
ѡлькса
свъѧ
сороцицю
требуетъ
гостемъ
къснѧти
коегождо
забꙑле
новъгородьци
сꙋббѡты
Тимофеевич
пустых
хься
неправьды
стрелочка
тюрем
носъка
премоуд
Алексея
жизномира
попецалуѥте
монисто
ризьи
лазъвке
лазъвкъмъ
цереленаѧ
ностасии
ностасьи
пешеница
пешеници
витязи
нитокѫ
мнъю
зятя
присолеши
паулъ
клуцка
аесово
переѧславь
занода
съдаѧли
ꙑгнату
попецѧли
дроцили
городищѧньх
Ильмень
вашои
##стѧнтинъ
малѫю
голубꙑи
вънѹкъ
Морской
і҆еріхѡ
Кудреван
ростѧга
Гудимирович
небогатое
ꙋведаю
вꙑѥхати
бъратьи
поникаропу
медведна
пльсковѫ
сомеци
шижнѧнъ
ебехото
ѿѥзде
Левани
ксиноѳоноте
ънфиму
позѧбла
горигори
везюте
братиловиць
уомилоседри
Ии
ала
дꙑ
дров
ещо
зено
инѡ
иере
ох
пто
ремен
сня
тка
ісъ
ѥмъ
ѿѧ
҆а҆
##шмъ
##рго
##рков
##лмь
##куды
##ѧще
##ꙗкоже
##дво
##дїе
нане
прлага
##лия
##раго
нефѳа
##росъ
копы
воемъ
##нынѣ
доно
дошедше
прику
##доль
##дешъ
завер
зазо
своѩ
оутро
прочет
съвер
##жили
##ньныи
##ганы
люблю
беды
ноз
пам
прево
преврати
престꙋп
препрово
прежней
рова
робѣ
родоу
хоуды
мас
вѣтры
##хари
житьи
статеи
царъ
пифи
пишеть
вынꙋ
печѧ
Пока
стоа
такомъ
##чьи
прахъ
прѣвъ
##жьна
##сѣмь
нѣции
і҆е҆
името
чисте
безче
супоста
ложное
скочи
отъврь
##слова
##дꙋт
бꙑли
Гово
дунаи
поклона
блудъ
иванови
чюд
любодѣи
женскому
ѡбрѹ
##стром
##вѧзано
болна
##ніка
##ждает
лукъ
млти
смолен
##фанъ
добрыѧ
##деръ
злобы
##ангели
написал
любимая
##емати
##реніа
ст҃ыꙗ
свѧтое
помилуи
богом
внидеши
хощѹ
правого
боярскіе
принесо
казнѣ
##четсѧ
казаковъ
Вышь
славном
##ванїе
языкомъ
хотѣаше
золочены
оучит
будутъ
мл҃и
нетлѣн
средѹ
стѣи
красные
крѣпка
грѧди
правиле
спитъ
похвалу
московским
отьца
прѣдастъ
сокрѹ
съгрѣшен
стоѧше
сирома
разорити
ꙁлата
пльти
намѣсть
дьньсь
тяглые
сенных
приеж
разꙋмѣти
жеребца
острове
чꙋжди
цѣсара
бобыль
##скѫѧ
зуб
страхъмь
християнскую
преиспо
дверіи
дѣиство
сходити
соломѡнꙋ
пр҇рока
крепки
влдко
озере
ѡбрѧщет
Кромѣ
ищешь
ц҃ркви
ангелъ
лодью
Богови
оупоко
віноградъ
єдиного
правьдьнааго
выведуть
съмръть
никифо
спроста
атамана
вєси
могох
древеса
Литовскую
иволтъ
призвати
Иеросали
соберꙋ
і҆еровоа
ѕвѣріе
впервые
саблями
Іѡ
Ара
Бли
Виде
Ерку
Кде
Фо
аско
блоу
вѫ
втор
жꙁнь
зговори
лжѹ
омра
сну
хви
ѡпѧт
ѥꙗ
ꙁда
##ндеже
##ѹи
##лты
##сным
##птѣ
##ггль
##҆де
##жіа
##ѯъ
почю
##енꙿ
##ноѥ҆
некако
недобро
##ваючи
##ребра
въло
даѧти
колом
##мию
##тах
причести
##дохом
##лечи
##шается
##модемь
##нескъ
зака
затова
захвати
закри
себъ
сосе
сопротив
##въно
оуклони
раꙁа
##шивъ
прот
##рьѧ
##рьци
##нъмъ
##къве
отго
отци
##нудь
##пии
преч
преве
пресѣ
##дъть
листе
литовъ
литву
извѣсти
вѣдѧ
##седе
##хала
##щия
##мелъ
##сою
##нѧꙗ
пиры
пирова
своее
вытти
выходит
добрѡ
##тык
##быти
Пол
Поръ
Пошла
бѣре
##чьки
правое
##ряй
разру
разрꙋ
гридню
меды
меѳо
котории
имꙑ
инокъ
безна
и҅сповѣда
сули
судо
всѣмь
перемени
въздъх
крае
госпождѫ
рѣп
первыхъ
едином
видѣли
благодар
тъчь
врат
вразѹ
животно
##твет
бур
ꙁавѣ
темнице
въꙁврат
имѣꙗ
имѣаше
раꙁрѣ
нашихь
рѹб
рыка
спѹ
сн҃ы
ѥ҅дно
Мама
пꙋт
берегу
конных
чл҃ки
запасов
требѣ
монастырей
градꙿ
послед
гнѣвѣ
мнѡѕѣ
милостивая
##ющаꙗ
братиѧ
сорома
сказат
пѹстыню
##нꙿны
просил
чловѣци
третьего
вашими
имерек
племе
вьсею
варлама
ненадоб
срацы
жалованьемъ
Иванов
подобнѣ
стояще
июда
июнѧ
зълѣ
птицъ
родителеи
многымъ
##женаго
дворецкои
половцѣ
чресъ
Прѣжде
нун
ѡбѣма
имену
##дрьж
дѹб
королеви
съкров
ведают
ѡ҆бразъ
дрьзнов
наместник
бьіва
клеве
лихоим
невидимъ
кѹплѧ
толицѣ
Михайловича
властелин
здѣлать
заплатит
батюшку
потече
колеса
въздасть
погубит
с҃тополкъ
грѹбъ
Троица
пасхꙋ
ничесоже
мурзамъ
девке
дьржа
умилися
заблу
жезломъ
многоцѣн
олтарь
Федора
божьствныи
коснѧти
спсеніе
возненавидит
головника
въпрос
Анто
Иосифа
кльнѣте
киноварью
крщ҃нье
пятнатцать
Саваофа
кладенецъ
поместьем
Ор
Чере
Это
ан҃
дна
днии
длин
езы
еству
иі
опѧ
пп
пшена
сму
скъ
уря
уклони
х҇а
шоу
явити
іли
їс
ѡх
ѡли
ѧдо
ѳра
ѹча
##вча
##вная
##мне
##ꙁнъ
##лзѣ
##дш
##чѫ
##чне
##бени
##ρι
##ѫѫ
##зѡ
##εν
##стнаѧ
поше
##госпо
наез
нехо
некое
##етсꙗ
##натъ
##риса
воевѡ
##мин
##тают
болъга
мошти
заꙗ
госп
соб
нивъ
никѹ
оувы
ранами
проиде
весъ
##стаѧ
быст
##жив
##жища
##мьрть
такими
лютаго
силоу
##нула
##пиѧ
ноже
номо
ногѹ
ногꙋ
павъ
пресели
пресвя
матъ
мамка
вить
тиоу
всѧче
многꙋ
добрѣи
Даи
##ците
Полов
бѣгати
##ляется
разжи
разсы
а҆си
тогож
полоць
мѣри
двори
скоморо
каковы
ѻ҆но
ѻ҆стро
сѹщи
рѣхомъ
персемъ
##хими
мыто
предлага
басара
имъже
##прова
гсдь
царьского
##мяни
никое
##кꙑи
ѡбер
и҆зліѧ
арха
сквьр
покажеть
христе
Марья
учитель
гордости
великагѡ
##выим
молва
Сол
вь҆са
больныхъ
разумом
весело
никаких
##леныи
свободы
святынею
приказыва
накажетъ
дьявола
варламъ
конихъ
собрав
##ѭ҄тъ
красны
распу
оставит
##бѹдет
цьркъ
прьвы
##ꙁомъ
нѹжи
могуть
рассыпа
дв҃дꙋ
##нтий
изоѡби
##скꙑꙗ
миренъ
лꙋч
діаволъ
плечи
клѧтсѧ
погꙋбитъ
камением
обычай
заповѣдаю
блаженꙑи
архиереи
Иорда
Гали
поѧса
приꙗша
телеснѹю
прчстыѧ
гаврила
соблюлъ
другий
и҆мѣніѧ
жеребец
татбе
недостоинаго
безаконь
вниманіемъ
боꙗре
срамоты
вкупе
бл҃женнаго
злыхъ
блг҇венъ
постелю
днѣпра
доконча
бесплъть
известно
совокуп
столовую
и҆стины
Рѣша
смотрит
костантина
безбожныи
спорных
другыя
кровію
паѵелъ
цветное
Подобает
трѧпе
ѿмщеніе
дх҃овномѹ
##чищать
лѣность
гнило
корниліе
стяжа
пещера
а҆вессалѡ
вборзѣ
Единъ
Сп
Ще
Язъ
дени
дят
екто
иу
ищу
кіе
осѹ
сс
свь
слѧ
укори
іере
Ѡб
ѡдержи
Ꙁде
##тение
##врь҆
##нв
##мль
##иство
##лчи
##ьно
##крь
##҃с
##ѳы
##ꙑхъ
##чето
##яла
##жяти
##стсѧ
##стрети
помъ
##ковича
##голо
##тиваго
##лища
##ливать
несто
##ниди
тобя
и҆дите
##ныне
досп
прико
##деще
боть
##монь
##те҇
##тере
мокрѣ
##шево
##нешъ
соꙁда
ниѥ
рало
рамѣ
просыпа
##рьца
##жинѹ
##ческомѹ
##лѣвъ
##нѣше
синаи
носа
новымъ
маџ
малꙑ
лиц
изла
вѣкьі
##хат
живь
бранит
##цеѫ
множа
выла
выкупа
возгре
такою
бѣдѹ
##скано
##сказа
##шься
развер
разсмотр
межах
##верь
ѡ҆с
Несъ
кури
государи
страница
подвод
црт
скоръ
бг҃у
##рꙋтъ
##дꙋш
краса
ѻ҆вна
главе
полскихъ
лакомъ
королемъ
##нꙑмь
##тчие
враты
блг҃
кротъкъ
##дном
сꙋсе
ныня
храните
вершка
гсдря
имѣюще
##вѧꙁа
вои҅
розные
##дяща
потѡ
рыбѣ
рыбѹ
пѧтни
Пришед
спс҃
томже
##знаѥть
##шъкѡ
сицевыи
неис
податеи
сътворитъ
смета
##рѡви
надвое
домой
##и҅ши
Павла
вь҆сѣхъ
правои
веселии
##штⱕ
высота
младъ
двѡ
врѣмена
подъя
отдаи
обиды
Видите
##виться
свобода
третьем
исправит
##пытати
запр
вьсѣкъ
корабель
племя
##ѳана
обрѣто
##н҄еже
блгсви
честнѣе
въсѫ
##ходѧтъ
вдаша
дворянина
благословения
дв҃ду
##щениꙗ
въсакого
любовью
нужда
слышу
поеду
воскр҇
лежать
##лꙿма
ѡвощи
##честіи
указано
оржа
бывшу
простотѣ
пѫт
востока
здѣлат
островѣ
достал
скорбна
ѹгодника
причастенъ
слъньце
твар
записано
преидоша
утеша
сходен
промышлѧти
латинеского
##свидѣтель
##вⸯше
Ингоре
клевету
а҆гг҃ла
козма
неразѹм
небесьнааго
чистым
начальницы
запечатано
##изво
бꙑвъшоу
ужасе
гюргевъ
добр҄о
ѡлгови
скѹдость
истьцю
парусы
бесъмрь
врачевати
тріехъ
возмꙋтъ
полатахъ
Лазарь
бревна
послѣднѧѧ
Ничтоже
плетью
Азь
Глеб
Идой
Охъ
Спи
Црт҇
ане
анич
еі҃
пете
туды
ѡда
ѡмѣ
ѹчени
ѻ҄
##шемѹ
##рковъ
##міе
##ꙁнов
##снаго
##ѡчи
##ꙗмъ
##двъ
##дмь
##чёт
##οι
##ѫщѫ
##ѥму
поꙁ
помꙑ
побор
пошол
##говѣ
прво
##новыхъ
незако
##вах
тож
##тьць
въго
въобра
даче
дадимъ
дадѹт
воȥ
воры
водоу
восмь
доще
дозо
прить
приступ
прибав
##лео
бочкѹ
##мовѣ
##неви
зама
заказ
свом
##вѣше
годѹ
готов
ниц
оуды
оугри
раская
##мало
кася
##стари
##стань
##сарь
##рьне
##чево
##ньна
##бин
сина
сидят
беи
бедра
##нулся
твоемѹ
тебъ
ножи
нозе
новую
валит
къжьдо
сано
##бели
избꙑ
винѫ
станы
##рѧше
выпе
##гивал
##дывать
Поезжай
Потык
столова
таковая
сынѣхъ
сыщут
руга
##чьть
##енеши
прѣвѣ
##н҃ъ
разлꙋ
медь
ᲂу҆стро
нѣкая
имѫтъ
стражь
подер
##ленія
сугу
горохъ
възвы
въздра
какомъ
послана
##пети
имал
##ствени
латин
волокъ
##химъ
##хивать
единѫ
видѣвь
благое
##тѧтъ
бьде
поклонити
кротокъ
Себе
Касими
погля
златыхъ
верно
Коро
труды
##щенѣ
##щеніемь
Приве
молоко
кисель
скре
торг
крѫ
наказаніемъ
монастыре
приказнои
слѫ
ослыша
головѣ
хоробрую
обыскати
##цкова
Отцу
смѣте
##меньство
творѧща
пригож
ѡбраꙁъ
ѡбразомъ
больша
срод
боярскому
народы
дрѹгꙑ
##леных
язычной
іѡси
##торое
позналъ
вотчинник
##деніа
кн҃зи
постꙑ
приставы
двѣсти
сп҃се
кꙑевѹ
попеченіе
пъл
прѣдасть
феодо
напивалися
сокру
##щениѥ
желѣти
ѡгнѧ
оугодити
молитвь
стии
##емых
надѣла
бц҃ы
юноши
животах
Володи
Володьё
Сухма
иконо
гръь
силушку
новгородьскꙑи
русского
блѹда
ѡ҆брѣтоша
подьячей
хитростию
приставными
носить
троици
наказѹѧ
Бусла
кѹпли
рабыни
исходити
дружинушки
отпустилъ
собери
повыру
слышимъ
копьица
##льевича
месяцъ
отпира
Кур
возложитъ
##далече
ѡтрока
буйной
Берет
погрѣбе
сыскивая
прибѣжище
мастери
тихой
кртсъ
яблони
см҃рт
премудро
премудрости
сохранит
исцово
пьяница
ѥдиного
прибавит
оратая
утверди
мꙋжескъ
мѣсяць
заоутра
заоутрени
табак
табаком
доходы
цр҃ковнаго
печеру
варварꙑ
тотаръ
хс҃ъ
҂аѱ
горюч
Боярин
Обверну
перехожие
меновных
кабалах
вострꙋ
приметы
людіетѣ
і҆ереміи
Володимир
тꙑсѧчь
вводѧи
охотою
животинѹ
тмуторока
евангеліе
ндлю
кнз҃ь
безхитростно
вожжи
нифонтъ
##кѹпихъ
Казначею
Сокольничок
Издолищо
ѡбрѹчи
Касимирович
Сухмантий
Аль
Вре
Дра
Едино
Зло
Мла
Олго
Роу
аве
встав
зрѣти
истъ
инѣмь
мⱕ
нл
рем
рмѣ
тмо
утрен
умом
ѡкра
ѧсть
ѹбѣ
ѿкѹ
ѿпѣ
ꙗвити
##тено
##ас
##ание
##ахꙋ
##шҍ
##ркѹ
##вса
##нк
##нже
##нною
##нское
##ꙿго
##ꙿнѣ
##сн
##ілъ
##дх҃
##ѫщоу
##щіѧ
##стка
помет
##ковы
наска
прт
прмѣ
прїѧ
##лице
нега
некто
##вами
##рикъ
##дики
дашъ
##емле
и҆ліи
дошел
прим
приправо
##лети
##тека
##теча
##шек
##шествѹ
сосѣ
собь
ниꙁ
оупи
распо
##шил
##шиши
прота
##мань
##рѣѧ
##ставь
##рьское
мирѹ
##чаꙗ
є҆ліа
падꙋтъ
прелага
преобра
посемь
малко
##пана
лишит
извѣщати
челя
##щаютъ
житі
##лѧно
великꙋ
грабити
пищꙋ
пишꙋ
вывѣ
##гий
Дария
столом
##дующе
бѣду
##шьли
##жьжи
лѣтѣхъ
меда
месо
а҆вени
ᲂу҆ма
ᲂу҆хо
ᲂу҆сты
ᲂу҆бити
і҆҆
Бовою
переме
##нѹша
каком
летит
доброта
свѣщи
лах
перс
##хиа
видѣсте
людiе
тѧш
о҅чи
о҅бѣ
##вшемъ
чюдес
темници
темницахъ
##тям
храм
ѡбнов
Вода
кормлю
бл҃гопо
бл҃говон
ѥ҅ште
##в҃а
бесчин
скрови
цѣла
##грѣш
##знит
сицеваа
Мое
##фил
дрꙋгь
небесѣ
Събра
здѣлати
сказала
А҆минь
маріа
деревен
полуно
##стѹпати
ю҆ности
##щіисѧ
оучинили
тѣлото
христово
таинѣ
Изнесоша
приятелем
честном
сп҃сати
светлицу
жонки
конюшен
Еруслона
фео
белоя
Листъ
##служи
хрстіа
молитвъ
ѳедоръ
полтиною
надежду
учинили
снѣгъ
молѧще
Тогож
створю
є҆гѵптѣ
послꙋшали
Амиру
клѧтва
опасно
Жела
приношение
совѣту
сонма
пррка
##нь҆ча
Страхъ
снидоша
маика
бл҃гословеніе
квасѹ
Туре
ударить
младень
хꙋба
Иован
слѹжбою
болгарское
рабыне
досада
мыслит
приꙗтъ
телеснаѧ
повелиши
пріѧша
хлебом
свѣтила
мечемь
оц҃ѧ
оученикъ
слꙑшавъше
стѧжаніе
лѹкавъ
млстива
идучи
##гнило
пасха
Азон
неразу
смиреніе
Болгар
вселисѧ
сръд
разѹмомъ
помышляй
Филон
драгими
внꙋтрен
истиньно
чоловека
простирает
бл҃годареніе
прозваша
а҆хаа
приступъ
прозву
гавран
млека
настоѧщаго
стрѣлцовъ
закупъ
ѡ҆крє
жывота
чъто
полѕоу
бонѧкъ
вылѣзуть
покаместа
Половци
Ано
Дꙋ
Жено
Обо
Остави
асто
двъ
дiа
жя
жте
жтіе
збѹдет
иле
мч
оноу
ремь
слива
удоб
учалъ
ѡтчи
ѭже
ѹпо
ꙗвить
##ону
##тго
##рхи
##рения
##кн
##бж
##фы
повет
попроси
навъ
##енку
##енію
##лока
##рана
нег
##томꙋ
##торꙑ
въстави
##жекъ
дават
козни
воѣ
вопль
доби
##таꙗ
прину
прилич
пристꙋпа
присылати
приписка
##лецъ
болъ
болии
##тець
мосѣ
заба
заходи
сева
годе
##весе
совле
созади
##поро
##полъ
##послѣ
оула
оутр
оутрь
оузрѣ
оукро
рац
раки
##шито
ведать
##рѣха
съвьрь
быстро
бышя
оты
отступи
##бицы
сидишь
мила
##жамъ
##жахꙋ
творьць
##пин
преѡбра
малоу
##бѣль
##зани
жидовъ
вини
братомь
##бата
##бары
градоу
возду
Пом
бѣсꙑ
мера
мѣрою
подꙋма
сѣмѡ
переима
##нѹло
възму
исходи
гласом
радитъ
Написа
послахомъ
друзѣ
сѹдитъ
рѣшꙙ
мыло
мышеи
##тровъ
дивна
кнѧзем
сотвористе
царьству
мꙋжи
нашел
молитесѧ
храмы
знаи
тьлѣнь
кормов
имѣния
плодови
##зей
##ніето
молока
пѣніѧ
слышахомъ
скуд
скрьбь
цѣны
Господне
##титися
злобѹ
истиноу
привели
подали
чистотою
спасению
поминковъ
##лꙗше
лѹт
##чении
народомъ
Тѣло
просит
##ствꙋющꙋ
і҆ꙋдꙋ
старцом
##тѹю
##леною
крив
чюдотво
имяше
мл҃твꙋ
##шнимъ
познахъ
бесѣдою
повѣдалъ
григорья
двереи
прпбномѹ
прпбна҇
въслѣ
кнгы
##шѣе
плѣни
жонку
приложить
позно
поздно
избахъ
избавить
пр҇то
учинилося
##ненави
колѣнѣ
дш҃амъ
Видѣв
ѿвѣта
одново
фараѡна
ѿверзе
рыбам
искорени
хлѣбне
Адамъ
негѡже
г҇ь
вѣроваша
варѧгъ
Соломан
девиче
члв҃ка
##ющіисѧ
посул
Слышав
лебедей
спросить
ростовь
полотьскѣ
низко
всадника
хѹдомѹ
вѣроѫ
дорогое
а҆арѡна
многіе
мѣдѧное
##слѹжи
пяту
Творца
Блаженъ
козаки
челѧдь
помышляя
раꙁоумъ
мышца
прѣбꙑва
блаженаго
млстню
накормити
гвоздье
оутѣши
##хматы
мр҃т
болшого
приговор
келарю
полезнаѧ
бл҃горазѹм
трепетъ
Гд҇и
##фрата
подобьно
и҆сче
овамо
смолиньску
цр҇твіе
мониста
въкѹпѣ
гнсимъ
бревен
Единою
возрадовася
Здравству
растерза
волъхвовъ
басараба
Еги
Едно
Ироди
Пут
Свѣт
Твори
вчи
вжи
вене
вновѣ
демь
егѵп
злии
ибѡ
лꙑ
лже
оч
оку
озер
пс
ркъ
уто
усть
управи
шлеи
яса
ѕемлю
ѡправда
ѭ҄
ꙁдра
ꙋлица
##ткы
##рё
##рꙑи
##ꙿныи
##илова
##жн
##жки
##щіа
##ꙋстѣ
##єш
##ꙙшта
##ѱа
##стетъ
##стень
побра
##тиа
##рож
##ромона
##реч
##кана
##дины
##диемъ
дах
коя
коба
ковати
##емꙿ
##вини
##митъ
приѩ
прива
##леп
бочку
мози
замысли
закро
##вѣте
ние
нищь
ништо
##льское
оуди
оуны
оухи
оустраши
рацѣ
расхо
ранее
прозрѣ
##стааго
##стараха
##рьва
стри
##гахъ
##бита
михе
твоѣ
новым
пал
памет
превра
престꙋпи
валъ
роги
марии
##бѣла
сад
вѣритъ
стань
всѧким
##съто
своеѫ
дѣя
дѣй
выру
выехал
воздержи
Пошел
тысе
##шь҆
ꙗ҆ростію
грибы
мелницы
ꙗково
##стът
стражи
безчи
сусе
сѣнеи
часов
горою
обꙑ
##дꙋще
ледни
лещеи
глаза
полна
бꙑс
сѹхи
свѣчи
лако
рѣч
поидꙋ
первие
##ноумоу
##трова
коуна
##сново
врагом
##кьіи
сꙋдіи
нынче
##вшеи
продажу
##кланѧ
человѣкы
кормѧт
имѣниѥ
государевою
и҆зба
болшее
воистинну
трново
потрав
##щенія
пѣвець
##новато
слышалъ
скѫ
цѣща
соует
старостию
нбн
##шенїе
законномѹ
подалъ
##ницам
наказан
наказании
ѡбидѹ
##фова
долгѹ
Владим
Сътвор
##станно
сроком
стыхъ
врѣмен
дрѹгои
аггла
гуля
солод
дроугыи
роусь
славен
гресѣхъ
##дежею
##лагает
делах
травы
отпустити
имярек
корабь
поганого
питиѧ
ѡсми
подвиже
постные
поваровъ
оставить
сіѫ
почесть
приложитъ
вельблю
новокре
родителѧ
родителехъ
согрѣшихъ
пожре
бг҃обоѧзни
инде
виноватого
виноватых
братею
ѳор
сребромъ
бгослов
##вшагѡ
чревѣ
надежда
Прде
готовы
десꙙ
патриархъ
ѿц҃ем
стоѧли
окру
послꙋшаи
наоукъ
наоученъ
наоучиши
приношеніемъ
скипет
авва
вышнѧгѡ
искрь
боиши
ѻ҆гнѧ
бѣлое
полѹчиши
воздвигошасѧ
платитъ
Всѧкъ
воспоми
ѡкор
волостелю
ꙁвѣри
остров
пироговъ
сюда
##єннаѧ
прочти
пріемлю
невесту
посулов
оружия
недостоиныи
записью
наславоу
стѹдомъ
клѣть
оклады
съблюда
любъви
поклепали
дъвѣма
звавыи
тайну
поварне
постели
і҆ꙋдинꙋ
большой
диак
бл҇ви
росходе
перевозы
добродѣтелех
Болгари
Болгарски
годовои
подлинные
бж҇твены
ладономъ
боранъ
купленые
почерк
##вшуся
проклятая
лавках
Ѿвѣщавъ
ѡ҆станокъ
враждѹ
испекѹтъ
излишнее
цс҃рь
##ньѧмъ
ациле
даніилъ
анг҃ла
втораго
тивуни
и҅стинѫ
мздѹ
подмосков
оуслышит
нелзя
ожидаютъ
ѡсетрины
еѵагль
измочено
корчмы
Дмитрей
ѥмлеть
галілеи
прослезися
вседневное
главобо
воистиннꙋ
хр҇тiа
ванды
##ломѹдри
хоудыи
надѣлано
Путяти
Мѧ
Немо
Нн҃ѣ
Хва
Хто
вдѧ
гдь
глемъ
емь
елень
зрети
ижъ
ищꙋ
сʼ
умысли
устрои
утру
уѣз
ѡтира
ѣв
ѹправи
ѻб
##рса
##рдъ
##вє
##вдѣ
##нцѧ
##мію
##ѹрии
##ино
##иломъ
##смя
##свое
##гн
##ѳею
##ꙗхъ
##днꙋ
##днеи
##ⸯше
##бва
##щное
##щють
##зіа
##стꙑи
посила
навѣ
##рапо
##ночки
невели
##ровоу
##вашь
##тонос
##дише
въре
въѡбра
прига
придѫ
прибира
припись
##шаю
моско
##шевѣ
зашел
сош
сошли
##пою
##полы
оуꙁ
оусть
оупла
оулици
ратꙋ
раѕо
веревки
##стимо
каꙁꙋ
съписа
съмр
быль
##лѣше
##лѣние
##лѣꙁе
ст꙯а
отлу
##чато
##чающе
##ръво
творе
##сквръ
норовы
ропта
##вьства
малую
саломъ
сабель
излѣ
##щалъ
дебри
##дьни
житей
вижю
##лугъ
царꙋ
##еньи
##рѧд
##рѧзи
дѣлꙑ
пеѣ
добѹ
Поди
##енои
словен
мечем
тогожде
полонъ
положат
мѣлко
речемъ
чинили
странꙑ
иномѹ
безмѣр
турец
лова
ловлю
##прашати
чаши
всѣгда
отъимати
плать
пламен
обнов
глаголема
каковѹ
грѣсехъ
полꙿ
##ственое
сѹт
поиметъ
благовещен
великог
##тѧные
писаніемь
гсда
##писание
##вшее
б҃и
бут
чюди
любое
продають
мьꙁ
вервь
верху
Дондеже
имѣѫ
учение
самоволь
лубъ
дѣлаючи
кислы
своѥмъ
##новавъ
цр҃кве
бесмер
дъвои
господинов
петри
##грѣвъ
Господню
злобъ
пьсъ
чл҃цехъ
держалъ
горꙑ
чьего
стороже
хотѧща
водахъ
братаничи
побѣды
побѣдити
написалъ
обраꙁоу
непокров
родить
вороты
##шѫѧ
мѫчи
ходили
милостивіи
послуха
зола
ѡбратити
воеводѣ
весел
##чениемъ
дрѹгое
тꙋзи
##рицамъ
глаголаху
зелеи
і҆ꙋдѣ
емоуже
старцов
торговлѧ
##тѹи
##носитъ
оучинит
крилѣ
дръꙁо
##варить
пророци
пророкь
ѕ҃і
вѣчнаго
срамъ
поварѹ
сꙑноу
июлѧ
оставил
##литисѧ
трубы
сп҃сѹ
погоню
грѣшныхъ
морето
всѧкиѧ
новомѹ
жалоба
##брѣсти
никтож
нѹжах
наслѣдити
обере
въскръ
##щихся
##зриши
трꙋда
##неніа
попꙑ
поплати
адам
посѣщаи
обоихъ
челобитчик
поживет
кругъ
Друже
сътворена
победи
достоꙗ
глѧдѧ
проиꙁ
сѣдѧщю
русіи
съкрꙑ
ѳеѡдосиꙗ
Иоаннъ
рꙑбꙑ
весну
хлѣбнои
бѹдѹть
припаде
бꙋдꙋть
острова
прибылью
скорбныхъ
похвалиши
настоꙗ
другия
молебны
##хватил
вдовица
говорю
сходя
Самсо
поспѣло
кꙋпнѡ
##дрыхъ
добродѣтѣли
постриже
исправилъ
старѣй
пьрвое
недѹги
отечества
стефану
бл҇в
приобь
ѡбонѧ
храбрость
скорѣе
є҆фрем
црквата
прелесть
узриши
О҅тъ
намѣстници
ѡ҆брѧщетъ
взимающаго
архіереи
просят
роману
кр҃щ
непрохо
пилатъ
повареннои
ненавидѧщимъ
Исперва
ᲂу҆зритъ
ѡтьць
Такъже
претерпѣ
вѣтренаѧ
анфимъ
оудержавъ
Через
изоѡбилно
16
Ιно
Ева
Ини
Изъ
Кн҃
Оце
Пло
Сѫ
Стрѣ
Тѡ
Яже
б꙯а
дшев
еде
ехи
знило
згнило
ите
инаа
ирти
икрѹ
кҍ
кліа
нхъ
огородѣ
оловени
пꙑ
рҍза
ссѹда
счищать
тщи
удел
устраши
укориз
флѧ
хрѧ
штеи
шлях
эй
эты
яглы
ѕпо
іꙋ
ѡрꙋ
ѡгово
ѡкѹпихъ
Ѥгоже
ѧица
ѩже
ѹсть
ѿима
ѿпѣти
ѿческомѹ
҂м
ꙋчали
##оне
##хр
##тҍ
##тетъ
##рла
##цҍ
##иа
##име
##лн
##кл
##клете
##глѧ
##ѧне
##дрен
##яи
##яі
##ιи
##ιѧ
##жники
##зҍ
##зви
##ⱕтъ
##ҍнѹ
##фре
##їти
##ёлы
##стҍ
покупа
повѧзано
##воѥ
##кович
нап
навоз
пррь
неб
неꙁа
##ронъ
##варѧ
##ванаѧ
##ваёт
##наего
##решь
##кашлѧт
тоью
вълага
вънѧтръ
коемъ
кокаѧ
вони
и҆на
достꙋпи
добав
довҍ
достꙋпа
##таны
призна
приква
прибрано
##дее
##деб
моют
задѣ
залѣ
зань
зазы
завла
заима
задҍ
забѣла
сес
никити
##льею
оузь
оукѹ
оухѹ
оученъ
оувидит
рате
прозѧ
прощение
протвѫ
прокисло
веины
##чиваетъ
##чищено
ками
капу
какѹю
съто
стрѹ
таꙗ
таваръ
отпа
отлучи
белѹ
бедер
##жарит
##люсѧ
тежъ
##рынѧ
ноѕѣ
преступати
посные
робы
рожъ
хохо
хомѹты
мастерь
листье
лиця
саженье
сапаги
издалеча
изжарит
вѣчера
##сеє
вишин
##лѧеть
статя
станица
бражнаѧ
всѧмѹ
пия
своеа
##рѧти
дѣль
многу
выва
высыла
вымѧт
высылати
выскре
выкашлѧт
Далма
##тывал
воздати
возговорит
вьсто
сытити
тына
##чьные
прѣмꙋ
##жью
развра
разволо
лѣсни
а҆к
ᲂу҆бѣ
полоте
чинехъ
чистен
подгре
подклете
безлѣпи
црца
##зьни
перекрѣп
перебрано
перепытати
сьтрѹ
пласти
платен
обни
възвраща
мурав
крат
красть
краити
онто
левой
другыи
ползы
сѹдѣ
сѹмы
сѹдит
сѹдеи
сѹхари
мѧсново
свѣтѹ
свѣжѹю
рѣпа
первагѡ
воложно
вологою
##дѹют
тъво
##слѡ
пуг
бл҃женыи
дина
##славꙋ
вреда
лѣтникъ
служа
слугъ
бѹт
##кладках
храня
ѡблить
римь
жадѣ
началные
гсдрыни
корцы
кортель
братены
воилокъ
##штеин
луна
##гѹтъ
рѹхле
молодꙑ
кишки
кисели
спя
своѥмоу
пѣв
пѣнїи
сморка
бл҃годень
рꙋками
д҃хов
сѫдъ
слѹжит
слѹшает
слѹшкѹ
слѹжокъ
цр҃цѹ
блажено
покаяние
кѹнꙑ
кѹрити
кѹрамъ
кѹтьею
цѣжено
Мар
##веденъ
##лениемь
береженъ
бережене
берегѹтъ
Також
крть
покормить
запасати
горнице
наказано
наказанїи
наказанїемъ
чистотѹ
англ
въдаси
гнѣв
ѡбидимо
##емаа
пожали
послушя
послусех
вниман
пригожают
лѹтчие
##терштеин
ѡбрано
ѡбраꙁь
ѡбразовъ
оконь
стрелил
стрельцов
соромота
срокѹ
боудо
высоцѣ
есмьі
самамѹ
никакой
класть
скормлени
обиходе
солодѹ
солонина
нарек
дроугꙑ
##леныхъ
Выпи
людьѥ
проситъ
полуех
просмѣи
глаголюща
житкаѧ
житницахъ
торговым
##никҍ
скоропис
##леной
Вься
морем
попоны
останет
чюдотворь
естве
свекол
Латы
пророцех
федота
##денїѧ
денегь
приятъ
кн҃ѧ
серебрено
поварьне
влдка
грѧткамъ
посохомъ
пребывание
порас
##женых
светлу
морсѹ
памѧтѹи
согрѣи
согрѣшенїи
конюшнѧх
гѹбы
гѹщѹ
гѹсемъ
гѹбами
пшеница
избавити
ѿдаст
ѿдано
ѿдать
хѹдаго
порѧдне
будемъ
пъла
трѹбицы
борщѹ
всеволожа
рѹкодѣлеи
рѹкодѣлье
пошлется
непраз
въспѧть
Телца
ѡглобли
оугожа
оугодит
оугоднаѧ
покласти
ѡбрѣсти
лвко
гсдрьскимъ
королевне
брегъ
брежет
гсдрвѹ
пустошми
смечат
смечаетъ
надѣть
надѣлкомъ
городба
слыхали
##цкими
посылан
здравїе
лежат
родствен
препоѧса
намочено
##чого
Суту
вдрѹг
наоукомъ
трѣбу
приводить
##скьіѫ
ѡбѣда
совѣта
Батей
епк
епсп
епспъ
возрадѹют
двухъ
шубу
блѹдные
богатырские
дѹги
собакамъ
ѡ҆братисѧ
оумѣлъ
кѹпитъ
кѹпивъ
кѹпишь
бл҃гословеное
кнутьем
квасы
квашнѧ
указала
новъгород
дворовымъ
мракъ
слѹжки
слѹжке
весны
полѹчитъ
##сцѣи
##вороти
хлѣбниковъ
хлѣбнѧх
бѹдѹщемъ
сенныя
кѹпле
кѹплено
оучнетъ
оучнете
живꙋщыѧ
##чь҆сти
отвещати
оумнаѧ
хотҍнѹ
Возговорит
жеребью
свѣиского
свѣискои
свѣискими
##луися
здѣлает
припасено
исцѣлѣ
исцѣленіе
нарѧдит
жилища
ѿидѹтъ
Писание
дворѧно
торгѹютъ
прибылно
потешенье
скорбенъ
погребнаѧ
варѧзи
изволил
бобылях
сергію
Садку
погѹбит
дешевѹю
черниговь
домочадцов
Никитич
полоцкꙋ
кузму
пьѧного
пьѧница
внимает
разсѹжен
разсѹжаѧ
заложить
кꙋплю
грѹбое
Магилене
запасено
запасное
прїимати
понадобит
і҆ѡакі
сторонушки
празникомъ
епископа
кольми
подрало
рыбнаѧ
##лѣпно
племянником
промышь
тепле
потальею
ссылке
поварнѧх
законномъ
оубыточно
оусчинъ
чюжей
прѧмого
прохладѹ
литовских
безумный
шелковое
брат҃мь
мѹжеска
столовых
челѧдинъ
оуправа
Исус
извары
извалѧт
извалѧно
рѹбашекъ
вѣжливенко
подводы
ꙁь҆
королевичну
мѧснѹю
диꙗло
##хⸯм҄е
всѣволода
просолѹ
глѹпъ
глѹхота
заставу
подлинным
вымыть
мт҃рьнѧ
Стратиго
ѡл꙽ло
##бережено
привито
избивъ
сѹшило
сѹшиле
ветчаного
ветчаново
домочатцы
ківѡть
праздникомъ
владꙑчҍ
стрѧпает
стрѧпают
рогожи
вытирати
каѧх
розошло
Македонии
вѹжины
корыта
золотное
хвалѫ
праведномъ
коробьѧх
богомолцы
потрохъ
потрохи
лавкахъ
отпускных
прелстися
Игнатье
зѧте
взогрѣвъ
млстнѧ
кореньемъ
цр҃ковномъ
уподоби
##денежно
обявили
пригнет
просфира
нелицѣ
давывалъ
крестовые
испечено
хочется
госѹдарыни
мелкие
домовномъ
предпоставлен
сотворѧт
втором
наеда
##хіискои
ленит
тотарина
наведꙋ
бочечки
оутвердит
перемыти
перемыты
ѡсѹжаи
неверную
пристꙋпили
хоробрые
коровамъ
патокѣ
вҍвери
маломож
подьѧ
##мываючи
портит
стрелочку
володимирь
святеишего
сѣнницы
топорки
легонко
оупрода
оупродастъ
пръгаром
приметено
пѹстошных
пѹстошныхъ
зѹбнаѧ
крѹчины
болезнѹ
сімѡнъ
вытерто
онбарехъ
онбарех
сѹндѹкъ
сѹндѹкѣхъ
рѹкоделье
мѣрники
засекати
подписывати
Феодоровича
ызбе
покорениемъ
хмелного
изъимаша
змииным
отпꙋстит
кантерштеин
а҆враа҆
рыцери
Всё
соимѧ
выпахат
вытерь
договорꙋ
Иванушко
олексѣя
приплодѹ
гсдрыне
гсдрынѧ
ѿмѣрити
оупрѧтано
полтевое
свѣжее
дш҃етлен
дш҃етлѣн
перетрѧсть
перетрѧсывати
оупарит
Забаву
нѹжномѹ
хоудомоу
борзее
оусътро
скорешенько
впрокъ
потирало
решота
вишневого
должнѹю
ребята
пожарные
Бермята
поплачено
свеклѹ
павечерница
привозные
измыто
ѡтрѹби
хрстиѧньскомѹ
написѹютъ
прѣкланꙗти
кротъкостоѧ
приношенїемъ
пересѹшивати
кафтанъ
вѣжствѹ
дѣвокъ
кѹдесниковъ
поболши
бл҃горазсѹдныхъ
копѹста
припрѧтано
просѹшить
крадливъ
скамъи
Хотену
рѹкодѣльничати
мѧсоед
брѹсничнаѧ
Апостол
Гюрги
Книга
Буславьевич
холъстовъ
шѹба
робѧт
разѹмныхъ
Симбалда
Костентинушка
близокоу
достоянию
замъкнѹ
подсытивъ
ширинокъ
Розбой
ѡброти
ꙋслышали
Батеевич
нефѳалі
Говорят
причестити
ботьви
Роусиноу
##дх҃новен
перемечено
закромѣхъ
ледникех
ѳоргель
ѡтирать
пригарины
раѕорили
добѹдешъ
хрѧпье
ѡговорѹ
задҍла
выскресть
разволочено
лѣснице
чистенко
подгребати
платенко
сморкать
бл҃годеньстве
ѡбидимомѹ
вниманїемъ
полуехт
чюдотворьцевъ
предпоставленѹю
Епи
Нкако
Рꙋ
Сна
Ски
Ю҆
ить
кʼ
лзѣ
хіі
чр
чемь
єѫ
Ѡбѣ
Ѡбра
ѡцѹ
ѡсквер
ѥдно
ѹен
ѿѻ
ꙗ҄
##очи
##тную
##тники
##ржь
##рская
##вным
##мное
##цвет
##сения
##сія
##ппа
##гма
##ѳіи
##ѡнꙋ
##іємъ
##αν
##ѥвь
##ѭщ
##ꙙштоу
##ει
##στ
поще
поскочи
помысл
##ковых
нагъ
прд
##тила
##листъ
##рачи
неѿ
некра
невъз
##роп
##ниі
##ревѣ
дароу
коих
копити
кожѫ
вообра
##док
боце
##шають
зач
забо
своі
гоня
голꙋ
содѣѧ
ничим
рахи
съниде
бышѫ
##лѣтно
##нѣжъ
##ньѣ
таку
тарха
##биль
сичка
белую
микꙋ
##скорѣ
хо҃
##дъви
##бега
##зай
##зать
изря
изима
изволь
##купити
братеи
выкуп
пеш
пела
##быть
стоите
столько
рускаго
##чьши
##рями
ѡ҆тѧ
ѡ҆гра
числꙋ
сьнь
сьвръ
сьврь
възможе
крал
краше
лестью
послах
рѣкꙑ
Гость
поидоста
Въсп
##ловал
##ребро
видѣха
благоговѣи
всякая
пуго
диако
##славци
кнѧзѣ
гл҃еть
погле
повелѣвъ
человѣко
братре
самомоу
государей
царствѣ
пріидеть
##ртемь
##щенїе
своѥꙗ
##зѣте
бл҃гоч҇
##фано
убога
покара
цѣна
##страда
михалко
##пья
березе
дꙋшъ
крти
грома
держава
горше
##бѡвъ
требо
Сиби
хотѧщю
водами
##женина
домои
дорож
борисова
доушоу
##лꙗти
ѡбраз
ѡбразѹ
богатые
##имет
никакого
створимъ
глаголахъ
предамъ
писме
##леным
просите
достоини
і҆ѡанна
золотые
оучить
единомь
##волⸯ
четвертом
х҃ѣ
имети
##щую
корабе
вьсегда
##соуть
пророцы
Стар
собрал
повѣдаю
стѣнь
таинамъ
ветхаго
нынѣшнемъ
повары
распе
м҃ти
вышел
##евичъ
четырехъ
страшенъ
страшное
взыдетъ
московском
клима
велѣли
показаша
ꙁълѣ
полате
поимаша
здравіи
украшен
ехали
рѧзань
ѹ҆бо
ꙁнаменіе
возвратишасѧ
##ложницы
##жденіѧ
ѿверз
а҆рта
прѣдꙿ
тѣлеси
потрѣбѫ
небесное
хотеть
мертвых
колене
сѵх
проповѣдати
ꙋчинили
оученикомъ
нравъ
исполнити
слушал
##точных
голубь
дверми
погубилъ
аврамъ
хрестиян
тиунов
млстивъ
вьсемоу
тъиѭ
переяславлѧ
##ничьих
преставленіи
шатеръ
спущу
зверей
търгѹ
нб҇ное
пастырь
ᲂу҆чн҃кѡмъ
разгнѣвасѧ
смрада
чьстьное
філі
б҃жіи
зверь
зѧтѧ
заключен
осипова
Воиска
бобровъ
солнцемъ
благоволит
Разумѣ
приступивъ
пръгарем
Авраам
Третья
ст҃опълкъ
рухлядь
немецких
харитона
ондрѣя
Новегороде
Абіе
Боу
Бѧше
Вⸯ
Гл
Нб
Пѹ
Симъ
Чьто
вм
вѵс
дшь
клич
мчн҃
нш
нкіи
пєр
скы
смен
тпре
увѣ
шоло
ыва
ыном
істо
ѡны
ѡдного
ѥть
ѧв
ѹс
ѻе
ꙋго
Ꙗвѣ
##ано
##ехъ
##нскаго
##ѹмь
##ꙁнь҆
##пять
##ⸯка
побили
##комо
##коръ
##гона
нат
##нон
неблаго
##тове
##торь
##насъ
##ринѣ
топло
топоры
въведе
корѧ
колен
волѡвъ
##милости
##левич
мосе
мошно
зача
заам
софии
##льнаѧ
прора
проны
проити
пропѧ
##рѣтъ
##стасѧ
##щевъ
##лѣни
##лѣна
##ходъ
отси
отшед
люба
##бия
##іеши
силнии
реши
тещи
текѹ
тепере
##рыня
ножо
пазу
вав
ваву
росмотри
малꙋ
##паны
##мѣла
вѣтромъ
вира
видока
##нѧеть
пишетъ
дѣтел
##гими
##цинъ
##бысть
##дымъ
возры
Пошли
Похва
Помѧни
##творо
стом
##чьства
лѣты
меле
мечет
ᲂу҆ч
ᲂу҆жи
ᲂу҆стѣхъ
і҆сма
государыни
##цѣм
имете
страшли
странна
супру
переко
гдрю
##зоваше
възборо
възрати
възвесели
посланіе
бꙑвъши
рѣкѫ
##нꙑми
##нꙑѧ҆
негово
бꙋ҃
##тѧбрѧ
дуна
пус
животом
сꙋщи
бѹ҃
Селев
ньже
гл҃ти
знай
знамѧ
начатокъ
##дяху
##зехъ
##ніꙋ
дѣлател
нашимь
взяла
скаске
Приехал
##вались
бл҃гочи
сн҃ꙋ
д҃нии
соуда
соугоу
петрова
пришествия
##ведено
харо
конь҆
обрадова
домом
дорога
самⸯ
помилоуи
србие
свирѣ
##станꙿ
нѣкоем
трофи
##штетъ
седмое
высокихъ
убивъ
двдь
огни
слеза
члвка
дроугии
просилъ
##стѹпи
і҆ѡаннъ
святымъ
единоро
ярославль
четвертью
христолюби
меры
мерзость
федором
немощно
ꙗрости
слѣп
##гнѣмъ
родителей
прислати
тысящи
индѣ
здорова
Лича
стихи
надежа
ѿвѣщаша
##ственѣ
Быша
Аминь
трѣбꙋ
икон
сѣдѧща
ръка
мсцѧ
шубы
разумѣй
разумѣеши
горамъ
і҆ес
жерцꙋ
Къде
ѻ҆гнен
##ковици
евре
простовла
батюшъкѡ
поминай
погребъ
знамєніѧ
неприя
вѣроѭ
Божествен
любъве
благочестие
племянники
промыслом
губные
достиже
нерадѣ
жирослава
литовские
Данилу
християне
чистых
ѡбоимъ
ѡ҆бѣтова
ловца
а҆враамꙋ
вещꙿ
белокаменной
драгимъ
ч҃лвкъ
іѡань
сщенꙿ
івану
сьрдьце
утробу
неѡбрѣ
ближних
пономаря
товарищи
полѧне
крыльцо
ѡружье
монастиръ
словъмь
ᲂу҆слышитъ
помꙑшлѧ
изменника
въложите
Правда
нелицемѣр
мыслію
игуменом
арсенія
Братия
оскудѣ
ірмо҇
боцекъ
Гръ
Сре
Тр
Фила
вно
вени
вꙑи
вправ
ех
ежь
жди
жвѹ
зять
идѧше
ищут
остри
тмѣ
хръ
цроу
щете
ѕлѣ
ѡга
ѡлга
ѥю
ѧда
ѧви
ѹда
ѹбити
ѿити
ѿлѫ
ѿкуду
ꙁвол
##ответ
##нѭ
##цер
##илѣ
##сщен
##кнѫ
##гене
##ꙗль
##дчи
##явъ
##жють
##щеных
##здра
##стнаго
поволи
насл
##лини
##лола
##вахо
##рице
##кав
##диль
вождь
и҆нъ
##хъи
довъ
вспроси
##тание
принето
боба
болен
##шаѫ
##течь
моз
моно
запу
зазира
застꙋп
селѣхъ
нибуди
расте
прога
вевери
##рѣчь
съвѣт
##сталь
##рьѣ
##живал
##дѣв
##дѣсѧ
##бища
сильни
белев
белым
митъ
нощей
палъ
преити
хочу
ходѧще
лишнее
##хаи
видал
стан
велици
чтоже
дѣе
##гия
сыто
##сках
##шьдꙑ
разлучи
ꙗ҆тъ
ꙗ҆влѧ
а҆може
##тѣх
##тѣте
ᲂу҆трѡ
і҆ез
куми
подꙿ
подзор
туром
сухо
светъ
Бозѣ
краѧ
господꙋ
глат
##мѧна
послахъ
грамотъ
рѣхь
первои
видѣхь
бꙋдемъ
писании
душь
##хьі
мнѣти
сꙋгꙋ
сотворила
б҃гъ
мꙋки
продав
##мян
дерз
всими
рить
верто
человѣк
Коне
##зех
царского
испꙑ
подобию
посадех
сказывать
##лемы
сн҃ь
дъжде
василка
##страт
тои҅
##лениѧ
##шомоу
речем
дꙋк
истинꙑ
учиню
чьсо
приведеши
неистов
Симь
##твари
чистоте
анна
гнѣвь
обыщется
шапо
Собира
##ренїе
##лꙗеть
с҃тыи
работе
вниз
внидꙋтъ
львъ
хощю
зовет
бѫдет
сроце
сказание
высокую
врѣдъ
##нꙿнаа
вашеѧ
Рекоша
##дръж
остана
праведный
Прежде
апсль
##ливает
кормилъ
стрѣлѧ
кръве
##брѣта
прислано
прислаша
наслѣдникъ
##славие
дворецкому
почти
трꙋдъ
чресла
поимавъ
смею
приемлюще
сирот
посадивъ
двум
челобитных
одном
требую
слоужь
съкрꙋ
искрен
бжию
ѡставленіе
срдци
троица
прочихъ
павлу
потреба
священниче
богородица
колпа
пойма
вънимати
Лѣто
недѣлѧ
татба
могий
Слышавъ
добръмь
прибѣже
послѣдніи
помощникъ
когато
костѧнтина
троуда
днѣпру
анаста
убьют
фарисеи
лодьи
г҃лѭште
и҆стинѣ
вседержителю
пеали
волхвова
сьрдьцьмь
заоутрен
ꙗ҆витсѧ
бортные
мещане
ѡтиде
довотчи
сельцо
҆҆ꙁ
возбрани
аг҃гли
прѣмудрости
ревность
Саул
забываите
##божьств
животиною
кн҃ѕю
Царство
сокровен
мучитися
именьмь
выбрал
##ατα
египет
безчестие
бояриновъ
чтеніи
Вꙑ
Врѣ
Имьже
Лва
асъ
еж
елен
ив
ммо
мстити
мзды
оправда
схра
тве
улов
ухищ
х꙯
ѡд
ѡче
ѡнои
ꙋсть
##ое
##хнет
##тши
##шнѹ
##шїи
##ржати
##нгли
##сные
##сныхъ
##ѧша
##ꙗтъ
##днь
##дріи
##яну
##фѣи
##стныхъ
пою
пори
помени
##кохъ
##горю
насыпа
преми
##лони
##ралъ
##ровых
##ваахѫ
##ниѣ
##нихь
##нието
##точные
##дан
##риг
##река
##дисѧ
колы
колу
колє
восъ
жеꙁ
и҆дѧше
догде
домѡмъ
привѣ
##леби
боѧти
##кинь
##тебѣ
##невь
заме
забꙋ
задержа
##веща
нищим
##шиб
провѣща
прогне
вереи
кати
быс҃
##лѣкъ
##мухи
отложи
отвръ
##бинѣ
беси
##стове
##жають
##любы
текѫ
є҆ла
падеся
преступ
посемъ
хожю
сахо
##белыци
вѣна
вѣжь
стаи
##ням
##няся
велии
брашо
дѣлѡмъ
мноꙁ
Дарие
##цию
возлюб
возносѧ
такову
бѣдъ
##ляне
##сѣдова
разбра
разных
а҆кы
##стех
##кыя
нѣто
нѣкую
кунахъ
инохо
и҅са
##моуже
скоп
переслав
сьдѣ
##нюсѧ
възле
възненавидѣ
исц
бжств
радими
имамы
##ственъ
сѹбо
сѹдь
свѣтомъ
повеления
моега
##нꙑими
негодова
##вичем
##нѡм
бьють
писан
сꙋпоста
##твени
кнѧжю
семенова
##кꙋп
рублю
Кандар
##лникомъ
##клады
человечь
повелѣва
Воле
Возь
корени
имѣлъ
имѣніа
##етомъ
самодержа
##новꙋ
царское
царствии
##ждаетъ
дѣлат
дѣлаютъ
##ехалъ
##граде
пріиди
Приписка
смерди
спсъ
четꙑри
рꙋкахъ
слышавши
сѫщѫ
вꙑве
печаленъ
##ющоу
##ющему
##шок
##шолъ
нбное
злочести
дꙋшею
чьему
привези
аннушка
ст҃ого
гнѣзда
иꙁмѣ
освѣ
##рѡм
##присно
непотрѣ
головъ
долг
смѣрени
поручная
борись
доухов
послѣдꙋ
Пак
хощѫ
ѡбраꙁѫ
бѫдете
строѧ
убита
##имꙿ
##нꙿнаго
##прѣд
скорбѧ
семьи
Вижь
золоть
остало
##ровита
пръвыи
##денїе
Вѣру
силна
подвиѕа
ратным
Роспи
##ходѧще
слѣду
##ꙁыде
плѣнь
##видитъ
многых
многым
прислана
##трьпѣ
разꙋм
наслѣдитъ
обѣсти
Святая
лвци
мѡѵсео
пѡзнаѥть
амин
бц҃е
Нѣкто
обоего
ꙁлобѣ
Был
отинудь
клѧтвы
ꙗвлен
##скьіи
ступа
Батый
и҆мамы
правеже
однои
заповѣдалъ
малым
малый
жестокъ
помолим
троице
череми
павло
пскова
псковь
псковича
искони
сентября
толику
пустиша
нбсныи
дияволъ
копья
копьемъ
ѡ҆ставитъ
соблюда
соблюди
возложиша
ѡблада
сергіи
раꙁоумѣти
исполчи
переꙗславлѧ
послѣднее
лазорь
старѣ҆
насталъ
##ѳью
сотворше
забылъ
##славович
пяты
судия
цр҇твовалъ
небрего
александръ
чистымъ
алеѯандра
македонян
андрѣꙗ
оударить
ѿпаде
ѡлло
агг҃ли
і҆исꙋсꙋ
наимиту
смрадъ
созиж
пр҃п
б҃жїи
лявото
мнозѣхъ
суждалю
чоудеса
ханаан
болшои
ѳеодосии
ѳеодосиꙗ
##шенеи
сн҃ови
халдеи
і҆ереміа
исѣкоша
рабѡвъ
рухляди
а҆ммѡнихъ
поистиннѣ
ѡ҆пꙋстѣ
артем
оседла
Ключевъ
владычице
вънгда
діони
справедливо
прѣꙗмоу
Хорошо
ѡ҆лѵм
##немага
зговоритъ
ужасеся
Евагри
капусту
Роспись
πρ
Єже
Бж҃
Внегда
Ез
Ере
И҃
Крь
Ог
Смѣ
Цр҃
вше
вчин
гноу
дшъ
деми
жѣ
зы
зно
ищи
итла
кене
мерь
нд҃
олень
плѧ
реть
тне
уны
узь
укла
чтъ
щъ
яй
яти
ябедни
ёр
єре
єстъ
ѡс҃
Ѥда
ѥхати
ѹвѣда
ѹтнеть
ѻби
ѿкоу
҆мѧ
ꙁ҃
##ео
##рскаго
##вника
##сена
##кнул
##гво
##інъ
##двь
##чкѣ
##яса
##щꙿ
##ꙋго
##ꙋдꙋ
##ёго
поа
поема
поступи
##воды
##кости
нано
належа
##тимо
##рано
неч
несе
##ницѣхъ
##тоѥ
##тьно
кози
косни
воскъ
##вивъ
дойдет
прижь
##добѣ
##мони
монь
зажига
задние
сесь
##подобь
оуслꙑ
ражде
проя
протѧ
##боудеть
##мами
##чище
камы
##жица
##живати
##чествꙋ
##дѣта
##ньши
##ньке
ства
##ховые
отмеже
синем
бедери
##стокою
##жаю
теби
текꙋ
парѧ
##рушка
хоцу
##вья
##дъка
##дъке
литу
савина
излѣзе
##щася
##щають
стареи
##кучи
##совѣ
брала
##съка
##съмь
высѣ
выбля
выговари
##енаꙗ
Поу
##дутся
вьвери
рубили
прашаи
слою
лѣво
медꙋ
ᲂу҆с
ᲂу҆га
положен
куст
чистѣ
безденежно
##цьшаго
туже
сущих
##ноей
##тушка
ст҃му
сьстрою
обще
глаголꙗ
##нѹть
##мерти
госпожде
лега
имаме
дьаком
перна
перстомъ
володѣти
единым
##гыни
всяка
всякий
##скупу
писания
думу
пуска
о҅тро
богатѣ
продавъше
##стѣе
мь҆
молить
деръ
дерза
##ꙁам
противитися
ризе
##трии
вершить
вершены
начать
имѣнья
братни
и҆збы
раꙁгнѣва
лугов
##граду
оубогаго
четвь
рꙋкама
##ликовѣ
судного
радостна
цѣловати
##лѡмь
Зара
Заха
петрово
Марью
##ющиихъ
конми
хлѣви
##мѡнъ
западъ
горсти
чьем
##схотѣ
малого
##ницини
осени
##фило
ѡ҆блич
ѡбидѣти
любима
любимый
долгь
дородний
##щомꙋ
шахматы
послѣдовати
помиловати
ѹбоꙗ
ногахъ
црквы
днемъ
волных
веселя
седмо
боярскихъ
велегласно
прихожа
##нꙿскыи
аггли
казной
пріде
отдам
##шюю
писмом
##ленымъ
##вкам
недоро
чловѣко
блгоь
погибоша
Кири
слꙋгꙋ
дръза
дворцо
варла
ѡсмина
##удьни
Божиим
отецеве
болесть
таины
##тках
подобіе
честной
приставе
стоятъ
ꙗрость
правитель
купите
целованию
потребных
потребнаѧ
виделе
наслѣдиши
##славицѧ
напишут
солита
могучих
##местным
благословление
въсади
црк҃в
##нтии
показалося
ѧкове
##скꙑе
рѣзанами
таковыми
вѧщь
пѡꙇ
мт҃р
чрево
смехотвор
митрополиты
діаконъ
обол
посылать
приемлеть
матушкой
гръчьскыи
мъногъ
свату
##дрьжи
ѡ҆брѣта
богатырскиих
пятисот
пожаловать
вскорми
одному
ведаетъ
малыми
чом
кѣле
кѣлѣ
приставных
ѡчисти
наместника
боит
полюбо
сильныхъ
смьрьди
ударит
##ковицѧ
съвръшен
веснѹ
съмѣрение
дружинушку
телеси
властелинъ
государству
приедю
приносить
нарѧдите
трапеза
трапезꙋ
роусинъ
беглого
Солома
особину
дешеве
слушали
архиепископу
архиепископлих
саꙋлꙋ
ставку
времечко
кузмодемь
позоло
уроди
Слышавше
любѧи
несъдицеви
бесчестья
паробъ
мастера
крепкие
латинескыи
латинескии
сырома
епископлих
притчꙋ
мѣдѧнъ
недѹгъ
кнѧземь
архимарита
Молоды
ц҃рк
##славомо
въпадеши
переяславлю
попецалуи
Блажен
възъмъ
думным
погибнꙋтъ
смирения
узду
великꙑхъ
королевичной
нечистоты
отцовския
стряпчим
поработи
благовѣщенія
седлал
Который
вѣверичь
белокаменны
ѡ҆скверни
срцде
сѣдишь
печатьми
Муромцу
бесчестиа
##священ
приезжих
шелков
упование
Игнатьевич
жалобник
Васильюшка
светыхь
водаита
товарища
тмами
сп҃сетъ
заключи
чьрьсо
вавѵлѡнскіи
мартѹрии
Холопей
ложьнике
володимирю
пограбила
младых
лицемѣрь
маленькой
стязи
заѧле
укрытися
Сорочин
Саулович
Ѡлег
черноризци
берековеско
дементѣ
вѣрьнъ
Увидала
ᲂу҆боѧшасѧ
втапоры
метель
а҅гг҄елъ
хоштетъ
о҅гн҄ь
Денисьи
цьрниго
Полетел
поклажеях
ничъто
вдруго
юбрѫсе
новотържь
Ставёр
приживет
нѣмецкую
рушань
Соловьё
Володьёвич
вонидь
наедалися
възборони
вевериць
колєсницы
ёрлоки
Бѫ
Ен
Сце
акса
врою
діѧ
епар
оце
рмь
тете
щѫ
явно
ѹстра
ѹбии
ѿь
ѿбе
ꙁм
ꙋмно
Ꙗ҅
##шковъ
##вць
##иши
##іето
##ꙗны
##ꙑмъ
##дкомъ
##чнѣ
##ѥни
##єши
##҄ѣ
потѣ
поюще
нави
##тици
##лила
##лицѣ
нека
недѣли
##риꙗ
този
даꙗ
далѣ
даѥть
дога
долꙋ
прили
призов
##лелъ
##лече
##мови
мож
##неше
##льки
ранъ
рагу
проп
прошен
прогнѣ
##мале
##маном
##чичь
##биши
сира
бежати
мих
##скіа
ною
новы
падетъ
росии
роді
ходу
##вьлъ
мама
саженъ
сафь
вѣце
вили
##мелехъ
стане
##совѣт
велице
свое҆
выво
пеѧ
Пой
Постави
##твовалъ
##оуха
стого
вьзѧ
##л҃ю
разши
разгнѣ
разидоша
ᲂу҆чи
полоном
нѣст
поклиса
тѣмꙿже
тѣлъмь
##етеся
сѣдоста
сладꙿ
ст҃ую
ст҃ьі
обно
гд҇нихъ
##нꙋсѧ
мукѣ
лек
исходить
бжѣ
рѣзъ
##ноуо҄умоу
единои
тъже
предло
предложи
велкаго
крохи
##левна
сꙋде
##писал
бума
никоего
дн҃емъ
риж
тьсть
повелѣніѧ
человѣцѣхъ
##нѫѭ҄
корму
Колко
плоди
розно
розбои
раꙁлич
потрꙋ
бл҃годать
слышали
потопи
печалу
книго
покажетъ
господин
##вші
##вшымъ
закономъ
сердцем
##тварѣ
крестьянъ
##рѡмъ
##женикъ
глет
мнѡѕи
пошлину
мѫж
мѫжоу
##щом
смѣхотвор
Собра
доушев
помилꙋ
богонос
послух
вниди
внидете
зоветь
##жетсѧ
бѫть
околь
днес
волкъ
а҅рт
приходѧще
стьі
пріемь
обита
отроци
славна
чловѣкь
##днаꙗ
невѣдѣ
исправлѧ
прикащиком
жьда
##мысля
поганые
собраніѧ
##зываютъ
##ѭ҄штоу
взятии
подвиꙁа
сꙑти
грѣшных
прьвѣ
московскими
Бело
пожнями
пришедша
прѣдаше
##днеѥ
вѣрны
Телець
войском
степанова
создана
воеводамъ
ѳедор
книгахъ
поклонишасѧ
вѧще
пустоты
пустошах
ѿвѣщати
красотою
круп
нечистаго
горесть
достоно
ръжи
восхощетъ
вышше
королева
слоуж
маиѧ
бл҃гословеніѧ
ѳеѡдось
пскове
нашои
правьды
потребити
##обраꙁ
##ѡбраз
прошение
грѣшьника
жеребѧ
оброк
оброку
дияво
вьсьгда
свѣтильникъ
воровски
прѣстоль
цѣсаръ
бобыля
пріемлетъ
жеребеи
##десетъ
Чада
переꙗславь
переꙗславль
переꙗславли
промышля
Настасью
хочешъ
сквоꙁѣ
симона
глубок
въскоре
злыя
##кнула
приближисѧ
беспре
ѿ҃че
##агге
расточи
пагубы
##крѣплѧ
налѣз
цвѣты
раꙁоумь
агг҃льі
Черна
дѣвицы
дроужина
и҆збавитъ
костян
иѡси
умышления
имянем
незнаема
чоуде
покаяния
мѡавли
##риона
пропусна
тр҇цы
скърбь
помысла
а҆рхіереи
оувѣдѣвъ
междоу
Владыко
разбойника
Великому
Гл҃а
##говищи
завтра
сладъко
Иерусалима
рюрикъ
діяко
дроугоѥ
кучюма
Евангелии
ярополку
поскаки
Третий
Иису
ѡ҆крєстнаѧ
Ави
Г҃
Ега
Кь
Рѹ
Тре
аго
адо
вру
вмен
вꙁѧ
гса
жѫ
истѣ
кꙑи
лкь
мти
млѧ
ншего
ота
оцю
окия
охот
пть
снемъ
терь
уразумѣ
ште
ыномъ
юрг
ятъ
ѡхо
ѡвы
ѡбъ
ѥда
ѻнаꙗ
ѿвьр
ѿпоу
ѿсюдꙋ
ꙁрѧ
ꙗсть
##е҇
##евы
##едно
##рʼ
##ннѹ
##цє
##исти
##сре
##сная
##кма
##ѧтсѧ
##ѳим
##ꙗго
##бт
##яе
##ѵр
##стне
##стных
помьіш
##копа
##госта
##енке
##рали
##рост
##вании
##тоѫ
##наре
##нать
въсь
възира
##жела
комь
пригна
приѥм
##лели
божіе
##мотрити
##телница
моемь
##шеше
##шевь
заги
завꙋ
закупа
##вестра
сосѹ
содержа
##льнъ
##льницы
оугры
рако
##чиком
калоу
канц
съра
##дѣ҆
##мутъ
##ньскои
##ньскую
стхь
отправи
бестра
##жами
носо
носѧть
ношть
пати
хобо
##бѣше
извы
извол
##щал
##щикомъ
##мели
брака
браце
##сът
##еньꙗ
градовъ
вын
возвраща
стоꙗше
рускому
руския
##чьць
ꙗ҆стъ
медов
ᲂу҆мира
ᲂу҆биша
покрова
странно
туда
суб
чашꙋ
Богда
сконь
переда
отъда
##словь
биють
възмꙋ
Напи
##пеи
полгода
дьщи
рѣкѹ
перⸯ
Въск
едини
единꙋ
пусту
дивля
сꙋд
ꙁав
ꙁащо
темницах
ѡтни
##лникь
никово
никоея
##бят
храбре
въꙁве
златых
человеки
имѣю
розу
лукою
пріимеши
пѧтыи
спѧ
чернец
смолѣ
сѫштоу
слѹжи
василию
соущю
##грѣно
##ведете
##полку
берега
хрста
покосов
привезли
сторожѣ
##сходѧ
гн҃ю
домашь
побѣг
помири
##лꙗють
творѧт
окол
большую
##вратиша
приходу
прихожда
дрѹго
щот҄о
огне
казанъ
господню
##ванка
недовѣ
просль
і҆ѡан
золотых
смирением
##лія
##волилъ
кораблѧ
служит
варꙿва
похот
поход
мертвы
бесѣдꙋ
драгаго
далеко
тысѧщꙋ
поставят
пострѣ
##ритисѧ
честнаго
м҃л
сп҃сти
послꙋшати
купить
сідѡ
спиши
москву
светѣи
жонка
манастыр
московскии
велѣть
сокрѡви
вѣрна
вѣрных
почнеть
оугодно
королевские
##торая
поклонился
поносъ
##емым
лꙋкъ
десную
изыдоша
##ѣхаша
Нѣко
долгомъ
красотѣ
скип
широта
широтꙋ
ѡц҃мь
Людие
промежъ
неправдꙋ
##чът
ѡ҆брѣтесѧ
богатырский
княгини
ніхъ
ѻ҆гни
##пріѧ
дщер
впреди
сль҆
еюже
дворовые
лихова
воинскими
съмѣренъ
досаду
отпустит
приꙗтелем
нарѧди
##скѫѭ
ѡбьі
архиепископы
исполнь
полоцких
кузми
своєю
своєму
творяше
дѣиствоу
внимаи
кꙋпно
божіа
прѣподоб
неколико
сътворт
наало
храмины
храмине
##свѣть
Московского
игумены
наводит
чистую
философа
о҅ть҆ца
имѹть
волхвы
дмитреевичю
раздѣлиша
чл҃вѣческіи
похвално
##чєскаѧ
мольба
вавѵлѡнска
помысломъ
Воистинну
молодых
ловитва
цртвіа
Услышавъ
кунгурѣ
іюля
діяконъ
заѹтра
смолнѧ
бдцы
прославити
дмитрию
Сказание
Индейскому
десети
II
και
Бꙑ
Оби
Пан
Сі
Скажи
Тру
влез
гв
гв҃и
дѻ
жу
жль
ивь
иев
ищеть
опи
одьрь
сбор
т҇
тры
успѣ
умомъ
укупи
уничи
умыслъ
умножи
устѣхъ
хвѣ
херу
цл
шлю
яд
ѡвъ
ѡсꙋ
ѡрѫ
ѡкова
ѧд
ѹто
ѹмно
ѿре
ꙋз
ꙋда
##ѣе
##анина
##шницы
##вены
##ннъ
##лвъ
##сца
##сеть
##сенье
##҆на
##҆нъ
##ⸯже
##яри
##ꙋе
##ꙋтъ
##ст҃и
почен
повръ
пон҄еже
##ковица
##енꙋ
##тисе
##тицю
##рак
##ноѣ
нести
##важи
##ваѥши
##товꙑ
##тором
##риша
##дивь
##тьми
кок
востанетъ
##виѧ
вспо
##дону
##дошѧ
боров
##шани
##течи
могы
совѣсти
##въство
##въкоу
##пода
##поша
оудоб
растѹ
ранено
##шинъ
проплака
##бочку
веѳи
кажеть
съга
събѣ
##нъки
##дѣль
##нѣѧ
##гарѧ
##бицѣ
сики
мине
минет
микола
##чанина
##жаꙗ
теченіе
новыи
препро
родѹ
##бѣти
листу
сала
савꙑ
##мѣмь
вѣт
вѣдѧше
декѧ
##дьши
вие
винꙋ
всеꙗ
##сого
бранить
##нѧли
##нѧще
##лука
##съмъ
пече
##дым
Пожи
Помыш
Покаꙁа
такому
таковую
##мѹю
##сѣе
разлу
а҆віа
ѡ҆дѣѧ
ᲂу҆стнѣ
якова
куре
имено
подвои
безстра
безчислен
сух
сует
Бовъ
сковра
плачу
##рѹю
възлѣ
главꙑ
Нау
Наказ
лава
##сывать
поидꙋтъ
##вран
милостію
кропи
дитя
б҃гом
чюжих
шестаго
богату
##ц҃ѣ
Села
держите
держитъ
##тях
бытие
въꙁвѣ
##женїи
повелѣнію
##етое
плотью
государеи
розве
луч
луче
лубь
оубога
пѣние
прии҅мъ
блаженъ
благихъ
дъщи
государьстве
нбси
злодѣ
берег
пьси
подай
Рахлен
наказал
##любивъ
##бꙑша
Прости
купчим
Согрѣ
##лꙗаше
творѧхꙋ
поучаю
здѣсь
лѹкъ
лѹкꙑ
нѣкого
##чениѥ
царевы
стыхь
врѣда
тꙋю
вашею
отдан
##ріꙗ
отроки
нарещи
##жѧще
Вижу
##ствꙋютъ
гречи
грекы
свободь
терп
##дръжати
единомꙋ
единомоу
крича
дръже
дьячок
Божиа
словами
##н҄ꙙ
начнетъ
тысѧщи
Ивановичь
подвигъ
подвигни
ратнымъ
честный
спит
четырех
грѣшенъ
манастыря
покрыва
потребꙋ
Оубо
##днего
вѣрнымъ
лъжа
показати
##скꙑмъ
##сениѧ
поклонишася
крепостей
возмогоша
нб҃са
митрополитомь
вѣруемъ
овца
съмрт
Быс
съсудъ
духовному
карау
карабелыци
гръци
посадили
удала
##несет
восхоте
камения
сь҆де
одежи
половины
и҆сповѣ
погыбель
дворовое
девѧтое
а҆рхі
вдѣвъ
спрашиват
Гавран
досадите
прошлого
хеся
селце
шюрина
нечестивіи
##ргии
наставникъ
броса
внучатом
сѵріи
##глаголати
прѣстолъ
причасти
причащати
невежа
полагает
урочные
хрстїѧне
измѣн
увиделъ
божі
Девгения
приближися
затем
премудрость
ꙁаповѣдь
дрꙋгомꙋ
витезя
ᲂу҆пованіе
столников
оудариша
игꙋменъ
пощади
Стратигъ
ловѣкъ
ревну
гюргеви
жительство
аггелъ
облече
Дунаю
палицу
намѣстника
комара
Салтанъ
и҅матъ
прозви
распростра
изымав
сѣчахꙋ
чюжими
Услышав
назвать
англ҃ъ
подписал
Зензеве
Алимпияда
подкопы
кнꙙꙁъ
Птоломѣй
Греческую
Варфоломе
полтескъ
пребꙋдетъ
божъю
розграбили
нащокина
твораше
георгиꙗ
ᲂу҆зрѧтъ
впрям
Законъ
҆ноплемен
полтретья
рижѧны
утеря
церквам
навꙑк
о҃тцъ
##ровлахіискои
небєсныѧ
Стоит
Ц҃рь
херуви
Исти
Идоша
Лꙋ
Мьсти
Мстислав
Остав
Обае
Уне
Убо
аі
ака
гѫ
дхѹ
д҄е
зят
офона
сноу
щимъ
юръ
іѵ
Ѡнь
Ѡбаче
ѡцѣ
ѡправити
ѥ҃
ѻстро
ѿтрѧ
ꙋби
##аха
##шⸯ
##шемо
##рви
##нꙉ
##нской
##ꙿскыи
##цк
##ꙁако
##лкѹ
##кї
##кво
##ппъ
##҆ше
##ѡве
##днее
##ыка
##бромъ
##щным
##ης
прбл
##тима
несли
##ронь
тощь
толки
въла
даные
коꙁ
водя
восво
досмотрити
привы
привя
призрѣ
привидѣ
пристрои
##дож
##дошⱕ
##делю
##киѧ
зала
зате
закала
заклина
гоз
гоне
говѧ
согла
оуха
рабꙑ
равенъ
промъ
пролити
ведете
##читсѧ
кажи
съг
сърѣ
съръ
съпроста
бывъше
##самъ
##дѣт
таки
тате
##гани
##хоно
отру
отсылати
сири
бесовъ
мири
минꙋ
##рътъ
##жахѹ
твоєю
##пите
ношти
прес
посем
хожаше
##пал
лихъ
##щае
##дьржа
видали
тимъ
##цева
##цере
##тыа
Поп
Покры
##оутра
вьꙁь
##сут
руская
прѣбѫ
##н҃о
##сѣда
разь
##верѣ
ѡ҆жи
##кый
##тѣмъ
ᲂу҆кориз
покрꙑ
тѣлоу
мѣх
куря
##дѧте
##емью
часты
княжь
сьс
биѥ
бирица
городовъ
леже
левая
бжію
ималъ
бꙑвать
Той
Гор
первы
волостях
##вичѧ
##вичꙋ
търъ
писаниꙗ
дубра
пут
веліѧ
диво
семенъ
б҃га
любовно
боязни
мъре
серди
серге
нашю
меншим
въꙁне
ригы
верхом
##ютьсѧ
началъ
нъга
##нѫть
помочи
помолися
Кос
Костан
##вѧтъ
государем
вотчиною
роздели
трє
##нікъ
потрь
нашима
##щені
##щенїѧ
черного
пѣш
пѣніе
приимше
арка
слышано
печаловати
товаров
Александрову
Александровы
соухо
тоиже
Марина
нбсъ
##жъство
пьешь
конци
конских
правдоу
гробь
покою
учителя
##мѡѳъ
держала
треми
Разꙋ
монастырех
хотѧци
спасени
блиꙁъ
слнца
побѣдѹ
бывае
хоробро
##фонта
порука
доубро
доухомь
самѱ
конех
трость
стрель
убили
пѹт
прп҃
отрокомъ
казаком
##жѧи
##трети
##леныѧ
и҃са
чловѣкоу
чловѣколюби
##стѹпа
і҆ѡсіи
рьль
##перед
торговлю
прикащики
наказы
татаровя
тѣломь
подобаѥть
попона
попове
десѧто
имяни
дьяво
добрѣе
донские
ѡслу
вѣченъ
повѣдаше
матѳѣ
григорию
столп
востати
гибель
царицею
страшныи
жол
соверша
обѣма
обѣтова
##нитесѧ
въсталъ
##щению
црк҃ве
плакала
##щихсѧ
изоѡ
питіи
мужие
##сердыи
свѣтла
мудра
колодѧ
##говорить
##ственным
здравствꙋи
пожигати
апостолы
сироту
клѧти
виновати
русьстѣи
веселитися
посадил
насила
божьи
проидоша
именѹ
##лезет
цръкве
погꙋблю
филипова
иоана
съвръша
воинства
##вѣштати
словесємъ
телесною
беззаконіѧ
мирослава
павел
мѣстех
Ѻ҆баче
дияко
падение
покаꙁати
дворѧнъ
перьдъ
особ
россіи
селища
Лежа
##прѧта
плотники
лебеди
взиде
тиуну
микули
доспѣлъ
приѧ҅
бжью
##бежав
литовскихъ
лодьѣ
поводъ
неудобь
славѧще
##пѣливъ
годины
прѡчаѧ
дѣвице
узрила
мнѡгыми
дроужиною
бѣдах
Ярослав
дь҆нь҆
немецкое
осипу
доволни
Крест
состарѣ
вельможи
благоволил
сьіна
ᲂу҆мрети
ꙇ҃с
постоить
Пріиде
ложесна
смольньскоу
десницею
вещех
Бл҃гослов
алексѣи
достойно
Храни
брѧчи
птенца
орють
шестеро
а҆нтихрість
первенца
тиоуна
Всѣмъ
Одих
Уло
Шчо
бє
бꙗше
вди
встрети
ено
еми
ждати
иб
кер
клет
лта
лву
лвица
мето
очную
озло
рти
сбро
тболга
уна
уди
устави
хвъ
ѕѡ
ѕна
ѡри
ѡвь
ѣдь
ѣдѧтъ
ѿо
ѿстѹп
҆са
҆ѹ҆
҆юде
ꙋли
##онѣ
##тете
##ее
##рꙙ
##рто
##рхъ
##рства
##вку
##нꙙ
##цкая
##плено
##ѧние
##ѳꙑ
##дкꙋ
##ⸯкы
##бмъ
##юшта
##ялся
##ж҃и
##щенья
##ꙋдъ
##ѥмѹ
##ф҃
##ȥъ
##ёхонько
##стни
пояти
##вот
##возъ
##году
надѣи
##тив
##тиць
##ратъ
нере
##вани
дад
коими
водоно
и҆ско
и҆нымъ
и҆рѡ
##ныа҆
доче
долоу
доконь
##тарь
привлѣ
прибави
##лед
##тев
##тебря
мощ
моты
завѣт
заговор
засвидѣтель
се҇
гот
гоны
согра
соеди
ниꙗ
##поть
##помь
оурѣ
оутѣша
ратъ
радяся
протчи
вежѣ
вечерь
##рѣй
карми
каленую
съгорѣ
##сталъ
##щед
##сами
##саль
##лѣꙁ
##нѣа
отня
силой
микѹ
##чае
##ръдъ
речам
твоѥ҅
тетиво
є҆ѳ
ном
нооу
новыя
ночью
парꙋ
пастѹ
пресвѣт
розъ
родом
##вьни
##пав
саѹ҆
##мѣю
##мѣст
##мѣрно
##хань
дек
деву
дебрь
видѧтъ
##щиках
ставо
##лыѧ
##слалѧ
градове
дѣв
дѣвы
выморо
##дуче
сыты
будть
прѣло
прѣтвори
##жьше
мешка
##кымъ
ᲂу҆б
ᲂу҆сер
покровь
имение
##стырь
сумь
двором
слатца
плачꙋ
горох
възмѧ
бж꙯и
##мѧну
полной
бꙑшѧ
сѹди
сѹдить
коромо
##нꙑм
##дникоу
##ребу
##дѹма
великоей
тъштися
бьіс
всякои
предлежа
кровъ
кровы
ивашка
б҃ѹ
б҃жии
бу҃
була
бурми
когождо
богата
богатаго
мън
грі
грчески
##лничей
гл҃ꙗ
знаеть
знаемъ
златоро
веръ
Волы
##вѧще
тр҃
труд
раꙁꙋ
царствъ
рѹкы
пріидѣте
пріимете
скаре
пѧтъ
Пришедъ
##гел
слышал
сѫпроти
вꙑшли
суднаго
цр҃ква
пришельцы
князья
пꙋстити
##ющися
конския
чл҃че
крта
хлѣбе
Сар
кꙋма
держаше
приведъ
##ченꙑ
Васень
сердци
ꙁемꙿ
анꙿ
шипит
голове
головѹ
хором
молке
##цково
кабаки
пошлите
##нꙗꙗ
записми
указныя
##рену
срє
с҃щ
Патриар
зов
беꙁнаѧ
волхва
веселъ
братилка
срока
строку
врѣм
##нꙿство
слезъ
Выше
марту
Василей
Виждь
сереге
солгалъ
іѡ҃
ц҃ри
Киевом
хотѣша
древу
болгаромъ
крива
поповицѧ
оставь
вьсѣко
##тꙑри
##тꙑрь
блюдъ
кралевства
собрати
познаеть
##ѭ҄шта
повинꙋ
повинятся
блгдть
Иванова
Ивановича
подвигомъ
Христѣ
изѧславоу
плъку
чадолюбива
похвастал
митрофо
плѣненіе
кормил
жалобили
поместьям
угодьи
стольный
##чках
вдаи
индий
##ловицю
Оуже
виновату
благословеніе
плакать
фота
фома
горѣе
лвкомъ
##нену
##ненїе
нб҃ѣ
надѣя
нуж
адамь
юношу
вмѣни
стоѧло
карабь
головушка
мурзу
удалых
##нь҆ꙗ
Видѣвше
княгиной
княгинушка
##л҄ѫ
пожаловали
Христово
Христовѣ
ѥ҅моуже
полюбов
орудь
Буслав
слѹжба
давай
пречистои
волостелей
длъгъ
длъжьнъ
жѧло
##раꙁоу
##шаисѧ
хел
##дречень
грѣшьнаго
нарѧдъ
несчёт
досталь
обряштеши
ѻ҆трокъ
сюдꙋ
почитающе
воровстве
оц҃и
варѧгы
##ргіи
зубъ
головам
члв҃ци
улицы
слободно
##ваатъ
слушаеть
неделщиком
лꙋкав
##млюще
дꙋмаше
неиздречень
хрстіѧне
целому
холопех
доспѣсехъ
Раꙁвѣ
архимаритов
книжницы
Дюкова
вторых
##к҃ѹ
Молода
знамения
совкупи
сръдꙿ
дъмитръ
степень
токма
сп҇ніѧ
хвастае
##кърби
девкам
поехало
резвые
имоуще
воротам
еписку
аггелы
ясны
кадило
городьць
мудрый
##б҃ѧ
пльсковици
покрадет
метати
убойство
порутчики
жалобника
каинъ
ратманомъ
источникъ
Евва
герм
Бил
богатества
новъгородьскꙑи
##вязал
откупов
оученіи
пишешь
ᲂу҆вѣдѧтъ
април҃
мостовщину
Рыцер
ꙋзели
хр҇тіане
Становился
##смерт
Андрей
ножки
благодатию
цесарь
##с꙽тво
изданието
Святославович
славословіи
понятых
лазаревъ
паробка
чьрмь
рабѡмъ
молитеся
сл҃нце
выслуженые
пошьлъ
геронтья
конъдра
управных
Овдо
Созоменъ
напреди
соболиную
одержима
Ляхови
переписных
дъщере
Околничей
Августъ
Юрьева
горносталь
прѣрѣка
дъвоихъ
напослѣдъкъ
аурили
вѧтичи
Потятичну
Кайдаль
апрѣля
члк҃ъ
топеречку
ништетѣ
ѻ҆боихъ
послушествовали
гѣлми
Солнышко
печяли
бързѣ
воевѡды
витьблѧне
оржанои
Идойлу
заамвон
пятисотной
Сорочинскую
декѧбрѧ
подвоискаго
Одихман
Билъ
Двѣ
Дръ
Исто
Ой
Пили
Убил
Цр҇
вко
вло
гі
дѧть
иніи
клъ
уг
ценою
шѧ
ьсти
юж
янь
ѕо
іже
ѡа
ѡпро
ѡпѹ
Ѹже
ѿмета
҆сто
Ꙁем
ꙇс
##обь
##тникъ
##рны
##рши
##вми
##нства
##мї
##мленіе
##цкою
##илꙋ
##пко
##ѡмоу
##жку
##ѫщих
##҇ліе
##ѯер
поносити
##водѧ
напль
##лосо
##ловича
##рае
##ноє
##мъсѧ
##ровити
##вате
##тооу
##нали
тожъ
##дикъ
даровъ
дошедъ
всмъ
##тара
##леж
бое
##шать
свода
сести
сельца
горить
содо
сошку
совесть
нищи
##льми
##пои
оухо
оуꙗꙁ
##шима
проходѧ
прочетъ
прострѣ
простеръ
##силь
капа
съмѫ
##ставы
##саю
##сари
##нѣми
##ньским
стхъ
отнял
##бино
##битель
сидели
белѣ
##чаги
реп
реках
##стоѡбразно
тела
текоу
##пию
є҆се
паръ
##рузи
рождъ
малⸯко
личе
##заль
##заніе
изло
чедо
вѣче
вѣтрь
житеи
##лѧта
##лѧномъ
статью
##кула
##сошасѧ
всѧцѣи
##съпо
дѣлу
мноѕѣ
выре
пети
добу
Поко
Посо
Помина
##творе
стопы
бѣгъ
сып
руба
прѣспѣ
разгне
развращен
месѧ
ѡ҆прав
тѣша
страстеи
ловець
##рꙋю
плаь
бие
възмете
##дꙋтсѧ
каков
краю
лед
левою
##мѧте
имаеши
доброу
Тогды
мѧсъ
поимꙋ
трите
благовер
благодѣте
бьр
всяку
писанїе
духъ
бали
баран
пусть
о҅ти
о҅ста
о҅сѫ
семиде
слушати
погьі
нас҃
жад
##ниихъ
##женных
тьлѣ
человѣци
поможеть
помошть
Кол
Кора
имѣет
братѥю
и҆зѧ
и҆зсѣ
и҆здалеча
женахъ
испльни
дѣлатель
рѹкою
скаред
спсе
черь
приидох
сѫщь
судѧт
Александрь
благь
благꙑ
васиана
цѣли
Зави
петрову
Мака
хр҃
##ешисѧ
харти
##емонъ
требова
Сих
Сихъ
ст҃омꙋ
малою
##выихъ
шити
побѣженъ
##рѡмь
мнѡство
исповѣсть
##чюгъ
мѫкъ
смѣло
поруч
поручи
Собор
##реніи
##ющася
свиту
рабом
ногамъ
внидет
##терѣ
троуд
высотѣ
строеніи
царевича
убить
стыѫ
стымъ
##нꙿми
самарѧ
дроуг
дроуги
греци
недостой
просвѣт
тернов
татара
попови
естли
дьяки
кораблю
##зумѣ
повѣлѣ
Вѣроу
григорью
##имать
серебром
напада
востает
праздьникъ
##держалъ
правите
пособити
конюховъ
Бѣси
##стерю
рѫка
видевъ
борца
благословеніемъ
попал
книгамъ
поноша
пѡб
нб҃сѣхъ
тимошки
митрополитом
послѹшати
патриархом
снѣдѧтъ
боудете
##ѣхали
живуть
поедь
лукавства
ꙁлоба
апостоли
миките
медведи
украшения
рѧза
широка
еп҇
Духъ
повто
русскую
##сѡже
вышніи
##дареніе
хвалимъ
собаке
ѡ҆бразомъ
хꙋлꙋ
спрашивал
назади
живꙋщымъ
прошломъ
Деревни
ермо
колⸯко
пойди
пойду
хлебы
покоитъ
преподобныи
казнили
невеще
слушаите
вселенней
и҆мѣти
оружи
ѡтроча
##помни
##пташа
церковных
Филипа
дѣиства
тобол
##щеные
Трое
претыка
низложи
пьрвѣѥ
младенцы
празникь
съблюди
##рнори
принесеши
вопрошаше
мрьт
копіе
фарисе
Блажени
текстът
вседержителѧ
вꙿсѣ
ꙁлатооу
жрътвѫ
помышляше
запечали
галичь
тържь
праздники
мышцею
каменемъ
дмитрея
ꙁыкь
мѫченикъ
и҆спыта
##клонніа
приговору
поживеши
генварѧ
Златыхъ
бочекъ
магмет
магметъ
составы
мнишескіи
бесконеч
халде
кожахъ
грыжу
о҅браꙁъ
є҆зекіи
главиꙁнѣ
а҆вессалѡмъ
апостро
##тцеть
дочерью
ѥздити
птенець
бж҃їею
преписвачът
межам
Михаилу
зерцало
сафьян
завꙋлѡ
Пилигри
εν
Аи
Ельма
Золо
Заго
Испо
Изы
Лво
Лву
Меня
Олександ
Сту
Чь
Яков
алю
аничь
бмь
втаи
вль҆
в҄ы
гга
днъ
ене
еши
есе
ишедъ
ктѡ
лвѣ
оро
олене
олексея
сх
сїи
уль
услы
хмѣ
чт҇
ят
єто
ѡсподи
ѡдна
ѥг
ѻного
ѿло
ѿвъ
҆мѹ
ꙋвѣ
ꙋени
ꙗвит
##од
##обо
##оба
##тли
##шняго
##ꙿми
##инъ
##имоу
##плати
##ѡнѣ
##іли
##ⸯна
##ⸯста
##бпо
##ядець
##жї
##жнаа
##зѫ
##ѥво
##҇іа
##ємоу
##стная
##стник
показу
попита
##тиною
##лог
##ложа
##лофер
##равъ
##нося
##вав
##ванова
##ваємъ
##диле
##дима
въшьдъ
##жесто
коѥ
което
коемꙋ
кобѧ
воне
вось
прими
приха
##дори
##доши
моле
##неза
зазь
застав
заступи
сеѫ
сепо
селоу
сестрою
##верица
пролыга
##ману
##рѣмъ
какими
съзъ
съгна
##стать
стрь
##ходити
отм
отцемъ
отцем
##бимъ
белка
##нуша
носу
пасы
патре
патери
##скога
прело
ваи
вана
маки
##панѣ
##бѣгъ
литви
##мѣсто
изро
вѣкѡвъ
##сецъ
##щата
##щаемъ
винъ
виждѫ
##сото
##нѧя
##луж
дѣтель
выпу
пес
##тывать
##скиѣ
возгра
##енааго
##твопре
##оуго
стора
вьсѫ
сыновь
рускои
##чьное
праваго
разбо
разбиша
а҆мі
ѡ҆пре
ѡ҆стан
ᲂу҆ѧ
нѣмѣ
нѣгде
і҆евꙋ
Непо
купу
имⱕ
стражꙋ
иномоу
##дѧщаго
сѣда
чаемъ
Богом
##лѹша
перевѣ
отъи
платят
мужество
господу
господним
##ютсꙗ
Томже
ласки
поидетъ
перѳи
какво
видѣніи
##трово
##трополи
людїе
власи
духу
##сномѹ
бан
баба
пуда
дие
дикую
сꙋды
б҃оу
когоже
ꙁаб
мъла
гадъ
дважды
нашла
погло
братѫ
и҆зго
воинѧ
раꙁмѣ
луц
рыжа
пріидите
скат
Присно
сплет
млтвы
арꙿ
дъмъ
Задон
петрѣ
##грѣшихъ
злосер
чл҃цы
##телна
истинꙋ
грозно
Минчи
е҆гда
чье
##гꙋю
сторожемъ
поставитъ
написах
глетсе
воротити
должен
помира
всѧкіи
свить
вь҆ꙁи
пригодить
мяг
конемъ
днех
днеска
