[PAD]
[UNK]
[CLS]
[SEP]
[MASK]
[GAP]
[CTX_DAILY]
[CTX_EPIC]
[CTX_LIT]
[CTX_LEGAL]
[CTX_CHURCH]
[CTX_SCIENCE]
·
:
!
(
)
*
+
,
-
.
/
0
1
2
3
4
5
6
7
8
9
;
?
A
C
D
E
G
H
I
J
L
N
P
R
S
T
U
V
W
X
Y
Z
[
\
]
_
`
d
f
g
h
l
r
s
u
v
z
{
}
~
¨
¬
­
°
´
º
á
í
ï
ó
÷
ú
ý
ı
ł
ȣ
Ȥ
ȥ
ʹ
ʼ
˙
Α
Β
Γ
Δ
Ε
Ζ
Η
Θ
Ι
Κ
Λ
Μ
Ν
Ο
Π
Ρ
Σ
Τ
Υ
Φ
Χ
Ψ
α
β
γ
δ
ε
ζ
η
θ
ι
κ
λ
μ
ν
ξ
ο
π
ρ
ς
σ
τ
υ
φ
χ
ψ
ω
ϕ
Є
Ѕ
І
Ї
Ћ
Џ
А
Б
В
Г
Д
Е
Ж
З
И
Й
К
Л
М
Н
О
П
Р
С
Т
У
Ф
Х
Ц
Ч
Ш
Щ
Ъ
Ы
Ь
Э
Ю
Я
а
б
в
г
д
е
ж
з
и
й
к
л
м
н
о
п
р
с
т
у
ф
х
ц
ч
ш
щ
ъ
ы
ь
э
ю
я
ё
ђ
є
ѕ
і
ї
ј
ћ
џ
Ѡ
ѡ
Ѣ
ѣ
Ѥ
ѥ
Ѧ
ѧ
Ѩ
ѩ
Ѫ
ѫ
Ѭ
ѭ
Ѯ
ѯ
Ѱ
ѱ
Ѳ
ѳ
Ѵ
ѵ
ѷ
Ѹ
ѹ
Ѻ
ѻ
Ѽ
ѽ
Ѿ
ѿ
Ҁ
ҁ
҂
҃
҄
҅
҆
҇
Ҍ
ҍ
ґ
ӏ
ӑ
ӓ
ӥ
Ӧ
ӧ
Ө
ӱ
჻
ᲂ
ᴤ
ᵕ
᾿
‎
‐
‑
–
—
‘
’
”
†
…
″
※
‿
⁓
⁖
⁘
⁙
⁞
⃝
№
∙
∷
⋮
☩
☺
Ⰳ
Ⰻ
Ⱈ
ⰰ
ⰳ
ⰴ
ⰵ
ⰹ
ⰻ
ⱁ
ⱄ
ⱅ
ⱆ
ⱉ
ⱎ
ⱏ
ⱑ
ⱔ
ⱕ
ⱖ
ⱚ
ⷩ
ⷪ
ⷮ
⸭
ⸯ
⸱
Ꙁ
ꙁ
Ꙃ
ꙃ
Ꙅ
ꙅ
Ꙇ
ꙇ
ꙉ
Ꙋ
ꙋ
Ꙍ
ꙍ
Ꙑ
ꙑ
ꙕ
Ꙗ
ꙗ
ꙙ
ꙛ
ꙥ
Ꙩ
ꙩ
Ꙫ
ꙫ
ꙭ
꙯
꙳
꙽
ꙿ
##о
##с
##и
##ѣ
##т
##п
##е
##ц
##щ
##ꙿ
##ш
##г
##р
##б
##н
##ь
##ѧ
##ж
##а
##в
##ъ
##л
##ꙋ
##х
##у
##ѫ
##ы
##д
##ю
##ѡ
##м
##÷
##к
##ꙁ
##҆
##ѥ
##з
##і
##҄
##ѵ
##҇
##ї
##ѹ
##ѳ
##ѭ
##є
##҅
##ѕ
##я
##ч
##ꙗ
##ꙑ
##й
##ꙙ
##҃
##ѯ
##Ѻ
##ф
##ⸯ
##ʼ
##ꙉ
##ο
##ν
##ι
##α
##μ
##τ
##ѩ
##ҍ
##ѻ
##ε
##꙽
##3
##ꙃ
##ρ
##σ
##λ
##η
##ς
##ⱕ
##­
##ѿ
##ћ
##᾿
##π
##θ
##ꙇ
##4
##2
##ґ
##꙯
##ꙅ
##ӏ
##ȥ
##υ
##ω
##џ
##φ
##0
##º
##6
##5
##҂
##χ
##ѱ
##κ
##°
##β
##И
##8
##7
##9
##γ
##δ
##О
##В
##С
##Т
##h
##1
##Б
##І
##Г
##ⰵ
##Ѳ
##ⱑ
##ⰴ
##ⱎ
##ⰻ
##Ꙗ
##Л
##М
##П
##А
##ʹ
##ҁ
##ꙍ
##ӑ
##¬
##r
##u
##ȣ
##э
##ᵕ
##s
##ӱ
##‎
##d
##ⱚ
##ξ
##P
##I
##C
##ⰹ
##ϕ
##ⱄ
##ⱏ
##Ѡ
##ⱔ
##ꙥ
##ζ
##ӧ
##К
##Ъ
##ѷ
##Х
##ⱉ
##f
##ѽ
##ï
##Р
##ё
##З
##ⱖ
##l
##ı
##v
##Ѕ
##ꙛ
##H
##U
##R
##⋮
##ł
##Ѣ
##E
##G
##A
##L
##Ж
##Е
##⃝
##Ф
##ᴤ
##˙
##´
##ј
##ꙩ
##ⷪ
##ⷮ
##N
##Ꙑ
##ђ
##Ь
##Я
##ⰳ
##ⰰ
##ψ
##z
##í
##g
##∙
##¨
##ý
##T
##Ц
##Д
##V
##У
##X
##Н
##ⷩ
##Ꙋ
##Ч
##Й
##ó
##Y
##ⱆ
##ⱅ
##ꙕ
##ꙫ
##ӥ
##Є
CT
CTX
##ст
по
##ов
##го
на
##ко
пр
##ти
##во
##ен
##ли
##мъ
##ра
##ла
не
##ет
##но
##ни
##ро
##ло
##то
##ре
##ка
##на
##да
##ть
##ва
##ри
LI
LIT
то
##ем
въ
##ди
ко
##ны
да
во
##же
##хъ
же
##ми
##ер
##та
##ки
CH
##CH
##UR
CHUR
CHURCH
##ел
при
бо
EP
##IC
EPIC
вс
DA
##IL
DAIL
DAILY
##тъ
до
го
сво
##де
##до
##ви
за
мо
##мо
##ле
##ша
LE
##GA
LEGA
LEGAL
##му
##сть
##не
##ся
ра
се
##чи
ни
##лъ
##ль
##ше
##ши
##ова
##рѣ
##си
##сти
##те
ка
SC
##IE
##CE
##NCE
SCIE
SCIENCE
GA
GAP
и҆
##къ
со
про
съ
##са
##ма
##ста
##по
##рь
бы
от
##нъ
##бо
ве
та
##ну
##че
##дѣ
##жи
##га
ст
##ру
##нѣ
##въ
##вѣ
##ще
##уд
##мь
оу
ми
##нь
##ск
лю
##ско
##ня
##ры
##ча
##лов
##ени
или
##ца
##лѣ
##би
##пи
##еть
##мѣ
##жа
##ве
тво
сѧ
##ръ
си
##етъ
##ере
па
что
##дъ
те
ста
##сто
##іе
из
ва
##су
его
ма
##хо
хо
пре
пос
##ха
##ку
ре
##ря
##па
вели
##лу
##лю
##бѣ
къ
##каз
ро
бе
##ово
##ля
ца
все
ли
вѣ
са
##ду
##ща
свое
##ски
##дь
буд
##бе
##ме
##щи
##ты
##іи
вы
гра
пи
##суда
жи
##лы
##сѧ
ви
##ба
##ень
че
##вы
дѣ
##се
##ги
сы
ру
##чь
##сла
зем
госуда
но
##ков
бра
об
раз
ти
свои
мно
##це
##спо
##ву
##ови
сто
##ды
де
##со
є҆
##ове
##ена
##ска
##вь
доб
кня
##сь
##за
кото
##ци
##шь
##овѣ
##съ
воз
##гда
ты
##лаго
есть
того
##нѧ
По
##гу
мѣ
##тво
##рю
##бы
яко
##мы
##лѧ
отъ
княз
##сты
бѣ
ме
##ство
вь
лѣ
пра
тѣ
##овъ
##лен
##гъ
##жь
##нд
пу
##рѧ
ис
##ене
##кы
су
прѣ
ку
##зъ
##іа
всѧ
##цы
чи
##сѣ
им
##тѣ
##пра
ему
тако
Да
ся
##тел
Бо
##сте
ива
##вер
их
под
##оу
гри
##ту
##емъ
##ное
##ему
Не
чел
##ные
##ено
##енъ
##ных
##н҃
какъ
вел
слов
##зи
чело
##гѡ
нѣ
дво
##ць
##вя
всѣ
пере
без
##л҃
велико
##цѣ
##емь
люде
вз
##бра
##мꙋ
##лова
##мѹ
##мер
указ
пол
горо
будет
кто
##наго
которы
стра
##стъ
##овы
сла
##ется
ꙗко
вся
въз
рече
пок
ча
##шка
##ют
ду
##ню
кра
ино
кре
му
дру
дере
би
ско
поло
##вати
##ены
ле
пе
сѣ
##стави
своего
а҆
##іѧ
ту
Го
##чю
##мя
##твори
ꙗ҆
пла
ихъ
##ныи
##тя
##ете
##ние
дерев
##сы
##ску
ес
##сп
бь
##ію
##тчи
##ке
##ров
##ств
##лек
грамо
воло
твои
##зы
##бь
##ной
има
ѡ҆
##горо
цр
васи
еди
##ение
##ныя
тому
посла
глаго
##ства
госпо
##у҆
##кѡ
##каза
##бъ
ст҃
##мен
##ев
ᲂу҆
И҆
гла
##пу
##ныхъ
тебѣ
пер
##г҃
твое
##нов
аще
##цъ
ло
ради
сь
боя
много
##ніе
люди
грѣ
##дѧ
мило
имъ
##став
земли
і҆
##тро
##хи
еси
##ху
бу
##дя
мы
слу
##моу
како
##стья
гс
##ского
##насты
##бя
##сту
писа
свѣ
дь
Въ
мое
##рꙋ
вла
вер
ла
рѣ
##лев
##гы
мнѣ
добро
иже
свя
день
людей
##ною
##зо
мои
лу
##ком
##вел
три
##едо
уч
##еви
##кова
##ного
него
На
##нꙋ
##писа
и҅
##зь
##ным
царь
##лекса
чет
имѣ
бога
государе
пои
сем
чю
##ште
челом
##аго
свою
тех
То
ба
чер
сего
##бою
указѣ
##нова
##нови
проти
##ную
##дни
##лександ
##скы
быти
видѣ
##дꙋ
##комъ
тем
дѣла
коро
вотчи
еже
благо
вои
##рѹ
##нѹ
гсд
ны
##ако
них
вре
##тся
##еніе
##лѹ
живо
бг҃
##нымъ
князь
##бу
челове
##цу
##лови
гд
##яти
##слав
которые
подо
##лꙋ
велики
##ар
Госпо
##три
лѣт
кого
##овори
##ютъ
##вра
##ная
землю
холо
люд
бж
##номъ
они
##ному
которо
нико
##лыша
##хаи
человѣ
##стѣ
##мѧ
##нити
##ном
##еле
мен
стрѣ
##пе
вра
наш
##ель
яз
##ан
слово
гд҇
тъ
государь
кнѧ
повел
убо
поме
намъ
##дра
##детъ
##дити
##пъ
##кла
себе
учи
г҃
##про
Аще
сын
два
сѹ
дер
пред
государю
руб
ди
грив
кор
га
монасты
##стро
тя
мѧ
##ской
##гра
ѻ҆
Александ
помо
##вше
##сл
василь
##доша
зла
зна
##ными
##кѹ
ар
жа
##ут
старо
##сло
##нии
дове
##ета
##елъ
бл
##рова
было
##ють
бꙑ
##дати
хра
ѡт
##кра
ше
##жъ
ки
Ко
##тре
приказ
князя
сер
сторо
твори
себѣ
кни
разу
##ложи
роз
##нꙑ
прии
том
самъ
##ника
поса
бла
Во
##ія
##тися
цар
бꙋ
##тѧ
изъ
##скаго
пото
моли
кон
##ноу
будетъ
он
##кѣ
всеа
##лко
Се
##шли
наше
##щь
##ный
руси
б҃
##с҃
##шу
##кь
##рови
##ения
для
##скому
##пѣ
ры
крестья
##дѹ
суд
##ево
##зна
##хь
сына
онъ
довед
мь
##ловѣ
покло
повелѣ
##ева
##вѧ
##юще
##жде
быва
прода
зап
##вет
##ское
сотвори
пет
федо
слове
##деть
##ез
смер
бол
мъ
нъ
ри
##тье
##еха
наши
нача
##жно
тре
##ские
царю
##тца
##ихъ
нас
само
##тв
##сно
##димер
доведется
тр
##жен
є҆гѡ
бысть
пѣ
##ц҃
##тель
##зѣ
##роу
това
жен
тѧ
##имъ
##сли
всем
жена
##ять
великого
##дет
тебе
##дно
##кꙋ
Но
Ми
печа
##ковъ
##слов
ог
##раз
моск
##стра
сꙋ
##лико
всяки
ꙗ҆кѡ
##шти
ть
всѧко
##и҃
дн҃
##фо
сте
томъ
##шъ
нед
мѹ
пог
##жд
пожа
пло
коу
ѥго
в҃
как
##щен
добры
##мени
##вити
ꙁа
роди
##прав
##цко
вси
бес
въꙁ
нем
##никъ
слыша
чь
мене
боль
гр
таки
##нет
ѡб
господи
нь
смо
анд
##рт
##нѡ
обы
мл
бл҃
пока
##коже
##жда
##ских
##вать
меня
##пол
сна
игу
##ову
царе
До
##зе
мѣсто
##ству
запа
##лати
ос
мꙋ
говори
##хомъ
##пь
##ском
подъ
##твор
##ково
велика
##ніи
##шо
будеть
цер
Ма
цѣ
##шки
##доу
михаи
Со
о҅
##слс
##нут
царя
##скои
##ян
##кою
бѹ
насъ
##реб
реч
##грѣ
##цо
##дова
многи
Мо
брат
бж҃
ск
крѣ
поро
##нои
##ꙁа
своихъ
своимъ
гл҃
##дер
##еши
тот
егда
кр
хри
той
##ломъ
##цѧ
уго
##славъ
люб
раꙁ
##хꙋ
челоби
ходи
паче
ши
Ни
##рг
сътвори
##кꙑ
своѥ
##тра
##гна
бити
##ні
ска
богаты
бере
сп
воево
##нѫ
поп
держа
бояр
##ходи
бли
такъ
##вали
мало
постави
ево
##тити
##жу
чловѣ
своих
вамъ
##лько
При
##шен
пусто
##ром
зло
Ка
князю
##лем
##зни
прав
##вед
своему
##скую
деревня
##шта
Тако
нимъ
милости
пода
и҆хъ
очи
##тр
пору
##лни
взя
ея
##чен
Си
кому
написа
послѣ
##їе
##ния
радо
##шт
после
нихъ
исти
##лся
спа
якоже
##фи
##овь
##ите
##фа
д҃
##ерь
##в҃
похо
##доб
людем
отда
мар
русии
За
##аше
сн҃
пис
Ра
любо
##том
##стои
всѣхъ
имати
##деши
##цю
поко
##лоу
Му
ан
##зда
дни
бъ
мне
кру
##шко
дъ
##ющ
##ющи
куп
##ковы
##неже
ша
послу
приве
себя
##дро
григо
стар
##наѧ
время
##мыш
##коу
иванови
бори
митро
зако
Та
пря
рѹ
##шю
небе
своей
положи
##ето
доро
великому
тогда
дати
пушка
собою
села
градъ
Вла
##емꙋ
##домъ
дол
поми
##поли
цр҃
Аже
мя
рꙋ
##нен
пища
своими
гро
пакы
##шед
пріи
сынъ
каба
пь
сви
жити
зо
Иль
против
##вши
тѣмъ
холоп
подоба
смѣ
оубо
##ꙑи
##кую
е҆
каза
четвер
тои
тебя
гнѣ
##жни
дре
сѫ
уби
##00
обра
ство
учнут
##лени
и҆з
буду
воин
всѣмъ
серд
пѧ
##сели
поле
##вое
##кви
неи
око
обо
##ити
побѣ
сице
##ѕ҃
гор
##томъ
##мена
##схо
##при
почи
иль
##шя
иван
кро
кла
града
своею
тро
повѣ
жены
конь
азъ
##҃и
учини
двор
наказа
володимер
чтобъ
брата
дѣло
##наа
##ге
язы
і҆и҃
моло
добра
тꙑ
есми
архи
хлѣ
над
оби
##гѹ
ин
Съ
дом
объ
город
исп
вꙑ
соу
##мень
Бога
##лѡ
ст҃о
##воло
##зу
ними
##пре
##сѹ
##цки
##им
запи
пошли
##тью
##гла
##чя
ха
пречи
гу
##лено
град
##скихъ
уез
##что
ивана
гривь
митрополи
##това
##ники
што
святы
сро
##хов
возмо
нб
##ница
##щу
##стию
Са
##жет
##тов
рабо
вол
##евъ
иде
##тва
Про
сказа
҂ѕ҃
будут
пожалова
суть
гд҇ь
ꙗкоже
дми
высо
слав
государя
каз
воро
кѹ
##люби
##вѣща
##лом
Божи
Па
##нье
##ят
стро
дани
##шени
иꙁ
##бор
##лн
##емо
ѥму
слѹ
покла
гдѣ
тамо
отца
##рен
Ки
своя
государевы
##стан
##бѡ
хр
коли
патри
всего
##гꙋ
были
нꙑ
кꙋ
чисто
сел
пꙋ
четы
Александръ
##городи
дꙋ
##чно
От
##пере
##ромъ
земля
##ема
##кло
нему
здѣ
види
нѣко
люби
##цов
тру
чл҃
тѣхъ
полу
##штя
взѧ
бг҃ъ
голов
монастыря
тобою
ѥ҅
свой
треть
нов
##быва
отпу
твоего
москов
пот
была
##їи
бого
дья
разумѣ
мой
домъ
нашего
грамота
##жени
##лет
коне
спи
##шѫ
патриар
кралев
##мет
мат
зъ
##бли
пох
ответ
##гово
ваше
муд
мол
миха
мѣста
буди
имя
сами
##ници
##мыс
##гь
всемъ
купи
##ніѧ
полъ
ильи
немъ
служи
дела
цел
##валъ
##ским
вни
челомъ
Хри
ꙁем
##чу
хотѧ
##нию
ника
##ницы
всегда
людь
##чер
Тѣ
хотя
хи
##ніа
##кры
##дом
вода
##шаго
васъ
##ѣха
васильеви
устро
##или
##тсѧ
##вно
бл҃го
братье
приш
сере
сам
с҃
моего
объя
брати
аште
так
друго
врѣ
Ви
дал
всяко
е҃
##рей
##лены
Господь
мате
црк
##ей
мла
##лися
##овых
кнѧз
былъ
стѣ
##юща
##люб
##ляти
господ
проси
##деся
есмь
указу
еще
понеже
помѣ
право
деревни
ср
##жати
##їѧ
дв
є҆го
служ
заповѣ
ныне
жалова
дн҃ь
Ла
##шни
андрѣ
ѳедо
спо
сꙙ
##скимъ
##рити
здра
##жю
дете
непо
имѣти
сов
##рою
##ею
##лин
въда
лѣт҃
манасты
человека
семь
##ствова
##ѣло
##стви
дома
грамоты
прямо
слова
подоб
##неть
всю
##цемъ
ль
пола
Богъ
где
##его
##тья
##ео
##ныѧ
чюдо
##чести
дне
Богу
нам
году
взяти
од
соро
милость
Что
##ꙁъ
едино
гре
##елѣ
испо
##ются
вой
##мене
хотѣ
є҆мꙋ
##тки
##говори
Михаи
Муро
четыре
ржи
##нааго
тобѣ
##вить
##стѧ
##хом
бѧ
дене
##дить
ответчи
Доб
стану
##хѫ
##тей
прине
##а҆
бг҃а
##сꙋ
##слава
смерти
мнѡ
##ник
##ступи
игумен
стоя
##тина
уезде
##рица
торг
деся
##шꙋ
##бой
яро
гсдрь
##вля
недру
хощ
##рин
##жень
##чет
лѣта
въсѣ
моя
жъ
Ива
##тꙋ
вотчин
##врати
мер
бьет
##хѹ
##чено
здо
##ыта
##вичь
##кто
скоро
##иде
##вꙋ
##уды
пречисты
своим
безъ
##скии
##носи
чтобы
выше
прі
##чъ
приго
братьею
##спѣ
##ковь
деревню
противу
##смь
акы
паки
обрѣ
свѧ
##лич
сты
##ленъ
##връ
вьсе
##дите
дрꙋ
поу
рек
стре
##выи
##нча
своем
наро
##раб
возможно
Илья
тоу
дш
є҆сть
аг
##бѧ
Нъ
она
##город
##леніе
гл
золо
##лка
наре
поместья
##тин
стары
рублев
потре
##ская
нынѣ
учнет
##сомъ
##зва
размѣ
стрѣль
целова
Еру
юрь
##тер
великаго
Пет
##сиф
такова
##чени
свобо
##нꙗ
коня
св
##динъ
##нику
##тка
весь
своеи
ал
мѣстѣ
ден
велми
ильичю
##нею
##чей
крестьян
Егда
##стя
иска
##лей
оп
Ерусло
богороди
преда
людеи
Моск
которой
##нѣи
кри
желѣ
ѹбо
##дца
перед
сло
Муроме
##таго
города
числа
товары
##ровь
семъ
оста
двѣ
##дою
##т҃
дон
человѣкъ
##казы
нау
лѣто
вар
две
сеи
дворе
##рово
рос
##ников
неже
невѣ
##немъ
##дех
##дов
##ться
стои
##ж҃
чтоб
беꙁ
глагола
григорь
ниже
иску
що
мѫ
##тоу
##кмо
##блю
пустошь
творити
##рі
тыся
##рѡ
пожаловал
гн҃
достои
камен
дет
ѡби
##ровъ
зане
Ве
##х҃
ию
прия
Ꙗко
прос
слы
сле
недо
ней
семен
ѡбра
крас
##ьми
великий
##ствѣ
##споди
твоя
##цꙋ
имен
оте
##мр
отро
оть
##лика
приста
дети
##ново
##що
##ками
только
##десѧ
ок
##жеть
нога
чл
сил
глаголю
толко
приде
##вна
человек
сл
прихо
##ѥть
##тьи
огнен
полови
##дари
##торо
дн҃и
памя
нѣсть
б҃ъ
Вь
бꙋдетъ
есте
##мьже
##жне
творѧ
Вѣ
Пре
дѣлати
добрѣ
Бова
роу
давати
тра
##стꙋ
к҃
пош
подви
благослов
десѧ
прежде
доу
далъ
друга
онд
##шихъ
число
##ствꙋ
вотчины
боу
бесѣ
ио
тꙋ
веле
сихъ
##ждь
кн
а҆ще
ст҃ы
сама
##щю
##дит
рат
ее
##лꙗ
пого
##нина
обыча
##бꙑ
кунъ
##крас
дале
##ряду
Ро
##мно
створи
реко
крѣп
тутъ
##бити
гсдрю
ке
постав
клю
##прѣ
##рина
тое
приеха
Ва
##цем
##тели
##мѡ
ново
##гло
словеса
10
Сы
##воли
и҆же
Хо
ц҃
Ре
сед
проро
море
фа
##леб
##дья
собра
поч
мною
тѣло
##еми
Ту
##еѡ
матери
дра
гю
ѥси
вѣру
іѡ
нач
раздѣ
чест
пти
##ждо
позна
лоша
##дими
пога
полов
степа
платити
##рти
твою
обѣ
##ця
Ты
лета
пове
х҃
##говѣ
тата
##еи
##нит
ря
##брѣ
миръ
##говъ
хто
вься
пож
сми
##лта
##хы
дѣти
хоро
вд
звѣ
##ими
яже
##стей
##шѧ
жела
дружи
##слу
руку
##деже
иск
чети
дасть
##дѫ
##лою
болга
рус
которое
таковы
пом
напа
##лена
є҆си
пѹ
ним
##дѣти
##клад
лѹ
##стрѣ
государ
##торы
##скомъ
##пова
##лити
ем
##нꙿ
въс
кы
##дут
своемъ
тер
плем
ей
сыну
сре
Како
остави
дву
вьсѣ
оже
вес
##писко
##реи
посо
##прави
детей
моему
преже
##пати
своѧ
исто
##домо
##нію
надо
пяти
мужа
поиде
##дви
весели
пребыва
##вал
перво
блю
##жетъ
##дръ
съгрѣ
быс
##вш
вѣр
мики
##заре
поги
##цом
присту
бѫ
Госуда
собѣ
##стер
воевода
##теи
единъ
##щꙋ
чего
##нт
свер
##слави
дрѹ
##и҅
слава
посы
дмитре
##вая
могу
дръ
ез
##тю
тимо
##гомъ
##лых
поеха
стол
сть
##ваго
##въше
оба
##бла
тѹ
##ій
пять
крѣпо
погу
ото
##кре
земле
##гды
правед
##вка
чемъ
котора
пръ
##женъ
жит
всѧк
##повѣ
##знь
цари
дело
##стье
##ныихъ
##скыи
##тить
блго
##шень
##енави
хитро
##ѧти
емꙋ
дроу
сра
дав
село
зи
##шати
скор
дворя
грамоту
##бря
##стью
рь
дх҃
##слыша
многа
##мысли
таково
##жѣ
А҆
потому
ники
##цею
мс
емѹ
све
##пы
##ником
може
##тно
суда
глагол
##лина
съвѣ
##кедо
вь҆
##мест
##ление
##гоша
гот
##стити
##ский
##смо
##ден
##воз
градѣ
##новъ
прекрас
Бѣ
кони
##ския
##рати
велѣ
Из
аже
##шедъ
всея
аз
елико
божи
име
##нья
дворъ
томѹ
ест
потомъ
нет
быть
##вою
ѕ҃
грамоте
государеву
##каго
болѣ
пав
плъ
молит
верх
смот
посадни
##ших
##нима
##того
##еву
##бꙋ
пови
род
Яко
кн҃
пост
##нить
старости
вѣда
пречистые
##нью
ору
##сꙗ
ѥсть
##вьр
жь
сели
нами
##тою
##нетъ
прѣдъ
ст҃го
всяких
и҃
которых
книга
##хра
##чего
Вы
##стве
свѣт
присла
##дꙑ
пити
всеми
чюдотвор
учинити
имѧ
##овым
совѣ
силь
прем
жив
слꙋ
##сни
сту
фо
##праши
##рину
мою
##е҆
дому
##гоу
##ешь
бьют
##гли
##нѹю
кры
укра
царство
##нем
надъ
четве
храб
є҆же
##правити
шесть
Добры
а҅
##удь
##ѧть
быша
##рии
поби
такоже
прави
Господа
##цкого
##кови
12
##щеши
##шку
истин
трь
цет
##рит
прп
##жить
христи
##ніемъ
андрѣю
велик
обе
##щіи
чо
лѣтъ
##лись
##жество
влады
##овые
хва
поз
никому
##шася
живу
##пря
##ꙁь
людемъ
##щаго
буде
малы
церкви
своея
чем
##евы
волости
ничто
всѧки
##стѹ
покланѧ
##шимъ
сыщ
меж
##яше
##жены
пришед
мѡ
Владимер
денги
емоу
##сии
изѧ
##ваетъ
совер
всѣми
мі
людьми
##сер
##ѡвъ
уо
надоб
##ниѥ
##шет
##телю
сердце
ги
л҃
изы
ав
пришли
монастырь
бор
##тое
дастъ
жере
проме
##ті
ꙗ҆коже
##проси
ꙗро
мужи
держати
##скъ
##нка
Все
коню
##держа
кои
обла
а҆зъ
слѣ
##ѣз
землѧ
мужь
##ех
Ли
помыш
##ремъ
##ц҃а
андре
Пи
кнѧзь
угодь
лоу
съмѣ
##рѫ
вотчину
пищали
Ино
##вѣтъ
Лазаре
Его
##меть
немо
##леви
##шне
дш҃
##има
боле
изо
##лага
Бе
##слови
тотъ
##чем
наша
Ста
це
сва
##гнѣ
##дна
##чих
имать
ост
##дин
гр҃и
стрѣляти
бѡ
##ья
всех
образ
##тѹ
##рꙑ
королев
архима
Свя
тор
бываетъ
##лга
##городь
##д҃
и҆мъ
з҃
таких
въсе
непра
##чемъ
ще
таи
говорить
оучи
аки
вме
деле
##темъ
##стов
двора
величе
##скими
ап
##казу
велеть
фи
##жѧ
мор
чере
м҃
о҅тъ
іва
##йся
сие
дел
##еною
духов
##рове
бро
силы
##сен
воста
##ствен
уря
ху
передъ
пома
приложи
соло
муж
немь
##ѣи
городъ
жену
ов
кръ
##деи
твой
ць
место
подобаетъ
повѣда
бре
осо
алты
вас
зѣло
прика
доста
творя
веда
##гов
##сов
год
другу
своѥго
##чка
н҃
##ымъ
##посто
##ѥ҅
##стыни
изба
поклонъ
##нти
##зако
чево
##шть
##бѹ
многы
есмя
бгъ
##енье
писано
##чки
Прѣ
бѧше
рекъ
примѣ
##рени
тю
##мре
поча
##дино
прием
кли
всеволо
##рка
четверо
##цовъ
пушки
Или
##трѣ
##леи
томь
цто
лука
государева
##тцать
обря
челобитчи
ваша
возми
Дру
ю҆
кораб
##гран
мни
тысѧ
пова
##іс
зави
жало
вмѣ
сн҃а
ими
##йте
##стить
похва
##ꙁи
наи
##вои
гъ
силою
##ври
##лово
пути
##жена
##дѡ
пора
каки
##сок
дово
домо
і҆ꙋ
коло
нежели
Ру
##щени
ядра
##кого
##шасѧ
посад
Васи
уз
солн
покры
крепо
тол
##пор
преж
ꙗ҆же
##зем
##пити
помози
##ꙁы
брате
##врь
мир
воды
лица
вет
ядро
гь
вл
вда
##кыи
##скою
лъ
##ѳа
моѧ
##чина
иванов
##сль
##цкой
теле
##мира
вско
##нѣхъ
##гꙑ
##мꙿ
печали
Аште
##шити
рабъ
иные
##пꙋ
##шно
напо
михай
##слѣ
##крѣ
сталъ
господине
велети
##ньи
злата
##щъ
##тꙑ
##ѳо
богъ
##сити
горѣ
крест
##менъ
##елю
##левъ
сиро
показа
камень
лежа
##лексе
црь
чинити
і҆ѡ
корми
##нин
прок
##рем
досто
никто
б҃а
##тину
напра
здрав
жене
##мати
сыску
црк҃
лице
гн҃е
##мꙑ
расп
чадо
Ги҃
плѣ
##рѣи
нашъ
Стра
##жо
еи
##рми
нашь
въсп
мира
жо
##влѧ
чре
##стно
противъ
##кая
##их
мати
чя
мьсти
иму
##скꙋ
##жѹ
##жей
суди
##дне
правь
красо
попа
даи
##тати
##еодо
свѣтъ
##елен
бью
##скіе
праз
##говоритъ
лв
вѣч
игна
сіѧ
сереб
городех
вотчина
ивановича
винова
##гати
такое
блг
мн
##лно
сіе
яков
михаилу
сынове
присно
великъ
душе
впере
даже
спас
живота
сель
наза
##рить
##фе
напере
##пло
##евича
допря
направ
моѥ
допряма
фу
##лі
см
сия
ге
помещи
##ую
Мар
##веде
поклоно
##тора
сест
был
грѣх
товарыщи
впре
##щет
##гою
приказа
##дѣи
виде
указа
твоеи
##леть
Тогда
список
силу
кь
рас
пушкар
сыщется
юно
##соу
##ємъ
граду
днь
пле
##ріи
наде
богатыр
##житъ
##шися
##выхъ
Дари
Ца
моу
##нес
##зира
Солов
всѣх
напи
мл҃
Сего
але
Иже
##четъ
михаила
наслѣ
погре
##льни
нѫ
##ходя
взы
видѣти
небо
##тръ
##кѫ
приходи
роду
явля
##гова
твоѧ
ово
рать
другъ
Какъ
честь
твоихъ
рыц
егоже
##вен
##разу
##нно
брату
ѧзъ
воск
грѣхъ
##новичь
##таи
поно
пъ
##нѣмъ
гсдр
петра
уже
Лазаревичь
твер
хоче
##нное
дали
##теля
##тине
##каѧ
##щѹ
ꙗ҅
##твер
##жено
##жит
сила
грѣш
##дилъ
остав
грѣшь
Нѣ
##пѹ
##токъ
ѥс
реку
братъ
уста
ꙗже
подья
апосто
##ді
свѣта
##дитъ
пристав
пѧть
пѡ
##бои
поклони
будеши
рома
##щих
##зыва
Ме
##трь
волю
##лат
##ходѧ
кралевна
##емы
##ахѫ
отдати
100
широ
##жды
##бира
##жден
сьр
цо
##кси
въск
##лива
поля
##дина
межи
челобит
пск
вос
##ению
дѣлѣ
рее
##чити
богородицы
желѣз
ѡс
игумену
токмо
столь
прь
ну
и҄
##точ
##вую
иного
дондеже
согрѣ
времѧ
людех
Петръ
дро
сен
разбой
княги
##н҃ѣ
старе
македо
луги
множество
поима
большо
##ске
##проти
##десят
побе
##вести
шу
##нути
##лая
Есть
##҄у
извѣ
шан
##наꙗ
мимо
посре
рѹко
##дел
##етца
##дꙋтъ
созда
всѧкои
мнози
нашему
сп҃
##тая
##пко
приво
опа
##дар
искати
пожи
##рую
##ством
мысли
собо
всему
выш
##полкъ
##ньі
памѧ
##енью
небес
##рав
человѣче
##стре
Москве
сі
##стари
плака
мꙑ
приказу
млсти
##дать
##зя
погуби
ада
##а҅
##вый
женѣ
##обра
король
крестьяне
Оу
мед
дв҃
##емѹ
главы
ѡста
изволи
##штааго
коса
Александру
Владими
крь
##лии
прош
ваш
срѣ
Муромецъ
зми
##емоу
вместо
##глы
голова
##ѧи
##хѡ
##мѫ
заха
намест
##вых
ор
вельми
тюр
казна
##ючи
##мже
##ван
##уду
батю
умъ
##тен
въса
камени
##жіе
##ствѹ
кꙑ
##мина
##дѣла
прѣда
##клони
##ѭ҄
##стію
поче
суду
##щеи
##биша
##зно
просто
раба
еха
ѡни
сок
посѣ
человѣка
ондре
ед
ничтоже
тово
##удъ
##штю
послуша
##кое
брань
снаряду
##шꙙ
въста
##слы
##ꙁѣ
##ч҃
##ловъ
бѣло
трѣ
детем
##вки
##мол
мъно
древо
ф҃
##жут
видя
любовь
прости
руки
Бы
сей
##҄о
глаголати
самого
среб
##диме
нощь
Су
ере
##вся
##лики
##чею
злато
діа
дес
##женіе
##чится
##лове
всѧкое
воли
гораз
##вѣт
дьнь
##и҆
##нему
##комь
##вша
тѣле
Ду
##зами
Але
вод
пшени
путь
женою
ѳеѡ
##бно
прибли
соли
книги
федорови
написано
иго
тва
симъ
славы
кѡ
##вѹ
##яй
##жьство
ды
със
##щемъ
##щати
грѣха
##нецъ
70
##намъ
##демъ
ивану
##доби
##мов
наказ
послꙋ
великии
иных
тою
##нѣе
говоритъ
зе
чада
##види
цѣлова
нова
##дох
ити
##неи
##рги
##кър
##сом
жени
сꙗ
русь
трои
иса
главу
хъ
долго
Кіе
людіе
##писи
і҆ер
нарица
##лась
Того
пищаль
глу
грѧ
##гови
подобно
кар
##скіи
разо
Пр
гръ
сему
прилѣ
казнити
господство
намѣ
Христа
нимь
хѹ
когда
всѧкомѹ
##еве
вѣрою
обро
##гѵ
гора
горе
потя
##момъ
##стин
стани
сꙑ
пако
кну
##їю
лет
умер
безу
цареви
угодьи
наси
которыя
##кове
людми
подобает
ві
гѹ
куды
##вай
##чной
Отъ
опри
##ныа
великое
имени
##чин
ѡг
володимеръ
оса
дрь
##чим
##пис
вина
человеку
нн҃ѣ
фили
##жемъ
пошлины
Лю
ев
рубль
посыла
##луи
##нѣй
новгородь
чьто
кружа
##ину
конца
##чему
куз
рѫ
снѣ
уда
##рть
боже
##щеніе
брать
наказание
Ами
жез
трети
##фъ
топор
Къ
##шѣ
священ
##сподине
попо
наря
родител
##люблен
спраши
ѡнъ
гнѣвъ
##ниде
приле
своемь
коуно
али
##зю
слобо
пыта
##нта
##чати
##стѫ
слышавъ
борис
клев
памяти
попе
Кня
##гѣ
##довъ
##щихъ
лесы
николи
ико
маи
староста
Тъ
##дѣхъ
селе
най
такой
##скꙑ
дѣлъ
нощи
отпусти
сіа
гаври
ѡбрѣ
патриарх
ѳ҃
надѣ
##кову
сказы
##чены
суде
страш
души
##спро
Кто
##вꙑ
Муромець
пуше
всѧкомъ
васильевича
##жие
##воу
глаголя
кнѧзю
начаша
лѧ
##шеніе
москве
сн҃ъ
иду
бц҃
##ꙁо
##овымъ
рубля
колѣ
горы
ѧ҆
##біе
##мрь
серебра
ꙁло
##четь
пово
##нѣмь
##щимъ
пы
бга
вере
##сеи
денег
смерть
##тіе
##нцы
огнь
въсхо
##ниꙗ
иванович
твоему
ина
##бер
##той
выбор
стороны
велено
взять
##пусти
##шоу
##удеть
престави
земль
рыба
четверогран
ввер
##боу
хлеб
##хі
##чину
##р҃
помысли
##кои
Господи
кровь
сколко
##нского
сих
##тыхъ
великую
объяв
ѡц҃
##вымъ
церков
радость
##жение
##куп
части
мудро
далече
рѣша
смерт
оно
##пет
ключ
кам
пошлин
##тѫ
##род
Дани
Видѣ
##елы
доправити
статьи
возра
прииде
кромѣ
зда
##овой
нашо
ненави
рав
меся
рѧ
##шить
вам
посади
рекоша
ами
лов
ски
##ить
дѣлу
языкъ
##дѣте
приказе
агг
##шее
##дят
степ
холопи
трѹ
поне
##сѣхъ
вѧ
##славь
##лости
пан
##неши
попере
архие
ер
соба
головы
исте
ꙁако
##щ҃
дань
##овѣда
Воло
Азъ
##ѡмъ
бою
##леши
мц
##ней
нѣтъ
яви
##ток
дои
##ении
##шеи
##ляй
вѣсть
##скати
восхо
##мыслъ
прово
соха
новгород
##н҄
сме
##евичь
кланѧ
##щѫ
##речен
##чини
##скѹ
вѣка
сконча
##гом
тоже
##тых
##цѣхъ
погы
дать
прои
моеи
##тому
речи
бориса
Еруслон
твор
времени
царства
деревнями
фе
##пови
##коша
стари
бж҃іи
єго
##нки
##ю҆
##стыню
##овыхъ
ѣко
##стꙑ
##лева
чинов
дия
естъ
##ѳи
жита
безо
грв҃
##чины
василья
удари
препо
черни
##тру
ѹ҆
##стова
нево
толико
и҆ли
##день
поль
теми
##нами
вино
разꙋ
шь
ѿда
великою
животъ
федор
пріиде
##чат
є҆гда
страхъ
нѹ
##славу
новъ
оде
поместье
киев
сти
гость
мѡѵ
щи
пов
опричь
Га
##зрѣ
Те
пят
##҇т
##҇ли
ᲂу҆бо
##евичю
радости
хвали
оубѡ
н҄
##няго
болши
около
##добь
##шая
заповѣди
Онъ
##клю
великимъ
хрст
##дцать
сьрдь
о҄у
тать
власть
мел
уви
нею
##ниемъ
места
великой
которая
порѧ
казакъ
рука
##цкому
близ
И҅
уро
очима
сию
лѣпо
трꙋ
ꙗ҆зы
кнѧзѧ
кол
##нее
##поло
твоимъ
Сыну
домꙋ
тай
##жаше
гд҇а
глѣ
##яся
оуго
грамот
смотря
Ꙗ҆
##кьі
##щее
всегды
сотворити
ѣха
сътвор
##хоу
писма
##лею
рѣза
холопа
нб҃
дви
полѣ
браш
видѣвъ
мсти
##ліа
##дете
кнутом
еу
##цѫ
добродѣ
еда
##мі
федора
имаши
даві
комѹ
соко
##сья
##ления
мечь
Ники
манастырь
##тни
##рия
короля
убы
ӏ҃
##дѣже
##лыя
дуб
Ада
##дрѣ
##жат
серед
Михаило
проповѣ
##стоя
посъ
соста
бѣше
##бло
пой
##жеи
##дели
възда
покланѧние
вну
коле
ука
ком
Еже
##льно
паш
мт҃
##жди
пр҇
##мѣи
прпб
ѡбы
мѣры
сколько
##фона
##стомъ
мѣся
##ствоу
##чить
##ход
бг҃ѹ
розбой
митрополита
Тво
##жя
##кли
##овати
Александре
##҇а
жесто
устроити
заплати
ꙗв
##шение
пое
копь
рости
словес
Мно
землѣ
##лꙑ
мра
##ѧлъ
##густа
идеже
##лемъ
##тую
небесь
разумѣти
хощеши
##купи
вѣкы
##нна
##ѳъ
верь
петру
снаря
о҃
прино
молѧ
людя
блага
нашим
сꙋть
подлин
##блѧ
пости
кое
##шено
поста
##лася
##лень
##ствовати
лꙋ
ѡв
##совъ
##ствомъ
##еr
игумена
надобно
##ьі
##рами
##щим
страны
##стии
ходити
##лую
гривна
кабалы
Дружне
рыцер
ѡн
##лки
##чит
верхъ
##разумѣ
радова
дава
##лез
оустро
##гнѣва
##яху
иско
##чные
Он
Фили
многие
иныхъ
##ниче
##нутъ
##нꙋю
развѣ
нашихъ
печаль
Еруслонъ
вѣдомо
такихъ
##зов
##шим
помина
нака
##ченъ
пусти
младъ
##хе
прибы
княж
рѹкодѣ
егѡ
##лѫ
##кому
прѧ
власти
землею
бяше
тѣх
##твы
##шенъ
##рию
##вели
##соша
слад
##десѧть
тобе
##долѣ
##слав҃
ответчик
цетвер
авра
даны
сестра
сос
печат
церковь
старца
##нї
вѣкъ
##города
самому
свет
##скаа
потягло
рати
мур
гл҃а
Мы
еп
##глаго
срд
русіи
##ствъ
##мотри
##ставити
гораздо
##дали
отпи
пад
макси
ѡбѣ
##щно
##жѫ
восто
сроку
##кса
гости
предъ
воинскихъ
оти
##шкѣ
впредь
##ѥмъ
##еться
били
сердца
пя
ꙁъ
отцу
мала
часть
ѡ҆б
сторону
бго
сль
бог
і҆ер҇ли
##кой
##били
##дие
##щей
##фана
Ти
##нія
марта
##нок
записа
гл҃ѧ
##лося
тоя
съмь
ци
##вит
прочи
вами
hеr
Бра
##вни
чловѣкъ
броса
колико
князи
ели
##ниемь
исцу
товаръ
недел
славу
есмо
##нька
матерь
##зри
стара
##рову
волост
Якоже
##ѣмъ
##лось
пришедъ
рещи
##нꙑи
Маги
будуть
другую
боло
низ
другой
мастер
возлюблен
имене
ѿвѣща
##жꙋ
ставити
сю
##лє
##мова
воров
помест
стоитъ
ею
##бие
ули
##вомъ
пустоши
коз
писал
а҃
послѹ
є҆ѧ
плати
##штиимъ
##шіи
##шина
столъ
##евич
птица
годы
##чее
##сково
Ба
##щы
может
алеѯ
Дев
і҃
отве
вести
пакꙑ
первое
александ
хле
##дѣть
городе
Лу
бер
##тꙿ
##вова
##вие
храни
кост
бывъ
руцѣ
други
блажен
ѳедорови
хитрости
богать
никого
обыск
православ
бьетъ
##зѧ
бои
брани
##городѣ
Божия
ол
дочь
сон
приꙗ
##дѧть
кара
##тти
##ѧт
##вла
##ступа
наших
больше
Государь
солнце
ꙁла
##зер
##нием
присъ
различ
зу
##дай
бобы
##дей
потом
##ѣхалъ
половци
##храни
##нинъ
придоша
тѣмь
писати
холопъ
стрѣля
петръ
като
возврати
Ио
дѣт
Фи
ѥсмь
##сѫ
##ес
своѥму
реклъ
ѳо
постра
##тьѧ
скажут
ожи
##нять
##стой
помилова
##омъ
##дость
ничего
господь
которого
скво
мочно
рад
околни
##лим
похоче
Девг
##ѡнъ
пае
молитва
##дю
судити
моей
##дили
такѡ
дѣви
носи
##шы
час
тъгда
Тѣмьже
слезами
иосиф
иное
##лучи
##клады
Михаила
##бро
вѣрова
господина
##т҇
##цоу
пребы
часто
чюдотворца
Же
сък
##іемъ
своегѡ
Муром
##пр
##ках
##вии
Князь
##ступ
Бу
иев
ню
##пер
##диши
##тыи
пль
##сю
##с҇
##зан
длъ
снъ
дя
напрасно
въину
монастыр
старый
воду
чину
всякому
второ
грь
быв
малѣ
кѫ
##ровы
сыне
душу
поехалъ
##етсѧ
##шин
бы҇
осми
##цовых
##лны
измѣ
моимъ
обычаемъ
##яна
##нахъ
государы
порохъ
ѿвѣ
##цова
##шена
призва
##чера
тихо
писмо
мін
нена
володиме
##ствие
вечер
законъ
##ква
##нихъ
##пить
кабал
Благо
цръ
ѕіс
больши
ѡбихо
блъ
пса
##цово
гривьнъ
господства
Пер
двь
ре҇
моихъ
ръ
##сви
##цком
коп
васильев
##цомъ
##цких
можеть
##кро
##вод
полки
корм
мату
боярских
кела
15
голову
запове
нашимъ
##ѣзжа
##щер
##нтъ
##анд
неправ
болгар
ков
крови
стѧ
городѣ
##сыпа
давать
моемꙋ
събра
девя
##ныимъ
нꙑне
Писа
уми
##цемь
съвръ
##вые
Боже
помощи
побѣди
всякого
Миха
пригоже
дрѣ
##летъ
едина
бжтв
вне
клѧ
##ѧтъ
богда
голу
хлѣбъ
головѣ
равно
лосо
кири
роуси
##дри
##кахъ
гне
хре
##ваше
нея
##еля
зговоритъ
сынѡвъ
память
##ровѣ
##ниа
собе
##рь҆
запасы
##нни
живъ
##димъ
##щики
заповѣда
зде
##жы
##мана
##мяни
Глаго
прослави
##скѣ
##бить
силѣ
великы
глаголѧ
Александра
Она
ква
##ливъ
##нос
вѣры
##стѣи
крестьяни
третья
дарова
выку
которым
ѿц҃
наоу
вещи
##енья
стоять
цр҃кви
##глъ
##кина
рабу
такожде
##городъ
коробь
дано
ваши
дѣля
деви
господа
##овую
сⱕ
яв
##лить
прит
Ча
прис
грады
##ходитъ
голо
августа
всѧкого
воеводы
##дови
приноси
##рьи
##жити
сыски
деи
правити
сѣде
##фѣ
мѣрою
семи
отецъ
ѯ҃
##плем
вселен
добре
сѣдѧ
беречи
##ѳь
ноги
городы
чу
##лину
мѹжь
##ваи
##щиком
##тября
разум
алтын
кле
##лку
##чѧ
пор
##вом
ѡле
неб
мѣра
##велъ
испыта
помѣчено
Ны
бжи
##ран
припа
Много
ока
##дав
##чал
сии
##евѣ
##ман
вель
душя
будутъ
людямъ
ества
какова
проко
старѣи
изго
один
##оумѣ
##пов
##метъ
ѧзо
##лма
дворы
чловѣку
##дѣтель
теп
творить
пришелъ
вⸯ
дѣломъ
##держи
архиеписко
##чію
##веди
живот
ходила
записи
ꙁна
##лью
велел
мѣру
потрѣ
гюрг
мень
осиф
##ріа
##чѣ
боро
Ꙗкоже
вез
##дрь
изво
мног
дня
##фь
##лам
который
твоей
##ненави
своима
Сь
##рение
##іемь
##чью
##ꙗ҆
почита
##пта
прр
невиди
всѣм
##вѡ
всеи
возда
вьси
молити
судь
##тцати
##казуетъ
иди
скър
##роди
крести
имь
нечи
лихо
помощь
сли
##тѡ
##вает
##рда
послати
зъло
тюрму
жень
даде
##няя
дѣтемъ
своимь
послꙋша
Азо
##щоу
##рый
твоѥ
пар
душа
мѹжѹ
ѳеѡдо
Нѫ
Тро
##камъ
жить
другы
взялъ
ажь
немꙋ
##ринъ
приба
млсть
##дутъ
##сова
##шеся
##пом
##хан
##твою
##нюю
послалъ
богородици
племян
андрею
Лѣ
ѡл
толи
станет
которои
трет
вку
##шелъ
##тоже
прочь
порѹ
##меши
шед
Еще
##цѹ
##вой
недѣ
##кин
##поста
случится
чюде
работа
ѡво
##гле
##нїе
точи
дары
жизни
исхо
заклад
##няти
товари
всякие
фило
своемꙋ
инозем
челобитью
инъ
стъ
неу
многими
##гри
неве
прие
реке
##вым
мѣсте
взѧти
гл҃етъ
дх҃ов
глѧ
##хвати
восп
морю
став
уголь
посу
всꙗ
##стели
государеве
посредѣ
услыша
##лья
погꙋ
мнѡго
ѡп
животы
Владимеръ
у҃
##щение
##ницу
##шит
престо
граде
гнѣва
вашего
уте
##гре
##дных
##сті
##дѧтъ
бываеть
тръ
##тови
стали
руками
идо
##҇тв
##скова
г҃ь
стѣны
##рно
##нагѡ
##диви
##овою
деньги
четверти
и҆мѧ
всехъ
луч
даст
можетъ
є҆гѵ
сквер
здѣла
сидо
добрый
похвали
похочешь
##зꙋ
нап
раи
дьр
врата
##рены
оуже
##енаго
добы
двд҃
ні
сіи
прѣд
убогы
богатыря
ѧко
##имь
ничь
царѧ
дѣлѧ
архиманд
##кіи
казни
##весели
дум
бываютъ
Тутъ
##шеть
праве
словѣ
королю
животѣ
##кладу
федоров
губ
жеребь
##ліе
##фан
водою
##кѡвъ
взял
анто
##ꙁна
##ловы
Такоже
неиз
дѹ
##кіе
##еме
пись
поити
##тріа
делех
##рено
бѣжа
архимари
##бѫ
##хни
нес
тиу
дш҃а
моги
##рѣти
##вле
##вѣе
алексе
тѡ
##мать
##дыха
всѧкаѧ
добрые
говорити
##ненъ
##чо
##чие
кнѧзи
послѣд
полич
кора
послан
черты
пожни
года
избра
##кну
##шею
##скаѧ
врагъ
благовѣ
смертию
крѣпко
Спа
##лия
##вѣта
сыном
телѣ
вѣчь
иванъ
часъ
человекъ
##печа
Ужъ
##ꙗ҅
##ничь
тож҃
домы
листъ
истец
глю
зел
новѣ
насы
##билъ
перст
добраго
Кар
женъ
##ві
##вкъ
##нице
##мом
##женье
##хꙿ
##мѣхъ
послоу
веленью
недруговъ
вьсего
##чных
и҆зы
мику
преста
гривенъ
книг
всякими
микифо
##нтовъ
исправ
полкъ
##лго
##волъ
болѧ
##пись
##славль
женѹ
мс҃
платье
##кѹю
молоде
фара
татар
##вают
бывше
дала
##маго
##казъ
роже
стояти
службу
##идоша
##рковь
##лые
скажет
Добрыня
҆ꙁ
людье
Туга
премуд
##сіи
учнутъ
бж҃и
богатыри
манастыря
убь
##ѕѣ
нео
##ните
##лексѣ
единаго
знамени
поспѣ
земель
деревень
##чест
изстари
вины
василей
слꙑ
слоу
подво
възѧ
грѣхы
являет
язъ
##пли
##хва
пришь
##нец
пашни
##тые
жили
хлѣб
##енѣ
реки
деревне
глава
правьдь
заря
любъ
жизнь
латине
даръ
##чери
къто
полоу
дьсѧ
Въз
рѣчи
коунъ
боярского
##щеть
стоѧ
боярину
великихъ
феодо
юже
##нець
##гами
##сей
обь
иному
крѣпость
ссы
##бру
##ваеть
москвѣ
Киевъ
##смотри
Ар
нѧ
ѡчи
##сна
прожи
пала
пагу
благослови
ген
ѡко
называ
##мая
требу
лошади
дѣлѣхъ
караб
##сали
##жать
##пали
муже
старому
##никомъ
##вери
здоровь
прекрасная
##вꙿ
поте
колко
бой
оувѣ
мана
##семъ
николиже
ѡстав
дев
словесъ
службы
воздви
холопе
христо
неделщи
##сі
##ннаго
месте
отдавати
врѣмя
весел
ѥже
##глых
##жене
##дре
рабы
##жали
межъ
ходил
##т҄о
рубли
анг
никтоже
##дка
божь
чести
испол
Ле
опо
##ана
бело
вѣра
##еное
чловѣка
##нове
##нили
##тый
##сывати
##дры
боѧ
ров
Ꙁа
##мете
бояре
повели
##ѡна
##чную
приспѣ
##поу
глав
13
заложи
члв҃
мсца
іс
ѥмѹ
словомъ
богатырь
впа
п҃
##чена
##тины
##ваѧ
мысль
всѧкіе
##емен
##цахъ
полаты
зело
шло
##чеи
твоем
рекла
бѣс
василью
стрѣльбѣ
єже
промы
велѣлъ
учинится
ѕѣ
ѿню
##мою
сиби
послаша
Они
##тку
##пита
войска
обрѣте
##кта
жер
мощно
ивашко
послал
нашу
македоня
всею
живет
городов
ѥ҅го
тамѡ
##дѣлъ
##щая
пьр
государевых
ел
итти
кобы
господину
оси
ꙅ҃
твоегѡ
Русии
точию
увѣ
##ѫтъ
сирѣ
мерт
30
смр
воспо
меч
##тят
боярина
##дникъ
гали
Воз
мьнь
##л҄
##тинъ
томꙋ
##кину
зам
##чалъ
рукою
Потомъ
##творѧ
разумъ
такимъ
поруки
денеж
##сподину
десѧть
Дѣ
сію
##како
##кимъ
себѧ
просѧ
пѣшихъ
купил
##нимъ
готови
доса
миро
слову
срок
погиб
всѧкїе
ист
##вѣсти
прѣсто
билъ
слуша
ѻ҆т
московскии
сот
бых
##скыя
правду
изѧславъ
Царь
##нской
##конь
всяким
июня
##хся
полку
вьсѣхъ
именемъ
молю
##луй
покров
мънѣ
также
глаголюще
Ку
еписко
ꙁвѣ
Понеже
святаго
имену
пророкъ
корабль
вдѣ
одно
##лож
сузда
всякихъ
Илью
блѹ
##свя
##дные
##вон
давы
##ставъ
какое
диа
неправь
ѡстави
##рья
Слыша
съкры
##чьсти
##лѧти
июля
кем
въско
кад
ѡ҆брѣ
див
поклон
истинь
гово
там
такую
помоли
бꙑстъ
##дрость
войско
иным
##ꙗше
##ваа
конѣ
быт
милосер
нꙑнѣ
##лами
прише
##несе
кънѧ
вѣки
##слаб
а҆г
царемъ
деть
усп
##ѫще
##шев
безако
##зати
исцѣ
рыб
смотри
хлѣба
##стꙋпи
##илъ
намо
родъ
г҃и
многих
хꙋ
пашен
ихь
даша
дару
Пота
добрых
лови
утѣ
шю
Господу
поместей
отьця
##ѥмь
томоу
собор
##нят
Горе
бесче
десять
##діе
і҆а
умр
##нены
тат
##тѣи
ивашка
смоль
ивановичю
##пль
##аг
бьі
##анна
##дѣя
ходя
дай
##рью
##чая
взем
порѧд
тамъ
твоих
##ꙗти
годъ
Страти
##твь
прото
оуч
вьсь
иванова
всеволодъ
Кан
домѹ
свинча
Добрыню
между
##лда
##дил
тѣм
пожалуи
соуть
въпа
раб
##цех
##соже
тѣми
бꙑс҃
жеребе
воскре
##щены
##ꙁнь
##ким
прѣму
единого
житие
14
##сцѣ
##будь
вьс
всѧкаго
##зии
объяви
половина
црк҃вь
кланѧю
##пля
##рет
куда
погреб
половину
ины
хс
##шѹ
пота
вниде
надобе
плъть
ѕвѣ
##сво
исцом
##ловичь
ризы
святыихъ
такіе
чему
непри
##ваютъ
едину
гсдрѧ
ц҃рь
старостишко
Михай
боб
подле
слуга
##штеши
мѹжа
гле
смь
##знов
намь
##лѣт
благ
преподоб
Сла
дщ
##жду
настав
жел
прое
##дуть
##выя
василеи
бꙋдꙋтъ
спор
фунтовъ
##тріар
##ренъ
##дии
беззако
странѣ
словесы
мудры
Рече
игра
низъ
варѧ
##лыхъ
сѹды
рублевъ
чьсть
сътворити
починок
лжи
##кати
вѣсу
##овыя
бьютъ
##цкои
бл҃гослов
молитву
Соловей
еѵ
ѣз
##сени
##тры
##зѹ
прежни
цареву
поставити
вскорѣ
Анти
##чное
поры
##далъ
хоть
часы
черезъ
Нь
##нные
дьни
боярские
ряд
промеж
Фило
т҃
ѿвер
прѣстави
20
##дал
Богороди
ст҃а
Воево
конныхъ
словеси
##шааго
##нями
темъ
знамен
##твꙋ
основа
рꙋкꙋ
##слуша
кн҃зь
##іꙗ
любе
##дью
а҆р
##еніемъ
отдать
40
рост
возлюби
рыбы
подобаеть
генва
тере
##аху
стала
##стеи
ѡ҆бра
служити
таковаго
##чение
##лака
##ритъ
всѧкъ
вороти
седмь
прибѣ
послы
возмет
##мыи
имян
строи
ꙗви
##҄е
##манъ
черте
твориши
васильевич
##товъ
##ркъ
##лꙿ
нев
многое
старой
великая
##цкие
поехал
Жи
##нца
##никѹ
прѣжде
##цьмь
славѣ
християн
тря
##он
##л҇
##гах
волх
Дружневна
шел
городу
добрымъ
ѥмоу
приступи
##сквер
возму
чинъ
переꙗ
гласъ
лав
нѣкоего
бесѣдова
##їа
дамъ
##доста
сь҆
##враща
поместь
гривено
гривьнѣ
оного
прича
сегѡ
##щии
свѣть
любови
вдвое
Бла
##раꙁ
##шии
##сию
хоу
велицѣ
тѣла
##леніи
володими
верху
учинить
святых
сребра
челобитчики
Буди
кур
единому
##дрости
принес
##шке
##анъ
##чку
тур
##лꙋи
гд҇и
соблю
пит
лесу
помышля
вен
оумѣ
старѣ
рабоу
впередъ
ꙗ҅ко
Бову
##ѡбра
##цами
которую
иной
монастыре
таким
видиши
Потанцы
Всѧ
##ѹмѣ
##телѧ
великом
##овыми
добромъ
хощет
ѕа
##юся
##ѥва
нетъ
стати
##вени
##ѳе
нале
##никы
##дале
##рие
събла
велику
##дыи
пороху
прямы
телес
спроси
##ѥ҆
##скꙑи
симь
статей
мѣстъ
любви
с҃то
Москов
##ам
лицем
арх
Сице
##нныхъ
##дру
##мены
##кори
##лют
поя
##праша
немже
болгари
пакости
##тои
##мор
##нех
станы
мать
сѣмо
семена
##стром
бꙑло
царству
ѥ҅моу
##кти
нечести
даждь
съм
вѣрꙋ
бꙋдꙋ
коунѣ
братия
недруги
трапе
Ису
абіе
##хова
мона
съблю
старин
вьꙁ
потреб
##сма
промыс
##лять
чюжи
батюшка
ухо
##ѹю
##чꙋ
##номѹ
##вѣшта
перь
свѣти
держать
селу
нарече
игѹ
побо
##тесѧ
##телъ
подко
начатъ
нбс
хр҇
недостои
пушекъ
ако
иный
полю
жереб
стго
##скомѹ
бѹдѹ
крѣпости
смотрѧ
доли
гору
стало
##ндра
пусты
детеи
денегъ
отече
##ничи
##рять
григорьев
##сну
обли
гривны
гър
даль
##дол
девѧ
василеви
такие
Македо
небеси
рꙑ
##ѧше
##кихъ
##дости
твоея
идѣже
рода
дѣть
полѹ
приехали
дще
мрь
зак
промыш
святого
тъкмо
ꙋбо
##рца
##бє
##брѧ
##жаи
роспро
перево
которыхъ
сѹть
чловѣчь
дроб
##гни
##дꙿ
##дене
доспѣ
##лову
##дума
вид
четвертей
величества
избави
##нц
реза
възврати
имамъ
людие
##зомъ
бг҃о
Владимиръ
Кра
дн
наряду
статья
полтина
скры
любов
пишет
##ндрѣ
##городе
##ложити
кѣ
##ица
коль
##сить
##чай
поидоша
кꙋп
постри
ѡтро
##уму
##стани
выши
ꙗ҆ко
держи
ѡбла
##ченѣ
##скіѧ
вите
##бами
сторожи
бѹди
Раз
А҆ще
##против
оуби
многихъ
христе
хощеть
сно
##сле
##етѣ
вещь
изь
рожь
вземъ
##новичю
великих
Ин
##еш
##шиши
кали
прохо
##стоу
имат
нихже
христ
пѧти
Указъ
дша
##҄а
##дѣй
порутчи
слѹж
Вели
слс
офона
накре
приез
##чекъ
вѣрѣ
можеши
твари
пытки
Володимер
любовию
накрепко
##нных
##ꙁда
##ть҆
торо
нибудь
сторонѣ
самодер
лето
осу
##тьев
страха
кѹп
##ющаго
##ѕа
никакоже
хощетъ
дворян
##лете
напол
##ену
##въши
крепости
живꙋ
видѧ
послали
поиди
##нено
##хла
##подоби
##няаго
перваго
шедъ
пѣс
умь
хво
дѣлы
княже
##кех
бѹдетъ
Аз
ум
##сово
##лѭ
потъ
##диша
##жею
##скочи
градомъ
##ленію
подлѣ
ѳедоровичю
##ріе
##дове
##ꙁе
поц
бож
трех
взяли
покои
Чя
наказы
прошу
##сталъ
##кѡмъ
семо
##ловичю
торгов
дръжа
##ломе
боꙗ
##мое
##твѹ
игумень
книгам
вскоре
Марша
пѫ
утвер
##гѫ
##юштааго
##ливо
своє
нѣкы
дворѣ
бг҃ꙋ
приказъ
федору
Добро
размѣр
гру
фро
##шения
помяни
##тии
исправи
привести
живут
##рва
##лан
рожи
добръ
Показуетъ
бьрковь
положити
ума
ѡже
##рꙿ
##дны
##кши
поли
приехал
##хѣ
прел
##ваю
мирѣ
Христ
ѡк
дан
сади
вьз
един
##ловича
дватцать
##штиихъ
погрѣ
милостию
высоко
слъ
##іо
писать
богатьство
новѣгородѣ
мс҃цѧ
нра
заму
соль
плате
##сыла
послана
написаны
закон
тысяч
Мъ
ид
оди
умре
##нку
##бож
рѣки
гсдря
прииметь
ближ
вя
##сва
##п҇
пру
##мона
##овича
възьми
ризѣ
покаꙁа
жития
другое
сорокъ
##лне
навы
нема
##ету
##мин
##скѫ
сколь
мъного
почто
##рили
сотвор
##чаи
мужу
детьми
сена
##млѧ
прио
мл҇
образъ
целовални
звѣри
Девгени
влъ
вдова
##ср
наго
##читъ
##скомꙋ
пише
Сѣ
##суд
нарѧ
дана
##тай
##ереи
доброй
е҆го
глагол҄
испра
бил
мѣстѣхъ
воеводам
Марко
##мка
##льга
тати
патріар
огненныхъ
ѡц҃а
начер
##ницю
##риѧ
##тъкъ
##славли
книгы
приведе
есь
##жем
пона
прч
рано
##шите
проч
речке
жем
оле
ыва
##шему
##кия
отчину
##бомъ
##гай
##сею
гд҇ꙋ
##зера
братіе
ѕѣлѡ
взи
идеть
##рость
воп
велелъ
Владимеру
наказѹ
ѱ҃
##дб
негѡ
##дѧт
моим
благы
добрыхъ
кабалу
подлинно
горь
##шей
велмо
боярин
##писати
повеле
ст҃опол
своемоу
огненныя
Государю
посылати
##помъ
всей
посол
новгородьци
##раси
##лата
сътво
куны
страна
деревнею
бꙑти
##ющимъ
сни
тща
уве
##вол
##тори
стря
станетъ
бесп
самь
пиръ
бояры
человѣкомъ
приими
господинъ
запись
новагорода
идеши
##кве
меду
погѹ
уши
конѧ
##цѣмъ
лут
творит
здорово
сребро
Є҆
ибо
##стри
##щаѧ
вьсѧ
ст҃ополкъ
раздѣли
болѣзни
##юри
##домь
бывши
главѣ
слышати
##ствия
жы
ясти
##тна
##ерва
раду
хот
холѡ
прео
вѣси
##лый
стори
мѣрѣ
##града
всѧких
инѣхъ
ѕло
##бл
##нду
##чево
река
братьи
правую
людіи
приступ
##яние
##рече
прида
мирь
##тѣхъ
Боя
богат
обители
сказалъ
павлов
объявлено
ч҃
ѡбо
##тисѧ
неко
##жается
##лену
остан
шти
##рева
##дивъ
дат
возвра
черту
бѹдет
блюсти
##стенъ
прослав
Господ
трете
снасть
патриарха
службе
просвѣ
абие
одинъ
##ржа
##чаю
сапо
##дохъ
##пия
бить
благочести
именова
драги
хорошо
##тко
##ѡм
##кі
какой
имѣетъ
времена
всякия
запасъ
##треть
гн҃у
укажет
Дми
присли
дочери
##нешь
##пан
платить
глаголи
##дника
ѻ҆г
степана
достой
вложи
гря
збе
неду
##рости
##ревъ
власт
человѣку
снасти
спаса
инди
приближи
##щено
##стом
плачь
храмъ
женам
многия
семенов
##рамъ
вашихъ
##ходити
ноя
##телем
дворов
судья
і҆и҃лє
Алеша
съсⸯ
ску
умѣ
##нко
попъ
##дися
затвори
посли
##тымъ
##нову
старце
покланя
оц҃
ѳе
##жется
##реви
костѧ
полоц
волоки
тоур
павла
насиль
##еніи
въсто
##лѣе
покле
мцса
уме
##тря
##еди
##зды
##ности
забы
росо
самомѹ
цр҃ь
жѧ
##плъ
##внѣ
вави
##гива
є҆динъ
возо
крестъ
сѫтъ
повер
отцов
изве
##мый
##ствены
рꙋцѣ
Киева
книгах
Антио
шъ
откуп
##тыя
##телемъ
приимъ
обиду
верьх
ана
сово
##стие
естьли
##лене
##ющим
пушкаря
встрѣ
инымъ
Попови
полоть
безум
##стіи
своа
##дома
честию
межа
печ
##строи
розбо
пріем
числомъ
Дарий
##щымъ
поѣ
##ломи
доко
моемъ
масло
слави
печенѣ
моегѡ
обыску
і҆и҃ле
десяти
пристава
старец
пꙋти
пошелъ
живетъ
памѧть
##ховь
##҃ь
##тецъ
##сех
въздви
есмы
##евра
правда
мудръ
полага
Духа
##к҃
##ѳѣ
##лах
##номꙋ
##чали
силе
мака
масте
продажи
петрови
##ющихъ
давꙑ
Чадо
Сер
Федо
алексѣ
##ниѧ
##щика
жива
##бав
дека
плот
##лении
е҇
ща
##где
##їемъ
стороже
сотвориша
крым
Уже
днѣ
##гры
кождо
боудеть
пита
##скых
опять
мьстиславъ
проповѣда
слн
защи
##шими
##пит
твоемъ
лицемъ
вѣсти
которымъ
булат
##ждѫ
написати
неправед
впередь
филосо
идетъ
мт
##чныя
въмѣ
питье
запас
Ихни
зов
##чы
##лех
##нь҆
лесом
сѣд
васили
и҅ꙁ
древа
отпуск
Кіевъ
Маркобру
сея
##скій
исповѣда
Паче
маия
убытки
##речь
##цамъ
##любь
##лях
дворѧ
##городу
чл҃къ
##крѣп
##слъ
##номь
##мири
##хот
Пои
словъ
учени
Разу
исповѣ
котораго
Сте
дов
##щем
своꙗ
стоꙗ
имена
възлюби
плачю
королеви
##ющу
величество
ѡлегъ
гꙋ
##вшу
неме
несъ
##рев
проразумѣ
вашъ
##хомь
##ленія
крото
юрьи
##а҅ше
костян
Вся
Пу
г҇
##ешъ
##ліи
##кія
##горѣ
##гамъ
укры
хрь
Ѡн
##вому
##рины
##еру
##дес
##еней
которому
судъ
истинѣ
##гели
ярославъ
Гра
вопро
##кие
дости
литов
вѣдѣ
ноу
є҆ди
##вят
дьа
##цкии
десѧте
напередъ
иосифова
Пра
##сѡ
##рку
##ховъ
##надцать
##даи
сими
великыи
мест
полꙋ
ст҃ꙑ
рублѧ
приидоша
митрополиту
глаголетъ
дв҃дъ
стряп
ѹго
##лаа
##поль
царица
исполни
вѣруй
пытати
вверхъ
Пе
бжь
##томь
##каꙁа
##дат
##чимъ
статью
##паче
межь
многоцѣ
##зоша
бѹдеть
молод
бесѣду
идоша
##шⱕ
##ливати
заб
таков
единой
лари
##ехал
отрокъ
Ди
сѵ
єсть
##рети
##вана
##риши
##нести
стави
грѣхи
великим
отдано
ѥ҅стъ
Хс҃
Нико
старецъ
воль
##жай
##гранецъ
конецъ
прямой
стрѣльбу
научи
видети
прилежа
найму
##штоу
##нени
##вшю
##хово
пріѧ
вонъ
##тех
оум
лип
душю
##ходить
сельца
ини
##гаты
хоте
обле
старость
большаго
сътворить
днесь
дха
зову
утро
##чете
толь
собѧ
лиши
##нѧти
##зеро
Созо
конюш
##ѭтъ
##ват
съмрь
##стаго
государьства
Самъ
коней
молча
естество
приступу
Ан
##шту
##іє
##рокъ
##рите
тоби
дабы
отче
така
розъ
##штеи
убой
знам
##ноую
гривьно
чл҃кѹ
ответчика
серебро
грв҃нѣ
Муромца
крестьянишка
Слово
##мел
##ꙁни
прет
##чима
ночь
тыи
хранити
чꙋ
##рма
##бля
поѧ
борт
време
благово
напишет
Бл
Ѻ҆
##зви
##бави
полоча
сѣвер
главою
##дятъ
##скым
Господень
##ждени
срамо
##тор
вса
##техъ
паде
изма
пус
гривнѣ
1000
сирѣчь
суздал
##сіа
##вны
##вала
приѣха
руко
нѣту
творитъ
воевод
Сам
младен
лучше
еван
кля
##ина
##твѣ
воза
отвѣща
вѣдати
братья
Посла
владѣти
разуми
боярским
##ющіи
положиша
Божию
правой
невѣр
восхотѣ
послѹша
бел
крт
##міа
тобо
моря
свѣи
приехалъ
приемлю
здоровье
Е҆
##хже
дажь
##скь
выти
городи
помощ
риз
жаловал
##теръ
ля
##ору
##шены
насла
##жеши
стер
переслав
живона
петров
куплю
убий
##рецъ
вав
##дый
исцов
шаговъ
землях
тꙋр
кружаль
нашого
##петъ
##вѫ
##дем
радъ
сѣмѧ
людии
милостыню
писалъ
собака
връ
впро
##щѣ
##щенъ
гоч
оуб
перея
рѣка
нашеи
##трен
первой
Сто
бяху
##див
сич
своеѧ
пива
##говари
50
##жны
миру
краль
і҆и҃съ
кнзь
Оле
змѣи
ужа
хе
##янъ
костром
могъ
сим
преи
всѧкѹю
никако
16
внѣ
##гну
##нину
боуд
събо
пали
двое
славь
насле
поставиша
є҆гоже
вельмо
Чядо
нови
поноси
камене
всякой
прикажи
алеѯанд
ѡбь
##реть
##яне
##чнаго
##гаго
##сков
красно
печати
дороги
царицы
влд
хочешь
едва
радоватися
зь
##повъ
##ствь
##лѣнь
всѧка
##оумоу
дѣлать
слышавше
близъ
достоить
аꙁъ
ѡна
нее
непре
непрѣ
##лой
##даю
мостъ
иване
гришка
бояром
воиска
гривни
брат҃
Сия
вьсякому
разꙋмѣ
кнѣ
Ѡ҆
##ꙁꙑ
##лец
отво
##скоу
##чад
прес
бѣга
##енера
Божии
бѫдетъ
рьци
прежнему
##кими
семоу
б҃у
куплены
приведоша
почелъ
помѧ
стрел
обѣща
здравству
сщ҃
##ѹм
поб
##моро
##чахъ
Под
Въꙁ
багаты
торгѹ
потребу
помага
Нѣсть
Никити
##снаго
##тами
##дети
ѻ҆тро
хочеши
месяца
сестрами
азь
цвѣ
##ец
##чною
пожь
сотво
выслу
##сѣи
милостыни
человеком
малое
Салта
золотыхъ
детми
дружиною
ествы
вмѣстѣ
давідъ
##здо
наста
столѣ
возложи
##ныимь
##езжа
нє
немѹ
задни
стꙑ
сташа
дружина
Слы
ѡка
ѹже
##тем
пооу
##тоша
оучени
двою
##новь
храми
разума
оружей
Ана
кров
крова
оному
##щена
##нкъ
##нїи
ставить
##левета
которомъ
заповѣдь
никифо
ступ
узна
҆е҆
ꙗзъ
##҅мъ
##никовъ
даетъ
раст
прѣпо
чимъ
трехъ
##цким
съмьрть
##щетъ
##жє
##вшаго
##чис
##правь
часа
цр҇
писанное
##сꙑ
поѣха
##кии
мину
выи
нося
тиха
медъ
##ныими
##дѧше
ѻ҆тца
приставу
олександ
##денъ
##зова
призыва
##бит
избы
креп
лес
гроба
Тѣм
матере
жалованье
недоста
вторы
##тву
##немо
нако
##ныꙗ
сыны
##спода
рѣкы
глеть
старостишка
малыя
челобитчиком
еги
##ѡ҆
##никь
пригово
##щик
братом
бѣша
исц
##мену
рим
москвы
бж҃іѧ
поруку
богоу
скорб
Ныне
Вар
##бии
женами
##она
##ѧна
##віи
##натцать
водѣ
съпа
твоеѧ
##пѣти
бывало
глубо
афо
генера
##дах
желез
моꙗ
молеб
##говѣр
надобѣ
близко
бесчестье
аль
хы
##зли
##чивъ
диви
такия
деревням
дорого
##шедше
чл҃ка
селитру
хлеба
рѡ
##мба
годи
##ходы
страхомъ
имѣй
видѣвше
вотчине
бж҃ію
великіи
ище
##шми
##ждꙋ
выда
дѣи
множьство
Само
Паки
##множи
житіе
порабо
Ему
вѡ
##др
заем
##дьно
разсу
врага
плоти
сн
умыш
##вне
##вола
##вар
##рилъ
##ньства
гавра
##говорилъ
повар
грѣховъ
середку
государыне
товарищи
зго
мръ
##ѧ҆
напу
##чать
нощ
плачи
##писано
николы
гривене
андрю
##ющих
домови
никакова
стоить
ст҃ыи
гюрь
веселие
называют
18
71
олта
##сную
##хꙑ
##риго
знати
селѣ
внима
прекрасной
королевна
иныя
клѣ
ѡца
##ницѣ
въспо
своѫ
татя
вѣрѹ
деше
##ська
подра
серде
дьяку
прпдб
Чер
изи
прѣже
всѣволо
видѣхъ
бꙋди
скорби
Говори
истари
устав
##ѧли
възи
кости
вост
##тамъ
##дѣвъ
доброго
серг
Мои
е҆мѹ
васильевичю
просить
##пѧ
##еро
попу
начина
##тилъ
боа
чини
Болга
твоею
котором
серь
воинскимъ
принесе
молодецъ
генваря
Ско
Свѣ
##тіа
##р҇
##скія
сыска
править
##зость
слѹгъ
ѡтъ
наса
пристави
##мѣя
паха
выстрѣ
людехъ
креста
рѣчь
доброе
михаило
бж҃е
##десѧтъ
оружи
холопей
Ибо
р҃
ѡба
##ветъ
##ѕи
##ченіе
неп
##дана
доиде
##лежа
##лъмь
преслав
є҆лика
пустыни
челѧ
великие
крестьяном
плодъ
послѣди
радостию
кнзю
ѡц҃ь
иными
томо
##дила
##дешь
бѣлыя
великомъ
бывает
тѧж
цѣса
пришел
степени
выкупа
Оже
оклад
##ꙁꙋ
##ꙗко
##тау
##гина
тых
пушку
пушкѣ
##новича
закона
хлѣбы
устроить
ярослав
выборныя
##племен
ѡпѧть
##ннымъ
постъ
##чев
никоторы
плоть
цѣло
государства
назадъ
ѡгнь
ата
спол
ходить
просити
дш҃и
тимофе
апостолъ
17
Іва
сдѣ
##нⸯ
##іѫ
поды
##моли
##чилъ
##чески
скорѣ
въдале
красоту
сельцо
зер
одѣ
шко
##куду
коза
##льи
прочих
жезлъ
аминь
Аки
лы
ꙁѣло
##ея
##діа
нама
насто
##ромь
##вари
въси
закла
занеже
любя
Почто
прѣста
рыда
##штение
здорове
свѧщен
новъгородъ
стѧжа
##кна
##҇ца
##жев
##щими
стола
гсдри
мꙋжъ
великій
##евым
ноября
пен
##спа
##тиѧ
сохрани
прогна
межу
глас
кеса
сверхъ
ажъ
аꙁь
ꙋчини
##мни
пропа
часу
##женья
дворех
ряду
геро
дщерь
жє
ꙗвѣ
##бль
##раи
пана
нѣчто
##вятся
послание
красна
моѥго
сквозѣ
слꙑша
любъвь
##вена
поку
##рони
воля
раны
##лым
дѣтеи
##ович
##шьдъ
ихже
цр҃к
##дюшка
двер
##рко
##юшти
##лачи
##локъ
заут
ведомо
##щиков
##тыми
Пос
пристани
пожнями
духовной
приказано
разбойникъ
гео
лѫ
сръ
##яв
##вода
коно
и҆сп
стру
изгна
сави
крась
##менова
народа
дх҃а
Ска
чѣмъ
##гг
преле
бию
продажѣ
пречистой
федоровича
##жете
начь
гон
##ловь
пиш
челобитья
ходилъ
начнеть
делу
жалоб
кѡн
лꙋка
Авра
Еги
февра
##штися
##нҍ
##уби
волею
є҆дино
##скаꙗ
такому
тую
ѡбрѧ
Киеве
##штяя
московского
молитвы
ѡколо
игуменье
##імъ
##лию
##скор
##чаетъ
чюже
братии
##пꙋсти
дѣтми
спра
тѫ
##чень
посто
поща
##чия
и҆ма
всеѧ
Подо
прѣль
##телѣ
которыи
пещер
##дять
книж
ꙁаповѣ
чьсти
славнаго
свѣтло
имьже
ꙇли
##рпи
##нич
##рее
##скомоу
##мѣй
симо
грабе
ѡ҆стави
##ждения
правдою
Раꙁ
рꙋки
ц҃р
можешь
обеща
Трои
##лит
небы
вѣнь
пиро
страну
соверши
Ав
епи
##҄и
прель
боля
##шаше
солом
беглых
жил
а҆вра
##ждаше
Велики
іѡан
##ламъ
##ноѥ
##мую
софи
панъ
обви
##зить
безбож
Петра
емли
спасение
709
##ненавидѣ
##тенъ
##ѥви
##дим
##кий
живи
##еном
перело
край
серги
пищалей
служилых
пта
##щѧ
##нны
##вса
##зво
налѣ
##рек
##сия
лукъ
бесчести
ествѹ
кѵ
нове
##рехъ
богь
нижне
прося
таба
##ютсѧ
##град
печать
четверть
стоит
брашна
а᾿
ги҃
елика
кдь
ниж
простра
прочее
##лѣдъ
винѣ
месе
суща
враги
гривне
стефа
коуне
грвна
челобитье
##твами
казнью
рекше
кръвь
ненаказа
дьсѧть
Девгений
явно
##ону
##спи
##рета
##ѥм
##стю
##раду
прилага
##нехъ
##чища
сыи
##дѧще
держитъ
правдѣ
простира
второе
моро
и҆мѣ
##ньство
всякъ
г҃ла
скажи
данила
ести
ꙁде
##сръ
##ꙿже
##мнѣ
##гор
копи
саꙋ
##ватися
тяже
пꙋть
сподоби
фари
мудрость
мѡѵсеи
зме
##яния
прите
расто
ростов
##выше
святи
слышав
##ходит
старцом
окольни
вашеи
купилъ
врѣмѧ
готово
Мь
сѡ
##об
тога
стѹ
##овичю
##твѫ
поставить
учинит
сказати
##и҅мъ
см҃
##ч҃е
ключникѹ
снарядъ
матушка
корабли
##щє
##мра
##сан
мають
рѣцѣ
##славлю
сотвориши
братіи
молодо
почалъ
шо
##пя
##лѣп
хощу
предѣ
вѣтръ
саме
сьде
обрѣсти
дружину
побилъ
чолове
шанцы
впрок
зря
црю
ѹкра
кондра
нифо
живы
ночи
##цевъ
є҆смь
плава
семꙋ
бжіи
бесер
желѣзо
отец
кдѣ
ове
##ии
##шла
##нʼ
##ью
##два
##дово
сохра
городо
гласомъ
любити
домочад
длину
ефи
##нной
##видѣ
моля
##стая
Полка
которыми
вервь
приима
Соловья
##лимпия
Добрынюшка
Потанцыяна
Рѣ
нбо
тель
нага
##ныѫ
##дела
##пивъ
вѣсомъ
сужда
мѧсо
##ложить
гроз
языки
Божий
##гьі
смир
лѹка
небре
третей
##венъ
##тие
княземъ
всякаго
грѣхомъ
гд҇нѧ
##доуть
казны
молви
пришла
врѣме
войску
зель
троу
##щему
##҄ь
##толѣ
тогѡ
разбои
супоста
чис
посъла
Пере
ямы
##свѧ
##ꙿно
прип
##шаи
##чева
живе
добри
чисты
##овый
крепко
лег
##скые
дороге
##десятъ
погыб
Володимеръ
##рна
##дено
##ерега
делати
лебе
сторожа
книгъ
раꙁоумѣ
ближни
дорогою
одного
другая
идти
нѥ
оль
паро
въздыха
##скый
##твръ
нѣкое
искать
достоинъ
глаголеть
ехати
снови
чти
##нїѧ
наво
##литъ
##тааго
отвѣ
пиво
##нѧѧ
помꙑ
000
Елико
Фа
ора
црѧ
ѕла
##ѧло
##мета
и҆но
оукра
##скьі
разгнѣва
сусѣ
лазо
гд҇емъ
любве
похвала
##всѧ
##нино
##наи
##дець
##дора
##рят
##сехъ
##вяза
друзии
ѡ҆би
положит
пꙋсти
Гла
дрова
##лⸯ
##ерѣ
приѧ
мостов
хоще
доброво
##слоу
пѣсни
мꙋжа
дорога
пріидоша
кабалам
будучи
лошадь
лѹчит
обаче
наипаче
большому
стрѣляютъ
володимери
порѧднѧ
вавѵ
##тное
##шняго
##хма
##делъ
##кс
##знѣ
позва
раби
весу
крестьянина
свидѣ
створити
Де
идет
##грѧ
##ати
запеча
моль
##чита
##шилъ
государево
##сломъ
архимандри
говѣ
рцы
##нати
##чевъ
##дъкъ
городом
рѣхъ
каково
хр҇т
купили
назади
сыскивати
і҆и҃левыхъ
упова
хар
##йта
##стѡ
##сати
##рыни
пада
теку
меща
лев
##стѣхъ
въскорѣ
зва
ѿиде
##пру
наꙋ
##лицы
##данъ
кога
и҆спо
рож
##чье
которою
Вои
казаки
Христо
всѧкимъ
голуби
Ев
сотъ
промыслъ
##въз
##бина
твоемꙋ
март
##цев
##овичь
##слꙑ
приказы
пѣти
чистомъ
льсти
именем
ногатѣ
седми
злѣ
летъ
шли
ябло
Ѡт
въведи
##левичь
сиꙗ
вышь
##леніа
онто
покори
полату
Ивановичь
##леніемъ
всѧкихъ
алтына
манастꙑ
тряпе
##лица
##нулъ
престав
##гихъ
бѣси
имже
своемѹ
старые
зве
хрт
защо
##боша
##чаше
##г҃о
отданы
##ющꙋ
новгородци
##вꙑи
##йти
почь
гой
сыру
менє
сторона
приимеши
##летѣ
##стямъ
##и҅хъ
беле
грѹ
жво
кіе
##ою
##сел
##вр
##ліѧ
##ꙁоу
##чным
##жает
вину
гласа
бояръ
сѹда
##шую
мъл
противꙋ
Иван
глаголаше
можемъ
гсдрни
благая
вездѣ
имянно
дніи
##нена
##можно
отвер
##жига
странъ
црство
розда
недель
покаѧ
скръ
ст҃ославъ
двери
напасть
междꙋ
творят
напослѣ
##нїемъ
ѿпа
##цкую
##чнымъ
##линь
зад
тек
росхо
##чь҆
хитрость
хрстїѧ
Кро
внут
ѡст
##снѣ
разби
##зань
плода
домаш
##дцати
спрашивать
справ
##жоу
прияти
рубе
прапо
полково
городомъ
##спе
благодать
##ніемь
##нѫѧ
пушкамъ
кабале
##ствии
стрѣльбою
##стꙋп
уряд
пушкарскаго
бросати
Іс҃
дето
жено
із
ѳеодо
##гое
неща
вое
ражда
либо
##бели
##соли
исца
такого
подру
имѣютъ
баш
##лениемъ
здѣсе
пречистыя
мужя
жемчю
жръ
##сми
##тене
##рта
##рмо
##нє
##юштю
##линъ
##точно
коя
вечера
сава
##тѣй
ᲂу҆бѡ
семѹ
##скыѧ
менши
ѳедора
ꙗ҅коже
жестокое
гер
ухвати
##шел
##шкою
стена
##ютца
печи
ѡ҆став
моею
##буди
радост
слыха
Владимерь
мнст
напереди
твьр
##немь
##еніа
прити
зара
разсѹ
дерево
лавки
великия
##нитися
ѥгоже
володимерь
матве
храбры
хрстіѧ
кі
смы
ѻсподине
ѿц҃а
##шяти
##ѫща
##ѥши
##ям
прилу
молови
пас
пив
полтин
черка
помога
##держати
гривьноу
ворота
богомол
скорбь
прокля
гераси
Глаголеть
поличное
зра
##дное
##дия
продати
таковъ
ктомꙋ
самои
родит
господинь
д҃нь
гробъ
одна
яропол
смирен
немощи
умрет
гсь
##нныя
##фро
прило
##щеся
вѣж
носѧ
титу
есмъ
ᲂу҆го
благодар
##щеніа
игум
Киеву
посреди
намѣст
Ꙗ҆ко
гвоз
##бова
##дами
гостѧ
##шемъ
##стилъ
брато
суще
славо
имѣя
гд҇ень
чл҃в
полуно
ꙁемл
ꙁемлю
дней
бѧхꙋ
особ
кормити
бру
вста
встре
дѡ
еду
сне
смена
##нете
##вають
костан
тебє
##страти
сказал
взѧша
внизъ
неподоб
стоятъ
слѣдъ
душею
подьячему
Тъгда
поворо
мнѧ
##гову
##млю
наа
на҇
и҆хже
##нуть
стадо
##рятъ
вѣду
є҆ще
святому
никогда
Воль
игуменъ
говорит
##шол
похочет
цело
##дли
##стръ
##нитъ
волѧ
заку
пак
хол
ротѣ
ѡ҆кре
тритцать
бꙋде
обрѣта
посъли
дщери
Смо
##ьто
##вⸯ
бо҃
писали
доброи
сорока
Прі
##фу
въни
мощи
можно
##щину
печер
сьмь
веру
##гыи
народъ
ратма
сибир
едно
##лоби
раска
##нял
Потокъ
левон
мыта
створ
святыхъ
##ницахъ
каких
проклѧ
казначе
смр҃
Подоба
Еда
вто
втора
окла
богу
маг
било
битися
жалу
крово
правды
небесе
холопство
исплъ
Всеславь
тварь
Магилена
Картау
Яро
зꙋ
ннѣ
оуд
оудари
посрѣ
##вь҆
милосты
царей
ослу
мꙋжіе
обрати
объявля
##стѹп
чрезъ
ара
зим
##ціи
поже
възъ
имам
шесто
хѹдо
ловѣ
Ѡни
҆же
##ниць
коего
моа
##шего
##славе
мнозѣ
межю
чюдов
мꙋжеи
##ющѹ
конець
петрушка
карау
ага
ржа
##бі
##ѧсѧ
въпраша
##жиши
##лѣхъ
посе
духа
тяглы
взяв
кругомъ
##ствꙋи
адама
безумь
лицемѣ
абы
гром
##ець
##рга
##лна
помы
##лок
##каа
техъ
изби
извести
предо
выдати
добру
прѣзь
тъи
##станеть
вотчинах
напередь
хочешъ
присъли
Услыша
мета
оца
цра
ꙋ҆
##хри
##і҃
##ѳим
##енію
##деса
какую
салда
вине
##зирати
биет
подвиза
Владимиру
Ры
асѣ
нꙋ
##гел
##з҃
##лище
допра
съво
гривена
борису
селцо
сорок
обес
почела
бц҃и
##новѣ
##ѫт
пороу
стал
делом
князе
друж
буй
##вшим
взѧлъ
с҃нъ
ондрѣ
кыѥ
є҆гѵпет
мет
##іі
##латъ
##деви
великꙑ
прѣбыва
васильева
##менемъ
тысячь
гюрги
стараго
Господня
Че
мр҃
умо
##шшо
##рє
##кій
нез
##несоша
сий
ваю
рух
возду
##мят
Коще
кралевны
вотчинников
отьць
божия
большой
і҆и҃лєвы
##шков
##рила
вънима
##ких
##чими
##шесѧ
бывш
##жае
сиа
Бого
ѡ҆бла
пожалꙋи
взято
стыи
##скꙋю
оцѣ
тлѣ
##тви
##чныхъ
докладу
є҆и
лѣте
государев
бл҇
сътворилъ
богатырей
млада
##а҆ше
вьсѣмъ
впред
сокрови
##ита
##еты
##чинъ
прость
съдѣ
##дье
празни
словы
##кланя
началь
##нѫѫ
анти
с҃т
золота
искус
владыка
письма
именуются
Бер
олексе
плу
##ряд
рожд
##ляди
лѣни
ѻ҆лта
киевъ
##с҃пъ
пашню
Пов
гы
яку
##вль
##дохомъ
капѹ
##пать
многъ
страшно
скота
##прос
Мило
володимеру
казну
поехали
сентября
ѿнюд
мт҃и
Кнѧ
нову
сбо
сдѣла
##пса
##стꙿ
вон
##може
проча
##цеви
волость
злая
глть
влд҃
здравіе
ꙁлато
липсва
дли
е҅
єсмь
##гви
##гнеть
нера
##шаѧ
посмѣ
мужъ
нихто
менов
##штеть
московских
беꙁако
облада
мурза
титулъ
вꙁ
иныи
спу
##ом
вою
оуста
будь
мѣдѧ
кун
перепу
полти
знать
коун
похотят
класти
дꙋма
Три
упа
##св
##тров
##шло
##ꙋмѣ
невер
придеть
моем
##поко
вещ
##чатъ
##питъ
сиречь
##лымъ
##мыя
##лович
служилые
трьпѣ
блаженныя
вземше
##тіи
прове
тогива
##чеви
хоти
выеха
дѣле
иноче
верстъ
святей
мьрт
##словес
огово
##зеве
спс
##ковых
Пакы
дьяко
источ
Изѧ
вашему
ѣхати
жеребей
самодерж
дова
офо
щь
##нские
саха
возьми
леѵ
всякимъ
коуп
##правда
угодья
сердцемъ
работы
принести
стояли
Холо
приложил
указалъ
нуж
заповеди
сотворю
Слыши
кова
##дамъ
собя
твоа
##славо
##сѣмъ
##мѧт
московском
##т҃о
і҆ѡа
соколъ
Ги
вене
##стное
помыс
нари
##дая
коему
##неси
##рье
выве
##сокъ
##рѧта
купе
възми
тут
мыш
раꙁоу
оборо
Тѣмже
попорти
ѡ҆крестъ
недѹ
притъ
##ружь
##пиша
##щися
стрѣл
##дѹтъ
дн҃е
покамѣ
горды
і҆и҃левъ
государевым
кꙋници
испорти
мнѡга
Ивана
Васили
крестному
Видѣвъ
##скѹю
Имѣ
##ѹ҆
прв
прѡ
всемь
##доно
прогнѣва
правъ
##леніѧ
страшь
мучени
##скыми
мѧс
христа
изыма
фунта
мт҃ри
прпбнаго
срдце
наполни
инии
##вшꙋ
##лкъ
##хсѧ
##чн҃
##фля
порꙋ
привед
солга
хочеть
множе
##сье
бѣлъ
##нович
животов
##нꙑꙗ
плоды
пороз
обиди
романа
разбойника
оз
##пръ
пры
морь
морѧ
прохла
##чаль
вѣроу
а҆ар
послать
очию
потру
варша
отрока
старѣиши
чюдеса
вавѵлѡ
вхо
глеб
дше
ково
##ѫть
невоз
##дон
зало
съконь
##пира
хода
сажень
выла
страсти
левъ
##зом
дꙋшꙋ
кыевѣ
христиан
немощ
помещиков
старине
мѣсяць
скърби
еф
кіи
ѹбѡ
##рꙗ
##лета
##ях
##чная
##кима
призы
##шаа
таже
грани
права
кꙋпи
совершен
змиа
живоначал
сполна
Зла
ꙩсподине
##нныи
волъ
сото
веки
мишка
падоша
##дьр
пишу
девка
куо
##теле
друг
##ствіе
гривнь
творите
болшо
трегран
бл҃жен
Защо
Таже
кꙋне
ц҃рѧ
позема
Прѣму
четверогранца
цетверте
прожиточ
Маршалку
ожь
##хну
помер
прелю
нечьсти
кап
вашу
гража
жиро
князей
полонъ
ст҃ѣи
##зор
##драв
б҃ж
ходит
закону
##гласи
видить
ꙁемли
устроены
будешь
величеству
##щения
##жное
##ꙑри
мосты
проꙁ
##щаа
скобе
црт҇
властели
книжь
##пѣли
любѧ
свете
погѹб
11
ня
ꙁы
##ꙋм
##чна
непро
запо
##сил
проста
тара
##мь҆
##бирати
пану
посрами
праꙁ
чинить
##хуся
ладо
тьр
##ковым
Такъ
ц҃рю
христия
напои
блг҇
влѣ
селъ
##вовъ
##ѡт
##зну
пріа
##рой
ништ
сосꙋ
пить
##сылати
единою
влад
площа
##ствую
убити
вдови
торгу
имуть
притчею
24
спро
ям
##трѧ
##рена
направи
прїи
проез
отцы
##жимъ
вѣкомъ
столни
славѧ
посланы
владѣ
доведетца
григорей
матер
бесѣды
никомуже
сестри
приближа
съмьрти
никогоже
апри
исть
##ѣхъ
даю
отку
стаго
воздержа
бѣл
сѣдя
в҃ꙇ
такими
бж҃їи
дмитри
исполн
##торое
##крѣпи
і҆ер҇лимѣ
гочкомь
подыма
Великий
иски
игꙋ
овь
яс
##кри
бора
отс
деже
судом
грамотѣ
рѣку
##000
архимариту
дени
##рни
##дехъ
быхъ
силенъ
Пото
бѣду
гд҇еви
женꙋ
крове
грече
слыши
холѡпъ
апрѣ
пень
тма
чѧ
##рцы
##ремь
дадут
дос
##тече
мари
##чья
##соко
вьса
сьтвори
сынѡмъ
бꙋдеть
начало
ꙁемлѧ
вѣдаю
оружие
псков
декабря
Зен
Кре
сено
ѥди
##колюби
##таѧ
отхо
бешть
всели
##щает
тѣмьже
печя
локо
знамя
разумь
отдавать
купчей
Влады
чистое
патриарху
принесоша
птиць
посоль
##шенька
Меде
земльныихъ
печатных
неправьды
зовутъ
Зензеве
усть
##тве
##шкомъ
##гнꙋ
##дного
посты
даси
рау
##чисти
протя
продол
иногды
владеть
бара
златом
дъвѣ
гроб
##ницах
головою
здоров
октября
вьсѣмь
ого
чт
##щете
##вича
кадь
промꙑ
оуз
самѣ
а҆ки
ба҃
кнѧже
##ровичь
правовѣ
старцы
архистрати
жалованья
старым
племене
пытать
ано
млъ
##ꙁан
премꙋ
##номоу
##мѣр
прежне
лодь
деревнях
древ
котораѧ
велѣти
глѣба
поместьем
##рха
##даше
тоѧ
##тери
камо
проли
съврь
листь
вымы
жито
плача
##штемъ
черных
языка
срц
обычай
Сына
свари
въсхотѣ
елиза
алексею
а҆гг҃
умрети
Жена
ѡти
##ал
##чко
##ені
нели
замо
##шаетъ
##жио
хоштеши
велит
беꙁъ
##хуть
моея
##новати
##нѫѭ
чловѣкомъ
ѥ҅же
меры
##евых
юности
гсдрнѧ
##димера
поместных
афонька
вза
зри
##шное
##гл
##земъ
##натцати
##шает
##сий
пропу
такая
##ениѥ
изва
##ковѣ
лати
моих
помочь
##ровича
послѣдова
славꙋ
степанов
Дарию
##исѧ
##дныхъ
##ꙁѫ
поꙁна
##сит
##мьі
рекꙋ
лиси
##дь҆
столько
Дави
василю
благода
нашемъ
крестьянин
словесь
ѡбре
убилъ
землями
московскому
одной
напасти
андрюшка
##тꙑи
##веть
##дию
##дери
зай
##шие
ногу
##стые
тѣсно
лонь
##стую
бж҇тв
##градъ
Мама
домов
великія
недѣлю
куд
устра
ѡдѣ
##ѯанд
##стіе
##вица
рада
##чихъ
съвьр
оубы
петр
створиша
Тебѣ
твоѥго
Амира
Ой
онь
умно
удобь
ѡпа
##влѣ
##діи
насо
##тит
##нича
коры
състав
мале
рогъ
князем
исцы
городь
черв
приведут
богомо
кралевне
цркв
Рокса
дмитрея
дроуга
старостам
Даниловичь
ѡлгови
Ихнилат
оговор
Григо
жꙋ
огра
уло
##днѣ
тогды
тые
Бори
##славлѧ
гривен
івашко
ѣхать
Будеть
сень
поки
##въшю
оутѣ
##ньꙗ
##нятъ
такомъ
плач
ласк
благоу
врази
##вшеся
нашей
чьи
григорья
праздни
мстиславъ
поза
ток
кот
догово
оумре
возвѣсти
##телꙗ
видит
дрꙋго
опы
среди
цеса
крепость
пшеници
инако
звати
##бере
подати
##титъ
жерт
витя
кузь
взо
полкомъ
старосте
продаи
иванка
дꙋша
##десять
приходѧ
Вьсе
##шнеи
і҆ꙋди
кꙑѥ
тиуном
Цар
бгѹ
тіи
##ѫщи
##дала
##кинути
доль
засви
##гаѧ
##вѣдѣ
хоце
иматъ
холопу
архан
потомь
тьмь
бж҃їю
Лаза
божии
ѥсме
кузне
рѣзанѣ
вечеръ
вкупѣ
послоуша
А᾿
аѳо
##туду
##гль
##лѧт
нѣкто
възложи
мужей
лео
туре
воинъ
осмь
воинскіе
роспраши
семенова
ногама
тѣлесь
Мнѣ
Чи
вꙿ
сщен
ѿ҃
прше
##емлю
доми
##несъ
##сифа
##теся
прока
станъ
ред
##овои
носити
братью
вьрь
испъ
възь
ᲂу҆слыша
продал
братіѧ
кр҇
ближь
дъми
милостью
торгова
пошла
доуша
приступати
крепостя
сирота
погубить
умерших
брашов
сльзы
внегда
осифов
розбое
##амъ
##вре
##лнь
##толо
комꙋ
какѡ
стаг
дѣй
емуже
переди
локти
старосты
мьр
царева
бж҃іе
казаков
древе
і҆и҃лѧ
андрѣи
опѧть
оучити
добродѣтел
сквозь
сичкы
хѣ
##тков
##довѣ
сонъ
вѣрь
##стемъ
ползу
полтора
корень
Мари
##товати
дьяк
врѣмене
варла
приходити
княгиня
благове
обесчести
Алимпия
инѣ
умира
ѡбе
##бҍ
##євъ
всполо
заоу
и҆мꙋ
##пана
царѣ
##нѧго
мечемъ
иметь
подобь
шести
Кощей
федорова
млт҃
Солны
учинили
пожаловати
хотѣлъ
поместьях
члвкъ
пятьдесят
никити
борзо
ветша
понома
нарядъ
розбойники
копье
ѡбиходъ
неизречен
Черни
др
оск
кос
##стиѧ
пословъ
Которы
бꙋдет
тьчію
кругъ
##станно
двухъ
ездо
Прѣдъ
лвкъ
родителех
Ше
блу
єди
ѿи
҂а
##пла
приклю
сеже
##дѣли
студ
старь
Покло
путемъ
##нꙑѧ
##с҃о
##жденіе
Зане
почин
молитвѣ
воставъ
сп҃са
отиде
офонась
костянти
дхъ
демен
остро
укло
##ецъ
##нется
##ꙑта
##рам
##елѧ
размыш
множь
бѣды
мечи
сунду
##новен
всемѹ
уезд
строити
братие
Страхъ
##слыши
і҆акѡ
Би
ѕи
ѿць
##лное
##чни
##фей
провѣ
мосту
##ньіи
ходѧ
полоцкого
стрѣлы
црквь
здравъ
Велико
ратных
государство
кыеву
пръга
пострада
володимера
цр҃квь
Исп
иѡ
##срь
нераз
стада
преди
##ции
##цина
времен
коннымъ
словесе
береженье
##шеніа
писцовых
##ющю
запися
юрью
##еѡдо
а҅ште
помещики
оставля
наместником
хрестья
##ранцу
Ло
брѣ
имоу
одо
ѥгда
ѻста
##шк
##рки
##ѫщ
##҇цѧ
недоу
приви
##докъ
мори
твоемь
хому
разли
##губ
твоим
і҆и
дватцати
##нꙑхъ
многимъ
Так
здравие
рекуще
кланѧюсѧ
василевичю
нѣкый
або
бц҃а
кно
ꙋчи
##неніе
##кнѹ
неми
божіе
заста
превоз
розо
обло
Послу
Бол
многолѣт
сѹща
сотворитъ
##снои
пожалу
в҃і
старцу
третью
##жению
с҃на
двена
хотѣние
имиже
головамъ
тайно
мт҃рь
максим
прожиток
ѕѣло
полы
##лие
вонь
##лье
##щева
##сподо
всякую
##бьра
ᲂу҆мре
мыс
учре
диꙗ
корова
монастыри
ѻ҆в
нашегѡ
бережно
##фимь
рѹсь
##цкимъ
видите
света
обычаю
честнаго
##рениемь
##стинну
Кандав
Стер
еѧ
кло
##єть
##чныи
пону
поху
##вого
воору
съко
##саа
стр
##писывати
##вьрь
възы
воеводѣ
##ходилъ
такъже
дьяволъ
зълы
##ступити
зимѣ
камениемъ
оустрои
оустроити
записать
перстень
ываном
Фара
Ис
оли
ꙩвса
##яхъ
##ний
забо
кашин
##сахъ
##жил
милу
##битъ
масла
дежи
сущю
страхѹ
приказным
сотворилъ
покажется
ширину
непоко
бѫдѫ
##шенько
целомъ
кръви
бьрковьске
Кандавлу
бже
спѣ
##ꙁѹ
##лици
##теро
пролива
##цать
сыскати
тѣхь
##бьі
гсдь
##писать
бато
убога
неделю
пьѧ
образа
силно
ермо
Христос
Оть
вкѹ
геѡ
птен
ꙁь
##сила
##жих
самы
житель
вижу
##бахъ
ᲂу҆пова
##елей
уготова
писцы
нѣкогда
Тѣмъ
жаловаль
Москвы
украи
изыде
ꙗрославъ
солоду
захарьи
глѣбъ
і҆ер҇лимъ
внеза
наказывати
кіев
Анд
##ші
##ος
почер
завѣтъ
стꙋ
##верь
възра
послано
Томь
дими
блуд
взяты
гнѣздо
горко
##емое
лѹч
плъти
ю҆же
тысѧщъ
крестьянех
сосуды
исходѣ
шла
##ятъ
##надесѧть
##мои
солне
##галъ
пия
тура
ѡ҆бѣ
свѣту
латы
учнетъ
послѣдь
служить
##ѣхали
пятидесят
708
нечисто
Варфо
апрѣля
зрѧ
##кіа
##ферь
воѥ
##таа
стя
##ляя
вѣсте
##вьі
видѣлъ
великими
бꙑлъ
разумѣй
##десяти
хощете
размѣру
огненнымъ
Вѣдомо
посадника
совѣт
направленію
попеца
ѡбѣща
вышину
нещадно
##ѡмь
##мсѧ
##ницꙋ
прико
вече
стаѳь
измен
хочу
ребра
##брати
полоня
леон
сѣно
цркви
цр҇тв
единь
человѣчь
словом
корене
самопа
одному
ступа
##щении
##ерусали
кунгу
Грече
глѹ
ил
ось
опол
ѿвѣтъ
##іні
##҇ь
потра
немоу
пасты
##дьі
чиста
полковы
крали
сп҇
написан
гробѣ
данило
всякое
варва
##десѧт
іѡа
Вышь
избав
вѧче
сщ҃ен
Без
ад
нѡ
оправь
ію
##рію
##жяти
##дена
##дель
##ꙙтъ
поба
##кам
дохо
долу
##досте
состав
##бом
##ениꙗ
##бию
статье
посмо
вседержи
##ныхь
писаніе
враж
смертью
Раду
трое
Тѣмь
смра
дрьзнов
Филип
съмръ
ицѣ
##хови
##кола
##рома
доклад
##пилъ
варити
реда
къни
##зано
тѣлу
исце
передѣ
въздъ
лопа
погна
поставили
дорогу
Божие
##хомся
чоломъ
Святаго
здравствуи
ое
сниде
іо
##пі
##плю
##вну
##вное
##стнѣ
##нокъ
##кама
##вахъ
##дится
##шисѧ
##скопа
##жаеть
стать
##хати
бегах
##тыѧ
##скать
чистъ
възнес
свято
триста
г҃лѭ
холопстве
древле
делам
тысѧч
длъго
голосомъ
опозна
Івановичь
озера
##гне
##нце
##толе
##ванъ
точь
##емся
##таеть
и҆схо
васка
лазаре
##твꙑ
здѣсь
господствꙋ
##дръжа
погибло
гъраду
въспри
Люби
страхъмь
бесѣдовати
апре
ѡружь
##ису
##внаго
##҃а
непови
##нике
##роша
вълъ
къде
##зити
храбра
шело
крс҃
своѥи
##жую
пустошми
и҆збра
дворцовых
і҆и҃ль
зълѣ
поусти
пръво
твердо
многіе
фараѡ
воскрес
внити
кде
цс҃
ьто
это
##сне
##тію
##здъ
показ
наѹ
##ниц
давъ
воспро
##еръ
какая
##пар
##телеи
писана
и҅же
никола
мѹже
шатра
долги
##лению
##гласно
нарочи
погубити
цьркъ
дѣвица
Бл҃
ажно
гль
упра
##мше
##єт
незна
##лое
##сть҆
бывша
отню
##въꙁ
##баче
##жьдо
дума
пеа
сѣди
обыском
ближе
старцем
##глас
святыя
другои
росписи
питие
через
##ѥ҅тъ
прочии
дхов
жя
лі
ону
онѣ
##лке
##дше
заво
##чии
и҆с
прозва
##жим
##ениемъ
##мѣни
##бѣжа
бѣсъ
нѣкыи
стран
царьства
продавати
говорили
церкве
кр҃
пья
третье
оклевета
поставленъ
таковых
сокрꙋ
Гдѣ
Ово
Чю
ису
##бре
##лію
наве
вслѣдъ
##нѣте
изре
лежитъ
дьне
бꙑва
грци
мѫжь
приходя
урядни
михайло
игорь
Нова
врь
иг
уга
##рк
##черь
пр҃
##жихъ
покрова
##менꙋ
пѣшимъ
запасе
истину
##итесѧ
съвѣта
црк҃ви
чиселъ
вкꙋ
гн
ега
срь
сча
тко
умы
##ленье
##кру
пони
наем
##тиво
##емаго
приз
всимъ
отсе
##дѣль
##вее
##щаетъ
Потом
подписи
глаголы
чертѣ
здрави
пригодит
божию
Всеволо
обрящеши
почели
ѿнюдъ
##ктана
пѣснь
Жа
Тел
осе
пі
ѹби
##шна
##єю
поправ
##елем
кади
проп
##гахъ
##ръми
##стою
вашь
велича
отъвѣшта
бѣла
субо
##ставить
ѡ҆пол
Господни
Мили
цѣли
шатры
рѹба
слѹги
свꙙ
федоровичю
киевскому
низко
ничьтоже
приобь
Оу҆
вль
осуда
ті
##шіе
##енія
##къмо
##нутся
вашимъ
своево
##щие
пищу
частей
власы
тридцать
человеке
молитвою
сꙋдъ
##шеніи
послушя
зоб
дворцово
ответу
стрѣльбы
наука
Вься
искех
емлю
срачи
мс҇цѧ
совѣтъ
цетꙑри
михайлов
трѣбу
убьет
пушкарямъ
обесчестит
ам
очей
ѡльга
##из
##рво
##ломь
горъ
седе
##чине
низу
просо
вин
покра
иномъ
##хие
мѹж҃
мꙋже
речен
цр҃ѧ
Нынѣ
роспросе
зво
мню
##цен
##нскому
годех
завѣта
рая
съста
виждь
двои
видѣша
ных
##дитися
мѧса
##слом
житии
пр҇ро
цр҇тво
кіиждо
цы
єс
##врѣ
##стовъ
потѣ
##ниша
##дан
въсѧ
##доше
##лѣи
тебѧ
избиша
выпу
##еньи
сый
возметь
бѣлы
противи
златомъ
бꙑвъ
бывають
##хꙋсѧ
кланя
пꙋстыни
труда
нынѣш
ст҃ымъ
пророче
болезнь
македонь
заплатити
поместьи
Гу
ество
згово
##пс҃пъ
##ου
##тиша
##вааго
##вающе
##монъ
##щику
меча
##стех
врагы
спасти
володимерском
другомъ
зимѹ
таковое
овогда
ехать
архимандрит
покровского
Алексе
Свѣтъ
нне
##шем
##дная
##клъ
неви
##тана
##ряй
рого
разѹ
добрѹ
милостію
писание
богатъ
мьнѣ
##ждею
нашими
##цкое
пріидетъ
гривьнь
нѣкоторы
похвал
мнѡгы
въсѣхь
агг҃
честно
премѣ
поцел
иева
кюри
ржев
##бна
##шают
##стьꙗ
##льца
##гар
оуда
старъ
##хон
сыномъ
вьр
великои
госпоже
##ступати
митрополит
траву
посадникъ
прислалъ
ведать
віно
##тово
##щі
##҆мъ
##стна
##лого
приня
забыва
##жира
тепло
лише
вѣвери
нозѣ
имѹ
славою
грамотоу
##вель
покор
образомъ
црква
старых
науки
творѧть
христиа
Святых
прошлых
костѧнти
Око
зрѣ
тет
ѡно
##хⸯ
##тивъ
##лично
##лоб
своѣ
нища
##шева
капи
становъ
изу
изли
естьство
испь
чинѹ
такою
възѧти
пославъ
Наста
Только
знамень
сотворит
похоти
григореи
трофи
любить
недруж
дворяне
пришедше
судии
сестры
##стѫп
божьств
прелсти
Повелѣ
вте
##тени
##гове
##куды
##стен
полѧ
подиви
кою
готова
зав
пакь
питіе
моими
негоже
всемꙋ
раꙁѹмѣ
марты
стрѣльба
дворяном
о҄убо
афона
вкинути
озер
ут
убе
іхъ
##ствы
##год
##никѣ
желе
приа
голѣ
раслаб
оупра
##хажи
пуста
Нектана
речеши
ихъже
есемо
грѣсѣхъ
покажи
кругу
вотчинники
погоста
правила
домом
орды
умершаго
Магилены
двьри
карабль
Маркобрунъ
Томьж҃
цри
ꙋбѡ
##ꙗна
и҆скꙋ
##еремете
пакьі
посмотри
къня
руской
нѣм
лоше
лугу
поидеть
сѹще
Кон
конча
запалу
похоть
работ
самим
пошел
зимы
##шнее
ондрея
рукама
Слава
хс҃
наказу
##моуд
пробо
малъ
обре
##нѧх
бѣлѣ
подастъ
##шедши
сердцы
инныхъ
въсѣмь
Рос
дружинѣ
дх҃ъ
никита
достаточно
иванову
светы
##квамъ
требуетъ
смольнь
чертежъ
Афана
##глѧ
##говь
##вства
##дется
##мна
##ями
##лиши
##даетъ
въне
воева
и҆сти
##хотѣ
вѣн
подош
учинят
сторонни
##жденъ
обыски
о҅ть҆
попов
анг҃
##нимать
ветча
вѣровати
изстарины
Изъ
аи
ѹмъ
##тц
##ꙿто
##мⸯ
##нишко
соч
##подоб
вари
корни
поклоня
##женіа
добрыми
христова
держалъ
четвертя
кѹды
богомъ
двѣма
хваля
вперед
поношение
романов
троицы
слобод
келарю
дрѣво
ιли
Іѡ
сове
##онъ
##ждъ
##ѥю
##знъ
##єи
назна
немьже
##нори
##нуи
##чами
##сож
княи
возметъ
пустыню
а҆с
послале
ложно
##кланѧ
приидет
отдали
небесъ
воинскому
дьяка
въдаи
пѹти
особно
простор
здарова
новъгородь
поминай
молитвами
Спаса
ступеней
апреля
белы
еста
лове
##҅хъ
бочка
##ньна
##няеть
нонѣ
братя
отъпа
а҆нт
посланъ
воеводе
Сие
дний
исперва
сказали
дмитров
хотѧще
##ступиша
пустошью
пожню
помышляй
довольно
серебря
въскрь
Ари
иере
ꙗвлѧ
##рского
##нчи
##мꙙ
##стру
начи
##чиною
##сили
двори
възмо
скотъ
леса
слуги
знаю
бꙑша
продать
речеть
положилъ
рꙋкою
сѫд
мнѡги
достоино
шьсть
Ꙗ҆кѡ
Тимо
##щыѧ
смотрити
гли
##дце
##кше
наѧ
назва
##ливы
##реж
##рех
##даеть
волы
##чися
всесож
возле
нѣкако
кралъ
многою
доброму
##зоръ
добрыя
##лемен
взѧли
благословление
другаго
съгрѣша
живѹ
красоты
указал
приходить
здела
шедше
и҆зыде
любез
останется
19
Иерусали
цю
ѥи
҆҆
##довь
##іти
поꙗ
нась
##кино
гостя
измени
##мети
тиву
нѣс
бьем
главꙋ
владети
доброты
марка
грошеи
побѣгоша
городовые
нб҇
кѹпи
естества
творѧще
трава
доуше
царице
нетлѣ
образу
взима
жыво
Феодо
евана
фла
ѡсподине
##єр
##єн
поѣхалъ
##тили
въи
##дине
ранит
и҆мже
прозви
##поры
##руши
##сона
гривъ
безс
гривнꙑ
царствова
попы
дꙋши
ѳедор
ответчиком
десят
вотчинником
дрꙋга
глс҃о
отець
обычаи
сверх
##тинудь
помещиком
смертное
рыцерю
лососи
Тугарина
неделщику
македоняне
волокиты
записям
Милитри
гна
##свѣ
##тной
##жской
##єніѧ
##стной
##овла
##чили
##ший
създа
##жите
##л҃ъ
служе
аршин
##кꙋю
мартин
свидѣтель
узрѣ
челобитную
прѧмо
совокупи
февраля
Ст҃о
аса
##шные
нар
горя
и҆дѣже
##жатъ
##мей
чей
земь
таком
сѣмена
блажена
гр҃
##пье
покосы
долг
##сѹда
казнь
чл҃вка
потер
звѣзда
свещен
виноватъ
прилѣжно
клевета
искоу
зелена
бръ
ѹдари
навѣ
настоя
въп
кома
бесъ
##овомъ
возъ
полковъ
кормъ
приказных
стороне
крестьяны
трепе
речетъ
братіа
своѥмь
поручи
купли
наказаніе
добраѧ
пожаловалъ
списка
мурзы
пагубу
ровно
новугороду
Ть
еле
щер
ѡгѹ
ѥдинъ
##єри
##гоже
##калъ
##рьство
оубь
посломъ
столко
десе
возвесели
кралю
полоцъ
##ныих
власте
тьма
городовых
мертва
малымъ
доволно
і҆ꙋде
серебромъ
##смотрити
Чловѣ
рк
смыс
ꙗз
##глу
погра
##рею
коми
##доки
заклю
мого
съвъ
тава
оужа
теши
вѣмъ
лежить
сѣча
коровы
тяглых
ѡтца
бѹде
Христова
драго
столпъ
худо
поминати
##глагола
максима
диаку
архіе
монасти
накорми
хр҇тіа
щу
ѡль
##рм
##ама
##дным
наими
пришъ
зат
и҆мать
прого
сажен
##лыи
##лѧше
цртво
мъною
березѣ
привез
##ꙑи҆
другому
мсцѧ
помаза
##мꙿже
виноват
взыщет
мѡѵсе
навык
тоуркы
Аче
Вси
ивер
ѡсо
ѹм
##ликъ
##дита
##миръ
оуро
брашь
брашно
##овичи
страсѣ
дугою
##врат
##градѣ
царевна
бѹдеши
ст҃ыхъ
##образ
мудрости
бѣсовь
##священ
прежних
слнце
Говоритъ
Всѣ
Обра
внꙋ
укори
шля
##йдет
##года
##тахъ
приклады
съвѣща
##рьі
вѣс
выходы
тѣмже
переве
##ственаго
бояри
моево
семѣ
чювь
бг҃омъ
никомоу
##аннъ
##фора
Соло
похочетъ
Владимера
образы
кротъ
Христу
въдасть
десѧти
вдовы
похваля
порази
крестное
сестру
приходит
шур
пакость
чернигову
местех
##денецъ
судьям
вчера
лва
##шны
##нение
##камен
годно
равъ
##шекъ
пакъ
паволо
також
нѣстъ
безстра
краи
а҆на
влага
сѹши
старостѣ
женамъ
осень
братꙋ
прямую
володимерю
просвѣща
облакъ
мѣрахъ
истиньно
прелюбо
вечере
Лев
Тꙋ
дҍ
оне
счете
##чения
##фра
тобҍ
воску
сънѣ
##лѣетъ
панька
лиця
высла
раздра
бѣсов
перепис
цртв
ст҃ꙑи
перву
верви
##аніа
царств
марчка
сн҃у
дъва
иннымъ
кнѧземъ
вьсею
размѣчено
боуде
искѹ
дмитреев
делы
домочат
солнца
пушкарскому
Кіеву
горахъ
божествен
Амир
степень
Благослов
възѧле
замужь
мл҇ть
конюшню
гюрьг
сдѣлати
Вольфан
Медея
А҅
оц҃а
##сꙿ
##прово
##жка
##жныя
##ѡнь
##чел
почьсти
коей
раді
каковъ
просты
##полꙋ
##вѣр
рога
выть
ного
##чюю
ѻ҆чи
покажетъ
крстъ
##леное
селца
ярополкъ
восхи
поживе
третии
смольне
ківѡ
Сво
ровъ
ѿтꙋ
##шах
каѧ
##бѣг
норовы
обу
##цехъ
владꙑ
поидох
посадить
##тврь
всемо
огнемъ
##иметь
ворон
новѹ
недруга
целование
Пречи
боуди
створилъ
##славича
достаточ
подьячего
страшнаго
латинескомоу
Богородица
велможи
анъ
б҇
мре
##ьсти
##віа
##мель
##голь
##тию
##дает
стен
##мемъ
Помест
Послѣ
исправити
полуд
страх
възлюб
лева
Тои
кнѧжь
сторожѣ
##кѣхъ
хотѧше
четырехъ
дрѹга
крыль
##шнего
похвалы
рѫцѣ
мѣсяца
мастера
пристанище
Ай
Бж
акꙑ
ови
##тных
##петь
##щется
##бен
##жных
##мся
неза
##носѧ
##риа
вое҆
вопроси
придетъ
голови
нине
кана
##пиши
бран
бракъ
стопа
правая
##трия
человѣки
товар
спать
Иванови
смири
всѧкіѧ
прислал
вмѣсто
чрез
яковлев
различными
пльск
осминою
ꙁнамен
инѣмъ
оску
скѹ
францу
ѡлов
ѥсте
##жения
побои
##рець
въпроси
верити
оука
##ньѧ
пару
##любе
##зай
##зина
чару
туто
ᲂу҆вѣ
вратъ
шатру
пѧт
объявятся
такія
хоромы
брегу
##ѥ҅мъ
желѣзное
прилѣжа
ключника
небесьнааго
телѣги
прѣмудрости
прѣстависѧ
##третья
Стефа
Зем
лени
ште
яса
якова
ѡ҃
ѿве
##трꙋ
##лных
##чкѣ
покину
##лилъ
##роси
кость
притчи
приклони
всп
сега
стрѧ
рекы
##бѣга
вижь
##цию
тымъ
мѣща
##ленїе
двадесѧть
мѧте
сътвориши
##десѧти
храбрый
слободы
возрадова
Благослови
воспомина
протопо
ст҃ꙑꙗ
всѣволодъ
Иго
блѧ
лвка
шер
##шкова
##рене
##лные
##дку
##чными
##ꙗв
доити
зача
можете
сею
откры
верить
##чам
робо
беско
##мери
перес
страти
тьлѣнь
боярскому
марша
небеса
учинил
Сава
потвер
делать
цркве
целоваль
приятель
первому
##смотрѣ
вдаль
Нов
Пѣ
вѹ
отинудь
шлях
ѡнд
##твъ
##шене
##б҃
наз
##тишь
восмь
##дѣѧ
мануи
разъ
##скагѡ
чин
полкех
глаголет
животину
посадити
##ешися
васильевичь
Иванъ
григорью
##нимаетъ
невозможно
щерба
шурмова
Акы
гси
тіа
##҄ето
прї
##ними
копа
##нымь
горѧ
##момь
##льше
павелъ
изнемо
ваших
ѡ҆сквер
глаголем
глави
связа
конные
крестьяня
пушкарей
срокъ
купити
непоро
пречистыа
моѥму
опас
горести
селех
ѡц҃ю
Воевода
Дмитре
Бовы
дши
пел
хвати
хмел
##лв
##зны
##ꙑхъ
##конъ
##тьі
##вааше
##емя
комъ
божъ
##леве
##щаше
кунꙑ
възя
ложа
врагомъ
индѣи
святый
отпуст
юрья
крестьянских
105
изоби
і҆ѡна
виноватом
богатырской
богатырскаго
увиделъ
рыцеря
воевати
Варфоломе
Дер
Хра
ег
уставити
чс҃
##сса
##щемꙋ
##нское
##жные
непр
##етсе
##ницѧ
##овалъ
съмотри
##дъше
мѣди
а҆м
платно
имѣеши
вражда
серге
подъя
##деръ
анге
трудъ
овса
повѣдаша
взыде
тѣлес
жезла
нб҃о
ослуша
блꙋ
т҄о
х҇
ѿпѹ
##ѡби
##ѥте
##ямъ
кожи
копъ
кожю
зака
никъ
сози
съподоби
##щина
странамъ
грамотою
лавка
видѣли
благодѣть
златъ
кинова
сторон
сторожу
мѹж
##стоитъ
шап
законѣ
ивановъ
повѣсти
##меты
##шних
##чету
вместе
Царю
княгине
намѣс
сьрдьце
выкупати
лутче
і҆исꙋ
аб
гля
клемен
яч
##имѣ
##нѥ
##новы
поди
нава
##вается
въхо
##стьи
рама
презрѣ
##бѣже
грань
##гин
братомъ
исходя
прѣклони
друзи
бисе
ᲂу҆твер
короби
добрым
цѣль
приведет
##вшимъ
##лением
неис
хана
таможен
##мысль
свѡ
слꙋж
приложити
рекъше
Василь
грв҃нъ
сьрдьцьмь
груди
прочіи
иоу
ннꙗ
яи
##гіи
##чов
##чке
##дона
##льцов
каи
камѧ
съе
##жают
пасти
##дьникъ
##выѧ
є҆дина
сущи
##ствено
добротѣ
человече
б҃ь
##зеи
##шолъ
писц
повѣсть
штобы
племя
дроужи
##женыи
андрея
завида
чрева
Владимира
составы
роусиноу
пагуба
атама
заутра
кѡнстан
ажио
дль
ищ
поня
полюби
##шаꙗ
##мут
каже
люта
##лѣтно
живя
сынов
##сомо
##лѧть
подмо
сѣдѣ
платьѧ
животина
Коли
##ющеся
чья
запад
раꙁꙿ
шатеръ
инномъ
числами
верховыхъ
съмѣрение
урядѣ
пушкарской
сп҃с
Бысть
Къто
девять
болѧре
объявится
помышляя
благодарствую
устѣхъ
##стіа
попь
коров
вохо
##льі
съмо
весе
##дѣт
##ньѥ
##ньца
##ньемъ
лютѣ
##жая
ходят
##щиковъ
деб
возвести
супроти
волостели
##бь҆
##дяше
ласка
##днихъ
бывали
продастъ
##шои
злое
послѣду
индѣй
##любива
блюди
пръвѣе
Литов
королевское
правьды
грѣшьника
съсудъ
бц҃ѧ
прибыли
карабля
Серги
Птоло
##лского
несть
комо
даите
всь
заго
сеѧ
##шеб
##силъ
издале
сав
обя
стое
мѣсту
славити
покѹ
ᲂу҆чн҃
знамена
кирпи
гл҃ю
створѧ
побѣже
Киев
половины
Прежде
сахар
мꙙ
усты
##рци
##влю
##лнѧ
##феи
##мии
придет
годѣ
готов
##жах
станеть
ход
##цей
мѣсѧ
##телей
святую
мълъ
начале
огня
бл҃говѣр
осмо
куплено
учинилъ
самовла
свободи
рекох
поварен
давам
серьбра
Вел
иж
тіе
угъ
##ꙿше
##рмы
##янию
тота
когѡ
заи
##шать
оус
##ньем
##рыи
твоꙗ
є҆да
муку
Господеви
##женіи
##ждение
мѣстомъ
подал
положил
коньць
братию
##мреть
приставом
пошлю
благословение
первого
чюдотворцу
лъжи
празд
Мѣ
Повѣ
гни
узо
Ѿвѣща
##вныи
##юшта
##юштя
##зоу
нету
##чила
##салъ
стг҃о
ман
листа
вынять
руз
##шьды
возбра
меже
страсть
лесть
і҆ѻ
##дятся
Толко
тъштися
г҃а
сѹд
петрова
смерено
нед҃
сердцу
##лѡмъ
срце
Мурома
григорьева
дръꙁ
##смотр
прекрасную
торгом
обряштеши
колоко
кормит
погребе
рыцерь
##глые
казначей
##кърби
выборные
Македонию
садился
Созоменъ
напослѣдъкъ
ништетѣ
печяли
аци
инѹю
сма
чуд
##гдѣ
##єм
##ность
вънѣ
бочки
тала
рот
##тым
##гии
##славѣ
Пору
перемени
##бье
##скыа
##стѣй
тягле
шест
Кое
ст҃ое
мудра
бл҃года
юрьев
дн҃ии
мсць
храбръ
всеволода
какие
согрѣши
неправды
двд҃ъ
Кы
ѿпꙋсти
҆ѡ҆
##колюб
##лома
толика
##дину
водити
вольно
сол
##сана
оттуду
##няне
##пила
##пина
подня
верꙋ
дивно
пѣших
млст
очисти
послухи
пріити
древѣ
вотчинных
целовати
звѣрь
моѥи
змии
мъногы
Перси
готовити
Еу
зѧ
ув
хь
##жки
##вца
##ꙗне
##стян
поти
въкоу
приг
ничево
##нях
вѣсъ
разгра
##тятъ
##казание
лаза
##евичу
гд҇ни
поместью
Милости
покой
зъла
вѣрѫ
тимоѳѣ
напрас
вѣчнѹю
копен
четвертям
клен
плен
##сіе
##нскую
##лѥ
##днаго
подь
##лалъ
присѣ
прият
##лее
собира
падъ
изиде
рев
##іимъ
Подъ
възду
##елеи
##жену
михаилов
боярской
##ченіи
григории
законь
обозу
языку
языком
списку
служба
мѫчени
просле
фоми
посадских
дыха
##ствъмь
пребывати
ѿц҃ѹ
ѻ҆гнь
перелогу
Гн҃
дшѫ
одолѣ
убѣ
усо
фрѧ
ѳили
ꙗкы
##віе
##влено
##єго
##ятся
попра
##рини
равь
рамана
##рѣхъ
##стия
съхра
##бога
##ндѹ
а҆дѡ
платѧ
##хаилъ
сѹсѣ
книгу
старци
гривьна
слѹшати
##стяхъ
останутся
ключи
терпѣ
болез
алтыну
имуще
чернигов
александра
прямыя
крепостям
Буд
жрецъ
хвал
четь
Ꙗже
##тные
##цр
##аа
##мꙗ
потро
дожи
##лецъ
стены
##нятся
слабо
ст҃аго
первыи
гсну
богате
благород
рыбо
молодца
полупол
##жении
дворецкой
##сподинь
градѣхъ
прибыль
болгарски
старѣй
Зна
Сѹ
уречен
##жна
##ховѣ
##чномъ
##стем
нахо
##еніѧ
##лоп
##мия
привяза
##шине
##тебря
##биѥ
##ръжа
хожено
посмѣхъ
##пат
##меръ
##еных
есмѧ
ст҃ѹю
перва
ложи
вершити
святѣй
недѫ
сътворивъ
##гнаша
берегу
ѡбразы
красенъ
духовных
обыскные
сидора
съблазни
промыслѹ
паханые
уко
##бр
##нство
##нную
##дение
##дову
##йскому
неразу
##толи
##жешь
##мир
долю
сой
бышя
през
лицемь
перси
милое
##пей
знаетъ
бывают
тьі
млстию
порознь
##штѫ
житию
смѣтити
записывати
болѣзнь
украси
творяще
сироты
силами
княгинею
горах
рѣзанъ
ничьсоже
благовѣр
гривенок
умеют
дешево
дѫ
ои
свъ
ѡдолѣ
##бель
##нту
позо
##давъ
давалъ
##донъ
завѣ
заим
затин
##мота
сера
##рымъ
##лыми
є҆ф
лѣсу
испе
прѣбꙑ
подписа
веры
менѧ
архе
григори
рѹцѣ
пушкарю
помилоу
сказание
ворот
разумѣеши
##любов
ѳедоръ
сороку
##носити
ионы
емлют
храбро
блгть
##стиннѣ
Мъно
божіею
Брати
кль
пли
сково
ядру
ї҃
ѧкъ
##ннаа
##ѧхъ
нел
тобь
даӏ
могли
кат҄о
мишени
люто
##сколько
изведе
хочю
##бѣхъ
всево
нѣме
въземи
##городѹ
грѣшни
государем
коробѣ
человѣцы
хранит
розмири
добрыи
поставилъ
Калина
смѣтѣ
ст҃ослав҃
град҃
##метено
помѣчены
ответчику
ногать
ногата
члв
дрѹгѹ
дмитрей
истинну
лоукѣ
четверогранецъ
михайловичю
челобитной
стольно
Алешенька
кружало
прилежно
идутъ
ꙁаконъ
улицу
кѫнѣ
лосось
Азонъ
Михайло
знаменіе
с҃тославъ
Поповичъ
молодцы
багатырь
выслужены
Анаданъ
пироги
плуг
покамѣстъ
дворцового
ѡгѹрцы
еѣ
жре
хер
##слѹ
##иле
##еже
##ш҃
##хна
копати
дону
ката
##вѣи
##чаѧ
##лѣбъ
##стое
малу
вѣст
тым
##жько
имет
##цѣми
боязни
чюжь
сыновъ
дерзнов
корч
ризь
Мало
##нѫти
цр҃ю
и҆збави
воинство
##мретъ
звѣзды
ѡбрѣта
Ꙗ҆коже
Творца
ꙗвлꙗ
келарь
токмѡ
гов
пл
списа
##от
##птѣ
##дть
##ливу
##рода
мокро
##нямъ
луки
##гради
##ехали
злоба
спаси
бъ҃
положить
хал
подобна
##сифу
Василей
##стреми
сътворь
индикта
втораго
полуполтине
трѧ
феѡдо
ꙗша
##нный
##жꙿ
##стры
несу
##минь
##чиша
нима
##нувъ
оув
паѵ
вамо
хочетъ
ное
##телꙿ
двоѥ
##лекси
храм
печатью
##щеніѧ
запасовъ
скатер
истина
купчие
долгу
повѣжь
чл҃вѣ
бл҃годар
манастыре
съвѣтъ
обрящет
телеса
грѣхꙑ
взыска
ерети
Адама
зуб
поклеп
предѣлы
Муд
охо
явити
##ила
##жіи
##міи
##҄ѡ
##лот
##миро
##стьі
седь
сихь
изна
предати
къс
##щимь
пиши
бѣхъ
##гъна
##жье
чаро
персы
лони
свѣтѣ
моеѧ
знала
ѡбли
раꙁо
труды
грамотам
татаръ
здравствꙋи
красота
филипа
вверх
возопи
Ке
дія
кна
снѧ
##сем
назы
##етꙿ
##никоу
##ваите
##шаеть
##льцы
##шиихъ
оумь
##веи
чернори
ныня
книгꙋ
уезда
таковаа
глаголютъ
остров
какими
і҆ꙋдеи
плакати
а҆рхі
насильством
прослези
Ог
здеся
иа
ѡто
ꙁлѣ
##тце
##тныхъ
##птѧ
##нкы
##юсѧ
##мли
##фер
нань
неѡ
въниде
водѹ
##жецъ
##минъ
радоу
##тец
отце
##няли
варе
резан
вѣцѣ
рукъ
##чьскыи
Поми
##цыи
ꙗ҆ви
бут
святая
нашы
сѹдно
Сегѡ
попреж
вашей
млады
приход
истинно
чемѹ
видели
погреба
платежь
печерь
попрежнему
І҆
Ст
крꙋ
осла
плѡ
худы
##совѣ
##꙯а
##вичю
могꙋ
нивы
миромъ
тии
куту
семеи
##лѹи
нашемѹ
своѥю
попри
погоу
государское
##вшіи
дворяны
мьстислав҃
юноша
колѣна
##щѫѧ
оц҃ь
Гд
дщи
упи
услы
ѡ҄
ѹстро
##атъ
наꙁна
##мъка
неѧ
##даго
сом
##дѣмъ
васька
вышли
возы
##сѣх
перевоз
указъ
і҆е
##дяся
святеи
тър
##ровати
##ються
храмѣ
приказные
разумно
мѹжи
стѣно
Ивашко
божиею
аплъ
апостоль
восемь
тюрмы
клеветь
Многа
Божествен
вселенную
губным
бж҃ии
60
Зми
гнь
сде
тму
утра
цвѣт
##о҄у
##нная
##авъ
##кꙿ
томи
давно
води
дож
раго
съхрани
веси
оупо
старица
##хаго
сара
чесо
многѡ
отъи
тѣлѣ
##жья
всякія
имѣние
ѻ҆тецъ
##слове
##зуть
хари
благословения
пѹть
изѧславу
довол
ерма
##сматри
Апра
Игна
О҅
деми
хрѣ
҄е
##шнаго
##годно
##тила
##вок
##роб
кола
дахъ
рабꙋ
нигде
сотен
ответъ
митю
##скїи
вашѧ
вѣкꙑ
##щами
чина
будете
деревлѧ
##спъ
имали
ѡ҆ста
гласы
первую
служат
##зою
бжіе
корсу
констан
продажю
##ехалъ
смолинь
тотча
##трени
дълго
мясо
починки
##сифъ
творѧше
ондрей
почел
лошадей
посолъ
езду
памѧти
лѧхы
дядюшка
судье
поличным
члв҃къ
осударь
Аристо
Вольфангъ
Савао
вє
вшед
ді
мнит
ова
##штъ
поѥ
##емѣ
зазира
заступ
##леву
вечно
оустра
пагꙋ
разрѣ
добр
возло
бѣсы
прѣмѫ
двору
сладъ
иногда
есвѣ
ст҃хъ
стрѣла
##строю
ѻ҆чима
товара
послуше
борисъ
помѣшки
детемъ
обычаем
пятинатцати
спрашивати
прпбныи
Бъ
юде
іер
##тⸯ
##ѳеи
помь
##гости
##тан
гори
##лече
каковы
рекою
##цини
Послуша
мѣд
скоти
##творити
боярь
писаніа
рѣз
Толико
гд҇не
предречен
Конь
##щьно
покарѧ
раꙁдѣ
ивановичя
##лениа
воинскими
і҆и҃са
головъ
братиꙗ
рядъ
образецъ
вотчинами
воспита
приводити
діаво
ненавидѧ
гл҃ати
недоумѣ
Пла
ала
берь
вле
ѡного
ѳа
ѿн
##ѡнꙋ
##іна
##лиса
досп
събира
##стоѧ
##ходоно
##ряти
##ового
вѣдѣти
житье
испу
Бог
положена
і҆ере
Тому
нашемꙋ
приидеть
цр҃ков
веселит
молитвь
##ѳанъ
глуби
ростиславъ
праведни
Поиди
новегородѣ
нуждѣ
##ходоносо
22
гѡ
окладу
птене
сказ
смѧ
ѧкова
ѿсѣ
##жство
##дроу
##кіѧ
вопи
рай
##чил
##шивати
прочая
##жител
хором
преступи
##мешь
разно
##скааго
сукна
положено
есме
##нꙋтъ
противо
темницу
тягло
изъима
мьне
болше
въꙁꙿ
Моли
скаꙁа
воеводу
рꙋка
иꙁь
четыри
днехъ
половине
Хотѣ
седла
помра
##гоуть
правило
изѧслава
##йтеся
какимъ
имут
федорович
исаи
бобыли
бесчестие
прилучится
батоги
26
25
Иса
Иису
исъ
пуд
шꙋ
повои
начя
##лале
призов
какь
##ениемь
силꙋ
бесловес
выбра
##выми
руце
добрꙑ
отъиде
Нео
муром
##бьѥ
грѣси
гснъ
дьѧ
блг҃
последи
гуля
нбсе
помѣть
сороци
пригожается
члкь
104
половь
погибли
бѫде
авдюшка
угодьем
домомъ
гь҃
извѣст
##а҅хѫ
идучи
мѡѵсею
ѡ҆брѧ
недугъ
лѫка
Блю
Пь
овѣ
удо
хѡ
ѡспода
##сель
ната
прде
нестер
##димо
съп
быстꙿ
любы
##скорѣ
мал
##щаꙗ
воздыха
бѣаше
правые
сухо
муки
сѣнь
бума
царьство
королѧ
вратомъ
корчем
приимати
запасомъ
шири
д҃і
анну
дъжде
дмитра
похвати
хотятъ
двема
достоитъ
боудѣте
кнзя
##служи
и҃съ
промежъ
посадиша
Брате
болоты
невидимо
утѣс
новѹгородѹ
і҆ѻрда
Идеже
##цка
##вете
##кр
попро
##коше
привоз
##тъкѣ
можа
раста
##чиши
кая
##вѣст
оутвер
##пада
лихи
Дай
чюд
благодати
убоя
мѧть
Мати
сквръ
милостивъ
обоего
мѫжа
Сыне
##повѣда
памѧт
змия
ꙁъло
иноземцы
лаврен
принесет
хр҇та
Болгар
внутрь
Два
пто
укрѣ
ѹка
##шных
##бет
##ѡб
##тил
воръ
всихъ
нинѣ
##чах
роды
лѣтѣ
велкы
бив
ледѹ
чюдь
дѣлают
ѻ҆рꙋ
хранѧ
продаст
начала
погꙑ
въꙁра
покажеть
##стоить
иванко
молода
работати
дьяком
самово
терпи
ѥсми
думных
ризкого
птенець
умомъ
##прь
##гръ
##нте
##іт
##чный
наче
нечем
воде
сотни
##чает
росии
##лядь
##место
##славичь
государи
правѣ
странꙋ
единомъ
дѣламъ
повелѣнию
##довати
д҃ни
убиша
соуще
матю
##нѣиши
каменное
Велика
начнет
столпѣ
хвалити
въпадеши
свидѣніѧ
архистратига
Бове
Свое
аф
глꙋ
зен
устави
ѧти
ѿлꙋ
##кле
##зду
##ядець
полюбов
##реву
заимъ
отказы
татей
оумъ
поспе
##бѣть
росп
выпи
живых
девки
##нѧгѡ
взговоритъ
указной
твоими
ложь
знали
приказех
##ющее
продаже
сотворите
ꙁави
крстья
Приказу
Калинъ
кабала
##жениѥ
половиною
боудоуть
готовъ
сильный
многыми
Медеи
княгини
казначею
киевской
Луко
##ѣзжаетъ
осифова
скърбь
приедет
перстни
##плих
девку
своєго
Изѧслав
призывати
Зензевей
земъ
звени
сбира
##жба
##ꙗи
помыслъ
##вами
колько
каса
съдръ
отра
милая
##цах
сино
стан
вама
велитъ
##ндри
испи
Даже
духъ
василко
госпожа
##дники
нашѧ
сѹдъ
разуму
розных
судное
поклонитися
говорилъ
круга
##жницы
обитель
ст҃ослава
градов
работѣ
бѧху
степан
вь҆ꙁ
ведаю
указано
захарь
любезно
нѣтуть
300
Чьто
вʼ
ии
истер
оре
ѿкры
##щень
##нному
##нскои
неро
##роп
даные
задѣ
прочер
##рьми
отвѣтъ
##чеши
##сторо
##пало
листомъ
Бозѣ
нѣкий
полоцкии
ложе
##днои
близь
правдꙋ
свиту
волшеб
данилов
здѣлати
конеч
михалѧ
потребы
свободы
ꙗрослава
худѣ
окаян
словъмь
заблу
вкꙋпѣ
ат
вбор
хв҃
ѳео
ѹб
҆мъ
##аніе
##҇е
##ѭште
##єцъ
понѣ
##лиѧ
##нине
##тона
##вавъ
въпро
всел
морѣ
##чинѣ
калин
соловь
отходя
##вѣхъ
##жахъ
##вец
хоч
##овому
лист
##мели
нѣт
пеще
доброю
нашли
убои
самое
##женіѧ
держали
взявъ
##фии
кругло
пушкари
воротъ
чл҃вкъ
испор
ярости
дружины
таковыя
государстве
бѫди
праведнаго
явися
монастырских
печенѣзи
сѡтъ
Где
мле
ута
шелъ
ѧки
##тову
##реніе
##демь
##вина
##ститъ
и҆де
прота
събьра
##вѣди
##жаѧ
мак
вѣмы
##без
є҆ле
чашу
сѣдоша
дь҆
##зьі
##ждю
въꙁь
сн҃ѹ
писму
пьрь
славѫ
казен
строить
целу
##ющаѧ
хотѣти
пріꙗ
дрꙋгъ
просфи
многая
кн҃зѧ
Лифля
щедро
въставъ
тѣлеса
ꙗ҆зыкъ
отпиши
воровство
королевича
28
бг
дров
зрѣти
мꙗ
мере
уне
узь
яша
҆ѡ
##снова
##шкꙋ
##нными
##ани
##веніе
##мко
##кров
##ѥи
наиде
##лик
##лана
##нома
топ
присыла
замор
##моло
избѣ
вамь
##ходе
цара
##дьнъ
##щины
рускую
раздели
сѣсти
дѣлается
времене
гала
розби
б҃о
судным
стере
##шъка
##шениемъ
прямою
греки
погиба
божествены
отпустил
гаврила
ѡбрѣте
повре
въздасть
словѣнь
палаты
мужеви
ѻ҆тцы
преосвящен
поварню
710
огонь
вѣрьнъ
иная
чоу
ѹвѣ
##теніе
##шут
##гер
##рⸯ
##рской
##ѭще
неꙁ
възира
вопло
моста
веще
падетъ
имень
##стехъ
##гѡвъ
възненавидѣ
а҆ха
имаше
сье
##хитро
блжен
бꙋдеши
бл҃гово
порока
походу
сказать
жаловати
непотре
подобенъ
хотѣли
нейже
племѧ
челобитнои
псковичи
еуаг
Блг
##явлен
прочаа
29
иную
устья
##цел
##аѧ
##дв
нару
толики
котел
мог
сее
##тера
сож
##жия
##жалъ
##овое
живѧ
##стыя
славя
чадъ
трижды
##кѹтъ
храма
продавать
блиско
Такова
е҆гѵ
неиже
кѹпити
##станетъ
##носить
дрꙋги
##торока
раздѣлено
въсхы
пребываеть
приступа
селище
фомѣ
мужем
чясть
аггль
заплатить
погꙋб
великꙑи
венецъ
априлѧ
едетъ
онѣхъ
управ
##ннѣ
настави
##наі
тоꙗ
даніи
домь
захо
радꙋ
##сади
роба
гражда
вида
тихъ
возве
исѣ
ꙗ҆з
черной
##скыхъ
старои
царевъ
взят
данилова
золот
слонъ
июнѧ
повину
владыцѣ
таино
приложить
въскр
равныхъ
Гаври
нб҃се
платит
обыскных
помилованъ
архиепископа
неправьдь
игѹменъ
саꙋлъ
сѫдцꙋ
Али
Бови
К҃
Обрѣ
довѣ
іоу
ѡе
##отъ
##тня
##аг҃
##зꙑ
##єтъ
наю
##них
##елев
пристꙋ
рабе
прост
##рьць
стіи
пато
##щаю
##бери
##чьная
разда
##енаѧ
прароди
ихꙿже
нихь
гривну
поможе
родится
раꙁли
рѹкѹ
починка
высоту
любит
конемъ
болезни
мл҃тва
околничему
##п҇пъ
Также
Ври
гры
чст
ѡндрѣ
ѥстъ
##нде
##лми
##лніе
##хове
##ꙙшти
нало
##колѣ
восоли
госѹда
ража
ниь
##рѣй
проц
съв
##ением
##мѣте
творт
статка
высѹ
ногъ
обр
возѧ
бѣда
страж
страхом
биша
учения
Намъ
поиду
ные
посацкой
трегранецъ
запасѹ
многим
своѥ҅
малой
Симба
убитого
халоп
митрополичи
поклаже
третьи
кралевну
пришлет
Михаилову
ответчике
вотчинныя
##ткамъ
пошлет
Хотѧ
образцомъ
творять
ядромъ
##ѳана
плеще
рѹкодел
ѡстатки
ехалъ
древомъ
пыток
порѧдни
мрамо
бобылей
Муромцу
коробьѧ
закладной
письмо
свинчатое
проести
порутчиках
целовалников
властел
свѣиские
##убий
капѹста
самодержца
купець
варшавы
отсро
статьѣ
ѡловѧ
раманав
онѣмъ
##тнеть
##щерь
поско
##тьем
##него
##гали
сиⸯ
васо
##бати
чита
сѣмене
писат
##евичъ
онти
плод
##щенія
добрыихъ
скрь
держат
комуждо
##лениемь
почина
##вичья
обрѣт
приходу
пророка
вмѣстѡ
оставль
мыслить
скиніи
радовати
отвечати
другыя
философ
ярополка
служеб
Чловѣкъ
новые
уѣз
ѡсѹ
ѣкоже
ꙗꙁы
##тла
##ане
##хле
##йской
показуетъ
накла
##енїе
##реч
##доха
##сиꙗ
оума
малаго
##халъ
саве
граб
##бар
##чька
##овици
##нѧть
чины
дьжь
верста
ларѣ
луг
царьству
королевичь
##ніє
дъво
##етою
васильевичя
свобод
пошло
Сынове
нападе
кормить
ѥсмъ
языкъмь
##сюду
Первое
судьи
престолъ
храминѣ
месеца
ратманом
Рыц
геѡрги
архепс҃пъ
дѧ
зя
кні
мель
обою
піѧ
чтити
ѿм
##снъ
##гно
##н҇
##нци
##ѥмо
##лиже
конъ
волѣ
водꙋ
##мие
##доли
заж
##нев
ведра
##въшу
##рые
бесе
##щиимъ
вычи
##чьство
##слали
##славоу
облѣ
множае
отъвѣ
вьі
лѣсъ
нѣсколько
сѣти
туго
благодѣти
продали
всим
і҆и҃лева
хотят
стѣнѣ
обрѣтъ
##цемѣ
надобь
блгослов
приставов
борисова
сказывали
ѡвса
Има
Сви
жда
хі
ꙋз
##пен
##вство
##гони
въд
приточ
##стиꙗ
##болѣ
##жии
изда
маеть
пили
##стынѧ
мешка
покровъ
дулѣ
биют
перет
##зости
черта
видѣх
##ложилъ
бл҃гъ
##пью
крщ҃
шиш
ивановичь
долгъ
внидоша
десятку
лошад
степану
дроугъ
почали
извѣстно
глѣб
другие
боудет
доправить
точьки
Охъ
Юрь
аспи
ишти
кне
очную
т҄а
ѿдати
ꙇ҃
поѹ
небрѣ
##ницею
##лофъ
даютъ
##мон
##льма
сънъ
отя
вечных
ведома
павь
##столюби
излѣ
##щикъ
выписи
разго
дек
є҆с
безпре
странахъ
пеца
црков
свѣто
##скымь
корот
кнѧжи
учителя
шестаго
покаме
говорил
поруга
Сина
послед
городовъ
землям
видитъ
хотѧть
хотяше
хотяще
ярость
юрьѥви
желаю
погибели
дворянина
хвалѧ
съмѣрениемь
зависти
пскова
возлюбленный
алеѯѣ
второй
восприя
казнить
жаловалные
оружейни
множества
Днь
Имя
кѣмъ
опу
рж
ьсть
##евь
##ретъ
##аи
##язы
##ꙗть
##ꙗхꙋ
##фі
порт
водѧ
##льна
##сивъ
сотворѧ
стры
##скомь
рожден
гради
жидове
руча
супротив
##тура
сѣть
сѣчи
##бьи
ᲂу҆би
королей
животу
стрѣлити
тъкъмо
предста
знаніе
прииму
ритори
самой
##разꙋмѣ
##шкина
##штая
обозъ
хара
имярек
Вѣру
ст҃ыѧ
борть
узрит
сꙑнъ
мстислава
волостелем
прч҇
знамение
купленых
скорѣе
ѡ҆бита
вышьняаго
вве
зѣ
ѡсподину
##щенье
##благо
##жныхъ
##хмо
нащо
нежи
тар
сима
беспо
сажени
##щагѡ
##вьно
прадѣ
числѣ
##зите
крамо
имате
##скыихъ
##славѹ
Когда
конꙿ
нашея
мъне
##женію
всѧкою
родители
пѧте
митрополитъ
Отче
глщ҃
предастъ
доуши
раздѣлити
##ниѥмь
Свято
старець
мънога
провожа
сюды
приносити
мечта
пришествие
ловити
##славомь
различь
прочертить
Ор
кнь
укрѣп
яр
ємоу
Ѡле
ѻти
##сницы
##нным
##лость
##нав
пристꙋпи
гони
зато
забꙑ
каме
сърѣ
##скі
##жане
хочемъ
вѣре
сани
возь
якож
сук
гриво
бьрь
владе
##скымъ
дерзость
старого
блѫ
самодръ
##тріе
пушкарь
##жениꙗ
гречь
глѫ
слезы
слн҃
бѫдеть
верхова
повинѹ
позов
почаша
покрыто
наместнику
батюшко
мц҇а
Адам
везде
наплъ
Дмитри
олтаря
80
еѫ
овъ
рюри
ѡть
ѿтолѣ
##нныѧ
##ание
##ахоу
##лется
##ѵм
##стрі
нелѣ
неклю
##ницъ
##рево
##римъ
боудь
гоня
горꙋ
откуду
##ньце
##чала
паве
сана
кули
Божьство
##цѣмь
всякіе
святое
и҅мъ
поставит
шатер
мяса
волно
труб
стѣна
именемь
поставлен
##стеръ
лоукъ
Беꙁ
климен
грѣховь
отпустили
смертною
ковче
ст҃аѧ
гърдость
дъждевь
Отца
м҇
ога
осподину
рбль
ѧ҅
ѹ҄
ѻсподину
ѿвръ
ꙩндрѣ
##ед
##ч҇
поразумѣ
##лонъ
##тон
##танъ
моӏ
##сиѧ
##тескъ
отказа
милый
##бил
сихаилъ
хочет
ревно
рождь
##щать
дѣжѣ
руць
##сьи
отъкры
мушк
легъ
а҆ве
лоне
случи
и҅ма
##зьми
семей
никол
ѻ҆тече
блудь
сторонъ
розмиро
посацкого
судных
римъ
##фоно
коуз
грвнѣ
грвне
##штай
противѫ
##шяя
дворовых
записке
гривьне
въдае
ответчики
торговою
дрꙋгꙋ
старыя
опят
ногато
погосте
новому
107
начел
вьсякого
въсел
терпѣти
средѣ
надоби
повинь
а҅кꙑ
трьтиѧ
цетве
мужики
островѣ
обряштеть
душевь
грѣшьныихъ
цоло
стольный
кѡнь
осадѣ
найми
Гаден
пятнатцать
Филипу
цетверти
чловѣкъмь
обыскех
присълеши
коробьи
осифове
Азона
убогый
вѣчьныя
Тугаринъ
погибель
съкрый
Канда
потъштися
Бояштеи
просвѣти
збежит
кротость
хрьстья
разумива
Акиръ
птаха
притере
молодога
позвале
мълчя
безумьнааго
лицемѣрь
прѣзьри
салдату
Прѣмудрость
овьса
роспрашивати
ближьняаго
уклонить
пияньства
въздъхни
камѧнѹ
угълофъ
Вриону
##убийци
Жены
Иере
Левъ
пч
схо
сл҃
ус
ѥм
ѹпова
ꙁемь
##тї
##ббѡ
##ст҃
тож
давали
##теши
##щев
пале
лиха
##мых
бѣлу
лѣтомъ
полкахъ
душь
глаголеши
##тробѣ
воинь
плото
славный
Божиею
иꙁво
Видя
##говорили
нарекоша
##бꙑти
вдру
среды
примѣту
жалость
пребысть
портъ
Ѻ҆нъ
поправено
Тимофѣ
комиса
Цѣ
руд
тел
Ѡнъ
##сѵ
##иди
##пову
##цємъ
##нть
##ая
##вено
##хло
##дню
##ӏ҃
##каю
жеслс
прибе
пристра
дочер
милꙋ
##скѣи
##чатые
роту
родомъ
возненави
##нѧт
##мые
отъима
Богь
##веръ
сладость
ᲂу҆ста
бояринъ
##трое
моима
##коваго
предстоя
сотворил
Мики
печалова
смотр
бл҃говѣ
подаи
купчих
громъ
ст҃опъ
высокы
##лніа
##женью
##хѹть
свѧто
начѧ
столпа
вотчинам
сокров
грамотку
бжтвны
глагол҄ѫ
##любьць
скобеев
дъмитра
Вер
елен
жреб
звать
чемь
ꙁи
ꙗкѡ
##піа
##цкомъ
##щета
##ав
##деніе
##меле
##яли
##чє
##фею
##ваху
##диꙗ
кори
зале
##лъся
созва
отчине
стрꙋ
сидитъ
палъ
преиде
житья
сынꙋ
разсѣ
##скам
тѣломъ
иваном
подда
нѣго
крадеть
сѣмъ
господы
лук
##дницы
воину
люді
гривнъ
архі
книгѣ
царствовати
федоръ
мяс
сѫща
обоз
кротъкъ
наказати
наказанье
братиею
Чтобы
криво
новое
татаринъ
дш҃ю
царевича
##стѫпи
аминъ
трѹдовъ
прежним
ст҃аꙗ
костромском
зелья
Мꙋ
мца
снь
цс
##цкаго
##носто
кона
дама
зач
##рѣвъ
##ситъ
отвод
таф
предѣлъ
##хали
родити
##бес
##нѧтъ
##творя
##еные
##тромъ
святъ
старожил
благъ
нашею
женꙑ
##словіе
мѹжемъ
##ждааше
воинские
строение
отпустить
чюдотво
##елѣже
донские
книгами
совершити
сиротъ
Многы
умилися
посрѣдѣ
vіні
гда
днии
мч҃
новых
управи
##лсѧ
##м҃ь
##вомꙋ
доло
моѵ
можаше
##льный
##шинъ
събѡ
веду
##дѣше
##бий
вѣнець
вир
##сками
великомꙋ
а҆лекса
Коль
Сей
запрѣ
порою
порохово
подавати
##лники
пушкаремъ
пищаля
нбсь
вниз
двемя
полате
дмитреи
верховымъ
старостишки
дш҃ев
остерега
толма
сиротѣ
расꙿ
надежду
мл҃твами
подьячим
діакѡ
собаки
##н҄ь
снарядомъ
бросанію
замкнѹ
проее
Воеводѣ
сторожевой
отпускные
архимандриту
леониде
стѣнобит
бло
опро
ізъ
ѿидоша
##смъ
##сение
##бны
##дени
##ѡни
##кшь
побити
порти
наме
наведе
##лав
##ронъ
##родъ
##рец
точію
дае
дарꙋ
даромъ
дадите
пригород
##сарь
симе
теж
вѣнецъ
вылѣ
видеть
княжа
##жьствѣ
испусти
възо
рѣкѣ
##ятися
сꙋббѡ
снаб
братію
написахъ
должни
помилуй
казнѣ
матфе
щото
приятел
силнаго
ондрю
съгрѣши
Сталъ
ві҃
божеств
сонмъ
прибав
никоторыми
герасима
кѡнстанті
а҆дѡнаі
укро
##ит
##шє
##гель
##лкова
##лія
##кръ
##ꙑмъ
##рос
##риль
въсъ
##дился
стѫ
##цам
##жаго
сили
маѯ
##сеѧ
є҆ѵ
Пожа
##зину
ᲂу҆тѣ
имѣли
никоея
##нꙑихъ
б҃е
рыбу
чьт
чьрь
пришло
е҃і
манастырѧ
принеси
недругъ
тꙋка
Сынъ
поганыя
обѣихъ
##нꙿно
цьр
княгиню
прошлом
троице
иконы
трѹды
болота
притча
правьдьнааго
девлет
веніа
посторо
ѕлаѧ
позади
живяше
Еди
азо
д҄ето
цере
ыз
юрка
ѡнь
ѣдетъ
##плѧ
##біи
##нми
##лмѣ
##ѫмѣ
##ꙁн
направити
##коло
прова
нераꙁ
дасте
воя
##кинъ
болъ
дождь
загово
каш
и҆ми
быста
##болга
оубиша
##вецъ
вась
варит
марь
маръ
вѣдома
є҆л
##брано
всяк
инои
мучи
лутчи
##славля
кнѧжа
корму
васильевъ
бꙋдете
повелѣлъ
речено
написана
ивановичу
неист
дꙋхъ
бл҃гораз
Петру
##вшѹ
хвалу
моужь
почест
##шеніемъ
камение
чюжезем
длиною
аче
зы
зови
огоро
цср
ѹма
ꙗзи
##ѧніе
##ждати
##юю
##яз
повы
помя
нази
##вори
непова
##ницѫ
##дока
##дошѫ
затвор
##шавъ
##боко
любь
##рыми
вѣт
##щают
##бамъ
разѹмѣ
##сонъ
бѣгати
краля
полож
Тоже
##ловичу
бжіа
бꙑсть
##лкоу
скака
##етом
##цкими
запис
сказаша
двдъ
пророци
тѹто
прислать
въсеи
івану
досталь
мьстислава
##скꙑѧ
ѧ҆зы
востокъ
возлюбленная
блъга
великых
##женеи
статьямъ
исправить
и҆ноплемен
гривенки
Пріи
Чел
лѡ
мль
мня
опъ
уподоби
іс҃
##лмъ
##чны
##ѻ҆
побь
прно
зару
соц
содержа
##боро
мая
велить
##ляше
вѣк
житей
винити
чеснаго
стоѧти
##шьке
##мысл
перекре
безꙋм
Гой
##дѧху
баса
бꙑле
господинꙋ
покаꙗ
Как
послушати
е҆же
обоихъ
купит
въсѣко
роспись
семену
глаголющи
##вшоу
езд
посадники
покланѧю
цьто
приставной
цоломъ
клеветы
маиѧ
колѣно
воровством
порты
губных
молодець
пашенною
съмрьти
убойца
измаи
тꙋрци
Олеша
прѣльсти
Полканъ
крепкой
помꙑш
втепоры
Ст҃ополкъ
Поместном
Киевля
рузском
неповадно
Мене
Цр
еты
окова
плени
твръ
успѣ
ѧвлѧ
##дко
##чіе
##тимо
##ради
##равь
неоу
##ване
мошти
##лехъ
##шай
##ръва
разс
бѣжить
прѣгрѣ
велѧ
##ствіа
##хина
и҅сп
воивода
животины
царем
крсти
боярскими
кладѧ
##носитъ
прпбно
твердь
востоку
кирила
толицѣ
вдовам
насильство
пощады
см҃рти
хощешь
липсваслс
сосꙋды
ѿтꙋдꙋ
оскудѣ
90
Сіѧ
оѳ
скꙋ
чръ
єси
ѿпꙋ
##они
##шнии
##рли
##чкою
пров
##раха
##тьева
##вае
##ризь
присе
прилучи
боги
заꙋ
замъ
сошли
прошꙋ
##маа
##житель
##нѣм
##ньскомѹ
##лѣпи
пасту
выру
носъ
десни
перемы
##дѧи
государевъ
##дници
бꙑла
##ложиша
царстве
женоу
въꙁмо
любовъ
скажу
береженья
##штꙙ
спаского
##ющымъ
свиньи
убил
образом
пѧта
высокъ
патриарша
стѣну
одну
стояше
юрьева
іѡанъ
промежу
широки
небесных
Любо
курб
витезь
подража
бесермень
жꙋпан
Ако
Гео
Иди
Клю
Лв
Мѹ
Мен
адъ
афана
вшедъ
вновь
ж҃
зять
збира
тна
ѹспѣ
##сꙙ
##щмъ
##лника
потаи
##лита
##роти
дачи
##нева
##шится
каков
отлучи
##мьрть
оуча
милова
##ньска
санъ
жилъ
обру
столе
Давы
дворо
##цька
безчести
полно
ст҃и
писанию
##пера
тяж
златы
шесты
приказщик
суды
мьі
смердъ
ꙁапа
всих
царево
ходитъ
маломо
времяни
Ильи
дѣлом
Отцу
ꙁемѧ
##женьи
наречен
Пресвя
полове
оставити
и҃с
жалостно
приказати
##жденіи
поимаются
##сюдꙋ
Є҆гда
богатство
съмрьть
претер
жєны
сокровище
Кнѧзь
вавѵлѡн
Семен
взира
еѳим
оскор
тꙗ
##оби
##селе
##блѣ
##днаѧ
нае
прсно
##лосѧ
коть
дачь
нигдѣ
какаѧ
##хою
листы
живыи
ночью
##ставили
грамотꙋ
многолѣтно
чертою
животине
нашем
нашемь
стефана
##в҃и
похотѣ
##цкихъ
святым
московские
##метова
срца
достоин
боудоу
микити
немощь
##шней
приходитъ
н҄емоу
внутри
пашнею
хлебом
пришьдъ
запечата
Гл҃
Дъ
Уне
беля
іа
іли
ѡбои
ѹмре
##жной
##ον
##αι
пон
приди
##сят
##тев
отписать
оустав
##чамъ
хоць
преко
бела
##чьи
##жьи
##тушка
плачемъ
##ствіѧ
волостей
главъ
луку
чернец
благов
##ющеи
трем
тріе
раꙁвѣ
милостивая
холопства
тꙑсѧ
ха҃
Павелъ
службѣ
##шенье
поимали
тюрме
ехал
церковные
произво
ꙗ҆зыки
ѡ҆брати
замуж
египет
кыѥву
птенца
прикос
храбраго
писцовым
Уви
Яз
вр
глеши
иныѧ
оче
тврь
##сію
##рения
##҆нѣ
прѹ
##ваꙗ
въспѣ
комоу
водъ
пришол
зади
сосе
събор
##бин
бегло
##шьно
лѣть
##сѣмь
перевѣ
възвра
царьского
имѣния
г҃і
молитца
цѣны
нбса
патриарши
служит
поучение
предасть
велели
ст҃ыя
многажды
Иоанна
бывшю
вкупе
насыти
полоцку
ѡбьѧ
съконьча
оузѧти
подобьно
никоеяже
Аꙁъ
Андрѣ
Мнѡ
Пръ
Тоу
бѕ҃
имы
свали
уклони
учалъ
##ꙿсе
##рскои
##вною
##мръ
##ѳу
##янова
##чти
##йскаго
##фья
въдови
далѣе
засе
кал
##гара
##чаго
паном
##панъ
ротъ
градь
сугу
страда
възлѣ
мышь
##нꙋти
черне
га҃
конта
##ведено
сроки
мертвы
гн҃ь
приходе
доуха
зиму
духовную
распѧ
##днее
моуже
гсдрне
Филипъ
володимиръ
переславском
генералы
500
Прав
оц
осквер
скла
##гнути
##҇ѣ
##нося
далѣ
припись
##чикъ
согре
##бота
бещи
вышина
пиша
бѣсомъ
кресту
ᲂу҆мретъ
продажа
сꙋд
##нето
##пьев
починить
устроено
объявить
двѣнадцать
ѡбрати
праведнымъ
помышлѧ
торже
спасения
являют
##беру
добродѣтѣ
колесни
именуется
питїе
вопроша
знамения
##числен
бдѣ
еꙗ
тв
ядры
ѥдино
ѧро
ѹтѣ
##цовы
##гнѹ
##чков
поут
походи
неѹ
негли
##дик
кала
век
##жилъ
оубити
пау
препис
лига
##сѧтъ
##бавити
многꙑ
##цися
мѣр
мѣръ
суко
муро
ꙗ҆в
волода
писаны
##днии
потомѹ
женах
огни
огню
гл҃ще
послуси
казака
воинскаго
святыи
взѧл
проситъ
ср҃
полатъ
нареч
недостой
Хощу
поганых
могут
сильныхъ
живеть
Илия
месяц
изготови
погꙋби
слыхалъ
мнстрь
ιно
Бц҃
Кли
Язо
вҍ
ие
мр
мрт
фі
цето
ядрѣ
҂ѕ
##шнем
##лҍ
##лса
##хлен
##чками
##стные
повал
##мило
##кию
замят
кано
кабы
мишень
твоі
станѣхъ
васья
бега
##щахъ
дѣѧ
оберега
множи
є҆сте
##сью
Поне
мѣрити
##теліе
нѣкаа
полковаго
речей
васил
лунѣ
семе
башни
##днике
благодѣ
храмы
сторожемъ
судные
смолнѧ
##шкин
крѣпъ
помилуи
противѹ
е҆сть
инныя
вороты
манастыри
##говорить
ответчиков
тысячей
Реч
##шеньку
хвалы
промежь
Всегда
іванъ
мнише
плѣн
жон
направленія
юношей
##ходятъ
рыцере
разори
поперечной
добродѣтели
Адаровичь
пойдетъ
снаряда
печатные
печатнику
возлюбленнаго
околничих
ѡбиходе
ѡбиходѣ
ѡбиходѹ
гюргѧ
рожества
манас
желва
росолъ
оубрѹ
Подсоко
Никитичь
исцовы
ищеа
святител
домочадцовъ
##грѧз
полковому
Смороди
коемужъ
попортило
засвисталъ
лѹчшее
Милитриса
затхло
раманов
Сем
Увы
Шеремете
ати
гну
зове
оць
плю
пене
усну
чъ
ѡд
##еца
##щенья
##жнѣ
##ꙗꙁ
##лиѥ
##ложь
въпи
домоу
каша
и҆сто
##стань
быхомъ
оук
паны
родѣ
всеще
##щаи
##беи
##зани
друзѣ
послала
лучь
Нача
бытие
холопь
##стѣмь
разуме
погово
##жделѣ
работу
Отпу
нѣколико
четыреста
росіи
##ковича
какия
##щениемъ
въскрѣ
челобитные
погубилъ
сꙑна
бж҃іимъ
ꙗ҆зыцы
возвратисѧ
венча
оружия
Троицы
хртіа
пчелы
Иду
Сра
Што
впер
оклады
сму
слю
удиви
єдино
ѿхо
##щя
##шнымъ
##рл҇
##хрі
##м҃
##км
##ялъ
поꙋ
нече
##рона
##дають
##несо
отчины
##гада
тело
хотелъ
салта
саржа
##щааго
##выихъ
##сь҆
тыхъ
перевод
странь
##шками
лукь
женѫ
##ніꙗ
Приде
сицево
торговых
свѧты
окру
Преже
ездити
особли
избавлѧ
##крѣпко
русьскую
филип
праведно
съблюди
закри
преодолѣ
убийство
прельсти
добрим
Що
зѹ
уча
удоб
цене
яма
явѣ
ѡци
ѥгѡ
ѿстꙋпи
##ос
##сце
##буд
##жку
##дн
##гои
непа
кодра
дави
гоны
заѹ
засѣ
нищо
и҆са
съдра
съкаꙁа
оуп
##цари
син
##дьце
##бае
обна
разлу
##скаки
возвѣ
Поиде
нѣсмь
чающе
писани
добромѹ
##дним
животомъ
помошть
молим
рима
рижа
треб
Моло
попѹ
спасен
марти
##лениѥ
полезно
андрѣя
поуть
денга
недобо
оставить
житіи
зимою
жалости
распа
погребоша
нб҃си
жестоко
прочита
побѣдиша
богдан
гюргю
неделщика
мрьтвь
странах
евангел
доброволно
смр҃ти
варлама
веніамі
Дво
аг҃
оку
смыш
снима
чѣ
ѡдинъ
ꙇ҅
##ьскы
##мл
##клѣ
##ѥго
##вань
коре
##рѣза
и҆сцѣ
сои
собла
##живо
самꙋ
сажати
вознес
##право
мыт
темницы
нашымъ
повелева
сѹжда
блудъ
##нꙑи҅хъ
##ровичю
мьзда
немного
освя
гл҃ть
воеводъ
отдал
свидет
повѣдати
нѣкои
объявити
целованью
могутъ
хитростию
совѣтовати
##немѹ
съмѣренъ
яковлеви
ондреев
кузма
добродѣтель
составъ
роусина
глють
Богородицы
фролов
есьмь
неправеднаго
алеѯандръ
поработа
манастꙑри
нелицемѣ
въскрьс
ѹдарить
тавары
талантъ
Б҃
Гс
бгꙋ
гет
идоу
очной
##тную
##есть
##їимъ
##꙽ло
пошь
накрѣпко
прр҃
##рачи
##нах
могѹ
расхо
сина
велиши
лицу
##щася
жиръ
бѣлую
##енева
сущу
курь
ивано
велят
нѣжь
##овыи
възвесели
скором
##еныхъ
##ствѫ
ѡ҆правда
ст҃ль
##троу
имѣешь
дѣлаютъ
тькмо
цареи
##ніихъ
##шой
михаилъ
породи
кручины
дворц
третьего
другом
торговые
каменіе
раздѣленіе
степанъ
слꙋга
храбрости
будемъ
і҆ꙋда
распро
приходили
псковъ
игорѧ
прилѣпи
концамъ
середкѣ
съкроу
теперь
возмут
промыслы
отечеству
пишешь
пишут
вѣньць
хоцеши
немилости
ркп
бѕ҃ѣ
инь
крѹ
мнъ
олово
црѣ
іса
ѡве
##ехъ
##бенъ
##ѳѡ
недꙋ
##дам
##ваѫ
##дий
гонѧ
завѣща
могѫ
##стиян
калика
отме
татѧ
оуи
##жаются
пара
извѣща
беска
##славомъ
Побѣ
##еномъ
безчест
ст҃ѣ
##ствуя
спса
послѣже
молоды
ярослава
варницы
##ж҃е
сред
вѣренъ
болѣз
царствомъ
восташа
обрящеть
каким
Василия
распу
наслѣдіе
##нномѹ
большое
вышелъ
дияво
щисла
накаꙁа
государыни
скверно
феодора
##дрыи
жертвꙋ
кобыл
приговору
Егип
небыти
обвинити
кровопро
непроход
корысти
витязи
бескаба
Дрѹ
Име
Иеро
Язъ
аж
втрое
иѥ
орт
охот
ссѹ
цвет
ѡви
ѡсла
##ꙿна
##хіи
##равѣ
##нила
##лон
##даль
коимъ
даеть
вор
прикры
мост
моръ
рана
##мата
##чьскы
возити
кучю
въздати
мужю
Гор
поидет
животе
стрѣлами
кормы
##нии҆
Колико
заплака
мѹжеи
смолен
запада
угодно
Ниже
поколо
пьре
смѣты
индѣ
##любивыи
видимы
народи
слоновъ
июлѧ
искꙋ
двумъ
вѣрꙑ
##шенья
чересъ
урядно
праздникъ
грѣшнаго
##жденія
желѣзными
##зриши
целовалником
Господню
давꙑда
всѧкагѡ
вторыи
Скажи
милостынею
никомоуже
кротъко
Суд
Теле
Чь
ипо
угле
ѹбиша
ꙗꙁ
##ровых
##хте
##ыѧ
##чяти
постѣ
прія
##нилъ
въся
корѣ
дарѹ
##вил
##леѯанд
ратью
##рѣто
содержати
съмъ
##мали
##мѣта
маѧ
ходу
сабля
##дутся
##тѣти
нѣкая
##цѣх
полтретья
деревя
ѡ҆бли
ᲂу҆стъ
латин
имѣнье
повелѣніе
уготови
##лоую
цр҃квамъ
казаковъ
запира
святыа
дьяво
пришлю
Видиши
крив
силныя
Пред
добрѣе
праведенъ
всѧкїѧ
никитин
приводных
вашемꙋ
наместни
ударил
внуча
##величи
дх҃овнаго
здѣлать
антонии
заложит
промысла
безаконь
герон
георги
рухляди
Мамай
покаместа
внѹ
ищи
лете
ѹста
ѹстав
##свѣт
##ѧще
##дши
##ѕо
недоб
##ваемъ
##емли
колъ
##шааше
##стьѧ
оттоле
таче
робу
##мех
пифи
##залъ
##нѧнъ
тѣс
испроси
прѣи
Богомъ
##вращен
приидут
какіе
##ніем
Такожде
##трѡ
гробу
гнѣвати
##ющая
богородице
ст҃ыми
желание
вѣрно
воеводамъ
дроугоу
срам
малые
івана
томьж҃
помыслити
убытка
молѧше
клепа
прпдбнаго
ѻ҆лтарь
ловець
Храни
ангеломъ
Ерку
Пове
ари
вправ
збо
мз
описа
озеро
угла
яму
##снь
##нски
##ьи
##іѡ
##чнои
##йского
##еню
некра
кодь
воле
моглъ
съзъ
века
##ручини
оуст
оупро
##ениа
мах
##рян
##люся
вѣро
вѣща
вѣдыи
обстоя
Поръ
лѣп
исцово
перехо
полкы
полкѣхъ
слатися
##кее
##новенъ
и҅сти
и҅мѣ
черен
видѣвши
воина
гсдре
блж҃
##нꙑи҆
Казна
писмѣ
Ильѣ
кладенецъ
дворников
языцы
святые
Проговоритъ
конечно
служили
стреле
собравъ
срацы
Бѣлую
пития
пришедши
надобет
братецъ
серебрены
помещик
подьячих
бѣлокамен
увидела
давідꙋ
розбойников
зубы
дядю
дрѣва
идоло
неделщик
готовить
бьіти
хр҇то
начерта
возвратися
достойно
кротости
дьаку
змѣишшо
боарь
Всеславьевичь
буйну
вылаз
померли
##кланѧние
сахарныя
клеветьника
Саваофа
хоцьши
21
Второе
Гре
Еван
М҃
брѧ
глет
злых
лкъ
олексѣ
сце
тꙙ
увиди
ѻстави
ꙁе
##лкомъ
навꙋ
##лив
##рать
вора
дочерь
състави
преобра
##ляеть
выт
##сего
руда
##чьнъ
меда
прѣрѣ
възбра
версты
поистиннѣ
противоу
учить
требѹ
писцов
побѣда
потребѹ
пятидесяти
смрт
насил
родителей
щитъ
татьба
девяносто
жеребья
Дѣла
Разумѣ
хытро
внутрен
множьства
Апосто
Вра
бльга
вступа
дхь
жрь
крю
сменова
утер
хса
ꙗзы
##шной
##гля
##ннаѧ
##вку
##ум
##ꙁра
##ꙙште
премо
##тьр
колачи
рабѣхъ
##мѣю
пасы
##бежа
##чьно
бранъ
судит
Небо
##н҃е
стража
##еныи
дьмь
лак
гсдремъ
##мѧни
убогъ
##тѧть
пѣшие
большимъ
сн҃ве
Ради
казали
вꙑшь
дмитрѣ
видимъ
любитъ
зълъ
домажи
здорова
свобода
кнз҃
##ленаѧ
тимофѣ
истиннаго
мирно
празникъ
поклонися
оброси
мц҇
Адамъ
сльі
записати
##рноризь
сидору
главѫ
промысломъ
##л҄ь
ловища
вавила
нифонту
ᲂу҆готова
Давидъ
вьрьшь
ак
олов
орѫ
фре
##ѣше
##глѣ
##ѥтъ
##яи
несо
##дасть
даѧ
припи
дозирати
##шающе
прокъ
##боли
##чают
преступати
посель
##бедь
градом
вози
нѣціи
часѣ
думати
бит
лего
левка
лежит
сѣтова
ᲂу҆разꙋмѣ
ученія
Тога
видѣние
стрѣлъ
приказщика
сꙋди
чьрноризь
Сии
рꙋблѧ
славѹ
хрі
дьяков
##ствию
пріѣхалъ
##выимь
готовы
##ственно
овся
Руси
прежние
апостол
ѡсѫ
копьемъ
престола
приступивъ
немало
соломѡнъ
а҆гг҃лъ
Грѣ
Дь
жрѣ
здума
нмъ
оци
увя
умом
усади
фло
хꙑ
єгда
Ѥгда
ѿврати
ꙁов
##аще
##кль
можем
сохи
просла
##въмь
посполь
##люще
бежа
бражни
разру
##гую
чисте
скоты
стрѣли
разумом
большая
правде
обоих
і҆и҃ли
надвое
Сътвори
Прок
устроен
помѣта
є҆мꙋже
кнз
погостъ
пребываше
микита
житіа
малыхъ
Безъ
приказал
мл҃твою
сказывать
##пустилъ
Данила
месяцъ
постиже
мастеры
##стіѫ
##ловым
ссылка
строитель
настоѧ
пеня
пономарь
Братия
Гю
Дра
Свои
Убо
ани
внов
ен
зоу
ивол
реме
скы
ꙗкѹ
##ино
##шемꙋ
##нения
##нїю
##жнымъ
##ѫщіи
##мется
##яну
прꙋ
##тинь
##рине
дадутъ
пристѹ
раская
и҆ди
солова
тад
##жина
стлъ
##жаху
сан
брага
обстоитъ
прѣб
##гѡмъ
переп
указы
дула
дубра
скот
сѣн
сѣй
сѣдали
ᲂу҆мер
поими
чюдно
чернь
##днимъ
дѣлаши
молитися
грче
мꙋжь
##штена
обозѣ
возможе
##ницами
отпустити
войскомъ
Ивановича
поути
числамъ
огненными
106
дрѹжба
хитростямъ
пришедшю
промежи
промежю
промежут
##сеніа
посадцкой
братец
направленіе
подьячей
большого
изволишь
верешь
ненависть
равныя
ѡбыча
дѣтем
крестьянишки
меньши
иноземцов
угольча
умреть
свинчатаго
размѣрной
фрол
есьмъ
датцкому
помѧни
молебнаѧ
сыскав
прапоровъ
полковой
окладов
побаеть
ѡ҆полчи
Афанасию
щербачов
наꙁнамена
онтипьев
оружейничему
пищалямъ
поговоря
Отпущены
Ева
апо
греб
плет
смъ
цѧ
ѕе
ѿра
##тцѣ
##нелъ
##аꙗ
##нощ
##ним
##кажи
дают
##дор
заволо
раскопа
кан
весть
листом
##щиихъ
градо
жиꙁни
землꙗ
нос
разныхъ
стой
##мыва
отъвьр
##кым
чинѣ
кралѣ
##ныихь
деревен
сьтвор
бук
##дяща
баи
##дних
никона
приити
бꙋрми
бываше
запасов
церковъ
Прия
подай
купца
гнѣвомъ
почитати
##чяя
имяше
Михаилу
целовать
ратное
Резан
кыевъ
племени
сверѣ
ап҇
овдо
покрыти
мн҇
наперед
##а҅го
кузму
і҆ер҇лима
дщєри
глагол҄ꙙ
Федор
Скоро
едучи
празники
сборъ
##дравству
воньже
лигатура
Л҃
Псан
Това
Треть
дят
мѵ
щет
ѧже
ѻт
##гꙑи
##нною
##ѧнъ
##вень
##хвал
##днъ
##ια
##стовѣ
##коле
непло
недели
##даютъ
коръ
дошед
своі
##шали
нич
отрѣ
вера
творѣ
пари
маломъ
посрам
своее
##гимъ
нощъ
обрѧ
##цинъ
возвы
возмꙋ
ислѣ
исхи
страсто
деревь
глати
добром
богату
учинены
предпо
кил
##ющей
пѣнѧ
мѹка
бесов
##ствует
церква
чловѣкы
борисо
служилым
грекъ
честенъ
смина
пѹсто
пребывание
лоубо
острова
тысѧщы
##емыи
изволишъ
десница
отпустилъ
престависѧ
Тебе
поставь
княжене
оружием
копие
однако
доправя
і҆исꙋсъ
є҆динагѡ
Пѡ
Тꙑ
влка
клу
четъ
є҄
ѻна
҆мѣ
##оне
##тсе
##пно
##ꙁѧ
##чемь
напре
##кома
##нится
##ката
##надца
##дания
##динь
дая
прива
призри
бомба
гостем
мирꙋ
вала
##лятъ
лишь
садове
братѣ
Поло
куде
имꙋ
сядет
стражу
чадомъ
а҆біе
пламень
булга
свѣдѣ
тъшта
помощъ
въꙁы
покая
марко
законѹ
обои
идешь
новгородъ
рекши
ногами
познахъ
пѹсти
посадникомъ
жьрт
торгъ
оучитъ
бревна
пашня
прпбны
кабалных
девяти
судью
чюдеси
переꙗславлю
промыслу
непрестанно
справед
текст
ѡстрове
Лазарь
ѻ҆вцы
вседержитель
николае
суботу
архіеписко
Крь
Црь
впол
вдов
вставъ
ожени
ѡди
ѡде
ѡдо
ѹмреть
##слова
##нскаго
##хвали
##дша
##҆м
##рило
##рича
##дею
капля
соп
съдѣла
##маше
##жище
##гаси
##въша
##въшааго
##щею
##бия
##рятся
вѣь
руских
обжи
##циею
вознесе
бѣжитъ
##кых
чисту
полка
василѧ
первая
писания
г҃лѧ
дивии
##трети
творита
федором
##ехать
требѣ
слышат
бл҃гаѧ
Мат
обраꙁъ
побѣду
градовъ
нꙑнꙗ
ꙁемлꙗ
сподине
##никсъ
х҃а
дрѹгъ
погуб
побили
алешка
сімѡ
##хѡмь
рѫкѫ
воскресен
спросить
доколе
приемлюще
Подобает
лошеди
##о҄умоу
благовер
Бовою
Иова
Отецъ
впря
длѧ
длин
уности
явить
ѥва
ѥсифу
ѻспо
##цєвъ
##гр
##рские
##мрт
##іꙋ
поӏ
попол
наца
##нинь
##ваніе
въкѹ
кобꙑ
дамь
восо
водить
прибꙑ
мони
моуд
ниче
##синоу
и҆ꙁ
съи
весте
##руо
микоу
##рыя
сигово
вара
велию
лишен
вѣтри
##дуще
выко
выбира
вымут
обни
разоумѣ
множство
столовы
дежѧ
воземи
возѧти
Подоб
##твоу
##лѧю
князеи
бѣю
лѣса
исцова
кунами
Божь
нѣть
пересуд
всякая
##мять
бьз
бьло
бьлъ
волоцком
ᲂу҆жа
##бядь
дьвѧ
и҅хъ
черные
видѣв
животи
лѣт҇
търг
кнѧги
гривно
галаа
знаете
продале
петре
тьбь
коунꙑ
чьр
грвно
сн҃оу
писмене
Рахма
бъръ
илье
харѣто
высокою
нꙑнь
патриарших
Христѣ
водаи
ѳедору
здрава
тоудо
размѣрити
Еруслона
росчету
роублѧ
велела
клюц
ключь
102
гюре
познаеть
столника
стьпа
стьпана
Бѣше
Бѣлая
Изнесоша
верхней
кн҃ѣ
череми
ведает
посадские
богатырское
Дария
воскрь
широку
крьни
посѣти
бѣлоно
бѣлополо
##ковее
Амиру
вѧць
творца
грв҃на
ѿдастъ
Никита
укажешь
поеди
поместные
поместныя
##ступай
петръкоу
съкрови
кѫнъ
нꙑнеца
##битьѥ
коробьꙗ
потрѣбь
Азон
племянника
третіи
убьют
ссылку
христос
погребенъ
Филон
рꙑбахъ
дробныя
резано
резана
увечье
межам
достиг
бесѣдуй
Салтанъ
гавран
жемчюгомъ
игуменом
Имѣние
куонь
християном
займи
ласковый
хѣри
турабьѥ
осед
зобница
подивися
мрежа
леваниде
францужской
хоженое
прослезися
отказывати
соловьи
тугой
Подсокольни
фредери
бѣлополотня
Оного
жт
идѣ
ловы
рци
ін
##блу
##інъ
постро
наложи
##ныма
даяти
гонцы
##ль҆
##кълина
проу
съꙁда
##бокъ
##чество
стръ
оучен
##ньцю
##чанъ
пам
малѹ
выгна
житьи
ноз
разве
декълина
прѣмѣ
прѣбы
такои
полков
краю
а҆ві
если
баби
аршина
##словъ
стеѳа
малому
поход
##вших
убить
кроме
##лѡвъ
ст҃ою
Божиимъ
иꙁъ
кнѧзем
##ктоже
предаде
новокре
дръжати
велѣл
имеѧли
лоука
тысѧщь
посадцких
вдасть
##скꙋдѣ
судия
долгое
евреи
священником
мелницы
колеса
рѹкодѣлью
другий
богатьствѣ
цръкви
голуб
всꙗко
жеребью
микула
ѻ҆гнемъ
и҆сполни
самѣмъ
опыте
хрестьян
помилоуи
звенигород
Кла
Ря
ави
мови
ꙁо
ꙋзе
##днымъ
##ꙁꙿ
##іем
##ѭшти
##ων
##енно
##торъ
приро
горю
##мому
##чики
##шевъ
проре
быстъ
отписи
оупова
оуслыша
##ньску
силен
исписа
нѣкіи
##цѣте
горою
дубъ
красити
лека
пещь
ѡ҆чисти
барха
видѣть
воини
животом
держит
старост
сотворих
##различ
##нѡмъ
противля
##волоки
дꙋхов
##клонити
пришель
бѧхѹ
дрꙋгы
трафи
съгрѣшиши
королевне
погребѣ
водное
третие
клевет
бц҃ѣ
нашому
испытати
ѳеѡдосии
обьшть
блѹдъ
милосердие
воротиша
і҆и҃лєвымъ
доконча
пароб
урядствѣ
щьть
Оста
Сему
Твое
игры
лвь
овер
сго
фра
##ꙋю
покы
нег
нель
##ложен
##тохъ
##дастъ
тоа
воры
##тари
призира
нижь
ничем
солов
проз
##сафа
оутвръ
##сковъ
##ведъ
малѡ
хотели
речь
##лями
##сот
##сотъ
После
мѣрами
отъвѣща
мещер
сумнѣ
сѣни
имѣть
златыхъ
##краи
##тѧт
повелѣно
боярскіе
правну
писмена
законо
##етоша
ѳедоре
льго
днев
слышимъ
члци
съмѣри
Русь
широко
исакови
идуть
государыня
подводы
патріарха
ст҃ополку
богатства
зꙋстѣ
##глѧда
сторонних
Вместо
збор
кен
нко
утаи
ѡць
##ατ
бойся
вселю
##леп
канц
содѣ
##дѣл
стꙑи
##жал
стааго
преу
вѣтры
##дьрь
##меи
высе
пишю
##сец
разслаб
прао
испа
прѣсы
челя
сладо
дуга
галан
васильевы
киеву
царствия
молить
##ждахꙋ
походъ
е҆п҇пъ
Пае
разумѣет
грамотах
ꙁеми
##чению
##стях
невѣрь
прияли
огненное
терен
солома
всеволоду
душегуб
##венѣ
батюшку
верево
рыбам
ударилъ
ѳома
богдана
Глагола
изволь
ничьто
архимарита
Исуса
възвратиша
жемчу
Печат
събора
стефанъ
славослов
магмет
црт҇вова
испълни
Новагорода
Ні
Объ
ама
аку
ву
смысли
явки
ѡсѣ
##товь
##еж
##шным
##рская
##нмъ
##ѥми
##зде
боемъ
допраши
##доль
завла
##лъкъ
софо
сопроти
быхом
ведетъ
пагѹ
станут
вашои
##гие
##жьнъ
безсуд
дерева
пламени
##ровя
##ствѡ
ѡ҆к
гладъ
пермь
влади
##левꙋ
приказѣ
сотворихъ
федоре
слышать
##тровъ
дворовые
##шении
##леными
спору
##ствовали
домашнеи
одномъ
сороко
##стѧнти
мерку
каменнаго
##торой
х҃с
дмитреевичю
ступи
судил
нужда
небесное
адамъ
изволил
горамъ
попом
родителемъ
третьяка
изготов
престолѣ
сибири
смрть
оумѣетъ
дѣтьми
Мъного
приданые
петрович
сергиева
роздачю
заложена
сщ҃енниче
брашьнѣ
равъно
вправду
Бг҃
кел
свь
твъ
укре
фео
ядеръ
ꙇз
##шника
##ꙋсти
##ꙗша
##стере
##енѧ
##тьникъ
##ривъ
дають
водꙑ
прину
придут
##вич
забъ
ничи
ништиимъ
##сие
соби
сопротив
##божь
##чане
сиѥ
синь
##ерегати
преклони
послю
##ряз
##бѣдь
саду
видь
руския
мноꙁѣ
бѣжати
полскои
духовь
##ставилъ
какои
верхов
святааго
##евичя
и҅ли
ежели
предте
дивля
знают
##зей
Сотвори
Каза
строю
строеніи
##шению
имяни
##ствовать
аглин
потреби
отьца
оксен
подвига
нового
болѣꙁнь
великіе
соверша
изоси
кликну
романъ
##жденію
согрѣша
погубивъ
дв҃да
въсако
наказъ
повете
копья
ростислави
поставят
дх҃овных
невре
братіею
благыихъ
сергіѧ
зълыихъ
Радуйся
Игорь
властелемъ
Ри
дымъ
еі
звер
зелен
и´
истѧ
клика
кені
мтр
охъ
с҄и
учали
ѥмь
ѧсти
##рства
##мовъ
##ꙁрѣ
##рава
##нимь
вънѹ
дам
заѧ
##силь
сосѣ
ставъ
мали
##куще
рекѹ
сар
своег
##дьи
##іихъ
##чьныя
разсыпа
##дыни
естьства
##быт
##мымъ
дворѹ
въздержа
##бъра
писанныя
семенъ
##кланꙗ
знает
блж
кимь
##лкомь
##ц҃ь
въꙁлюб
чьсо
##шомꙋ
##грѣш
пустошах
подасть
похотятъ
##лениꙗ
хлѣбомъ
домовъ
рабомъ
высоки
дьячь
полатѣ
золото
двесте
глаголааше
приятелю
Ростов
веселии
##въшеся
владыко
##ꙁь҆
Лича
съмѣрять
помаꙁа
соломо
##дней
новаграда
неволею
##ленья
алеѯан
блаженные
племянников
жилище
мертвъ
належи
печять
исповѣдати
заутрен
зракъ
тяглым
цьркъвь
никътоже
Ита
ах
абье
кт҄о
мд
уму
учал
іе
ѡр
##ѕе
постели
насели
##реши
въвѣ
вола
прижи
причины
бози
замь
пронька
##жию
##вѣстно
папа
изра
измо
ребя
сабу
вынимать
грабити
питьѧ
жидовь
сыро
земла
разы
отъврати
лѣвой
чисти
##тѣмь
крещение
ꙗ҆сти
послании
свѣте
верст
имѣньи
государей
чюжаго
сѹщ
помолися
васильє
сторожей
начати
##твен
##тельно
огро
о҅бра
угодни
привезъ
митрофа
##шяся
уезду
самих
стѣнамъ
прямое
единосу
##говорит
станутъ
торговати
##нꙗго
гюрѧ
погании
звѣз
столникъ
посадниць
Пища
дш҃ѹ
завидь
напиши
победи
##деля
вышло
аггелъ
##тниковъ
мт҃ре
Мнози
болого
иосифу
грьци
Писание
ѿц҃овъ
оувѣдѣ
сибирь
замкомъ
говорят
прѣмудрость
росоле
новегороде
тряпезѣ
полковыхъ
Вѣруй
Утро
емъ
ленъ
сня
##здати
##ⸯко
неси
несы
толок
въстя
данъ
прира
##шат
##чича
и҆мени
протв
съда
##нуму
##чек
оусп
##скове
##пили
##жаютъ
сира
лиш
свое҆
виѳ
ношть
възгла
##еныя
сѣяй
а҆да
бояти
луче
бг҃ови
кислы
петрово
въꙁъ
гл҃юще
покоя
круглы
борисов
##ницамъ
славно
##емати
самимъ
Вьсею
поставлено
раздѣлены
помета
покланѧнье
духовнаго
кораблю
яковлева
спасению
уставъ
нужи
срѣтоша
цѣлованью
ѿдавати
ископа
третьяк
алексея
фараѡнъ
воздвиже
успения
преподобнаго
Христовѣ
совокуп
прпдбныи
пещеры
сьмью
старѣишины
вооружен
нѣмци
Іѡа
пелены
впервые
Ілья
Ахъ
Днѣ
Ха
адѣ
авъ
ещо
сходѧ
іеро
ѡхри
ѿв
ꙑва
##ѧща
##ѧтѣ
##жяй
##лм
##ым
##дци
##кҍ
##яша
##ꙗни
##vs
наклады
##вона
неть
##ноша
прил
причя
бонѧ
##долище
зажига
могоша
##лесне
##стивъ
##мах
отси
ведати
##удно
паля
теро
рекь
##пают
##пантъ
бедра
беглые
лишя
##тыка
вытер
вывести
пиштя
жизно
##чьнааго
##цери
мѣшко
бѣлки
##жьна
суштиимъ
суштиихъ
##сѣхь
всякомъ
въздьр
##ствени
ѡ҆свѧ
писании
трицать
чюдитися
##штевена
##дꙋть
дѣлаюшта
##рѹг
##враштя
двадцать
сѹндѹ
представ
тяжько
приказѹ
онба
##лконет
Сеи
рыцери
запѡ
рицею
##женѣ
печатати
##фом
пожар
андрей
снастей
бѹдь
##цоко
радослава
радостью
##ющему
послушяти
Таче
дорожень
обраштя
наказанїе
братаничи
инные
иннаго
Богатый
##чяния
высоцѣ
кѹпить
иꙁда
любимый
##штяй
разумѣвай
конец
зълая
водами
устрой
##стѧт
Добрѣ
недругамъ
стыдися
размѣчены
товарыща
слывет
слышяти
огненные
благословеньи
иона
103
##брѣте
вьсякъ
исков
государском
весель
пятины
съгрѣшя
микиѳо
столному
сильнааго
премно
владыкы
живущих
малый
сыщетца
бореться
ꙗрополкъ
##лагай
ведали
примѣти
тысѧчь
достоянию
чясы
чядѣхъ
направляти
##торая
приказали
указала
оставляй
сьрд
цого
шанцахъ
шанцоко
умъно
##штюуму
мъножьствѣ
новаго
Кіева
сꙑно
гѹща
Отъкры
кружала
кружаломъ
удалой
веремя
земльная
четверогранцахъ
##елыци
рѧду
сьрдьця
давіда
состаре
##жяние
небесьныихъ
максиму
Магилене
уличат
умиление
неясы
##скѣй
скърбя
богатырямъ
насытить
микифорка
белого
поклонение
прѣмуд
мудрыихъ
Македонии
умьнѣи
пѫти
збежат
стряпчих
заповѣдьмъ
възишти
выстрѣлъ
##юштии
##юштиими
красьны
супостатовъ
вѣжливо
вънимай
Бердову
Холопье
притъчя
мѧснаѧ
книжьное
доселѣ
локотъ
разумьнъ
прежней
оубытокъ
оговорных
Солнышку
ветшаное
попецалу
оправьдай
дрьзновение
възнесеть
Телца
утвьр
живѹтъ
гр҃в
иверского
парусы
зазираемъ
мѧтьль
є҆леа
высѹшит
Симбалда
сърѣтай
плотоядець
vініvs
промежуток
##грѧзнено
оуксѹ
##ручинился
жьртву
вполне
Подсокольничекъ
испълнить
толокно
Для
впо
ищет
лву
ома
Ѡво
ѡдно
##инъ
##рмъ
##рень
##ать
##хто
наклад
воꙁ
прису
дошедше
заро
мози
##чик
##шитъ
##шимь
##ганъ
роте
дѣтѣ
##гине
носа
обнов
разные
##соб
##лѧтъ
##рѧтъ
Богови
подне
ст҃мѹ
##химъ
бусу
чюжо
тъчію
кире
##дѹт
бѹдете
братю
##ній
##шенію
правдѹ
нихъже
##фиѧ
анба
законе
поминок
высокое
селце
хотѣніе
четыредесѧть
здорови
##чении
##жней
бесѣдою
иоанна
искрь
езере
блгода
плъкы
оружни
з҃і
всеволоди
плѣнь
душев
юноше
ѡснова
крь҆
клевету
церковное
церковных
бгослов
берен
племянники
ангелъ
Федора
тихановичь
##читать
Поклонъ
безстрашно
именьмь
Вдѣ
Слове
Тѹ
вво
кемъ
пени
##ое
##ис
##ці
##нрав
##кги
##҇о
пошол
##лил
некои
тока
въсели
коря
богѹ
доски
дозо
гоу
##доръ
##вили
могла
##стьв
##льнъ
##нули
##гаи
стрт
##лѣѫ
творю
изʼ
мам
презри
##ляет
вѣли
саблю
сажены
виру
земным
тим
девичья
##скахъ
тыми
мѣдь
бѣса
пустити
велья
муча
скоръ
бьемъ
василе
милослав
служа
рѣкою
##скыѣ
человѣкꙋ
гал
монастырю
ѻ҆с
артем
##датися
треп
родителю
##зери
держав
блиста
рѹси
положили
противень
полезна
і҆и҃лю
##клон
никаких
младо
совету
въсѣмъ
след
подвигъ
боудѣть
моремъ
които
духовным
##щениа
съсѫ
вверху
щиты
сладко
кормлю
заповѣдалъ
ѿц҃ъ
бжии
спорных
порутчику
младенца
оученици
и҆ноплем
опыту
совести
Хто
ань
вко
ину
идете
мли
уто
ѹс
҆ю҆
##лца
##лным
##ххі
##носъ
##ницѣхъ
##лобы
##лобити
##динов
привѣ
моемѹ
отго
##скѡ
##жаа
чепь
правѧ
дворь
##ныихꙿ
##іютъ
і҆саа
буря
богата
блговѣ
##никамъ
Себе
запре
начат
пѣши
млт
млть
гл҃ше
домовь
вашемъ
мѣстамъ
старымъ
именно
Роз
птицы
поидемъ
погибе
толку
лъжа
##гꙑни
мл҃твы
поперекъ
черниговѣ
Иоан
матушки
квашни
неиздре
любовію
є҆динаго
евангели
пропасть
помꙑсли
церквей
бл҃годарен
заꙋтра
неиздречень
Бѹ
Об
Прь
бры
осѣ
одино
ѿгна
ꙗк
ꙗсти
ꙗков
##бовъ
##вдо
##дну
##яеть
##тини
##лаи
кося
##дои
залѣ
заступи
##лево
##негда
проби
##рьца
##нула
оуко
##етька
##веща
жиди
##славом
##сьева
##лѧи
бѣсе
##ленѣ
Далма
възвы
бисер
полонени
црковь
мысл
имѣи
##днику
враче
г҃л
двана
дерь
##ющемъ
огнѧ
освѣ
раꙁѹ
д҃хъ
митрополь
древни
славенъ
славному
##рену
##жением
пришле
Михаиле
беꙁꙿ
творѧи
Прекрас
погоуби
дроуго
фома
апслъ
н҃б
игната
юноши
поклонился
нюже
вечеру
пѫть
яблока
влд҃ка
костѧнтинъ
а҆ссѵ
чернориз
запѡвѣди
Сіа
Стрѣ
Ци
в꙽
змѣя
темь
чрѣ
##пѡ
##цове
##ріѧ
##ждя
##лты
##много
##зне
##чт
##лаѧ
неꙗ
##каса
##тьна
##вайте
##дилѣ
пригна
##дотвор
сево
##ньского
##скоую
##жавъ
##щали
градꙋ
стою
тысе
##гуть
бѣд
страдни
дуни
биль
лежи
пещи
##кѡтъ
слуг
дьꙗ
верха
лазъ
тридесѧть
животворѧ
предсто
монастырѣ
монастырей
шесте
царіе
##менил
##нутрь
##ꙁами
Ничто
своѥмоу
привели
пречистои
богом
##жениа
стѣнь
жаловать
единород
свѧза
рекѫ
крѣпокъ
пръвое
кн҃же
прислати
мужикъ
образцы
урядъ
тюрем
назад
ѡсет
борисови
федорко
оуготова
помиловани
разумнымъ
меньше
##дрьжа
невидимъ
нбсное
калинин
вопче
ст҃ополка
ростовци
см҃рть
ондрѣю
ходатаи
сенька
лопари
ествою
деревлѧне
Ерма
Кѹ
збирати
кнꙗ
лко
ороу
рче
смен
упо
цъ
цего
чт҄о
яд
ѡнѣ
##нцю
##вру
##ѳема
похи
##тинѣ
##вото
##лимъ
##лихъ
##лато
неволи
##дахъ
въже
въстав
колы
колом
могоу
##шино
сънь
съпро
##лѣеть
преч
пось
вѣды
##дьꙗ
бралъ
вьск
куни
крале
##кѡм
сьгрѣ
##хия
живоу
дванадесѧть
петрꙋ
чьстью
бл҃ж
мꙋж
мꙋжꙋ
дъще
законы
долженъ
##ненія
пріими
древѧ
язык
обиды
##ницам
кѹры
вашегѡ
предаша
криви
члвка
пребываетъ
царие
фомин
узриши
лицах
срѣтеніе
наместник
наместников
батюшъ
еуфимь
измѣн
поклоненіе
чюжими
подкопъ
Инго
белев
купленые
бл҃женныи
здоровѹ
устраши
Всеволодъ
въздух
Единъ
Лета
Слу
Селев
Ши
еа
сꙿ
сє
сбы
тпо
ѹтвер
##сень
##сови
##нема
##вке
##чше
побор
повыше
##вобо
##на҇
водѫ
##тах
допол
гонит
##шалъ
рамо
раск
сеп
селом
каши
каци
какову
прот
съсу
отступи
##дѣх
извет
##бѣди
руга
ноне
обма
Помина
лѣсы
##цѣи
инохо
сѣдъ
главѹ
Надъ
имѣлъ
когоже
Воспо
концѧ
господин
подать
Тамо
ханаа
##ющагѡ
погорѣ
блюд
срамъ
вѣдаꙗ
какихъ
игнать
мл҃твѹ
##н҄и
искони
вѣдомость
прочими
олферь
бывшу
двд҃ви
ѻ҆тєцъ
мл҇ти
архимандрита
манастꙑрь
рубежа
проклѧтъ
помыслы
А᾿ми
поцелова
приписью
Мл
бі
дм
езера
фар
ѡжи
ѫ҅
Ѻти
##глеб
##ѡн
##ѳꙋ
##чіи
##чнаѧ
##ꙗнь
наемъ
##ропу
##тьство
##вающи
коемъ
донъ
закры
расыпа
проща
съли
##гат
оукори
ставит
прево
бери
##овоу
саженъ
сынь
мѣшка
куну
##туда
##н҃и
а҆ма
бьѥть
ѡ҆бы
первых
лодья
вершков
лубъ
Надѣ
баба
человѣкы
врагом
сѹгѹ
гривноу
тяшко
ѻ҆ц҃
знаешь
Воро
запла
начал
великаѧ
близо
послѣжде
борисе
наказания
срочные
Павла
просит
совет
татарове
хитростей
А҆зъ
хвала
повара
челобитным
патриархова
возрасте
произ
федку
ударить
убытков
кровию
впаде
кънѧзь
еѵаг
старинных
горько
межах
растлѣ
заемных
нѥго
##тцеть
прозвище
Бь
Г҃и
Крѣ
Ол
бм҃ь
дх
дніе
чтѡ
ѿрѣ
##селѣ
##жі
##дною
##деле
##ꙁнѣ
##ꙗт
пожен
прене
преми
##кали
въве
борѧ
богови
доходы
сътворѧ
##пота
таѧ
оусъ
##лѣба
##вера
симона
патре
тесно
извы
измы
своеа
##гих
##слабѣ
нощей
стоу
сторови
добрь
бѣсовъ
подпи
дуба
скочи
полон
##евꙋ
свѣчи
святѣи
семеном
гсдреи
нашꙋ
сѹщѹ
конʼ
требꙋ
родитель
покаяние
##зех
##янію
дъвои
воинству
добрая
испы
данилка
иꙁꙿ
покланꙗ
Отвѣ
потрѧ
стѣнъ
##нѣишіи
прияша
оставиши
пятьдесятъ
конюха
##рением
климѧ
возмите
ѥсмы
срѣте
здарове
пойдет
падение
волостелю
бобыль
словѣни
Ꙁане
пьрвое
ходятъ
##вшуся
кровавъ
є҆диномꙋ
богомолца
прикладывати
шляхти
Вс
Отв
Уло
дови
пшен
смыслъ
сцовых
свыше
удел
ѥще
ꙗкова
##тникъ
##бри
##чня
##чета
##фрей
помъ
порѫ
##лице
нежда
##точки
##ватъ
тог
коста
##мию
бозѣ
своѭ
заряду
##рѣте
##сило
отпа
отцю
##чества
##ческой
##вѣмь
##скоро
твоѫ
##ръда
измену
масли
малых
реце
вѣтра
землены
носта
обжу
є҆зе
Пора
Постав
##ленꙑ
прѣчи
куно
полтину
гороху
битъ
скона
пешени
сѣна
Горыни
##тяги
воложи
василіе
перъ
логви
Александров
жаль
##езд
в҃ї
##шоко
ширина
злой
послусех
помирятся
золъ
смѣрен
ивановы
запишет
гурью
градʼ
полуех
полушоко
потрь
въдаси
пригож
светъ
крѣпка
таковыи
блюда
могучия
житницах
съвѣть
##евыхъ
борзѣ
Егоже
избавить
челобитчиков
мнится
поимается
медве
орлов
Кіев
панѳи
пойдут
ѡбычаи
ѡбычаю
сладка
Бах
Лука
околничим
теплѣ
Троица
воспри
микифор
Тугарину
палату
македонян
Кандар
чертежу
звѣриному
давꙑдъ
днѣпръ
оубіи
наследие
Моисе
шкоды
покупати
змея
казначеем
громкимъ
Потока
плачютца
почерком
крыльцо
бл҃говѣрныи
Гн҃ь
самоволь
Гаденовичь
Человѣ
Ключевъ
Евагри
Ответъ
И҄
Сѧ
абро
гп
еро
лка
мелен
уша
ірмо
ꙁре
##слꙋ
##тена
##пꙑ
##пки
##нкова
##мн
##҄і
##фре
задержа
##шаю
раство
нии
нито
каа
сош
вери
##ньць
##ньскаго
паметь
станѧ
##пала
къждо
литва
дѣвъ
##сьев
тогоже
##нѧне
Помыш
супру
подв
веліи
словен
а҆в
имамь
црс҃
лоба
##хиа
человѣци
менѣ
враг
Кои
молисѧ
пѣшими
женахъ
ꙁакла
игумены
сперва
поплъ
злобою
писме
Тае
рꙋси
##гелии
##шениа
##передъ
мудрый
делах
устрои
мертво
рекохъ
познаеши
##дръжи
тимошка
##е҆ть
всѧкими
ще҄
апостола
новъгород
мастеровъ
православным
заповедь
потрѣба
премудра
татбы
питіѧ
вавилы
зовут
атаманъ
геронти
озере
исполнено
трофимов
осмотрѣ
Послушай
Отец
Сіи
Тре
егѵ
оны
отити
счетъ
усти
юре
ѧꙁы
ѻн
##о҅
##омоу
##сны
##цꙑ
##шкѹ
##рдъ
##жными
##юже
##ꙁва
##зма
##ѕѧ
##фимъ
навед
##кона
##комо
##торе
##тонос
##релъ
во҆
воже
водо
радѹ
##малъ
##нъмь
##ньемь
##рыня
##пал
##дущи
##мехъ
пивова
виры
##цихъ
бѣлка
##кыми
прѣстав
куници
##ютсе
кресья
ᲂу҆крѣпи
лок
ложное
лап
доброхот
Тогива
николь
стрѣлу
держить
розныя
конных
##ноути
##ноуоумоу
трі
крст
шара
гнѣзда
троѫ
хлѣбѣ
сродни
нбкм
высока
высоты
чистою
любите
ярославу
недругомъ
останет
двѣмя
отроча
приставы
створить
поганыхъ
болгаре
терп
двум
павле
вѣдаетъ
четвероу
ꙗропъ
фила
зависть
яковлевъ
видев
еднъ
ꙁъла
##сѫдоу
пострадати
носит
помощию
неудобь
і҆акѡвъ
съборъ
любъвью
Авгу
росходъ
мнстря
выведуть
офонасьев
леонть
десетин
владеют
бещис
Иꙁ
Сказание
вѧти
е҄
езеро
злаго
ик
оки
ѿвра
ѿвраща
##щемь
##шетъ
##хіа
##дныѧ
##зіи
##стр
##томѹ
##реко
##дило
дар
гонить
гостю
голицы
##шево
##стина
##тере
проторы
оурѧ
##стокъ
прегрѣ
##лят
вѣнча
выю
выне
выразумѣ
дѣте
##слати
##замъ
бѣхѫ
пес
сѣдѣти
##хищ
бур
каком
черна
никомѹ
нашемоу
злаѧ
##вѧза
женки
сꙋдити
бесчис
ширин
спс҃
державу
сн҃ове
##гела
данилу
молвѧ
людьмъ
так҃
##шнихъ
недругу
здоровъ
потребѣ
таковая
достоит
Рома
пожгоша
таковым
первом
тѹтъ
чюдотворцов
##глие
слѣд
досталное
н҃бо
приемлеть
погребъ
##емыя
множествомъ
панове
прибавить
премудро
любъви
ѻ҆тцꙋ
пишешъ
доколѣ
сѵме
рекꙋтъ
починков
сундукъ
бутто
непашен
Если
Хе
длина
еꙁы
нмь
тщета
устреми
цену
ѡч҃е
ѹмь
Ꙁако
##сⸯ
##ины
##цкова
##гі
##бръ
##нском
##ат
##мла
##кⸯ
##гому
##тиемъ
##воти
##раба
##рот
##ринꙋ
въдати
дара
придоста
приговорили
##вите
##чите
нижни
канъ
##мат
таво
##ческаго
твоемоу
сине
##овом
##щий
##тыихъ
выпа
земи
ножь
стоуд
добꙑ
##лѧетъ
праву
чистую
##емую
сѣмени
##нѹт
##елева
двадцати
корко
розгра
продала
запер
##тьеву
є҆гѡже
товарѹ
огнем
чьтѣ
большую
##нѡвъ
##полка
##ковоу
##шокъ
церь
раꙁѫмѣ
дъвое
##коупѣ
сѫще
обрадова
##любиваго
третьемъ
никакои
водахъ
просль
окро
другаа
Рости
поставлена
пѹстыни
тимоѳе
селища
и҃і
совѣтова
помалу
лежать
грѧды
евре
маиꙗ
ростислав҃
постиг
##нїа
съкръ
приносит
нечисты
добыт
ꙁвѣꙁ
##сениꙗ
торговли
ушима
гряз
Грамота
рукописа
ольк
тяглые
площади
кꙑѥвѣ
кꙑѥвѹ
Которые
костянтинов
киноварью
таварыщи
кнз҃ѧ
посадницьство
ιм
Дере
Сты
Фео
Ьто
Яже
абиѥ
бце
еӏ҃
сходити
цены
цвѣтъ
іереи
##тча
##пка
##шема
##бника
##ял
##20
##стрꙋ
въшед
##динѣ
##диноу
колени
водати
примол
призоръ
дожда
мож
рабѡ
##льныя
##тева
капита
##рьска
веде
стмꙋ
##жами
тещи
ваа
малая
##бѣгоша
родꙋ
лихова
##мера
тиши
##сомь
Позна
прапор
судѣ
възлюблен
ча҇
ᲂу҆же
первыхъ
лоску
чюди
видѣста
благодари
васильем
##кѹп
приим
бесчи
въꙁбра
Мала
Море
бж҃їѧ
порохомъ
берекове
державы
обозы
языкомъ
Съи
митрополич
видимо
любимъ
московскои
##летное
споро
каменную
огненной
Вѣдѣ
болгары
дмитрев
##смотре
##днако
архимарит
##ісh
игнатка
воспи
желѣзнаго
шанцовъ
ондрею
кнутьем
четверогранцы
доидет
рѣзана
верьви
цирку
старасти
Луче
ѳомѣ
призвавъ
Чада
ѡвогда
посул
здѣлано
могий
просѧще
Слышав
володимира
подкопы
статьями
вышины
живꙋщіи
начерти
верьховыхъ
проразумѣнію
кружальнаго
7092
скръби
вкѹпѣ
самопальный
опознавати
ківѡтъ
пороховомъ
замкнѹто
кеніh
Ажно
Епи
Лва
делъ
дшю
лзѣ
мч
сру
чту
Ѡна
ѹжа
ѹтро
ꙇже
##сенъ
##трѹ
##піи
##ркова
##ꙋи
##дрѡ
##҆ѥ҅
##ꙃѣ
##тино
##тька
вънъ
##делити
заг
##леска
расѣ
##шиша
собь
съна
##санъ
##мааго
быше
отци
##боль
##боръ
верою
##щего
оуши
оумер
милым
людъ
сиѧ
силъ
марьи
##мея
выслуша
пишꙋ
сынишко
мѣст
бѣре
лѣно
тѣлъмь
прѣслав
куста
##мерти
полотене
глааше
##левна
святии
Токмо
помогати
арт
ризу
въꙁⸯ
##пья
чловѣци
бър
і҆и҃левꙋ
городовым
митрополиты
работꙋ
сказала
дꙋмы
богоявлен
конеи
никакой
домашь
войском
осталась
ѡбида
приязни
ѡбраз
драга
іѡанна
##дѫтъ
государству
праведных
ꙗрослав҃
Рус
##влѧше
##несено
почесть
станич
жезломъ
оживля
велицѣи
торговле
живеши
упалъ
Черниговъ
Иеросали
ѕело
Тер
ища
мтре
теля
ѡ҇
ѻб
ѻнꙗ
ѿто
ꙁри
##гіе
##ьство
##жли
##дрꙋ
##҃р
потѧ
пріе
нек
##надцати
точью
##емымъ
въложи
костро
всы
донеси
ние
##тее
промысли
съма
##вѣмъ
##щевъ
оуслы
##лѣаше
па҇
варя
преписа
##патъ
##щаютъ
##вьство
бѣа҅ше
подпис
нѣкую
послаль
буть
имѣѧ
воистинну
стрѣло
нашѫ
розбои
##нꙑмъ
##ноуть
##ющесѧ
##тьевъ
сꙋсе
въꙁдоу
Мака
скро
чловѣкоу
подале
соуща
##цкий
игуменов
##връже
свободѹ
свободна
подвиг
далеко
новои
праведными
области
ведают
путивль
##дѡмъ
довотчи
і҆ꙋдина
крестнаго
##жокъ
сп҃сен
птицами
бывшаго
двд҃а
спросилъ
перевозы
записью
милостыня
воѥво
противитися
вспѧть
издалеча
Телець
Лъ
входѧ
ине
одержи
умыс
цре
щ҄е
ьст
ємѹ
ѡніа
ѣсть
ѿврь
ꙋби
##тє
##тцком
##шныхъ
##бку
##нхо
##нтѣ
##ѧзни
##жѡ
##лть
поо
поступи
поскочи
##вону
въпло
дау
даро
дарь
доби
година
##вицы
забра
загла
мостити
##лес
##шась
содѣла
съсѣ
съмр
##сари
##рьѣ
##дѣну
##нѣти
оуказа
лютъ
сиси
преложи
преступ
##скиѥ
##дьржа
дѣтѧ
обрета
##вьна
возмѣ
меды
тѣбѣ
тѣлѹ
слати
полоць
ꙗ҆рость
плачет
##тять
##кѡвь
##евна
гласу
людиѥ
луди
сѹлта
гасуда
бꙋд
##знаѥть
запру
##тельство
тѧго
всякий
поросло
сповѣда
злобу
##ченши
д҃не
соущи
митрополичих
Прости
иꙁы
ѥ҅си
внимати
##ѣхать
##а҆хѹ
рекли
##нѣише
ѡбители
силна
доушѫ
поставлю
почему
половец
##леная
готовымъ
а҅ꙁъ
іванов
посадцкого
покрыва
надежда
прьво
дроз
сенных
собору
небесным
трѣбоу
віна
архиеп
пр҇но
господь҆
ѳеѡдора
латинеского
неприя
промышляти
##стоуп
довлѣетъ
вопрошати
влдч
҆е҆рл҇
тихановичю
лебедь
асѣна
рухлядь
гражане
истьцю
благовещен
свꙙтꙑи
ациле
ниьсоже
Ски
ан҃
влко
емь
жю
инѣмь
нже
очеви
рвы
сене
чсть
ѿлѹ
##пелъ
##жную
##ленью
##хта
##стіѧ
##рави
невъ
##ната
##тьти
въл
коже
козни
котѡ
воскомъ
##жещи
приче
прику
приписа
##модемь
радѧ
##сино
солью
простре
съвер
съеха
оумр
##вець
стару
малень
рекоу
великь
лимо
вѣчно
##скима
множаи
##зади
вьмѣ
всѧчески
переми
безмѣ
полону
##ставиша
лоди
версту
добродет
черное
королева
блг҃о
розные
##дѹть
повелѣние
тѧжь
бѹд
чловѣколюби
привезоша
старцов
сѫть
сѫди
и҆зве
полез
молот
соущоу
полътора
##ющася
просимъ
стояща
тысящи
кнꙙ
ратным
обычая
желаемъ
побиша
истинна
свадь
геде
захарка
оржа
посылали
ѡц҃и
Видѣв
понести
разꙋмъ
##лезет
приꙗти
зубъ
бывшее
василевича
ѡборо
олтарь
пишетъ
смр҃ть
Услышавъ
є҆гѵпетскіѧ
промꙑсли
торговать
нынѣшнемъ
безпрестани
а҆весса
94
Бовъ
Ели
Ль
гло
зговорилъ
лжа
лвица
нм
новую
сет
скь
умыслъ
фетька
ясно
ѡло
ѹмо
ѿго
##теть
##прі
##цето
##ꙿва
##штѧ
##дт
##кмъ
##іѕ
нагы
прпо
##ларю
нечего
тожде
въну
прися
присоли
##дону
##вин
зазы
моѫ
моне
мосѣ
##молови
##льнаго
##симка
и҆бо
софро
проче
съезжа
##живалъ
##скръ
вашим
мариѧ
ростѧ
лито
будто
##сѧть
Поѣхалъ
##быза
всѣмь
безхитро
полгода
сладости
покръ
думу
иноцех
плачу
##кеи
глаголъ
ст҃ъ
ломи
лошки
лаво
лаꙁа
учнешь
воиско
##вран
рубле
кии
кину
Кому
приказнои
обыскати
##шого
михаили
братцы
бж҃ь
богатымъ
Рахлен
Муравѣ
анки
Тавру
цр҃ковь
Илье
язычной
таможни
пꙋстыню
михалка
срдца
##шний
вотчинные
вотчинник
##тками
желѣза
##казывать
дворецкому
каменной
октѧ
силной
ст҃ыни
познати
поведи
татары
въслѣдъ
веселъ
##ваяй
родствен
##женые
Белая
королевские
оучинити
брежно
толкова
толщину
михайлова
проклѧти
чадолюбива
животах
Соловью
приставными
побесѣ
адам
змию
захарии
едного
осадилъ
спрашиваетъ
камения
степен
одеяние
Гавран
ꙗ҆зыкѡвъ
пойма
а҃і
Девгения
сыскивая
##ѳью
карабелыци
##тятко
Кур
Стратигъ
Стратигов
##сениѥ
возмуть
витезя
божіи
Боярин
павловском
городищи
Салтановичь
нощію
въспомя
табак
табаком
Пріѣхалъ
объявляетъ
чюдовского
Услышав
Кощею
меновных
испортит
пеньки
Алимпияда
҂аѱ
ꙋчинит
Греческую
шеломы
зговорятъ
Птоломѣй
скатерти
Киевляня
особливо
Казначею
Муравѣць
Кни
аги
ень
злы
иво
истра
кл
меле
рва
ꙋкра
##свои
##тныи
##щене
##нтом
##ꙗлъ
##ꙗнъ
покою
насѣ
##нисѧ
##нишка
##рещи
##даша
припло
нищих
##шивъ
##симъ
съсь
съвла
отписа
##жими
оуспѣ
лютая
##жаетъ
сѧслс
стаа
станицы
васку
резо
ребро
всеславъ
##дьнѣ
дѣтехъ
##сегда
земнаго
тию
десно
чимь
страст
сласть
възвѣ
крал
леж
сѣмя
платья
##кѡв
государемъ
чюда
темнице
блга
##езе
началъ
##женїе
погля
въꙁврати
михаилова
радостію
помилꙋи
оболен
испль
испрво
просила
##теры
желѣти
остафь
блгодат
имеѧлъ
сильнѣе
##щіимь
надобетъ
апль
похвалу
колоде
красотѣ
пѧтьдесѧтъ
изволите
ондреева
пшенице
гѹрмы
икон
киевскаго
бывшꙋ
богданова
идохом
здѣлай
могилу
телѣгъ
и҆зыдоша
увѣри
говорятъ
основаніе
хоудо
трапезы
умеет
истарины
пьредъ
Небонъ
ȥемли
бля
нн
южно
ѡлта
ѣсти
҆но
##тнымъ
##ꙿныи
##герь
##бнѣ
##ѫѭ
##дія
##҇и
##ѳри
##гомь
##росто
##ревѣ
##каи
вън
##диле
воцари
##жества
##тама
моемь
##лео
себє
нищет
##лька
отцем
ведоша
ведро
##нѣя
оути
оуто
оутре
##чата
изви
бедер
лих
жиꙁнь
ногы
разсмотр
многу
деда
купу
##зъше
ꙗкож
а҆п҇
первый
враговъ
предло
знае
концѣ
сотворимъ
##ждена
большихъ
Мое
подаст
Сиби
спати
Зави
послуха
прямая
подобаше
вꙑправи
соущь
Сами
идемъ
хрсь
всякои
льсть
агглы
##щомоу
окре
Вави
новотъ
степанова
вѣрных
ездят
всемилости
лоукꙑ
##ѥ҅ши
##днев
челобитных
желѣзнымъ
орду
##женіемъ
оброку
рѧдъ
аггл
тайну
копьи
благааго
##глаголеть
отвеща
Фила
##ѣзжалъ
хрестиян
девица
крестиян
напса
бобров
нравъ
беспре
сѣмѧна
насади
твьрдѧ
закупъ
благоуха
инѣх
състарѣ
жывота
вылѣзуть
ремествени
гюрѧтѣ
встав
дховь
зово
мрѣ
спе
ѳь
##сца
##щемѹ
##шнова
##шкове
##гше
##рска
##бни
##чкомъ
##чному
некто
##натца
##вале
толо
##дишь
приши
притво
секи
##льные
каѳ
каждо
##матри
оужь
##мѣмъ
роги
сабли
пищи
дѣтя
братоу
##сьти
##шька
##нѧми
тѣши
Боль
чаши
иноплемен
полосу
имал
госпожи
перв
вотчиною
##мѧто
потоп
рижѧ
трепет
трѫ
##зеши
пушками
свита
гордо
городовую
ст҃омъ
записки
градꙿ
Откуду
въсѣми
свѧтаго
невѣсту
##ствꙋетъ
честному
лошадя
кыева
вьсѣми
##пискоу
царицею
##сниковъ
чяда
братьєю
##мрь҆
рыбами
смертію
степеней
поперегъ
похочешъ
псалъ
небере
бѣжаша
въскоре
##ѳеѧ
трапезѣ
прославлѧ
грязи
индик
вѧчеславъ
отнюдь
добрѹю
Констян
навꙋходоносо
віе
ела
сс
сложи
ула
улу
увы
ѹпра
ѿъ
##пⸯ
##г҇
##жѧть
##лнѣ
##ѫи
##дꙗ
##здѣ
##яа
нажи
наку
##лили
##лицу
невъз
##никꙑ
копы
вот
##милости
присо
приту
привелъ
запу
##стьникъ
сек
##сите
##тець
проходитъ
##потре
бывь
татъ
лют
##няй
изря
рожьство
вѣде
вѣтр
##дуо
питья
##ень҆
дѣлех
##гий
Помо
меди
исходѧ
куро
##тел҄ь
иваноу
подроб
переѧ
страшли
плачем
##евѡ
ложни
многомъ
ученію
поидеши
##скы҆
##нѹти
никоего
тъща
кормят
##грады
молися
мьзды
подъемъ
Матери
речет
попла
малого
спасу
покоити
рꙋб
четвертью
крот
дворовъ
володимерѧ
боголюб
стѣи
двѡ
четырех
##тꙋю
золочены
прослу
седмыи
дракѹ
хороми
емель
первоѥ
ездил
свек
повиненъ
въсегда
лукаво
Другъ
поклонишася
прошломъ
грѧдетъ
равенъ
нѹжа
урочища
епп
ѡ҆бле
ѿвѣщавъ
Писано
третьяго
гюргеви
губные
несча
веселіе
мертвыхъ
##стоупи
самодержецъ
дръжава
егип
савина
рубеж
твьрди
а҆арѡнъ
похули
ревнѹ
птоломе
басараба
Ави
Стро
внем
ила
ищу
кляти
клин
лго
новыя
св҃
тмы
утвор
усер
ѿнести
##сову
##ѧго
##лт
##хер
##дрю
##ꙁем
##ѥт
##ѥшь
##яго
##яны
##σι
по҇
##тив
присылати
##мой
##муд
седит
##чиком
##сипа
кача
солю
собер
съга
##саи
отняти
##гать
стль
##въко
##няется
препро
лици
##дьнааго
чепи
столы
##закѡ
Поѣ
бѣлая
бѣлыхъ
куне
##тур
передо
едине
глада
многокра
##хима
моисѣ
чето
врат
ѻ҆ба
Александрову
блажены
царствии
молитвѫ
конными
Себѣ
бывала
##езду
пѣ҇
сꙋщꙋ
сꙋщихъ
недлю
ꙁане
въꙁв
ѡбро
раꙁбо
##шенко
порукою
помири
четвертаго
губя
чистоту
въдаль
словами
днемъ
##а҆го
ярославль
науку
іѡана
раздѣлена
половець
терпѧ
пособи
праведныхъ
свети
совѣща
изыти
корабел
корабля
сестрѹ
станицѣ
именито
братьѣ
хлебных
н҄его
заплатиль
зуба
келарем
приносить
разумнаго
прркъ
прркь
погꙋбити
милосердія
ѡклевета
павловское
Мьсти
стѹдень
с҃тго
Послух
ермошка
стяжа
Алексея
бочкахъ
начисто
навыкнеши
Дмитрей
і҆ѡнаѳанъ
ѿпѹсти
сомк
юрьѥвичю
манассіи
ѡвесъ
Зо
Зако
Роу
Сꙋ
Соу
Судъ
бѕѣ
вма
мло
млѣ
осло
сста
улов
цвь
яй
єму
ѹчини
ѹлици
##снымъ
##тны
##тники
##дными
##ꙁова
##йдетъ
показу
##годи
##тиноу
##нил
##ниця
въноу
дадимъ
воемъ
приме
припу
боче
доля
##доко
##лесь
##сиа
соромъ
солны
простъ
сътра
отходити
стѡ
оуми
оупа
##жаемъ
сило
##бѣе
литву
вѣдо
выси
выкупи
выскочи
питати
##ковского
є҆лі
##вьри
##шькѣ
вьсю
сусе
прѣложи
гридню
всяку
мужемъ
скоморо
лежѧ
грамоти
##меню
ᲂу҆множи
##стѣмъ
гава
конци
продажу
братѹ
крі
злочести
##штерь
рꙋкъ
смѣхъ
четвертой
гумно
сроком
Божиа
кꙋница
служителя
##ѣхались
Вижу
просим
##бѧть
##чениемъ
каменныя
десѧтъ
новой
драгаго
лошадеи
##славие
могуть
многаго
съвѣдѣ
конюшне
слѣду
н҃нѣ
вышла
сребрены
Духъ
слободах
собаку
колпа
еуглие
приносѧ
дѣвицы
господарь
парф
похвалить
знамениѥ
белозер
мечемь
однолично
питїѧ
прямыхъ
чюжимъ
бг҃ом
##скѫѫ
ч҃л
прилежаніемъ
тольма
Никитичъ
##сподарю
Авраам
полунощи
кашинскои
всемогу
просфиры
глщ҃е
отъимати
Б҃ъ
заутреню
Ингореви
Ара
Егу
Иа
Изы
Сп
Тем
ади
ветъ
введе
ида
кнъ
ніе
о҄
сну
сходя
узы
ѡпо
ѫже
ѱа
ҁ҃
##шнѣ
##шнемъ
##гря
##дꙑи
##мнаа
напрѣ
неѫ
##етка
##ваѥть
вож
боѕѣ
замѣ
зажь
содом
съд
##мьно
##чаютъ
##вело
станомъ
малую
ликъ
выбо
выхо
ножъ
меше
лѣты
лѣвую
ѡ҆ѕ
госпожда
##анне
##просу
Александровы
молимъ
болша
мѹки
какⸯ
##щенію
слышах
слышавши
скврь
попови
##лемо
круг
##ющии
обозомъ
святымъ
славное
ѥ҅гда
##метри
просилъ
жалованьемъ
единомь
принесъ
глаголаша
мѫжъ
окси
ногаи
русских
пѹс҃
приступомъ
зижд
имея
смотрѣ
живѫ
помагати
##рениемъ
миренъ
плакать
трѣбѣ
долготер
гнѣвъмь
гаврилов
здарово
шьли
ᲂу҆боѧ
даваи
сонми
Жела
посулов
Възвесели
еллин
пришествия
Филосо
зелье
мольбы
прохлад
древеса
срьдь
испьрва
подмосков
херꙋ
Мудрость
а҆рхіере
а҆лексан
четвероуголь
бд
жі
ижъ
оправ
умысли
худ
яти
ѡстѹ
ѿцъ
##рство
##ндо
##жным
##жново
##все
##҃рь
поем
##годы
нав
##дины
дашь
##таꙗ
призрѣ
бока
##дев
калены
проходя
##маѧ
##рут
оуга
мих
##цамо
хошь
решо
величиною
##лугъ
вѣм
##дьна
вые
дѣду
дѣвка
своихь
##споу
деѧ
##еная
##вьць
возвѣща
бѣлаго
прѣѧ
грин
веліе
нѣцыи
##ць҆
възле
чадом
дружь
сѣру
единое
единымъ
послах
верхꙋ
рѣх
доброта
имѣше
поимъ
видѣніе
воины
##нѹтъ
гсдры
гд҇ню
##нꙑи҅мъ
потопа
концемъ
товаро
Мику
мѹкѹ
чьего
менела
царевы
запали
спя
поставишь
##шенѣ
пустошеи
очища
##фила
е҆п
е҆мꙋ
##товаѧ
слѹгамъ
хрс҃
нѣкоем
взѧле
полата
въсѣхъ
стрѣльцовъ
предамъ
тысящъ
ѡбиход
отрокови
самаго
поставлѧ
двух
первомъ
##вшы
вѣдалъ
міра
##тіѫ
Всего
челобитчик
мниши
вмѣсте
Васил
игнатья
сп҃си
707
гръь
##щеніемъ
##скꙑхъ
ꙁакона
проидеть
н҄имъ
дубров
рѹкодѣл
улицамъ
хлебе
ѳедоровичу
сидоре
воспомѧ
смьрда
слѹжбе
пушкарями
избыти
вѣдуще
печерѣ
офоно
ефре
##времен
железа
ѻ҆рꙋжіе
жребіи
##скакивалъ
борисоглеб
Августъ
Блго
Дв
Праз
вро
вят
втор
ссо
сїе
умножи
яры
їѡ
Ѥже
##тми
##цнь
##щникъ
##гю
##нтина
##ѧса
##дрѣи
поемъ
##тище
въплъ
козь
##вици
нищь
прочет
пролити
людѣи
##чан
##чало
##жала
изб
бежати
царъ
лишити
вѣдый
##дьнь
жила
нож
##вье
##нѧше
##мыми
прѣвѣ
положат
##ровлах
##ствіи
имаеши
ѡ҆нъ
##новения
слугъ
свѣдѣтель
лучи
бжі
ѻ҆смь
Александрь
знате
##тѧтѣ
рыжь
##женія
больныхъ
бж҃їимъ
берегъ
еяже
походе
любодѣи
законꙋ
казачей
неистов
##щую
спири
днех
свѧтꙑ
нарее
приятъ
напаметова
дмитрею
верховь
украшен
а҅гг
владычи
поздо
мѡа
немошть
прежняго
видевъ
въскре
извѣсть
соболева
прошение
ондреевича
грѧз
кузми
киевского
тайны
мстиславу
възѧль
мертве
##л҄ꙗ
девѧть
видѧще
приѣхавъ
вельможь
пресвѣт
поѣхали
Египта
росход
тъию
рождена
Златыхъ
Такъже
разграб
къснѧ
зятя
користь
Ермакъ
Двѣ
Лву
Мсти
Повѣда
Чему
а⃝
астра
бле
едоу
злыхъ
инꙑ
кⸯ
лце
нҍ
осподине
смену
уды
устю
цемоу
юрию
юриѧ
ѧръ
ѧкима
ѻнта
ѻсподинь
҆ꙁъ
ӏхъ
ӧсподо
ꙋви
ꙩспо
ꙩсподину
##сено
##тлѣ
##нмь
##нды
##нніи
##немꙋ
##ѧну
##двы
##ѡ҇
##ѹмѹ
##ꙑхо
##ӏи
повъ
##ливои
въхъ
кожа
кощѣ
##мить
##кинѣ
призъ
приметы
гонца
своӏ
##дере
заве
##неве
растер
##тежь
##стати
##полъ
отложи
##дѣніе
##мью
мире
михи
минова
мироу
##ньми
##скїе
##бивъ
сивъ
тежъ
##іевъ
изѹ
маскима
ретиво
кълъ
вѣсова
выбе
жильцов
чес
ночною
брака
разныя
стоят
##скали
##шью
возоу
Пой
Покланя
##лѧтѣ
отъго
бѣлкоу
пуо
сухꙑ
куницѣ
подвари
подписывати
грига
пересмотрити
безобра
страдных
възвраща
речеи
пекѹтъ
црꙋ
гласом
##г҃же
слушати
свѣже
дьлѧ
##гымъ
дѣлаются
тъй
г҃ї
сѹше
гривн
гривенѣ
##граду
васильеву
шелом
Коне
приказо
рыбѣ
мьро
продало
всемоу
Минчи
тьбе
неделе
пожалуй
коузь
в҃ӏ
##щеніи
родить
родимая
бесуд
немно
больших
ньжи
ньдь
##рт҇
млср
цѣлоую
порохи
блины
отдашь
маренѣ
Задон
рѹс҃
рѹблѧ
рꙋць
пьшь
пьсалъ
смѣтѧ
оубогѹ
гнѣв
гнѣд
убивъ
кроити
кѹнъ
слѹшка
нꙑни
кꙋно
трубить
московским
кралевною
делают
водае
детех
домаслава
одрѣ
торговым
стремени
размѣры
юрьевич
крини
щокин
слегло
члк҃
силѫ
пошлется
доуб
тꙋзи
велегласно
погоню
Резань
фалконет
##дьяко
хорошенько
въспиши
Государыня
мс҇ца
##нимай
##дꙑле
чоты
живутъ
слѣда
дш҃ет
образцѣ
Святого
Святааго
торпи
востаютъ
примѣты
приемлет
повадно
жалостию
ядрамъ
ядрахъ
##ѳона
правьди
мнҍ
направлено
моѥӏ
фунтъ
богатырскую
погребы
ѥсемо
цоловѣ
извѣсти
рѹкодель
послушавъ
Кіевѣ
царевичей
нарядомъ
сказывают
пушечнаго
пушечныхъ
объявленіе
гостьѧ
пятнадцать
ꙗ҆зыцѣхъ
ѡвсѧ
даваны
накапало
рѹкодѣлию
цетверка
цетверки
платие
олгови
##зерци
бобылях
стрѣляетъ
събравъ
кирилов
хрестиѧ
парфѣ
##чого
премудрость
заряжати
ссылке
боѧна
приспѣхи
македоняны
рыбные
порѧдливои
140
основания
ростову
Потанцыяне
матьри
наречешися
жеребѧтъ
пустые
дробныхъ
Кралевна
Маршалка
бьрковьска
целовалники
наказѹетъ
приступныхъ
снастьми
полоцкꙋ
Антиоху
Поповича
Поповичь
отпускных
укрыти
поѧле
приговор
годится
Самой
згожается
домовитомѹ
геронт
прилагай
лѹкавства
сновида
навозъ
сусѣду
грѹши
хрстїѧнї
хрстіѧні
##рѧтано
озовъ
трегранце
ѡбрески
пръгаром
хомутов
изменника
святору
рѹбашка
подошвен
Феодоровича
елефан
властелин
домочатцовъ
А҅ште
рекый
клементьев
коробиѧ
ѧкъшѣ
Змиевича
Апракс
тотчасъ
Неопали
дьѧка
##бѣтьѥ
роспу
Лукопера
круглой
перетрѧ
гривоно
руцьѧ
семейка
цетверети
Кандакия
притеребы
прѹтоваѧ
оубрѹсы
гсдревѹ
хр҇тосъ
Апостол
ѡстровескои
нацате
преуда
Личарда
Пищаль
##лесневело
мѣшкотно
Розбой
орловскои
Кандарку
зазыв
анкидинов
Роусиноу
вѣсовая
Покланяние
Гръ
Нове
Т҄а
иста
устъ
ыных
юдеса
ят
##сенье
##ети
##греб
##жнаѧ
##ꙋка
##ѯи
##αρ
поѧлъ
##воро
##димѣ
##дивше
коко
##нынѣ
##нескъ
и҆стин
проте
отчин
##нъмъ
##бое
оумножи
##ням
##ведеть
валаа
хотел
рещ
##баеть
разжига
мѣхъ
прѣꙗ
##вять
переима
крала
крещении
ꙗ҆рости
волоса
твоимь
ᲂу҆м
грѣхов
гсне
лани
##скыѫ
благоговѣ
##анꙿ
галі
тяго
бꙑхъ
шеста
киевѣ
ѡбна
Дон
##ходили
написалъ
пьян
##вшихъ
побѣдити
вꙑше
пожаловали
высокихъ
хрстолюби
чистота
нѣкото
сподо
стояще
стыди
поуш
стрелец
ионе
начелѣ
желаеши
велѣли
азова
болѣе
борзе
##ѣзду
##тѹю
четвероно
солнцемъ
приказалъ
##несеть
ꙗ҅же
вышняго
плакася
идуща
бц҃ю
ключникъ
вѣдомости
съвръши
давыд
вьсемь
ѣздити
генварѧ
невд
бꙋдꙋть
божію
сѣверъ
славьна
##ꙁꙑкъ
##жєніѧ
железные
сыскать
еписто
нижнее
Воистинну
коупно
кꙋпил
тьрпѣ
іюля
знаменье
а҆ммѡ
сотворѧтъ
и҆ноплемєн
Дрꙋ
Сло
оспо
уче
іи
ѡтчи
҆л
##с꙽
##тци
##нне
##у҃
##ꙁнъ
нарѡ
##никова
##тьꙗ
##ваются
даѧлъ
пример
присы
##търо
годо
годов
зая
моно
сестрѣ
прочетъ
проговорилъ
##салим
##ставь
отпꙋ
ведеть
вешти
##гает
микола
##няхъ
пазу
стагѡ
вашꙋ
великѹ
къне
обще
Пол
исходитъ
купѣли
числе
Невѣ
##чютъ
ѡ҆снова
гладомъ
лодью
##дѧхꙋ
##дѧтсѧ
дѣлает
благое
животь
убояся
златых
взяла
убили
##схотѣ
коньца
водамъ
потребно
роспи
творѧтъ
далее
седмери
блюдет
##ратиша
велѣть
малыми
прикажет
мн҄ѡ
юношу
апостолы
##хѡм
ꙁаконо
въздание
внукъ
Филипа
матерью
пльсков
наоучи
толику
є҆гѵптѧ
ѡчисти
вдѣт
ростовь
утробу
##димере
а᾿ми
правовѣр
пръгарем
многолѣтном
назнаменова
услышить
вещех
Рыцер
въсякую
утеря
Едино
Иде
аре
алекса
ира
ловъ
сⸯ
с꙽
снꙋ
хѫ
хро
худъ
чтен
ѹч҃
ѹкаꙁа
ꙁлы
ꙁбав
ꙋм
##шша
##дныи
##чнѣ
поволи
##тиши
##енского
волов
##так
##тако
привя
дозира
зано
рану
##рѣт
кало
прора
съмысль
##сав
##рьм
бысте
##бите
холъ
пребꙋ
##хает
литовъ
выкъ
пила
##сеа
##гия
##чьства
Поди
отъвѣтъ
##рѧще
сует
гришки
велі
нѣции
перемѣ
чаемъ
положенъ
##кехъ
ѡ҆л
ѡ҆чи
первѣе
Въсѣ
учение
##новить
бжтво
книзѣ
конских
въꙁда
покаяния
цѣна
##итеся
д҃хов
##в҃а
привезли
пріидꙋтъ
смѣху
хлѣбо
любимаго
списке
матвѣ
двꙋ
манастыр
сорокоу
грека
свободѣ
григорьевичю
тысячъ
собраша
храбрость
Листъ
прикащиком
гсдрня
##обраꙁ
##образь
трѣбѹ
Суть
Суди
грѧдꙋ
разор
Аминь
##н҄ѫ
ѹ҆мре
аврамь
срдци
пятаго
ѳоми
приноситъ
##фьи
невелики
тиунов
послѣднемъ
благовѣрь
##женецъ
денежное
болгариа
црт҇во
і҆ꙋдиныхъ
украины
неисправ
ѥмлеть
Хлѣбъ
една
илі
нї
ч҇т
іже
ѡстро
ѿкꙋ
##цкіе
##рвѣе
##євы
##чника
##ꙗще
наскоро
##ваете
дане
##мироу
##талъ
приѡ
прикло
седѣ
нищимъ
калики
прострѣ
##поро
весъ
тая
##жики
##скврь
##ловци
течение
послов
##пае
##ляне
лиць
листу
лифля
вишне
видока
##сеся
##стыѧ
тѣлом
Богда
нѣка
скочилъ
свѣща
ласт
учител
рублю
дино
гада
##рович
женское
сꙋдь
##штимъ
всими
говорила
кровъ
Никтоже
##ведены
подалъ
##ющемꙋ
помира
##ꙑи҅хъ
побѣдит
клалъ
покланѣ
колика
##гꙋтъ
Видите
споло
въсѣх
силнии
слꙋша
обеих
королевскому
Василья
лежаща
Царя
камением
ереме
діако
пшеницы
возраста
дияку
поеду
прѧмѡ
##сыпать
прославиша
мудрыми
помышляше
боꙗре
##ливость
каменемъ
цѣсарь҆
тельчеи
нарич
єдинь
внезапу
крс҃тъ
проплака
завтра
а҆нтѡ
Будет
Иеремѣя
тврьдѣ
и҆саѵ
ірмо҇
##ровлахіи
седмерицею
бви
діо
лца
омо
опеча
рем
счет
уяз
хсья
ѿтѹ
ѿпусти
##озеро
##цкіи
##лва
##хро
##ыи
##ѡвы
##мову
##фы
навъ
нарца
##лочки
##началь
##данѣ
##ваша
##вахꙋ
##миѧна
##тат
пристро
болии
дошелъ
гостей
голан
заме
##мого
сечь
ниць
проло
прочно
съти
##самъ
##рьем
быстро
веди
##ческому
##дѣтѣ
##лѣзе
##бита
##хотвор
прекло
садъ
рукы
обръ
мноꙁи
возмется
отъврь
отъпоу
бѣха
прако
велію
славе
кресто
полоца
волого
##бьна
##менѣ
##менем
ᲂу҆слыши
бурми
мытчи
гсни
Въсп
государеи
чертова
королемъ
##лѹша
##дравъ
##градилъ
бꙑхомъ
роздели
посадь
царского
##евой
мьни
##тьею
добрыими
ꙁаха
##пьно
гл҃и
угодей
поставил
покосов
Тай
внидет
стѣнꙋ
двда
непотрѣ
манастырю
пригодятся
приятелем
роука
погоре
рекоше
нападоша
государскую
микитин
##въшемъ
велѣно
присланы
крылья
изѧслав҃
угодье
въсего
брегъ
приемлеши
лъжю
сирома
і҆ѡсиф
##мꙑсли
головам
горами
дрьжи
иконо
найдешь
камня
погыбе
мастеръ
грьчь
клепати
є҆гѵпта
ссыла
потегло
исцѣли
волхвова
мирьскы
затвориша
срамоты
супостаты
живешь
громко
Крестъ
и҆мꙋтъ
ополча
прилѣжаніемъ
абїе
укрѣпити
управных
є҆смы
множицею
отмеже
саблями
увидишь
нельзя
южнослав
Василій
Ау
Билъ
Иска
Исхо
Нѹ
Ново
Тр
брт
ехи
иу
шере
ядъ
якѡ
##суду
##иꙁ
##пове
##цене
##цкая
##шну
##рное
##нкь
##лнои
##умъ
##діѧ
##дрѹ
##дномъ
##ѡнѣ
##҄ы
##янов
##енїѧ
##лисѧ
неь
##никѡвъ
въго
##диѥ
дамо
принето
моі
##шайся
нимо
съкра
##сау
##рьши
такову
##удꙋ
мамо
посви
роты
##дуй
##тыа
грам
вися
ногою
мѣстꙋ
##ствомь
##леную
##жьства
крад
кресты
ѡ҆держа
ᲂу҆зри
милоу
чюж
королем
##буть
вражды
сторонѹ
разумомъ
Митро
въꙁдви
млтва
о҅г
порох
христѣ
попꙋ
писмень
Раба
пріимꙋ
обидѣти
пꙋтемъ
дꙋк
полутора
спитъ
неподви
##ствиꙗ
десятин
свꙗ
приставе
силны
собрав
емѫ
весма
блюдо
съгрѣшихъ
болѣꙁни
апл
брезѣ
уздою
распыта
правь҆
блгти
согрѣшиши
дроци
мыслити
##хѡмъ
разорити
удалы
попомъ
епс҃
Спас
подворье
ѡ҆брѣте
##твьрь
причастие
мрьт
Николиже
бортные
снве
умышления
клѣти
челѧдинъ
начьнеть
ꙁаповѣди
чоловекъ
мещане
матвеев
помысла
спроста
ясенъ
замокъ
Царство
воинъство
починком
захарьина
ѡ҆бѣща
посмотря
възлюбленъ
оукарѧ
нелзя
ꙗзикъ
мц҇ъ
##немага
премудростию
Ге
Гь
бз҃
иерѣ
опра
піа
укрѣпи
ценою
ыгу
яковъ
##снаѧ
##пѫ
##пца
##гꙿ
##гена
##гіѧ
##нский
##ꙋма
##ꙗли
поь
позира
накъ
##лиі
неф
##ницоу
##лосер
##кала
тоѣ
вотъ
прить
пристѫ
принять
доно
##вилъ
сомо
соеди
отне
отцемъ
##няся
##бица
##пии
паль
прежь
преслуша
##бедни
румя
лѣность
##жью
путем
##туй
##еному
полза
полскому
сколки
а҆хі
платят
##бью
ѡ҆скꙋдѣ
персть
лодию
##евичемъ
учитель
гале
монастырѧ
приказѣхъ
посадех
блаженыи
продав
сꙋще
обыщется
покамест
люблю
берегли
державе
написал
##штетъ
должно
казалъ
побѣды
наказалъ
##имет
##леного
вороне
службою
одном
стрелами
искалъ
Москвѣ
варга
силꙑ
Вѣси
ст҃ых
поставлены
собрати
птицу
приступѣ
селищи
##яшеся
конюх
область
Святъ
і҆ѡсифъ
прошения
горазно
і҆ерово
ѳ҃і
##ю҆ще
востока
##помни
ѡпѧт
микули
промыслом
успенья
христово
наказывать
понадоби
оц҃ю
ларио
непрестан
чоловека
костантина
оудер
аѳона
ѿ҃ца
мысля
призвати
Ивановичъ
мѧтежь
бл҃годареніемъ
пагꙋбꙋ
преписва
бз҃ѣ
200
36
Зде
Светь
алѧ
глы
ждати
зѧти
идѫ
кель
мха
іꙋ
ѹчи
##щное
##нскою
##дію
##дв҃
##іхъ
##єв
##яни
##стныи
поту
##гома
нечю
некре
##етша
##ноє
##валь
##рика
въстанеть
дает
прив
долѣ
зава
##мухи
##не҆
##льникъ
##рѣчь
##сиша
солꙋ
ведутъ
##рыхъ
##лѣмъ
##ръмь
сид
пагоу
избу
##хать
##куля
робѣ
робы
##щающе
вира
вишни
##бата
разделя
##скано
##занъ
лѣстви
##сѣк
ивани
велка
перемоло
полскимъ
инокъ
##менского
перстъ
##хину
Насы
бас
противит
##пъстра
ѻ҆ц҃а
мъи
требова
Дори
речем
крста
ходите
скаске
березе
поручная
пріиметъ
индѣя
пожаловать
Киевѣ
дꙋбра
##чую
бл҃гослови
другого
кнѧземь
помѣшка
##шним
обрѣза
нарекъ
крилѣ
беꙁь
григорьевич
##х҃ъ
приятѣ
Государя
истиннѣ
лукав
взыдоша
небога
пѡзнаѥть
сентебря
кꙑмъ
кꙑѥва
мънози
Был
новая
филипомъ
рѫко
Данило
сокола
людяхъ
александръ
другии
квасъ
лихоимь
Лѣта
##хватилъ
възѧша
промыслов
сирѣь
епископа
##щеных
Блаженъ
Индѣя
драгимъ
драгими
сѣдла
цвѣтомъ
вѣрѹи
суждаль
упование
текста
с҃тхъ
проꙁѧ
҂а҃
##плють
емлютъ
##хиеписко
подошвы
новъгородьци
а҆наѳема
шапка
хься
рагозина
призоветь
вборзѣ
заговор
вънѹкъ
31
Бли
Гро
Ихъ
Клео
Хс
Чего
бя
гнои
глоу
зван
нд
пудъ
пшено
хова
ѡх
ѧла
##нномъ
##мере
##ѳ҃
##яет
##чникъ
##фет
пость
побра
поволо
поꙁо
нави
##колъ
##вомь
##енские
##равъ
##ноудь
##кано
##нама
##вался
##рице
котелъ
дающе
воско
прискор
зама
заказ
мочь
##шима
сог
сосуда
составити
##поле
тацѣми
##жища
##мѣмь
твора
##стори
##хота
преписи
##лядеи
##щаеть
вып
ноꙁѣ
##нѧлъ
месть
вьсп
##гъше
подписати
##еномь
полето
покꙋ
скоть
скорѡ
##чють
##ственое
##бьѧ
црства
ᲂу҆кра
первие
##новского
царьствия
##ловичъ
##триар
никое
учиню
учинено
дважды
кормов
блговѣр
##никах
##вѧт
##ждемъ
сꙋщымъ
близу
чловѣко
подали
любодѣ
рѹка
трость
учинилося
Кири
государевыхъ
былие
разумѣютъ
матꙋ
Вижь
принесу
##ченое
таковаѧ
предать
пошлют
ратныхъ
половцѣ
вдову
оставихъ
съвѣтѣ
слꙋжити
##кович
изыскати
финиксъ
соломонъ
##вену
головами
##ѧисѧ
филипе
посылать
##мрьть
ловчи
мракъ
постигнеть
дѣвицу
неупоко
мертвых
девѧти
ч҃лв
останетъ
възлюбиши
укрытися
красьнъ
герасим
волъх
жертва
Стерляди
діаволь
ѻ҆течествъ
Гсдрю
##стѧнтинъ
иноходца
Симъ
ау
аси
змѣй
ивъ
мов
мзда
о҆
ссѣ
снем
хреб
члка
шеремете
ѥхати
ѹтнеть
ꙑгна
##говую
##рется
##рман
##блъ
##ннои
##ждѧ
##хіе
##ѡва
##клѧ
##явля
##ⸯше
побно
##тиць
##лади
##норови
##лочено
##даите
##ваешь
##риша
въсоу
вънутрь
##дикуля
коровь
##ныю
даче
призна
прилично
дойдет
зао
засо
##чиноу
ниту
промѣ
съпо
милуй
##ньскы
##жахꙋ
валъ
масти
хоцѫ
роки
бек
бежи
##дьство
##щинѣ
##щикомъ
видъ
дѣво
раздо
княжь
##заетъ
возмѧ
возѧло
Помяни
##гут
пуст
прѣлъ
прѣмоуд
кури
##телно
подноситъ
гришу
переговари
безмѣр
полна
страхо
дунаи
краше
била
лесе
педъ
##меноу
перский
перпен
сьла
мыты
вершить
вершены
рѣшѧ
лугов
Наказание
##нꙋша
и҅мꙙ
царьствие
кнѧзѣ
дитятко
судного
продана
смертонос
ризе
чьем
чьему
Солне
##шеніѧ
злобы
злодей
Також
Сий
Симе
##ющися
положиши
кабалах
пьеть
гнѣвѣ
записей
губить
славномъ
Килики
имянемъ
хотять
жаловали
домажира
прямого
прямомъ
львъ
Ивановъ
свѧꙁа
поучаю
слышя
благословен
раздѣленіи
желаніе
##ленаго
пребывает
##местным
Добрынѣ
трьї
владыки
##ниѥ҆
слѣпы
Лазаревич
свад
##ꙁии
мирслава
проклина
чядѣ
виновате
пълъ
грѣшьникъ
приставных
пѡꙇ
##емыихъ
разбойнику
ѡстат
наместника
сокру
федоровичь
женитися
гръчь
спрашивалъ
попецѧ
гаврили
сказывати
повоева
Даниловича
ꙁаконь
явишися
дияко
тайныхъ
Никитушка
пойди
##блѧне
помиловавъ
Девгению
кѫно
бжтвнаа
роусинъ
коробью
сыскивать
архиепископлих
крестиа
ставку
дьржяти
думным
Спасъ
насыща
латинескии
латинескыи
Армей
девке
христофо
исполнен
кобылка
епископлих
пашенныю
бесчестья
Стратига
въпадеть
варѧгъ
прежнихъ
Филону
причаст
прямые
пустын
##денежно
##городец
изье
христіа
офонасей
нравы
прислите
отцовския
Антиоха
поѣди
Маркобруна
дьаком
стряпчим
государьствахъ
городищѧ
Никитича
Акире
жалобник
бесчестиа
нижней
смирного
ближних
рцыте
тряпезу
задние
ратманомъ
Картауса
ржанꙑи
Кощея
Беретъ
Холопей
порозжих
Григорь
благовещенья
костянтино
Фараонъ
кіевскій
##ховидов
кюрика
Роспись
иерей
всесожженіе
могох
равъна
гюрьгѧ
воронцов
шурмованью
узолокъ
сматря
##совѣт
тотчас
Иисусѣ
преосвященному
поклажеях
Синагри
ярлы
прпбномꙋ
беглого
пріятелю
##величишася
прѣбудеть
дятка
приживет
Феоду
перпендикуля
Армейское
Сказа
введ
входитъ
гви
клъ
лѵ
щете
ыван
істо
ѡз
ѡне
ѡставити
Ѹ҆
##ико
##щна
##шномъ
##бꙿ
##бски
##ѧша
##лнаго
##дчи
##млъ
##ѥсть
поа
##готова
навь
##кохо
##комѹ
##кописа
прє
##води
некако
##етвер
въшедъ
##дих
вожа
воскъ
##миа
прим
своба
##шаху
ниꙁ
нибуть
##сина
и҆дꙋ
соглѧда
протчи
##маномъ
отре
ве҇
##чатся
##мѣн
стаѳъ
марья
##кучи
##лють
##бѣжить
савра
выем
высѡ
##зах
##творь
##стыхъ
пуда
##кый
супъстра
стражи
красти
##бьно
##евѹ
имъже
писах
видѣхомъ
дѣлай
государьстве
прииду
##тѧтсѧ
молилъ
концы
трепетъ
##слово
стефан
слышахъ
слышаша
млтвами
запасу
Молю
тотем
##фию
свинецъ
##вшися
створю
обидимъ
Божиим
сподоб
##говорити
донде
достоини
Рее
собрашасѧ
поведе
источь
сверху
дмитреевича
отока
праведным
правилом
лукава
наина
наиден
лежаше
достоꙗ
чресъ
указали
приходил
поклониша
пожиша
въстани
дрьжа
мудростию
трѹда
сътворена
накажеть
срдцы
меньшая
тръпѣ
ꙗвисѧ
жеребца
умѣютъ
челѧди
окольничему
черкас
асѣнъ
страшьнъ
і҆ꙋдины
възьмъ
никитичю
блуда
белые
сукно
Ибѡ
Рим
Ша
атъ
вно
вру
гво
лвѣ
мтрь
оцъ
ремен
҆мь
##ткѣ
##тливъ
##шова
##брую
##ѡкъ
##фме
##стове
навод
##комꙋ
##лиꙗ
##рахъ
нека
##дают
въстрѣ
##дешъ
##дохом
##дошꙙ
сеꙗ
нищие
##сица
кажет
сътре
##мане
##стараха
##рьди
быкова
оумно
минеть
##лѣно
посемъ
##ляби
листе
садов
сыта
##слать
разболѣ
##вьное
возмешь
тогож
Половци
пра҆
исходить
суеть
прѣди
купь
##тѣмъ
полѕ
пети
печь
а҆са
##етесѧ
имает
глаше
многоразлич
воискꙋ
животворя
дерз
Кого
##нꙑѩ
пѣніи
##шъдъ
добрыимъ
ꙁатвор
чьти
скри
взяша
послух
долж
пѧтни
святынею
селцу
трубы
взѧть
ѥ҅смъ
дьяки
##шнимъ
льва
потреба
варламъ
недооумѣ
приехав
познана
племен
##правит
вь҆се
постелю
свѣтла
острове
бревен
прикащики
приемля
путивля
имущу
мнть
извѣшта
сп҃сѹ
млстивои
простите
пшеницѣ
игоре
пищальми
оброк
##вꙑѧ
аггелы
дияк
дияволъ
приношение
прочихъ
болото
матушкѣ
бжтвныи
кириловъ
бжиꙗ
толицѣмъ
жеребьи
поклонения
волхвъ
с҃тополкъ
нбснаго
днѣпра
стрелцов
вторый
поработи
вѡи
тимофеев
зерца
дверьми
софии
морозов
кореневе
равьнъ
начелꙿ
вдруго
въскрьсению
скыта
а҆ссѵріи
##метриче
Новегороде
Аполо
Ннѣ
Рь
Сіе
Стре
бр
бгомъ
оною
пси
сходи
тщи
эта
ѕі
іере
ѻбра
##шꙿ
##гру
##ада
##вріи
##ус
##дї
##ѡв
##ѥвъ
поть
почъ
##кос
##лар
##тох
##ред
##навъ
##ринь
въо
въме
волен
##жекъ
дошли
гоне
свого
##дошя
##стьно
ниѥ
кажеть
каторы
##щевати
оусръ
##лѣти
##жамъ
паше
извер
вал
малѫ
малъмь
препрово
##пает
##оволо
ливань
саженеи
выбля
чесно
рускаго
тиро
мѣт
##мым
бѣгъ
##жьно
сущих
чистить
чините
подꙿ
беззакѡ
сладъкъ
възме
##ровне
ᲂу҆клони
логи
сьі
верши
государевою
чюжей
благодат
##утрь
Коз
сторонамъ
посадъ
##дѹще
##вѧꙁа
федорову
началѣ
родивъшааго
запасѣхъ
подъклонити
михаиловичю
сквьр
##шеноу
взята
Рау
##ковые
помин
неиꙁ
повѣждь
соубо
Проме
любили
михаль
купить
жаловане
##ствовалъ
подобію
хощꙋ
целованию
приятеля
глаголють
Рекоша
птици
емлеть
въселен
веселитися
съгрѣшить
столпы
совѣту
конюшен
оучитель
создания
приводить
срѣдѣ
черниговь
пользю
хвалимъ
н҄ь
сьрдьци
уроженецъ
составѣ
укажетъ
волостем
##лєніѧ
малѣмь
заповѣдаю
Глаголи
вселенней
прѣдꙿ
микифоров
феодору
диак
желчь
Исус
##фроси
лѣнися
договор
воѥвода
сп҇ніе
возрадовася
шестнадцать
потира
Бъ҃
шириною
і҆ѻрдана
моѵсе
съзъда
Третья
трафимов
мн҄ѡго
наиденов
Лѹ
Н҃
алъ
адь
вѵ
влез
демь
езы
инѡ
ипри
опи
орю
считать
уг
углы
углу
хсъ
##ѣе
##тове
##ржати
##лї
##дєи
##ꙁно
##чето
понꙋ
наль
дога
ник
##льць
##шиими
##оваше
казы
съту
##стать
##рьби
оты
##бора
табли
##ческое
ст꙯
стрет
##вѣѥ
оустави
микꙋ
##ньныи
изьі
##ходъ
хощемъ
къжьдо
##дучи
градѹ
##сласть
разры
разлучи
##цеве
##соѳъ
возмете
бѣдьно
мечем
лѣности
прѣчю
чаю
бири
полоцких
##сповѣ
имамы
црт
единыя
##новꙋ
##дяху
бабу
вратом
златѣ
приидетъ
Воле
царские
болꙗ
тремя
пѣш
западъ
##ковой
михаиловича
гл҃го
воеводою
##ющем
пріимати
неиму
кротокъ
Съмьрть
митрополитом
патриарше
немъже
ꙁемлѭ
днес
##хомсѧ
десятки
размѣръ
варвар
слез
творѧху
роукоу
иоан
свести
правитель
о҅тъвѣшта
многымъ
##щениѥ
расхи
моужа
погрести
поношеніе
грѣшных
полях
мꙑсли
водныя
троица
Тогож
Любя
отпустит
Видѣвше
##н҄ѣ
заплатит
костен
другия
сонце
приꙗтелем
архиепископы
гюргевъ
премудрости
Михайловича
роспрос
статьяхъ
приѣхал
одѣние
слꙑшавъ
безбожныи
тельца
закупа
помысломъ
простьри
гордыни
тьрпить
##лньце
осквьр
уготовано
кунгурѣ
въздъх
погнаша
прелюбодѣи
штедро
мануилова
мансу
дръꙁнов
овамо
опроче
є҆ліс
ѡ҆полчишасѧ
сабурова
потрьпи
таблице
Ере
Ию
Нꙑ
идите
кове
ож
одѣя
сҍ
тѵ
тлъ
уж
яну
ядови
ѹга
҆ю
##щныя
##што
##шете
##бне
##кію
##ѥже
##йер
прм
##лахо
във
кощѹ
боров
борти
свомъ
##мошка
##шается
##неза
ратꙋ
##чика
##сави
##рьскаго
##жины
оугри
##бимъ
##жающе
парени
памети
валу
мамка
посемь
роби
робя
рожде
беи
лишкомъ
вѣсокъ
##душь
##меѧ
высѣ
жидовъ
жидовѣ
##бавить
##гиѧ
ношаше
оберегати
разши
разными
стоа
Пом
мѣлко
отъвѣта
вьни
полкохо
##стъв
дуло
дуговую
##менемь
##бят
писаному
ласки
подобию
##арфме
рублей
знаменемъ
##утче
##жъство
кимъ
роздав
приимше
посады
крестьянъ
тѧжѧ
всѧкой
плодовъ
андреи
бл҃га
меняли
ходиша
ширины
береженіе
##нѫтъ
держатися
чловѣцѣхъ
##леми
##веденъ
##ченїе
##коупи
пушкахъ
должен
горѫ
класть
инде
инными
воронъ
Кирила
дꙋха
кралевства
молвлено
мѣстахъ
никаков
людьѥ
устроеніи
врѣмени
прямому
золоты
глаголаху
тысячи
каменными
красной
красною
краснова
огненную
седло
хорошенко
оставилъ
двумя
свез
вь҆сѣ
верховой
повиновати
живуть
климка
завиди
узрила
толк
сирот
игнатей
игнатьев
направленіемъ
пушкарскомъ
наслѣду
##веніи
установить
##емых
##емыхъ
сенныя
шанцу
шанцами
погубит
простору
десную
троици
исак
карпову
оброська
станислав
филипова
рѫкоу
жезлу
нарядѣ
четверогранце
четверогранцовъ
амин
ловли
аггел
аггель
середки
внука
снарядѣ
аврама
Байер
околничей
пребыти
##ровыми
девича
сливы
уголье
угольнаго
##чок
избрати
Възненавидѣ
нѧже
требуютъ
веселѧ
кобыла
прѣстола
ѻ҆тцємъ
имянем
Живет
принесетъ
оумѣла
прямымъ
спросит
пустых
вышиною
прохорка
бесплъ
верьховой
защитныхъ
никифорка
170
дверми
прапоры
раждает
кояжъ
карауле
перепущати
покамѣста
трегранца
подымается
пеньков
кузька
Великому
съмръти
опознати
Россіи
первушю
матюшка
вборзе
верховая
##стрійскому
цсрѧ
остерегатися
самꙋилъ
обстояніе
дочерью
кенісh
бл҃годаренїемъ
Ничтоже
пракошка
накърми
Елма
Здѣ
довъ
дрѫ
зверь
истре
кю
оправда
рю
утрь
хмель
чсто
юръ
ѹтра
ѻнова
ѿмѣ
ѿстѹ
ꙋже
##семь
##словѣ
##идеть
##тение
##пꙿ
##ꙿми
##нхъ
##ѧ҅
##ами
показы
насталъ
##тима
неꙋ
##ноѫ
##нико
даяния
воȥ
востав
##жечь
примо
##тъка
доне
донь
##деб
##леча
себ
пропи
сътъ
отдели
отколе
##нъка
##нуют
оумы
оутро
оукла
михе
люба
##мѣтай
сиѫ
сидя
пал
тешти
маія
ходъ
##любо
бешти
всее
вѣтромъ
саль
дѣꙗ
руци
нои
##зает
##съла
тысу
##нѧтръ
мѣсъ
мести
меѳо
лѣс
##оуть
нѣмь
перева
безна
##л҃а
възведи
поклиса
часты
твоима
единым
госпождѫ
##кѡмь
бояря
грѣхь
богатѣй
человѣком
вратѣхъ
предлага
Александровъ
Костан
прии҅
нашие
товаромъ
печаленъ
тьи
ѡблѣ
великааго
богатый
пустое
подаетъ
очишт
истинъ
дъштерь
свитъ
губи
возможетъ
##твари
Божиемъ
Пав
чистотѣ
головника
московскаго
богонос
##шѫѧ
молвити
ꙁемлѣ
братиѥ
просили
четыремъ
##четсѧ
приготови
стрель
##рѡкъ
детям
прияшя
отроци
благословлениемь
бесѣдоу
рекоста
##брѣсти
дѣтии
пѹсты
##славиць
дрѹжи
##деніѧ
божий
кн҃зи
сильнаго
шестьдесят
хвалять
##словие
##гнѣмъ
ведаетъ
##ѥ҅го
избавити
наимь
крепостей
##тꙑхъ
показалъ
чясто
являетъ
широкую
большом
опаса
##ньіѫ
тѣлеси
путьмь
новгородьскꙑи
борисович
въсходѧ
смертнаго
мстислав
молѧще
срдцемъ
коври
клеве
припади
изволению
ѳеѡдось
убогыя
вѣчьную
и҆зыдетъ
жерцы
пьрвѣе
епископом
християнскому
чюжих
хр҇тѣ
полѹнощ
виделъ
кѣльи
ближние
вяз
посолство
останеть
приближися
въстока
облече
молчан
кртсъ
палицу
задницю
пещеру
печатьми
нифонтъ
въздыхания
голубица
ізволи
раждаеть
намѣстника
печеру
Милостыни
самодержцу
изымав
тмами
тьмьници
умираемъ
заболо
милуяй
бѫдѫтъ
дрьзновения
кюрила
штедръ
божъю
повѣстий
дожида
тмуторока
обрето
своѥ҅го
Дньсь
ст҃опълкъ
сокровен
евангеліе
внучатом
кнз҃ь
##ровлахіискои
аро
еді
звери
оце
орѹ
пелы
скра
сложить
ушми
утвьрь
шут
ѡсмо
ѹслыша
҆а҆
##шово
##рски
##рскихъ
##ахѹ
##лба
##дво
##ѡвь
##м҇
##кциею
##рала
##ноя
топо
въпра
приемъ
прилич
боч
зати
завер
моѣ
моленіе
морти
ран
рабь
##лься
создати
съгъ
##стааго
##ньскую
стадъ
изряд
##пари
роко
беды
всеꙗ
сало
выго
выписа
виномъ
дѣв
##чькъ
облич
##шьна
бѣхꙋ
исходи
прѣзри
безоу
стражю
лепо
перо
а҆н
##ныима
главе
##хино
имѣю
Томѹ
деръ
старосту
Вол
б҃ꙋ
царев
осени
осмотри
ослеп
боярскимъ
Като
Камо
поруч
##ченіѧ
##штениемь
Засви
анна
купчим
Тая
положишь
пьшени
##ꙑи҅мъ
четвертыи
горло
##имꙑ
губу
Прость
дьячок
##ытати
каменіемъ
слышите
красны
иосифа
приехать
племе
отокъ
конихъ
павлова
чюдотворцев
изоѡби
особы
многым
приемлетъ
##ркалемъ
##ловои
коломен
градусовъ
мл҃твѣ
прь҆
поживеть
прошлыхъ
икону
нашои
пятдесят
урочные
бобыля
носимъ
старѣишина
прр҇
суздаль
половинам
Московскаго
кѹпно
божі
Христовы
хотꙗ
зоветь
ученикъ
влдко
клѣть
чинится
отвѣдать
##слꙑша
салдат
##латъкѣ
столников
протяга
премꙋдрость
многолѣтное
съколь
Андрей
стязи
точьками
гърадусы
гърадусахъ
гърадусоѳъ
цыркалемъ
корчмы
оупокои
декълинацию
вьмѣсте
астраляби
выкълатъкѣ
сколкихъ
выемкаю
супъстракциею
сътрелять
мѣсъту
мортиръ
астралябиумъ
Ць
вов
клете
озъ
олова
огород
очью
ссу
уразумѣ
єѵ
ємꙋ
ѕлыхъ
ѡкси
Ѥ҅
ѫꙁы
ѹстрои
##иа
##лци
##ѫщаго
##міе
##ілъ
##стных
##раѧ
##нинѹ
##лопо
##реа
дарѡ
даяй
##милова
##таю
доспе
зае
мощеи
##леет
##льк
проль
##мага
оутврь
##нько
##чанин
##лѣние
патр
изгу
##хол
бестра
лику
пирѣ
##сея
##сецъ
бранитися
стобо
Посо
отъште
##жьше
всѧком
сяде
Боля
##вятъ
безвремен
ползѹ
страньна
иноу
сѣлъ
а҆минь
бояхъ
бояся
бояромъ
##дѧхѹ
##хии
лако
рѣзъ
богатому
Госпоже
приидох
рыка
судному
мьзду
ризꙋ
печал
сꙋща
злобе
порука
отдана
сроди
пꙋсты
земляхъ
богослов
внидеши
##ѣхаша
середу
семью
стоячим
предаю
россіи
невѣдѣ
отроко
##стꙋпити
десѧт
приехавъ
##мѡмъ
почтити
крѣпостію
дроугы
дворянинъ
книгахъ
##женых
слѣпъ
приемше
повары
вѣчное
мыслию
собоѭ
собора
царевичю
патриархову
скипет
аврамъ
записано
##довича
сѣдѧше
Сьр
зълобѣ
дьржи
тиуну
правьдьнику
ѡчима
##вꙿше
мьньшиихъ
разумъмь
хꙋдо
возлюбила
християнскую
днѣпру
въспомина
закладе
пенѧ
ц҃ркви
нифонта
разбоиникъ
никогдаже
оцѣстить
леѵіт
нечьстивыихъ
словесьмъ
превозноси
Отьца
цьркъви
разѹма
всесожжєніѧ
звѣздами
Бж҃и
ленивъ
целовальником
съмотрен
Мънози
Огнь
ꙁависти
обрѣтше
риторика
безчестие
Правда
лактеи
бонѧкъ
шестеро
драгааго
съгъб
Ефра
Лꙋ
дна
екто
иꙗ
ибѡ
ишть
кроу
пп
сʼ
Ѡб
ѥꙗ
ѳла
##тнаго
##ѫщѫ
##дє
##юштиимъ
##зенъ
##ꙗны
##҃с
постои
наб
##рапо
##нивати
##ложени
##ваны
кой
##жела
##стьлѣнь
##неви
ратъ
##льши
соя
съставить
##маꙗ
отчина
отсылати
##скре
##няють
##мѣти
##жааше
##вещен
##ерек
паи
мама
пресѣ
посника
##хавъ
лиша
вѣнаа
савѣ
дѣва
дѣдъ
##себе
руно
разидоша
##зать
Поса
отълу
##жьнои
##енецъ
##кыя
нѣст
безчислен
възненави
гла҇
лоб
сьм
і҆е҆
мыша
писаніи
трии
Той
человекомъ
##ятие
диако
Александрово
старостию
хранятъ
разумы
розныхъ
пожаръ
коупи
гл҃аше
спась
шага
##неніи
житиѥ
гулять
##ленои
конех
Богъмь
одново
война
богородица
крилъ
силный
почти
птицъ
пожже
емлет
пособ
дрѹгы
крѣпостью
посаднику
селищь
особи
направо
имутъ
лвово
вѣчныи
роману
орга
Сузда
ереси
тѣлесе
дышу
карповъ
надѣя
ꙁлобы
поволно
##боуди
рѧзань
разꙋма
одеждею
ѳедоровича
девицу
прокофь
є҆гѵпетъ
##ничьих
правьдьныимъ
любъве
исполнити
члв҃ка
смрти
галичь
прѣстолъ
прѣстолѣ
играти
облиза
беспло
анаста
въздвигнеть
въмѣнить
исповѣсть
ѹготова
сичко
стрелцы
поѣхаша
крепки
и҆сповѣ
начьнеши
змеи
сторожахъ
##слоуша
властелинъ
заоутра
димитр
пророчества
отъпадеть
отъпадеши
съгрѣшаю
побоища
дрѹгѹю
смолиньску
покарѧти
Пьрвѣе
духъмь
мраморомъ
Давыдъ
небытиа
сѹгѹбо
воспитати
нечювь
наимьника
Простьри
Сьрдьце
Діа
Екимъ
Лвова
Сту
Тру
Удобь
асо
бдита
гѣ
омый
тще
уничь
цимъ
шпи
шве
шпантъ
эфъ
ян
єще
ісоу
ѧлъ
ѿца
ꙁра
##сное
##плѣ
##рця
##амꙋ
##лникъ
##ѫѧ
##ѫѫ
##юштиихъ
##юштеи
##ѡве
##҆де
##ченье
##чкой
##30
##Іс҃
##Ко
назов
налезет
прлага
##енковъ
##лите
##рали
некому
##нички
##нако
##ваеться
въво
коси
даной
востро
##митъ
приговари
прилетѣ
годом
гостеи
сводить
зате
зачати
забуди
##лець
ранено
##чишко
ничъ
##стит
калену
соѳ
соору
пролия
сътѧ
съкър
тае
##чеву
##дѣтъ
##нѣние
оувы
оукры
мила
минут
##ньке
##рыски
сидѣлъ
пакви
##дъх
ваты
маремъ
посѧ
поскърби
речам
##дьныя
##щиках
выморо
граждя
пикою
вих
рукой
##чьну
##чьную
облина
разсꙋ
##вуму
столомъ
##сотной
возмь
возлет
возглаго
отъступити
отъступай
отъвраштя
отълагай
пута
суште
сушти
сушта
суштя
##зъмь
чинили
Даяние
иваномъ
нѣмъ
##вяжи
перебыва
пересматри
безденежно
указныя
полной
слатца
всяцѣми
възу
възглагола
възглаголеть
волосова
ᲂу҆бі
бояштиихъ
милому
##ставлен
##дяшту
свѣштя
Вънимай
ученому
царьмь
поидетъ
##штею
багрѧ
чертову
видѣмъ
##дꙋт
дѣланьи
враново
тъчью
убозии
корени
помочи
блгѡ
хранять
киль
розступ
посаде
молишися
конское
конския
##шууму
суднаго
##езжие
самоц
##штими
##ждении
больницы
большяя
покара
оскърби
подъзира
##цоа
угождь
берега
малоу
малом
чловѣкь
##лник
##лничей
##штють
истичютъ
отдалъ
Зала
покорениемь
покоание
купцом
купчина
григорова
##мышляя
борисꙋ
рѹкама
пьря
житий
Ильею
убиет
записми
##чяють
Садился
ворона
даниловичу
покланяти
тамошине
##штяеть
##штявай
##штяяся
третьей
разумѣють
зъдана
молке
служилую
целым
внидетъ
Христе
хинской
устроена
врѣда
Господьни
Господьне
Господьмь
служя
нынешняго
бѧшеть
вышеи
обрѣтая
вьсея
поусты
стрелу
стрельцов
поместьям
размѣрять
Петрони
денгами
тысяштя
##рѡм
октебря
ногатъ
глаголюштяя
##стꙋпа
101
фате
материубийци
вьсяко
вьсякою
вьсякомь
пожрала
емляй
пятисотной
съгрѣшу
съгрѣшения
##щꙋтъ
стьзю
срама
никиты
съвѣштя
имели
смотру
повинятся
фор
##гоутъ
обеихъ
обесели
живуштя
гиръ
Лиховидов
угодьна
съмѣрения
съмѣрену
Лазаревича
Лазаревичю
королевскаго
солодъ
цьсарь
васю
##нтихрі
кормили
чясъ
имуште
вѣчных
сельцу
гефрей
Дариева
грѣшьнику
мыслий
небесная
кꙑѧ
почестенъ
посѣштя
Душя
приближя
глуми
карпра
третий
земльное
погынеши
пользѹ
одеждю
киевски
Тесали
заповѣдий
сьрдьчьная
##жяеть
##туюштааго
небесьныи
рыцерскихъ
печальнааго
авраам
сосня
печатныя
срдця
неделщиком
матерьня
волостелей
воровстве
Божиямъ
олфер
дѣвице
ковши
одиннадца
везетъ
скърбии
женьскѣй
ѡл꙽ло
добыти
убогыхъ
убогыихъ
престани
правьдьныимь
холопех
Лебядь
заложить
македонянъ
пьрвыя
елде
сотная
съкрыхъ
съкрывая
истиньный
кънѧзоу
Стратиг
прѣмудръ
мудрыими
рядовой
##ркъвь
волхву
свѣтьлыя
гърдыни
закручинился
чловѣчьско
чловѣчьскыя
порутчики
умьнымъ
Доброты
прутиемъ
сътворять
радуеть
##пангоуть
покланяй
Антиох
шъпангоуть
откупов
масломъ
отпускныя
плачються
научишися
Созомену
убойство
суздалского
разумиву
разумивый
приемлюштю
стерце
стерково
помагая
цвѣты
Емуже
плачися
любяштиимъ
любъвьно
пристанища
сръдꙿ
жалобника
чьстиши
Авдо
іѡаннь
крайны
птах
ненаказаныихъ
грозень
въздыхай
мостовщину
мартемь
вышьнему
задво
гвозди
встречаетъ
раскай
Картаус
прѣзьрѣхъ
умолочено
оцѣштение
олексея
трьпѣниемь
девкам
бештьстие
бештьстьи
проливаяй
Давидомъ
съвьршилъ
мьрзость
Солнышко
Страхъмь
црквьныя
оставляет
##фимья
Стеркъ
Фараону
убогааго
Отьця
внезапꙋ
полоняники
ступание
илї
Вышьняаго
воспрос
кр҃щ
приходяштя
урядником
урядническому
угажда
отъвѣштавай
приобьштение
приобьштай
послушяние
Вьсяко
Вьсякого
срачицѣ
трѣбуеть
Околничей
Нектанавъ
дмитровском
глиною
переписных
шурмованье
възяфъ
съподобита
иоум
чреваты
понятых
сыновья
храбръство
уреченный
выслуженые
послушествовали
изъимаша
начятъкъ
удобѣе
удолеет
скърбьхъ
възирай
неправьдьныихъ
дъвоязы
##долища
отъвѣштявай
Юрьева
поразумѣимъ
отъкрыеть
мушкет
повиньникомъ
Тимофѣевъ
Богьмь
зачнет
цьркы
житейскаа
##носяй
##беруться
саржантом
възвеселить
дворцовые
Чьтый
геронтья
Разумѣх
чьрноризьца
Гюрги
промежутком
потрѣбьная
оверштевена
покываеть
галански
забъвена
замьдь
Утропъ
въздьржяние
прѣмудряй
милославскому
дъвоици
наведения
канъцахъ
капитану
Еписти
съматря
чловѣкоуго
безхитростно
въспомянеть
накупь
цвьту
съвѣдѣния
адицоа
Праздь
Минчитрия
ластовици
голансъ
посвистомъ
распытай
милуйта
изьедят
штедроты
стоборию
отъштетити
шпантъгоуть
паквин
ватысь
возлетять
45
Дне
Зло
Нетъ
Четы
блѣ
жта
идѣте
кере
снѹ
тꙑи
телѧ
усла
ѡдержи
##плы
##щема
##жские
##чнику
##ρι
##꙯и
##стров
порѣ
полев
нак
наска
##лисе
##тость
##ришь
##ринов
##емлѧ
##дице
##диемъ
даше
воѣ
вождь
вообра
жеꙁ
##елнику
принима
привидѣ
##муть
ранами
и҆менемъ
соля
прорица
съсѹ
##сал
откуды
тапор
##живати
оузрѣ
маџ
преврати
реш
##луетъ
вѣжь
##щам
##дьть
живь
винꙑ
##баки
воззрѣ
судо
такожъ
##телное
чаша
иноѥ
##менѧ
ᲂу҆мно
перфи
владимер
Надо
Написа
видѣвь
корол
вотчинѣ
##лꙋша
##пеи
рублех
##вшемъ
молитвꙋ
##шуся
ризъ
тѧжа
мѹкою
родила
##ждает
##ствуетъ
цѣну
речки
скрови
поповъ
злою
Мужи
дъл
##ющыѧ
Такѡ
троец
Съгрѣ
##леною
работе
Отвѣтъ
патриархом
с҃тыи
врѣдъ
просил
правому
заповѣдемъ
единогласно
##шꙋю
Иванова
##бѧт
старыи
григорьевича
нижегород
ѡбитель
прияхомъ
ѡбразь
члкъ
числом
самаріи
ратные
погост
житіѧ
##гошасѧ
авгу
посадцкие
михайловича
лвкь
мудрому
боюся
колес
птицам
боисѧ
##т҇ь
наоучити
извол
антоніе
пагубы
потече
англ҃ъ
мудрыхъ
недостоинъ
василевич
грудь
Христову
лариво
Анто
прелесть
прелести
феврарѧ
домочадцы
съвокупи
вънимати
совесть
блаженааго
закала
весело
слабость
Помилуй
харито
павьлъ
закричалъ
Бг҃ъ
оржанои
херꙋві
Бере
Кр
Мѫ
Смотри
Фо
иі
ижь
мю
снѧти
ыс
ѥ҃
ѥсь
ѹстра
##сеніе
##тче
##тными
##шніи
##рго
##жня
##мки
##кел
##ꙁар
##ѕы
##чловѣ
##ꙙти
##ꙙштоу
##стны
##стово
поре
пожени
постомъ
попира
##тири
##тиваго
##ноѣ
##никꙋ
##ницѹ
##вагѡ
въпрос
коем
жерь
##таны
приставити
застѹп
##шакъ
##лъта
и҆ст
съписа
ведет
вечную
тате
##мьскаго
##ньки
##жаю
станех
васѣ
рекꙑ
беси
вѣд
будть
вижю
видали
разруши
##овица
##заръ
##шько
возгла
##нѧꙗ
##нѧмъ
##мыимъ
##лѧхꙋ
суморо
прѣти
всѧцѣмъ
##праз
##телство
челова
полторы
чадехъ
##шкат
дубу
мурав
лестью
сѣвера
##сповѣда
ѡ҆пꙋ
едином
господар
грѣшъ
і҆дѡ
дьрь
##зокъ
Наи
видѣвъше
##датию
Колко
томже
Вотъ
продаите
петром
тр҇
бесчин
ѡбер
##ждаѧ
Согрѣ
скуд
ходили
##гнати
Сих
##лоучи
англъ
борисом
казати
обол
сицеваа
илья
гуси
срока
хрстиѧ
московское
вашею
молꙗ
молвить
##четвер
кричать
искуси
семеновичю
тꙋю
драгое
татаровя
таковыхъ
первою
ѕ҃і
прислали
гибель
авгꙋ
##городьци
востани
прикаса
многых
кормилъ
виновата
грѣшныи
поимаша
любовью
женится
слободно
##стѫпа
бц҃е
федь
неволю
руках
словесем
принося
воровски
неправда
послꙋшаите
глюща
##смотрить
денежнаго
успе
утѣши
приступити
Блажени
видение
самодерже
утверди
одиного
понама
лутчее
сапоги
##ющимся
Свѣй
ѡбаче
тимофея
пещерѣ
преставль
выехалъ
живоначалные
солнеч
лазарева
прозваша
Иерусалима
оуроки
наруга
приимуть
павечер
верховный
веселье
##кгимо
Црт҇
бца
дшев
еоу
жтіе
зле
нш҃
окра
тры
уны
уничи
хев
ѡва
ѳевра
##тцкому
##шком
##нел
##довы
##кѧ
##зеть
##ѹрии
##лилась
##лас
##нивъ
##рои
##тьа
тора
вълага
въшьдъ
коихъ
досу
дошь
мосе
ниско
##къвь
солъ
отм
оттуда
оули
оуꙗꙁ
##скоѥ
валѧ
прежъ
рееть
##ряет
вѣкьі
##лыга
дѣлѹ
дѣяти
##гию
##скаи
##нѧют
##быти
лѣтѣхъ
##ленно
испро
прѣкланꙗ
кунѣ
безь
ползѣ
чадь
печѧ
а҆за
ималъ
василевичь
грѣсѣ
##ставля
буква
мыто
рѣше
Нау
имѣите
##славци
словомь
ѡтписа
блажени
царское
молитвꙑ
петри
насꙑ
пѣрѣ
плотью
въꙁвра
##ковое
Мария
цѣла
цѣлъ
Соколъ
##нѫт
боярскихъ
поручные
будущая
наказанию
Тѣло
здравии
днеи
##вꙋю
свѧтыи
тысяща
##торого
подвигу
истори
дръжѫ
блгодѣ
прислана
слꙋчи
крыло
малым
всеволожа
лежало
##ихꙿ
уставы
роман
прьвое
ꙁлата
пльть
монастырские
##шенаго
Лѣпо
##неных
ростовъ
Блажен
ѳедка
въстокъ
литовские
литовских
зряще
текутъ
повороти
възъпи
солгал
тарасов
блг҇ви
инѣми
##изволи
десницею
дроугоую
съпроста
Деревни
кощѹны
23
Злата
Мр҃
Тѡ
Хр
а҇
гар
збы
лен
одра
рву
сїѧ
срь҆
тмо
хль
чрь
юрг
ятъ
ѡри
ѥз
ѻни
ѿходѧ
##тго
##цръ
##шель
##гⸯ
##жца
##ж҃и
##ак
##хр
##дной
##м҄е
##ѳі
##єва
##чія
##ф҃
##фѣи
##ꙅ҃
пори
напъ
негово
##намь
##вамъ
##ваме
жеи
прик
приславъ
приправо
гонити
свода
мошно
##мода
##неа
нитоже
сох
прощение
##сава
веро
павел
тече
пирова
видел
дѣя
##сках
##съка
возне
отъидоша
бѣдъ
вьда
лѣка
##ндре
прѣпрово
##н҃ъ
полские
чадех
володи
едини
##менѹ
і҆҆
слугу
властию
луке
триц
имѣюще
темници
никомꙋ
николꙑ
предлежа
дикую
розря
трново
тѧжѣ
всѧкомꙋ
грв
ѡбнов
смона
великаа
держаше
порубе
порухи
##фане
купно
рѹки
долга
пѧтокъ
гордость
гордости
і҆и҃лемъ
градѡвъ
возможеши
Прочее
воротити
строки
##шениꙗ
полутреть
##леные
двєри
##ствоваше
хотѣше
принесли
стреля
нареко
крестьянские
крива
тысящь
семеновъ
красное
отрокомь
##щом
благословению
фал
познанъ
##щꙋю
праведны
царицу
съвѣдѣтель
вѣдаютъ
крымъ
худа
овенъ
каменья
написѹ
пъл
діавола
рѫкама
снѣгъ
скири
агглъ
щитомъ
хрстіа
епсп
епспъ
козле
Иосиф
болгарское
девицею
другыи
третіе
называет
повелит
беззаконіе
варѧзи
прибѣже
хоула
нечестивыхъ
нравом
молчаніемъ
тобоѫ
брат҃мь
Нынешнова
съпас
всѣволода
боляры
нижнеи
копием
смирения
чистымъ
смысла
Ярослав
объявляю
метелнику
ходатай
сотона
понуди
зрѣніе
озеры
Пречистая
Стефанъ
бесконе
ᲂу҆чн҃цы
переменити
рыболовъ
презву
целуетъ
сугубо
кодратъ
серебреные
вселюбез
іеромона
ѻ҆ц҃ъ
къснѧтина
шеломꙑ
божіѡм
Сми
брѹ
гнѧ
нш
рмѣ
рцѣмъ
тмѣ
ѧкову
ѱл҃ъ
ꙁда
##тень
##тіѧ
##шов
##гнь
##бнаго
##нги
##ьства
##жіа
##лла
##улъ
##ѫти
##мію
##҆но
посила
##ливе
##наѣ
##вата
##вахо
##рикъ
корь
комь
кобя
приѥ
всхотѣ
дожди
доеди
голи
завь
монѣ
мощь
селомъ
ничимъ
кака
кану
##рьѧ
быст
тавари
##ческіи
стену
оуре
оумира
милю
##няетъ
##лѣй
##бины
сидѣти
тебъ
##хода
великѣ
всегѡ
вѣко
вѣмь
грамата
ном
разгнѣ
сторова
##дыма
котории
##леннаго
##жьша
имение
имерек
##телна
##стесѧ
безви
полтескъ
думою
а҆мор
##менных
первыя
твоеѫ
семени
бани
черь
ѡтрѹ
шеп
приказов
##нꙑми
блаженъ
федота
тьлѣ
ꙁапрѣ
##нетсѧ
мл҇т
подъем
Собор
пороха
раꙁꙋмѣ
березов
##нѫвъ
Кара
##фанъ
д҃нии
##ющемѹ
грозою
пріидеть
казань
гнѣда
древу
почитаи
наказаніемъ
хлѣбь
обида
нбн
нѣкоему
михалѣ
никакими
водаси
золотомъ
нынѣшняго
весьма
108
честным
честнѣй
миките
обае
пръвыи
вь҆сѣмъ
имети
плъку
имѧше
храбрее
##ꙁьі
м҃ти
вдаша
имуща
яковлеву
мъногъ
##вѹю
кузмодемь
попеченіе
##ѳию
неволе
трꙋды
оустроено
искорен
ѡбѣма
155
дрѣвѣ
третьякова
являти
сѣдѧщю
племянником
невесту
приедетъ
ангель
досаду
соборных
ст҃агѡ
Московского
кꙋплю
##скѫѧ
##крѣплѧ
таковую
Ѻ҆ни
переяславлѧ
##говаривать
козаки
посълалъ
наꙋчи
Василий
вавѵлѡнъ
Владыко
заболот
убежати
вънеза
любезный
прилѣжаніе
ѡндрѣи
ѳилипа
Огнен
поѥди
птолем
ѧкиме
мучитися
поколоно
дарѹетъ
лопаришка
изрядно
а҅гг҄
въместе
паренину
Кде
Сар
Хѹ
Яков
алѣ
брь
глем
елма
еі҃
кс
келеи
мчн҃
оска
оное
окуп
ослаб
плеть
смꙋ
свать
смет
щко
яру
яду
ѡвь
ѧкоже
##ои
##тли
##есе
##гѻ
##рны
##ржь
##нкомъ
##нская
##дми
##ѹми
##чне
поеть
##тища
##еноу
##носо
##ниши
##нате
въло
въку
колу
косно
давай
##тагѡ
прикла
богꙋ
дода
доче
моемоу
##шеше
и҆доша
прогнѣ
прогне
съть
съта
отбе
отшед
веѳ
везу
##жив
##гала
##щести
оуви
лютаго
##ловую
избѹ
хождаше
робь
рожена
лицо
градоу
градех
стопы
##скаг
мѣс
##лѧди
бѣста
мети
##лені
ис҃
сули
прѣдь
прѣбла
прѣлага
иванꙋ
подвод
велемо
веліимъ
безѹм
указовъ
полные
възм
чарова
сѣбѣ
туда
##етеся
грамотка
первен
сьбра
подоро
дити
тягла
Колу
##нꙑи҅
царствѣ
нашеѧ
бывалъ
римь
тремъ
чье
Дону
мꙋжы
о҅нъ
скѵ
##ніємъ
Пришед
радостно
спасе
Ракли
кругла
ивановичъ
свин
е҆дно
##жнимъ
околь
надда
обита
испꙑта
##леному
трудовъ
коневи
хощѹ
донскихъ
ѡбразъ
подвигь
ст҃ыꙗ
##прѣсно
хороса
звѣздъ
пѹстыню
приступъ
кн҃ѧ
жьда
украшены
всѧкие
междоу
мужика
облакы
андреевич
дш҃ею
неправе
апли
солнцу
въспу
жол
жонки
виноватых
спасеніе
указати
##тръпѣ
желѣзныя
##точных
шуйского
погубиши
казначее
706
сказывал
ненавиди
нѹжѹ
пятен
пойдутъ
пр҇р
записаны
православную
катор
пострадали
##шый
голубь
зделати
даровалъ
потрѣб
женьска
шедши
утеши
##кнулъ
болѧръ
христосъ
денежных
##щеные
наставлѧ
игѹмена
промышля
оубии
умру
фрола
вязьми
судьями
костѧнтина
Праве
зовуть
##дивление
конопли
и҆мамъ
шол
перепущен
живоначалной
столники
##мьіш
сичкыте
дрв
блудница
цс҃рь
выслать
племяни
сладъко
Единою
чъто
индикт
Ано
Пако
Сре
врет
довь
злымъ
кер
новый
оцен
рова
укупи
чꙙ
яхон
ѕна
ѡи
ѡбъ
ѡрꙋ
ѧсть
ꙁдѣ
##сена
##церь
##шемѹ
##ꙋва
##двъ
##дмь
##҆нъ
##ꙑѧ
##οι
поши
попроси
прво
тобя
тобѧ
тоью
косы
дается
водя
##тав
богов
загород
замол
захвати
мора
##леѧ
##стьнику
##чичь
каꙗ
проша
прошен
##мань
вещей
##ганѧ
##чае
##бицы
сики
малин
реп
ревни
велице
лицꙋ
лишенъ
самѣхъ
вие
вить
чеда
##сев
##чьць
возведе
Пока
вьсто
вьзи
чим
##телница
подер
двожды
пересѹ
полную
странѫ
дуна
##ныим
ᲂу҆ча
сьврь
бура
лакѡтъ
воиску
##пети
учителю
арсен
болшее
##ехати
пѣвець
тѧш
сꙋет
въꙁврат
##нѡм
снастью
осѫ
михаиловичь
спсен
##жуся
радостенъ
поколе
рꙋко
##ненію
дворскому
славен
слѹжь
хрста
стѣнахъ
андрѣꙗ
##ствиѥ
обрѣтоша
дрꙋгь
золотых
ратному
таковыѧ
##нꙿна
весну
##пискою
естли
плът
посадници
прислаша
премен
немощно
алтынъ
избавит
і҆ꙋдєи
##сльі
##рмить
грѣшници
Естьли
приводит
вышел
игореви
попоу
гаврилова
ѡбрѣт
доидеть
Твори
приношен
еюже
приꙗша
вашими
присел
главам
воспомя
замки
Слышавше
татбе
прибѣжище
шелков
приступиша
переꙗславь
володимирь
##ѡбразно
постриже
благочестие
алексѣя
евангель
ѡбае
и҆сповѣда
Рѣша
питьемъ
постыдѣ
рауи
промꙑш
жертвы
ѡружье
мѹжеви
Бл҃го
имѹтъ
полѧне
а҆нтіо
ꙁнаменіе
лавках
Литовскую
въкоупѣ
Болгарски
лифлян
ыгум
Бꙋ
Кн҃
Мꙑ
Мла
ащє
бри
вжи
дла
дхомъ
жу
ипа
очною
оч҃е
омра
одьрь
пꙑта
сцѣ
ѡлга
ѹст
Ꙁде
ꙋма
ꙋпова
##тнъ
##тнѣе
##шмъ
##ѧно
##дҍ
##днѧ
##дную
##яса
##ꙙшта
##стка
почю
некое
##токо
въево
##дихъ
привы
прикѹ
прискочи
всхо
госте
##мола
сесь
и҆ск
созо
събы
събꙑ
сътрь
бышѫ
отня
##боѧзни
##живъ
оубѣ
оубили
##ньствѣ
сидятъ
ва҇
презо
превра
роси
розы
родоу
рожество
листꙋ
савы
##щалъ
##щите
##щисѧ
выехал
писец
##чьное
брашев
тиме
мѣдью
вьзь
иссѹ
подсо
Него
безлѣпи
##емьев
страдати
##еным
пеку
василка
ᲂу҆тро
людишка
буръми
гсди
имѣꙗ
дѣлаи
короб
гдрю
никои
##номѫ
##аніи
тъчь
сѹсе
сѹщю
динъ
ѻ҆баче
арха
кинути
книжи
рыл
тр҇ца
Миръ
##фонта
ꙁаб
грꙙ
млстынѧ
Марину
крсь
христья
подаваи
поручную
##ченію
последѹ
круговъ
привези
##ꙑи҅
казаку
иново
вꙑсо
высотѣ
кѹде
государевыми
ѥ҅динъ
похѹ
ꙁемл҄ꙗ
врѣмꙙ
##леных
##леныхъ
младенецъ
помѣшку
##стѧтъ
десятка
народѣ
##ченика
##ченина
Егдаже
искусити
следу
подвигни
драницы
поведа
желает
дръꙁо
тимофию
жьрь
шестьдесятъ
трьп
чом
чолом
##жѹю
мнстри
сестрица
прьвы
созданъ
млстивъ
крьвь
захаров
сребромъ
гѹси
скип
н҄ихъ
ꙗ҆зыкѡмъ
пр҇рокъ
приꙗтъ
##ѣзжаютъ
притчю
вселеную
бжию
припада
недѣли
чюдес
##чом
ѥ҅гоже
слушаю
потай
бобровыми
переꙗславлѧ
оумѣет
нечестивыи
бѹдѹтъ
живꙋщихъ
замужъ
бояриновъ
алексѣю
помѧнꙋ
крепка
непщева
суждалю
чюдовскои
є҆гѵпетстѣи
хотимъ
вылазити
Крести
##гнꙋти
Мамаю
третьюю
посмотрѧ
вражма
испьса
недружбе
десети
бисеромъ
ищут
и҆миже
скакать
вытным
търгѹ
ꙋзели
виѳле
державцу
оуказати
Анна
Вре
Дово
Ск
амі
асторо
вход
еꙋ
елень
жї
зни
згно
икра
рже
сх
урва
херу
щѫ
щешь
імя
ѳѵ
ꙁѣ
ꙋмно
ꙗ҇
##од
##цову
##щіа
##вета
##лмь
##ѡмꙿ
##їем
##ꙑма
поютъ
пораз
##готов
наь
прве
##тиꙗ
##ливали
нечест
##нины
##дитель
приспе
заши
заам
##теѧ
##теку
и҆ти
соте
прощеніе
##гаю
мишен
##ньски
пахо
станови
станешь
изме
хоцю
преидоша
посра
дѣтел
дѣлма
разбиша
тиоу
##овичъ
стоꙗше
##зама
##ция
воздати
чиновъ
##мерь
полкамъ
сласти
славоу
възвѣсти
възложити
часов
туча
##тяне
господеви
##ставливати
какого
доброту
святой
поидоста
##лѹетъ
Господне
тъгъ
сѹдите
ѻ҆ко
б҃гъ
##словїе
плоты
въꙁможе
слышалъ
##ртвы
западу
##ковою
Марин
михаиль
Собра
кровы
сплю
последних
дълъ
гробꙋ
смѣло
и҆змѣ
и҆знемо
кладя
запирати
##товер
чистотою
отпущены
московскими
потща
дьявола
патриархъ
##говоря
михалко
Тѣмꙿже
мнѡѕѣ
скорое
приготова
##ткаго
донской
искуснаго
##рѡнъ
слышиши
трапѣ
##лꙗеть
начнеши
вѣрна
повинова
гибели
монастырьских
##щением
поживет
медные
крьсти
мъножьство
дыни
грѧзи
словесное
сладкими
беру
бжия
##ловых
бывшемъ
Московском
побол
наказѹи
никифоръ
призываи
египе
годину
сръд
погыбель
чтите
ухватиша
матвеева
леѵіти
откуда
премꙋдрости
пономаря
вкѹшати
нарочитых
анг҃лъ
властелина
прибыльнѣе
позору
Блюди
Ѡлег
бл҃горазсѹ
ямам
страстотер
законопре
котѡрыи
добродетел
Вавило
херуви
Ажь
Аꙁь
Ажио
Астараха
Ву
Глѣбъ
Лутче
Новую
Оете
Олимпия
Тѧ
ать
вкладу
злу
ив
ирти
лсти
мҍ
новым
сметено
сцове
твьрь
уно
угово
улья
ухищ
хръ
хмели
шѹ
швед
юж
ѕпо
їли
ѡгово
ѡсквер
ѧбло
ѹбити
##сци
##иже
##шнои
##ржи
##нб
##жють
##лелъ
##к҄и
##ясы
##чҍ
##ιе
##εν
наход
нагрѧзнено
прлож
несто
##тошли
##нам
##риса
въстре
##диль
кожь
копѹ
воленъ
##кисло
принимаетъ
боран
##тък
долей
дошел
досматри
гого
гостех
##деще
раки
радѣ
рамѣ
нииз
##льское
##рѣмъ
##сима
какове
кашею
сокомъ
просѹ
пролом
проговоритъ
простова
##пода
##рьва
отказ
##нѣго
оутки
оуткамъ
##ньскомъ
измѧто
пресвя
великѹю
ростѹ
вѣль
вѣстов
вѣсово
##тыкну
вывѣ
вымет
высылати
пишите
вилен
вишны
дѣл҄ь
брагѹ
обсто
разспро
##дымъ
дей
княжи
##сьі
Поро
Пога
Покланѧние
бѣлый
лѣднике
исцовых
сумь
прѣдѣ
прѣмѣни
чинехъ
ихꙿ
подвои
подметено
##енои
велю
перепѹ
перебрати
взру
взговорить
##мѹтъ
##мѹты
страдные
дурна
инопа
полотенъ
леднике
а҆нтихрі
##скупу
##ровской
волостях
волотцком
црств
господоу
##пустить
радит
писанномѹ
вершенья
имѣють
поите
багрѣ
князья
человѣк
человѣкѹ
сѹдомъ
сѹшит
дивова
диꙗ҅
##кѹпи
арды
хралов
кибер
кирею
посадов
конной
##пѣгѣ
рыжики
судной
мьжю
запрется
болшая
мънҍ
пѣшіе
женка
женского
мѹжнимъ
ꙁавѣ
Дома
цѣлью
шидро
##гналъ
##ніка
скамъ
скажетъ
сплъ
поплесневело
Калину
##штати
д҃ша
походѣхъ
людеми
круп
круглаго
шад
шагъ
шатре
послухъ
дорожку
##ненке
пьѧна
свиты
свисту
оубогихъ
четвертый
сѫщи
убитом
полевых
обога
сицевыи
горсти
кладе
##гех
надпись
инное
соуди
святыни
срочных
##ховском
кѹпит
слѹгами
землямъ
любимое
третьему
кралевскому
вашея
водале
бл҃гочести
Видона
жалованя
семьѧ
подобнѣ
грех
хотѣнію
уездех
Ивановичю
вотчинной
поуст
стрелы
размѣрѣ
размѣчена
##ченин
Еруслону
Еруслоновичь
семъе
Ведаю
силныхъ
боудеши
кнгы
створимъ
собралъ
раздѣленія
поганого
весны
могучи
могучихъ
##креп
павловичю
молитвъ
верховыя
християне
мужиковъ
##ѣзжати
Старой
Ставерь
морсъ
солому
достати
достало
писаномѹ
примѣть
примѣтити
примѣчай
челобитчику
покрыте
ветхаго
плѣнъ
жолобы
игнату
помещика
пушкарскія
богатырския
напишут
##венко
грѣшны
##щихся
##ливай
опарин
млстивому
прѣдасть
послушай
видяще
простился
солит
кѡлико
дыро
долгота
і҆ері
осадѣхъ
выборной
четверогранцѣ
вѧлаѧ
##ѳии
гостьи
татьбе
татьбу
составу
ѡбыскѹ
Дружневну
Дружневною
пустиша
рѹкодѣльни
рѹкодѣльи
##нїем
отписывати
максиме
поместной
обыскным
околничими
Девгение
длъжьнъ
кѫнҍ
кабалные
кабалной
кабалного
кормовых
заповедехъ
гнев
гневъ
вселенная
ꙁнамени
лихого
душам
Лѣбедь
порѹкѹ
недѣль
закладную
ставцы
угольной
угольною
посулом
добычу
думной
архимариты
глюще
ссылки
ѡчищено
требую
осипови
Ильюша
блѹдникъ
давыдова
ѡставили
рыбнѹю
бесчествѹ
умретъ
порѧдню
оучнѹтъ
воскресную
проесть
спорной
седмьдесѧтъ
переꙗславль
старинные
ухожьи
дѣтьмъ
прохожей
одинои
именованной
полоцкомъ
волокиды
извещати
Ихнила
Ихнилата
королевичей
молчанїемъ
Самсона
свѣискихъ
помощникъ
кружальной
наследѧт
##ствьно
возложило
ступени
узналъ
Самодер
гавранъ
домовитомъ
домовитаѧ
##ригори
Болгари
приставит
челѧдь
любящими
а҆враа҆
святитель
Полкана
паробокъ
приѧтно
левке
напослѣди
домашнемъ
домашнѧѧ
домашнемѹ
разсѹдѧ
пивцо
богомолцы
вѣжливы
снегѹ
Пріѣзжаетъ
вторую
уморит
якуню
длины
длинѣ
неверста
порозжие
варшаве
прожиточных
откупы
гробницу
вымыто
оубытка
Роксана
ласкову
котла
аѳон
всполошное
ездок
провѣсъ
имоуть
хомутины
потравлено
полковымъ
составовъ
исцево
пръвосовѣт
воспроси
рѹбашки
Алексей
##хаживалъ
сторонним
ветчаное
княиненке
кѹпишъ
мартинкова
звѣздамъ
навѣсомъ
хр҇тіане
бояринь
вчерашняго
сѹшилех
дҍлѧ
стрѧп
атаманишко
покѹпать
повареннаѧ
святѣйшему
выслуженых
чародѣй
Келарю
ꙗ҆висѧ
дожжа
возлогати
рѣзвы
утѣсненія
полюбовно
Лукопер
еуагѥ
исѣкоша
патоке
третьие
ѡловѧное
дъвоихъ
дрꙋгꙋю
комисары
комисаров
дочерям
старожилцы
Пожалуй
оѳроси
заплакала
некраса
начертанное
вылазки
тимофѣю
Иовантъ
столовые
фредерика
Печатной
Объяв
софонте
дьячьею
кислые
вытерть
шанцокоповъ
оуксѹсъ
анбары
василевѣ
дополнивати
оукоризна
неждана
абросимка
осмотрѣти
ширинки
добыткѹ
примолвити
подалеку
дроздова
съехалися
лимоны
разсмотрению
ревнѹи
мешечке
ѡстѹды
грѧзные
гостьѧми
ополчася
чюжему
навьѧло
полѹнощница
пересматривати
елдегина
брѹсни
згноено
хмелины
вѣсовое
дѣл҄ьма
Доу
вдѧ
гряду
исо
олени
смене
удержа
шѣ
шка
ѡли
ѡгра
ѡнои
ѱал
##онѣ
##совы
##пцы
##рлъ
##рду
##рковъ
##ахꙋ
##дʼ
##мное
##кл
##клика
##ꙁако
##҄ꙋ
##ѳы
##ѭштоу
##ѕь
##лиле
несте
##ноте
##рока
##рил
##рится
дарꙑ
госп
##дому
загорѣ
##шаютъ
рацѣ
рагоу
рабѹ
раслабѣ
##стила
##къше
проя
съпь
съпротив
##рьское
бывати
быс҃
везе
##живѣ
оумо
оуклони
творе
стань
избыва
##паеть
родо
росту
беск
##щается
вытти
живымъ
государъ
ног
бранит
разных
##овищи
##зая
##заны
##нѧта
##лѧте
бѣсте
##рѧше
исходит
страхь
вологод
персомъ
радими
буе
моиси
луну
##евичем
имѣни
имѣнья
бан
повеления
предложи
дивна
галич
##вшесѧ
блгов
розвѣ
##нꙑимъ
##тѧне
мь҆нѣ
поклонь
##ездом
пѣшь
печалу
##пьрь
раꙁдрѣ
##гнали
отдан
рꙋви
##нену
тоиꙁи
воинства
##имꙿ
нꙑхъ
богома
михал
совле
подобнаго
сорома
крестьянскую
опѧ
##т҃ь
донелѣ
июдеи
глаголюща
трав
подвиже
кнзи
##лꙗти
почнеть
честный
поганꙑи
татарина
напая
пособь
рьвь
вь҆сꙙ
павлꙋ
совѣта
міръ
прикащик
достал
яковле
смета
Нѣко
поляхъ
орли
##ргии
еврей
страшенъ
равны
старины
єгоже
диявола
развѣе
съкров
монастырской
призвав
услышавъ
Лежа
давыда
кѹплѧ
поносити
Воиска
дружбе
выехали
болшого
лодьи
кр҇ть
послѣдьнии
Новаго
серебряны
поживеши
маршалок
намѣсника
дроужинѣ
є҆фрем
говя
живѧше
ондрюшка
кучюма
буквы
ноздри
вельями
беспрестани
2000
Нкако
Это
бдуть
вчини
гꙑ
двъ
ель
есо
ерем
итла
пс
устье
ѡспо
ꙋве
##пета
##еса
##щють
##ѫщоу
##ѥнъ
##ѳею
##чѫ
##стному
насыпа
##коно
##колюбе
прмѣ
##вав
##риꙗ
##дисе
коꙁ
кору
косте
##ныни
воню
прили
##дерев
зазь
моєго
мощьно
сес
север
никуды
каф
касо
сор
съꙁа
##стася
отдел
отписати
таи҅
оуени
мири
##чаны
##лѣꙁъ
##биць
ванды
посл
велици
бедери
##скиа
##беѧ
##щия
выкуп
##гино
рускому
##скалъ
##мыхъ
прѣвъ
прѣвы
кула
куров
полоцко
туже
туръ
бьіс
##евского
ᲂу҆з
ᲂу҆слы
рѣч
добротою
воистин
врач
вражь
сѹщь
дитя
гараси
хранить
приказщиком
розво
царствъ
##ровицю
болшую
товарь
тьмѣ
ѡбле
##полку
##ствуют
цѣлѹ
Мона
скре
раꙁбои
своѥгѡ
держава
злодѣ
милостив
писмены
Радо
анѳу
привесть
языкоу
слѹжити
списокъ
вашее
хотѧщю
совкупи
сороке
хотѣхъ
десяток
##дители
дрꙋгьі
стремя
аггели
целованья
беꙁоу
глаголахꙋ
июде
травою
ц҃ср
птиц
##вшему
##ковиць
пришлите
неправо
оучинили
соломою
цьрни
осоу
ведаешъ
вдалъ
лежат
##несет
побеже
собоѫ
сіѫ
мꙑсль
дв҃о
прошлого
вашем
захарья
въстати
трѣб
священники
ѡбрѣто
церковнаго
нашомꙋ
одея
двиг
благаѧ
падению
ненаде
клѧтвою
кирилова
девицы
воздастъ
благовѣщенія
телѣгу
##ꙗ҅ше
повелиши
кънѧзю
переꙗславли
рꙑбъ
торопь
есьмо
претво
бортными
переяславлю
Самого
изидеть
Моисей
##чищать
молодой
мартѹрии
саваѡ
храбрые
##лобитье
коегождо
абыхмо
і҆ѡавъ
борана
срцде
кудря
крепостях
Исперва
непокорение
гр҃внѣ
тьмами
смольнеска
глаголемая
Кеса
Гд҇ь
убояшася
ѧрославли
домажирови
олферьева
новотържь
подробну
напаметоват
растерза
и҆ноплемєнницы
чтеніи
Азь
Бяху
Пря
Ст҃
Сторо
Свѣт
вмен
глъ
гена
епар
инаа
оа
тпре
чете
юдо
ѡкова
ѹмѣ
##сныи
##шї
##рных
##брѫ
##нска
##нелѣже
##жника
##вми
##лзѣ
##хію
##ѡ҃
##кен
##ксу
##ѕю
подѣ
нане
прено
##тите
##тинꙋ
##лиа
##лиза
неча
##лони
##ваеши
желати
прига
придоу
##шагѡ
нищ
##рѣь
##тесь
сосу
соꙁда
##рьть
отча
вед
ведется
##дѣлати
##скїѧ
людомъ
илии
сидели
##стол
прешед
велия
##бѣи
##бѣли
роство
##дуче
живыхъ
дѣѧти
##сець
##чьть
##чьству
разжи
возлѣ
бѣх
бѣжи
местъ
правое
праваго
полтреть
леже
сѣи
##бьꙗ
##казалъ
первые
радила
сьло
сьмо
грѣхѹ
какою
писанъ
деньгах
времꙗ
ѻ҆че
блгово
повелѣнію
продалъ
ригы
нашихь
пожали
покаянию
##янко
раꙁрѣ
ходиши
поплѣ
приведъ
и҆зведе
митрополичю
высокую
##шениѥ
трупу
полуо
получити
##женина
ꙁемле
србие
нынешнем
свободны
##новое
морем
въсѫ
оставивъ
первои
дрѹгꙑ
тимофею
стьство
книгамъ
слꙋжи
##ешься
покланѧни
##женым
коиждо
помышление
востати
і҆ѡсафа
##днеи
красотою
сельце
впреди
видевше
мл҃тве
грѣшьнааго
апостоли
опале
въсакого
дыма
##луися
##скꙑꙗ
##ꙁомъ
помысливъ
нашое
доидох
погыбоша
пустилъ
авраама
исходити
оувѣдѣвъ
беззакон
офонасья
забылъ
ставитися
пріѧтъ
плавающимъ
ѡ҆блакъ
полтиною
леѵі
локот
отъвѣштавъ
принялъ
романовскои
пришъдъ
мѡѵсеа
Благословите
рюрикъ
архіереи
Семена
дозору
черноризци
батюшъкѡ
Абіе
Всѣхъ
Дроу
Здравству
Пꙋ
Хи
Четвер
анѣ
вкоупѣ
дрѧ
дхомь
инаѧ
кꙿ
новы
олекси
пеле
уа
урѣ
угри
фри
ѡправ
ѻца
##омо
##сія
##бнаѧ
##нну
##жнаа
##аха
##ꙁі
##ѭшта
попусти
##госта
навер
##коль
##лини
##нощи
##никѡмъ
##росъ
##торѣ
толка
възалъ
прими
принелъ
бочекъ
вспо
годе
годꙑ
##шана
##шань
рагу
растя
сева
##чивше
ниву
##шиимъ
##къви
прощен
отлу
отвести
стене
оугры
мине
##бимо
##бища
##бинѫ
##век
мас
манꙋ
пречест
посполи
##ряеть
##лука
##люсѧ
##бѣгъ
вѣстно
##дьте
выня
виною
видалъ
ною
номо
многꙋ
стогъ
##скава
##шься
##съше
тогожде
Посѣ
Помни
##кымъ
сурми
кунь
ѡ҆с
василия
рѣкꙋ
рѣкамъ
##гый
тритцати
##славѧ
менших
стрѣлѧ
нашю
кнѧзеи
дивьно
ѻ҆нъ
ѻ҆вецъ
василье
златаго
арка
##ниимъ
русинъ
словесѣхъ
москву
недовѣ
слышал
осмухи
бѹт
бж҃їе
##цѧть
скаре
истинѫ
##добро
марке
покоу
грома
грозно
свине
горше
нимиже
записы
волкъ
пꙋрга
третьꙗ
##леныи
правою
свѧтое
поустꙑ
поучения
народы
##ровье
оставь
тысящу
камену
отрокоу
познаша
въслѣ
веснѣ
веселием
пребывающе
зима
дворяня
свезли
велѣнію
роді
фота
івановичю
лукавь
црк҃в
жомои
взыди
восво
кꙑевѹ
##ꙁѣмъ
Быс
иконами
поперег
шьдъ
Брата
неправдою
Лѣто
приеж
феодор
Архиеписко
повелитъ
Слышавъ
##ѳеа
монаше
пишеши
сторицею
возвратити
пріемлю
ужасеся
задницѣ
минуты
овець
ярополку
ѻ҆лтарѧ
дьяконом
дмитрию
сеножать
облобыза
съмръть
҆҆ꙁ
бесконь
бисера
верꙋете
діяко
ѿнн҃ѣ
благодатию
поспольства
мн҇трь
чьтѣте
ѿкꙋдꙋ
доньдеже
7000
Дето
Идоша
Коу
Ненави
Рꙋ
Ц҃рь
ане
вѫ
вло
гса
дхо
езу
елена
емати
жте
клет
олѣ
ономъ
ополо
фити
ѡда
ѣже
##ꙿнаа
##ꙿскыи
##ѧніѧ
##лнии
##двѣ
##҆на
##ѥму
##ї҃
##ꙗль
##ꙑтаи
помет
##гомо
наволо
находя
прт
##воши
##енѹ
##ниі
##лобу
##вах
##варѧ
##рита
##ринѣ
въстан
въведе
вълости
##дицеви
##жедале
причести
причет
придох
бокъ
боговъ
всъ
доци
дошедъ
горить
##виа
##моль
рате
сестрою
##чиво
ниеди
##льника
##симу
калу
содер
веины
##ньх
##няа
##няет
##нятися
##лѣѧ
сиі
пат
малꙑ
реши
##скивати
выноу
витаеть
руке
ножи
обдержа
множа
##цеѫ
стоите
которꙑ
Потому
Поѣхали
мѣри
##быть
прѣмо
чимо
чинит
##править
##цько
безмене
взмолови
полный
всяка
всякою
чады
##бьтьникъ
ᲂу҆кори
И҆з
твоево
##дяхъ
Въспо
имѣют
противь
##лꙋю
николина
гд҇ѣ
##драго
дерзну
бꙑвъше
шеломъ
приказныхъ
приимет
б҃жи
рыжа
мьрь
бывал
ризами
##щеніемь
въꙁи
ходивъ
сътворихъ
малою
марков
Заха
сн҃ы
##ющимь
##неніа
пьянъ
смѣрено
казале
сѫщ
убиенъ
обратити
Събра
Съмотри
соудо
иꙁвѣ
##реніа
трудно
хотѧща
врѣмена
Вир
Латы
совсѣмъ
льв
свѧти
вьсеи
дрꙋгіи
золотъ
золотой
потребами
свободу
отьчеви
Вьꙁ
Вь҆
погосто
пророкы
іѡ҃
позналъ
##кладные
весна
крѣпостей
житію
дроугыи
##смотря
##возные
постник
##е҆мъ
крыму
##лисьеви
живущее
##стѹпати
сыщет
Старо
іван
Друже
узре
михайлович
показаша
приказать
приходиле
широка
соболи
соболе
въсадивъ
##дѣлано
##ѭ҄шти
карпов
надѣть
колѣноу
поворачи
##пустили
ѡц҃мь
возрадꙋ
урокъ
Твор
даваите
##шимся
гл҃ахъ
отпира
птицамъ
олге
носилѣ
псан
товарищев
думного
архимаритов
посланники
##вкъмъ
бж҃ию
вземши
смьръда
невз
отечество
днгъ
слѹжбѹ
известно
маслом
вопрошаше
суздалца
ѻ҆троцы
скорбенъ
цѣсарь
шкоду
сохраниши
##ггль
ѡбрѧщеши
грабежу
а҆враамъ
сергия
ближнихъ
лазорѧ
мълви
розданы
пивнои
вънидьте
прочаѧ
дрвни
##срьди
милует
7080
осьмь
заключен
выслал
мудраго
подписана
помьни
попродале
атче
вычистить
крщ҃нье
замъке
еѳимовичю
хртіане
клепание
дубравы
видьло
огроф
мелентьев
лобанова
полотенеца
плачетца
гордостию
Золо
грамотичу
Мстислав
полоцанино
хльбь
тъгъдъ
свинеце
ополош
взмоловить
Вз
Г҃
Свѧ
аско
акоже
брян
всто
есау
жꙁнь
идут
иныа
идѧше
оѯ
олек
оѳона
ремь
сія
ути
уди
устин
ьс
ють
яда
ѧть
ѹвѣдѣ
ѻе
ѿше
##еа
##еше
##цково
##шковъ
##ѧхꙋ
##лныи
##дрѧ
##дѡвъ
##ющь
##ꙁво
##чкова
##стнаго
позъ
повали
поѣз
покуп
наѧло
прен
##ливать
##рат
негаси
##лоти
тоѫ
причи
притѣ
присло
доме
##де҆
заꙗ
засы
моча
##мути
##нево
раꙁа
нибуди
каꙁа
и҆ліа
простеръ
отняли
татю
##живать
оутрѣ
##сквръ
изнова
валя
преѡбра
##кула
решет
будем
выдер
пишеть
живѣ
рукѣ
стоть
девъ
##гутся
##стыи
медь
тѣма
пудо
##тѣх
Богом
подса
##зилъ
нѣси
переписа
възѧлъ
часовъ
би҃
полоном
печера
а҆кы
василѣ
милостъ
##хин
власи
моисею
имѣніа
поиметь
вреда
##трити
##ележе
двадесѧти
гасити
ѻ҆нꙋ
Александр
старом
##краты
царскимъ
начали
треми
сꙋда
недли
коуна
добрыѧ
##ждаютъ
о҅ть
сътворимъ
сътворите
спѹ
правдоу
взятъ
Залѣ
Мужь
Таке
дород
дороже
житиꙗ
воинствѣ
пѧтѣ
наказавъ
володимеровичю
##цкия
митрополича
Патриар
дꙋшы
потрѹ
служил
с҃тыхъ
православи
##ствоват
одръ
гречи
##ткина
дрꙋжи
нарочно
юрьеве
искал
дворецкого
июда
ѡбраꙁѫ
красныя
Ре҇
имеет
##женыхъ
солод
##мꙑш
наслѣдие
поношения
пскове
псковь
приводе
вашѣи
златой
твар
зелие
родителеи
##н҄е
пятово
нб҃сь
искорени
отпись
олло
хреп
##ровѣи
здесь
чуже
ѡлло
вкуси
воспла
думными
мысльми
жеребеи
Михайла
старѣ҆
налево
свѣтила
держишь
скольку
рекам
безумный
петровича
костянтина
полочаном
убийстве
прѣподобь
и҆мате
свѣтлое
##ничковъ
смиренный
мѣдѧно
вещꙿ
источнику
изымают
Борис
токма
сщенꙿ
цр҇твовалъ
кланяется
изменити
і҆ꙋдеє
черниговской
называти
ѡсподарь
наталиі
аннушка
зеновъ
##рѣйши
нелѣпо
бескабалных
##ατα
пагѹбѹ
сꙋседом
прѣꙗмоу
ѡ҆лѵм
каторыхъ
65
Жел
Мѧ
Мер
Нет
Слъ
аі
вше
грꙋ
злую
истрѣ
идох
убавить
х҇а
шоу
яди
ѕѡ
іѵ
ѡны
ѧв
ѹда
ѹбии
ꙋро
ꙗвити
##ткы
##пп
##пленъ
##рʼ
##ровым
##нв
##арь
##дш
##кїѧ
##змо
##знꙋ
##ει
##ꙃа
навꙑ
##мъше
##лос
##лог
##ре҇
##тьнъ
въсь
въходить
##дитсѧ
кожоу
воевѡ
прич
болен
богѡмъ
годьно
гоуби
своды
##доми
мощ
мокло
##мони
##льгъ
соф
събер
##маты
##боихъ
##гаетъ
преѡ
прелага
роса
ростова
ропта
лишнее
вири
ручья
развер
разгара
бѣахѫ
межѣ
правы
правыи
пугви
сукла
прѣз
чии
##оубо
бездет
указомъ
полетѣ
##стът
всяком
а҆л
##етеѧ
глад
сьрь
дье
Тогды
##новичу
##скыимъ
дѣлатели
благопри
живото
животво
##трии
дватца
дерзости
##вшее
доведа
шестѣ
творимъ
благи
потопи
##ждеши
болна
начато
господинову
смотре
ослѣ
михаилом
гл҃еть
попове
отдаст
сн҃ь
анны
купят
долгомъ
смѣте
сѫшти
братана
##иметъ
митрополитомь
##щуся
славꙑ
строеніе
видимая
взѧтъ
имяху
ꙁемль
##леныя
андрѣевичь
грекы
хотѣаше
десятину
свѧтъ
поуча
стрела
глетъ
Петр
слезъ
недоро
именовати
##десѧте
пошле
доухъ
іѡ҇
познали
вѣрнымъ
стьіи
пятью
селищу
позде
надобна
завидѣти
колома
сиротамъ
##дневное
вѣчныя
виноватого
назаркова
грѣхѡвъ
##кѫдоу
изволиш
федоровиче
кѡсти
клеветою
хвалить
колтов
еуфи
словесꙑ
мрамор
##леньи
светлицу
съкру
неправду
неблаго
закладным
письмен
микулина
слоуж
однои
преподобнагѡ
ѣздятъ
а҆рта
належа
игѹм
прелща
##бавено
философи
Всякъ
исполнит
хеся
исцел
свѧщенницы
сохранитъ
струи
савин
ѡбрѧщет
Августа
пространо
и҆сполн
##вⸯше
оудариша
известит
метати
оцѣсти
спсеніе
стрѣлцовъ
боранъ
лодьѣ
турецкому
бж҃іею
старьць
і҆акѡва
іюня
передѣлати
пророческое
##хⸯте
##хⸯме
голѣма
създалъ
пригвоз
хоженого
подписал
нащокина
намес
ιз
Ини
Пѹ
вкра
еж
есты
иѣ
имо
истъ
ижден
оуды
пїѧ
пшена
рово
срѧ
схра
увели
уцини
є҇
ѡвы
ѧку
ѹми
##смѣ
##сіѧ
##иши
##щут
##шнѧ
##бва
##ннѣи
##новым
##влены
##двер
##дбь
##ѹмно
##ємь
##ꙗже
##ꙑнѣ
##фѡ
##ⱕште
##стерь
наконь
##тисе
##еннаго
##лины
##лища
##ралъ
##ропта
##тоѫ
##тома
##речены
токо
въвръ
дающ
##мите
приѣ
приѥм
всу
застав
завели
заець
мосто
##лесъ
##шаѫ
рака
##чица
нице
и҆мене
промол
съповѣда
##стаа
##мьи
оутробѣ
##жаніе
##ръкъ
изрече
маки
самоу
своеѫ
выма
вынял
питѣ
сыры
руская
разбо
є҆лицы
##ците
##цифо
##сътвори
возгре
бѣз
бѣдѣ
бѣдные
лѣво
##гъда
куми
имꙗ
иметъ
переко
полꙿ
полтѣ
стражь
странных
тужить
тугою
##ствена
единѣмь
ст҃ую
ᲂу҆шы
##новеніе
сьмъ
грѣхо
слух
ларі
деньгами
и҅мѫ
царьское
черная
дѣлалъ
##хаила
нашла
учитъ
сѹхо
сѹдовъ
рублѣ
помолим
##слобо
розва
потопъ
молится
б҃гом
рыбе
повелѣва
болшаго
риби
родивону
чь҆
покаря
##пьство
##янія
реченое
##ргну
скакати
спси
сплати
послѣднихъ
сн҃ови
закономъ
долзѣ
горта
молотить
Сътвор
домꙑ
##щутся
##ломѫ
данилѣ
кꙋнъ
чистому
пꙋт
голове
сретоша
подобни
принесла
вотчинную
алма
стоишь
бесѣдѹ
##битиѥ
ряда
смирит
таковымъ
лѹкꙑ
##нꙿны
въсем
племенъ
веселе
истому
дмитреева
##шеньи
срази
дх҃омъ
##слышали
никите
Израи
сильнымъ
авгѹ
Святая
въсемъ
таинъ
таимени
каменье
жонка
грѣшьныи
ѥсм
дв҃ду
изволилъ
##ѭ҄ште
русьстѣи
нарицаемо
нарицаемаго
разорение
##ковеска
страшное
колѣнѣ
рѧдца
ловлю
архиепи
трꙋда
ѣхалъ
комѹждо
поедь
##глаголати
Тии
козма
##ѣзжае
##жыти
почитали
судьею
парду
правеже
тиуна
алексеа
знаменито
жилища
члв҃ци
пояса
старинную
Развѣ
своєю
безумнаго
кровать
шкода
жєртвы
ѡбрѧщете
прельща
позвани
Кромѣ
целомь
дружбу
мр҃т
рожденъ
призывать
баранов
латини
богомолец
турецкаго
никитича
двенатцать
жаловальные
изум
свидѣтельство
сѣчахꙋ
діяконъ
выбрать
истерѧлъ
тархан
доложа
васьяна
георгиꙗ
брѧчи
Словеса
измѣнники
фарі
вдругоряд
плетью
Єто
Бѧше
Вⸯ
Гда
Ню
Слѹ
Хъ
жвѹ
ия
оч
одоб
рвовъ
снове
ужъ
эти
явятся
ѡсꙋ
ѻть
ѿтъ
҆мѧ
Ꙗвѣ
##тлѧ
##рских
##нра
##нень
##нских
##нцова
##ѧне
##жного
##лбу
##хнеть
##дла
##зение
##їмъ
##яри
##ꙗхъ
##ѱ҃
поꙁ
поблю
##тия
##личь
нере
нести
##кать
##каше
този
точками
въше
въправи
воѡ
дог
дошло
мосѣи
севе
ницъ
нимьже
##шину
##стину
и҆щꙋ
просыпа
##поша
##рьмъ
отрав
##нъи
вежѣ
##дѣноу
стꙿ
оузѧ
лютой
##чато
илие
ваву
мадіа
хобо
хочете
преити
посѹ
##паѥ
##паги
бедрѣ
сабель
честити
дѣльма
##гинъ
стога
стоѧть
##лѧеть
бѣдꙑ
кую
велъ
##цьне
перечня
безⸯ
безче
безсловес
##цѣм
ползы
мужество
скотину
плаваю
ѡ҆сꙋ
ѡ҆скор
црское
василемъ
первее
лоудь
милості
і҆ес
дьж
дьмъ
Въста
##гыни
Над
имѣе
имѣѫ
имѣаше
червь
человѣкѡмъ
враты
тъбѣ
тъщьно
государьство
##ниимь
Кога
приказнымъ
##пѣхъ
##пѣль
млти
##шкино
кр҇т
раꙁꙋ
своѥꙗ
пустоты
податеи
##трет
спалъ
отдаи
##ющоу
##ковыхъ
пѧн
починку
кропи
##гера
волных
строения
людьхъ
въдамъ
намꙑ
##ꙁъва
##виться
гл҇а
невѣжда
ѡбразомъ
красные
отьцеви
детище
слѫ
половиноу
роусѣ
подвиѕа
бесѣда
Хоро
начнуть
обѣтова
емлетъ
оставит
веселити
могуще
болѣꙁ
##вьрть
трьть
морскаго
івановичь
повѣдаеть
тысѧща
Василию
##чинати
наслѣдите
романови
поимаю
гръци
оброчные
умереть
евти
священниче
Князя
сказывалъ
колѣба
огньмь
церковным
церковную
пользу
нѹжно
лѣпоты
сюда
съкрꙋ
блъгар
кормление
прославилъ
клещь
##дрьж
скверны
рабынь
рабски
объявилъ
ѕвѣріе
бꙋдꙋт
ѡтрока
приезде
своєму
Путь
##десетъ
пріѧти
полочане
##ждениемъ
тобоѭ
стерлядеи
палицы
алеѯандра
государствахъ
башню
зꙋе
ондрѣя
спустя
Григорей
управы
пропове
узрѣвъ
француж
слꙋжбꙋ
колокол
сковоро
члвч
доволну
блг҃овѣ
прародителей
разгоре
супротивнаго
обозовъ
діакѡн
заѹтра
ѡ҆правданіѧ
построены
а҆вімеле
є҆зекіа
ан҃глъ
блг҃ослов
ѳѵміа
полуосми
Бѣло
Зме
Зову
Идолище
Олго
Орелъ
Пса
Пеле
Сморо
Украи
ачи
вклад
вжо
гж҃е
деме
ет
едят
знь
злей
злии
зрети
ило
лже
лкто
лену
нхъ
овы
оаг
ослоу
рзнѣ
сши
сбор
уха
улки
убавити
цоу
ънъ
ыеву
юмола
ябедни
єдно
ѡсп
ѡскѹ
ѡсподинь
Ѣдетъ
Ѥгоже
ѥска
ѥрмо
ѥсомо
ѥрмъ
ѥлбу
ѧно
ѧковъ
ѧковь
ѧрꙑ
ѧбет
ѱлъ
Ѳу҃
ѻлександ
ѻсподо
ѿказа
ѿпѣ
҂ꙁ
ӏже
ӏма
ӏване
ӥли
⋮в
ꙁрѧ
ꙗзо
ꙩг
ꙩна
ꙩси
ꙩста
ꙩсподи
ꙩкупи
ꙩсподо
ꙩфоно
ꙩвдо
ꙩсподарю
##гто
##геви
##рков
##ѧн
##жлѧ
##жія
##ахъ
##ꙋ҃
##уѕ
##дному
##юци
##ѥца
##ѥздъ
##здра
##чій
##ꙑваю
##28
##ȥъ
##҂ѕ҃
##ı҃
потво
пошолъ
наслава
налучи
##воше
##ласъ
недили
недале
нестере
##рочно
##натъ
##ваючи
##рините
##ритана
топьрь
въвер
вънѧтръ
##диню
дарми
дачам
дачах
воют
##тать
прина
привь
дошедши
гошити
##деславе
##вирти
заву
затво
засыпать
моз
##мок
рако
себъ
##чител
##ше҇
##шековее
##сиѳо
камѣ
кадець
соѳь
продѧ
пролет
прорыски
съдила
отсюду
вези
векоше
##дѣв
##жиша
##жися
##нѣга
##нѣцѣ
##въшоу
оупи
оуци
оустъ
оупоко
микꙑ
##еника
##бижо
твоӏ
сину
силоу
пах
панꙋ
пашне
теса
изꙑма
маце
малѧтѣ
хотъ
хомоу
хоцоу
прекра
послови
велишь
великꙋ
##луо
робоу
роспоу
беросто
##ляется
цасть
лиху
вѣстѣ
##душъ
##щаные
##беди
##мес
выпись
грамъ
пиры
жирѧ
жихна
жильцы
вильни
##баку
##еньтеѧ
дѣтей
сыт
сырой
рускои
нооу
ногоу
разѹм
стого
стоють
сторово
сторове
##дывати
##скамоу
##цинѣ
возить
мѣкѣ
медомъ
местѧт
вьсꙗ
вькшь
тѣшеноу
кушати
куона
всѧкѹ
чинь
имѫ
имоволо
Дажь
Дадонъ
подно
челоую
челобѣтьѥ
нѣжи
переставливати
безволоки
великог
полте
страница
страдны
##стъкѣ
възму
поклно
дубо
дубие
крат
крадет
положꙋ
пеюци
сѣро
есмꙑ
бьли
бьла
бьль
бьма
бьжѧ
волокъ
волосте
##бьють
##бъка
лом
лодие
грѣвни
грѣвенѣ
милославь
есиѳа
слугы
дьла
власов
ларь
ласково
лаиди
поигры
Томже
чертамъ
короми
коробеи
животно
##буо
##ловиѧ
человѣцѣхъ
меншему
гд҇нимъ
г҃ӏ
дватцеть
рубл
дитьи
гривень
корови
Александрова
златую
жатвы
доведут
приказꙑваю
розмет
бласлови
конным
##ноуѳри
онсиѳо
##дѹма
продае
федось
риж
рици
нашихо
##кꙋп
Милая
Ми҃р
##раздо
тьри
погрь
плотины
коуни
коунь
коуноу
коунахъ
в҃е
ньжѧть
игумени
Додон
осмаго
цѣрк
Сорокъ
гл҃ти
крени
крс҇
шидови
шишакъ
бересто
держал
Присно
поручной
##штенъ
маріа
дъвь
дъбр
бориць
положиле
дорофѣ
дорогами
дорожка
зобижо
противенъ
сердци
илькѣ
кладетъ
кланисѧ
дворнюю
і҆и҃сѣ
молотца
тꙑхъ
вꙑѥ
вꙑхъ
вꙑроу
вꙑдалъ
вꙑжлѧ
соукъ
гурь
гривьною
гривьнꙑ
срочька
Проговорилъ
пожаловат
славной
##шенинъ
Кир
кꙋнѣ
селема
Оттого
Отпира
трубу
полутори
полуторъ
взѧлѣ
третьѣ
московка
потклѣ
михаӏ
михалю
купиле
полътину
целовѣ
водаӏ
водано
пришлете
с҃щ
кнѧзоу
двце
Лао
сподиню
въдадѧ
домана
единоро
исполовиѧ
хотѣноу
Михаилова
принесо
вотчинни
скорой
поутеши
народомъ
тоудора
агге
крича
слою
товарыщев
двести
григорьи
григорьевы
занежѣ
июри
просро
ѡбраꙁъ
##новою
##торои
памят
##лꙗють
##бꙑша
ц҃ри
ѥсифа
вѣруемъ
лошачек
поганыихъ
степаноу
исковой
помрут
напада
тереньтеѧ
история
пребываютъ
съгрѣшени
##щꙋсѧ
праведный
рьзнь
рьзно
рьзан
никиѳо
прекрасною
родовые
кн҃а
кн҃ъ
вѣдая
Добрыни
трьтие
цетвьр
цетвете
цетвирти
чоло
владыце
поздно
сыщут
монастырьские
борзи
облаци
лоуди
лоутьѧ
Бедер
Станови
фигу
##жѧнъ
морстей
мордоко
цьсть
прикащиков
жалоба
довоу
домои
##земка
влч
телеги
црк҃ве
въспѧть
судиямъ
красоте
вѣчнаго
игнатко
серебрѧ
помещику
надела
богатырская
Цари
оводоки
##нномꙋ
поноров
пъкланѧние
тверды
силамъ
цолобитье
желѣзен
опасно
ѡстафии
ондреевич
сребря
Суминъ
златору
Алешу
кѡстан
Прч҃
ѡгнѧ
посылаетъ
удару
священника
священнике
судей
лѧшьке
выборного
ключник
месяць
собакѣ
дияком
##ѳиме
ударит
чернилами
увиде
рѣзане
дубни
##ннана
Дружневны
Дружневне
искорми
цетверете
пятую
Магилену
приꙗтел
присълале
ѳом
ѳомоу
носитъ
##с҇с
писмом
##ѣзжай
##ѣзжать
##ровѣе
коробье
чудотвор
Многолетное
прокошь
воздание
Азону
ѡвощь
иноземцев
ставке
посула
четвертию
ѧколи
несмыс
поличного
иванъкоу
полоутора
дьсѧто
благословил
белокамен
136
зелоного
епископы
милосердия
шюба
бобры
бобрꙑ
гледа
варѧгы
лживꙑѧ
рядовых
Филонъ
Богородице
прибѣгни
соблюди
матьрью
подкоп
жеребчикъ
девѧте
доспѣсехъ
ѡблада
сносу
сносе
Великій
приезжих
поцте
исправивъше
бьрковьскь
нарѧжѧ
взиде
велможа
##торицею
возопиша
поверстной
Антиохъ
Антиоше
откупщиком
поѣдите
давꙑжею
дворѧнину
дворѧнине
дьака
стряпчими
Печаль
отчеству
розъехали
розъеж
приѣхаша
Самсонъ
живоначаль
радъка
змѣиному
наследье
зьмлю
ѡнани
багатыря
багатырская
умышлением
гюрьгѣ
Говорила
костини
серьбро
Івановича
ꙋчините
георе
грабежь
обещался
жилцы
безбожнаго
##ѥвица
перелог
##ѥмсѧ
змеенковъ
см҃рт
молодогь
приимай
сновидови
лазорь
Евга
братомо
чл҃вци
снега
целомо
целобитиѥ
бо҃го
Подобаетъ
жалуѥшь
Всеславьевичю
Ярославъ
мнозѣхъ
нездꙑле
отьцьви
влд҃кѣ
е҅пискоу
спущу
полтиноу
неверному
вхого
куоно
април҃
бѣлкѣ
кадьць
пропусна
лоньскиѥ
кудри
Роксаною
ѡлговичь
гривеноу
возвѣстиша
цесарь
домит
домитра
торговала
дѣйству
блусти
студен
розобь
диꙗлось
Кандавлусь
пятидесятника
варварꙑ
игрꙑ
отсечь
просоле
поцелу
утнеть
Нектанаву
хс҃ъ
прободоша
поклоняется
новъгородьскꙑи
гривънꙑ
тешитца
драгоцен
наимитоу
шляпу
Левко
цртвіа
гюрьгеви
товаркова
пльсковици
Стефанит
##б҃ѧ
восмьдесят
отпустную
Варфоломей
ослушался
кожюхъ
глядя
коровꙋ
мълъви
мълъвоти
Милостивый
платѧце
привязанъ
григориӏ
плисина
коробѣѧ
плтину
кутузова
рагозину
##словее
хрѣстьѧ
мясое
сороцица
выпися
ѧкимоу
поклажее
##нцифо
нежиле
бьрьковь
позовници
боудьть
лоукънъ
ꙩндрѣю
лонеского
коузми
цолобитьѥ
Кандакии
Врионуша
ꙁемь҆
возненавидит
мясным
прибавливати
чьтвьрть
ѧвлѧютсѧ
оѳими
прекословее
тꙑсѧчь
свалился
торжеку
поутру
Бц҃и
Смородину
нечестно
недоборехъ
гетма
курьѥго
иванокоу
бескабално
татьбах
усадища
прославить
анисье
ѻтдал
коръвоу
княженецкіи
напреди
ѻсподь
микоулѣ
дьвѧти
кнѧгини
бъръзѣ
клюцника
стьпаноу
бѣлонога
бѣлоногъ
турабьѥвѣ
турабьѥвых
соловьиному
канцеля
челядинъ
безсудные
дивляшеся
изосими
прилбица
бедрамъ
благословеньице
гр҃вн
квашнина
дунилова
климѧтѣ
пшенки
Горынишшо
полуехт
Кіевскій
станѧте
геронтиа
озеревахъ
вѧтичи
людъе
агиос
воцарисѧ
ѳьдора
##натцатеро
нажирꙋ
татъбоу
куролѣ
клинском
въноухъ
оксиньи
офоносу
пуодуо
сухꙑхо
бесудную
ньжиль
ньдьлуо
рꙋцьи
пьшьнѣцѣ
члк҃ъ
торпицѧ
Богдан
сиденье
перемолотили
вожанъ
възьмъши
роспросным
свезле
шутки
Залатой
Епистимия
трицеть
голиное
завьть
заамвон
шадрина
исоправи
манꙋиле
которꙑѥ
сьрьбра
сьмъке
ѥрмолѣ
ѥрмълѣ
ѥлбугою
ӥлиӥ
⋮в⋮
топьрьво
имоволожѧнъ
безволокитно
страдныѥ
лаидиколѣ
цѣркв҃
шидовицихъ
потклѣтѣ
оводокиѧ
мълъвотицѣхъ
Дꙋ
Едно
Испо
Сл
Ю҆
аби
абꙑ
гова
мстити
оху
пля
ыном
ясть
ѹстъ
ѹправи
ѿч҃е
##сет
##перь
##едно
##шымъ
##бов
##новыми
##жнаго
##жского
##ꙋтъ
##ю҄
##҄ѫ
##ⸯже
##στ
##40
##стника
поюща
постити
##овꙋ
##гохъ
нат
наги
##енїи
##лама
нелюб
##ноѭ
##нися
##рост
##ваха
въѡбра
дарове
##тара
##тано
приять
пристѫпи
вселѧ
своімъ
##неева
рало
расть
нивъ
камы
сожител
проиде
прозрѣ
съгорѣ
##полу
отби
отступ
##дѣ҆
##пиѧ
течаше
##стоꙗ
пресели
реках
##ряя
##пахъ
велии
рог
роска
вѣстъ
вѣтру
##душ
пими
живаго
тими
##цево
##сою
##нѧхъ
сущая
прѣмꙋ
##права
Боюся
всѣдъ
городити
иноку
друже
##еными
пела
сѣдоста
глат
##пухину
писаніѧ
владѣть
рѣче
рѣкѹ
чюжую
##новавъ
##лꙋчи
##стѣх
##анію
златыя
ѡтдати
розно
рыбъ
поклонити
нашия
нашима
Солн
скѫ
##шені
очистить
##ченꙑ
истины
бориска
рѹкою
конькова
наказанъ
гусли
##тварь
высость
славных
данил
четырь
любими
полутретья
дьякъ
ꙁемꙿ
другою
врѣмень
Виждь
нынешнего
въдаша
стоялъ
хощю
предалъ
остались
Весели
ѡбраꙁь
собраніи
честныя
вдове
оставил
микитка
божиꙗ
сильныя
крыл
мѡу
##ниѥмъ
изыдоша
дш҃е
поваровъ
црь҆
чрево
мьстиславль
вѣчныѧ
пушкарскимъ
пѡб
приводи
въсталъ
десеть
цѣловати
[...]
