[PAD]
[UNK]
[CLS]
[SEP]
[MASK]
[GAP]
[CTX_DAILY]
[CTX_EPIC]
[CTX_LIT]
[CTX_LEGAL]
[CTX_CHURCH]
[CTX_SCIENCE]
!
(
)
*
+
,
-
.
/
0
1
2
3
4
5
6
7
8
9
:
;
?
A
C
D
E
G
H
I
J
L
N
P
R
S
T
U
V
W
X
Y
Z
[
]
_
b
d
f
g
h
i
l
m
n
r
s
t
u
v
w
z
{
|
}
~
¦
¨
¬
­
°
´
·
º
×
á
í
ï
ó
÷
ú
ý
ı
ł
ȣ
Ȥ
ȥ
ʹ
ʼ
˙
Α
Β
Γ
Δ
Ε
Ζ
Η
Θ
Ι
Κ
Λ
Μ
Ν
Ο
Π
Ρ
Σ
Τ
Υ
Φ
Χ
Ψ
α
β
γ
δ
ε
ζ
η
θ
ι
κ
λ
μ
ν
ξ
ο
π
ρ
ς
σ
τ
υ
φ
χ
ψ
ω
ϕ
Є
Ѕ
І
Ї
Ћ
Џ
А
Б
В
Г
Д
Е
Ж
З
И
Й
К
Л
М
Н
О
П
Р
С
Т
У
Ф
Х
Ц
Ч
Ш
Щ
Ъ
Ы
Ь
Э
Ю
Я
а
б
в
г
д
е
ж
з
и
й
к
л
м
н
о
п
р
с
т
у
ф
х
ц
ч
ш
щ
ъ
ы
ь
э
ю
я
ё
ђ
є
ѕ
і
ї
ј
ћ
џ
Ѡ
ѡ
Ѣ
ѣ
Ѥ
ѥ
Ѧ
ѧ
Ѩ
ѩ
Ѫ
ѫ
Ѭ
ѭ
Ѯ
ѯ
Ѱ
ѱ
Ѳ
ѳ
Ѵ
ѵ
ѷ
Ѹ
ѹ
Ѻ
ѻ
Ѽ
ѽ
Ѿ
ѿ
Ҁ
ҁ
҂
҃
҄
҅
҆
҇
Ҍ
ҍ
ґ
ӏ
ӑ
ӓ
Ө
ӱ
჻
ᲂ
ᴤ
ᵕ
᾿
‐
‑
–
—
‘
’
”
†
…
″
※
‿
⁓
⁖
⁘
⁞
№
∙
⋮
☺
⟦
⟧
ⰴ
ⰹ
ⱉ
ⱔ
ⱕ
ⱖ
ⱚ
ⷩ
ⷪ
ⷮ
⸭
ⸯ
⸱
Ꙁ
ꙁ
Ꙃ
ꙃ
Ꙅ
ꙅ
Ꙇ
ꙇ
ꙉ
Ꙋ
ꙋ
Ꙍ
ꙍ
Ꙑ
ꙑ
ꙕ
Ꙗ
ꙗ
ꙙ
ꙛ
ꙥ
Ꙩ
ꙩ
Ꙫ
ꙫ
ꙭ
꙯
꙳
꙽
ꙿ
##р
##и
##в
##е
##з
##н
##а
##ꙁ
##ѹ
##м
##о
##ꙋ
##т
##҇
##ь
##с
##ꙗ
##ъ
##к
##у
##ж
##ю
##ѧ
##щ
##ѫ
##҆
##і
##д
##ц
##ы
##п
##ч
##х
##ꙿ
##ѣ
##є
##л
##ш
##б
##҅
##ѡ
##ѕ
##ѱ
##г
##ⱕ
##ѵ
##я
##҄
##ѭ
##ѥ
##ӏ
##ꙑ
##ⸯ
##ρ
##α
##μ
##҃
##й
##4
##3
##ѿ
##ѳ
##ꙙ
##8
##ꙃ
##ф
##ћ
##ѯ
##ѻ
##ʼ
##ѩ
##ї
##i
##꙽
##σ
##η
##λ
##δ
##᾿
##ι
##ο
##π
##υ
##꙯
##0
##9
##ҍ
##6
##ς
##γ
##κ
##ν
##ω
##ε
##s
##÷
##5
##ґ
##џ
##­
##τ
##β
##χ
##ꙇ
##ȥ
##l
##m
##1
##θ
##ѷ
##¬
##r
##ꙅ
##7
##2
##P
##I
##C
##ꙩ
##ζ
##У
##Р
##О
##М
##Е
##Ц
##Ъ
##Ꙋ
##´
##ȣ
##э
##φ
##ʹ
##n
##t
##Т
##К
##ꙉ
##ξ
##A
##ⰹ
##ё
##˙
##Б
##ꙍ
##h
##¦
##ı
##T
##ӱ
##ψ
##b
##ϕ
##ⷩ
##u
##d
##E
##G
##L
##ꙕ
##º
##ł
##И
##Н
##С
##І
##Я
##w
##g
##∙
##В
##҂
##z
##ӑ
##ҁ
##v
##Д
##X
##А
##ђ
##⋮
##Ч
##Л
##Й
##ⱉ
##ⷪ
##ⱖ
##ⰴ
##Х
##Г
##ý
##ⱔ
##Ѣ
##ꙛ
##í
##Ь
##ⱚ
##ᵕ
##ј
##¨
##°
##ⷮ
##f
##V
##Y
##ó
##ꙥ
##ѽ
##H
##U
##R
##ï
##N
##ꙫ
##ᴤ
CT
CTX
##ст
по
##ов
##го
на
##ко
пр
##ти
##во
##ен
##ли
##мъ
##ра
##ла
не
##ет
##но
##ни
##ро
##ло
##то
##ре
##ка
##на
##да
##ть
##ва
##ри
LI
LIT
то
##ем
въ
##ди
ко
##ны
да
во
##же
##хъ
же
##ер
##ми
##ки
##та
CH
##CH
##UR
CHUR
CHURCH
##ел
при
бо
EP
##IC
EPIC
вс
до
##тъ
го
сво
DA
##IL
DAIL
DAILY
##де
GA
GAP
за
##до
##ви
мо
##ле
##мо
LE
##AL
##GAL
LEGAL
##ша
##му
##сть
##ся
##не
се
##чи
ра
ни
##лъ
##ль
##ше
##ши
##ова
##рѣ
##сти
##си
##те
SC
##IE
##CE
##NCE
SCIE
SCIENCE
ка
и҆
##къ
со
про
съ
##са
##ма
##ста
##по
##рь
бы
от
##бо
##нъ
ве
та
##ну
##че
##дѣ
##жи
##га
ст
##ру
##нѣ
##въ
##вѣ
##ще
##уд
##мь
оу
ми
##ск
лю
##ня
##нь
##ско
##ры
##ча
##лов
##ени
или
##лѣ
##ца
##би
##пи
##еть
##мѣ
##жа
##ве
тво
сѧ
##ръ
си
##етъ
##ере
па
что
##дъ
##сто
ста
те
из
##іе
ва
##су
его
##хо
ма
хо
##ку
пре
пос
##ря
ре
##ха
вели
##па
##лу
##лю
къ
##бѣ
##каз
ро
бе
##ово
##ля
все
ца
ли
са
вѣ
##ду
##ща
свое
##ски
##дь
буд
##ме
##бе
##щи
##ты
вы
гра
##іи
пи
##суда
жи
##лы
ви
##се
##ба
че
##вы
##ень
дѣ
##сѧ
##ги
сы
ру
зем
госуда
##сла
##чь
но
##ков
бра
об
раз
ти
мно
##це
свои
##спо
##ву
сто
##ды
##ови
де
є҆
##со
##ове
##ска
##ена
##сь
доб
кня
##вь
##за
кото
##съ
##ци
##шь
##овѣ
воз
##гда
ты
того
##лаго
есть
По
##гу
мѣ
##нѧ
##рю
##бы
яко
##тво
##мы
отъ
княз
##сты
##лѧ
бѣ
ме
##ство
вь
пра
лѣ
тѣ
##лен
##овъ
##гъ
##жь
пу
##нд
ис
##ене
##кы
##рѧ
су
ку
прѣ
##зъ
всѧ
чи
##цы
им
##сѣ
##пра
##іа
##тѣ
ему
тако
Да
ся
##вер
##тел
##сте
ива
их
под
##ено
Бо
##ту
гри
##емъ
##ное
Не
чел
##ные
##ему
##ных
какъ
##енъ
вел
чело
слов
##гѡ
##оу
дво
нѣ
##вя
всѣ
пере
##ць
без
вз
##н҃
##л҃
велико
люде
##цѣ
##емь
##бра
##мꙋ
##лова
##мѹ
##мер
указ
пол
горо
будет
въз
кто
##наго
которы
стра
##ется
##овы
##стъ
вся
ꙗко
сла
ча
рече
пок
##шка
##ют
ду
##ню
##зи
дру
ино
кра
му
кре
дере
поло
ско
би
##вати
##ены
ле
пе
сѣ
своего
а҆
##іѧ
ту
##стави
##чю
##мя
ꙗ҆
Го
##твори
пла
##ныи
##тя
ихъ
##ете
##ние
дерев
##сы
##ску
ес
бь
##тчи
##ію
##ке
##ств
##сп
грамо
##ров
##лек
воло
##зы
##бь
##ной
твои
има
ѡ҆
##мен
госпо
васи
еди
##ныя
цр
##горо
тому
глаго
посла
##ства
##у҆
##кѡ
##ение
##каза
ᲂу҆
И҆
##ев
##бъ
##нов
гла
##ныхъ
##пу
тебѣ
пер
твое
аще
##цъ
ло
ради
боя
много
люди
сь
ст҃
##г҃
##дѧ
мило
##ніе
имъ
земли
##тро
##ху
і҆
##став
еси
бу
##дя
грѣ
мы
слу
како
##хи
##стья
гс
##насты
##ского
##бя
##моу
##сту
писа
свѣ
Въ
вла
дь
##рꙋ
вер
мое
рѣ
ла
##лев
##гы
добро
мнѣ
свя
день
людей
мои
иже
##ною
##ком
лу
три
На
уч
##вел
##ного
##зо
него
##кова
##едо
##еви
и҅
##писа
##нꙋ
##ным
чет
царь
##лекса
##зь
имѣ
бога
государе
пои
сем
чю
##ште
челом
##аго
свою
То
чер
сего
тех
ба
указѣ
##бою
##дни
проти
##нова
##лександ
быти
##скы
##нови
##ную
видѣ
тем
коро
##дꙋ
вотчи
дѣла
##комъ
благо
вои
##рѹ
##нѹ
еже
гсд
##ако
ны
##тся
них
вре
##лѹ
бг҃
живо
##еніе
##нымъ
челове
князь
##цу
##ная
##яти
которые
велики
подо
гд
##лꙋ
##слав
кого
##лови
##овори
Госпо
##ютъ
холо
землю
люд
##вра
##три
бж
они
##ному
##номъ
которо
нико
##лыша
##реб
##ар
##нити
человѣ
##ном
##стѣ
##еле
мен
стрѣ
вра
лѣт
миха
##пе
##ель
яз
##мѧ
гд҇
наш
слово
государь
##ан
тъ
повел
убо
поме
намъ
##дити
себе
учи
##детъ
##про
Аще
##дра
пред
сын
два
сѹ
##кла
дер
государю
руб
грив
г҃
##рова
монасты
га
##стро
ди
тя
##ской
кнѧ
ѻ҆
Александ
##пъ
##вше
##гра
василь
##доша
##сл
зла
зна
мѧ
##ными
##ут
##кѹ
жа
старо
##сло
дове
кор
##ета
##нии
было
ки
##елъ
##ють
ѡт
##дати
##жъ
хра
##кра
ше
приказ
князя
Ко
сер
бꙑ
сторо
твори
себѣ
кни
ар
##ложи
поса
разу
роз
прии
том
самъ
бл
##ника
бла
##кѣ
##тися
цар
Во
пото
изъ
бꙋ
он
будетъ
##скаго
моли
##ія
всеа
##лко
##шли
##ноу
##ный
Се
руси
б҃
##тѧ
##бу
кон
наше
##ения
##шу
для
##кь
##скому
ры
крестья
##дѹ
суд
##ево
##рови
##щь
##зна
##нꙑ
##хь
##пѣ
сына
довед
##ловѣ
онъ
##юще
повелѣ
##жде
мь
##вет
##ева
покло
быва
прода
зап
ри
##ское
сотвори
пет
федо
слове
##деть
##ез
смер
бол
мъ
нас
нача
##еха
помо
наши
##тье
##жно
нъ
##вѧ
##ские
царю
##тца
##ихъ
само
##тель
##сно
##димер
доведется
тр
##тв
є҆гѡ
бысть
##роу
пѣ
това
##зѣ
пот
##жен
всем
##сли
жена
##ять
тѧ
##имъ
##дет
##дно
великого
Но
тебе
печа
##кꙋ
ог
##ковъ
моск
##слов
жен
##раз
всяки
ꙗ҆кѡ
##шти
сꙋ
##лико
всѧко
сте
##ц҃
##стра
томъ
##фо
ть
нед
мѹ
##жд
пожа
пог
##шъ
коу
как
##щен
добры
##вити
ꙁа
роди
##прав
пло
дн҃
##мени
##цко
ѥго
в҃
вси
господи
бес
въꙁ
слыша
мене
гр
таки
##нет
нем
Ми
боль
ѡб
##с҃
чь
смо
анд
##никъ
##нѡ
обы
нь
##рт
мл
пока
##коже
##жда
бл҃
хри
##вать
##пол
##ских
меня
сна
##ову
игу
ос
царе
##зе
мѣсто
##ству
До
запа
##лати
мꙋ
говори
##хомъ
##ском
##пь
подъ
##ково
##твор
##шо
цер
велика
будеть
##ніи
цѣ
##шки
##доу
михаи
о҅
##слс
##нут
царя
##скои
##ян
##кою
брат
бѹ
##цо
реч
насъ
##грѣ
многи
##дова
бж҃
поро
##нои
своихъ
ск
крѣ
той
гл҃
##дер
##еши
Мо
тре
своимъ
Ма
тот
егда
Со
раꙁ
##ломъ
уго
люб
бере
челоби
##ꙁа
ходи
##хꙋ
ши
##мит
паче
бити
##рг
сътвори
ска
богаты
воево
держа
##славъ
бояр
##нѫ
##ходи
бли
##гна
такъ
##вали
##ром
При
мало
ево
кр
##тити
##кꙑ
##жу
чловѣ
своих
сп
вамъ
##лько
постави
пусто
Ка
зло
поп
князю
##лем
##скую
деревня
##зни
прав
Ни
##шта
Тако
приве
своѥ
пода
нимъ
и҆хъ
очи
пору
милости
##шен
взя
ея
##ния
##лся
кому
написа
##шт
послѣ
после
##лни
нихъ
исти
похо
##ні
Си
якоже
##чен
радо
##ите
##їе
спа
##овь
людем
##том
##ерь
##доб
отда
русии
##цѧ
За
д҃
##аше
##фи
пис
любо
##цю
##фа
мар
имати
всѣхъ
##и҃
своему
##деши
##стои
поко
сн҃
Му
Ра
дни
мне
кру
##шко
##ющ
куп
##ковы
##неже
ша
##тр
дъ
##в҃
себя
##ющи
##дро
##вед
григо
стар
послу
бъ
время
##зда
##наѧ
иванови
##мыш
бори
Та
##ето
обо
ан
зако
пря
рѹ
своей
##коу
небе
митро
доро
великому
положи
дати
пушка
собою
тогда
села
градъ
##шю
##лоу
Вла
##домъ
сынъ
Аже
мя
рꙋ
дол
##нен
пища
пакы
##шед
##емꙋ
своими
каба
##поли
сви
пріи
жити
зо
против
##вши
тѣмъ
четвер
холоп
подоба
Иль
цр҃
##кую
е҆
каза
тои
смѣ
тебя
##тра
пь
гнѣ
гро
сѫ
уби
##00
обра
оубо
##жни
учнут
ство
и҆з
буду
воин
серд
##лени
##сели
поле
##вое
запи
##ити
око
всѣмъ
##кви
дре
побѣ
сице
гор
##схо
неи
##томъ
пѧ
##мена
почи
иль
##шя
иван
кро
тꙑ
града
оп
повѣ
жены
конь
кла
поми
своею
тро
учини
двор
наказа
володимер
дом
чтобъ
город
дѣло
##наа
язы
і҆и҃
моло
добра
вꙑ
брата
есми
хлѣ
##гѹ
объ
исп
##ге
оби
Съ
соу
##лѡ
ин
##им
ст҃о
азъ
##зу
ними
Бога
##что
пошли
##чя
##гла
ха
##цки
##тью
##пре
##лено
##ѕ҃
град
архи
гу
над
уез
##сѹ
ивана
##воло
пречи
##скихъ
##ники
што
##това
святы
##мень
сро
##хов
возмо
##ница
##щу
гривь
##ят
##стию
##тов
митрополи
##жет
нб
##евъ
иде
Про
##ꙑи
стро
сказа
будут
пожалова
##шени
суть
гд҇ь
ꙗкоже
##тва
высо
Миха
государя
каз
воро
вол
кѹ
##вѣща
##лом
Са
Божи
покла
##бор
##нье
##емо
дани
слѹ
слав
гдѣ
ѥму
тамо
иꙁ
отца
##лн
своя
государевы
нꙑ
҂ѕ҃
##люби
##бѡ
##рен
патри
всего
От
Па
были
##рей
##стан
чисто
сел
пꙋ
четы
Ки
Александръ
хр
коли
дꙋ
види
##гꙋ
##пере
##ромъ
земля
##чно
нѣко
люби
##цов
треть
##҃и
тру
кꙋ
##ема
##кло
нему
здѣ
была
полу
##штя
взѧ
бг҃ъ
##городи
монастыря
тобою
ѥ҅
тѣхъ
свой
##быва
отпу
коне
москов
дья
разумѣ
мой
домъ
голов
грамота
нов
спи
##шѫ
патриар
твоего
чл҃
##їи
кралев
##лет
бого
##чер
нашего
##мет
зъ
##бли
пох
ответ
##гово
ваше
мол
муд
мѣста
буди
имя
сами
##жени
##ници
всемъ
мат
##ніѧ
ильи
##мыс
служи
купи
немъ
дела
цел
##валъ
##гь
##ским
вни
челомъ
ꙁем
полъ
друго
##нию
ника
##ницы
всегда
людь
##чу
Тѣ
хотя
хотѧ
рабо
##кры
##шаго
васъ
##ѣха
васильеви
устро
##или
##иде
##ніа
еще
бл҃го
##дом
братье
приш
сам
вода
с҃
хи
объя
брати
аште
так
##вно
врѣ
дал
всяко
##лены
Господь
##тсѧ
мате
##ей
сере
мла
##лися
моего
##овых
дмит
былъ
право
##юща
##люб
##ляти
господ
проси
есмь
указу
понеже
стѣ
црк
помѣ
деревни
грамоты
##жати
##їѧ
е҃
од
є҆го
служ
##ило
заповѣ
ныне
ср
жалова
##шни
##рити
андрѣ
Ви
человека
ѳедо
сꙙ
##скимъ
дете
непо
имѣти
дв
сов
семь
спо
##лин
здра
##стви
лѣт҃
манасты
кнѧз
##рою
##ствова
ржи
##жю
##ѣло
прямо
слова
подоб
##неть
всю
##цемъ
въда
Ла
дома
ль
пола
##деся
Богъ
где
##тья
##ныѧ
##тки
чюдо
##роме
##чести
дне
Богу
нам
году
взяти
соро
##ею
милость
##его
Что
##ꙁъ
едино
##елѣ
испо
##ются
Хри
вой
хотѣ
є҆мꙋ
##ео
##говори
четыре
##нааго
тобѣ
гре
##вить
##хом
бѧ
дене
##дить
ответчи
##мене
стану
##хѫ
##тей
##а҆
бг҃а
##слава
смерти
мнѡ
##ник
##ступи
Доб
игумен
стоя
прине
дн҃ь
уезде
##рица
торг
деся
##шꙋ
##чено
##бой
яро
гсдрь
##вля
недру
хощ
##рин
лѣта
въсѣ
моя
жъ
вотчин
##тина
##стѧ
##врати
##сꙋ
мер
бьет
##хѹ
##ыта
##кто
скоро
##уды
пречисты
своим
##жень
##чет
чтобы
выше
здо
##тꙋ
##лич
приго
братьею
##ковь
безъ
деревню
##скии
противу
##носи
акы
паки
##вичь
##връ
##спѣ
вьсе
дрꙋ
обрѣ
стре
сты
##вꙋ
наро
возможно
Илья
##дите
є҆сть
поу
рек
##выи
Нъ
оста
##чъ
##нча
она
гл
золо
##лка
поместья
##дца
прі
стары
рублев
##ская
нынѣ
тоу
учнет
##сомъ
##зва
##смь
наре
##тин
размѣ
стрѣль
целова
Еру
##раб
юрь
##ленъ
##тер
такова
Ива
неп
свобо
коня
##динъ
##нику
##бѧ
##леніе
дш
ал
ден
##сиф
велми
##жне
ильичю
##чени
аг
##чей
мѣстѣ
крестьян
Егда
##стя
иска
##лей
своеи
великаго
##дов
Ерусло
богороди
преда
людеи
Моск
которой
##нѣи
кри
##ками
новгоро
желѣ
ѹбо
весь
перед
сло
Муроме
города
числа
товары
семъ
двѣ
##дою
ке
дон
человѣкъ
##рово
##таго
##казы
нау
вар
свѧ
дворе
рос
##нꙗ
##ников
неже
невѣ
##дех
##ться
стои
две
##торо
сеи
чтоб
беꙁ
глагола
григорь
ниже
Пет
иску
що
мѫ
##кмо
св
пустошь
##рѡ
творити
##нею
тыся
##тоу
пожаловал
гн҃
достои
дет
ѡби
нога
зане
##ровъ
прия
Ꙗко
прос
своем
слы
ней
семен
крас
великий
##ьми
##споди
камен
твоя
Ве
##цꙋ
лѣто
оте
ум
сле
ѡбра
приста
дети
##ново
##що
только
##ствѣ
##немъ
##жеть
##тка
чл
##реи
глаголю
толко
##рі
приде
отро
имен
человек
##лика
сл
дх
##блю
##ровь
огнен
##рти
полови
##дари
сил
##ж҃
##тьи
дн҃и
##сѧть
памя
нѣсть
б҃ъ
Вь
бꙋдетъ
есте
недо
##мьже
##вна
творѧ
Вѣ
прихо
дѣлати
ок
Бова
роу
давати
тра
оть
пош
благослов
прежде
добрѣ
друга
онд
##шихъ
число
##ствꙋ
подви
вотчины
бесѣ
ио
тꙋ
Пре
веле
сихъ
##ждь
доу
а҆ще
далъ
##дит
##ѥть
сама
##щю
##стꙋ
рат
ию
пого
боу
##нина
обыча
кунъ
##крас
дале
##т҃
##ряду
реко
крѣп
тутъ
##бити
гсдрю
ее
##лꙗ
##рина
кн
тое
приеха
##цем
##тели
створи
##мѡ
##гло
словеса
10
Сы
##воли
и҆же
ц҃
клю
сед
проро
фа
##дья
ап
собра
стол
ново
поч
##има
мною
к҃
Ту
море
матери
дра
гю
іѡ
нач
раздѣ
##леб
ст҃ы
Ро
пти
##ждо
позна
лоша
пога
степа
платити
##ця
Ты
пове
тата
вѣру
см
##нит
ря
##брѣ
миръ
##говъ
хто
##дими
вься
полов
сми
вд
тѣло
Ре
яже
##ими
лета
##стей
##бꙑ
ѥси
жела
чест
дружи
##слу
##дѫ
руку
##деже
дѣти
иск
##хы
чети
звѣ
обѣ
дасть
Хо
постав
##еми
болга
рус
которое
таковы
напа
##еи
є҆си
пѹ
ним
##дѣти
##клад
##лта
перво
твою
лѹ
государ
##еѡ
##торы
##лити
х҃
##нꙿ
кы
##дут
своемъ
##шѧ
плем
ей
сыну
##цом
Како
остави
сре
пож
дву
ем
оже
вес
##лою
посо
##прави
детей
моему
преже
##пати
своѧ
исто
хоро
тер
##домо
##нію
надо
##лена
пяти
мужа
поиде
##дви
весели
пребыва
##вал
вьсѣ
блю
##жетъ
##дръ
пом
съгрѣ
быс
##стрѣ
##вш
въс
мики
тимо
##заре
поги
присту
бѫ
Госуда
собѣ
##писко
воевода
##вая
##теи
единъ
##щꙋ
вѣр
чего
свер
##слави
дрѹ
##и҅
слава
посы
##тю
##стер
котора
могу
##говѣ
##лых
дръ
ез
##гомъ
поеха
сть
##вка
оба
##скомъ
тѹ
пять
крѣпо
погу
ото
##ті
земле
##гды
правед
чемъ
рь
смот
всѧк
цари
дело
##ныихъ
##тить
##шень
##бла
##кре
##енави
хитро
##въше
пръ
емꙋ
дроу
##ден
##стье
##скыи
дав
село
блго
##шати
нет
скор
дворя
грамоту
##бря
##ѧти
##слыша
##женъ
многа
дх҃
сра
##мысли
таково
##жѣ
А҆
потому
ники
емѹ
све
##пы
##ником
може
##тно
суда
глагол
##лина
##ваго
съвѣ
пав
##хра
##кедо
##стью
вь҆
##мест
##ление
##гоша
гот
##стити
##ский
##смо
##воз
##знь
##повѣ
прекрас
Бѣ
##того
##цею
кони
##ския
##рати
велѣ
всея
аз
елико
##ій
божи
име
##нья
дворъ
томѹ
цет
градѣ
жит
Ва
ест
посадни
потомъ
быть
##вою
сели
##пова
Из
грамоте
государеву
аже
##каго
##шедъ
болѣ
плъ
##ших
молит
##еву
пови
Яко
пост
##нить
старости
вѣда
пречистые
##нью
ору
##вьр
##новъ
##нима
род
кн҃
нами
##тою
##нетъ
прѣдъ
всяких
и҃
которых
книга
##чего
##сꙗ
Вы
##рину
##стве
присла
пити
чюдотвор
жь
учинити
имѧ
##овым
ст҃го
совѣ
##ешь
##лись
силь
жив
слꙋ
сту
зи
фо
##праши
мою
##е҆
дому
ѥсть
свѣт
бьют
прем
##нѹю
##нка
кры
укра
царство
надъ
четве
храб
##сни
##ѧть
є҆же
верх
##рии
##правити
Добры
а҅
##удь
##гли
быша
ѕ҃
поби
такоже
##нем
прави
##цкого
12
##рит
##щеши
##шку
истин
трь
шесть
##жить
христи
ничто
андрѣю
обе
##нт
##щіи
покланѧ
чо
лѣтъ
Господа
жено
влады
##овые
поз
никому
##ех
##ніемъ
прп
##шася
живу
##пря
##ꙁь
велик
##жество
##кови
буде
хва
##мно
##гоу
церкви
##евы
своея
чем
малы
волости
всѧки
##стѹ
людемъ
##шимъ
сыщ
меж
##яше
##щаго
пришед
изо
мѡ
Владимер
денги
изѧ
##ваетъ
совер
##дꙑ
всѣми
людьми
##сер
##ѡвъ
уо
надоб
##шет
сердце
ги
изы
##рѫ
##жены
пришли
монастырь
всеми
##тое
дастъ
жере
проме
ꙗ҆коже
це
##рове
емоу
##сии
##проси
ꙗро
мужи
держати
##скъ
коню
##держа
##ниѥ
кои
всех
а҆зъ
слѣ
##ѣз
##телю
мужь
ав
##ремъ
помыш
ов
андре
угодь
лоу
##рети
съмѣ
вотчину
пищали
Все
Ино
##вѣтъ
Лазаре
Его
##лага
немо
##леви
##шне
боле
##дна
тотъ
Ли
наша
Пи
##гнѣ
##дин
##чих
имать
гр҃и
стрѣляти
бѡ
##меть
##ья
образ
л҃
##тѹ
королев
архима
Свя
тор
бываетъ
##лга
и҆мъ
обла
##ц҃а
таких
##чем
въсе
Ста
непра
ще
##чемъ
таи
говорить
оучи
##ствен
аки
ост
вме
место
деле
##стов
двора
величе
землѧ
##казу
велеть
мор
чере
##слови
о҅тъ
іва
##йся
сие
дел
духов
сва
бро
силы
##темъ
воста
уря
##скими
ху
##ила
приложи
соло
муж
городъ
жену
кръ
##деи
твой
спас
кнѧзь
дмитре
подобаетъ
повѣда
бре
осо
вас
алты
коло
зѣло
прика
доста
творя
дш҃
веда
передъ
год
##жѧ
бор
немь
другу
з҃
##чка
##ымъ
##посто
##ѥ҅
##стыни
поклонъ
##нти
##зако
чево
##сов
##шть
богъ
многы
есмя
бгъ
##рени
писано
##чки
пома
бѧше
рекъ
примѣ
м҃
своѥго
десѧ
тю
поча
##дино
н҃
кли
ць
всеволо
пора
##бꙋ
четверо
##цовъ
##енье
пушки
Или
Прѣ
##гов
цто
лука
государева
##тцать
прием
обря
челобитчи
##леи
ваша
возми
##гран
Дру
ю҆
кораб
изба
мни
пова
##рка
##ую
зави
жало
вмѣ
наи
ими
##рꙑ
##йте
томь
похва
##сль
Бе
##ѣи
##ꙁи
##вои
##дѡ
##лово
пути
каки
##сок
тысѧ
дово
домо
і҆ꙋ
нежели
Ру
##д҃
сн҃а
ядра
##кого
##стить
посад
уз
солн
покры
крепо
тол
##пор
ꙗ҆же
гъ
##зем
##пити
силою
##ври
##ꙁы
брате
##врь
мир
##жена
воды
потреб
вет
ядро
гь
вда
##кыи
##скою
лъ
##рот
##чина
иванов
преж
##шасѧ
##цкой
теле
##мира
вско
##нѣхъ
##слѣ
##мꙿ
печали
Аште
##шити
иные
##пꙋ
##шно
михай
##лі
сталъ
господине
##щени
велети
##ньи
злата
##ѳа
моѧ
##рем
##сити
горѣ
крест
##нес
##елю
##левъ
##гꙑ
показа
лежа
##лексе
црь
чинити
і҆ѡ
лица
никто
##стой
##спро
напо
б҃а
##крѣ
##тре
##тину
напра
здрав
жене
##щъ
сыску
лице
гн҃е
вл
чадо
плѣ
##жо
еи
##рѣи
мира
жо
##влѧ
##нин
прок
##стно
противъ
##кая
мати
чя
мьсти
иму
##жѹ
##жей
суди
правь
красо
црк҃
##дне
попа
##тати
##ѳо
свѣтъ
бью
##скіе
##говоритъ
лв
нашъ
Стра
игна
сіѧ
сереб
городех
вотчина
ивановича
винова
##гати
такое
мн
чре
##менъ
##лно
граду
##рми
сіе
яков
##рить
михаилу
мс
сынове
присно
##скꙋ
великъ
##жено
впере
даже
живота
сель
наза
##фе
напере
праз
##евича
допря
направ
моѥ
допряма
фу
сия
ге
##веде
помещи
##ріи
##их
поклоно
##тора
сест
душе
##мати
был
товарыщи
впре
##щет
##гою
приказа
##мꙑ
##дѣи
указа
твоеи
Тогда
список
силу
вѣч
кь
камень
пушкар
сыщется
нашь
юно
##соу
##ємъ
всѣх
блг
пле
##елен
##вѣт
богатыр
##житъ
##шися
##выхъ
Дари
Ца
Солов
даи
мл҃
Сего
але
виде
##леть
Иже
уста
##четъ
михаила
наде
рас
наслѣ
##льни
нѫ
##ходя
взы
видѣти
небо
##кѫ
приходи
роду
явля
ѡс
##гова
##рав
сиро
грѣх
ово
рать
другъ
Какъ
рыц
егоже
погре
##еодо
##разу
##нно
брату
воск
грѣхъ
поно
гсдр
петра
уже
##жит
Лазаревичь
хоче
днь
##нное
##теля
твоѧ
##тине
##каѧ
##щѹ
моу
ꙗ҅
##твер
честь
##дилъ
остав
##вен
напи
Нѣ
##пѹ
##токъ
##бира
ѧзъ
реку
братъ
##новичь
ꙗже
##рть
##тꙑ
подья
апосто
##нѣмъ
##лая
##ді
твер
##дитъ
пристав
##бои
##щих
будеши
дали
рома
##зыва
Ме
волю
##прѣ
##таи
##ходѧ
твоихъ
кралевна
##емы
##ахѫ
отдати
сила
100
ѥс
##жды
сьр
цо
##кси
##ричь
въск
широ
поля
##дина
челобит
свѣта
пск
треб
вос
##ению
дѣлѣ
пѧть
пѡ
рабъ
поклони
рее
##жден
въсп
##чити
богородицы
желѣз
игумену
токмо
столь
ну
и҄
##точ
##вую
иного
дондеже
согрѣ
времѧ
##десѧ
людех
дро
разбой
Васи
княги
##н҃ѣ
старе
македо
луги
##лива
##вый
множество
межи
поима
большо
##ске
##проти
побе
##вести
шу
Есть
##҄у
шан
##лат
съм
прь
мимо
рѹко
##дел
##етца
##дꙋтъ
##город
всѧкои
Петръ
сен
мнози
нашему
##тая
##пко
приво
##нути
опа
##трь
##дар
искати
##рую
##ством
мысли
Мар
##ньі
выш
##полкъ
посре
##енью
небес
человѣче
грѣш
Москве
##трѣ
##стари
плака
приказу
млсти
##дать
##зя
##сен
погуби
##а҅
женѣ
сп҃
##пло
##при
король
крестьяне
Оу
мед
##десят
##емѹ
главы
ѡста
собо
изволи
##штааго
извѣ
коса
Александру
Владими
##наꙗ
прош
ваш
Муромецъ
зми
##емоу
вместо
##глы
голова
грѣшь
пожи
##ѧи
заха
намест
##вых
ор
вельми
тюр
сі
казна
##мже
##ючи
пъ
##обра
##уду
батю
пшени
умъ
въса
дв҃
##ствѹ
кꙑ
##мина
##іс
##бѹ
прѣда
##клони
##ѭ҄
поче
всему
суду
крь
##щеи
##биша
срѣ
##р҃
##зно
ед
еха
ѡни
сок
посѣ
человѣка
корми
ондре
созда
ничтоже
мꙑ
тово
##удъ
##штю
послуша
##жіе
снаряду
##и҆
##шꙙ
##стоя
ада
христо
##ꙁѣ
##слы
детем
##вки
##стію
##мол
камени
мъно
##жут
##лась
видя
любовь
расп
руки
Бы
сей
##҄о
глаголати
самого
среб
##диме
нощь
##вся
##лики
##чею
злато
##ван
воли
##чится
##дѣла
##лове
всѧкое
гораз
##тен
въста
дьнь
##женіе
##вша
тѣле
Ду
##ловъ
##зами
бѣло
Але
трѣ
##тръ
вод
путь
ф҃
##дох
ѳеѡ
женою
прибли
соли
книги
федорови
написано
иго
тва
славы
кѡ
##вѹ
памѧ
##жьство
Су
ды
със
##щемъ
##щати
грѣха
дес
##нецъ
70
##намъ
##демъ
ивану
части
##яй
##кое
брань
наказ
великии
иных
##чной
тою
##нѣе
говоритъ
зе
чада
цѣлова
##мѫ
ити
##лии
##кър
##стре
прости
##сом
жени
сꙗ
русь
трои
симъ
иса
хъ
просто
долго
Кіе
уви
пово
##писи
і҆ер
уда
нарица
Того
пищаль
глу
подобно
##доби
кар
разо
гръ
##нему
##комь
сему
##мов
прилѣ
казнити
господство
намѣ
древо
##скіи
##ѡмъ
##неи
нимь
прпб
##рги
хѹ
когда
всѧкомѹ
##еве
обро
гора
потя
##стин
главу
##рет
##момъ
стани
сꙑ
пако
кну
##їю
лет
умер
безу
цареви
грѧ
##гови
угодьи
наси
которыя
##in
послꙋ
##кове
часть
людми
подобает
гѹ
куды
##вай
ві
Отъ
##ныа
великое
нова
ѡг
володимеръ
оса
##чим
##пис
вина
человеку
нн҃ѣ
фили
##жемъ
вѣрою
пошлины
Лю
ев
##гѵ
горе
рубль
посыла
отчи
##нѣй
раба
чьто
кружа
##ину
конца
##чему
куз
рѫ
боже
брать
наказание
Ами
діа
трети
топор
Къ
##шѣ
священ
##сподине
наря
родител
##люблен
спраши
ѡнъ
гнѣвъ
##щеніе
приле
своемь
имени
коуно
али
##зю
##той
слобо
пыта
стороны
##стѫ
слышавъ
борис
дрь
клев
памяти
попе
##рия
Кня
##довъ
##гѣ
##щихъ
лесы
николи
староста
новгородь
##дѣхъ
селе
най
такой
дѣлъ
нощи
отпусти
людіе
гаври
ѡбрѣ
патриарх
сіа
жез
##фъ
иванович
надѣ
сказы
##чены
попо
суде
страш
души
пожалу
Кто
Муромець
пуше
всѧкомъ
васильевича
##нта
##жие
##чати
##воу
глаголя
кнѧзю
начаша
неви
москве
сн҃ъ
иду
бц҃
##ꙁо
##шее
##овымъ
рубля
ико
горы
Тъ
ѧ҆
серебра
ꙁло
##четь
##нского
##щимъ
пы
##скꙑ
бга
денег
смерть
##нцы
огнь
##шеніе
въсхо
##кову
мел
##ить
##біе
твоему
ина
##бер
##ниде
выбор
велено
взять
##пусти
##тіе
земль
рыба
четверогран
ввер
лѧ
##боу
хлеб
помысли
колѣ
сколко
##нѣмь
##шено
сих
##тыхъ
великую
объяв
ѡц҃
##вымъ
церков
снѣ
##лева
##куп
##сеи
мудро
далече
рѣша
смерт
ключ
##нки
##хі
пошлин
##род
Видѣ
доправити
статьи
возра
прииде
кромѣ
зда
##елы
##овой
нашо
ненави
рав
пан
меся
##шить
вам
посади
рекоша
ски
##шоу
##удеть
дѣлу
языкъ
##дѣте
приказе
агг
##дят
Господи
степ
холопи
трѹ
поне
##сѣхъ
вѧ
##тѫ
##славь
##кои
##неши
попере
радость
##жение
соба
##овѣда
головы
ѳ҃
ꙁако
дань
оно
##пет
##хѡ
Азъ
бою
##леши
кам
##ниꙗ
оум
нѣтъ
яви
##н҄
##ток
дои
##ении
##шеи
##ляй
вѣсть
которая
##скати
восхо
##мыслъ
рѧ
лов
прово
соха
сме
##евичь
##щѫ
##чини
##скѹ
вѣка
тоже
##тых
##цѣхъ
##ю҆
погы
##речен
дать
прои
моеи
##тому
речи
бориса
Еруслон
маи
времени
царства
деревнями
фе
бж҃іи
єго
твор
##овыхъ
Воло
ѣко
стари
чинов
дия
естъ
##щ҃
жита
грв҃
ер
василья
удари
##гом
препо
черни
мц
и҆ли
ѹ҆
толико
поль
теми
разꙋ
шь
##нами
животъ
федор
ами
##димъ
##чат
є҆гда
страхъ
нѹ
##славу
новъ
оде
поместье
киев
кланѧ
пов
гость
сконча
пріиде
мѡѵ
щи
##еr
соста
опричь
##зрѣ
покланѧние
Те
пят
##҇ли
ᲂу҆бо
##евичю
Господ
##коша
хвали
оубѡ
##стыню
архие
н҄
исте
##няго
безо
болши
около
##добь
##шая
заповѣди
Онъ
##клю
великимъ
##дцать
сьрдь
о҄у
##ней
тать
власть
нево
нею
##ниемъ
места
великой
цетвер
казакъ
ѿда
рука
великою
##цкому
близ
И҅
уро
очима
Пр
##дете
сию
лѣпо
престави
ꙗ҆зы
Михаило
сти
кол
##поло
Сыну
домꙋ
тай
##жаше
гд҇а
глѣ
##яся
оуго
##зира
грамот
хрст
смотря
Ꙗ҆
##кьі
##҇т
##щее
всегды
сотворити
ѣха
сътвор
##хоу
радости
писма
рѣза
холопа
нб҃
дви
##стꙑ
полѣ
браш
видѣвъ
мсти
##ѳи
кнутом
еу
##цѫ
добродѣ
еда
федора
имаши
даві
комѹ
соко
##сья
##тру
##ч҃
##ления
порѧ
вино
мечь
манастырь
##рь҆
дуб
короля
убы
ӏ҃
##дѣже
##лыя
трꙋ
##жат
серед
ере
кровь
##стова
##нее
посъ
твоимъ
потре
##енья
бѣше
новгород
##бло
пой
##жеи
##дели
възда
вну
коле
Еже
##лею
##льно
паш
другой
мт҃
пр҇
вере
##мѣи
ѡбы
мѣры
сколько
##фона
##мі
##ход
мѣся
##ліа
##ствоу
##вꙑ
бг҃ѹ
розбой
ѡн
##кли
##жя
##овати
Александре
жесто
Ники
устроити
заплати
ꙗв
пое
рости
словес
Мно
землѣ
##дрѣ
мра
идеже
##лемъ
##стомъ
##тую
небесь
разумѣти
хощеши
##купи
вѣкы
верь
петру
снаря
ука
ком
прино
молѧ
людя
блага
нашим
подлин
##шкѣ
пости
кое
поста
##лася
печат
##ствовати
лꙋ
ѡв
##ьі
##совъ
##ствомъ
надобно
##жди
##стии
##щим
страны
##чить
ходити
гривна
кабалы
митрополита
##храни
Дружне
рыцер
Тво
##лки
##чит
##разумѣ
##҇а
##ес
радова
##шение
копь
дава
##лез
оустро
##гнѣва
##яху
Ада
##чные
мѣра
кнѧзѧ
Он
Фили
##ѧлъ
проповѣ
##густа
многие
иныхъ
##нутъ
##нꙋю
Га
развѣ
нашихъ
##ѳъ
печаль
Еруслонъ
о҃
вѣдомо
сꙋть
такихъ
##зов
##шим
помина
нака
##ченъ
пусти
младъ
##хе
прибы
княж
рѹкодѣ
егѡ
##кому
власти
землею
бяше
тѣх
игумена
##твы
##шенъ
##вели
слад
тобе
##долѣ
пад
##слав҃
ответчик
авра
##ниче
коз
даны
сестра
верхъ
##десѧть
##чин
Христа
сос
церковь
старца
ол
##нї
##города
самому
свет
##скаа
потягло
иско
фра
##блѧ
мур
гл҃а
Мы
еп
##глаго
срд
русіи
##ствъ
##мотри
##ставити
гораздо
##дали
отпи
макси
ѡбѣ
##жѫ
##щно
восто
сроку
##илъ
##ѧт
гости
предъ
воинскихъ
оти
ѡ҆б
впредь
##ѥмъ
##еться
били
сердца
пя
ꙁъ
отцу
мала
господь
сторону
сль
##лѫ
бог
і҆ер҇ли
##кой
##били
##рию
##дие
##щей
Пер
##нок
записа
гл҃ѧ
бго
тоя
ци
##вит
прочи
вами
вѣкъ
hеr
Бра
ѳо
##вни
чловѣкъ
броса
##лꙑ
колико
рати
князи
ели
##тни
дѣт
исцу
товаръ
недел
есмо
##нька
##лую
##зри
стара
##рову
волост
Якоже
##кса
##ѣмъ
##лося
##лось
пришедъ
рещи
Маги
будуть
другую
боло
низ
возлюблен
имене
ѿвѣща
##жꙋ
ставити
##лє
##мова
##диши
воров
помест
стоитъ
##соша
Дани
##фана
ули
##реть
##бие
пустоши
писал
съмь
послѹ
є҆ѧ
плати
##штиимъ
##шіи
птица
годы
##чее
##сково
Ти
##щы
может
алеѯ
Дев
отве
вести
пакꙑ
первое
александ
хле
##ниемь
##дѣть
наших
Лу
бер
##вова
славу
храни
##нія
кост
бывъ
други
матерь
ѳедорови
хитрости
богать
никого
обыск
православ
бьетъ
##тꙿ
бои
брани
Божия
дочь
сон
##ствие
##дѧть
сю
##ква
кара
различ
##тти
##ступа
больше
Государь
солнце
ꙁла
##зер
##нием
присъ
зу
##вомъ
##дай
бобы
##дей
потом
марта
##ѣхалъ
половци
##нинъ
писати
холопъ
стрѣля
петръ
а҃
като
возврати
##сѫ
##зан
##шина
столъ
реклъ
постра
##лости
Ба
скажут
ожи
##дили
##нять
помилова
##омъ
##дость
ничего
городе
которого
скво
##вие
мочно
рад
околни
##лим
похоче
Девг
##ѡнъ
пае
молитва
##дю
судити
моей
такѡ
дѣви
носи
##шы
##чины
мастер
час
##городѣ
тъгда
Тѣмьже
слезами
иосиф
иное
##лучи
##клады
вѣрова
господина
##ѧтъ
##цоу
пребы
##вла
##іемъ
часто
чюдотворца
Же
ею
сък
своегѡ
Муром
##ках
##вии
Князь
ел
придоша
тѣмь
##ступ
иев
ню
##пер
##тыи
Ио
пль
блажен
длъ
снъ
ѥсмь
##нна
##евич
дя
напрасно
въину
монастыр
старый
і҃
воду
чину
всякому
второ
быв
малѣ
кѫ
##ровы
сыне
душу
коробь
поехалъ
##шин
осми
##ріа
##цовых
измѣ
моимъ
обычаемъ
##яна
##нахъ
государы
порохъ
грь
ѿвѣ
##цова
##шена
призва
##чера
тихо
писмо
нена
##лны
володиме
приꙗ
вечер
законъ
##пить
кабал
цръ
ѕіс
коп
##овича
ѡбихо
min
блъ
##цово
господства
двь
ре҇
моихъ
Бу
ръ
##цком
васильев
##цомъ
##цких
##сю
##вод
можеть
полки
корм
мату
боярских
кела
15
голову
##зѧ
запове
нашимъ
##ѣзжа
##нтъ
##щер
неправ
ков
крови
##тьѧ
стѧ
городѣ
##сыпа
давать
моемꙋ
събра
руцѣ
девя
##ныимъ
нꙑне
Писа
уми
##цемь
съвръ
бы҇
Боже
помощи
всякого
пригоже
едина
бжтв
вне
клѧ
богда
голу
хлѣбъ
Михаила
головѣ
лосо
кири
побѣди
роуси
##нни
##дри
##кахъ
гне
хре
##ваше
Благо
##бро
нея
##еля
больши
зговоритъ
сынѡвъ
память
##ниа
собе
запасы
##етсѧ
живъ
##нихъ
##щики
заповѣда
зде
##жы
##мана
##мяни
Глаго
прослави
##бить
силѣ
великы
глаголѧ
Александра
Она
ква
##ливъ
пись
##бно
вѣры
крестьяни
третья
##анд
выку
которым
ѿц҃
наоу
вещи
##няя
стоять
цр҃кви
##кина
такожде
дано
ваши
дѣля
деви
господа
##овую
сⱕ
яв
прит
##вые
болгар
Ча
прис
грады
##ходитъ
##летъ
августа
всѧкого
воеводы
приноси
равно
##рьи
сыски
деи
правити
сѣде
мѣрою
отецъ
ѯ҃
##ровѣ
##плем
добре
сѣдѧ
беречи
ноги
городы
пса
чу
##лину
мѹжь
гривьнъ
##щиком
##тября
алтын
кле
##сви
##лку
прѧ
##вом
ѡле
неб
##велъ
испыта
помѣчено
Ны
бжи
припа
##чал
своѥму
Много
##дав
##ман
##скѣ
##евѣ
##пись
вель
душя
будутъ
людямъ
ества
какова
проко
старѣи
изго
луч
##стѣи
один
дарова
##оумѣ
##ваи
ѧзо
##метъ
дворы
чловѣку
##дѣтель
теп
творить
пришелъ
вⸯ
##лить
дѣломъ
##держи
архиеписко
##чію
##вол
##веди
живот
##нꙑи
ходила
записи
дрѣ
ꙁна
голо
##лью
велел
мѣру
потрѣ
гюрг
мень
осиф
боро
##жити
Ꙗкоже
##фѣ
вез
##дрь
дня
##ѳь
##фь
##вой
##лам
который
твоей
мі
##рение
##ненави
ѡл
##чью
ѡп
##ꙗ҆
разум
почита
##пта
##сей
всѣм
##вѡ
всеи
возда
вьси
молити
судь
##тцати
##казуетъ
ока
скър
##роди
крести
имь
нечи
##нос
лихо
сли
##вает
##тѡ
пар
послати
зъло
тюрму
жень
даде
своимь
послꙋша
Азо
##щоу
моги
##рый
мѹжѹ
ѳеѡдо
Нѫ
##камъ
жить
другы
взялъ
ажь
немꙋ
##ринъ
приба
млсть
##пом
##дутъ
##сова
толи
##шеся
##нюю
послалъ
богородици
племян
андрею
Лѣ
станет
которои
трет
вку
##шелъ
##рами
##тоже
##кну
прочь
порѹ
##меши
мног
шед
Еще
##кин
##поста
случится
чюде
работа
ѡво
##нїе
##гле
точи
жизни
исхо
фило
вселен
заклад
##няти
товари
всякие
инозем
челобитью
инъ
неу
многими
##чѣ
##гри
неве
реке
##вым
мѣсте
взѧти
иди
сии
гл҃етъ
дх҃ов
глѧ
##пов
##хвати
восп
морю
став
помощь
уголь
посу
##стели
государеве
услыша
##лья
погꙋ
мнѡго
дѣтемъ
животы
Владимеръ
у҃
##рда
##рено
##ницу
##шит
твоѥ
престо
граде
душа
гнѣва
вашего
уте
##дных
##дѧтъ
бываеть
##нагѡ
стали
руками
##скова
г҃ь
стѣны
идо
##диви
##дыха
##твою
деньги
четверти
##҇тв
и҆мѧ
всехъ
даст
можетъ
є҆гѵ
сквер
здѣла
сидо
добрый
похвали
похочешь
##зꙋ
нап
дьр
врата
##цѹ
недѣ
оуже
##енаго
добы
послан
двд҃
сіи
своима
прѣд
убогы
богатыря
новъгоро
Сь
ні
ничь
царѧ
архиманд
##кіи
своемꙋ
казни
##весели
дум
бываютъ
Тутъ
стъ
##шеть
прр
словѣ
королю
животѣ
##кладу
федоров
губ
жеребь
##ненъ
водою
прие
##кѡвъ
взял
анто
##ꙁна
##ловы
Такоже
неиз
##еме
поити
делех
##ии
всꙗ
бѣжа
архимари
посредѣ
##кіе
##хни
нес
##іемь
тиу
дш҃а
##щение
##рѣти
##вле
##вѣе
алексе
тѡ
тръ
##гре
##мать
всѧкаѧ
добрые
говорити
##чо
##гмен
##чие
послѣд
полич
кора
##овою
черты
пожни
года
##рены
избра
##шею
##тый
##скаѧ
врагъ
смертию
крѣпко
пор
##лия
сыном
телѣ
вѣчь
иванъ
часъ
человекъ
Ужъ
##ꙗ҅
тож҃
дары
домы
листъ
истец
глю
зел
новѣ
насы
##чест
##билъ
дѣлѧ
перст
добраго
Кар
##чѧ
##нице
##мом
##женье
##хꙿ
##никомъ
##мѣхъ
послоу
праве
веленью
недруговъ
вьсего
##чных
##фан
и҆зы
мику
гривенъ
книг
всякими
микифо
##нтовъ
исправ
полкъ
дѹ
##лго
##волъ
болѧ
женѹ
фара
##ннаго
платье
##кѹю
молоде
татар
##вают
бывше
##рно
дала
##маго
##казъ
роже
стояти
службу
ѹм
##рковь
##ліе
##лые
скажет
Добрыня
Тро
҆ꙁ
##енѣ
людье
Туга
учнутъ
богатыри
манастыря
убь
##сіи
##ѕѣ
##ните
##лексѣ
единаго
знамени
поспѣ
земель
деревень
##чали
изстари
вины
василей
слꙑ
слоу
подво
възѧ
грѣхы
являет
язъ
##хва
пришь
##нец
пашни
##тые
жили
благовѣ
хлѣб
##дови
реки
деревне
глава
правьдь
заря
раи
любъ
жизнь
латине
ѡчи
##сті
##ничь
даръ
##чери
къто
полоу
Въз
рѣчи
коунъ
боярского
ѧко
##щеть
##пли
женъ
боярину
великихъ
феодо
##гами
обь
иному
крѣпость
ссы
##бру
##ваеть
преста
москвѣ
Киевъ
##смотри
нѧ
##сна
прожи
пала
пагу
ѡко
называ
##славль
лошади
дѣлѣхъ
мс҃
##кро
караб
##сали
##жать
муже
старому
##ві
прекрасная
іс
##вꙿ
поте
колко
бой
оувѣ
мана
##семъ
николиже
ѡстав
##ана
##хан
дев
словесъ
службы
воздви
холопе
премуд
неделщи
месте
отдавати
врѣмя
весел
ѥже
##идоша
##жене
##глых
нео
##жали
межъ
ходил
##т҄о
семи
рубли
нꙑнѣ
никтоже
##дка
божь
чести
испол
Ле
опо
бело
вѣра
##еное
чловѣка
анг
##нили
##зии
##сывати
Михаи
Спа
##дры
боѧ
ров
Ꙁа
бояре
повели
##мете
##ѡна
приспѣ
глав
13
заложи
члв҃
мсца
ѥмѹ
##вкъ
##сле
##мая
стоѧ
бѣс
словомъ
богатырь
впа
##чена
##тины
##ваѧ
##нець
мысль
гривено
запись
всѧкіе
##емен
##цахъ
полаты
зело
шло
##чеи
твоем
благослови
василью
мънѣ
стрѣльбѣ
єже
##нку
промы
##рью
велѣлъ
##пали
учинится
ѕѣ
ѿню
##мою
сиби
послаша
здоровь
Они
войска
обрѣте
жер
мощно
ивашко
послал
нашу
македоня
всею
живет
городов
ѥ҅го
##тови
##ѫтъ
досто
тамѡ
##дѣлъ
##щая
пьр
государевых
итти
##дре
кобы
рабы
господину
оси
ꙅ҃
##тку
твоегѡ
Русии
точию
увѣ
##сі
##лма
сирѣ
мерт
30
воспо
меч
##тят
боярина
##дникъ
Воз
мьнь
##нове
томꙋ
##кину
зам
##чалъ
рукою
десѧть
Потомъ
разумъ
такимъ
поруки
денеж
##сподину
ꙁвѣ
##како
##кимъ
себѧ
бых
пѣшихъ
купил
##нимъ
готови
##т҇
##чную
доса
сот
##поу
миро
слову
срок
погиб
всѧкїе
сътво
##вѣсти
прѣсто
билъ
слуша
ѻ҆т
московскии
Поп
##скыя
правду
изѧславъ
Царь
Обо
п҃
юже
##нской
всяким
июня
##нные
##хся
полку
вьсѣхъ
именемъ
молю
рекла
покров
также
глаголюще
Ку
ген
##вѣта
Понеже
святаго
имену
пророкъ
корабль
вдѣ
одно
##конь
##лож
сузда
всякихъ
Илью
блѹ
##свя
##дные
##вон
давы
##пита
какое
неправь
ѡстави
##рья
рыб
Слыша
##нца
съкры
##чьсти
июля
кем
въско
кад
ѡ҆брѣ
див
истинь
гово
##ѫще
там
такую
бꙑстъ
помоли
##дрость
войско
иным
##ꙗше
##ваа
конѣ
быт
милосер
##лами
прише
##несе
вѣки
##слаб
а҆г
царемъ
деть
усп
##шев
безако
##зати
исцѣ
смотри
хлѣба
##стꙋпи
##҄е
многих
Дѣ
сію
хꙋ
пашен
ихь
гали
даша
дару
Пота
добрых
лови
утѣ
шю
##номѹ
Господу
поместей
отьця
##ріе
##бѫ
томоу
собор
##нят
Горе
бесче
десять
##нены
сотво
і҆а
тат
##тѣи
ивашка
смоль
ивановичю
##пль
бьі
##анна
##имь
##дѣя
ходя
еписко
##ꙗти
дай
##чая
взем
порѧд
Ар
##діе
тамъ
изво
##лѧти
годъ
##твь
прото
##ставъ
вьсь
иванова
диа
всеволодъ
Кан
домѹ
патр
свинча
Добрыню
между
невиди
##рꙿ
##лда
##дил
соуть
пожалуи
въпа
##цех
##соже
тѣми
бꙑс҃
жеребе
воскре
##ꙁнь
##ѹю
##щены
прѣму
единого
поклон
житие
14
##сцѣ
##будь
всѧкаго
объяви
половина
кланѧю
##пля
кънѧ
куда
половину
ины
##ренъ
вниде
надобе
плъть
ѕвѣ
намо
родъ
исцом
г҃и
ризы
господинъ
святыихъ
чему
##ваютъ
едину
гсдрѧ
Михай
ц҃рь
ряд
старостишко
жел
боб
подле
слуга
##штеши
мѹжа
гле
смь
##знов
намь
##тай
##лѣт
благ
преподоб
Сла
дщ
ист
##жду
##ѥмь
настав
прое
##дуть
##выя
василеи
бꙋдꙋтъ
фунтовъ
просѧ
беззако
странѣ
словесы
мудры
спор
Рече
низъ
варѧ
##лыхъ
сѹды
рублевъ
игра
сътворити
починок
лжи
##кати
вѣсу
##овыя
бьютъ
##цкои
бл҃гослов
молитву
Соловей
еѵ
ѣз
##зѹ
##тры
прежни
цареву
поставити
вскорѣ
Анти
поры
##далъ
хоть
часы
твоих
погреб
черезъ
Нь
Фило
##дал
дьни
боярские
промеж
Страти
20
##кта
Воево
конныхъ
словеси
##шааго
##нями
темъ
тѣм
знамен
основа
рꙋкꙋ
##слуша
кн҃зь
оуч
любе
##дью
##еніемъ
отдать
такіе
принес
40
рост
возлюби
рыбы
подобаеть
##аху
стала
вьс
##стеи
ѡ҆бра
служити
таковаго
црк҃вь
фи
##чение
##iе
##лака
##ритъ
##дума
всѧкъ
а҆р
вороти
седмь
послы
возмет
имян
строи
требу
##манъ
черте
##ловичь
твориши
васильевич
##товъ
нев
многое
старой
великая
##цкие
поехал
Жи
##тинъ
##никѹ
##мыи
прѣжде
##цьмь
християн
тере
тря
##гах
волх
Дружневна
шел
##он
##вери
городу
добрымъ
ѥмоу
приступи
##сквер
возму
чинъ
переꙗ
гласъ
лав
нѣкоего
бесѣдова
##дии
дамъ
пит
сь҆
##враща
поместь
гривьнѣ
оного
##іꙗ
##номꙋ
прича
сегѡ
любови
вдвое
##раꙁ
##шии
хоу
велицѣ
##щии
тѣла
володими
верху
учинить
святых
сребра
челобитчики
Буди
кур
единому
##дрости
##чку
##чное
##лень
##шке
гд҇и
соблю
лесу
тур
помышля
т҃
ѿвер
##ѹмѣ
оумѣ
старѣ
впередъ
ꙗ҅ко
Бову
##ѡбра
##цами
которую
иной
монастыре
кнѧзи
таким
видиши
Потанцы
Всѧ
##лꙿ
великом
##овыми
добромъ
##твꙋ
хощет
ѕа
##юся
##ѥва
нетъ
##дале
стати
##вени
нале
##никы
събла
велику
##дыи
пороху
прямы
телес
спроси
##ѥ҆
симь
статей
мѣстъ
любви
с҃то
Москов
##л҄
лицем
Сице
##нныхъ
##мены
##дру
##кори
##лют
вен
##ркъ
##нц
поя
##ничи
##праша
ᲂу҆м
болгари
пакости
##тои
##нех
станы
мать
славѣ
сѣмо
семена
##стром
царству
ѥ҅моу
##кти
нечести
даждь
вѣрꙋ
бꙋдꙋ
коунѣ
братия
недруги
трапе
Ису
абіе
##хова
мона
##мор
старин
вьꙁ
##сма
промыс
##лять
чюжи
батюшка
ухо
##чꙋ
##шѹ
##доста
##вѣшта
перь
свѣти
держать
нбс
селу
нарече
христосъ
игѹ
побо
##тесѧ
подко
свѣть
начатъ
чьсть
хр҇
пушекъ
Бла
##сию
ако
иный
полю
жереб
##скомѹ
бѹдѹ
крѣпости
смотрѧ
##анъ
доли
гору
стало
##ндра
детеи
денегъ
отече
##глъ
##рять
григорьев
##сну
обли
гривны
гър
даль
##дол
василеви
такие
Македо
небеси
рꙑ
##ѧше
##кихъ
##дости
твоея
идѣже
##дꙿ
рода
дѣть
полѹ
приехали
дще
мрь
##ѳе
зак
промыш
святого
тъкмо
генва
ꙋбо
##рца
##нено
##дене
##бє
##гни
##скꙑи
##жаи
роспро
перево
которыхъ
сѹть
чловѣчь
дроб
##ам
доспѣ
##лову
вид
##леніи
##лꙋи
четвертей
звѣри
величества
прибѣ
реза
възврати
имамъ
людие
##зомъ
бг҃о
Владимиръ
Кра
наряду
статья
полтина
скры
любов
##риѧ
пишет
##ндрѣ
##ложити
немже
кѣ
коль
##чай
поидоша
бꙑло
кꙋп
##сва
##уму
##стани
выши
ꙗ҆ко
держи
ѡбла
##ченѣ
съблю
##скіѧ
вите
##бами
сторожи
бѹди
Раз
А҆ще
##против
оуби
христе
многихъ
хощеть
сно
##сово
##їа
##етѣ
вещь
изь
вземъ
##новичю
великих
Ин
##еш
##҄а
##шиши
кали
прохо
##стоу
##телъ
имат
нихже
христ
пѧти
Указъ
дша
##дѣй
порутчи
кѹп
слѹж
слс
офона
накре
##ену
приез
##чекъ
стго
вѣрѣ
страха
можеши
твари
пытки
Володимер
любовию
накрепко
##нных
##ть҆
торо
нибудь
пусты
сторонѣ
самодер
лето
осу
##тьев
##ерва
ст҃а
##ющаго
##ѕа
никакоже
хощетъ
дворян
напол
##въши
девѧ
Богороди
крепости
##лете
видѧ
##телѧ
послали
поиди
##хла
##рили
раб
##няаго
перваго
шедъ
умь
хво
дѣлы
княже
##кех
бѹдетъ
Аз
вто
потъ
##диша
##жею
##скочи
градомъ
вьз
##ленію
подлѣ
ѳедоровичю
##ꙁе
##дове
поц
бож
трех
взяли
покои
Чя
наказы
дан
прошу
##сталъ
##кѡмъ
семо
##ловичю
торгов
дръжа
дн
##лѭ
##еніи
##ломе
боꙗ
##дника
##твѹ
игумень
книгам
вскоре
Марша
пѫ
утвер
##сво
##юштааго
дворѣ
нѣкы
бг҃ꙋ
приказъ
федору
размѣр
фрагмен
гру
фро
##шения
помяни
##сить
исправи
привести
живут
ѡтро
##рва
##лан
рожи
добръ
Показуетъ
бьрковь
положити
Оборот
ума
ѡже
##сени
##дны
##хѣ
##л҇
поли
приехал
прел
##ливо
##ваю
рожь
сади
един
##ловича
дватцать
##штиихъ
погрѣ
милостию
высоко
Добро
слъ
##мка
писать
недостои
богатьство
новѣгородѣ
мс҃цѧ
нра
заму
соль
##луй
плате
##сыла
послана
написаны
закон
тысяч
Вели
18
Мъ
ид
оди
##бож
рѣки
гсдря
прииметь
вя
пру
##мона
възьми
ризѣ
покаꙁа
ближ
жития
сорокъ
навы
нема
##мин
##скѫ
сколь
мъного
почто
##чаи
мужу
детьми
сена
прио
##городе
мл҇
образъ
целовални
Девгени
влъ
вдова
##ср
наго
##читъ
##скомꙋ
пише
живꙋ
Сѣ
##суд
нарѧ
##ету
дана
##подоби
##овичь
доброй
пѣс
е҆го
глагол҄
##ереи
испра
бил
воеводам
##льга
огненныхъ
ѡц҃а
начер
##тъкъ
книгы
приведе
избави
есь
##жем
##щено
##лне
##ницю
воп
рано
##шите
проч
речке
жем
оле
ыва
ѡк
ꙗви
##шему
##кия
##гай
##сею
гд҇ꙋ
бꙑти
##зера
отчину
ѕѣлѡ
идеть
##ица
##гѫ
##рость
своє
##чата
хот
велелъ
Владимеру
наказѹ
негѡ
##дѧт
моим
благы
добрыхъ
кабалу
подлинно
горь
##шей
##бомъ
велмо
боярин
##писати
повеле
ст҃опол
огненныя
Государю
посылати
##кши
##помъ
всей
посол
постри
новгородьци
мирѣ
куны
страна
деревнею
##ющимъ
сни
тща
уве
стря
станетъ
бесп
самь
пиръ
бояры
человѣкомъ
приими
новагорода
идеши
##кве
меду
погѹ
уши
##нко
конѧ
##цѣмъ
лут
творит
здорово
сребро
Є҆
ибо
##мна
##стри
##щаѧ
братіе
ст҃ополкъ
раздѣли
болѣзни
##ꙁда
##п҇
##домь
бывши
##іар
слышати
другое
##ствия
жы
ясти
##тна
пота
##кие
раду
холѡ
вѣси
##лый
стори
мѣрѣ
святи
мѣстѣхъ
всѧких
инѣхъ
ѕло
##нду
сотвор
##чево
река
братьи
правую
людіи
приступ
##млѧ
##рече
прида
мирь
##тѣхъ
Боя
богат
обители
сказалъ
павлов
объявлено
ѡбо
неко
##жается
##лену
остан
шти
##тисѧ
##рева
##дивъ
дат
таков
возвра
черту
бѹдет
блюсти
##стенъ
прослав
трете
снасть
патриарха
службе
просвѣ
Марко
абие
одинъ
##ржа
##кі
тати
##чаю
сапо
##дохъ
##пия
бить
благочести
именова
драги
хорошо
пона
##ревъ
какой
имѣетъ
времена
всякия
запасъ
гн҃у
укажет
присли
достой
дочери
##мое
##нешь
платить
глаголи
ѻ҆г
степана
вложи
гря
збе
неду
##стом
##пан
власт
человѣку
снасти
##треть
приближи
плачь
женам
многия
семенов
##мено
##рамъ
вашихъ
##ходити
ноя
дворов
судья
і҆и҃лє
Алеша
съсⸯ
ску
умѣ
##сѡ
##дися
затвори
посли
##тымъ
##нову
старце
покланя
оц҃
ѳе
##жется
##гг
##раси
##ности
##реви
костѧ
полоц
волоки
Христ
тоур
павла
насиль
##дб
въсто
##лѣе
покле
мцса
уме
##зды
##тря
вса
забы
росо
самомѹ
жѧ
##внѣ
##еди
##тко
##чину
вави
##гива
є҆динъ
возо
сѫтъ
повер
отцов
изве
##мый
вьсѧ
##ствены
рꙋцѣ
Киева
книгах
Антио
шъ
##денъ
откуп
##тыя
##телемъ
главѣ
приимъ
обиду
верьх
сово
##стие
прео
естьли
##лене
##града
##ющим
пушкаря
встрѣ
инымъ
полоть
##мири
своа
честию
межа
печ
розбо
числомъ
Дарий
ч҃
##щымъ
##стіи
поѣ
##рома
доко
моемъ
масло
слави
печенѣ
моегѡ
обыску
і҆и҃ле
десяти
пріем
пристава
старец
пꙋти
пошелъ
живетъ
##тецъ
##сех
въздви
есмы
правда
мудръ
полага
Духа
##брѧ
силе
мака
масте
продажи
петрови
давꙑ
Чадо
Сер
алексѣ
##ниѧ
##щика
жива
##бав
##славли
плот
##лении
е҇
ща
##где
##їемъ
прч
стороже
сотвориша
крым
Уже
днѣ
##гры
кождо
пита
##скых
опять
мьстиславъ
Ди
слн
защи
##пит
твоемъ
лицемъ
вѣсти
которымъ
булат
##ждѫ
написати
спаса
неправед
впередь
филосо
идетъ
##чныя
##рости
въмѣ
##шими
питье
##ович
храмъ
Ихни
зов
##лах
##лех
##нь҆
##телем
лесом
сѣд
васили
и҅ꙁ
древа
отпуск
Кіевъ
Маркобру
сея
молод
исповѣда
Паче
маия
убытки
##речь
##дат
##кими
сохрани
##цамъ
##любь
##лях
дворѧ
##городу
чл҃къ
укрѣ
##ретъ
##номь
##хот
Пои
словъ
учени
Разу
исповѣ
котораго
дов
##щем
своꙗ
нижне
стоꙗ
Под
имена
възлюби
плачю
королеви
##ющу
величество
ѡлегъ
гꙋ
##вшу
неме
несъ
##рев
проразумѣ
вашъ
##хомь
крестъ
крото
юрьи
##а҅ше
костян
Вся
г҇
##ешъ
##кія
##горѣ
##гамъ
правой
укры
##юри
##вому
##даи
##рины
##еру
##дес
##еней
которому
судъ
истинѣ
##гели
ярославъ
Гра
вопро
дости
заб
литов
ноу
є҆ди
##вят
дьа
десѧте
напередъ
иосифова
##рку
##тем
##надцать
сими
великыи
мест
полꙋ
рублѧ
арх
приидоша
митрополиту
глаголетъ
дв҃дъ
стряп
ѹго
##лаа
##дома
##поль
царица
исполни
вѣруй
пытати
вверхъ
бжь
##ломи
##тори
##томь
##каꙁа
статью
##паче
межь
многоцѣ
##зоша
бѹдеть
бесѣду
идоша
##шⱕ
##яние
##҃ь
##ливати
единой
лари
##ехал
бж҃и
сѵ
єсть
##риши
##нести
стави
грѣхи
великим
отдано
ѥ҅стъ
Пра
##чы
##ѡм
##ѳѣ
##митри
запас
##ющихъ
старецъ
воль
##жай
дека
##гранецъ
конецъ
прямой
стрѣльбу
научи
видети
прилежа
найму
##ина
##вшю
##нени
##хово
##ховъ
##штоу
пріѧ
вонъ
##ким
##скій
хоте
лип
душю
##ходить
сельца
ини
мт
боудеть
##гаты
старость
большаго
сътворить
днесь
дха
зову
утро
##чете
толь
собѧ
лиши
##нѧти
инди
конюш
##ѭтъ
##стаго
государьства
Самъ
коней
молча
естество
приступу
##зви
##шту
##рокъ
##рите
тоби
дабы
отче
така
розъ
##ленія
##штеи
убой
##ноую
гривьно
чл҃кѹ
ответчика
серебро
грв҃нѣ
Муромца
крестьянишка
Слово
##ꙁни
##мел
попъ
прет
##чимъ
тыи
хранити
чꙋ
поѧ
борт
време
благово
напишет
Ѻ҆
##слъ
##бави
полоча
сѣвер
главою
##дятъ
##скым
врага
##ждени
срамо
Господень
##техъ
паде
изма
пус
гривнѣ
цр҃ь
1000
сирѣчь
суздал
##вны
##ліи
##вала
приѣха
##чима
руко
нѣту
творитъ
воевод
Сам
младен
лучше
Пу
еван
кля
отвѣща
оуб
вѣдати
братья
Посла
владѣти
разуми
##зеро
боярским
##ющіи
Божию
невѣр
восхотѣ
послѹша
бел
крт
Ѡн
##лата
тобо
моря
свѣи
знам
приехалъ
приемлю
Е҆
ана
##день
##хже
дажь
##скь
вѣдѣ
выти
городи
риз
##цкии
жаловал
##теръ
проповѣда
ля
##ору
##іє
##дем
##шены
##жеши
стер
прѣстави
переслав
живона
петров
куплю
убий
##р҇
##рон
##рецъ
вав
##дый
исцов
шаговъ
землях
кружаль
нашого
Пе
##вѫ
##щенъ
##петъ
##никовъ
радъ
##овичю
сѣмѧ
людии
милостыню
тꙋр
собака
връ
впро
кров
##щѣ
гоч
перея
възи
рѣка
нашеи
отрокъ
первой
бяху
##бля
##див
сич
своеѧ
пива
##трен
##говари
50
##к҃
##жны
##бл
миру
краль
і҆и҃съ
кнзь
змѣи
ужа
хе
##плъ
##янъ
костром
могъ
сим
преи
всѧкѹю
никако
16
внѣ
##гну
##нину
##рие
боуд
##лец
събо
пали
двое
славь
насле
поставиша
є҆гоже
вельмо
Чядо
поноси
##тех
всякой
прикажи
алеѯанд
ѡбь
##чнаго
##яне
##гаго
##сков
красно
печати
Созо
дороги
царицы
влд
хочешь
едва
радоватися
зь
##ствь
##ват
##лѣнь
всѧка
дѣлать
слышавше
близъ
достоить
аꙁъ
ѡна
непре
##лой
мостъ
иване
гришка
бояром
воиска
гривни
брат҃
Сия
непрѣ
вьсякому
разꙋмѣ
кнѣ
Ѡ҆
##рма
отво
##скоу
ночь
бѣга
##енера
Божии
бѫдетъ
рьци
прежнему
обле
семоу
б҃у
приведоша
куплены
почелъ
Бл
поб
##менемъ
стрел
обѣща
здравству
##моро
##чахъ
Въꙁ
багаты
торгѹ
помага
потребу
Нѣсть
Никити
##тами
ѻ҆тро
хочеши
месяца
сестрами
азь
##ец
##твѣ
##щена
##чною
пожь
воза
выслу
милостыни
человеком
малое
положиша
Салта
золотыхъ
детми
дружиною
ествы
вмѣстѣ
давідъ
хрь
##здо
наста
столѣ
возложи
##сѣи
##ныимь
##езжа
здоровье
нє
##мни
пооу
немѹ
задни
##чад
сташа
дружина
Слы
ѹже
##повъ
насла
##тоша
двою
##новь
храми
разума
оружей
крова
оному
цвѣ
##нїи
##она
ставить
##оумоу
##левета
которомъ
заповѣдь
никифо
ступ
узна
҆е҆
ꙗзъ
##дено
##҅мъ
даетъ
раст
прѣпо
чимъ
писалъ
трехъ
##цким
съмьрть
патріар
##вшаго
##сіа
##жє
##щетъ
##чис
##чать
##правь
часа
цр҇
писанное
памѧть
поѣха
##вана
##кии
мину
выи
нося
тиха
медъ
##ныими
##евра
##дѧше
ѻ҆тца
помощ
приставу
олександ
##зова
призыва
##бит
избы
креп
лес
Тѣм
матере
жалованье
недоста
Оле
Федо
вторы
##немо
##тву
нако
##дети
сыны
рѣкы
глеть
старостишка
малыя
челобитчиком
еги
##ѡ҆
пригово
запе
##щик
братом
бѣша
исц
##мену
рим
москвы
бж҃іѧ
поруку
богоу
скорб
Ныне
##бии
глас
женами
водѣ
съпа
твоеѧ
##пѣти
бывало
глубо
афо
генера
##дах
желез
молеб
надобѣ
близко
бесчестье
аль
хы
##зли
##пѧ
нее
##даю
##чивъ
диви
такия
деревням
дорого
##шедше
чл҃ка
селитру
хлеба
рѡ
##віи
##ꙁꙑ
##пр
годи
##ходы
прес
страхомъ
имѣй
видѣвше
вотчине
##строи
бж҃ію
одна
ище
##ждꙋ
##шми
выда
дѣи
множьство
Паки
житіе
великіи
порабо
Ему
вѡ
заем
разсу
плоти
сщ҃
умыш
##вне
##вар
##ньства
гавра
##говорилъ
повар
грѣховъ
съмрь
середку
государыне
товарищи
зго
мръ
##ѧ҆
напу
нощ
плачи
##писано
николы
гривене
андрю
##ющих
домови
никакова
стоить
гюрь
веселие
называют
71
олта
##сную
въспо
знати
селѣ
внима
прекрасной
королевна
иныя
клѣ
ѡца
##ницѣ
своѫ
татя
вѣрѹ
деше
##ська
подра
серде
дьяку
прпдб
Чер
##нцу
##вари
прѣже
всѣволо
видѣхъ
бꙋди
скорби
Говори
истари
устав
ѡка
##ѧли
кости
вост
##дѣвъ
оучени
доброго
серг
е҆мѹ
васильевичю
просить
Ана
попу
начина
боа
чини
Болга
твоею
котором
серь
воинскимъ
принесе
непри
молодецъ
генваря
Ско
Свѣ
сыска
править
##зость
слѹгъ
Сто
ѡтъ
##міа
##ꙑхъ
наса
##тилъ
##мѣя
паха
выстрѣ
людехъ
рѣчь
доброе
михаило
бж҃е
искус
оружи
холопей
Ибо
р҃
ѡба
##ветъ
##тіа
##дана
доиде
##лежа
преслав
є҆лика
пустыни
челѧ
великие
крестьяном
плодъ
послѣди
радостию
кнзю
ѡц҃ь
иными
##еро
томо
##дила
##дешь
бѣлыя
великомъ
бывает
тѧж
цѣса
пришел
безум
степени
выкупа
Оже
оклад
##рна
##ꙁꙋ
##ченіе
##никь
##тау
##гина
тых
пушку
пушкѣ
##новича
закона
хлѣбы
устроить
одного
ярослав
выборныя
##племен
ѡпѧть
##рко
##ннымъ
постъ
##чев
##спода
никоторы
плоть
цѣло
покори
государства
назадъ
ѡгнь
Вар
ата
спол
##луи
ходить
просити
дш҃и
тимофе
апостолъ
17
сдѣ
##ѧна
поды
##ноѥ
##моли
##чилъ
##чески
скорѣ
въдале
красоту
сельцо
зер
шко
ѱ҃
##куду
##іѫ
коза
моꙗ
##льи
прочих
умно
жезлъ
аминь
Аки
лы
ꙁѣло
##ея
нама
насто
въси
закла
занеже
любя
Почто
прѣста
рыда
##штение
ворота
здорове
свѧщен
стѧжа
новъгородъ
##мба
##кна
##раи
##жев
##щими
стола
гсдри
мꙋжъ
##евым
ноября
пен
##рета
##спа
##тиѧ
прогна
межу
Само
кеса
сверхъ
ажъ
аꙁь
ꙋчини
пропа
часу
##женья
дворех
ряду
дщерь
жє
ꙗвѣ
##вола
пана
Пос
нѣчто
##вятся
послание
красна
моѥго
сквозѣ
слꙑша
любъвь
поку
##рони
воля
раны
##лым
дѣтеи
##шьдъ
ихже
ст҃ыи
##дюшка
двер
##юшти
##бль
##лачи
##локъ
заут
ведомо
##скія
##щиков
##тыми
пристани
пожнями
духовной
приказано
разбойникъ
кѡн
гео
лѫ
сръ
##ѹм
##яв
##вода
коно
и҆сп
стру
изгна
сави
перело
крась
##менова
народа
дх҃а
Ска
чѣмъ
преле
##дим
бию
продажѣ
пречистой
федоровича
##жете
##др
##діа
начь
##ловь
пиш
Мои
челобитья
ходилъ
начнеть
делу
жалоб
лꙋка
Еги
##нҍ
##нной
##уби
##іо
##пя
##штися
є҆дино
такому
тую
ѡбрѧ
бл҃говѣ
Киеве
##штяя
московского
молитвы
ѡколо
игуменье
моро
##скор
##чаетъ
чюже
братии
##пꙋсти
дѣтми
тѫ
##нⸯ
##чень
посто
поща
##чия
и҆ма
всеѧ
Подо
прѣль
которыи
пещер
##дять
книж
ꙁаповѣ
чьсти
славнаго
свѣтло
имьже
ꙇли
##рпи
##аг
##ѕи
##нич
##рее
##лъмь
##скомоу
##мѣй
симо
грабе
ѡ҆стави
##ждения
правдою
Раꙁ
рꙋки
ц҃р
можешь
обеща
Трои
##лит
небы
вѣнь
страну
гроба
##гьі
соверши
Ав
епи
прель
##ныꙗ
боля
##шаше
солом
беглых
жил
а҆вра
##ждаше
Велики
іѡан
##ламъ
##мую
софи
панъ
безбож
##зить
Петра
емли
великій
спасение
709
##ненавидѣ
##рехъ
##кий
бора
живи
край
полот
серги
пищалей
служилых
пта
##щѧ
налѣ
##рек
##сия
лукъ
бесчести
ествѹ
кѵ
нове
одѣ
##зво
##чная
прося
таба
##ютсѧ
печать
четверть
стоит
брашна
Ан
а᾿
елика
кдь
ꙩв
##рє
##ныѫ
простра
прочее
##лѣдъ
пас
винѣ
месе
суща
дьсѧть
враги
гривне
стефа
коуне
грвна
челобитье
казнью
рекше
кръвь
ненаказа
Девгений
сѡ
явно
##ону
##спи
##стю
##раду
прилага
##нехъ
##чища
##дьно
сыи
##дѧще
держитъ
правдѣ
второе
##млю
и҆мѣ
##ньство
всякъ
г҃ла
скажи
данила
ести
ꙁде
##сръ
##ꙿже
помѧ
копи
богь
саꙋ
##ватися
тяже
пꙋть
сподоби
фари
мудрость
мѡѵсеи
зме
прите
расто
ростов
##выше
слышав
##ходит
старцом
окольни
вашеи
купилъ
врѣмѧ
готово
##вена
##҄и
##҄ь
тога
##сан
стѹ
##град
##твѫ
поставить
учинит
сказати
см҃
##и҅мъ
ключникѹ
##ч҃е
снарядъ
матушка
корабли
##щє
##тор
мають
рѣцѣ
##славлю
сотвориши
братіи
молодо
почалъ
шо
##дѣтел
##лѣп
##вес
хощу
предѣ
саме
вѣтръ
сьде
обрѣсти
дружину
побилъ
чолове
шанцы
впрок
зря
црю
ѹкра
кондра
нифо
изи
живы
ночи
##цевъ
є҆смь
плава
семꙋ
бесер
желѣзо
отец
кдѣ
##нʼ
##два
##дово
##шла
сохра
городо
гласомъ
##стѣхъ
любити
домочад
длину
ефи
##ꙿно
волею
моля
##стая
##скаꙗ
Полка
которыми
вервь
приима
Соловья
##лимпия
Добрынюшка
Потанцыяна
Рѣ
нбо
тель
нага
##ромь
##пивъ
вѣсомъ
сужда
мѧсо
##ложить
гроз
языки
Божий
лѹка
небре
третей
спра
##венъ
княземъ
всякаго
грѣхомъ
гд҇нѧ
##доуть
казны
молви
пришла
врѣме
войску
##десѧтъ
зель
троу
##щему
##толѣ
тогѡ
гон
##дела
разбои
супоста
чис
бара
посъла
ямы
##нїѧ
##шаи
##чева
живе
добри
чисты
##овый
крепко
лег
##скые
дороге
погыб
Володимеръ
##ꙗко
##ерега
делати
лебе
сторожа
книгъ
раꙁоумѣ
ближни
дорогою
другая
идти
оль
обви
въздыха
##скый
##твръ
нѣкое
искать
достоинъ
глаголеть
ехати
нови
снови
чти
##ати
##ѥви
наво
##тааго
приви
##дець
отвѣ
пиво
##нѧѧ
000
Іва
Елико
ора
црѧ
ѕла
##мета
##ѧло
##тии
и҆но
оукра
##скьі
пиро
разгнѣва
сусѣ
лазо
гд҇емъ
любве
##десятъ
похвала
##литъ
##нино
##дора
##рят
##сехъ
##вяза
друзии
ѡ҆би
положит
пꙋсти
Гла
ги҃
дрова
##лⸯ
##гор
##ерѣ
мостов
раби
хоще
доброво
##слоу
пѣсни
мꙋжа
дорога
кабалам
пріидоша
будучи
##твами
лошадь
лѹчит
обаче
наипаче
большому
стрѣляютъ
порѧднѧ
вавѵ
Фа
##знѣ
##ѫща
##делъ
##хма
##шняго
позва
весу
крестьянина
створити
простира
Де
идет
моль
##шилъ
государево
##сломъ
архимандри
говѣ
рцы
##нати
##чевъ
##дъкъ
городом
рѣхъ
каково
хр҇т
купили
назади
сыскивати
і҆и҃левыхъ
сн
упова
хар
##йта
##стѡ
##сати
##рыни
пада
теку
меща
лев
алтына
сирота
въскорѣ
зва
ѿиде
##мнѣ
##об
наꙋ
##тие
##лицы
##данъ
кога
и҆спо
рож
которою
оборо
казаки
Христо
всѧкимъ
голуби
##імъ
промыслъ
##бина
твоемꙋ
март
##цев
##слꙑ
приказы
пѣти
чистомъ
льсти
ногатѣ
именем
седми
злѣ
летъ
шли
ябло
Ѡт
##рта
##пру
##iа
##еніа
въведи
##левичь
вышь
##леніа
онто
полату
всѧкихъ
манастꙑ
тряпе
##лица
##нулъ
престав
##гихъ
бѣси
имже
старые
своемѹ
зве
хрт
##нны
##ью
защо
##боша
##чаль
##чаше
##г҃о
отданы
##ющꙋ
новгородци
##яния
##йти
почь
гой
сыру
менє
приимеши
##летѣ
##стямъ
##и҅хъ
беле
грѹ
жво
кіе
##вꙑи
##ꙁоу
##чным
##лию
##жает
вину
##телѣ
гласа
бояръ
сѹда
##шую
мъл
противꙋ
глаголаше
можемъ
гсдрни
благая
вездѣ
имянно
дніи
##нена
##ліѧ
пристави
##можно
отвер
##жига
странъ
црство
розда
недель
покаѧ
скръ
ст҃ославъ
напасть
междꙋ
творят
напослѣ
##нїемъ
нѥ
##нкъ
##цкую
##чнымъ
##наи
зад
тек
росхо
##чье
##чь҆
смир
хитрость
хрстїѧ
Пере
внут
ѡст
##стна
прип
разби
домаш
##дцати
спрашивать
справ
##нє
##свѧ
##жоу
прияти
рубе
прапо
полково
городомъ
##спе
благодать
##нѫѧ
пушкамъ
кабале
##ствии
стрѣльбою
уряд
пушкарскаго
бросати
дето
ѳеодо
##гое
неща
ражда
паро
либо
##бели
##соли
исца
такого
подру
имѣютъ
баш
##ніемь
##лениемъ
здѣсе
пречистыя
мужя
жемчю
жръ
##сми
##юштю
##линъ
##точно
коя
вечера
сава
##тѣй
ᲂу҆бѡ
семѹ
##скыѧ
менши
ѳедора
ꙗ҅коже
жестокое
гер
ухвати
##шел
##шкою
стена
##ютца
печи
ѡ҆став
моею
##буди
ꙁемл
слыха
Владимерь
мнст
напереди
твьр
##немь
прити
зара
разсѹ
дерево
лавки
великия
##нитися
ѥгоже
володимерь
матве
храбры
хрстіѧ
смы
ѻсподине
ѿц҃а
##ховь
##шяти
##ям
##ѥши
##енію
приѧ
прилу
молови
пив
полтин
черка
помога
##держати
гривьноу
богомол
скорбь
прокля
гераси
Глаголеть
поличное
зра
кі
##мсѧ
##кс
##дное
##дия
продати
таковъ
ктомꙋ
родит
господинь
гробъ
яропол
умрет
смирен
немощи
гсь
##грѧ
прило
##щеся
вѣж
титу
есмъ
ᲂу҆го
благодар
##щеніа
Киеву
##леніемъ
посреди
намѣст
Ꙗ҆ко
гвоз
##дами
гостѧ
##чита
##шемъ
##стилъ
брато
суще
славо
имѣя
гд҇ень
полуно
ꙁемлю
дней
бѧхꙋ
особ
кормити
Сте
бру
вста
дѡ
еду
смена
##вають
костан
тебє
сказал
взѧша
внизъ
неподоб
стоятъ
слѣдъ
душею
подьячему
Тъгда
мнѧ
##гову
##ni
на҇
и҆хже
##нуть
стадо
##рятъ
вѣду
є҆ще
святому
никогда
Воль
игуменъ
говорит
##шол
похочет
обрѣта
цело
##вр
##дли
##стръ
наа
##нитъ
волѧ
заку
сотъ
##въз
пак
хол
ротѣ
ѡ҆кре
тритцать
бꙋде
посъли
дщери
Мь
Смо
еф
##вⸯ
##ьто
##рилъ
бо҃
писали
доброи
бжіи
сорока
Ивановичь
Прі
##фу
въни
мощи
можно
##щину
печер
сьмь
веру
##гыи
створ
народъ
ратма
сибир
едно
##нете
##лоби
раска
##жиши
##нял
Потокъ
левон
ст҃ꙑ
мыта
святыхъ
##ницахъ
смр҃
каких
проклѧ
казначе
Подоба
Еда
втора
окла
сне
февра
##мра
богу
маг
било
битися
жалу
крово
правды
небесе
холопство
исплъ
Всеславь
тварь
Магилена
Картау
Яро
зꙋ
ннѣ
оуд
##ою
оудари
посрѣ
##дье
##вь҆
милосты
ослу
царей
обрати
объявля
##стѹп
чрезъ
зим
мет
поже
възъ
имам
шесто
двери
хѹдо
ловѣ
яс
Ѡни
ѿпа
҆же
##линь
коего
моа
##шего
мнозѣ
межю
чюдов
мꙋжеи
##ющѹ
конець
петрушка
карау
ага
ржа
##ѧсѧ
##ѫт
##хри
въпраша
посе
духа
тяглы
плода
мꙋжіе
Нико
взяв
кругомъ
##ствꙋи
адама
безумь
лицемѣ
абы
гром
##ець
##лна
помы
##лок
##каа
техъ
изби
извести
предо
выдати
добру
прѣзь
тъи
##станеть
вотчинах
напередь
хочешъ
присъли
Услыша
оца
цра
із
ꙋ҆
##рꙗ
##бі
##ѳим
вое
##деса
какую
стꙑ
салда
вине
##зирати
биет
подвиза
Владимиру
Ры
асѣ
нꙋ
##мрь
##лище
допра
съво
гривена
борису
селцо
сорок
помꙑ
обес
почела
бц҃и
ове
##снѣ
##свѣ
##плѧ
стал
делом
князе
полти
буй
взѧлъ
с҃нъ
ондрѣ
кыѥ
володимери
є҆гѵпет
##всѧ
##іі
##деви
великꙑ
прѣбыва
васильева
тысячь
гюрги
Господня
стараго
умо
##кій
##шшо
нез
##рила
сий
ваю
рух
возду
##мят
Коще
кралевны
вотчинников
своемоу
отьць
божия
большой
і҆и҃лєвы
##новѣ
##шков
вънима
##ких
##чими
бывш
##жае
сиа
Бого
ѡ҆бла
пожалꙋи
взято
д҃нь
стыи
##скꙋю
ара
оцѣ
тлѣ
##нныя
##тви
##чныхъ
докладу
рожд
є҆и
лѣте
государев
сътворилъ
богатырей
млада
##а҆ше
вьсѣмъ
впред
сокрови
поворо
мета
##еты
прость
празни
словы
##кланя
началь
##нѫѫ
анти
чл҃в
с҃т
золота
владыка
письма
именуются
Бер
олексе
плу
ѧки
##ита
##стꙿ
##ряд
##ляди
лѣни
ѻ҆лта
киевъ
Мило
##с҃пъ
осмь
пашню
Пов
гы
яку
##вль
##дохомъ
капѹ
##пать
многъ
##овичъ
страшно
скота
##вшим
цр҃к
володимеру
казну
поехали
сентября
ѿнюд
Кнѧ
нову
сдѣла
вон
##може
проча
##цеви
волость
злая
глть
ꙁлато
липсва
дли
е҅
єсмь
##гви
##гнеть
нера
##шаѧ
сиꙗ
посмѣ
мужъ
нихто
менов
##штеть
московских
беꙁако
облада
здравіе
мурза
титулъ
иныи
спу
##треб
##стное
##риго
вою
##поко
оуста
будь
мѣдѧ
перепу
знать
коун
похотят
класти
дꙋма
Три
упа
##ꙋмѣ
##ціи
##шло
невер
придеть
моем
вещ
##чатъ
##питъ
сиречь
##лымъ
##мыя
служилые
трьпѣ
блаженныя
вземше
Авра
прове
тогива
хоти
выеха
дѣле
кун
иноче
верстъ
святей
сторона
мьрт
огово
##словес
##зеве
##ковых
Пакы
дьяко
источ
Изѧ
вашему
ѣхати
жеребей
самодерж
дова
офо
щь
##нские
##тіи
саха
возьми
леѵ
мѧс
всякимъ
##правда
угодья
сердцемъ
работы
стояли
принести
Холо
приложил
указалъ
нуж
заповеди
сотворю
Слыши
кова
##ꙁѧ
##дамъ
собя
твоа
##сѣмъ
креста
тут
московском
і҆ѡа
соколъ
вене
##тное
##стен
помыс
нари
##ниць
##дая
коему
##неси
камене
##рье
выве
##славе
##сокъ
купе
възми
мыш
раꙁоу
Тѣмже
попорти
ѡ҆крестъ
спро
##рныи
недѹ
притъ
##дѣли
##ружь
##лѣхъ
##пиша
##щися
друж
влад
стрѣл
##дѹтъ
дн҃е
покамѣ
горды
і҆и҃левъ
государевым
кꙋници
испорти
мнѡга
крестному
Видѣвъ
##скѹю
Имѣ
Кро
##рга
##ѹ҆
##сꙑ
прв
прѡ
всемь
##доно
ниж
прогнѣва
правъ
##леніѧ
страшь
мучени
##скыми
христа
##стꙋп
изыма
фунта
прпбнаго
мт҃ри
срдце
наполни
инии
оз
##вшꙋ
##чн҃
##хсѧ
##фля
порꙋ
солга
хочеть
множе
##сье
бѣлъ
##нович
животов
плоды
пороз
обиди
романа
разбойника
або
##пръ
пры
морь
морѧ
прохла
прежне
вѣроу
а҆ар
послать
потру
очию
варша
отрока
старѣиши
чюдеса
вавѵлѡ
вхо
дше
ково
##рена
##з҃
пороу
невоз
зало
##дон
съконь
##пира
сажень
выла
страсти
левъ
##зом
дꙋшꙋ
кыевѣ
христиан
немощ
помещиков
старине
мѣсяць
скърби
кіи
ѹбѡ
##лета
##ях
призы
##шаа
таже
грани
права
самои
совершен
змиа
фрагмент
живоначал
сполна
Зла
Че
мр҃
сено
ꙩсподине
##рни
##ѫть
##латъ
волъ
##несоша
сото
веки
мишка
падоша
##дьр
пишу
девка
куо
друг
гривнь
творите
болшо
бл҃жен
трегран
Защо
Таже
кꙋне
ц҃рѧ
позема
Прѣму
четверогранца
цетверте
прожиточ
Маршалку
ожь
##хну
помер
прелю
нечьсти
##шесѧ
вашу
гража
жиро
князей
полонъ
##драв
б҃ж
ходит
закону
##гласи
видить
ꙁемли
устроены
совѣт
будешь
величеству
##жное
##щения
##ꙑри
мосты
##щаа
##творѧ
скобе
##ствіе
црт҇
властели
книжь
бл҇
##пѣли
любѧ
свете
погѹб
11
ня
ꙁы
##чна
почер
непро
запо
##сил
проста
тара
##мь҆
##бирати
пану
праꙁ
чинить
##хуся
ладо
##ковым
Такъ
ц҃рю
христия
блг҇
влѣ
селъ
##вовъ
##зну
##ѡт
пріа
въп
ништ
сосꙋ
##жимъ
пить
##сылати
единою
площа
##ствую
убити
вдови
торгу
имуть
притчею
24
ям
##трѧ
направи
прїи
проез
отцы
##мьі
вѣкомъ
столни
славѧ
посланы
Вои
доведетца
тьр
григорей
бесѣды
посадника
никомуже
сестри
приближа
съмьрти
никогоже
мт҃и
Ев
дмитри
исть
сбо
##кри
##ѣхъ
даю
отс
отку
воздержа
бѣл
сѣдя
в҃ꙇ
такими
бж҃їи
исполн
##торое
і҆ер҇лимѣ
гочкомь
подыма
Великий
иски
игꙋ
овь
##ремь
деже
судом
грамотѣ
рѣку
##000
архимариту
дени
ут
##дехъ
быхъ
силенъ
Пото
бѣду
гд҇еви
женꙋ
крове
грече
слыши
добродѣтел
холѡпъ
пень
тма
чт
чѧ
##рцы
##нныи
дадут
##елѧ
дос
##мои
##тече
мари
##чья
##соко
вьса
сьтвори
сынѡмъ
бꙋдеть
начало
спс
ꙁемлѧ
апрѣ
вѣдаю
оружие
##множи
псков
декабря
Зен
Кре
ѥди
##колюби
отхо
##чеви
бешть
всели
тѣмьже
взи
печя
локо
##мѧт
знамя
разумь
отдавать
купчей
Влады
чистое
патриарху
птиць
посоль
##шенька
Меде
земльныихъ
печатных
неправьды
зовутъ
Зензеве
встре
усть
##хꙑ
##шкомъ
##гнꙋ
посты
даси
##чисти
рау
протя
продол
иногды
владеть
златом
дъвѣ
##ницах
здоров
Иван
октября
вьсѣмь
##щете
##вича
кадь
промꙑ
оуз
самѣ
а҆ки
ба҃
##ровичь
старцы
жалованья
старым
племене
пытать
ано
млъ
##ꙁан
##плю
премꙋ
##натцать
воспро
##рѧта
лодь
деревнях
древ
котораѧ
велѣти
глѣба
поместьем
Дмит
огра
##даше
тоѧ
##тери
камо
проли
съдѣ
съврь
листь
вымы
жито
##зань
плача
##штемъ
черных
языка
срц
умрети
обычай
Сына
свари
въсхотѣ
елиза
алексею
а҆гг҃
Жена
ѡти
##чко
нели
замо
##шаетъ
##жим
##жио
хоштеши
велит
беꙁъ
##хуть
моея
##новати
##нѫѭ
чловѣкомъ
ѥ҅же
меры
##евых
юности
гсдрнѧ
##димера
поместных
афонька
вза
зри
##земъ
##ꙋм
##діи
##лкъ
##шное
##сий
пропу
такая
изва
##ковѣ
##губ
лати
моих
##ровича
помочь
послѣдова
славꙋ
степанов
Дарию
##рха
##исѧ
##ꙁѫ
##дныхъ
поꙁна
##сит
рекꙋ
лиси
##дь҆
столько
Дави
василю
благода
нашемъ
крестьянин
словесь
ѡбре
убилъ
землями
московскому
одной
напасти
андрюшка
глеб
##рмо
##веть
##дию
##дери
зай
##шие
хода
ногу
##стые
тѣсно
##ствено
лонь
##стую
Мама
домов
великія
недѣлю
куд
устра
##ος
##вица
##чихъ
рада
съвьр
оубы
##градъ
петр
кꙋпи
створиша
Тебѣ
твоѥго
Амира
Ой
онь
удобь
ѡпа
##влѣ
##от
##снаго
##us
насо
##еніѧ
##нича
коры
състав
##мѣр
мале
рогъ
князем
исцы
городь
черв
приведут
кралевне
богомо
цркв
Рокса
дроуга
дмитрея
старостам
Даниловичь
ѡлгови
Ихнилат
оговор
жꙋ
уло
ѡдѣ
##днѣ
тогды
тые
ст҃ѣи
##славлѧ
івашко
ѣхать
Будеть
сень
поки
##тит
##въшю
оутѣ
##нятъ
такомъ
пеа
плач
ласк
благоу
врази
##вшеся
нашей
чьи
григорья
праздни
мстиславъ
##ом
##лнь
поза
ток
кот
догово
##чинъ
возвѣсти
опы
видит
дрꙋго
среди
цеса
крепость
пшеници
инако
звати
##бере
подати
##титъ
##рой
жерт
витя
кузь
взо
полкомъ
владѣ
старосте
продаи
##страти
иванка
дꙋша
Вьсе
приходѧ
##шнеи
і҆ꙋди
кꙑѥ
тиуном
послоуша
Цар
бгѹ
тіи
##ѡмь
##гел
##дала
##кинути
доль
засви
##гаѧ
хоце
ред
иматъ
холопу
потомь
тьмь
бж҃їю
матер
Лаза
божии
ѥсме
кузне
рѣзанѣ
вечеръ
вкупѣ
А᾿
аѳо
##туду
##ѫщи
стаго
нѣкто
мужей
туре
воинъ
воинскіе
роспраши
ногама
семенова
влд҃
тѣлесь
Мнѣ
вꙿ
сщен
ѿ҃
прше
##емлю
##несъ
##теся
прока
станъ
розо
##овои
носити
братью
вьрь
испъ
възь
лео
ᲂу҆слыша
продал
братіѧ
ближь
милостью
торгова
пошла
доуша
приступати
крепостя
погубить
умерших
брашов
сльзы
внегда
осифов
розбое
##рію
##вре
##амъ
##толо
комꙋ
##лье
какѡ
стаг
дѣй
емуже
переди
локти
старосты
мьр
царева
бж҃іе
казаков
опѧть
і҆и҃лѧ
андрѣи
оучити
сквозь
сичкы
хѣ
##тков
##довѣ
сонъ
вѣрь
##лѧт
##стемъ
ползу
полтора
##лович
корень
гроб
##товати
дьяк
врѣмене
варла
приходити
княгиня
благове
обесчести
Алимпия
инѣ
умира
ѡбе
##дше
##євъ
##бҍ
всполо
заоу
и҆мꙋ
##пана
царѣ
листа
##нѧго
мечемъ
иметь
подобь
шести
Кощей
федорова
млт҃
Солны
учинили
пожаловати
хотѣлъ
принесоша
поместьях
члвкъ
пятьдесят
никити
борзо
ветша
понома
нарядъ
розбойники
копье
ѡбиходъ
неизречен
Черни
др
оск
##дена
##натцати
кос
##стиѧ
пословъ
Которы
бꙋдет
тьчію
кругъ
##станно
головою
двухъ
ездо
Прѣдъ
лвкъ
родителех
Ше
блу
ого
єди
ѿи
҂а
##лное
приклю
сеже
студ
старь
##щает
##славо
Покло
путемъ
##теле
кнѧже
##нꙑѧ
##жденіе
##с҃о
правовѣ
Зане
почин
молитвѣ
воставъ
сп҃са
отиде
офонась
костянти
демен
остро
укло
##ецъ
##нется
##дного
##стнѣ
##рам
посрами
размыш
множь
бѣды
мечи
сунду
всемѹ
уезд
строити
братие
Страхъ
##слыши
і҆акѡ
Ст҃
ѿць
##рки
##чни
##фей
провѣ
##релъ
мосту
##ньіи
ходѧ
взима
полоцкого
стрѣлы
здравъ
##десять
Ивана
Велико
ратных
государство
кыеву
пръга
пострада
володимера
Исп
иѡ
ꙋчи
##срь
##стіе
позо
нераз
стада
преди
##ции
##цина
##новен
коннымъ
словесе
береженье
писцовых
##ющю
запися
юрью
##еѡдо
а҅ште
напои
помещики
оставля
наместником
хрестья
брѣ
имоу
одо
ѥгда
ѻста
##ѫщ
##і҃
##пса
##шк
недоу
##докъ
мори
твоемь
хому
твоим
і҆и
дватцати
многимъ
Так
здравие
рекуще
кланѧюсѧ
василевичю
нѣкый
бц҃а
кно
##кнѹ
неми
божіе
заста
##шает
превоз
обло
Послу
##бьра
многолѣт
времен
сѹща
сотворитъ
##снои
в҃і
старцу
третью
##жению
с҃на
двена
хотѣние
имиже
головамъ
тайно
мт҃рь
максим
прожиток
ѕѣло
полы
корова
вонь
##щева
##ениѥ
разли
##сподо
Бол
всякую
мыс
учре
бж҇тв
монастыри
диꙗ
ѻ҆в
нашегѡ
бережно
##фимь
рѹсь
##цкимъ
видите
света
обычаю
##рениемь
##стинну
Кандав
Стер
еѧ
кло
##сс
##чныи
##єть
##ѯанд
пону
поху
##вого
воору
съко
##саа
##писывати
##вьрь
възы
помози
воеводѣ
##ходилъ
такъже
дьяволъ
зълы
##ступити
зимѣ
камениемъ
оустрои
оустроити
записать
перстень
ываном
Фара
оли
##яхъ
##ний
забо
кашин
##сахъ
##жил
милу
##битъ
масла
дежи
сущю
страхѹ
дьсѧ
приказным
сотворилъ
покажется
ширину
непоко
бѫдѫ
##шенько
целомъ
кръви
бьрковьске
ꙩвса
Кандавлу
бже
спѣ
##ꙁѹ
##лици
##цать
сыскати
##вьі
##бьі
гсдь
##писать
бато
убога
неделю
пьѧ
образа
силно
въспри
ермо
Христос
Оть
вкѹ
геѡ
ил
птен
ꙁь
##сила
##жих
самы
житель
вижу
##бахъ
носѧ
послано
ᲂу҆пова
##елей
коуп
уготова
писцы
дъмит
нѣкогда
Тѣмъ
жаловаль
Москвы
украи
изыде
ꙗрославъ
солоду
захарьи
глѣбъ
і҆ер҇лимъ
внеза
наказывати
кіев
##ші
##лие
завѣтъ
стꙋ
##пилъ
##верь
възра
Томь
блуд
взяты
гнѣздо
горко
##емое
лѹч
плъти
ю҆же
тысѧщъ
крестьянех
сосуды
исходѣ
шла
##ятъ
##надесѧть
##таа
солне
##галъ
пия
тура
ѡ҆бѣ
свѣту
латы
учнетъ
##шеніа
послѣдь
служить
##ѣхали
пятидесят
708
нечисто
Варфо
апрѣля
зрѧ
##нце
##св
##кіа
##гль
въпро
воѥ
стя
##ляя
вѣсте
великими
бꙑлъ
пѧт
разумѣй
хощете
размѣру
огненнымъ
Вѣдомо
направленію
попеца
ѡбѣща
вышину
нещадно
##жные
##лію
##ницꙋ
прико
вече
стаѳь
измен
хочу
ребра
##брати
възложи
полоня
леон
сѣно
единь
цркви
цр҇тв
словом
корене
самопа
одному
ступа
##щении
##ерусали
кунгу
Грече
глѹ
ось
опол
ѿвѣтъ
##тве
немоу
##сифа
##ньꙗ
пасты
##дьі
чиста
полковы
крали
кр҇
сп҇
написан
гробѣ
всякое
варва
іѡа
Вышь
избав
##десѧт
вѧче
сщ҃ен
Без
ад
нѡ
оправь
##жяти
##дель
##ꙙтъ
поба
##кам
дохо
долу
##досте
состав
##бом
##ениꙗ
##бию
статье
посмо
вседержи
##ныхь
враж
смертью
Раду
трое
Тѣмь
смра
съмръ
дрьзнов
Филип
##рк
##из
##мше
##кола
доклад
варити
реда
къни
##зано
тѣлу
исце
передѣ
въздъ
възнес
лопа
погна
поставили
дорогу
Божие
##хомся
чоломъ
Святаго
здравствуи
ое
##вну
##нокъ
##кама
##вахъ
##дишь
##дится
приз
##скопа
##жаеть
стать
##хати
бегах
##скать
чистъ
свято
триста
г҃лѭ
холопстве
древле
делам
тысѧч
длъго
голосомъ
опозна
Івановичь
озера
##гне
##толе
точь
##емся
##шисѧ
и҆схо
васка
лазаре
здѣсь
господствꙋ
##дръжа
погибло
пръво
гъраду
Люби
страхъмь
бесѣдовати
апре
ѡружь
##ису
##внаго
##фра
##ου
##номоу
##нике
##роша
вълъ
къде
##зити
храбра
шело
##жую
пустошми
своѥи
свидѣ
и҆збра
дворцовых
і҆и҃ль
архистрати
зълѣ
поусти
непови
апри
твердо
многіе
фараѡ
внити
дхъ
кде
цс҃
ьто
это
##здъ
##сне
показ
наѹ
##ниц
давъ
##еръ
какая
писана
и҅же
никола
мѹже
шатра
долги
##лению
##гласно
нарочи
погубити
цьркъ
дѣвица
воскрес
Бл҃
ажно
гль
упра
##хови
##єт
##ꙑта
незна
##лое
##сть҆
бывша
отню
##баче
##жьдо
стран
дума
писаніе
обыском
ближе
старцем
##глас
святыя
другои
росписи
питие
через
##ѥ҅тъ
прочии
дхов
жя
ону
онѣ
##лке
заво
##чии
прозва
##ениемъ
##мѣни
##бѣжа
бѣсъ
нѣкыи
царьства
продавати
говорили
церкве
пья
третье
оклевета
таковых
сокрꙋ
Гдѣ
Ово
ису
вслѣдъ
##жител
##нѣте
изре
лежитъ
дьне
бꙑва
грци
##ꙑи҆
мѫжь
приходя
урядни
михайло
игорь
врь
уга
##черь
##енія
проп
##жихъ
##пар
покрова
##менꙋ
пѣшимъ
запасе
истину
##итесѧ
древе
съвѣта
црк҃ви
чиселъ
вкꙋ
ега
срь
сча
тко
умы
ѹвѣ
##сел
##кру
##ленье
пони
наем
##тиво
##емаго
всимъ
отсе
##вее
##щаетъ
Потом
подписи
##еною
глаголы
чертѣ
црквь
пригодит
честнаго
божию
обрящеши
почели
ѿнюдъ
##ктана
Тел
лі
осе
пі
ѹби
##єю
##шна
поправ
##таеть
##елем
кади
и҆с
##гахъ
##въꙁ
##ръми
##стою
вашь
велича
отъвѣшта
бѣла
субо
##ставить
ѡ҆пол
Господни
##нꙑхъ
Мили
цѣли
шатры
рѹба
слѹги
свꙙ
федоровичю
киевскому
низко
ничьтоже
приобь
Оу҆
вль
осуда
##шіе
##къмо
##нутся
##дѣт
вашимъ
##щие
пищу
частей
власы
тридцать
человеке
молитвою
сꙋдъ
##шеніи
послушя
зоб
дворцово
ответу
стрѣльбы
наука
Вься
искех
емлю
цетꙑри
совѣтъ
михайлов
трѣбу
##стѫп
убьет
пушкарямъ
обесчестит
Ис
очей
ѡльга
##рво
##фро
##дан
горъ
седе
низу
просо
пролива
вин
тѣхь
##ндре
покра
иномъ
мѹж҃
мꙋже
цр҃ѧ
овса
Нынѣ
роспросе
зво
мню
##нскому
##цен
годех
рая
съста
виждь
видѣша
ных
##дитися
мѧса
##слом
житии
пр҇ро
цр҇тво
кіиждо
ам
пт
цы
##врѣ
##пла
##стовъ
потѣ
##ниша
въсѧ
##доше
##льца
тебѧ
избиша
выпу
##еньи
сый
возметь
бѣлы
ᲂу҆вѣ
противи
златомъ
бꙑвъ
бывають
##хꙋсѧ
кланя
пꙋстыни
труда
нынѣш
пророче
ст҃ымъ
болезнь
Васили
македонь
заплатити
поместьи
Гу
Стро
ество
згово
##пс҃пъ
##рех
##вааго
##вающе
##монъ
ход
##щику
меча
##стех
врагы
володимерском
другомъ
таковое
зимѹ
овогда
ехать
архимандрит
покровского
Алексе
Свѣтъ
нне
іо
##ꙁва
##клъ
##дная
##шем
##ферь
##ряй
рого
своево
разѹ
добрѹ
милостію
писание
богатъ
видѣлъ
##ждею
мьнѣ
нашими
##цкое
оборот
пріидетъ
гривьнь
нѣкоторы
похвал
мнѡгы
въсѣхь
агг҃
честно
премѣ
поцел
иева
кюри
ржев
##год
##лоб
##шают
##гар
оуда
старъ
##хон
сыномъ
вьр
великои
госпоже
##ступати
человѣчь
митрополит
траву
посадникъ
прислалъ
ведать
віно
Чи
єс
##неніе
приня
забыва
##жира
тепло
лише
нозѣ
бѣлѣ
имѹ
славою
грамотоу
##вель
покор
образомъ
данило
црква
старых
науки
творѧть
христиа
Святых
прошлых
костѧнти
Око
зрѣ
тет
ѡно
##тово
##тивъ
##лого
приа
своѣ
нища
##шева
капи
становъ
изу
изли
естьство
мѣсѧ
испь
чинѹ
такою
възѧти
Только
знамень
сотворит
похоти
григореи
трофи
любить
дворяне
пришедше
судии
сестры
божьств
прелсти
Повелѣ
вте
ицѣ
ті
##тени
##куды
##хⸯ
##х҃
полѧ
подиви
##овла
##ломь
кою
готова
зав
пакь
моими
негоже
всемꙋ
Мари
раꙁѹмѣ
марты
стрѣльба
дворяном
о҄убо
афона
вкинути
озер
сниде
убе
іхъ
##вное
##ꙗне
##ш҃
##ѥм
##ствы
##никѣ
голѣ
рабу
раслаб
оупра
##хажи
##тыѧ
пуста
чита
Нектана
речеши
ихъже
есемо
##дятся
грѣсѣхъ
покажи
речен
кругу
работ
вотчинники
погоста
правила
домом
орды
умершаго
Магилены
двьри
письмо
карабль
Маркобрунъ
Томьж҃
цри
ꙋбѡ
##҇ь
и҆скꙋ
##еремете
пакьі
посмотри
къня
##дьци
руской
нѣм
лоше
лугу
поидеть
сѹще
Кон
запалу
похоть
самим
пошел
зимы
##шнее
ондрея
рукама
Слава
Би
Ст
хс҃
##гл
наказу
малъ
##нѧх
сторонни
подастъ
сердцы
инныхъ
въсѣмь
дружинѣ
дх҃ъ
никита
достаточно
иванову
светы
##квамъ
смольнь
требуетъ
чертежъ
Афана
##вства
##҆мъ
##дется
##глѧ
##говь
##ями
##лиши
##даетъ
въне
воева
и҆сти
##хотѣ
вѣн
подош
учинят
##жденъ
обыски
о҅ть҆
попов
##нимать
ветча
вѣровати
изстарины
Изъ
Фра
ѹмъ
##ал
##мⸯ
##ꙿто
##нишко
##лее
соч
собира
##подоб
вари
питіе
правая
черта
корни
поклоня
добрыми
христова
держалъ
четвертя
##ꙑи҅
кѹды
богомъ
двѣма
хваля
вперед
поношение
романов
троицы
слобод
келарю
дрѣво
ιли
сове
##знъ
##онъ
##ждъ
##ѥю
навѣ
назна
немьже
##нори
##чами
##сож
княи
возметъ
послале
ложно
приидет
##женіа
отдали
воинскому
дьяка
въдаи
пѹти
особно
простор
здарова
поминай
молитвами
ступеней
апреля
Ари
Чю
белы
еста
лове
##жныя
наве
пр҃
##лично
бочка
##няеть
нонѣ
братя
отъпа
посланъ
##нꙑꙗ
воеводе
Сие
дний
исперва
сказали
хотѧще
дмитров
##ступиша
пустошью
пожню
помышляй
довольно
серебря
въскрь
Нова
иере
ꙗвлѧ
##рского
##нчи
##мꙙ
##стру
начи
##сили
двори
възмо
скотъ
леса
слуги
знаю
бꙑша
продать
речеть
положилъ
рꙋкою
##шедши
сѫд
мнѡги
достоино
шьсть
Ꙗ҆кѡ
Тимо
##щыѧ
смотрити
гли
огоро
##кше
##дце
##бре
назва
##ливы
##реж
##даеть
волы
##чися
ману
всесож
возле
нѣкако
кралъ
многою
доброму
добрыя
##лемен
взѧли
здрави
благословление
другаго
съгрѣша
живѹ
Всеволо
красоты
указал
приходить
здела
шедше
и҆зыде
любез
пѣснь
останется
19
Иерусали
цю
ѥи
҆҆
##рете
##довь
поꙗ
наѧ
нась
##дита
##жеб
##кино
гостя
##рьі
##дѣль
измени
##мети
тиву
##телеи
нѣс
бьем
главꙋ
владети
доброты
марка
грошеи
побѣгоша
городовые
нб҇
кѹпи
естества
творѧще
трава
доуше
царице
нетлѣ
образу
жыво
Феодо
евана
фла
ѡсподине
##пі
##єр
поѣхалъ
въи
ранит
и҆мже
прозви
##поры
##руши
##сона
гривъ
безс
странь
гривнꙑ
царствова
попы
дꙋши
ѳедор
ответчиком
десят
вотчинником
дрꙋга
глс҃о
отець
обычаи
сверх
срачи
##тинудь
помещиком
смертное
рыцерю
лососи
Тугарина
неделщику
македоняне
волокиты
леѵі
записям
Милитри
гна
иг
##тной
##жской
##єніѧ
##стной
##чили
##ший
##теро
създа
##жите
##рѧтъ
##хие
аршин
##кꙋю
мартин
свидѣтель
узрѣ
челобитную
прѧмо
совокупи
февраля
аса
м҇
##сꙿ
##шные
##дий
горя
и҆дѣже
##жатъ
##мей
чей
земь
таком
двои
сѣмена
блажена
потер
гр҃
##пье
покосы
долг
##сѹда
казнь
свещен
виноватъ
прилѣжно
клевета
искоу
зелена
Ст҃о
бръ
ію
ѹдари
##б҃
настоя
кома
оув
бесъ
возъ
полковъ
страх
кормъ
приказных
стороне
крестьяны
речетъ
трепе
своѥмь
поручи
купли
наказаніе
добраѧ
пожаловалъ
списка
мурзы
пагубу
ровно
новугороду
Ть
еле
щер
ѡгѹ
ѥдинъ
##єри
##гоже
##калъ
##рьство
оубь
посломъ
столко
десе
возвесели
кралю
полоцъ
власте
димит
тьма
спасти
городовых
мертва
малымъ
доволно
і҆ꙋде
серебромъ
##смотрити
28
Чловѣ
рк
смыс
ꙗз
##тц
погра
##ванъ
коми
заклю
мого
съвъ
тава
оужа
теши
вѣмъ
##овичи
лежить
сѣча
тяглых
коровы
ѡтца
архан
бѹде
##торой
столпъ
драго
худо
поминати
##глагола
максима
диаку
монасти
Стр
щу
ѡль
##рм
##ама
##дным
пришъ
зат
и҆мать
прого
сажен
##лыи
цртво
##врат
мъною
##твꙑ
березѣ
привез
другому
##мꙿже
виноват
взыщет
мѡѵсе
навык
тоуркы
Аче
Вси
вꙁ
ивер
ѡсо
##рци
##щі
##еню
##ликъ
кап
оуро
брашь
брашно
страсѣ
дугою
##ныих
царевна
бѹдеши
ст҃ыхъ
##образ
мудрости
бѣсовь
##священ
прежних
слнце
накорми
Говоритъ
Всѣ
Обра
внꙋ
укори
шля
##єи
##йдет
##года
приклады
съвѣща
##лѣи
##овомъ
вѣс
выходы
тѣмже
а҆на
##ственаго
пославъ
бояри
моево
семѣ
чювь
бг҃омъ
никомоу
##аннъ
похочетъ
Владимера
образы
кротъ
въдасть
Христу
вдовы
десѧти
порази
похваля
крестное
сестру
приходит
шур
пакость
чернигову
местех
##денецъ
судьям
вчера
лва
##нныѧ
##шны
##гове
##камен
годно
равъ
##шекъ
пакъ
паволо
також
нѣстъ
безстра
краи
влага
сѹши
старостѣ
женамъ
осень
братꙋ
прямую
володимерю
просвѣща
облакъ
помаза
мѣрахъ
истиньно
ᲂу҆мре
прелюбо
вечере
Лев
дҍ
оне
счете
##тію
##чения
тобҍ
воску
желе
всп
##доки
сънѣ
##лѣетъ
панька
лиця
высла
раздра
бѣсов
перепис
цртв
перву
верви
царств
марчка
дъва
иннымъ
кнѧземъ
вьсею
размѣчено
боуде
искѹ
делы
дмитреев
домочат
солнца
пушкарскому
Кіеву
горахъ
Амир
степень
Благослов
възѧле
замужь
мл҇ть
конюшню
гюрьг
сдѣлати
Вольфан
Медея
А҅
##нѥ
##ꙗна
##жка
##прово
##чел
##бен
##ѡнь
почьсти
коей
##тахъ
раді
каковъ
просты
##полꙋ
выть
ного
##чюю
##аніа
ѻ҆чи
покажетъ
братіа
##леное
селца
ярополкъ
восхи
поживе
третии
смольне
ківѡ
Сво
мре
ровъ
ѿтꙋ
##шах
каѧ
пробо
стр
##пиши
норовы
обу
##цехъ
владꙑ
поидох
посадить
##тврь
всемо
огнемъ
##иметь
новѹ
недруга
целование
Пречи
створилъ
##славича
достаточ
подьячего
страшнаго
латинескомоу
велможи
запечата
Хра
анъ
##мель
##ьсти
##голь
##дает
##мемъ
Помест
Послѣ
исправити
полуд
възлюб
лева
кнѧжь
сторожѣ
##кѣхъ
анг҃
хотѧше
четырехъ
дрѹга
крыль
##шнего
похвалы
рѫцѣ
мѣсяца
мастера
пристанище
Ай
аи
акꙑ
ови
##мся
##жных
##щется
##петь
наими
неза
вое҆
вопроси
##таѧ
придетъ
голови
нине
кана
избѣ
бракъ
Тои
человѣки
товар
спать
Иванови
смири
всѧкіѧ
прислал
вмѣсто
чрез
яковлев
различными
пльск
осминою
цр҃квь
26
инѣмъ
оску
скѹ
узо
ѡлов
ѥсте
##жения
побои
##рець
##риа
въпроси
верити
оука
пару
##любе
##зай
пустыню
чару
##зина
туто
вратъ
##кланѧ
кр҃
шатру
небесъ
объявятся
такія
хоромы
брегу
##ѥ҅мъ
желѣзное
прилѣжа
божествен
ключника
небесьнааго
францу
телѣги
Спаса
прѣмудрости
##третья
Зем
лени
ште
яса
якова
##рене
##чкѣ
##лных
покину
кость
притчи
приклони
сега
стрѧ
рекы
вижь
##цию
тымъ
мѣща
##ленїе
двадесѧть
мѧте
сътвориши
храбрый
##десѧти
слободы
возрадова
воспомина
протопо
всѣволодъ
ст҃ꙑꙗ
Иго
блѧ
лвка
шер
ѿве
ꙋм
##чными
##лные
##шкова
доити
##видѣ
можете
сею
##силъ
откры
верить
##чам
##бѣга
робо
беско
перес
потвер
тьлѣнь
боярскому
марша
небеса
учинил
Сава
делать
целоваль
приятель
первому
##смотрѣ
вдаль
ꙁнамен
Пѣ
вѹ
отинудь
шлях
##віа
##шене
наз
##тишь
восмь
##дѣѧ
##пат
бран
разъ
##скагѡ
чин
переве
полкех
глаголет
животину
посадити
##ешися
ворон
васильевичь
недруж
григорью
##нимаетъ
невозможно
щерба
шурмова
Акы
Жа
гси
##҄ето
прї
##тили
##ними
горѧ
зача
##момь
##льше
павелъ
изнемо
ваших
а҆м
ѡ҆сквер
глаголем
глави
конные
крестьяня
пушкарей
срокъ
купити
пречистыа
моѥму
опас
горести
селех
ѡц҃ю
Воевода
Бовы
дши
пел
хвати
хмел
##зны
##бова
##тьі
##вааше
##емя
##дине
комъ
божъ
##леве
##щаше
кунꙑ
възя
ложа
врагомъ
индѣи
святый
отпуст
цркве
юрья
крестьянских
105
изоби
і҆ѡна
виноватом
богатырской
богатырскаго
увиделъ
рыцеря
воевати
Варфоломе
Дер
уставити
чс҃
##нское
##твъ
##щемꙋ
##дку
##етсе
##рею
##овалъ
съмотри
##дъше
мѣди
##лѧше
##ндри
##енець
платно
имѣеши
вражда
гривен
серге
подъя
##деръ
анге
трудъ
непоро
повѣдаша
взыде
тѣлес
жезла
нб҃о
ослуша
Ло
блꙋ
истер
т҄о
ѿпѹ
##влю
##ѡби
##ямъ
##ѥте
##лома
кожи
копа
копъ
кожю
зака
завѣта
никъ
сози
##мери
##щина
странамъ
грамотою
лавка
видѣли
благодѣть
златъ
кинова
сторожу
мѹж
##стоитъ
шап
законѣ
ивановъ
повѣсти
чл҃вка
##меты
##шних
##чету
звѣзда
вместе
Царю
княгине
намѣс
сьрдьце
выкупати
лутче
і҆исꙋ
Григо
аб
гля
клемен
яч
##нный
поди
##конъ
##вается
въхо
##стьи
рама
съе
##жающе
презрѣ
грань
##гин
исходя
прѣклони
друзи
бисе
ᲂу҆твер
короби
сторон
добрым
цѣль
приведет
##вшимъ
##лением
неис
хана
таможен
##мысль
слꙋж
приложити
рекъше
грв҃нъ
сьрдьцьмь
груди
прочіи
ннꙗ
фі
яи
##имѣ
##ссіи
##чке
##тию
##дона
##льцов
каи
камѧ
##жают
пасти
##дьникъ
##выѧ
є҆дина
сущи
добротѣ
человече
б҃ь
##зеи
##шолъ
писц
повѣсть
штобы
племя
дроужи
андрея
завида
чрева
Владимира
составы
роусиноу
пагуба
атама
заутра
кѡнстан
ажио
дль
ищ
##глу
поня
полюби
##мут
каже
люта
##чает
##лѣтно
живя
сынов
##сомо
подмо
сѣдѣ
платьѧ
животина
Коли
чья
запад
раꙁꙿ
шатеръ
инномъ
числами
верховыхъ
съмѣрение
урядѣ
пушкарской
сп҃с
Бысть
Къто
девять
болѧре
объявится
помышляя
благодарствую
устѣхъ
##чов
попь
коров
вохо
съмо
весе
лютѣ
##ньца
##ньемъ
##жая
ходят
##щиковъ
деб
возвести
супроти
волостели
##бь҆
##дяше
ласка
##днихъ
##трия
бывали
продастъ
##шои
злое
послѣду
индѣй
##любива
##десяти
блюди
пръвѣе
Литов
королевское
правьды
мсцѧ
грѣшьника
съсудъ
бц҃ѧ
прибыли
карабля
Серги
Птоло
##ꙿше
##бна
##тиша
несть
##носѧ
комо
даите
##мии
всь
заго
издале
сав
обя
стое
мѣсту
славити
покѹ
ᲂу҆чн҃
##градѣ
знамена
кирпи
гл҃ю
побѣже
Киев
половины
Прежде
памѧт
сахар
мꙙ
усты
##новы
##лнѧ
##феи
придет
годѣ
готов
##сана
##пила
##жах
станеть
##цей
##лѧть
святую
Наста
никол
мълъ
начале
огня
##фора
осмо
куплено
створѧ
учинилъ
самовла
свободи
рекох
поварен
давам
серьбра
Вел
иж
угъ
##рмы
##нту
##нение
тота
когѡ
заи
##шать
##льі
##шеб
оус
##ньем
##рыи
твоꙗ
є҆да
страсть
муку
связа
Господеви
##женіи
##ждение
покая
мѣстомъ
подал
положил
коньць
братию
приставом
пошлю
благословение
первого
чюдотворцу
лъжи
празд
архіе
Повѣ
гни
убѣ
Ѿвѣща
##вныи
##зоу
##юшта
##юштя
нету
##чила
стг҃о
ман
вынять
руз
##шьды
возбра
меже
лесть
і҆ѻ
Толко
##скыа
тъштися
сѹд
г҃а
кормит
петрова
смерено
нед҃
Мурома
сердцу
##лѡмъ
срце
григорьева
дръꙁ
##смотр
прекрасную
торгом
колоко
обряштеши
рыцерь
погребе
##глые
казначей
##кърби
выборные
Македонию
садился
Созоменъ
напослѣдъкъ
ништетѣ
печяли
аци
инѹю
оц҃а
сма
чуд
##віе
##єм
##гдѣ
##стіа
##ность
вънѣ
бочки
тала
##пина
рот
рога
##тым
##гии
Пору
перемени
##бье
##стѣй
тягле
Кое
крстъ
ст҃ое
мудра
бл҃года
юрьев
дн҃ии
храбръ
всеволода
какие
мсць
согрѣши
неправды
двд҃ъ
Кы
ѿпꙋсти
҆ѡ҆
##ꙗнь
##колюб
##дину
водити
вольно
##моуд
сол
оттуду
##няне
подня
верꙋ
дивно
пѣших
млст
крс҃
очисти
послухи
пріити
древѣ
вотчинных
целовати
боуди
звѣрь
моѥи
змии
мъногы
Перси
готовити
Богородица
Еу
б҇
зѧ
ув
хь
##вца
##нную
##жки
##стян
поти
нава
##толи
толика
въкоу
приг
ничево
##нях
вѣсъ
разгра
##тятъ
##казание
лаза
##евичу
гд҇ни
поместью
покой
зъла
тимоѳѣ
вѣрѫ
напрас
вѣчнѹю
копен
четвертям
клен
плен
##нскую
##днаго
##гіи
##лалъ
##рита
присѣ
прият
падъ
изиде
рев
сара
##іимъ
стопа
Подъ
възду
##жену
Милости
михаилов
боярской
##ченіи
григории
обозу
языку
языком
списку
служба
мѫчени
просле
фоми
посадских
герон
дыха
##ствъмь
пребывати
ѿц҃ѹ
ѻ҆гнь
перелогу
дшѫ
одолѣ
усо
фрѧ
ѳили
ꙗкы
##єго
попра
##рини
достоя
равь
рамана
##рѣхъ
##стия
съхра
##ньѧ
##хаилъ
##ндѹ
а҆н
а҆дѡ
платѧ
##зоръ
сѹсѣ
книгу
старци
гривьна
слѹшати
останутся
##стяхъ
ключи
поставленъ
терпѣ
болез
алтыну
имуще
чернигов
александра
прямыя
крепостям
Буд
жрецъ
хвал
четь
Ꙗже
##ннаа
потро
дожи
##лецъ
стены
##нятся
##телей
слабо
гсну
богате
благород
рыбо
молодца
полупол
##жении
дворецкой
##сподинь
градѣхъ
филип
оумре
прибыль
Благослови
болгарски
старѣй
Зна
Сѹ
уречен
##жна
##жіи
##чномъ
##ховѣ
##стем
нахо
##лилъ
##лоп
##мия
привяза
##чиною
##шине
##тебря
##биѥ
##ръжа
хожено
посмѣхъ
##меръ
страти
##еных
есмѧ
перва
ложи
ст҃ѹю
вершити
святѣй
мъне
недѫ
берегу
сътворивъ
##гнаша
красенъ
ѡбразы
духовных
обыскные
сидора
съблазни
промыслѹ
паханые
Нов
уко
##мꙗ
##дение
##дову
##лѥ
нар
неразу
##жешь
долю
сой
бышя
през
лишь
лицемь
милое
##пей
знаетъ
бывают
тьі
млстию
порознь
Соло
##штѫ
житию
смѣтити
записывати
Иванъ
болѣзнь
украси
творяще
сироты
силами
княгинею
горах
рѣзанъ
ничьсоже
гривенок
умеют
дешево
дѫ
ои
ѡдолѣ
##рето
##бель
нел
##лот
##давъ
##нымь
давалъ
заим
затин
##донъ
##мота
##рымъ
##лыми
є҆ф
лѣсу
испе
прѣбꙑ
подписа
веры
менѧ
архе
григори
рѹцѣ
пушкарю
сказание
ворот
разумѣеши
##любов
ѳедоръ
сороку
##носити
ионы
емлют
храбро
блгть
##стиннѣ
Мъно
божіею
ег
кль
пли
сково
ядру
ї҃
ѧкъ
##иле
тобь
даӏ
домит
могли
кат҄о
мишени
люто
##сколько
изведе
хочю
##бѣхъ
всево
нѣме
въземи
сѣди
##городѹ
грѣшни
##зор
государем
коробѣ
человѣцы
хранит
розмири
добрыи
бж҃ии
поставилъ
Калина
смѣтѣ
ст҃ослав҃
град҃
##метено
дмитрей
помѣчены
ответчику
кеni
ногать
ногата
члв
дрѹгѹ
цетве
истинну
лоукѣ
четверогранецъ
михайловичю
челобитной
стольно
Алешенька
кружало
прилежно
идутъ
ꙁаконъ
улицу
кѫнѣ
коробьи
коробьѧ
лосось
Азонъ
Поповичъ
Михайло
с҃тославъ
молодцы
багатырь
выслужены
Анаданъ
пироги
плуг
покамѣстъ
дворцового
ѡгѹрцы
еѣ
жре
хер
##еже
##҇ѣ
##сіе
##слѹ
##хна
##ницѧ
копати
дону
ката
##вѣи
##чаѧ
##стое
малу
вѣст
тым
##жько
имет
##телꙗ
Бори
##цѣми
боязни
чюжь
сыновъ
дерзнов
корч
ризь
Мало
##нѫти
цр҃ю
и҆збави
воинство
звѣзды
ѡбрѣта
Ꙗ҆коже
ꙗвлꙗ
Творца
келарь
токмѡ
гов
пл
списа
##дть
##птѣ
##ливу
##мир
съподоби
##нямъ
вѣвери
луки
##елеи
##гради
блажены
##ющеся
##ехали
злоба
радост
спаси
бъ҃
положить
хал
подобна
##сифу
умре
Василей
##стреми
сътворь
втораго
полуполтине
ерети
трѧ
феѡдо
ꙗша
##жꙿ
##стры
несу
##минь
нима
##нувъ
паѵ
вамо
хочетъ
братомъ
После
двоѥ
##лекси
храм
печатью
##щеніѧ
запасовъ
скатер
истина
купчие
долгу
повѣжь
чл҃вѣ
бл҃годар
манастыре
свѡ
съвѣтъ
обрящет
телеса
взыска
Адама
зуб
поклеп
предѣлы
Муд
иоу
явити
##ꙗв
##҄ѡ
##миро
##стьі
седь
сихь
изна
предати
къс
##щимь
пиши
бѣхъ
##гъна
##жье
чаро
персы
лони
свѣтѣ
моеѧ
знала
раꙁо
труды
грамотам
татаръ
здравствꙋи
красота
филипа
вверх
возопи
Ке
дія
иа
снѧ
цвѣт
##совѣ
назы
##никоу
##ваите
##шаеть
##льцы
##шиихъ
##тец
##бога
оумь
##веи
чернори
ныня
книгꙋ
уезда
Христова
таковаа
глаголютъ
остров
какими
і҆ꙋдеи
плакати
а҆рхі
насильством
ч҃л
прослези
Ог
здеся
тіе
тіа
ѡто
ꙁлѣ
##нкы
##мли
##тце
##птѧ
##фер
нань
неѡ
##етꙿ
въниде
водѹ
##жецъ
##минъ
радоу
отце
##няли
варе
резан
вѣцѣ
рукъ
##чьскыи
Поми
##цыи
ꙗ҆ви
бут
святая
нашы
сѹдно
Сегѡ
попреж
вашей
млады
истинно
чемѹ
видели
погреба
платежь
печерь
мануи
попрежнему
І҆
крꙋ
осла
плѡ
худы
ѕи
##міи
##꙯а
##миръ
##вичю
могꙋ
нивы
##дѣмъ
миромъ
тии
куту
семеи
нашемѹ
попри
своѥю
погоу
государское
##вшіи
дворяны
мьстислав҃
юноша
##щѫѧ
оц҃ь
гнь
дщи
упи
услы
ѡ҄
ѹстро
##атъ
поѥ
наꙁна
##мъка
неѧ
##даго
васька
вышли
возы
##сѣх
перевоз
указъ
і҆е
##дяся
святеи
тър
##ровати
##ються
храмѣ
приказные
разумно
мѹжи
стѣно
Ивашко
аплъ
божиею
##крѣпи
апостоль
восемь
тюрмы
клеветь
Многа
Божествен
вселенную
губным
знаменіе
60
Зми
сде
тму
утра
##нная
##авъ
##о҄у
##кꙿ
##іна
давно
дож
раго
съхрани
веси
старица
##хаго
##бѣже
чесо
многѡ
отъи
тѣлѣ
##жья
всякія
имѣние
##лѹи
ѻ҆тецъ
##слове
##зуть
благословения
пѹть
покланѧю
изѧславу
довол
ерма
##сматри
Апра
Мѣ
О҅
Тꙋ
деми
хрѣ
҄е
##нство
##сем
##шнаго
##ятся
##годно
##вок
##роб
кола
дахъ
##тан
нигде
сотен
съп
ответъ
митю
##скїи
вашѧ
вѣкꙑ
##щами
є҆лі
чина
будете
деревлѧ
##спъ
имали
ѡ҆ста
гласы
первую
служат
##зою
##строю
корсу
констан
продажю
##ехалъ
смолинь
тотча
сн҃у
дълго
мясо
починки
##сифъ
творѧше
ондрей
почел
лошадей
посолъ
езду
памѧти
лѧхы
дядюшка
судье
поличным
члв҃къ
осударь
Аристо
Вольфангъ
Савао
вє
вшед
мнит
ова
##҇е
##штъ
зазира
заступ
##леву
вечно
оустра
пагꙋ
выт
##славѣ
разрѣ
добр
возло
воздыха
бѣсы
прѣмѫ
двору
сладъ
иногда
положено
есвѣ
ст҃хъ
стрѣла
ѻ҆чима
товара
ꙁави
послуше
борисъ
помѣшки
детемъ
обычаем
пятинатцати
прпбныи
спрашивати
юде
іер
##ѳеи
##гости
##емѣ
води
##лече
каковы
##ениемь
рекою
обре
##цини
Послуша
мѣд
скоти
##творити
боярь
писаніа
рѣз
Толико
гд҇не
предречен
Конь
покарѧ
раꙁдѣ
ивановичя
воинскими
##лениа
і҆и҃са
головъ
братиꙗ
рядъ
образецъ
вотчинами
воспита
приводити
ненавидѧ
гл҃ати
благовѣр
недоумѣ
Пла
ала
берь
вле
ѡного
##аа
##тⸯ
##ѡб
##ѡнꙋ
##сят
събира
##стоѧ
##ходоно
##ряти
##ового
вѣдѣти
испу
Бог
положена
і҆ере
Тому
нашемꙋ
приидеть
игумено
цр҃ков
веселит
молитвь
##ѳанъ
глуби
ростиславъ
Поиди
новегородѣ
нуждѣ
##ходоносо
22
окладу
сказ
ута
ѧкова
ѿсѣ
##жство
##дроу
подь
вопи
##чил
рай
##шивати
прочая
хором
преступи
##мешь
разно
##скааго
сукна
есме
##нꙋтъ
противо
темницу
тягло
изъима
мьне
болше
въꙁꙿ
Моли
скаꙁа
воеводу
законь
рꙋка
иꙁь
четыри
днехъ
половине
седла
столб
помра
правило
##гоуть
изѧслава
##йтеся
какимъ
имут
федорович
бобыли
бесчестие
прилучится
батоги
25
Иису
гѡ
исъ
пуд
шꙋ
##нскои
##кіѧ
##чє
повои
ната
начя
##лале
призов
какь
силꙋ
бесловес
выбра
##выми
руце
добрꙑ
отъиде
Нео
муром
##бьѥ
грѣси
гснъ
последи
гуля
нбсе
помѣть
сороци
пригожается
члкь
104
половь
погибли
бѫде
авдюшка
угодьем
домомъ
гь҃
##а҅хѫ
извѣст
исаи
идучи
мѡѵсею
ѡ҆брѧ
недугъ
лѫка
Стефа
Блю
ді
овѣ
смѧ
удо
хѡ
ѡ҃
прде
нестер
##рода
быстꙿ
любы
##скорѣ
бѣаше
правые
сухо
муки
сѣнь
первыи
ст҃аго
бума
царьство
королѧ
вратомъ
корчем
приимати
запасомъ
шири
д҃і
дъжде
анну
похвати
хотятъ
дмитра
двема
достоитъ
боудѣте
кнзя
##служи
и҃съ
промежъ
посадиша
Брате
болоты
утѣс
невидимо
новѹгородѹ
і҆ѻрда
Идеже
##вете
##цка
попро
##коше
привоз
##тъкѣ
можа
##чиши
раста
кая
##вѣст
оутвер
##пада
Дай
чюд
##дници
благодати
убоя
мѧть
сквръ
милостивъ
обоего
мѫжа
Сыне
змия
ꙁъло
иноземцы
принесет
лаврен
хр҇та
Болгар
внутрь
Два
пто
ѹка
##нному
##ьр
##цр
##шных
##бет
воръ
всихъ
нинѣ
##вѣр
роды
лѣтѣ
велкы
бив
ледѹ
перси
чюдь
дѣлают
ѻ҆рꙋ
хранѧ
продаст
начала
погꙑ
въꙁра
покажеть
##стоить
иванко
молода
дьяком
работати
самово
терпи
ѥсми
думных
ризкого
птенець
свъ
умомъ
##демь
##прь
##чный
##гръ
наче
нечем
воде
##мон
росии
##лядь
##место
государи
##славичь
правѣ
странꙋ
единомъ
дѣламъ
повелѣнию
##довати
д҃ни
##трени
убиша
соуще
матю
##нѣиши
каменное
Велика
столпѣ
начнет
хвалити
въпадеши
свидѣніѧ
Бове
Брати
К҃
Свое
аф
глꙋ
зен
устави
цето
ѿлꙋ
##зду
##нде
##кле
##ядець
полюбов
##енѧ
##реву
томи
заимъ
сотни
отказы
татей
поспе
##бѣть
росп
выпи
живых
девки
##нѧгѡ
взговоритъ
указной
твоими
ложь
знали
приказех
продаже
сотворите
Приказу
крстья
Калинъ
кабала
половиною
боудоуть
готовъ
сильный
многыми
Медеи
княгини
казначею
киевской
Луко
##ѣзжаетъ
осифова
скърбь
приедет
перстни
##плих
девку
своєго
Изѧслав
призывати
Зензевей
земъ
звени
##реніе
##тныхъ
##жба
постро
помыслъ
колько
каса
съдръ
отра
милая
##лѣбъ
##цах
сино
стан
вама
мак
велитъ
##бѣг
испи
Даже
духъ
госпожа
василко
##зьі
нашѧ
сѹдъ
разуму
розных
судное
поклонитися
говорилъ
круга
##жницы
обитель
ст҃ослава
градов
работѣ
бѧху
##рій
степан
вь҆ꙁ
ведаю
указано
захарь
любезно
нѣтуть
300
Чьто
вʼ
ии
ѿкры
##рⸯ
##ннаѧ
##щень
##дени
даные
задѣ
прочер
##рьми
отвѣтъ
##чеши
##вѣди
##сторо
##пало
листомъ
Бозѣ
нѣкий
полоцкии
ложе
михалѧ
##днои
близь
правдꙋ
свиту
волшеб
данилов
здѣлати
конеч
свободы
ꙗрослава
худѣ
потребы
окаян
словъмь
заблу
вкꙋпѣ
вбор
хв҃
ѳео
ѹб
҆мъ
##єцъ
##ѭште
##iи
понѣ
##нине
##роп
морѣ
##лъся
калин
соловь
прост
отходя
##вѣхъ
##жахъ
##вец
##овому
лист
##щаю
##мели
ное
є҆ле
нѣт
пеще
доброю
убои
самое
##женіѧ
ѡбли
держали
взявъ
##фии
кругло
пушкари
воротъ
испор
ярости
дружины
таковыя
государстве
бѫди
праведнаго
##ѳана
явися
монастырских
печенѣзи
сѡтъ
Где
мле
охо
шелъ
##тову
##вина
и҆де
прота
събьра
##жаѧ
вѣмы
##без
чашу
сѣдоша
дь҆
##ющее
##ждю
въꙁь
писму
сн҃ѹ
пьрь
строить
казен
славѫ
целу
##ющаѧ
хотѣти
дрꙋгъ
пріꙗ
просфи
многая
кн҃зѧ
Лифля
щедро
въставъ
тѣлеса
ꙗ҆зыкъ
отпиши
воровство
королевича
Сви
дров
зрѣти
мꙗ
мере
уне
узь
яша
҆ѡ
##нными
##мко
##снова
##кров
##шкꙋ
##ѥи
наиде
##лик
##лиѧ
##лана
##нома
топ
присыла
замор
##моло
##шаꙗ
вамь
##ходе
цара
##дьнъ
##щины
рускую
раздели
сѣсти
а҆ха
дѣлается
времене
гала
розби
б҃о
конча
судным
стере
##шъка
##шениемъ
другом
прямою
греки
погиба
божествены
отпустил
гаврила
ѡбрѣте
повре
въздасть
словѣнь
палаты
мужеви
ѻ҆тцы
преосвящен
поварню
710
вѣрьнъ
огонь
иная
хі
чоу
##рской
##шут
##гер
##ѭще
неꙁ
вопло
моста
веще
##ньѥ
падетъ
имень
##стехъ
##гѡвъ
възненавидѣ
имаше
сье
##хитро
бꙋдеши
бл҃гово
порока
походу
сказать
жаловати
подобенъ
хотѣли
нейже
приход
племѧ
немощь
челобитнои
псковичи
##явлен
прочаа
29
иную
устья
##тла
##теніе
##дв
##цел
нару
##роси
##вами
толики
##димо
котел
мог
сее
сеѧ
##тера
сом
сож
##жия
##овое
живѧ
##стыя
славя
чадъ
трижды
##кѹтъ
храма
продавать
блиско
Такова
е҆гѵ
неиже
кѹпити
##станетъ
##носить
дрꙋги
раздѣлено
пребываеть
въсхы
приступа
селище
фомѣ
мужем
чясть
колѣна
аггль
провожа
заплатить
погꙋб
великꙑи
венецъ
едетъ
онѣхъ
управ
настави
##ред
тоꙗ
домь
захо
радꙋ
##сади
##чах
роба
гражда
вида
тихъ
исѣ
ꙗ҆з
черной
##скыхъ
старои
царевъ
взят
данилова
непотреб
золот
слонъ
повину
владыцѣ
таино
приложить
въскр
равныхъ
нб҃се
платит
обыскных
помилованъ
архиепископа
неправьдь
игѹменъ
възира
саꙋлъ
сѫдцꙋ
Али
Бови
Обрѣ
довѣ
ѡе
##аѧ
##аніе
##єтъ
наю
##них
##елев
пристꙋ
распро
##рьць
оупо
пато
##бери
##чьная
разда
##енаѧ
прароди
ихꙿже
нихь
гривну
блжен
поможе
родится
рѹкѹ
починка
высоту
любит
конемъ
болезни
геро
мл҃тва
околничему
Также
гры
чст
ѡндрѣ
ѥстъ
##ꙗи
##хове
##лми
##лніе
##ꙙшти
нало
##колѣ
##наі
##дахъ
восоли
госѹда
ниь
##рѣй
проц
съв
творт
статка
высѹ
ногъ
возѧ
страж
страхом
Намъ
учения
поиду
ные
посацкой
запасѹ
многим
трегранецъ
малой
своѥ҅
Симба
убитого
халоп
митрополичи
поклаже
третьи
кралевну
пришлет
ответчике
вотчинныя
##ткамъ
пошлет
##имати
Хотѧ
образцомъ
творять
ядромъ
плеще
рѹкодел
ѡстатки
ехалъ
древомъ
##ini
пыток
порѧдни
мрамо
бобылей
Муромцу
закладной
Михаилову
свинчатое
проести
порутчиках
целовалников
властел
свѣиские
##убий
капѹста
самодержца
купець
варшавы
отсро
статьѣ
ѡловѧ
раманав
21
онѣмъ
##тнеть
##ѧхъ
##щерь
поско
##тьем
##него
##гали
сиⸯ
васо
##бати
сѣмене
служеб
писат
##евичъ
##днии
онти
##щенія
добрыихъ
плод
держат
комуждо
почина
##вичья
приходу
пророка
вмѣстѡ
оставль
мыслить
скиніи
радовати
отвечати
другыя
философ
ярополка
Чловѣкъ
новые
уѣз
ѡсѹ
ѣкоже
ꙗꙁы
##ане
##сель
##хле
показуетъ
накла
гори
##доха
оума
малаго
##халъ
саве
граб
##чька
##овици
##нѧть
чины
дьжь
верста
ларѣ
луг
царьству
королевичь
##ніє
дъво
##етою
васильевичя
свобод
пошло
Сынове
нападе
ѥсмъ
кормить
языкъмь
Первое
##сюду
судьи
престолъ
храминѣ
месеца
ратманом
Рыц
геѡрги
архепс҃пъ
дѧ
зя
мель
обою
чтити
ѿм
##вено
##веніе
##тенъ
##гно
##ѥмо
##воль
##лиже
конъ
волѣ
водꙋ
##мие
припи
досп
заж
##доли
##нев
##сиꙗ
ведра
##въшу
##рые
пале
бесе
##щиимъ
вычи
житье
##слали
##славоу
##чьство
облѣ
множае
отъвѣ
вьі
лѣсъ
нѣсколько
сѣти
туго
благодѣти
продали
всим
скрь
раꙁли
і҆и҃лева
хотят
стѣнѣ
обрѣтъ
##цемѣ
надобь
блгослов
приставов
борисова
сказывали
еуаг
ѡвса
ꙋз
##вство
##аи
##ꙗни
##лника
##αι
##фі
##гони
въд
##кима
приточ
##болѣ
##жии
изда
маеть
пили
є҆с
##стынѧ
мешка
покровъ
дулѣ
биют
##городъ
перет
##зости
видѣх
##ложилъ
бл҃гъ
##пью
шиш
крщ҃
ивановичь
долгъ
внидоша
десятку
лошад
степану
Хотѣ
дроугъ
почали
извѣстно
глѣб
другие
боудет
доправить
точьки
Иса
Има
Охъ
аспи
ишти
кне
очную
т҄а
ѿдати
ꙇ҃
##шє
поѹ
##лав
неро
небрѣ
##лофъ
даютъ
даніи
##льма
отя
вечных
ведома
павь
излѣ
##щикъ
выписи
разго
безпре
странахъ
пеца
црков
свѣто
дьѧ
##скымь
корот
учителя
кнѧжи
шестаго
покаме
говорил
поруга
послед
Сина
городовъ
видитъ
землям
хотяше
хотяще
хотѧть
ярость
поути
юрьѥви
желаю
погибели
дворянина
съмѣрениемь
зависти
пскова
возлюбленный
алеѯѣ
второй
восприя
казнить
жаловалные
оружейни
множества
Днь
Имя
кѣмъ
опу
ьсть
ѡспода
##ннѣ
##ая
##ꙗть
##ꙗхꙋ
##язы
порт
##ницъ
водѧ
##сивъ
##сарь
стры
мал
вѣт
гради
жидове
руча
супротив
##тура
сѣть
сѣчи
##бьи
ᲂу҆би
королей
животу
стрѣлити
тъкъмо
предста
знаніе
шест
прииму
ритори
самой
##разꙋмѣ
##шкина
##штая
обозъ
хара
имярек
Вѣру
ст҃ыѧ
борть
узрит
сꙑнъ
мстислава
волостелем
прч҇
знамение
купленых
скорѣе
ѡ҆бита
вышьняаго
зѣ
піѧ
ѡсподину
##҇ъ
##жныхъ
##щенье
##хмо
##лсѧ
##ον
нащо
нежи
##рито
##льна
тар
сима
беспо
лихи
сажени
##щагѡ
##вьно
прадѣ
числѣ
##зите
крамо
имате
##скыихъ
##славѹ
предпо
предстоя
Когда
конꙿ
нашея
##женію
всѧкою
родители
Мати
пѧте
митрополитъ
Отче
глщ҃
непр
предастъ
доуши
раздѣлити
##ниѥмь
Свято
##крѣп
старець
мънога
сюды
приносити
прибав
мечта
пришествие
ловити
##славомь
различь
прочертить
Ор
кнь
яр
ємоу
Ѡле
ѻти
##ꙁн
##сницы
##ѵм
##лость
##реч
##нав
пристꙋпи
гони
зато
забꙑ
каме
сърѣ
стіи
##скі
##жане
хочемъ
рожден
сани
вѣре
возь
якож
сук
гриво
бьрь
владе
##скымъ
бжіе
дерзость
старого
блѫ
самодръ
пушкарь
##жениꙗ
гречь
глѫ
ногами
слезы
слн҃
бѫдеть
повинь
повинѹ
верхова
позов
почаша
покрыто
наместнику
батюшко
мц҇а
везде
наплъ
просвѣти
олтаря
80
вве
еѫ
кні
рюри
ѡть
ѿтолѣ
##ание
##ахоу
##лется
##благо
пон
нелѣ
неклю
##рево
##римъ
боудь
гоня
горꙋ
сера
##чинѣ
откуду
##ньце
##чала
паве
сана
##щаꙗ
кули
Божьство
##цѣмь
всякіе
святое
и҅мъ
##дницы
тр҇
речено
поставит
шатер
мяса
волно
труб
стѣна
именемь
поставлен
лоукъ
климен
Беꙁ
грѣховь
отпустили
смертною
ковче
гърдость
архистратига
дъждевь
Ври
Отца
жда
ога
осподину
рбль
ѧ҅
ѧти
ѹ҄
ѻсподину
ѿвръ
ꙩндрѣ
##ед
##д¦
##деніе
помь
поразумѣ
всел
завѣ
моӏ
##ситъ
##тескъ
отказа
оумъ
милый
сихаилъ
хочет
ревно
рождь
##щать
дѣжѣ
руць
отъкры
мушк
легъ
лоне
случи
и҅ма
##зьми
семей
##дники
ѻ҆тече
Коне
сторонъ
посацкого
розмиро
блудь
судных
римъ
рису
##фоно
коуз
грвнѣ
грвне
##штай
противѫ
записке
##шяя
опят
дворовых
гривьне
въдае
ответчики
торговою
дрꙋгꙋ
старыя
ногато
погосте
107
новому
начел
вьсякого
средѣ
терпѣти
надоби
въсел
##повѣда
а҅кꙑ
трьтиѧ
мужики
островѣ
обряштеть
душевь
цоло
стольный
грѣшьныихъ
кѡнь
осадѣ
ѹ҆м
пятнатцать
цетверти
Филипу
Гаден
чловѣкъмь
обыскех
присълеши
осифове
Азона
убогый
вѣчьныя
Тугаринъ
погибель
съкрый
Канда
потъштися
Бояштеи
збежит
кротость
разумива
хрьстья
Акиръ
птаха
притере
молодога
позвале
мълчя
безумьнааго
лицемѣрь
прѣзьри
салдату
Прѣмудрость
овьса
роспрашивати
ближьняаго
уклонить
пияньства
въздъхни
камѧнѹ
угълофъ
##убийци
Вриону
Жены
Иере
Левъ
пч
схо
сбира
ус
цс
ѥм
ѹпова
ꙁемь
##ббѡ
##рея
тож
давали
##теши
##щев
##бил
лиха
##мых
бѣлу
лѣтомъ
полкахъ
душь
глаголеши
##тробѣ
воинь
плото
Божиею
славный
Видя
##говорили
нарекоша
вдру
среды
примѣту
жалость
пребысть
Ѻ҆нъ
Свѣй
поправено
Тимофѣ
комиса
Уви
Цѣ
руд
тел
Ѡнъ
##дню
##цємъ
##хло
##ꙿна
##ӏ҃
##каю
жеслс
прибе
пристра
дочер
милꙋ
##скѣи
##чатые
##ением
роту
родомъ
возненави
##нѧт
##мые
##веръ
Богь
сладость
ᲂу҆ста
бояринъ
моима
##коваго
##прос
печалова
смотр
подаи
купчих
ст҃опъ
высокы
##лніа
##хѹть
##женью
свѧто
начѧ
вотчинам
сокров
грамотку
бжтвны
глагол҄ѫ
##любьць
индикта
скобеев
дъмитра
Вер
елен
жреб
звать
чемь
ꙁи
ꙗкѡ
##меле
##щета
##цкомъ
##яли
##фею
##ваху
зале
##чиша
созва
стрꙋ
сидитъ
палъ
хоч
преиде
житья
сынꙋ
разсѣ
##скам
тѣломъ
иваном
подда
нѣго
крадеть
сѣмъ
господы
лук
воину
люді
нашли
гривнъ
книгѣ
царствовати
федоръ
обоз
мяс
сѫща
кротъкъ
наказати
наказанье
братиею
Чтобы
криво
новое
татаринъ
грѣхꙑ
царевича
отчине
##стѫпи
трѹдовъ
прежним
костромском
зелья
Мꙋ
##нми
##ꙗнъ
##цкаго
##піа
##носто
кона
дама
зач
##рѣвъ
##ститъ
отвод
таф
##дѣше
предѣлъ
##хали
родити
##бес
##нѧтъ
##творя
##тромъ
святъ
старожил
благъ
нашею
сотворил
мѹжемъ
##ждааше
воинские
строение
отпустить
чюдотво
##елѣже
донские
книгами
совершити
сиротъ
Многы
умилися
посрѣдѣ
vini
ат
гда
днии
кна
новых
снь
управи
##нницы
##м҃ь
##кѧ
##ѡни
##стрій
##вомꙋ
кори
доло
моѵ
можаше
##льный
събѡ
веду
##бий
##сками
великомꙋ
##еные
а҆лекса
##трое
Коль
Сей
запрѣ
порою
порохово
подавати
##лники
##ведено
пушкаремъ
пищаля
нбсь
вниз
дмитреи
двемя
полате
старостишки
верховымъ
остерега
дш҃ев
толма
мл҃твами
надежду
расꙿ
сиротѣ
подьячим
діакѡ
собаки
##н҄ь
снарядомъ
бросанію
замкнѹ
проее
Воеводѣ
сторожевой
отпускные
архимандриту
леониде
стѣнобит
бло
опро
ізъ
ѿидоша
##ит
##тї
##кшь
порти
побити
наме
наведе
##ронъ
##родъ
##рец
точію
дае
дарꙋ
даромъ
дадите
##танъ
симе
теж
вѣнецъ
вылѣ
видеть
княжа
##жьствѣ
испусти
възо
рѣкѣ
##ятися
сꙋббѡ
снаб
братію
крсти
написахъ
должни
помилуй
казнѣ
матфе
щото
приятел
силнаго
ондрю
съгрѣши
и҃с
изоси
Сталъ
ві҃
сонмъ
Блг
никоторыми
герасима
кѡнстанті
а҆дѡнаі
укро
##нци
##кръ
##лкова
##лія
##кали
##риль
въсъ
##диꙗ
##дился
##сара
стѫ
##жаго
##жалъ
сили
маѯ
##сеѧ
є҆ѵ
Пожа
##зину
ᲂу҆тѣ
имѣли
никоея
б҃е
рыбу
##нꙑихъ
##тельно
##словіе
чьт
чьрь
пришло
е҃і
манастырѧ
принеси
недругъ
##торока
тꙋка
Сынъ
поганыя
обѣихъ
цьр
княгиню
прошлом
троице
иконы
трѹды
болота
притча
правьдьнааго
девлет
веніа
ѕлаѧ
хр҇тіа
позади
живяше
Еди
азо
д҄ето
цере
ыз
юрка
ѣдетъ
##нным
##ѫмѣ
##лмѣ
направити
##коло
прова
нераꙁ
дасте
воя
##кинъ
болъ
дождь
загово
каш
и҆ми
быста
##болга
оубиша
##вецъ
вась
варит
марь
вѣдома
вознес
##брано
всяк
инои
мучи
лутчи
##славля
кнѧжа
васильевъ
корму
бꙋдете
повелѣлъ
написана
ивановичу
неист
дꙋхъ
бл҃гораз
Петру
##нꙿно
##вшѹ
хвалу
моужь
почест
##шеніемъ
камение
Гаври
чюжезем
длиною
Гд
аче
зы
зови
цср
іоу
ѹма
ꙗзи
##зꙑ
##отъ
##ждати
##юю
##ѧніе
##біи
повы
помя
нази
##вори
##ницѫ
затвор
##дока
##дошѫ
##шавъ
рабе
##боко
любь
##рыми
##щают
градь
##бамъ
разѹмѣ
##сонъ
бѣгати
краля
полож
Тоже
##ловичу
##лкоу
мьі
потра
запис
##цкими
сказаша
иꙁво
рабоу
двдъ
непова
пророци
тѹто
прислать
въсеи
івану
досталь
мьстислава
ѧ҆зы
##скꙑѧ
востокъ
возлюбленная
блъга
великых
##женеи
статьямъ
исправить
##п҇пъ
и҆ноплемен
гривенки
Игна
Пріи
Чел
лѡ
мль
мня
опъ
уподоби
іс҃
##кр
##чны
##гнути
##ѻ҆
побь
прно
##ницею
##вавъ
зару
соц
содержа
##мѣте
мая
велить
##ляше
вѣк
житей
винити
стоѧти
##мысл
биша
Гой
##дѧху
бꙑле
##фон
господинꙋ
Как
послушати
обоихъ
е҆же
записей
##любивыи
купит
въсѣко
обрѣт
роспись
семену
глаголющи
##вшоу
езд
посадники
цьто
приставной
цоломъ
клеветы
колѣно
воровством
губных
порты
молодець
пашенною
убойца
тꙋрци
Олеша
съмрьти
прѣльсти
Полканъ
крепкой
втепоры
Ст҃ополкъ
Поместном
Киевля
рузском
неповадно
Мен
Мене
Цр
еты
окова
плени
твръ
успѣ
ѧвлѧ
##чіе
##яз
##тимо
##ради
неоу
##рос
мошти
##лехъ
##шай
##ръва
разс
бѣжить
прѣгрѣ
велѧ
##ствіа
##хина
и҅сп
семено
воивода
животины
царем
боярскими
##етом
четверт
##лениемь
кладѧ
##илости
##носитъ
твердь
востоку
кирила
толицѣ
вдовам
насильство
пощады
см҃рти
хощешь
липсваслс
сосꙋды
ѿтꙋдꙋ
оскудѣ
90
Сіѧ
оѳ
скꙋ
чръ
єси
ѿпꙋ
##рли
##смъ
##пову
##чкою
##шнии
пров
##енїе
##раха
##тьева
##вае
присе
прилучи
боги
заꙋ
замъ
сошли
прошꙋ
##маа
##житель
##нѣм
##ньскомѹ
##лѣпи
пасту
выру
##бар
носъ
десни
перемы
##дѧи
государевъ
бꙑла
царстве
въꙁмо
любовъ
береженья
скажу
##штꙙ
спаского
##ющымъ
свиньи
убил
образом
пѧта
высокъ
патриарша
стѣну
одну
стояше
юрьева
ѡбрати
іѡанъ
женоу
промежу
широки
небесных
Любо
насыти
курб
витезь
бесермень
жꙋпан
Ако
Ги
Иди
Клю
Лв
Мѹ
Прав
афана
вшедъ
вновь
ж҃
зять
збира
тна
ѳа
ѹспѣ
ѿн
##сꙙ
##снъ
##щмъ
потаи
##лита
дачи
##нева
##шится
каков
отлучи
##мьрть
оуча
милова
санъ
жилъ
обру
столе
Давы
дворо
##цька
безчести
полно
ꙗ҆в
писанию
##пера
тяж
златы
шесты
приказщик
архі
суды
смердъ
ꙁапа
всих
царево
ходитъ
маломо
времяни
Ильи
дѣлом
Отцу
ꙁемѧ
Пресвя
полове
оставити
жалостно
приказати
##жденіи
поимаются
##сюдꙋ
Є҆гда
богатство
укрѣп
претер
съмрьть
жєны
сокровище
Кнѧзь
вавѵлѡн
Семен
гн
еѳим
оскор
тꙗ
##ело
##оби
##блѣ
прсно
##роти
##ване
коть
дачь
нигдѣ
какаѧ
##гара
##хою
листы
живыи
ночью
разры
##ставили
грамотꙋ
многолѣтно
чертою
животине
нашем
нашемь
стефана
похотѣ
##в҃и
харито
##цкихъ
святым
московские
##метова
срца
достоин
боудоу
микити
##шней
приходитъ
н҄емоу
внутри
пашнею
хлебом
пришьдъ
ѡ҆брати
Гл҃
Уне
Юрь
беля
іа
ѡбои
##жной
##енно
приди
сънъ
отписать
##дѣніе
оустав
##чамъ
хоць
преко
бела
##дьце
вир
##чьи
##жьи
##тушка
плачемъ
##ствіѧ
волостей
главъ
луку
чернец
блг҃
благов
тріе
сꙋд
трем
раꙁвѣ
милостивая
холопства
тꙑсѧ
ха҃
Павелъ
службѣ
доуха
##шенье
хвалѧ
поимали
тюрме
ехал
церковные
произво
ꙗ҆зыки
замуж
египет
кыѥву
взира
птенца
прикос
храбраго
писцовым
Яз
глеши
иныѧ
оче
тврь
##рения
##евь
##҆нѣ
##бны
прѹ
въспѣ
комоу
водъ
пришол
зади
##тев
сосе
събор
##скомь
##бин
бегло
##шьно
лѣть
##сѣмь
перевѣ
възвра
мыт
царьского
имѣния
г҃і
молитца
цѣны
нбса
патриарши
служит
поучение
предасть
велели
ст҃ыя
многажды
Иоанна
бывшю
вкупе
кобыл
полоцку
ѡбьѧ
съконьча
оузѧти
подобьно
никоеяже
Аꙁъ
Андрѣ
Мнѡ
бѕ҃
имы
свали
уклони
учалъ
##рскои
##вною
##нною
##ѳу
##фья
въдови
далѣе
засе
мощь
##бота
##чаго
паном
ротъ
сугу
възлѣ
мышь
##нꙋти
черне
га҃
конта
покаꙗ
сроки
мертвы
гн҃ь
приходе
зиму
мѡа
духовную
##днее
гсдрне
моуже
Филипъ
володимиръ
переславском
генералы
500
осквер
скла
##ехъ
##нть
##сh
##҆м
##ені
##нося
##дик
дам
далѣ
припись
мора
##чикъ
кал
согре
бещи
вышина
пиша
бѣсомъ
безꙋм
кресту
продажа
##нето
##пьев
починить
устроено
объявить
двѣнадцать
праведнымъ
помышлѧ
торже
спасения
являют
##беру
добродѣтѣ
колесни
Адам
именуется
питїе
ᲂу҆мретъ
вопроша
измаи
знамения
##числен
Ели
мр
тв
ядры
ѥдино
ѧро
ѹтѣ
##снь
##дн
##цовы
##чков
##гнѹ
поут
походи
неѹ
негли
кала
век
оубити
##цам
пау
препис
лига
##бавити
##сѧтъ
многꙑ
##цися
мѣр
мѣръ
суко
волода
писаны
потомѹ
женах
огни
огню
гл҃ще
скака
послуси
казака
воинскаго
святыи
взѧл
проситъ
полатъ
недостой
поганых
Хощу
##стеръ
могут
сильныхъ
живеть
Илия
месяц
изготови
погꙋби
слыхалъ
мнстрь
ιно
Б҃
Ри
Язо
ати
вҍ
ие
мрт
ядрѣ
ѡд
##чками
##хлен
##ꙿсе
##лҍ
##лса
##шнем
##стные
повал
##кию
замят
##сиѧ
кано
кабы
мишень
##ениа
твоі
станѣхъ
васья
бега
##щахъ
дѣѧ
оберега
множи
є҆сте
##сьи
##сью
Поне
мѣрити
нѣкаа
полковаго
страда
речей
васил
лунѣ
семе
башни
##днике
храмы
сторожемъ
судные
смолнѧ
##шкин
противѹ
е҆сть
инныя
вороты
##жениѥ
манастыри
##говорить
ответчиков
тысячей
Реч
##шеньку
хвалы
промежь
Всегда
іванъ
мнише
жон
юношей
##ходятъ
рыцере
разори
поперечной
добродѣтели
пойдетъ
снаряда
печатные
печатнику
Адаровичь
возлюбленнаго
околничих
ѡбиходе
ѡбиходѣ
ѡбиходѹ
гюргѧ
рожества
желва
святител
росолъ
Подсоко
оубрѹ
Никитичь
исцовы
ищеа
домочадцовъ
полковому
##грѧз
Смороди
коемужъ
попортило
почерком
засвисталъ
лѹчшее
Милитриса
затхло
раманов
Бж
Увы
Шеремете
гну
зове
оць
плю
пене
сл҃
усну
##еца
##жнѣ
##щенья
##дши
##енди
##лиѥ
##лонъ
##ложь
въпи
домоу
каша
и҆сто
##стань
быхомъ
оук
паны
родѣ
всеще
##щаи
##беи
##зани
друзѣ
послала
лучь
Нача
бытие
холопь
##стѣмь
разуме
##жделѣ
погово
сперва
Отпу
нѣколико
работу
четыреста
нареч
росіи
##бꙑти
##ковича
какия
##щениемъ
въскрѣ
челобитные
погубилъ
сꙑна
бж҃іимъ
ꙗ҆зыцы
возвратисѧ
портъ
венча
подража
оружия
Троицы
хртіа
въскрьс
пчелы
Иду
Сра
Што
впер
оклады
сму
слю
удиви
єдино
ѿхо
ꙇ҅
##рл҇
##ꙁра
##щя
##хрі
##шнымъ
поꙋ
##дають
##несо
##гада
тело
хотелъ
салта
саржа
##щааго
##выихъ
тыхъ
перевод
##шками
лукь
женѫ
Приде
##ніꙗ
громъ
сицево
торговых
свѧты
окру
Преже
столпа
ездити
павле
особли
избавлѧ
##крѣпко
русьскую
отчины
праведно
закри
съблюди
преодолѣ
убийство
прельсти
добрим
Що
зѹ
уча
удоб
цене
яма
явѣ
ѡци
ѥгѡ
ѿстꙋпи
##сце
##км
##жку
##буд
##гель
##гои
непа
##дило
кодра
дая
дави
гоны
заѹ
засѣ
нищо
съдра
съкаꙁа
оуп
##цари
син
##бае
обна
разлу
##скаки
возвѣ
Поиде
нѣсмь
чающе
писани
добромѹ
##дним
животомъ
молим
рима
рижа
помошть
Моло
попѹ
##лениѥ
полезно
чл҃вкъ
богом
андрѣя
денга
недобо
первом
оставить
житіи
зимою
жалости
погребоша
Василь
аминъ
нб҃си
жестоко
прочита
богдан
побѣдиша
гюргю
неделщика
мрьтвь
ст҃аꙗ
странах
евангел
доброволно
смр҃ти
варлама
веніамі
Дво
аг҃
оку
смыш
чѣ
ѡдинъ
##ьскы
##клѣ
##ѥго
##тон
коре
##рѣза
и҆са
и҆сцѣ
сои
собла
веро
##живо
самꙋ
сажати
прѣи
##право
темницы
нашымъ
повелева
сѹжда
блудъ
##ровичю
##нꙑи҅хъ
мьзда
женꙑ
немного
освя
гл҃ть
воеводъ
отдал
свидет
повѣдати
нѣкои
объявити
целованью
могутъ
хитростию
селища
совѣтовати
##немѹ
съмѣренъ
плѣн
яковлеви
ондреев
кузма
составъ
добродѣтель
роусина
глють
Богородицы
фролов
есьмь
неправеднаго
алеѯандръ
поработа
манастꙑри
нелицемѣ
ѹдарить
тавары
талантъ
Гс
бгꙋ
гет
идоу
очной
##трꙋ
##їимъ
##꙽ло
пошь
накрѣпко
##рачи
##нах
##мило
могѹ
расхо
##шинъ
##жаются
сина
велиши
лицу
вѣнець
##щася
жиръ
бѣлую
##енева
сущу
курь
ивано
велят
нѣжь
възвесели
##овыи
скором
##еныхъ
##ствѫ
ѡ҆правда
имѣешь
дѣлаютъ
бжіа
тькмо
цареи
##шой
##ніихъ
михаилъ
породи
кручины
дъб
дворц
третьего
торговые
раздѣленіе
степанъ
слꙋга
храбрости
будемъ
і҆ꙋда
приходили
псковъ
игорѧ
прилѣпи
концамъ
середкѣ
съкроу
теперь
возмут
промыслы
отечеству
пишешь
пишут
вѣньць
хоцеши
немилости
ркп
бѕ҃ѣ
жі
крѹ
мнъ
олово
црѣ
іса
##ѳѡ
нече
недꙋ
##дам
##ваѫ
гонѧ
завѣща
могѫ
##стиян
калика
отме
татѧ
оуи
##ведъ
пара
извѣща
беска
##славомъ
Побѣ
бѣда
безчест
##ствуя
Прия
спса
послѣже
молоды
ярослава
варницы
сред
вѣренъ
болѣз
царствомъ
восташа
обрящеть
каким
наслѣдіе
##нномѹ
Василия
большое
вышелъ
распу
божеств
щисла
накаꙁа
государыни
скверно
феодора
##дрыи
жертвꙋ
приговору
Егип
небыти
обвинити
кровопро
непроход
корысти
витязи
бескаба
Дрѹ
Име
Иеро
Язъ
аж
втрое
звер
орт
охот
ссѹ
цвет
ѡви
##есть
##ꙑмъ
##ων
##нила
##лон
##даль
въложи
коимъ
даеть
вор
прикры
мост
моръ
рана
##мата
преч
##чьскы
##сь҆
возити
кучю
въздати
мужю
Гор
поидет
животе
стрѣлами
кормы
##нии҆
Колико
##ющеи
заплака
мѹжеи
смолен
запада
угодно
Ниже
поколо
смѣты
пьре
индѣ
видимы
народи
слоновъ
искꙋ
двумъ
вѣрꙑ
##шенья
чересъ
урядно
праздникъ
##жденія
желѣзными
Господню
##зриши
целовалником
давꙑда
всѧкагѡ
вторыи
Скажи
милостынею
априлѧ
никомоуже
кротъко
Анд
Л҃
Суд
Теле
ипо
угле
ѡнь
ѹбиша
##ровых
##ыѧ
##чяти
постѣ
прія
##нилъ
въся
корѣ
дарѹ
##вил
ратью
##рѣто
содержати
съмъ
##мѣта
маръ
ходу
сабля
##дутся
##тѣти
нѣкая
##цѣх
полтретья
деревя
ѡ҆бли
ᲂу҆стъ
латин
имѣнье
уготови
##лоую
цр҃квамъ
казаковъ
запира
святыа
дьяво
пришлю
Видиши
крив
силныя
добрѣе
праведенъ
всѧкїѧ
никитин
приводных
вашемꙋ
наместни
ударил
##величи
дх҃овнаго
здѣлать
антонии
заложит
промысла
безаконь
георги
рухляди
Мамай
покаместа
внѹ
ищи
лете
ѹста
ѹстав
##сію
##сение
##свѣт
##хіи
##лского
##ѕо
наложи
##тил
недоб
##ноша
##ваемъ
##емли
колъ
##стьѧ
оттоле
таче
##чан
робу
##мех
пифи
##залъ
##нѧнъ
тѣс
испроси
Богомъ
##вращен
бꙑсть
приидут
какіе
Такожде
##ніем
гнѣвати
гробу
##ющая
богородице
ст҃ыми
желание
воеводамъ
вѣрно
дроугоу
срам
малые
івана
томьж҃
помыслити
убытка
молѧше
клепа
дрѣва
прпдбнаго
ѻ҆лтарь
ловець
Храни
ангеломъ
Ерку
Пове
ари
вправ
збо
мз
описа
озеро
угла
яму
##они
##тꙑи
##ьи
##чнои
некра
тожде
кодь
воле
моне
моглъ
съзъ
века
##ручини
оуст
оупро
мах
##люся
вѣро
вѣща
вѣдыи
чеснаго
обстоя
##шьке
Поръ
лѣп
исцово
перехо
перекре
полкы
полкѣхъ
слатися
##кее
##новенъ
ст҃ꙑи
и҅сти
и҅мѣ
черен
видѣвши
воина
гсдре
блж҃
##нꙑи҆
Казна
писмѣ
Ильѣ
кладенецъ
дворников
языцы
святые
Проговоритъ
конечно
служили
стреле
собравъ
срацы
Бѣлую
пития
пришедши
надобет
братецъ
серебрены
помещик
подьячих
бѣлокамен
увидела
давідꙋ
розбойников
зубы
дядю
идоло
неделщик
готовить
бьіти
хр҇то
начерта
возвратися
достойно
кротости
дьаку
змѣишшо
боарь
Всеславьевичь
помꙑш
буйну
вылаз
померли
##кланѧние
сахарныя
клеветьника
Саваофа
хоцьши
Второе
Еван
М҃
глет
злых
лкъ
олексѣ
сце
тꙙ
ѻт
ѻстави
ꙁо
##ꙁрѣ
##ꙗꙁ
##дко
##лкомъ
навꙋ
##рать
##дасть
##вань
даѧ
вора
дочерь
състави
##мѣю
преобра
##ляеть
##сего
руда
##слабѣ
меда
прѣрѣ
възбра
версты
поистиннѣ
противоу
учить
писцов
смрт
пятидесяти
потребѹ
насил
родителей
щитъ
татьба
девяносто
жеребья
##рнори
Дѣла
Разумѣ
хытро
внутрен
множьства
Апосто
Вра
бльга
вступа
дхь
жрь
крю
сменова
утер
хса
ꙗзы
##ум
##шной
##гля
##ατ
##ꙙште
премо
##тьр
колачи
рабѣхъ
илии
пасы
##столюби
##бежа
##чьно
бранъ
судит
Небо
стража
##еныи
дьмь
лак
гсдремъ
##мѧни
убогъ
##тѧть
пѣшие
большимъ
сн҃ве
Ради
##трѡ
казали
вꙑшь
видимъ
любитъ
зълъ
дмитрѣ
домажи
здорова
свобода
кнз҃
##ленаѧ
тимофѣ
истиннаго
мирно
празникъ
поклонися
оброси
сльі
записати
сидору
главѫ
промысломъ
ловища
вавила
настоѧ
нифонту
ᲂу҆готова
Давидъ
вьрьшь
##рноризь
ак
адъ
олов
орѫ
фре
##хте
##ѣше
##глѣ
##яи
##тинь
несо
дозирати
##шающе
прокъ
##боли
##чают
преступати
посель
##бедь
градом
##чьнъ
нос
вози
нѣціи
часѣ
думати
бит
лего
левка
лежит
сѣтова
ᲂу҆разꙋмѣ
##троу
ученія
Тога
##днимъ
видѣние
стрѣлъ
приказщика
сꙋди
чьрноризь
Сии
рꙋблѧ
славѹ
хрі
дьяков
##ствию
##женьи
##выимь
пріѣхалъ
каменіе
готовы
овся
##ственно
Руси
прежние
ѡсѫ
апостол
копьемъ
престола
приступивъ
немало
соломѡнъ
а҆гг҃лъ
дми
жрѣ
здума
нмъ
оци
увя
умом
усади
фло
хꙑ
єгда
Ѥгда
ѿврати
ꙁов
##селе
##кль
##йского
можем
сохи
просла
##въмь
посполь
бежа
бражни
разру
##гую
чисте
скоты
стрѣли
разумом
большая
правде
обоих
і҆и҃ли
Сътвори
надвое
Прок
устроен
помѣта
є҆мꙋже
погостъ
кнз
пребываше
микита
житіа
малыхъ
Безъ
приказал
мл҃твою
сказывать
##пустилъ
месяцъ
постиже
мастеры
##ловым
##стіѫ
ссылка
пеня
пономарь
Братия
Гю
Дра
Свои
Убо
ани
внов
греб
ен
зоу
ивол
реме
скы
х҇
ꙗкѹ
##еж
##нения
##мется
##жнымъ
##ѫщіи
##дша
##шемꙋ
##яну
прꙋ
##рине
дадутъ
пристѹ
раская
и҆ди
солова
тад
##жина
стлъ
##жаху
сан
брага
обстоитъ
##теліе
##гѡмъ
переп
указы
дула
дубра
скот
сѣй
сѣдали
ᲂу҆мер
ст҃и
поими
чюдно
чернь
дѣлаши
молитися
грче
мꙋжь
##штена
обозѣ
возможе
##ницами
отпустити
войскомъ
Ивановича
числамъ
умреть
огненными
106
дрѹжба
хитростямъ
пришедшю
промежи
промежю
промежут
посадцкой
братец
направленіе
направленія
подьячей
большого
изволишь
ненависть
равныя
верешь
ѡбыча
дѣтем
крестьянишки
меньши
иноземцов
угольча
новъгородь
свинчатаго
строитель
размѣрной
фрол
есьмъ
датцкому
молебнаѧ
сыскав
прапоровъ
полковой
окладов
побаеть
ѡ҆полчи
Афанасию
щербачов
наꙁнамена
онтипьев
оружейничему
пищалямъ
поговоря
Отпущены
апо
плет
рж
смъ
ѿра
##ино
##нелъ
##ꙋю
##нощ
##ним
##кажи
дают
пригород
##дор
раскопа
нич
кан
весть
##жилъ
листом
##щиихъ
градо
жиꙁни
разныхъ
стой
##мыва
отъвьр
##лѧю
##кым
прѣб
чинѣ
кралѣ
деревен
сьтвор
бук
##дяща
баи
##дних
никона
приити
бꙋрми
повелѣніе
бываше
запасов
церковъ
подай
купца
гнѣвомъ
почитати
##чяя
имяше
целовать
ратное
ап҇
Резан
кыевъ
племени
сверѣ
покрыти
мн҇
наперед
требѹ
##а҅го
кузму
дияво
і҆ер҇лима
Михаилу
дщєри
глагол҄ꙙ
Федор
Скоро
едучи
празники
##дравству
воньже
лигатура
Гре
Дь
Пръ
Псан
Това
Тоу
Треть
ади
вр
дят
мѵ
фила
щет
ѧже
##вень
##нїю
##тцѣ
##ѧнъ
##днъ
##чти
##хвал
##ια
##стовѣ
##коле
недели
##реши
##ката
##даютъ
##ваꙗ
коръ
##тамъ
дошед
##шали
отрѣ
вера
стен
творѣ
пари
маломъ
посрам
своее
##гимъ
нощъ
обрѧ
##цинъ
возвы
возмꙋ
ислѣ
исхи
страсто
деревь
глати
добром
богату
учинены
кил
пѣнѧ
мѹка
бесов
##ствует
церква
чловѣкы
борисо
служилым
грекъ
непло
смина
честенъ
пѹсто
пребывание
лоубо
острова
тысѧщы
##емыи
изволишъ
посѣти
десница
отпустилъ
Тебе
поставь
однако
оружием
копие
доправя
Строка
і҆исꙋсъ
є҆динагѡ
Пѡ
Тꙑ
влка
клу
оц
четъ
є҄
ѻна
҆мѣ
ꙁе
##нрав
##ани
##оне
##ѧще
##пно
напре
##кома
##нится
##надца
##дания
##динь
прива
призри
бомба
гостем
мок
соп
оучен
мирꙋ
изра
вала
##лятъ
садове
братѣ
Поло
куде
имꙋ
сядет
стражу
чадомъ
а҆нт
а҆біе
пламень
##ныихь
булга
тъшта
помощъ
въꙁы
марко
законѹ
идешь
рекши
новгородъ
познахъ
пѹсти
посадникомъ
жьрт
торгъ
оучитъ
бревна
прпбны
пашня
кабалных
девяти
судью
чюдеси
воскресен
переꙗславлю
промыслу
непрестанно
справед
текст
ѡстрове
Лазарь
ѻ҆вцы
вседержитель
николае
суботу
архіеписко
Ски
Црь
впол
вдов
вставъ
еꙗ
овъ
ѡди
ѡде
ѡдо
##слова
##хвали
##ir
##рича
##дею
капля
##маше
##гаси
##въша
##въшааго
##щею
##бия
##рятся
вѣь
руских
обжи
##циею
вознесе
бѣжитъ
##кых
чисту
##телꙿ
полка
василѧ
первая
писания
г҃лѧ
дивии
творита
федором
##ехать
слышат
бл҃гаѧ
требѣ
покоя
обраꙁъ
побѣду
градовъ
нꙑнꙗ
ꙁемлꙗ
ср҃
сподине
##никсъ
х҃а
дрѹгъ
погуб
побили
алешка
рѫкѫ
ѹмреть
спросить
ст҃аѧ
доколе
приемлюще
Подобает
лошеди
##о҄умоу
благовер
Vir
¦д¦
Бовою
Иова
Отецъ
впря
длѧ
длин
уности
явить
ѥва
ѥсифу
ѻспо
##рские
##вку
##тня
##цєвъ
##mus
поӏ
попол
наца
въкѹ
кобꙑ
дамь
восо
водить
прибꙑ
мони
моуд
ниче
##синоу
съи
##салъ
весте
##руо
микоу
##рыя
сигово
вара
велию
вѣтри
##дуще
выко
выбира
вымут
обни
разоумѣ
множство
столовы
дежѧ
воземи
возѧти
Подоб
##твоу
князеи
бѣю
лѣса
исцова
кунами
Божь
пересуд
всякая
##мять
бьз
бьло
бьлъ
волоцком
ᲂу҆жа
##бядь
дьвѧ
и҅хъ
черные
видѣв
животи
търг
гривно
галаа
кнѧги
знаете
продале
петре
тьбь
коунꙑ
грвно
чьр
крѣпъ
писмене
Рахма
бъръ
илье
харѣто
высокою
нꙑнь
патриарших
водаи
ѳедору
здрава
Христѣ
тоудо
размѣрити
Еруслона
росчету
роублѧ
велела
102
клюц
ключь
столника
гюре
познаеть
стьпа
стьпана
Бѣше
Бѣлая
Изнесоша
кн҃ѣ
череми
ведает
посадские
богатырское
Дария
воскрь
широку
крьни
христос
бѣлоно
бѣлополо
##ковее
Амиру
вѧць
творца
грв҃на
ѿдастъ
Никита
поеди
укажешь
поместные
поместныя
##ступай
петръкоу
съкрови
кѫнъ
коробьꙗ
нꙑнеца
##битьѥ
потрѣбь
Азон
племянника
третіи
убьют
ссылку
Филон
##л҄ь
рꙑбахъ
дробныя
резано
резана
увечье
межам
достиг
бесѣдуй
Салтанъ
гавран
жемчюгомъ
Имѣние
куонь
християном
займи
ласковый
хѣри
турабьѥ
осед
зобница
подивися
Фрагмен
мрежа
леваниде
францужской
хоженое
прослезися
игуменом
столбце
отказывати
соловьи
тугой
Подсокольни
фредери
бѣлополотня
Оного
Сем
жт
идѣ
ловы
рци
чъ
##нскаго
##іем
##блу
даяти
гонцы
##ль҆
##кълина
проу
съꙁда
##бокъ
##чество
стръ
##ньна
##ньцю
##чанъ
малѹ
##пала
лишен
выгна
житьи
ноз
разве
декълина
прѣмѣ
прѣбы
такои
##л҃ъ
полков
краю
а҆ма
а҆ві
если
аршина
стеѳа
малому
поход
##вших
убить
кроме
##лѡвъ
ст҃ою
Божиимъ
кнѧзем
##ктоже
предаде
новокре
дръжати
велѣл
имеѧли
лоука
тысѧщь
посадцких
вдасть
судия
долгое
евреи
священником
мелницы
колеса
рѹкодѣлью
другий
богатьствѣ
цръкви
голуб
жеребью
всꙗко
микула
ѻ҆гнемъ
и҆сполни
самѣмъ
опыте
хрестьян
звенигород
Кла
Ря
мови
оспо
ꙋзе
##ꙁꙿ
##мл
##днымъ
##ѭшти
нег
##рона
##торъ
приро
горю
##мому
##чики
##шевъ
и҆ꙁ
проре
##сари
быстъ
отписи
оуслыша
силен
исписа
куну
нѣкіи
##цѣте
горою
дубъ
красити
лека
ѡ҆чисти
барха
##днику
видѣть
воини
животом
держит
старост
блговѣ
сотворих
##различ
Мики
##нѡмъ
противля
побѣда
##волоки
дꙋхов
##клонити
пришель
бѧхѹ
дрꙋгы
трафи
съгрѣшиши
королевне
погребѣ
водное
третие
клевет
бц҃ѣ
нашому
испытати
ѳеѡдосии
обьшть
блѹдъ
милосердие
воротиша
і҆и҃лєвымъ
доконча
урядствѣ
щьть
Оста
Сему
Твое
игры
лвь
овер
сго
ѡве
покы
нель
##тохъ
##дастъ
тоа
воры
призира
нижь
ничем
солов
проз
##сафа
оутвръ
##сковъ
малѡ
хотели
речь
##лями
##сот
##сотъ
отъвѣща
мещер
сумнѣ
сѣни
имѣть
##новить
златыхъ
##краи
##тѧт
повелѣно
боярскіе
правну
писмена
законо
ѳедоре
льго
днев
поуть
слышимъ
члци
съмѣри
дш҃ю
Русь
широко
сімѡ
исакови
идуть
мѣрами
государыня
подводы
ст҃ополку
богатства
славослов
зꙋстѣ
сторонних
Вместо
збор
мд
нко
снима
ін
ѡць
##иди
##інъ
бойся
вселю
##леп
ража
канц
содѣ
отре
##дѣл
##чатом
##жал
стааго
преу
вѣтры
##дьрь
высе
пишю
##сец
разслаб
прао
испа
прѣсы
челя
сладо
дуга
и҅ли
галан
васильевы
киеву
##ложиша
царствия
##ждахꙋ
походъ
е҆п҇пъ
Пае
разумѣет
грамотах
ꙁеми
##чению
##стях
невѣрь
прияли
огненное
терен
солома
всеволоду
душегуб
##венѣ
батюшку
рыбам
ударилъ
верево
ѳома
богдана
Глагола
ничьто
архимарита
изволь
Исуса
възвратиша
жемчу
Печат
събора
стефанъ
магмет
црт҇вова
испълни
Новагорода
Объ
ама
аку
ву
смысли
явки
ѡсѣ
##рская
##вли
##зде
##нмъ
##шным
##ѥми
прр҃
боемъ
допраши
завла
##доль
##лъкъ
сопроти
быхом
ведетъ
пагѹ
станут
вашои
##гие
##жьнъ
безсуд
дерева
пламени
##ствѡ
##ровя
ѡ҆к
гладъ
пермь
ст҃ль
влади
##левꙋ
приказѣ
сотворихъ
федоре
слышать
марти
дворовые
##шении
видимо
##леными
одномъ
спору
##ствовали
домашнеи
сороко
##стѧнти
мерку
каменнаго
х҃с
ступи
дмитреевичю
судил
нужда
небесное
изволил
адамъ
горамъ
родителемъ
попом
бгослов
третьяка
изготов
престолѣ
сибири
оумѣетъ
дѣтьми
Мъного
приданые
петрович
сергиева
роздачю
заложена
сщ҃енниче
брашьнѣ
равъно
вправду
инь
кел
свь
твъ
укре
фео
ядеръ
ꙇз
##рства
##ꙋсти
##ꙗша
##шника
##стере
##ложен
##тьникъ
##ривъ
дають
прину
придут
забъ
##вич
##шаю
ничи
ништиимъ
##сие
соби
сопротив
##божь
##чане
сиѥ
синь
##ерегати
преклони
послю
##ряз
##бѣдь
саду
##меи
видь
руския
мноꙁѣ
бѣжати
полскои
духовь
##ставилъ
ст҃ѣ
какои
верхов
святааго
##евичя
ежели
предте
дивля
знают
##зей
Сотвори
Каза
##ятно
строю
строеніи
##шению
имяни
##ствовать
аглин
оксен
подвига
нового
болѣꙁнь
великіе
овдо
кликну
романъ
##жденію
погубивъ
въсако
дв҃да
наказъ
повете
потреби
ростислави
поставят
копья
дх҃овных
благыихъ
братіею
сергіѧ
зълыихъ
Радуйся
##ꙑи҅хъ
Игорь
властелемъ
дымъ
еі
зелен
иѥ
и´
истѧ
клика
мтр
ота
с҄и
учали
ѥмь
ѧсти
##мовъ
##тсе
##҇о
##днаѧ
нае
##равѣ
##нимь
въвѣ
вънѹ
заѧ
##силь
сосѣ
##вѣдѣ
##ведоша
ставъ
мали
##куще
рекѹ
сар
своег
##дьи
##іихъ
##чьныя
разсыпа
##дыни
естьства
##быт
##мымъ
##верху
дворѹ
въздержа
##бъра
писанныя
семенъ
благодѣ
##кланꙗ
знает
кимь
блж
##лкомь
въꙁлюб
чьсо
##шомꙋ
##грѣш
крст
пустошах
подасть
похотятъ
##лениꙗ
домовъ
хлѣбомъ
##леного
высоки
дьячь
полатѣ
золото
наречен
двесте
глаголааше
приятелю
Ростов
веселии
##въшеся
владыко
##ꙁь҆
соверша
съмѣрять
Лича
соломо
##дней
##скꙋдѣ
грѣшнаго
##сеніа
новаграда
неволею
княжене
алеѯан
блаженные
племянников
жилище
мертвъ
невре
належи
печять
исповѣдати
заутрен
зракъ
тяглым
цьркъвь
никътоже
Ита
ах
абье
кт҄о
уму
учал
##ѕе
##il
постели
насели
##лил
##даша
вола
прижи
причины
бози
замь
##леѯанд
пронька
##мах
##жию
##вѣстно
папа
измо
ребя
##люще
сабу
вынимать
грабити
питьѧ
жидовь
сыро
земла
разы
отъврати
лѣвой
чисти
##тѣмь
крещение
ꙗ҆сти
послании
свѣте
верст
имѣньи
государей
чюжаго
сѹщ
васильє
сторожей
начати
помолися
огро
о҅бра
привезъ
митрофа
##шяся
уезду
самих
стѣнамъ
прямое
единосу
##говорит
станутъ
торговати
##нꙗго
Пред
столникъ
гюрѧ
погании
звѣз
посадниць
дш҃ѹ
завидь
напиши
победи
##деля
вышло
аггелъ
мт҃ре
Мнози
болого
иосифу
грьци
Писание
ѿц҃овъ
оувѣдѣ
сибирь
замкомъ
говорят
прѣмудрость
росоле
новегороде
тряпезѣ
полковыхъ
Вѣруй
Утро
емъ
ину
ленъ
сня
іе
##здати
##ялъ
##ⸯко
неси
несы
##нинь
толок
въстя
данъ
прира
##шат
##шааше
и҆мени
протв
съда
##нуму
##чек
##скове
##пили
##жаютъ
сира
лиш
свое҆
виѳ
ношть
обрето
възгла
муро
##еныя
сѣяй
а҆да
бояти
луче
##рѹг
бг҃ови
кислы
петрово
##фом
въꙁъ
гл҃юще
угодни
круглы
борисов
##ницамъ
славно
##емати
самимъ
Вьсею
раздѣлены
поставлено
помета
покланѧнье
духовнаго
спасению
кораблю
яковлева
уставъ
нужи
срѣтоша
цѣлованью
ѿдавати
третьяк
##племє
алексея
фараѡнъ
воздвиже
успения
преподобнаго
совокуп
патріарха
прпдбныи
пещеры
сьмью
старѣишины
вооружен
нѣмци
пелены
впервые
Ілья
Ахъ
Днѣ
Ха
адѣ
ещо
сходѧ
іеро
ѡхри
ѿв
ꙑва
##рень
##кҍ
##жяй
##дци
##ым
##лм
##яша
##҃а
##vs
наклады
##вона
неть
прил
причя
бонѧ
зажига
##долище
##вили
могоша
##лесне
##стивъ
отси
ведати
##удно
паля
теро
рекь
##пают
##пантъ
бедра
беглые
лишя
вытер
вывести
пиштя
жизно
##чьнааго
##цери
мѣшко
бѣлки
##жьна
суштиимъ
суштиихъ
##сѣхь
въздьр
всякомъ
##ствени
ѡ҆свѧ
писании
трицать
чюдитися
##штевена
##дꙋть
дѣлаюшта
##враштя
представ
двадцать
сѹндѹ
тяжько
приказѹ
онба
##лконет
Сеи
рыцери
запѡ
рицею
##твен
##женѣ
печатати
пожар
андрей
снастей
бѹдь
##цоко
радослава
радостью
##ющему
послушяти
Таче
дорожень
обраштя
наказанїе
братаничи
инные
иннаго
Богатый
##чяния
высоцѣ
кѹпить
любимый
##штяй
конец
разумѣвай
зълая
устрой
водами
Добрѣ
недругамъ
##стѧт
стыдися
размѣчены
товарыща
слывет
слышяти
огненные
благословеньи
иона
103
столному
##брѣте
вьсякъ
исков
государском
весель
пятины
съгрѣшя
микиѳо
сильнааго
премно
владыкы
живущих
малый
сыщетца
ꙗрополкъ
##лагай
ведали
бореться
примѣти
тысѧчь
чясы
чядѣхъ
направляти
##торая
приказали
указала
оставляй
сьрд
цого
шанцахъ
шанцоко
умъно
##штюуму
мъножьствѣ
Кіева
удалой
сꙑно
гѹща
Отъкры
новаго
кружала
кружаломъ
земльная
четверогранцахъ
##елыци
рѧду
состаре
сьрдьця
давіда
веремя
##жяние
небесьныихъ
максиму
Магилене
уличат
умиление
неясы
##скѣй
скърбя
богатырямъ
насытить
микифорка
белого
прѣмуд
мудрыихъ
Македонии
умьнѣи
пѫти
збежат
нижней
стряпчих
възишти
заповѣдьмъ
выстрѣлъ
##юштии
##юштиими
красьны
супостатовъ
вѣжливо
вънимай
Бердову
мѧснаѧ
Холопье
притъчя
прежней
книжьное
утвьр
доселѣ
локотъ
разумьнъ
оубытокъ
оговорных
Солнышку
ветшаное
попецалу
оправьдай
дрьзновение
възнесеть
Телца
живѹтъ
гр҃в
иверского
парусы
достоянию
зазираемъ
мѧтьль
є҆леа
высѹшит
Симбалда
сърѣтай
плотоядець
vinivs
промежуток
##грѧзнено
оуксѹ
##ручинился
жьртву
вполне
Подсокольничекъ
испълнить
толокно
Для
брѧ
впо
ищет
лву
ома
Ѡво
ѡдно
##рмъ
##нски
##ать
##іꙋ
##іхъ
##хто
##лт
наклад
##етвер
прису
дошедше
заро
##чик
##шитъ
##шимь
##мат
##ганъ
извол
роте
дѣтѣ
##гине
носа
обнов
разные
##соб
##лѧтъ
подне
Богови
ст҃мѹ
бусу
##химъ
чюжо
тъчію
кире
##дѹт
братю
бѹдете
правдѹ
##шенію
нихъже
##ній
анба
законе
поминок
высокое
иꙁда
селце
хотѣніе
четыредесѧть
здорови
##жней
##чении
бесѣдою
иоанна
искрь
езере
блгода
плъкы
оружни
з҃і
всеволоди
плѣнь
душев
юноше
ѡснова
крь҆
клевету
церковное
церковных
племянники
тихановичь
##читать
Поклонъ
безстрашно
именьмь
Слове
Тѹ
вво
кемъ
пени
ѡр
ѡнд
ꙗꙁ
##ань
##кги
##ці
##бенъ
пошол
некои
тока
въсели
коря
богѹ
дозо
гоу
могла
##стьв
##чича
##льнъ
##нули
##лѣѫ
творю
изʼ
мам
презри
##ляет
саблю
сажены
вѣли
##тыка
виру
земным
тим
девичья
##скахъ
тыми
мѣдь
бѣса
пустити
велья
муча
скоръ
бьемъ
василе
милослав
рѣкою
##скыѣ
человѣкꙋ
монастырю
гал
ѻ҆с
##датися
артем
##ющей
родителю
##зери
держав
блиста
рѹси
положили
противень
полезна
і҆и҃лю
##клон
никаких
младо
совету
въсѣмъ
след
подвигъ
боудѣть
моремъ
които
духовным
##щениа
пшеницѣ
съсѫ
вверху
щиты
Адамъ
сладко
кормлю
заповѣдалъ
ѿц҃ъ
бжии
спорных
порутчику
младенца
оученици
и҆ноплемє
опыту
совести
Гео
Хто
Ши
ань
вко
идете
мли
уто
ѹс
҆ю҆
ꙗсти
##ѧща
##ххі
##лца
##лным
##ѥтъ
##лив
##носъ
##ницѣхъ
##лобы
##лобити
##ваніе
##динов
привѣ
моемѹ
##рьца
отго
##скѡ
##жаа
##веща
##хаи
чепь
правѧ
пут
дворь
а҆сс
##іютъ
і҆саа
буря
богата
г҃л
##никамъ
Себе
запре
начат
трі
пѣши
млт
млть
гл҃ше
раꙁѹ
домовь
вашемъ
мѣстамъ
старымъ
именно
Роз
птицы
поидемъ
погибе
свети
толку
лъжа
мл҃твы
поперекъ
черниговѣ
Иоан
матушки
квашни
неиздре
любовію
є҆динаго
евангели
пропасть
помꙑсли
церквей
бл҃годарен
заꙋтра
неиздречень
23
Бѹ
Грѣ
Об
Прь
бры
осѣ
одино
утаи
ѿгна
ꙗк
ꙗков
##аще
##ѧтѣ
##дну
##яеть
##тини
##лаи
кося
залѣ
заступи
##дои
##лево
##негда
проби
##нула
оуко
##етька
жиди
##гий
##славом
##сьева
##лѧи
бѣсе
##ленѣ
Далма
възвы
полонени
бисер
црковь
мысл
имѣи
враче
двана
дерь
огнѧ
освѣ
мꙋж
д҃хъ
митрополь
древни
славенъ
славному
##рену
##жением
пришле
беꙁꙿ
творѧи
Прекрас
погоуби
апслъ
дроуго
фома
н҃б
игната
юноши
поклонился
согрѣша
Данила
нюже
вечеру
ѹмре
Михаиле
пѫть
яблока
костѧнтинъ
чернориз
запѡвѣди
а҆ссѵ
Дъ
Сіа
Стрѣ
Ци
в꙽
змѣя
темь
чрѣ
##ріѧ
##зне
##много
##ꙗт
##ждя
##цове
##пѡ
##чт
##лты
##на҇
##тьна
##вайте
##дилѣ
пригна
##дотвор
сево
##скоую
##жавъ
малых
##рян
##щали
градꙋ
стою
тысе
##гуть
бѣд
подпись
страдни
дуни
биль
а҆в
##кѡтъ
слуг
верха
лазъ
тридесѧть
##печали
монастырѣ
монастырей
шесте
##ющемъ
##менил
##нутрь
##ꙁами
Ничто
привели
пречистои
##жениа
стѣнь
жаловать
единород
рекѫ
свѧза
дрѹг
крѣпокъ
пръвое
кн҃же
прислати
мужикъ
образцы
урядъ
тюрем
назад
установить
ѡсет
невидимъ
федорко
оуготова
помиловани
меньше
##дрьжа
разумнымъ
нбсное
калинин
180
вопче
ст҃ополка
ростовци
см҃рть
ондрѣю
сенька
лопари
ествою
деревлѧне
Ева
Ерма
Кѹ
збирати
кю
лко
ороу
рче
смен
упо
цъ
цего
чт҄о
яд
ѡнѣ
##вру
##нцю
##пета
##ѳема
похи
##тинѣ
##вото
##лаѧ
##лато
неволи
въже
въстав
въспро
колы
колом
могоу
сеп
##шино
сънь
съпро
##боро
##дѣх
##лѣеть
пось
вѣды
землꙗ
бралъ
вьск
##рѧт
крале
а҆вес
##кѡм
сьгрѣ
##хия
живоу
дванадесѧть
петрꙋ
мꙋжꙋ
дъще
законы
долженъ
##ненія
древѧ
язык
обиды
##ницам
кѹры
вашегѡ
предаша
криви
члвка
пребываетъ
царие
фомин
узриши
лицах
наместник
наместников
батюшъ
еуфимь
поклоненіе
чюжими
подкопъ
Инго
белев
купленые
бл҃женныи
сборъ
здоровѹ
устраши
Всеволодъ
въздух
Единъ
Лета
Слу
Селев
бі
еа
сꙿ
сє
сбы
тпо
ѹтвер
##вке
##нема
##сень
##чше
##ѡн
побор
повыше
##вобо
##ревѣ
водѫ
допол
гонит
##шалъ
селом
рамо
раск
каши
каци
какову
соглѧ
прот
съсу
отступи
##ньску
извет
##пал
##панъ
##бѣди
руга
ноне
обма
Помина
лѣсы
##цѣи
инохо
сѣдъ
##ныихꙿ
главѹ
Надъ
имѣлъ
когоже
Воспо
концѧ
господин
подать
Тамо
пріими
ханаа
нбн
##ющагѡ
погорѣ
блюд
срамъ
вѣдаꙗ
какихъ
игнать
мл҃твѹ
срѣтеніе
распѧ
##н҄и
вѣдомость
олферь
искони
прочими
бывшу
воспри
двд҃ви
ѻ҆тєцъ
мл҇ти
архимандрита
манастꙑрь
рубежа
проклѧтъ
помыслы
А᾿ми
поцелова
приписью
гж҃
дм
езера
фар
ѡжи
ѫ҅
Ѻти
##нники
##чіи
##чемь
##чнаѧ
##бку
##бовъ
##глеб
##ѳꙋ
наемъ
##ропу
##вающи
коемъ
донъ
закры
расыпа
проща
съли
##гат
оукори
##ньского
##вера
ставит
прево
саженъ
сынь
мѣшка
##туда
бьѥть
ѡ҆бы
первых
лодья
вершков
лубъ
Надѣ
человѣкы
врагом
сѹгѹ
гривноу
тяшко
ѻ҆ц҃
знаешь
запла
начал
бл҃ж
великаѧ
близо
послѣжде
борисе
наказания
срочные
просит
совет
татарове
хитростей
А҆зъ
хвала
повара
челобитным
патриархова
возрасте
произ
федку
ударить
убытков
свето
кровию
впаде
кънѧзь
старинных
горько
межах
растлѣ
заемных
нѥго
прозвище
##тцеть
Г҃и
Крѣ
Крь
Ол
бдѣ
бм҃ь
дніе
зово
кроу
ожени
чтѡ
ѿрѣ
ꙋви
##ꙁнѣ
##мн
##ꙗномъ
##дною
##деле
##гр
##рема
богови
доходы
съдѣла
##пота
таѧ
##жище
##лѣба
симона
патре
тесно
извы
измы
своеа
##гих
нощей
стоу
сторови
добрь
бѣсовъ
подпи
дуба
полон
скочи
##евꙋ
свѣчи
рѣх
святѣи
гсдреи
нашꙋ
сѹщѹ
царіе
конʼ
петри
родитель
покаяние
##зех
##янію
Мат
дъвои
воинству
добрая
испы
покланꙗ
данилка
иꙁꙿ
Отвѣ
стѣнъ
##нѣишіи
прияша
оставиши
пятьдесятъ
конюха
##рением
климѧ
возмите
ѥсмы
срѣте
здарове
пойдет
падение
волостелю
бобыль
словѣни
Ꙁане
пьрвое
ходятъ
##вшуся
кровавъ
є҆диномꙋ
богомолца
прикладывати
шляхти
семеном
Второй
Отв
Уло
дови
пшен
смыслъ
сцовых
свыше
удел
ѥще
ꙗкова
##тникъ
##чня
##чета
##҄і
##фрей
порѫ
##лице
нежда
##точки
тог
коста
##мию
борѧ
бозѣ
своѭ
заряду
##рѣте
##сило
отпа
отцю
##чества
##ческой
##скоро
твоѫ
##ръда
измену
реце
вѣтра
землены
носта
обжу
є҆зе
Пора
Постав
##ленꙑ
куно
прѣчи
нѣть
полтину
гороху
скона
битъ
пес
пешени
сѣна
Горыни
##тяги
воложи
василіе
перъ
логви
##хиа
предсто
Александров
жаль
##езд
потрь
##шоко
ширина
злой
сн҃оу
послусех
золъ
запишет
ивановы
помилуи
помирятся
градʼ
гурью
##шениа
полуех
полушоко
молв
въдаси
пригож
светъ
крѣпка
таковыи
блюда
могучия
съвѣть
житницах
##евыхъ
Егоже
борзѣ
челобитчиков
избавить
мнится
поимается
медве
орлов
Кіев
панѳи
##хѡмь
пойма
пойдут
ѡбычаи
ѡбычаю
сладка
Лука
Бах
околничим
теплѣ
ѳеѡдора
микифор
Тугарину
палату
македонян
Кандар
погребенъ
чертежу
звѣриному
давꙑдъ
днѣпръ
оубіи
наследие
шкоды
покупати
Моисе
бл҃говѣрныи
змея
казначеем
громкимъ
Потока
плачютца
крыльцо
самоволь
Гаденовичь
Человѣ
Ключевъ
Евагри
Ответъ
Вдѣ
И҄
Сѧ
абро
гп
еро
лка
мелен
уша
цѧ
ірмо
ꙁре
##нкова
##слꙋ
##пки
##тьство
##ватъ
##ныма
задержа
раство
нито
каа
сош
вери
паметь
станѧ
къждо
литва
дѣвъ
##сьев
тогоже
Помыш
##нѧне
супру
подв
веліи
словен
имамь
црс҃
лоба
баби
человѣци
менѣ
враг
Кои
молисѧ
пѣшими
женахъ
ꙁакла
игумены
злобою
поплъ
##лемо
писме
Тае
рꙋси
##гелии
иꙁъ
##передъ
мудрый
делах
устрои
мертво
рекохъ
познаеши
тимошка
##е҆ть
всѧкими
ще҄
апостола
новъгород
православным
мастеровъ
заповедь
потрѣба
премудра
татбы
питіѧ
вавилы
зовут
атаманъ
озере
исполнено
трофимов
осмотрѣ
Послушай
геронти
Ов
Отец
Сіи
ави
егѵ
оны
отити
счетъ
усти
юре
ѧꙁы
ѻн
##рдъ
##м҃
##о҅
##сови
##селѣ
##жными
##цꙑ
##шкѹ
##ѕѧ
пожен
навед
##комо
##лимъ
##торе
##тонос
во҆
воже
водо
радѹ
##нъмь
стꙑи
оупова
##ньць
##рыня
##вело
##дущи
пивова
виры
##лѧетъ
бѣлка
##кыми
куници
прѣстав
##ютсе
кресья
пещь
лок
ложное
лап
доброхот
Тогива
николь
стрѣлу
держить
розныя
##ноути
##ноуоумоу
конных
шара
гнѣзда
троѫ
хлѣбѣ
сродни
нбкм
высока
высоты
чистою
любите
ярославу
недругомъ
останет
двѣмя
приставы
створить
поганыхъ
болгаре
двум
терп
вѣдаетъ
четвероу
ꙗропъ
зависть
яковлевъ
видев
еднъ
ꙁъла
##сѫдоу
пострадати
носит
помощию
неудобь
осип
і҆акѡвъ
съборъ
любъвью
Авгу
росходъ
мнстря
выведуть
офонасьев
леонть
десетин
владеют
бещис
Вс
Иꙁ
Сказание
вѧти
е҄
езеро
злаго
оки
ѿвра
ѿвраща
##зіи
##сны
##юже
##щемь
##шетъ
##томѹ
##натца
въл
дар
гонить
гостю
голицы
##шево
##тере
проторы
оурѧ
##стокъ
прегрѣ
##лят
вѣнча
выю
выне
выразумѣ
дѣте
##слати
##замъ
бѣхѫ
сѣдѣти
бур
буква
каком
##хищ
черна
никомѹ
нашемоу
злаѧ
##вѧза
женки
сꙋдити
бесчис
ширин
державу
сн҃ове
##гела
данилу
молвѧ
людьмъ
так҃
##шнихъ
недругу
здоровъ
таковая
достоит
отроча
Рома
таковым
пожгоша
тѹтъ
чюдотворцов
##глие
слѣд
досталное
н҃бо
погребъ
##емыя
множествомъ
панове
потребѣ
прибавить
любъви
премудро
ѻ҆тцꙋ
пишешъ
доколѣ
сѵме
рекꙋтъ
починков
сундукъ
бутто
непашен
Если
Мл
Фи
длина
еꙁы
мца
нмь
тщета
устреми
цену
ѡч҃е
ѹмь
Ꙁако
##ины
##нском
##мла
##цкова
##ѡ҇
##гше
##тиемъ
##воти
##ринꙋ
дара
придоста
приговорили
##вите
##чите
нижни
##оваше
канъ
##санъ
таво
##жими
твоемоу
сине
вѣтр
##щий
##тыихъ
выпа
земи
ножь
стоуд
добꙑ
праву
чистую
##емую
сѣмени
##нѹт
##елева
двадцати
##кѹп
корко
розгра
молить
продала
запер
##тьеву
є҆гѡже
товарѹ
огнем
большую
чьтѣ
##нѡвъ
##полка
##ковоу
##шокъ
церь
раꙁѫмѣ
дъвое
##коупѣ
##лоуи
сѫще
обрадова
третьемъ
никакои
водахъ
просль
другаа
##дьяко
новои
пѹстыни
##леная
тимоѳе
и҃і
совѣтова
помалу
лежать
грѧды
евре
маиꙗ
ростислав҃
##нїа
съкръ
приносит
нечисты
добыт
ꙁвѣꙁ
торговли
ушима
гряз
Грамота
рукописа
ольк
тяглые
площади
кꙑѥвѣ
кꙑѥвѹ
Которые
костянтинов
киноварью
таварыщи
кнз҃ѧ
посадницьство
ιм
Дере
Ні
Сты
Фео
Ьто
Яже
абиѥ
бце
еӏ҃
сходити
цены
цвѣтъ
іереи
##нного
##ае
##ꙋи
##тча
##кⸯ
##юсѧ
##ленья
##шема
##ял
##҃ι
##iя
##20
##стрꙋ
въшед
##динѣ
колени
водати
жера
примол
призоръ
дожда
мож
рабѡ
##льныя
##стина
##тева
кака
капита
##рьска
##ческаго
стмꙋ
##жами
тещи
малая
##бѣгоша
родꙋ
лихова
##мера
тиши
##сомь
Позна
прапор
судѣ
възлюблен
ча҇
ᲂу҆же
первыхъ
лоску
видѣста
благодари
васильем
приим
бесчи
въꙁбра
бж҃їѧ
порохомъ
Море
Мала
берекове
державы
обозы
языкомъ
Съи
митрополич
любимъ
московскои
##летное
споро
каменную
огненной
смрть
##дѫтъ
болгары
пособ
##смотре
##днако
архимарит
дмитрев
##несено
игнатка
распа
воспи
желѣзнаго
шанцовъ
ондрею
кнутьем
четверогранцы
доидет
рѣзана
верьви
цирку
ѳомѣ
старасти
Луче
призвавъ
Чада
могий
ѡвогда
посул
здѣлано
Слышав
просѧще
володимира
подкопы
статьями
вышины
живꙋщіи
начерти
верьховыхъ
проразумѣнію
кружальнаго
7092
скръби
ѧкиме
вкѹпѣ
самопальный
опознавати
ківѡтъ
кеnih
пороховомъ
замкнѹто
Ажно
Бг҃
Епи
Лва
делъ
дшю
лзѣ
сру
чту
ѕело
Ѡна
ѹжа
ѹтро
ѻб
ꙇже
##ркова
##сенъ
##҆ѥ҅
##дрѡ
##ꙃѣ
##σι
преми
##тино
нек
вънъ
водꙑ
##делити
заг
##леска
расѣ
##шиша
собь
съна
##мааго
быше
отци
##боль
##боръ
верою
##щего
оуши
оумер
милым
людъ
сиѧ
силъ
ваа
марьи
вѣдо
выслуша
пишꙋ
сынишко
##вьна
мѣст
бѣре
лѣно
тѣлъмь
куста
прѣслав
ᲂу҆крѣпи
глааше
##левна
Токмо
арт
ризу
помогати
##словъ
въꙁⸯ
##пья
чловѣци
бър
городовым
і҆и҃левꙋ
митрополиты
сказала
дꙋмы
конеи
богоявлен
никакой
работꙋ
домашь
войском
осталась
неприя
ѡбида
приязни
ѡбраз
отьца
драга
іѡанна
государству
праведных
ꙗрослав҃
Рус
##влѧше
требꙋ
почесть
станич
жезломъ
оживля
велицѣи
торговле
святии
полотене
живеши
упалъ
Черниговъ
Иеросали
Дмитри
Тер
ив
ища
теля
ѡ҇
ѻнꙗ
ѿто
ꙁри
##мръ
##товь
##ьство
##сⸯ
##жли
##дрꙋ
##піи
##хіа
##янова
потѧ
##надцати
точью
##емымъ
костро
всы
донеси
##тее
промысли
съма
##щевъ
оуслы
##лѣаше
па҇
варя
преписа
##патъ
##щаютъ
дек
##вьство
бѣа҅ше
подпис
нѣкую
послаль
буть
имѣѧ
чюди
воистинну
стрѣло
нашѫ
розбои
##ноуть
##нꙑмъ
##тьевъ
сꙋсе
въꙁдоу
скро
чловѣкоу
подале
соуща
##цкий
пꙋт
рабомъ
игуменов
##връже
свободѹ
свободна
июлѧ
далеко
праведными
области
ведают
##дѡмъ
путивль
довотчи
і҆ꙋдина
крестнаго
##жокъ
сп҃сен
постиг
птицами
бывшаго
двд҃а
записью
спросилъ
перевозы
##стоуп
милостыня
воѥво
противитися
вспѧть
издалеча
Телець
Лъ
входѧ
ине
одержи
умыс
щ҄е
ьст
ємѹ
ѣсть
ѿврь
##нхо
##тцком
##жѡ
##лть
##шныхъ
поо
поступи
поскочи
##вону
въпло
дау
даро
дарь
доби
година
забра
загла
##вицы
мостити
##лес
##шась
содѣла
съсѣ
##дѣну
##нѣти
##вѣмъ
оуказа
лютъ
сиси
маѧ
преложи
преступ
##овом
##скиѥ
##дьржа
##ень҆
дѣтѧ
обрета
возмѣ
меды
тѣбѣ
тѣлѹ
безмѣ
слати
полоць
ꙗ҆рость
##тять
##кѡвь
##евна
гласу
людиѥ
луди
басара
сѹлта
гасуда
##знаѥть
запру
##тельство
тѧго
всякий
поросло
сповѣда
злобу
##ченши
д҃не
соущи
митрополичих
Прости
иꙁы
ѥ҅си
внимати
##ѣхать
полата
##а҆хѹ
рекли
##нѣише
ѡбители
силна
Вѣдѣ
доушѫ
июнѧ
почему
половец
поставлю
готовымъ
а҅ꙁъ
Пища
іванов
посадцкого
покрыва
надежда
дроз
прьво
сенных
небесным
собору
трѣбоу
віна
пр҇но
господь҆
##тниковъ
латинеского
промышляти
довлѣетъ
вопрошати
влдч
҆е҆рл҇
тихановичю
лебедь
асѣна
рухлядь
гражане
истьцю
благовещен
ациле
ниьсоже
влко
емь
жю
инѣмь
мтре
нже
очеви
рвы
сене
ѳра
ѿлѹ
##жную
##дт
##хта
##ѳі
##стіѧ
невъ
##ната
коже
козни
котѡ
воскомъ
##жещи
приче
прику
приписа
##модемь
радѧ
##стислав
солью
софон
съвер
съеха
##саи
оусп
##ньскаго
##вець
##ведеть
стару
изви
малень
рекоу
великь
##овоу
лимо
вѣчно
##скима
множаи
##зади
##цихъ
вьмѣ
всѧчески
полону
##ставиша
лоди
версту
добродет
черное
королева
розные
блг҃о
##никах
##дѹть
повелѣние
тѧжь
игум
бѹд
чловѣколюби
привезоша
старцов
сѫть
полез
молот
соущоу
полътора
##ющася
просимъ
стояща
тысящи
ратным
обычая
кнꙙ
желаемъ
побиша
истинна
свадь
геде
захарка
оржа
посылали
ѡц҃и
Видѣв
понести
разꙋмъ
##лезет
ископа
зубъ
приꙗти
бывшее
сътворѧ
василевича
ѡборо
Христовѣ
олтарь
пишетъ
смр҃ть
Услышавъ
є҆гѵпетскіѧ
промꙑсли
торговать
нынѣшнемъ
безпрестани
а҆весса
94
Бовъ
Кли
Ль
гло
зговорилъ
лвица
нм
новую
сет
скь
умыслъ
фетька
ясно
ѡло
ѹмо
ѿго
##теть
##свои
##кмъ
##іѕ
##цето
##ꙿва
##штѧ
нагы
прпо
##ларю
нечего
въну
прися
присоли
зазы
##дону
##вин
моѫ
мосѣ
мокро
##молови
##льнаго
##симка
и҆бо
проче
съезжа
##живалъ
##гаи
##скръ
вашим
мариѧ
ростѧ
лито
будто
##мея
##овичу
Поѣхалъ
##быза
всѣмь
безхитро
полгода
сладости
покръ
думу
иноцех
плачу
##кеи
глаголъ
лошки
лаво
лаꙁа
учнешь
воиско
##вран
михалка
рубле
кии
кину
приказнои
Кому
обыскати
##шого
михаили
братцы
бж҃ь
богатымъ
Муравѣ
Рахлен
Тавру
анки
цр҃ковь
сѫди
язычной
таможни
пꙋстыню
срдца
##шний
вотчинные
вотчинник
желѣза
##казывать
дворецкому
каменной
силной
ст҃ыни
познати
поведи
татары
веселъ
въслѣдъ
##ваяй
родствен
##женые
королевские
оучинити
брежно
Белая
толкова
толщину
михайлова
чадолюбива
животах
Соловью
приставными
побесѣ
змию
захарии
едного
адам
осадилъ
спрашиваетъ
найми
степен
камения
маиѧ
одеяние
ꙗ҆зыкѡвъ
Гавран
а҃і
Девгения
сыскивая
##ѳью
карабелыци
##тятко
Кур
поклонение
Стратигъ
Стратигов
возмуть
витезя
божіи
Боярин
павловском
городищи
Салтановичь
нощію
въспомя
табак
табаком
Пріѣхалъ
объявляетъ
чюдовского
Услышав
Кощею
меновных
испортит
пеньки
Алимпияда
҂аѱ
ꙋчинит
Греческую
шеломы
зговорятъ
Птоломѣй
скатерти
Киевляня
особливо
Казначею
Муравѣць
Кни
ень
злы
иво
ира
истра
кл
меле
рва
##все
##нтом
##ꙗлъ
##щене
покою
насѣ
##нисѧ
##реко
##рещи
воꙁ
припло
мози
нищих
##шивъ
##симъ
съсь
съвла
отписа
##боѧ
оуспѣ
лютая
##ньемь
##жаетъ
сѧслс
стаа
станицы
васку
резо
всеславъ
##дьнѣ
дѣтехъ
земнаго
тию
десно
чимь
възвѣ
страст
сласть
крал
леж
сѣмя
платья
##кѡв
государемъ
чюда
темнице
блга
##езе
началъ
##женїе
погля
въꙁврати
михаилова
радостію
##фиѧ
оболен
опри
испль
испрво
просила
##четца
остафь
##теры
желѣти
подвиг
апль
блгодат
имеѧлъ
сильнѣе
##щіимь
надобетъ
колоде
похвалу
красотѣ
пѧтьдесѧтъ
изволите
пшенице
ондреева
гѹрмы
киевскаго
бывшꙋ
богданова
могилу
идохом
здѣлай
телѣгъ
и҆зыдоша
ангелъ
увѣри
говорятъ
основаніе
хоудо
трапезы
умеет
Федора
истарины
пьредъ
Небонъ
ȥемли
Фила
бля
нн
южно
іи
ѡлта
ѣсти
҆но
##рство
##ѫи
##ѫѭ
##дія
##прі
##ꙿныи
##҅хъ
##герь
##росто
вън
##диле
воцари
##жества
##тана
доски
моемь
##лео
себє
нищет
##лька
##сите
отцем
ведоша
ведро
стрт
##нѣя
оути
оутре
##мѣмъ
бедер
лих
жиꙁнь
ногы
разсмотр
многу
деда
купу
##зъше
ꙗкож
а҆п҇
первый
сьм
служа
врат
враговъ
предло
знае
концѣ
сотворимъ
всемилости
сꙋдь
##ждена
большихъ
Мое
подаст
Сиби
спати
послуха
прямая
подобаше
вꙑправи
соущь
идемъ
Сами
хрсь
всякои
льсть
агглы
##щомоу
окре
новотъ
степанова
вѣрных
ездят
Вави
лоукꙑ
##ѥ҅ши
##днев
челобитных
желѣзнымъ
орду
##женіемъ
оброку
аггл
рѧдъ
тайну
благааго
копьи
##глаголеть
отвеща
##ѣзжалъ
хрестиян
девица
крестиян
напса
бобров
нравъ
беспре
сѣмѧна
насади
пароб
твьрдѧ
закупъ
благоуха
инѣх
състарѣ
жывота
вылѣзуть
ремествени
гюрѧтѣ
Ара
встав
мрѣ
спе
цре
ѳь
##рска
##тлѣ
##щемѹ
##чкомъ
##чному
##шнова
##шкове
##бнѣ
##҃рь
##енского
некто
##вале
толо
приши
притво
секи
##льные
каѳ
каждо
##матри
оужь
лют
ван
роги
сабли
пищи
дѣтя
братоу
##сьти
##нѧми
тѣши
Боль
чаши
иноплемен
полосу
а҆с
имал
госпожи
перв
вотчиною
##мѧто
гава
потоп
рижѧ
трѫ
##зеши
трепет
пушками
свита
записки
гордо
городовую
ст҃омъ
градꙿ
Откуду
въсѣми
свѧтаго
невѣсту
дховь
##ствꙋетъ
лошадя
честному
кыева
вьсѣми
царицею
##сниковъ
##гꙑни
чяда
братьєю
рыбами
смертію
степеней
поперегъ
похочешъ
небере
бѣжаша
въскоре
трапезѣ
##ѳеѧ
бг҃ом
грязи
индик
вѧчеславъ
отнюдь
добрѹю
Констян
навꙋходоносо
Четвер
ела
сс
сложи
ула
улу
увы
ѹпра
ѿъ
##здѣ
##аn
##жі
##жѧть
##дꙗ
##пⸯ
##лмъ
##лнѣ
##гомь
нажи
наку
##тив
##лили
##лихъ
##лицу
##никꙑ
##лосѧ
копы
вот
##милости
присо
приту
привелъ
запу
##стьникъ
сек
##тець
проходитъ
бывь
татъ
##няй
изря
рожьство
вѣде
##дуо
питья
дѣлех
Помо
меди
исходѧ
куро
иваноу
подроб
переѧ
страшли
плачем
##евѡ
ложни
многомъ
ученію
поидеши
##скы҆
##нѹти
никоего
тъща
##грады
кормят
Воро
молися
мьзды
подъемъ
речет
Матери
малого
спасу
покоити
рꙋб
четвертью
крот
дворовъ
володимерѧ
боголюб
двѡ
четырех
##тꙋю
дрꙋг
золочены
прослу
седмыи
дракѹ
первоѥ
емель
хороми
ездил
свек
повиненъ
въсегда
лукаво
Другъ
поклонишася
прошломъ
равенъ
нѹжа
урочища
епп
ѡ҆бле
ѿвѣщавъ
Писано
третьяго
гюргеви
губные
несча
праведни
мертвыхъ
##стоупи
самодержецъ
дръжава
прославлѧ
егип
савина
рубеж
твьрди
а҆арѡнъ
влд҃ка
похули
ревнѹ
птоломе
басараба
Ави
Андре
внем
ила
ищу
кляти
клин
лго
новыя
нш҃
св҃
тмы
утвор
усер
ѡсла
ѿнести
##ꙁем
##тнымъ
##сову
##ѧго
##дрю
##хер
##яго
##яны
##ѥт
##ѥшь
##αρ
по҇
присылати
##мой
седит
##чиком
##сипа
кача
солю
собер
проꙁ
простре
съга
отняти
##гать
стль
##въко
##мьно
оуто
##няется
препро
лици
##дьнааго
чепи
столы
##закѡ
Поѣ
бѣлая
бѣлыхъ
куне
##тур
передо
лежи
пещи
##ровской
едине
глада
многокра
##хима
дьꙗ
моисѣ
чето
семиде
животворѧ
ѻ҆ба
Александрову
царствии
молитвѫ
Себѣ
конными
бывала
##езду
пѣ҇
сꙋщꙋ
сꙋщихъ
недлю
ꙁане
въꙁв
ѡбро
порукою
##шенко
четвертаго
помири
губя
чистоту
словами
въдаль
днемъ
##а҆го
ярославль
науку
іѡана
раздѣлена
половець
пособи
терпѧ
праведныхъ
совѣща
изыти
корабел
корабля
сестрѹ
станицѣ
братьѣ
именито
хлебных
н҄его
заплатиль
зуба
келарем
приносить
разумнаго
погꙋбити
прркъ
прркь
манассіи
милосердія
ѡклевета
павловское
стѹдень
с҃тго
Дмитрей
ходатаи
Послух
ермошка
стяжа
Алексея
бочкахъ
начисто
навыкнеши
і҆ѡнаѳанъ
ѿпѹсти
сомк
юрьѥвичю
ѡвесъ
Зо
Зако
Роу
Сꙋ
Соу
Судъ
бѕѣ
вма
мло
млѣ
осло
сста
улов
цвь
яй
єму
ѹчини
ѹлици
##снымъ
##дными
##йдетъ
показу
##годи
нав
##нил
##ниця
##даніе
въноу
дадимъ
воемъ
приме
припу
боче
доля
##деб
заволо
##доко
##лесь
соромъ
солны
простъ
сътра
отходити
оуми
оупа
##бивъ
##жаемъ
сило
##бѣе
литву
выси
выкупи
выскочи
питати
##ковского
##шькѣ
отъимати
сусе
куни
прѣложи
гридню
всяку
мужемъ
скоморо
лежѧ
грамоти
##меню
##стѣмъ
конци
продажу
чьстью
братѹ
крі
злочести
попла
##штерь
рꙋкъ
четвертой
смѣхъ
гумно
сроком
Божиа
кꙋница
служителя
##ѣхались
просим
Вижу
##бѧть
##чениемъ
каменныя
окро
новой
драгаго
лошадеи
##славие
могуть
многаго
конюшне
слѣду
десѧтъ
н҃нѣ
вышла
сребрены
Духъ
слободах
собаку
колпа
еуглие
приносѧ
дѣвицы
господарь
парф
похвалить
знамениѥ
белозер
мечемь
однолично
питїѧ
прямыхъ
чюжимъ
##скѫѫ
прилежаніемъ
тольма
Никитичъ
##сподарю
полунощи
Авраам
кашинскои
всемогу
просфиры
глщ҃е
Б҃ъ
заутреню
Ингореви
Егу
Изы
Тем
ветъ
віе
введе
ида
кнъ
о҄
сну
сходя
узы
ѡпо
ѫже
ҁ҃
##еs
##мнаа
##омоу
##ꙗмъ
##шнѣ
##шнемъ
##гря
напрѣ
неѫ
##етка
##рес
##началь
##ваѥть
вож
боѕѣ
замѣ
зажь
съд
##дѣния
##чаютъ
станомъ
малую
ликъ
выбо
выхо
##сегда
ножъ
меше
лѣты
лѣвую
ѡ҆ѕ
госпожда
##анне
##просу
Александровы
молимъ
болша
мѹки
какⸯ
##щенію
слышах
слышавши
скврь
попови
круг
##ющии
обозомъ
святымъ
славное
ѥ҅гда
##метри
просилъ
жалованьемъ
единомь
принесъ
глаголаша
мѫжъ
ногаи
окси
русских
пѹс҃
приступомъ
##тіѫ
смотрѣ
имея
живѫ
зижд
##женыи
##рениемъ
помагати
миренъ
плакать
трѣбѣ
долготер
гнѣвъмь
гаврилов
здарово
шьли
ᲂу҆боѧ
даваи
сонми
Жела
еллин
посулов
Възвесели
веселіе
пришествия
Филосо
зелье
мольбы
прохлад
древеса
испьрва
подмосков
херꙋ
Мудрость
а҆рхіере
а҆лексан
четвероуголь
Чь
бд
ижъ
оправ
умысли
худ
яти
Ѡб
ѡстѹ
ѿцъ
##инъ
##жным
##жново
##дчи
##фре
##tе
поем
##годы
##дины
дашь
приѥ
призрѣ
бока
##сиа
калены
проходя
##стати
стѡ
##рут
оуга
мих
изб
##іевъ
хошь
решо
величиною
##лугъ
вѣм
##дьна
вые
дѣду
дѣвка
своихь
##споу
деѧ
##еная
##вьць
возвѣща
бѣлаго
прѣѧ
веліе
нѣцыи
##ць҆
възле
чадом
дружь
сѣру
единое
единымъ
послах
верхꙋ
доброта
имѣше
поимъ
баба
воины
##нѹтъ
гсдры
гд҇ню
потопа
концемъ
##нꙑи҅мъ
товаро
мѹкѹ
менела
Мику
чьего
царевы
запали
спя
поставишь
пустошеи
очища
##фила
обои
е҆п
е҆мꙋ
смѣрен
##товаѧ
слѹгамъ
Павла
хрс҃
нѣкоем
взѧле
въсѣхъ
стрѣльцовъ
предамъ
тысящъ
ѡбиход
отрокови
самаго
поставлѧ
первомъ
двух
##вшы
вѣдалъ
Всего
челобитчик
мниши
вмѣсте
игнатья
Васил
сп҃си
##обраꙁ
707
гръь
##щеніемъ
ꙁакона
проидеть
н҄имъ
дубров
рѹкодѣл
улицамъ
хлебе
ѳедоровичу
міра
сидоре
воспомѧ
смьрда
слѹжбе
пушкарями
избыти
вѣдуще
печерѣ
офоно
##времен
железа
а҆нті
ѻ҆рꙋжіе
жребіи
##скакивалъ
борисоглеб
Августъ
Бь
Блго
Дв
Праз
вро
вят
ніе
ссо
сїе
яры
їѡ
Ѥже
##нтина
##тє
##҇и
##сено
##ѧса
##щникъ
##цнь
##гю
##гі
прене
##тище
##лисе
въплъ
козь
##вици
##не҆
нищь
прочет
пролити
##маѧ
оусъ
людѣи
##чало
##жала
бежати
царъ
лишити
вѣдый
##дьнь
жила
нож
##вье
##нѧше
##мыми
прѣвѣ
положат
##ровлах
имаеши
ѡ҆нъ
##городь
##новения
слугъ
свѣдѣтель
лучи
ѻ҆смь
Александрь
знате
##тѧтѣ
рыжь
потрѧ
больныхъ
бж҃їимъ
берегъ
еяже
походе
любодѣи
законꙋ
казачей
неистов
##щую
спири
днех
нарее
приятъ
напаметова
украшен
верховь
а҅гг
владычи
поздо
немошть
дмитрею
прежняго
видевъ
соболева
извѣсть
прошение
ондреевича
грѧз
кузми
киевского
тайны
мстиславу
възѧль
мертве
##л҄ꙗ
девѧть
видѧще
приѣхавъ
вельможь
поѣхали
пресвѣт
Египта
росход
тъию
рождена
Златыхъ
Такъже
разграб
къснѧ
зятя
користь
Ермакъ
¦ӏ
Двѣ
Кроме
Лву
Повѣда
Чему
астра
бле
едоу
злыхъ
инꙑ
кⸯ
лце
нҍ
осподине
осподо
смену
уды
устю
цемоу
юрию
юриѧ
ѧръ
ѻнта
ѻсподинь
҆ꙁъ
ӏхъ
ꙩспо
ꙩсподину
##ндо
##нмь
##немꙋ
##ѹмѹ
##ѧну
##двы
##пка
##ӏи
##ꙑхо
##tа
повъ
##ливои
въхъ
##димѣ
кожа
кощѣ
##кинѣ
призъ
приметы
гонца
своӏ
##дере
##неве
растер
##тежь
##полъ
отложи
верети
мире
михи
минова
мироу
##скїе
##ньми
сивъ
тежъ
изѹ
масли
маскима
ретиво
кълъ
вѣсова
выбе
жильцов
чес
ночною
брака
разныя
стоят
##скали
##шью
возоу
Пой
Покланя
отъго
##лѧтѣ
бѣлкоу
пуо
куницѣ
подвари
подписывати
грин
грига
пересмотрити
безобра
възвраща
страдных
речеи
пекѹтъ
##ствіи
црꙋ
гласом
##г҃же
слушати
свѣже
дьлѧ
##гымъ
дѣлаются
тъй
сѹше
гривн
гривенѣ
г҃ї
##граду
васильеву
шелом
приказо
рыбѣ
мьро
продало
всемоу
тьбе
неделе
коузь
##щеніи
родить
родимая
в҃ӏ
в҃ї
бесуд
немно
Минчи
больших
ньжи
ньдь
##рт҇
млср
цѣлоую
порохи
блины
крени
отдашь
Задон
маренѣ
рѹс҃
рѹблѧ
рꙋць
смѣтѧ
пьшь
гнѣд
убивъ
оубогѹ
кроити
кѹнъ
слѹшка
нꙑни
трубить
кꙋно
московским
кралевною
делают
водае
одрѣ
детех
домаслава
торговым
стремени
размѣры
юрьевич
крини
щокин
слегло
члк҃
силѫ
пошлется
тꙋзи
велегласно
погоню
фалконет
Рос
хорошенько
въспиши
Государыня
##нимай
верхней
чоты
живутъ
##дꙑле
слѣда
образцѣ
Святого
Святааго
торпи
востаютъ
дш҃ет
примѣты
приемлет
повадно
жалостию
ядрамъ
ядрахъ
правьди
##ѳона
мнҍ
направлено
моѥӏ
фунтъ
богатырскую
погребы
ѥсемо
цоловѣ
рѹкодель
извѣсти
послушавъ
Кіевѣ
царевичей
нарядомъ
сказывают
пожалуй
пушечнаго
пушечныхъ
объявленіе
гостьѧ
пятнадцать
цетверка
цетверки
ꙗ҆зыцѣхъ
ѡвсѧ
даваны
накапало
рѹкодѣлию
олгови
платие
##зерци
бобылях
стрѣляетъ
събравъ
кирилов
хрестиѧ
парфѣ
##чого
Троица
заряжати
ссылке
премудрость
боѧна
приспѣхи
македоняны
Поповича
Поповичь
рыбные
порѧдливои
140
основания
ростову
Потанцыяне
матьри
наречешися
жеребѧтъ
дробныхъ
Кралевна
пустые
Маршалка
фрагмента
бьрковьска
целовалники
наказѹетъ
приступныхъ
снастьми
полоцкꙋ
Антиоху
отпускных
укрыти
поѧле
приговор
годится
згожается
домовитомѹ
Самой
прилагай
лѹкавства
сновида
навозъ
сусѣду
грѹши
хрстїѧнї
хрстіѧні
ѧкима
озовъ
трегранце
##рѧтано
ѡбрески
пръгаром
хомутов
изменника
святору
рѹбашка
подошвен
Феодоровича
елефан
властелин
домочатцовъ
А҅ште
рекый
клементьев
коробиѧ
ѧкъшѣ
цетверети
Змиевича
Апракс
тотчасъ
Неопали
##бѣтьѥ
роспу
Лукопера
круглой
перетрѧ
дьѧка
гривоно
руцьѧ
семейка
рисунку
Кандакия
притеребы
прѹтоваѧ
оубрѹсы
гсдревѹ
хр҇тосъ
Апостол
ѡстровескои
нацате
преуда
Личарда
##лесневело
мѣшкотно
Розбой
орловскои
Кандарку
Пищаль
зазыв
анкидинов
Роусиноу
¦ӏ¦
вѣсовая
Покланяние
Гръ
Нове
Т҄а
иста
устъ
ыных
юдеса
ят
##ети
##ꙋка
##жнаѧ
##греб
поѧлъ
##воро
##дивше
коко
##нынѣ
##нескъ
нии
и҆стин
софро
проте
##нъмъ
оумножи
##ням
пам
валаа
хотел
рещ
##баеть
разжига
Пол
мѣхъ
кури
прѣꙗ
Невѣ
##вять
переима
крала
крещении
ꙗ҆рости
волоса
твоимь
ᲂу҆множи
грѣхов
гсне
лани
##скыѫ
благоговѣ
##анꙿ
галі
тяго
киевѣ
шеста
бꙑхъ
ѡбна
Дон
раꙁбо
##ходили
написалъ
##вшихъ
пьян
побѣдити
вꙑше
пожаловали
высокихъ
чистота
Кири
нѣкото
сподо
стояще
стрелец
стыди
поуш
ионе
начелѣ
желаеши
велѣли
азова
болѣе
##ѣзду
##тѹю
борзе
четвероно
солнцемъ
##несеть
приказалъ
ꙗ҅же
вышняго
плакася
идуща
бц҃ю
ключникъ
вѣдомости
съвръши
давыд
сотворѧтъ
ѣздити
вьсемь
невд
бꙋдꙋть
божію
нижнее
сѣверъ
славьна
##жєніѧ
железные
##ꙁꙑкъ
сыскать
еписто
Воистинну
тьрпѣ
кꙋпил
коупно
знаменье
іюля
а҆ммѡ
Дрꙋ
Сло
уче
ѡтчи
҆л
##зма
##нскою
##аꙗ
##ꙁнъ
##мрт
##тци
##с꙽
##сенье
##денье
##пꙑ
##євы
нарѡ
##тиши
##никова
##даите
##ваются
даѧлъ
пример
присы
##търо
годо
годов
зая
заве
сестрѣ
прочетъ
проговорилъ
##салим
##ставь
отпꙋ
##бое
ведеть
вешти
##дѣниемь
##гает
микола
##няхъ
##бите
пазу
стагѡ
вашꙋ
великѹ
къне
##щающе
обще
исходитъ
купѣли
числе
##чютъ
ѡ҆снова
гладомъ
перп
лодью
##дѧхꙋ
##дѧтсѧ
дѣлает
благое
убояся
златых
взяла
убили
##схотѣ
коньца
водамъ
роспи
творѧтъ
далее
седмери
блюдет
##ратиша
велѣть
малыми
прикажет
потребно
мн҄ѡ
юношу
апостолы
ꙁаконо
въздание
внукъ
Филипа
матерью
пльсков
наоучи
толику
є҆гѵптѧ
ѡчисти
вдѣт
ростовь
утробу
умножи
##димере
а᾿ми
пръгарем
многолѣтном
назнаменова
діяко
услышить
вещех
Рыцер
въсякую
утеря
Едино
Иде
аре
алекса
ик
ловъ
сⸯ
с꙽
снꙋ
хѫ
худъ
чтен
ѹч҃
ѹкаꙁа
ꙁлы
ꙁбав
##дены
##дныи
##дꙑи
##чнѣ
##шша
поволи
волов
##так
##тако
привя
дозира
зано
рану
кало
прора
съмысль
##сав
##малъ
##рьм
бысте
##вѣмь
холъ
пребꙋ
##хает
литовъ
выкъ
пила
##сеа
##чьства
Поди
отъвѣтъ
##рѧще
сует
гришки
нѣции
перемѣ
чаемъ
положенъ
##кехъ
ѡ҆л
ѡ҆чи
первѣе
Въсѣ
учение
видѣніе
бжі
бжтво
книзѣ
конских
покаяния
цѣна
спс҃
привезли
##итеся
д҃хов
пріидꙋтъ
смѣху
хлѣбо
любимаго
полуо
списке
матвѣ
двꙋ
манастыр
сорокоу
грека
свободѣ
григорьевичю
тысячъ
собраша
##дръжи
храбрость
Листъ
прикащиком
приемлеть
гсдрня
##образь
трѣбѹ
Суть
Суди
разор
грѧдꙋ
Аминь
##н҄ѫ
аврамь
срдци
пятаго
ѳоми
приноситъ
##фьи
невелики
тиунов
послѣднемъ
##женецъ
денежное
болгариа
црт҇во
і҆ꙋдиныхъ
украины
неисправ
ѹ҆мре
ѥмлеть
Хлѣбъ
една
нї
уг
ч҇т
ѡстро
ѡніа
ѿкꙋ
##҇тво
##ꙗще
##цкіе
##чника
##бръ
##гому
наскоро
##нис
##роми
##ваете
въдати
дане
##мироу
##талъ
прикло
седѣ
нищимъ
##рѣт
калики
каменемъ
прострѣ
##самъ
весъ
тая
##жики
##скврь
##ловци
течение
послов
##пае
##ляне
лиць
листу
лифля
вишне
видока
##сеся
##стыѧ
тѣлом
нѣка
переми
скочилъ
свѣща
ласт
учител
рублю
дино
##рович
женское
##штимъ
всими
говорила
кровъ
Никтоже
подалъ
##ющемꙋ
##ведены
побѣдит
клалъ
помира
покланѣ
колика
##гꙋтъ
Видите
споло
въсѣх
силнии
слꙋша
обеих
королевскому
лежаща
Царя
Василья
пшеницы
камением
возраста
##хѡм
дияку
ереме
поеду
##сыпать
прославиша
прѧмѡ
мудрыми
помышляше
втор
боꙗре
##сениꙗ
##ливость
индий
цѣсарь҆
тельчеи
нарич
єдинь
внезапу
проплака
завтра
Будет
Иеремѣя
тврьдѣ
и҆саѵ
вероятно
а҆нтѡ
ірмо҇
##ровлахіи
седмерицею
27
Тре
бви
діо
лца
мч҃
рем
счет
уяз
хсья
ѿтѹ
ѿпусти
##рное
##нномъ
##мову
##озеро
##цкіи
##ыи
##лва
##ѡнѣ
##ѡвы
##фы
##gе
навъ
нарца
##никѡвъ
##лочки
##нама
##вахꙋ
##рий
##тат
приѡ
пристро
болии
дошелъ
гостей
голан
заме
##мого
сечь
ниць
проло
прочно
съти
съра
##пот
##поро
##рьем
быстро
веди
веде
##ческому
##дѣтѣ
мина
##лѣзе
##бита
##хотвор
садъ
рукы
обръ
мноꙁи
возмется
отъврь
отъпоу
бѣха
прако
велію
славе
кресто
волого
##бьна
##менѣ
##менем
ᲂу҆слыши
бурми
мытчи
гсни
Въсп
государеи
чертова
королемъ
##лѹша
##дравъ
##градилъ
бꙑхомъ
посадь
роздели
царского
##евой
мьни
##тьею
добрыими
ꙁаха
##пьно
гл҃и
угодей
поставил
покосов
Тай
строк
внидет
стѣнꙋ
непотрѣ
двда
манастырю
пригодятся
приятелем
роука
погоре
рекоше
нападоша
государскую
микитин
##въшемъ
велѣно
присланы
крылья
изѧслав҃
угодье
въсего
брегъ
приемлеши
лъжю
і҆ѡсиф
##мꙑсли
сирома
головам
увидишь
горами
дрьжи
найдешь
иконо
камня
погыбе
грьчь
клепати
є҆гѵпта
ссыла
потегло
исцѣли
волхвова
мирьскы
затвориша
укрѣпити
срамоты
супостаты
живешь
громко
Крестъ
и҆мꙋтъ
ополча
прилѣжаніемъ
абїе
управных
є҆смы
множицею
отмеже
саблями
нельзя
южнослав
Василій
Ау
Билъ
Иска
Исхо
Нѹ
Ново
брт
ехи
иу
шере
ядъ
якѡ
##рется
##иꙁ
##ис
##нкь
##сса
##суду
##умъ
##дрѹ
##дномъ
##цене
##цкая
##чникъ
##лнои
##шну
##яа
##янов
##҄ы
##енїѧ
неь
##ноє
##нишка
##тька
въго
##диѥ
дамо
принето
##шайся
нимо
съкра
##сау
##рьши
такову
##удꙋ
мамо
посви
роты
##дуй
##тыа
грам
вися
ногою
мѣстꙋ
##ствомь
##леную
##жьства
##мерти
кресты
ѡ҆держа
ᲂу҆зри
милоу
чюж
королем
вражды
сторонѹ
разумомъ
въꙁдви
млтва
христѣ
о҅г
порох
попꙋ
писмень
Раба
пріимꙋ
обидѣти
пꙋтемъ
дꙋк
полутора
спитъ
жаловали
неподви
##ствиꙗ
десятин
свꙗ
приставе
силны
апл
собрав
собрати
емѫ
весма
блюдо
съгрѣшихъ
болѣꙁни
брезѣ
уздою
правь҆
блгти
согрѣшиши
дроци
опаса
мыслити
крьсти
распыта
удалы
разорити
попомъ
мц҇ъ
епс҃
подворье
Спас
ѡ҆брѣте
##твьрь
причастие
мрьт
бортные
умышления
клѣти
челѧдинъ
начьнеть
ꙁаповѣди
чоловекъ
снве
мещане
матвеев
ясенъ
Николиже
помысла
спроста
замокъ
Царство
воинъство
починком
захарьина
посмотря
възлюбленъ
оукарѧ
нелзя
ꙗзикъ
##немага
премудростию
ао
бз҃
иерѣ
опра
ценою
ыгу
яковъ
ѕі
ѹст
##рных
##нский
##ꙋма
##тны
##трѹ
##снаѧ
##ꙗли
##діѧ
##пца
##ленью
поь
позира
нави
накъ
неф
##ницоу
##кала
тоѣ
вотъ
прить
принять
доно
##вилъ
моі
ние
сомо
соеди
##маномъ
отне
отцемъ
##няся
##бица
##пии
паль
прежь
преслуша
##бедни
румя
лѣность
##жью
путем
сух
##еному
##туй
полза
полскому
сколки
а҆хі
платят
##бью
персть
лодию
##евичемъ
учитель
монастырѧ
гале
приказѣхъ
посадех
продав
сꙋще
##ц҃ь
обыщется
покамест
Мака
люблю
берегли
державе
подали
написал
##штетъ
должно
казалъ
побѣды
наказалъ
##имет
вороне
одном
службою
стрелами
искалъ
Москвѣ
варга
силꙑ
Вѣси
ст҃ых
птицу
поставлены
приступѣ
селищи
##яшеся
конюх
Святъ
область
помаꙁа
і҆ѡсифъ
прошения
горазно
і҆ерово
ѳ҃і
##ю҆ще
востока
ѡпѧт
##помни
микули
промыслом
успенья
христово
наказывать
понадоби
оц҃ю
ларио
непрестан
чоловека
костантина
оудер
аѳона
ѿ҃ца
мысля
ѡ҆бѣща
призвати
Ивановичъ
мѧтежь
блаженыи
бл҃годареніемъ
пагꙋбꙋ
преписва
зверя
бз҃ѣ
200
36
Зде
Светь
алѧ
глы
ждати
зѧти
идѫ
кель
мха
ѹчи
##щное
##іти
##дію
##єв
##ѡв
##ѡва
##яни
##стныи
поту
##гома
##тила
нечю
некре
##етша
##валь
въстанеть
дает
прив
долѣ
зава
##мухи
##льникъ
##рѣчь
##сиша
солꙋ
проꙁѧ
##рьѣ
быст
ведутъ
##рыхъ
##лѣмъ
##ръмь
пагоу
избу
##куля
##хать
робѣ
робы
вира
вишни
##бата
разделя
##скано
##занъ
##сѣк
велка
перемоло
полскимъ
инокъ
##менского
перстъ
##хину
Насы
бас
противит
ѻ҆ц҃а
##пъстра
бꙋд
мъи
въꙁда
Дори
речем
березе
ходите
скаске
крста
поручная
пріиметъ
индѣя
пожаловать
Киевѣ
дꙋбра
другого
##чую
бл҃гослови
помѣшка
##шним
кнѧземь
обрѣза
нарекъ
крилѣ
беꙁь
григорьевич
приятѣ
поставлена
Государя
истиннѣ
лукав
взыдоша
небога
пѡзнаѥть
сентебря
кꙑмъ
кꙑѥва
мънози
Был
новая
филипомъ
рѫко
сокола
людяхъ
александръ
другии
квасъ
лихоимь
Лѣта
##хватилъ
новъгородьци
възѧша
промыслов
сирѣь
епископа
##щеных
Блаженъ
Индѣя
драгимъ
драгими
##меноу
сѣдла
цвѣтомъ
вѣрѹи
суждаль
упование
текста
с҃тхъ
##плють
҂а҃
емлютъ
подошвы
##хиеписко
а҆наѳема
шапка
хься
рагозина
призоветь
вборзѣ
заговор
вънѹкъ
31
Бли
Ефра
Ихъ
Клео
Чего
Ша
бя
гнои
глоу
зван
ивъ
илі
нд
пудъ
пшено
хова
чсть
ѡх
ѧла
##мере
##лв
##яет
##фет
пость
побра
поволо
поꙁо
##колъ
прм
##вомь
##енские
##ноудь
##кано
##вался
##риг
##рице
##дих
котелъ
дающе
воско
пристѫ
прискор
доме
зама
заказ
мочь
##шима
##сино
сог
сосуда
составити
##поле
тацѣми
##жища
##мѣн
твора
##стори
##хота
преписи
##лядеи
##щаеть
вып
ноꙁѣ
##нѧлъ
месть
вьсп
##гъше
подписати
полето
покꙋ
скоть
скорѡ
##чють
##ственое
##бьѧ
црства
ᲂу҆кра
##новского
первие
царьствия
##ловичъ
##триар
никое
учиню
учинено
дважды
кормов
##ждемъ
##вѧт
сꙋщымъ
близу
чловѣко
любодѣ
рѹка
свидѣтел
и҆зве
учинилося
государевыхъ
былие
разумѣютъ
матꙋ
Вижь
принесу
##ченое
таковаѧ
предать
пошлют
ратныхъ
половцѣ
вдову
оставихъ
съвѣтѣ
слꙋжити
##кович
изыскати
соломонъ
##вену
головами
##ѧисѧ
филипе
посылать
ловчи
мракъ
постигнеть
дѣвицу
неупоко
мертвых
финиксъ
девѧти
останетъ
възлюбиши
укрытися
красьнъ
посторо
герасим
##мрьть
волъх
жертва
Стерляди
##совѣт
ч҃лв
ѻ҆течествъ
Гсдрю
##стѧнтинъ
иноходца
Пьр
Симъ
ау
аси
авъ
змѣй
лжа
мов
мзда
о҆
ссѣ
снем
хреб
члка
шеремете
ѥхати
ѹтнеть
ꙑгна
##рман
##ннои
##тми
##клѧ
##ждѧ
##пѫ
##блъ
##говую
##явля
##ⸯше
##ub
побно
##тиць
##лади
##норови
##лочено
##лосер
##ваешь
##рика
##риша
въсоу
вънутрь
коровь
##ныю
даче
призна
прилично
дойдет
зао
засо
##чиноу
рабꙋ
ниту
съпо
милуй
##мѣмь
валъ
масти
хоцѫ
роки
бек
бежи
##дьство
##щинѣ
##щикомъ
видъ
раздо
княжь
##заетъ
возве
возмѧ
возѧло
Помяни
##гут
пуст
прѣлъ
прѣмоуд
##телно
подноситъ
гришу
переговари
полна
страхо
дунаи
краше
мура
била
лесе
педъ
ѡ҆скꙋдѣ
перский
сьла
мыты
вершить
вершены
рѣшѧ
лугов
Наказание
и҅мꙙ
царьствие
дитятко
кнѧзѣ
судного
продана
ризе
смертонос
чьем
чьему
Солне
злобы
злодей
Також
##шеніѧ
Сий
##цѧли
##ющися
положиши
кабалах
Илье
пьеть
гнѣвѣ
губить
славномъ
Килики
имянемъ
хотять
прямого
прямомъ
домажира
львъ
поучаю
Ивановъ
свѧꙁа
слышя
благословен
раздѣленіи
желаніе
##ленаго
пребывает
##местным
Добрынѣ
трьї
владыки
##ниѥ҆
слѣпы
Лазаревич
свад
##ꙁии
мирслава
проклина
проклѧти
чядѣ
виновате
приставных
##емыихъ
пѡꙇ
разбойнику
ѡстат
грѣшьникъ
наместника
сокру
христофо
федоровичь
женитися
повоева
гръчь
прпбномꙋ
діако
спрашивалъ
попецѧли
гаврили
сказывати
ꙁаконь
явишися
дияко
тайныхъ
пойди
Никитушка
##блѧне
Даниловича
помиловавъ
Девгению
кѫно
коробью
бжтвнаа
роусинъ
сыскивать
архиепископлих
крестиа
ставку
дьржяти
думным
насыща
латинескии
латинескыи
девке
исполнен
Спасъ
кобылка
пашенныю
бесчестья
епископлих
Армей
въпадеть
варѧгъ
прежнихъ
Филону
Стратига
причаст
прямые
##денежно
изье
христіа
офонасей
##сениѥ
нравы
прислите
отцовския
Антиоха
поѣди
Маркобруна
дьаком
стряпчим
государьствахъ
городищѧ
Никитича
Акире
жалобник
бесчестиа
ближних
рцыте
тряпезу
задние
смирного
ратманомъ
Картауса
ржанꙑи
Кощея
Беретъ
Холопей
порозжих
благовещенья
костянтино
Фараонъ
кіевскій
##ховидов
кюрика
иерей
всесожженіе
могох
равъна
гюрьгѧ
узолокъ
воронцов
шурмованью
сматря
тотчас
Иисусѣ
преосвященному
поклажеях
Синагри
ярлы
беглого
##ендикуля
пріятелю
##величишася
прѣбудеть
дятка
приживет
Феоду
Роспись
перпендикуля
Армейское
Сказа
входитъ
гви
клъ
лѵ
щете
ыван
ѡз
ѡне
ѡставити
ꙁра
ꙋкра
##рны
##иа
##млъ
##щна
##пелъ
##ч҇
##лнаго
##шномъ
##бски
##г҇
##ѥсть
поа
##готова
навь
##кохо
##комѹ
##кописа
прє
##води
##лар
некако
въшедъ
вожа
воскъ
##миа
прим
своба
##шаху
ниꙁ
нибу
и҆дꙋ
промѣ
протчи
##бора
ве҇
##чатся
стаѳъ
марья
##кучи
##бѣжить
савра
выем
высѡ
##зах
##творь
##стыхъ
пуда
##кый
супъстра
безмѣр
стражи
красти
##бьно
##евѹ
имъже
писах
видѣхомъ
дѣлай
государьстве
прииду
молилъ
##тѧтсѧ
концы
##слово
стефан
слышахъ
слышаша
запасу
Молю
трепетъ
тотем
##фию
свинецъ
##вшися
створю
помилꙋи
обидимъ
Божиим
сподоб
##говорити
донде
достоини
собрашасѧ
поведе
Рее
источь
сверху
отока
праведным
правилом
дмитреевича
лукава
наина
наиден
лежаше
чресъ
указали
приходил
поклониша
пожиша
въстани
дрьжа
мудростию
трѹда
сътворена
накажеть
срдцы
меньшая
тръпѣ
жеребца
умѣютъ
укрѣпи
поработи
челѧди
Анто
окольничему
черкас
асѣнъ
страшьнъ
і҆ꙋдины
възьмъ
никитичю
блуда
белые
сукно
нибуть
Ибѡ
Рим
атъ
вно
вру
гво
лвѣ
мтрь
оцъ
ремен
хро
҆мь
##вета
##ꙁова
##тливъ
##шова
##брую
##ѡкъ
##фме
##стове
навод
##комꙋ
пріе
##рахъ
нека
въстрѣ
##дешъ
##дохом
##дошꙙ
##види
сеꙗ
нищие
##сица
кажет
##мане
##стараха
##рьди
быкова
оумно
минеть
##лѣно
сит
посемъ
##ляби
листе
садов
сыта
##слать
разболѣ
##вьное
возмешь
тогож
Половци
пра҆
исходить
суеть
купь
прѣди
##тѣмъ
##н҃е
полѕ
пети
печь
##етесѧ
имает
глаше
многоразлич
воискꙋ
животворя
дерз
Кого
##нꙑѩ
пѣніи
##шъдъ
добрыимъ
ꙁатвор
чьти
взяша
Зави
послух
долж
пѧтни
святынею
селцу
трубы
взѧть
ѥ҅смъ
дьяки
##шнимъ
льва
варламъ
недооумѣ
приехав
познана
##правит
вь҆се
постелю
свѣтла
острове
бревен
прикащики
приемля
путивля
имущу
мнть
млстивои
сп҃сѹ
извѣшта
игоре
простите
пищальми
оброк
аггелы
##н҄ѣ
дияк
дияволъ
потреба
##вꙑѧ
приношение
прочихъ
болото
матушкѣ
бжтвныи
кириловъ
толицѣмъ
жеребьи
поклонения
волхвъ
с҃тополкъ
нбснаго
днѣпра
стрелцов
вторый
вѡи
тимофеев
зерца
дверьми
морозов
софии
кореневе
равьнъ
начелꙿ
вдруго
въскрьсению
скыта
мокрот
а҆ссѵріи
##метриче
Новегороде
Аполо
Ннѣ
Рь
Сіе
адь
бгомъ
зима
оною
пси
піа
сходи
тщи
эта
ѻбра
##ада
##ус
##дї
##дныѧ
##чето
##шꙿ
##гꙿ
##гру
##ѥвъ
поть
почъ
##тох
##навъ
въо
въме
волен
##жекъ
дошли
гоне
свого
##дошя
##стьно
##сина
##тею
кажеть
каторы
сътре
##щевати
оусръ
##лѣти
##жамъ
сирот
паше
извер
вал
малѫ
малъмь
препрово
##пает
##оволо
ливань
саженеи
выбля
чесно
рускаго
##шька
мѣт
##мым
бѣгъ
##жьно
сущих
чистить
чините
подꙿ
беззакѡ
възме
сладъкъ
покли
##ровне
ᲂу҆клони
логи
сьі
верши
государевою
чюжей
благодат
михаль
гада
##утрь
сторонамъ
посадъ
##тѧбрѧ
##дѹще
##ющесѧ
федорову
началѣ
родивъшааго
запасѣхъ
подъклонити
михаиловичю
скри
сквьр
взята
Рау
##ковые
неиꙁ
повѣждь
помин
соубо
Проме
любили
купить
жаловане
##ствовалъ
подобію
хощꙋ
целованию
приятеля
слез
глаголють
столпы
птици
смрти
Рекоша
емлеть
веселитися
съгрѣшить
въселен
##пискоу
совѣту
конюшен
оучитель
приводить
срѣдѣ
создания
черниговь
пользю
составѣ
хвалимъ
н҄ь
сьрдьци
уроженецъ
укажетъ
волостем
##лєніѧ
малѣмь
заповѣдаю
Глаголи
псалъ
бжиꙗ
вселенней
прѣдꙿ
микифоров
феодору
желчь
Исус
ефре
лѣнися
договор
воѥвода
сп҇ніе
возрадовася
дръꙁнов
потира
шириною
і҆ѻрдана
шестнадцать
моѵсе
съзъда
Третья
трафимов
мн҄ѡго
наиденов
Гро
Лѹ
Н҃
алъ
бр
вѵ
влез
демь
езы
инѡ
опи
орю
считать
углы
углу
хсъ
##рнаго
##ржати
##дєи
##лї
понꙋ
наль
невъз
примо
дога
ник
##шиими
казы
съту
##стать
##рьби
оты
табли
ст꙯
стрет
##вѣѥ
оустави
микꙋ
##ньныи
изьі
##ходъ
хощемъ
къжьдо
вѣве
##дучи
градѹ
##сласть
разлучи
##цеве
##соѳъ
возмете
мѣри
бѣдьно
мечем
лѣности
прѣчю
##л҃а
чаю
полоцких
##сповѣ
имамы
единыя
црт
##новꙋ
##дяху
##нꙋша
бабу
вратом
златѣ
приидетъ
царские
Воле
болꙗ
пѣш
западъ
##ковой
михаиловича
гл҃го
тремя
воеводою
##ющем
##тровъ
##веденъ
пріимати
неиму
кротокъ
Съмьрть
митрополитом
патриарше
немъже
ꙁемлѭ
стѣи
днес
##хомсѧ
десятки
размѣръ
варвар
творѧху
роукоу
иоан
племен
свести
правитель
о҅тъвѣшта
многымъ
расхи
погрести
поношеніе
моужа
##тꙑхъ
полях
мꙑсли
водныя
троица
Тогож
грѧдетъ
Любя
діаво
отпустит
Видѣвше
заплатит
костен
другия
сонце
приꙗтелем
архиепископы
гюргевъ
премудрости
Михайловича
роспрос
статьяхъ
приѣхал
слꙑшавъ
безбожныи
одѣние
тельца
закупа
помысломъ
простьри
гордыни
тьрпить
##лньце
осквьр
уготовано
кунгурѣ
въздъх
погнаша
прелюбодѣи
штедро
мансу
мануилова
овамо
опроче
ѡ҆полчишасѧ
сабурова
потрьпи
таблице
Ию
Нꙑ
Сп
идите
кове
ож
одѣя
сҍ
тѵ
тлъ
уж
яну
ядови
іли
ѹга
҆ю
##вріи
##ꙁно
##тныи
##кію
##щныя
##ꙿми
##што
##шете
##бне
##ѥже
##йер
##раѧ
##лахо
неꙗ
##нико
##ринь
кощѹ
боров
борти
##тъка
свомъ
##мошка
##шается
##муд
##неза
##чика
ратꙋ
##сави
##рьскаго
##ческое
##жины
оугри
##бимъ
парени
памети
валу
мамка
посемь
роби
робя
лишкомъ
вѣсокъ
##душь
высѣ
жидовъ
жидовѣ
##бавить
##гиѧ
ношаше
оберегати
разши
разными
мѣлко
отъвѣта
вьни
##еномъ
полкохо
##стъв
дуло
дуговую
сѣн
а҆са
лоб
##бят
писаному
ласки
подобию
##арфме
рублей
знаменемъ
##утче
кимъ
##жъство
посады
роздав
приимше
крестьянъ
тѧжѧ
всѧкой
плодовъ
андреи
бл҃га
меняли
осмна
бережен
береженіе
ходиша
ширины
держатися
##нѫтъ
чловѣцѣхъ
##леми
##коупи
пушкахъ
должен
горѫ
класть
инде
инными
воронъ
Кирила
дꙋха
кралевства
мѣстахъ
никаков
людьѥ
устроеніи
врѣмени
прямому
золоты
глаголаху
тысячи
красной
красною
краснова
каменными
огненную
седло
столп
Россіи
оставилъ
двумя
хорошенко
свез
вь҆сѣ
повиновати
верховой
живуть
климка
завиди
узрила
толк
игнатей
игнатьев
направленіемъ
пушкарскомъ
наслѣду
##емых
##емыхъ
шанцу
шанцами
сенныя
погубит
десную
троици
исак
простору
карпову
оброська
станислав
филипова
рѫкоу
нарядѣ
жезлу
четверогранце
четверогранцовъ
##шеноу
аггел
аггель
ловли
середки
внука
снарядѣ
аврама
Байер
околничей
пребыти
##ровыми
девича
сливы
уголье
угольнаго
##чок
избрати
Възненавидѣ
нѧже
кобыла
прѣстола
ѻ҆тцємъ
принесетъ
имянем
требуютъ
Живет
оумѣла
прямымъ
спросит
вышиною
прохорка
пустых
бесплъ
верьховой
защитныхъ
прѣстависѧ
никифорка
170
дверми
помѧни
прапоры
раждает
кояжъ
карауле
перепущати
покамѣста
трегранца
подымается
пеньков
кузька
Великому
съмръти
опознати
первушю
кеniсh
є҆ліс
матюшка
вборзе
верховая
цсрѧ
##стрійскому
остерегатися
самꙋилъ
обстояніе
дочерью
бл҃годаренїемъ
Ничтоже
молвлено
пракошка
накърми
Елма
Здѣ
довъ
дрѫ
зверь
истре
кнꙗ
оправда
пп
рю
утрь
хмель
чсто
юръ
ѹтра
ѻнова
ѿмѣ
ѿстѹ
ꙋже
##идеть
##нхъ
##ами
##тение
##трети
##словѣ
##ѧ҅
##пꙿ
##ѡвь
показы
насталъ
##тима
неꙋ
даяния
воȥ
востав
##жечь
пригоро
доне
донь
##леча
##неви
себ
пропи
сътъ
##сава
отдели
отколе
##нъка
##нуют
оумы
оукла
михе
люба
##мѣтай
сиѫ
сидя
пал
тешти
ходъ
##любо
бешти
всее
саль
вѣтромъ
##сев
дѣꙗ
руци
нои
##зает
##съла
тысу
Пом
мѣсъ
##нѧтръ
мести
меѳо
вьсю
нѣмь
перева
безна
възведи
часты
бири
твоима
госпождѫ
единым
##кѡмь
ᲂу҆мно
бояря
грѣхь
богатѣй
человѣком
вратѣхъ
предлага
Александровъ
прии҅
Вол
нашие
товаромъ
печаленъ
тьи
ѡблѣ
великааго
богатый
пустое
подаетъ
очишт
истинъ
дъштерь
свитъ
губи
возможетъ
Божиемъ
Пав
чистотѣ
московскаго
головника
##шѫѧ
молвити
ꙁемлѣ
братиѥ
просили
четыремъ
приготови
стрель
##рѡкъ
детям
прияшя
отроци
благословлениемь
бесѣдоу
рекоста
##брѣсти
дѣтии
пѹсты
##славиць
дрѹжи
##деніѧ
божий
кн҃зи
сильнаго
шестьдесят
хвалять
##гнѣмъ
##словие
ведаетъ
##ѥ҅го
десѧт
избавити
наимь
крепостей
показалъ
чясто
являетъ
широкую
большом
##ньіѫ
тѣлеси
путьмь
борисович
новгородьскꙑи
въсходѧ
смертнаго
мстислав
внучатом
молѧще
срдцемъ
Первый
коври
клеве
припади
ѳеѡдось
убогыя
вѣчьную
и҆зыдетъ
веселѧ
жерцы
пьрвѣе
епископом
изволению
християнскому
чюжих
хр҇тѣ
полѹнощ
виделъ
кѣльи
вяз
ближние
посолство
останеть
приближися
въстока
молчан
кртсъ
палицу
облече
задницю
пещеру
##ничковъ
печатьми
нифонтъ
въздыхания
голубица
раждаеть
намѣстника
печеру
ізволи
Милостыни
самодержцу
изымав
тмами
тьмьници
умираемъ
заболо
милуяй
бѫдѫтъ
дрьзновения
кюрила
штедръ
божъю
повѣстий
дожида
тмуторока
своѥ҅го
Дньсь
ст҃опълкъ
сокровен
евангеліе
сѹждаль
кнз҃ь
##ровлахіискои
Иа
звери
оце
орѹ
пелы
скра
сложить
ушми
утвьрь
шут
ѡсмо
ѱа
ѹслыша
҆а҆
##рски
##рскихъ
##ат
##ахѹ
##сное
##ꙗны
##кциею
##ѫти
##ілъ
##дво
##лба
##шово
пожне
##рала
##ноѫ
##ноя
##риса
въпра
приемъ
прилич
боч
зати
завер
моѣ
морти
рабь
##лься
содом
создати
съгъ
##стааго
##ньскую
стадъ
изряд
роко
беды
всеꙗ
сало
выго
выписа
виномъ
дѣв
##чькъ
облич
бѣхꙋ
исходи
##енецъ
прѣзри
безоу
стражю
перо
##ныима
главе
##хино
имѣю
Томѹ
деръ
старосту
приидох
б҃ꙋ
потрав
осени
основ
осмотри
ослеп
царев
боярскимъ
Като
Камо
поруч
##штениемь
##ченіѧ
Засви
купчим
Тая
анна
положишь
четвертыи
пьшени
горло
##имꙑ
Прость
##ꙑи҅мъ
дьячок
##ытати
##рѡм
слышите
красны
каменіемъ
иосифа
приехать
племе
отокъ
павлова
конихъ
чюдотворцев
изоѡби
особы
коломен
многым
приемлетъ
##ркалемъ
##ловои
градусовъ
мл҃твѣ
прь҆
прошлыхъ
поживеть
икону
нашои
пятдесят
урочные
бобыля
носимъ
старѣишина
прр҇
суздаль
половинам
Московскаго
кѹпно
божі
хотꙗ
Христовы
зоветь
ученикъ
влдко
клѣть
чинится
отвѣдать
##слꙑша
салдат
##латъкѣ
столников
протяга
премꙋдрость
многолѣтное
съколь
стязи
точьками
гърадусы
гърадусахъ
гърадусоѳъ
цыркалемъ
съмотрен
корчмы
Андрей
декълинацию
вьмѣсте
астраляби
выкълатъкѣ
сколкихъ
выемкаю
супъстракциею
сътрелять
мѣсъту
мортиръ
астралябиумъ
вов
клете
озъ
олова
очью
ссу
уразумѣ
єѵ
ємꙋ
ѕлыхъ
ѡкси
Ѥ҅
ѫꙁы
ѹстрои
##новым
##агг
##ѫщаго
##іѡ
##дє
##ѣе
##лла
##лци
##лникъ
##стных
##тиноу
##лиꙗ
##нинѹ
##никꙋ
топо
даяй
##милова
##таю
доспе
зае
мощеи
##леет
##чине
##льк
##льных
проль
##мага
отн
оутврь
##нько
##чанин
##лѣние
изгу
##хол
бери
бестра
лику
пирѣ
##сецъ
бранитися
стобо
##шьна
Посо
отъште
##жьше
всѧком
сяде
Боля
##вятъ
безвремен
ползѹ
иноу
сѣлъ
а҆минь
бояхъ
бояся
бояромъ
##дѧхѹ
##хии
рѣзъ
лако
богатому
Госпоже
##печа
рыка
судному
мьзду
ризꙋ
сꙋща
злобе
порука
##шенѣ
отдана
анф
сроди
пꙋсты
земляхъ
богослов
внидеши
##ѣхаша
середу
семью
стоячим
предаю
россіи
невѣдѣ
отроко
##стꙋпити
приехавъ
##мѡмъ
почтити
крѣпостію
дроугы
дворянинъ
книгахъ
##женых
слѣпъ
приемше
повары
вѣчное
мыслию
собоѭ
собора
царевичю
патриархову
##скꙑхъ
скипет
аврамъ
записано
сѣдѧше
зълобѣ
чюдес
дьржи
Сьр
тиуну
правьдьнику
ѡчима
##вꙿше
мьньшиихъ
разумъмь
хꙋдо
еѵаг
возлюбила
християнскую
днѣпру
въспомина
закладе
пенѧ
ц҃ркви
нифонта
разбоиникъ
никогдаже
оцѣстить
нечьстивыихъ
словесьмъ
превозноси
Отьца
цьркъви
разѹма
всесожжєніѧ
страньна
леѵіт
димитр
ленивъ
целовальником
звѣздами
Мънози
Огнь
ꙁависти
риторика
Правда
безчестие
лактеи
бонѧкъ
шестеро
драгааго
съгъб
дна
екто
еді
иꙗ
ибѡ
ишть
сʼ
ѳла
##зенъ
##юштиимъ
##ѫщѫ
##дрѣи
##ꙿскыи
##ѡве
поемъ
постои
##лите
##рапо
##нивати
##ложени
##ваны
кой
дарѡ
##жела
##митъ
##стьлѣнь
ратъ
##льши
соя
съставить
##потреб
отчина
отсылати
##няють
##ньскы
##мѣти
##жааше
##вещен
##ерек
паи
мама
пресѣ
посра
посника
##хавъ
савѣ
вѣнаа
##себе
дѣва
дѣдъ
руно
разидоша
##зать
Поса
отълу
##жьнои
##кыя
##еноу
нѣст
безчислен
възненави
гла҇
і҆е҆
мыша
писаніи
Той
человекомъ
##ятие
диако
Александрово
старостию
хранятъ
разумы
розныхъ
печал
пожаръ
коупи
гл҃аше
спась
шага
##неніи
житиѥ
##ленои
гулять
конех
одново
Богъмь
война
богородица
крилъ
силный
почти
птицъ
пожже
емлет
дрѹгы
крѣпостью
посаднику
селищь
особи
направо
имутъ
лвово
вѣчныи
роману
орга
тѣлесе
Сузда
дышу
поволно
карповъ
надѣя
ꙁлобы
##боуди
рѧзань
разꙋма
одеждею
ереси
ѳедоровича
девицу
прокофь
є҆гѵпетъ
правьдьныимъ
любъве
##ничьих
исполнити
члв҃ка
прѣстолъ
прѣстолѣ
играти
облиза
въздвигнеть
въмѣнить
исповѣсть
ѹготова
анаста
сичко
стрелцы
поѣхаша
крепки
и҆сповѣ
начьнеши
змеи
сторожахъ
##слоуша
сотона
властелинъ
заоутра
пророчества
отъпадеть
отъпадеши
съгрѣшаю
побоища
дрѹгѹю
смолиньску
покарѧти
духъмь
мраморомъ
Давыдъ
небытиа
сѹгѹбо
воспитати
нечювь
Пьрвѣе
наимьника
Простьри
Сьрдьце
Ере
Екимъ
Лвова
Сту
Тру
Удобь
асо
бдита
гѣ
омый
тще
уничь
цимъ
шпи
шве
шпантъ
эфъ
ян
єще
ісоу
ѿца
##рꙙ
##рця
##нніи
##амꙋ
##сеніе
##юштиихъ
##юштеи
##ѧша
##ѫѧ
##ѫѫ
##҆де
##ченье
##чкой
##йскаго
##30
назов
налезет
прлага
##енковъ
##рали
##равъ
некому
##нички
##лог
##нако
##ваша
##ваеться
въво
коси
даной
востро
приговари
прилетѣ
годом
гостеи
сводить
зате
забуди
##лець
##чишко
ранено
ничъ
##стит
калену
соору
пролия
сътѧ
съкър
тае
##чеву
##дѣтъ
##нѣние
##мью
оукры
мила
минут
##ньке
##рыски
сидѣлъ
пакви
##дъх
ваты
маремъ
посѧ
поскърби
речам
лиша
##дьныя
##щиках
выморо
граждя
пикою
вих
##сея
дѣво
рукой
##чьну
##чьную
облина
разсꙋ
##вуму
столомъ
##сотной
возлет
возглаго
отъступити
отъступай
отъвраштя
отълагай
пута
суште
сушти
сушта
суштя
##зъмь
чинили
Даяние
иваномъ
нѣмъ
##вяжи
перебыва
пересматри
безденежно
указныя
полной
възу
възглагола
възглаголеть
всяцѣми
слатца
волосова
ᲂу҆бі
бояштиихъ
милому
##ставлен
##дяшту
свѣштя
Вънимай
ученому
царьмь
поидетъ
##штею
чертову
багрѧ
видѣмъ
##дꙋт
дѣланьи
враново
тъчью
убозии
корени
киль
хранять
посаде
розступ
блгѡ
молишися
конское
конския
##шууму
суднаго
##езжие
помочи
самоц
##штими
##ждении
больницы
большяя
покара
оскърби
подъзира
##цоа
угождь
берега
малом
малоу
чловѣкь
##штють
##лник
##лничей
истичютъ
отдалъ
Зала
покорениемь
покоание
купцом
купчина
григорова
##мышляя
борисꙋ
рѹкама
житий
Ильею
пьря
убиет
записми
##чяють
##леной
ворона
Садился
покланяти
даниловичу
тамошине
третьей
##штяеть
##штявай
##штяяся
разумѣють
зъдана
молке
служилую
целым
внидетъ
устроена
хинской
врѣда
Господьни
Господьне
Господьмь
служя
нынешняго
Христе
бѧшеть
вышеи
вьсея
обрѣтая
стрелу
стрельцов
поусты
поместьям
размѣрять
денгами
Петрони
тысяштя
ногатъ
глаголюштяя
октебря
доуб
##стꙋпа
101
фате
материубийци
вьсяко
вьсякою
вьсякомь
пожрала
емляй
пятисотной
съгрѣшу
съгрѣшения
##щꙋтъ
стьзю
смотру
срама
никиты
съвѣштя
съвѣдѣния
имели
повинятся
фор
обеихъ
обесели
живуштя
##гоутъ
гиръ
угодьна
съмѣрения
съмѣрену
Лазаревича
Лазаревичю
Лиховидов
королевскаго
солодъ
васю
##нтихрі
цьсарь
чясъ
имуште
сельцу
гефрей
вѣчных
Дариева
мыслий
небесная
грѣшьнику
кꙑѧ
почестенъ
посѣштя
кормили
Душя
приближя
глуми
карпра
третий
земльное
погынеши
пользѹ
одеждю
киевски
Тесали
заповѣдий
сьрдьчьная
колес
##жяеть
##туюштааго
небесьныи
печатныя
рыцерскихъ
печальнааго
авраам
сосня
олфер
срдця
неделщиком
волостелей
воровстве
матерьня
Божиямъ
дѣвице
елде
ковши
одиннадца
везетъ
ѡл꙽ло
скърбии
женьскѣй
добыти
убогыхъ
убогыихъ
правьдьныимь
престани
холопех
Лебядь
заложить
македонянъ
пьрвыя
сотная
сътворять
съкрыхъ
съкрывая
истиньный
прѣмудръ
кънѧзоу
рядовой
мудрыими
Стратиг
волхву
##ркъвь
свѣтьлыя
гърдыни
закручинился
чловѣчьско
чловѣчьскыя
порутчики
умьнымъ
Доброты
прутиемъ
##городец
радуеть
##пангоуть
покланяй
Антиох
шъпангоуть
откупов
масломъ
отпускныя
плачються
научишися
убойство
суздалского
разумиву
разумивый
приемлюштю
стерце
стерково
Созомену
помагая
цвѣты
Емуже
плачися
любяштиимъ
любъвьно
пристанища
сръдꙿ
жалобника
чьстиши
Авдо
іѡаннь
крайны
птах
ненаказаныихъ
грозень
въздыхай
мостовщину
мартемь
вышьнему
задво
гвозди
раскай
Картаус
прѣзьрѣхъ
умолочено
оцѣштение
олексея
трьпѣниемь
девкам
бештьстие
бештьстьи
встречаетъ
воспрос
проливаяй
Давидомъ
съвьршилъ
мьрзость
Солнышко
Страхъмь
оставляет
##фимья
Стеркъ
Фараону
убогааго
Отьця
илї
внезапꙋ
полоняники
ступание
Вышьняаго
приходяштя
урядником
урядническому
угажда
црквьныя
отъвѣштавай
приобьштение
приобьштай
послушяние
Вьсяко
Вьсякого
трѣбуеть
Околничей
Нектанавъ
дмитровском
глиною
срачицѣ
переписных
кр҃щ
шурмованье
възяфъ
чреваты
понятых
сыновья
храбръство
геронтья
уреченный
выслуженые
съподобита
иоум
послушествовали
изъимаша
начятъкъ
удобѣе
удолеет
скърбьхъ
неправьдьныихъ
възирай
дъвоязы
##долища
отъвѣштявай
повиньникомъ
поразумѣимъ
отъкрыеть
мушкет
Тимофѣевъ
Богьмь
зачнет
цьркы
житейскаа
Юрьева
##носяй
##беруться
саржантом
възвеселить
дворцовые
Разумѣх
чьрноризьца
Гюрги
промежутком
адицоа
потрѣбьная
оверштевена
покываеть
галански
забъвена
замьдь
Утропъ
въздьржяние
прѣмудряй
милославскому
дъвоици
наведения
канъцахъ
капитану
Еписти
съматря
чловѣкоуго
безхитростно
въспомянеть
накупь
цвьту
Чьтый
Праздь
Минчитрия
ластовици
голансъ
посвистомъ
распытай
милуйта
изьедят
штедроты
стоборию
отъштетити
шпантъгоуть
паквин
ватысь
возлетять
45
Дне
Діа
Зло
Нетъ
Четы
блѣ
жта
идѣте
кере
снѹ
телѧ
усла
ѡдержи
##рго
##жские
##щема
##плѣ
##плы
##чнику
##хіе
##ρι
##꙯и
##εν
##стров
порѣ
полев
нак
наска
##тость
##ришь
##ринов
##емлѧ
##дице
##диемъ
даше
воѣ
вождь
вообра
жеꙁ
##елнику
принима
ранами
##лъта
и҆ст
и҆менемъ
соля
прорица
проꙁва
съсѹ
откуды
тапор
##живати
оузрѣ
маџ
преврати
реш
##луетъ
вѣжь
##щам
##дьть
живь
винꙑ
##баки
стоа
воззрѣ
судо
такожъ
Далее
##телное
##оуть
чаша
иноѥ
##менѧ
перфи
владимер
трии
Надо
Написа
видѣвь
корол
вотчинѣ
##лꙋша
##пеи
рублех
##вшемъ
молитвꙋ
##шуся
ризъ
тѧжа
мѹкою
родила
##ждает
##ствуетъ
цѣну
речки
скрови
злою
поповъ
Мужи
##ющыѧ
дъл
Такѡ
троец
Съгрѣ
##леною
Отвѣтъ
патриархом
работе
с҃тыи
врѣдъ
правому
просил
заповѣдемъ
единогласно
##шꙋю
старыи
Иванова
свѧтꙑ
григорьевича
нижегород
ѡбитель
прияхомъ
ѡбразь
члкъ
числом
самаріи
ратные
погост
##гошасѧ
житіѧ
авгу
посадцкие
михайловича
лвкь
##веніи
мудрому
боюся
птицам
боисѧ
ꙁлата
наоучити
антоніе
пагубы
потече
##т҇ь
мудрыхъ
василевич
грудь
Христову
лариво
прелесть
прелести
домочадцы
съвокупи
вънимати
совесть
блаженааго
закала
весело
слабость
Помилуй
павьлъ
закричалъ
Бг҃ъ
оржанои
Бере
Мѫ
Смотри
ижь
снѧти
фря
ыс
этого
ѥ҃
ѥсь
ѹстра
##нги
##ак
##ꙁар
##мки
##тче
##кел
##жня
##чловѣ
##ѕы
##ꙙти
##ꙙштоу
##стны
##стово
поре
пожени
постомъ
попира
##тири
##тиваго
##лас
##ноѣ
##ницѹ
##вагѡ
коем
жерь
##таны
приставити
своі
застѹп
моно
моса
##шакъ
съписа
ведет
вечную
тате
##мьскаго
##ньки
##жаю
станех
васѣ
рекꙑ
беси
вѣд
будть
вижю
видали
разруши
##овица
##заръ
##шько
возгла
##нѧꙗ
##нѧмъ
##мыимъ
##лѧхꙋ
суморо
прѣти
всѧцѣмъ
##праз
челова
полторы
чадехъ
##шкат
дубу
мурав
лестью
сѣвера
##сповѣда
ѡ҆пꙋ
господар
едином
##городьци
і҆дѡ
дьрь
Наи
##зокъ
видѣвъше
животь
##датию
Колко
томже
Вотъ
продаите
петром
бесчин
ѡбер
##ждаѧ
скуд
Согрѣ
ходили
##гнати
Сих
борисом
обол
##лоучи
казати
сицеваа
илья
тꙑи
##леному
гуси
срока
хрстиѧ
московское
вашею
молꙗ
молвить
##четвер
кричать
искуси
семеновичю
тꙋю
драгое
татаровя
таковыхъ
первою
прислали
фота
ѕ҃і
гибель
востани
прикаса
многых
виновата
поимаша
грѣшныи
кормилъ
любовью
женится
поворот
слободно
##стѫпа
бц҃е
федь
неволю
руках
словесем
принося
воровски
неправда
послꙋшаите
глюща
##смотрить
англъ
денежнаго
успе
утѣши
приступити
Блажени
видение
самодерже
утверди
одиного
лутчее
сапоги
понама
##ющимся
ѡбаче
тимофея
пещерѣ
преставль
выехалъ
живоначалные
солнеч
въпрос
лазарева
прозваша
Иерусалима
оуроки
наруга
приимуть
павечер
верховный
веселье
херꙋві
Црт҇
бца
дшев
еоу
жтіе
зле
иі
окра
тры
уны
уничи
хев
ѡва
ѳевра
Ѹ҆
##еn
##зеть
##ѹрии
##тена
##тцкому
##довы
##шком
##шніи
##нивъ
##рои
##тьа
тора
вълага
въшьдъ
коихъ
доз
досу
дошь
зачер
мосе
ниско
##къвь
соѳ
солъ
##ману
отм
оттуда
вед
оули
оуꙗꙁ
##скоѥ
валѧ
прежъ
##ряет
рееть
##лють
вѣкьі
##лыга
дѣлѹ
дѣяти
##гия
##скаи
##нѧют
##быти
лѣтѣхъ
##ленно
испро
кунѣ
прѣкланꙗ
велі
безь
ползѣ
чадь
печѧ
а҆за
ималъ
василевичь
##ставля
грѣсѣ
мыто
рѣше
Нау
имѣите
##славци
словомь
ѡтписа
блажени
царское
молитвꙑ
насꙑ
пѣрѣ
въꙁвра
##ковое
цѣла
цѣлъ
Мария
Соколъ
боярскихъ
##нѫт
спсен
поручные
будущая
наказанию
Тѣло
здравии
днеи
##вꙋю
свѧтыи
##торого
тысяща
подвигу
истори
дръжѫ
прислана
слꙋчи
крыло
малым
всеволожа
лежало
##ихꙿ
уставы
прьвое
пъл
пльть
монастырские
##шенаго
Лѣпо
благовѣрь
##неных
ростовъ
ѳедка
въстокъ
литовские
литовских
зряще
текутъ
възъпи
повороти
солгал
тарасов
блг҇ви
инѣми
##изволи
десницею
дроугоую
съпроста
Деревни
кощѹны
Тѡ
а҇
ас
гар
збы
лен
одра
рву
сїѧ
срь҆
тмо
хль
чрь
юрг
ятъ
ѥз
ѿходѧ
ꙋма
##міе
##м҄е
##оm
##жца
##дной
##цръ
##чія
##єва
##шель
##гⸯ
##гѻ
пори
напъ
негово
##намь
##ваме
жеи
прик
приславъ
приправо
гонити
свода
мошно
##мода
##чител
нитоже
сох
соф
прощение
павел
тече
пирова
видел
дѣя
##сках
##съка
отъидоша
бѣдъ
вьда
лѣка
прѣпрово
Богда
полские
чадех
володи
##менѹ
едини
ᲂу҆ма
і҆҆
слугу
властию
луке
триц
имѣюще
темници
никомꙋ
николꙑ
предлежа
сѹдь
дикую
розря
трново
тѧжѣ
всѧкомꙋ
грв
ѡбнов
смона
великаа
держаше
порубе
порухи
##фане
купно
рѹки
долга
гнѣв
гордость
гордости
пѧтокъ
і҆и҃лемъ
градѡвъ
возможеши
Прочее
строки
##шениꙗ
воротити
полутреть
##леные
двєри
##ствоваше
хотѣше
принесли
стреля
нареко
крестьянские
крива
тысящь
семеновъ
красное
##щом
отрокомь
благословению
фал
познанъ
##щꙋю
праведны
царицу
съвѣдѣтель
вѣдаютъ
крымъ
овенъ
худа
##сльі
каменья
написѹ
крьсть
рѫкама
агглъ
щитомъ
хрстіа
козле
епсп
епспъ
Иосиф
девицею
болгарское
другыи
называет
повелит
беззаконіе
варѧзи
хоула
нечестивыхъ
Блажен
прибѣже
нравом
беспло
нижнеи
молчаніемъ
тобоѫ
брат҃мь
Нынешнова
съпас
всѣволода
боляры
копием
чистымъ
смирения
смысла
Ярослав
объявляю
метелнику
ходатай
понуди
зрѣніе
озеры
Пречистая
бесконе
ᲂу҆чн҃цы
переменити
рыболовъ
презву
целуетъ
сугубо
кодратъ
серебреные
вселюбез
іеромона
ѻ҆ц҃ъ
къснѧтина
шеломꙑ
божіѡм
Іѡ
Ну
Сми
брѹ
гнѧ
омо
рмѣ
рцѣмъ
тмѣ
ѧкову
##вте
##мію
##тіѧ
##ьства
##уть
##улъ
##҆но
##шов
##гнь
посила
##ливе
нечест
##тона
##наѣ
##данѣ
##вамъ
##вата
##вахо
##рикъ
##диноу
корь
комь
кобя
##миѧна
##тари
всхотѣ
дожди
доеди
голи
завь
монѣ
селомъ
ничимъ
кану
тавари
##ческіи
стену
оуре
оумира
милю
##няетъ
##лѣй
##бины
сидѣти
тебъ
##хода
прекло
великѣ
всегѡ
вѣко
вѣмь
грамата
ном
разгнѣ
тиро
тиме
сторова
##дыма
котории
##леннаго
##жьша
имение
имерек
##телна
##стесѧ
безви
полтескъ
думою
полоца
а҆мор
##менных
первыя
твоеѫ
семени
черь
бани
михалѣ
ѡтрѹ
приказов
блаженъ
блажено
федота
тьлѣ
ꙁапрѣ
##нетсѧ
мл҇т
подъем
пороха
Собор
раꙁꙋмѣ
березов
##нѫвъ
Кара
д҃нии
##ющемѹ
пріидеть
казань
гнѣда
грозою
древу
почитаи
наказаніемъ
хлѣбь
обида
нѣкоему
никакими
водаси
золотомъ
нынѣшняго
весьма
108
честным
честнѣй
миките
обае
пръвыи
вь҆сѣмъ
имети
плъку
имѧше
храбрее
##ꙁьі
м҃ти
вдаша
имуща
яковлеву
мъногъ
##вѹю
кузмодемь
попеченіе
мелкие
неволе
##ѳию
трꙋды
оустроено
искорен
ѡбѣма
155
третьякова
являти
сѣдѧщю
дрѣвѣ
племянником
третіе
невесту
приедетъ
рожествено
ангель
досаду
соборных
Московского
кꙋплю
ст҃агѡ
##скѫѧ
таковую
Ѻ҆ни
переяславлѧ
##говаривать
козаки
посълалъ
наꙋчи
вавѵлѡнъ
Владыко
заболот
Василий
убежати
вънеза
любезный
прилѣжаніе
ѳилипа
Огнен
поѥди
птолем
мучитися
поколоно
дарѹетъ
ѡндрѣи
лопаришка
изрядно
а҅гг҄
въместе
паренину
Кде
Ови
Сар
Хѹ
Яков
алѣ
брь
еі҃
кс
келеи
мчн҃
оска
оное
окуп
ослаб
плеть
смꙋ
свать
смет
щко
яру
яду
ѡвь
ѧкоже
ѻни
##ржь
##нкомъ
##нская
##ꙋва
##дми
##чне
поеть
##носо
##ниши
##нате
въло
въве
въку
колу
косно
давай
##тагѡ
прикла
богꙋ
дода
доче
моемоу
##монт
##неа
##шеше
и҆доша
прогнѣ
прогне
съть
съта
отбе
отшед
веѳ
везу
##жив
##гала
##щести
##мьть
оуви
лютаго
##ловую
избѹ
хождаше
робь
рожена
лицо
градоу
градех
##гию
стопы
##скаг
мѣс
##лѧди
бѣста
мети
лѣс
##лені
ис҃
сули
прѣдь
прѣбла
прѣлага
иванꙋ
подвод
велемо
веліимъ
безѹм
указовъ
полные
възм
чарова
сѣбѣ
туда
##етеся
грамотка
первен
сьбра
Въск
подоро
дити
тягла
Колу
царствѣ
нашеѧ
##нꙑи҅
бывалъ
римь
ꙁаб
чье
Дону
мꙋжы
о҅нъ
скѵ
тремъ
Пришед
##ніємъ
радостно
спасе
Ракли
кругла
ивановичъ
е҆дно
##жнимъ
испꙑта
обита
надда
трудовъ
коневи
хощѹ
донскихъ
умру
ѡбразъ
ст҃ыꙗ
звѣздъ
пѹстыню
хороса
приступъ
кн҃ѧ
жьда
украшены
всѧкие
междоу
мужика
андреевич
облакы
неправе
спасеніе
дш҃ею
солнцу
жол
жонки
игнат
виноватых
указати
##прѣсно
въспу
желѣзныя
##точных
шуйского
погубиши
казначее
##тръпѣ
706
ѡбрѣт
сказывал
нѹжѹ
пятен
пойдутъ
пр҇р
записаны
православную
катор
пострадали
##шый
елма
голубь
зделати
даровалъ
потрѣб
женьска
##кнулъ
шедши
утеши
болѧръ
денежных
##щеные
наставлѧ
игѹмена
промышля
оубии
фрола
вязьми
судьями
костѧнтина
Праве
зовуть
##дивление
конопли
и҆мамъ
шол
перепущен
живоначалной
##мьіш
столники
сичкыте
дрв
блудница
цс҃рь
выслать
племяни
сладъко
Единою
чъто
индикт
Ано
Гь
Пако
Сре
врет
довь
злымъ
кер
новый
оцен
рова
укупи
чꙙ
яхон
ѕна
ѡри
ѡбъ
ѡрꙋ
ѧсть
##есе
##жіа
##҆нъ
##двъ
##дмь
##церь
##лмь
##шемѹ
##οι
поши
попроси
прво
##лиі
тобя
тобѧ
тоью
въст
косы
дается
водя
богов
загород
замол
захвати
##леѧ
##стьнику
##чичь
каꙗ
проша
прошен
вещей
##ганѧ
##чае
##бицы
сики
малин
реп
ревни
велице
лицꙋ
лишенъ
самѣхъ
##дьца
вие
вить
чеда
##чьць
возведе
Пока
вьсто
вьзи
чим
подер
двожды
пересѹ
полную
странѫ
дуна
лепо
##ныим
ᲂу҆ча
сьврь
бура
лакѡтъ
воиску
##пети
учителю
арсен
болшее
##ехати
пѣвець
тѧш
сꙋет
въꙁврат
##нѡм
снастью
осѫ
михаиловичь
##жуся
радостенъ
поколе
рꙋко
##ненію
четвертом
дворскому
слѹжь
славен
хрста
стѣнахъ
андрѣꙗ
##ствиѥ
обрѣтоша
золотых
ратному
таковыѧ
##нꙿна
весну
##пискою
естли
посадници
плът
прислаша
премен
немощно
алтынъ
избавит
і҆ꙋдєи
##рмить
требова
Естьли
приводит
вышел
грѣшници
игореви
гаврилова
попоу
доидеть
приношен
еюже
приꙗша
вашими
присел
главам
воспомя
замки
Слышавше
татбе
шелков
приступиша
переꙗславь
володимирь
##ѡбразно
постриже
благочестие
алексѣя
евангель
ѡбае
и҆сповѣда
Рѣша
питьемъ
постыдѣ
рауи
промꙑш
жертвы
ѡружье
мѹжеви
Бл҃го
имѹтъ
полѧне
ꙁнаменіе
лавках
Литовскую
въкоупѣ
Болгарски
а҆нтіо
лифлян
Бꙋ
Кн҃
Мꙑ
Мла
Свѧ
ащє
вжи
дла
дхомъ
жу
ипа
очною
оч҃е
омра
одьрь
сцѣ
іꙋ
іере
ѡи
ѡлга
Ꙁде
ꙋпова
ꙋмно
##нб
##нтѣ
##тнъ
##тнѣе
##ѧно
##дҍ
##днѧ
##дную
##шмъ
##бри
##ѡмꙿ
##яса
##стка
почю
потай
наб
некое
##токо
##нам
въево
##дихъ
привы
прискочи
всхо
доми
госте
##вино
##мола
##неца
сесь
и҆ск
созо
събы
събꙑ
сътрь
##рьев
бышѫ
отня
##живъ
оубѣ
оубили
##ньствѣ
сидятъ
ва҇
презо
превра
роси
розы
родоу
листꙋ
савы
##щалъ
##щите
##щисѧ
выма
выехал
писец
##чьное
брашев
мѣдью
лѣстви
иссѹ
ивани
подсо
Него
безлѣпи
##емьев
страдати
пеку
василка
ᲂу҆тро
людишка
буръми
гсди
короб
дѣлаи
гдрю
никои
##номѫ
тъчь
сѹсе
сѹщю
динъ
ѻ҆баче
кинути
книжи
арха
рыл
##фонта
грꙙ
млстынѧ
христья
Марину
крсь
привези
подаваи
поручную
последѹ
##ченію
круговъ
казаку
вꙑсо
иново
высотѣ
кѹде
государевыми
ѥ҅динъ
похѹ
ꙁемл҄ꙗ
врѣмꙙ
##леных
##леныхъ
младенецъ
помѣшку
десятка
##стѧтъ
народѣ
непщева
##ченика
##ченина
Егдаже
искусити
следу
подвигни
драницы
поведа
желает
тимофию
дръꙁо
жьрь
трьп
шестьдесятъ
чом
чолом
##жѹю
мнстри
сестрица
прьвы
млстивъ
захаров
крьвь
сребромъ
гѹси
скип
архиеп
н҄ихъ
ꙗ҆зыкѡмъ
пр҇рокъ
Данило
приꙗтел
##ѣзжаютъ
притчю
бжию
припада
недѣли
##чом
ѥ҅гоже
слушаю
бобровыми
переꙗславлѧ
оумѣет
нечестивыи
бѹдѹтъ
замужъ
живꙋщихъ
бояриновъ
алексѣю
крепка
помѧнꙋ
суждалю
чюдовскои
є҆гѵпетстѣи
хотимъ
вылазити
Крести
##гнꙋти
Мамаю
третьюю
посмотрѧ
вражма
испьса
##х҃ъ
десети
недружбе
бисеромъ
ищут
вытным
тр҇ца
и҆миже
скакать
търгѹ
ꙋзели
виѳле
державцу
оуказати
##боѧзни
Вре
Дово
Ск
Трети
ан҃
асторо
вход
еꙋ
жї
зни
згно
икра
мч
рже
сх
урва
херу
щѫ
щешь
імя
ꙁѣ
ꙗ҇
##ннѣй
##совы
##щіа
##цову
##лской
##ꙑма
##ѳ҃
##їем
поютъ
пораз
##готов
наь
##кос
##енꙑ
##ливали
##нины
##вах
##дитель
прикѹ
приспе
заши
заам
##льское
##теѧ
##теку
и҆ти
соте
соот
##дѣꙗ
мишен
##ньски
пахо
станови
станешь
изме
хоцю
преидоша
дѣтел
дѣлма
сыт
разбиша
тиоу
стоꙗше
##зама
##ция
воздати
##рѧше
чиновъ
##мерь
полкамъ
възму
възвѣсти
възложити
сласти
славоу
часов
левой
туча
##тяне
господеви
##ставливати
какого
доброту
святой
поидоста
##лѹетъ
Господне
михалко
##аніи
тъгъ
сѹдите
галич
ѻ҆ко
шеп
б҃гъ
потща
##словїе
плоты
въꙁможе
слышалъ
##ртвы
западу
##ковою
михаиль
Марин
Собра
кровы
сплю
последних
дълъ
смѣло
гробꙋ
и҆змѣ
и҆знемо
запирати
кладя
трость
##товер
чистотою
отпущены
московскими
дьявола
патриархъ
##говоря
Тѣмꙿже
мнѡѕѣ
скорое
приготова
дрꙋгь
донской
##рѡнъ
слышиши
##ткаго
трапѣ
##лꙗеть
начнеши
вѣрна
повинова
гибели
монастырьских
##щением
медные
поживет
мъножьство
дыни
грѧзи
словесное
сладкими
елень
бжия
##ловых
бывшемъ
Московском
побол
наказѹи
никифоръ
призываи
египе
годину
искуснаго
погыбель
чтите
ухватиша
матвеева
откуда
премꙋдрости
пономаря
позору
вкѹшати
нарочитых
леѵіти
властелина
прибыльнѣе
Блюди
Ѡлег
бл҃горазсѹ
ямам
страстотер
законопре
котѡрыи
добродетел
Вавило
херуви
Ажь
Аꙁь
Ажио
Астараха
Лутче
Новую
Оете
Олимпия
ать
бри
вкладу
злу
ить
ирти
лсти
мҍ
новым
сметено
сцове
твьрь
уно
угово
улья
ухищ
хръ
хмели
шѹ
швед
этой
юж
ѕпо
їли
ѡгово
ѡсквер
ѧбло
ѳѵ
ѹбити
##ржи
##нра
##сци
##жють
##чҍ
##лелъ
##шнои
##ясы
##ꙙшта
##ιе
наход
нагрѧзнено
прлож
##рат
##тошли
кожь
копѹ
воленъ
##кисло
принимаетъ
долей
дошел
досматри
##тък
гого
гостех
раки
рамѣ
нииз
##сима
какове
кашею
сокомъ
просѹ
пролом
проговоритъ
простова
##пода
##рьва
отказ
##нѣго
оутки
оуткамъ
##ньскомъ
##жахꙋ
измѧто
пресвя
великѹю
ростѹ
вѣль
вѣстов
вѣсово
##тыкну
вывѣ
выск
вымет
высылати
пишите
вилен
вишны
дѣл҄ь
брагѹ
обсто
разспро
##дымъ
дей
##сьі
княжи
Поро
Пога
Покланѧние
бѣлый
вьзь
лѣднике
исцовых
сумь
прѣдѣ
прѣвъ
прѣмѣни
чинехъ
ихꙿ
подвои
подметено
велю
перепѹ
перебрати
взру
взговорить
##мѹтъ
##мѹты
страдные
дурна
инопа
леднике
а҆нтихрі
##скупу
волостях
волотцком
господоу
црств
##пустить
радит
ст҃ъ
писанномѹ
вершенья
имѣють
поите
багрѣ
князья
человѣк
человѣкѹ
сѹдомъ
сѹшит
дивова
диꙗ҅
##кѹпи
кибер
кирею
хралов
арды
посадов
конной
рыжики
судной
##пѣгѣ
мьжю
запрется
болшая
мънҍ
пѣшіе
женка
женского
мѹжнимъ
цѣлью
шидро
скамъ
скажетъ
##гналъ
сплъ
Калину
поплесневело
##штати
походѣхъ
Симе
людеми
д҃ша
круп
круглаго
шад
шагъ
шатре
послухъ
обога
дорожку
##ненке
свиты
свисту
четвертый
пьѧна
сѫщи
убитом
оубогихъ
полевых
сицевыи
горсти
кладе
##гех
соуди
инное
святыни
срочных
##ховском
кѹпит
слѹгами
землямъ
любимое
третьему
кралевскому
вашея
бл҃гочести
водале
жалованя
Видона
семьѧ
подобнѣ
хотѣнію
грех
уездех
вотчинной
дрꙋгьі
стрелы
поуст
размѣрѣ
размѣчена
Ивановичю
##ченин
Еруслону
Еруслоновичь
семъе
Ведаю
умретъ
силныхъ
боудеши
кнгы
створимъ
собралъ
раздѣленія
поганого
весны
могучи
могучихъ
павловичю
молитвъ
верховыя
християне
мужиковъ
##ѣзжати
Старой
Ставерь
морсъ
солому
достати
достало
писаномѹ
примѣть
примѣтити
примѣчай
челобитчику
покрыте
ветхаго
плѣнъ
жолобы
игнату
помещика
пушкарскія
богатырския
##венко
напишут
##щихся
требую
##ливай
опарин
грѣшны
млстивому
пълъ
прѣдасть
послушай
видяще
солит
кѡлико
дыро
простился
долгота
увиде
і҆ері
осадѣхъ
выборной
четверогранцѣ
вѧлаѧ
гостьи
составу
татьбе
татьбу
##ѳии
ѡбыскѹ
Дружневну
Дружневною
пустиша
рѹкодѣльни
рѹкодѣльи
##нїем
отписывати
максиме
поместной
обыскным
околничими
Девгение
длъжьнъ
кѫнҍ
кабалные
кабалной
кабалного
кормовых
заповедехъ
гневъ
ꙁнамени
лихого
Лѣбедь
порѹкѹ
вселенная
закладную
ставцы
угольной
угольною
посулом
душам
недѣль
добычу
думной
архимариты
глюще
ѡчищено
ссылки
Ильюша
блѹдникъ
давыдова
ѡставили
рыбнѹю
бесчествѹ
порѧдню
воскресную
проесть
спорной
оучнѹтъ
седмьдесѧтъ
переꙗславль
старинные
ухожьи
дѣтьмъ
прохожей
вторую
одинои
святитель
именованной
полоцкомъ
волокиды
извещати
Ихнила
Ихнилата
королевичей
молчанїемъ
Самсона
свѣискихъ
кружальной
наследѧт
##ствьно
возложило
ступени
узналъ
гавранъ
домовитомъ
домовитаѧ
Болгари
челѧдь
любящими
Самодер
а҆враа҆
полотенъ
Полкана
левке
обороте
приставит
напослѣди
домашнемъ
домашнѧѧ
домашнемѹ
паробокъ
разсѹдѧ
приѧтно
пивцо
богомолцы
вѣжливы
Пріѣзжаетъ
снегѹ
уморит
якуню
длины
длинѣ
неверста
порозжие
варшаве
прожиточных
откупы
воспроси
вымыто
оубытка
Роксана
ласкову
котла
аѳон
гробницу
всполошное
ездок
провѣсъ
имоуть
хомутины
полковымъ
составовъ
исцево
пръвосовѣт
рѹбашки
Алексей
##хаживалъ
сторонним
ветчаное
навѣсомъ
княиненке
кѹпишъ
мартинкова
бояринь
вчерашняго
сѹшилех
дҍлѧ
стрѧп
атаманишко
покѹпать
повареннаѧ
святѣйшему
выслуженых
чародѣй
Келарю
ꙗ҆висѧ
дожжа
возлогати
рѣзвы
утѣсненія
полюбовно
Лукопер
исѣкоша
патоке
третьие
ѡловѧное
дъвоихъ
еуагѥ
дрꙋгꙋю
комисары
комисаров
дочерям
старожилцы
Пожалуй
оѳроси
заплакала
некраса
начертанное
вылазки
тимофѣю
Иовантъ
столовые
фредерика
Печатной
Объяв
дьячьею
кислые
вытерть
шанцокоповъ
оуксѹсъ
анбары
василевѣ
дополнивати
оукоризна
неждана
абросимка
осмотрѣти
ширинки
добыткѹ
примолвити
подалеку
дроздова
съехалися
лимоны
разсмотрению
ревнѹи
мешечке
ѡстѹды
грѧзные
гостьѧми
ополчася
чюжему
навьѧло
полѹнощница
пересматривати
елдегина
брѹсни
згноено
хмелины
вѣсовое
дѣл҄ьма
Доу
Стре
вдѧ
гряду
исо
олени
смене
удержа
шѣ
шка
істо
ѡгра
ѡнои
ѱал
##рду
##рковъ
##ико
##н҇
##ахꙋ
##ꙁако
##мное
##ꙗхъ
##клика
##дʼ
##ѕь
##гꙑи
##҄ꙋ
##ѭштоу
##ѳы
##лиле
несто
несте
##ноте
##рока
##торѣ
##рится
дарꙑ
госп
загорѣ
##дому
##шаютъ
рацѣ
рагоу
раслабѣ
##стила
##къше
проя
прощен
съпь
съпротив
##маны
##рьское
бывати
быс҃
везе
##живѣ
оумо
оуклони
творе
стань
избыва
ребро
##паеть
родо
росту
беск
##щается
вытти
живымъ
государъ
ног
бранит
разных
##овищи
##зая
##заны
##нѧта
##лѧте
бѣсте
исходит
страхь
печет
вологод
персомъ
радими
##трополи
буе
моиси
луну
##евичем
имѣни
имѣнья
михал
повеления
предложи
дивна
##вшесѧ
розвѣ
##тѧне
##нꙑимъ
мь҆нѣ
поклонь
##ездом
пѣшь
печалу
млтвами
##пьрь
раꙁдрѣ
скат
##гнали
отдан
рꙋви
##нену
тоиꙁи
воинства
опѧ
##имꙿ
нꙑхъ
богома
совле
подобнаго
полат
сорома
крестьянскую
донелѣ
глаголюща
подвиже
июдеи
##лꙗти
почнеть
поганꙑи
татарина
смета
честный
напая
пособь
рьвь
павлꙋ
вь҆сꙙ
совѣта
прикащик
достал
яковле
Нѣко
поляхъ
орли
##ргии
еврей
страшенъ
ненавиди
равны
єгоже
старины
диявола
развѣе
съкров
монастырской
призвав
міръ
услышавъ
Лежа
достоꙗ
давыда
кѹплѧ
поносити
выехали
дружбе
болшого
Воиска
лодьи
тѣснота
послѣдьнии
кр҇ть
серебряны
Новаго
поживеши
маршалок
намѣсника
дроужинѣ
є҆фрем
говя
живѧше
ондрюшка
кучюма
буквы
ноздри
вельями
беспрестани
2000
Бъ
Нкако
Это
бдуть
введ
вчини
гꙑ
ель
есо
ерем
итла
пс
устье
ѡспо
##нну
##нска
##мрь҆
##тове
##ꙗже
##щють
##ѫщоу
##чѫ
##ꙿнаа
##ѥнъ
##ѳею
##στ
##стному
насыпа
##колюбе
прмѣ
##росъ
##дают
##вав
##риꙗ
##рил
##дисе
коꙁ
кору
косте
##ныни
воню
прили
прими
годе
##дерев
зазь
моєго
север
ран
никуды
каф
сор
прощеніе
съꙁа
##стася
отдел
отписати
таи҅
оуени
мири
##чаны
##лѣꙁъ
##биць
посл
велици
бедери
##скиа
##беѧ
##щия
выкуп
рускому
##скалъ
##мыхъ
кула
куров
прѣвы
полоцко
туже
туръ
бьіс
ᲂу҆з
ᲂу҆слы
рѣч
добротою
воистин
врач
вражь
сѹщь
гараси
дитя
хранить
приказщиком
розво
царствъ
##ровицю
болшую
товарь
тьмѣ
ѡбле
##полку
##ствуют
цѣлѹ
скре
Мона
раꙁбои
держава
привесть
своѥгѡ
милостив
писмены
анѳу
языкоу
слѹжити
списокъ
вашее
хотѧщю
совкупи
сороке
хотѣхъ
десяток
стремя
##дители
целованья
аггели
беꙁоу
глаголахꙋ
трав
травою
июде
##т҃ь
ц҃ср
птиц
##вшему
##ковиць
пришлите
неправо
оучинили
соломою
осоу
ведаешъ
цьрни
вдалъ
##несет
лежат
побеже
собоѫ
прошлого
вашем
захарья
сіѫ
дв҃о
мꙑсль
въстати
трѣб
священники
ѡбрѣто
церковнаго
нашомꙋ
одея
двиг
благаѧ
падению
ненаде
клѧтвою
кирилова
девицы
воздастъ
телѣгу
##ꙗ҅ше
благовѣщенія
повелиши
кънѧзю
переꙗславли
рꙑбъ
торопь
есьмо
претво
бортными
переяславлю
Самого
Моисей
борана
##чищать
молодой
изидеть
мартѹрии
саваѡ
храбрые
##лобитье
коегождо
абыхмо
і҆ѡавъ
срцде
кудря
крепостях
Исперва
непокорение
гр҃внѣ
тьмами
смольнеска
глаголемая
убояшася
Гд҇ь
мощьно
ѧрославли
домажирови
и҆ноплемєнницы
олферьева
новотържь
ванды
подробну
напаметоват
растерза
чтеніи
Азь
Бяху
Пря
Сторо
Свѣт
вмен
глъ
гена
епар
инаа
оа
тпре
чете
юдо
ѡли
ѡкова
ѹмѣ
ѻца
ꙁдѣ
ꙋби
##вми
##смѣ
##кл
##кен
##ксу
##жника
##хію
##лзѣ
##шї
##брѫ
##ѕю
подѣ
нали
прено
##тиꙗ
##тите
##лиза
неча
##лопо
##ваеши
желати
прига
придоу
сес
нищ
##рѣь
##тесь
сосу
##рьть
отча
ведется
##дѣлати
##скїѧ
людомъ
сидели
##стол
прешед
велия
##бѣли
роство
##дуче
живыхъ
##сець
дѣѧти
##чьть
##чьству
разжи
возлѣ
бѣх
бѣжи
местъ
правое
праваго
полтреть
скоп
леже
сѣи
##бьꙗ
##казалъ
первые
радила
сьло
сьмо
грѣхѹ
какою
свѣдѣтел
деньгах
времꙗ
ѻ҆че
Коз
блгово
повелѣнію
продалъ
ригы
нашихь
пожали
ꙁавѣ
##ртва
##янко
раꙁрѣ
ходиши
поплѣ
приведъ
и҆зведе
митрополичю
##шениѥ
высокую
трупу
получити
##женина
ꙁемле
нынешнем
србие
свободны
##новое
морем
первои
оставивъ
веселе
въсѫ
тимофею
дрѹгꙑ
стьство
книгамъ
##ешься
покланѧни
##женым
коиждо
помышление
востати
і҆ѡсафа
красотою
##днеи
сельце
впреди
мл҃тве
видевше
апостоли
роман
опале
грѣшьнааго
въсакого
дыма
##ꙁомъ
##скꙑꙗ
помысливъ
нашое
доидох
погыбоша
пустилъ
авраама
гнев
исходити
оувѣдѣвъ
диак
офонасья
забылъ
ставитися
пріѧтъ
##луися
плавающимъ
полтиною
ѡ҆блакъ
локот
отъвѣштавъ
принялъ
романовскои
пришъдъ
мѡѵсеа
покаянию
Благословите
рюрикъ
дозору
черноризци
батюшъкѡ
Абіе
Всѣхъ
Дроу
Здравству
Пꙋ
Хи
анѣ
вкоупѣ
дрѧ
дхомь
инаѧ
кꙿ
новы
олекси
урѣ
угри
ѡправ
ѻе
##рʼ
##рков
##нда
##ѹми
##м҇
##омо
##тень
##сца
##жнаа
##бнаѧ
##гена
##ѭшта
##ει
попусти
##госта
##коль
##енѹ
##лини
##нощи
##никѡмъ
##ре҇
##варѧ
толка
възалъ
##мите
принелъ
бочекъ
вспо
годꙑ
##шана
##шагѡ
сева
##чивше
рагу
растя
ниву
##шиимъ
##къви
отлу
отвести
##жили
стене
оусть
оугры
мине
##ньска
##бимо
##бища
##бинѫ
##век
мас
манꙋ
пречест
посполи
##ряеть
##лука
##бѣгъ
вѣстно
##дьте
выня
виною
видалъ
ною
номо
многꙋ
стогъ
##скава
##съше
##шься
тогожде
Посѣ
Помни
##быть
##кымъ
сурми
кунь
##емь҆
ѡ҆с
василия
рѣкамъ
##гый
тритцати
##славѧ
менших
стрѣлѧ
##печата
нашю
дивьно
кнѧзеи
ѻ҆нъ
ѻ҆вецъ
василье
златаго
##ниимъ
арка
русинъ
словесѣхъ
москву
недовѣ
слышал
осмухи
бѹт
бж҃їе
истинѫ
##цѧть
марке
покоу
##етоша
свине
грома
грозно
записы
горше
нимиже
волкъ
##станꙿ
пꙋрга
третьꙗ
##леныи
правою
народы
поустꙑ
поучения
оставь
свѧтое
тысящу
камену
отрокоу
##ровье
##имать
познаша
веснѣ
веселием
пребывающе
въслѣ
дворяня
свезли
велѣнію
роді
іван
івановичю
лукавь
##щениѥ
жомои
црк҃в
взыди
восво
приводе
грѣшных
кꙑевѹ
##ꙁѣмъ
Быс
иконами
поперег
шьдъ
Брата
неправдою
Лѣто
приеж
феодор
повелитъ
Слышавъ
Архиеписко
монаше
##ѳеа
пишеши
сторицею
возвратити
##ггль
пріемлю
ужасеся
задницѣ
минуты
ярополку
овець
ѻ҆лтарѧ
дьяконом
сеножать
дмитрию
облобыза
съмръть
҆҆ꙁ
бесконь
бисера
верꙋете
благодатию
ѿнн҃ѣ
поспольства
мн҇трь
чьтѣте
ѿкꙋдꙋ
доньдеже
7000
Дето
Идоша
Мстислав
Ненави
Рꙋ
Ц҃рь
ане
вѫ
вло
гса
дхо
езу
елена
емати
жте
клет
олѣ
ономъ
ополо
тве
утва
фити
ѡда
ѣже
ꙋве
##еа
##нень
##ннѣи
##тную
##ꙗль
##ѧніѧ
##҆на
##двѣ
##дливъ
##лнии
##ѥму
##ꙑтаи
##αν
помет
##гомо
наволо
находя
прт
##воши
##лиа
##лони
##лобу
##ринѣ
във
въведе
вълости
##дицеви
##жедале
##мить
причести
причет
придох
бокъ
боговъ
всъ
доци
дошедъ
горить
##виа
##моль
сестрою
##чиво
рате
ниеди
##льника
##симу
калу
содер
веины
##жиша
##няа
##няет
##нятися
##ньх
##лѣѧ
##ерей
пат
малꙑ
реши
##люсѧ
##бѣи
рожде
робѧ
беи
##скивати
выноу
витаеть
руке
обдержа
множа
##цеѫ
стоите
которꙑ
Потому
Поѣхали
прѣмо
чимо
чинит
##править
##цько
безмене
взмолови
полный
всяка
всякою
чады
плачетца
##бьтьникъ
ᲂу҆кори
И҆з
твоево
##дяхъ
Въспо
имѣют
гд҃
##лꙋю
николина
гд҇ѣ
##драго
дерзну
шеломъ
приказныхъ
бꙑвъше
приимет
б҃жи
рыжа
мьрь
бывал
ризами
##щеніемь
въꙁи
ходивъ
сътворихъ
малою
##ніка
##ченїе
Заха
марков
сн҃ы
##ющимь
##неніа
казале
смѣрено
пьянъ
сѫщ
убиенъ
обратити
Събра
Съмотри
соудо
иꙁвѣ
##реніа
трудно
хотѧща
врѣмена
Вир
совсѣмъ
Латы
льв
вьсеи
остатки
золотъ
золотой
свободу
Вьꙁ
Вь҆
отьчеви
погосто
пророкы
іѡ҃
позналъ
##кладные
весна
крѣпостей
дроугыи
##смотря
##возные
житію
постник
##лисьеви
##е҆мъ
крыму
живущее
##стѹпати
сыщет
Старо
Друже
узре
михайлович
показаша
приказать
приходиле
широка
соболи
соболе
въсадивъ
##ѭ҄шти
##дѣлано
поворачи
карпов
надѣть
##пустили
колѣноу
ѡц҃мь
возрадꙋ
амин
урокъ
потребами
даваите
##шимся
олге
гл҃ахъ
отпира
птицамъ
берен
носилѣ
псан
товарищев
посланники
думного
архимаритов
зелены
##вкъмъ
вземши
смьръда
невз
отечество
слѹжбѹ
днгъ
известно
маслом
сохраниши
вопрошаше
бж҃ию
суздалца
ѻ҆троцы
скорбенъ
цѣсарь
шкоду
ѡбрѧщеши
грабежу
а҆враамъ
сергия
ближнихъ
лазорѧ
мълви
розданы
пивнои
вънидьте
прочаѧ
дрвни
##срьди
милует
7080
осьмь
заключен
выслал
мудраго
подписана
Кеса
попродале
вычистить
крщ҃нье
атче
замъке
еѳимовичю
хртіане
клепание
дубравы
видьло
огроф
мелентьев
лобанова
полотенеца
гордостию
##аngе
Золо
грамотичу
хльбь
полоцанино
тъгъдъ
свинеце
ополош
взмоловить
##аngеl
Г҃
аско
акоже
брян
всто
есау
жꙁнь
идут
идох
иныа
идѧше
оѯ
олек
оѳона
ремь
сія
ути
уди
устин
ьс
ють
яда
яки
ѧв
ѧть
ѿше
##еше
##аl
##сщен
##к҄и
##ющь
##ѧне
##дрѧ
##дѡвъ
##цково
##плен
##чкова
##лныи
##шковъ
##стнаго
позъ
повали
поѣз
покуп
наѧло
##ливать
##мъше
негаси
##лоти
##каса
тоѫ
въстан
##дима
причи
притѣ
присло
##де҆
заꙗ
засы
моча
##нево
нибуди
каꙁа
и҆ліа
отняли
татю
##живать
оутро
##сквръ
изнова
валя
##кула
преѡбра
решет
роса
будем
выдер
пишеть
живѣ
рукѣ
стоть
девъ
##гутся
##стыи
медь
тѣма
пудо
##тѣх
подса
Богом
нѣси
переписа
възѧлъ
часовъ
##зилъ
полоном
печера
а҆кы
василѣ
милостъ
##хин
власи
моисею
имѣніа
поиметь
вреда
##трити
##ележе
двадесѧти
гасити
ѻ҆нꙋ
Александр
старом
##краты
царскимъ
начали
потрѹ
сꙋко
сꙋда
недли
коуна
добрыѧ
##ждаютъ
о҅ть
треми
сътворимъ
сътворите
спѹ
правдоу
взятъ
Залѣ
Мужь
Таке
дород
дороже
житиꙗ
воинствѣ
околь
пѧтѣ
наказавъ
володимеровичю
##цкия
митрополича
Патриар
дꙋшы
богонос
служил
с҃тыхъ
православи
одръ
##ствоват
##ткина
гречи
дрꙋжи
нарочно
юрьеве
искал
дворецкого
красныя
ѡбраꙁѫ
июда
Рости
Ре҇
имеет
##женыхъ
солод
##мꙑш
наслѣдие
поношения
пскове
псковь
вашѣи
христолюби
златой
зелие
діавола
діаволь
родителеи
##н҄е
проиꙁ
пятово
нб҃сь
Твор
олло
искорени
отпись
хреп
здесь
##ровѣи
чуже
ѡлло
вкуси
воспла
думными
дѹб
мысльми
жеребеи
Михайла
старѣ҆
налево
свѣтила
держишь
скольку
рекам
петровича
костянтина
полочаном
убийстве
прѣподобь
безумный
и҆мате
свѣтлое
смиренный
мѣдѧно
вещꙿ
источнику
изымают
токма
сщенꙿ
цр҇твовалъ
кланяется
изменити
і҆ꙋдеє
черниговской
Борис
называти
наталиі
аннушка
зеновъ
##рѣйши
ѡсподарь
бескабалных
##ατα
пагѹбѹ
сꙋседом
прѣꙗмоу
ѡ҆лѵм
каторыхъ
65
Жел
Мѧ
Нет
Слъ
аі
вше
грꙋ
злую
истрѣ
убавить
х҇а
шоу
яди
ѡны
ѹда
ѹбии
ꙋро
ꙗвити
##ровым
##ели
##змо
##знꙋ
##нв
##оn
##тли
##сія
##кїѧ
##ѧхꙋ
##ємь
##҄ѫ
##ꙃа
навꙑ
прен
##еннаго
##ниі
##каи
##тьнъ
въсь
въходить
##дитсѧ
кожоу
воевѡ
прич
болен
богѡмъ
гоуби
годьно
своды
мощ
мокло
моленіе
##мони
##мути
събер
##маты
##гаетъ
##мьи
преѡ
прелага
ростова
ропта
лишнее
вири
ручья
развер
разгара
##вьри
бѣахѫ
межѣ
правы
правыи
пугви
сукла
прѣз
чии
подно
##оубо
бездет
указомъ
полетѣ
##стът
всяком
а҆л
##етеѧ
глад
сьрь
дье
Тогды
##скыимъ
дѣлатели
живото
дватца
дерзости
##вшее
доведа
шестѣ
творимъ
благи
потопи
##ждеши
болна
начато
господинову
ослѣ
михаилом
гл҃еть
попове
##добро
отдаст
сн҃ь
купят
анны
долгомъ
смѣте
сѫшти
братана
##иметъ
губу
##щуся
митрополитомь
строеніе
славꙑ
видимая
взѧтъ
имяху
ꙁемль
##леныя
андрѣевичь
хотѣаше
грекы
десятину
стрела
поуча
глетъ
свѧтъ
слезъ
именовати
памят
недоро
пошле
доухъ
іѡ҇
познали
вѣрнымъ
стьіи
пятью
селищу
позде
надобна
колома
завидѣти
##дневное
виноватого
назаркова
вѣчныя
##кѫдоу
грѣхѡвъ
изволиш
федоровиче
твар
кѡсти
клеветою
хвалить
престависѧ
колтов
еуфи
словесꙑ
мрамор
светлицу
съкру
неправду
письмен
неблаго
закладным
микулина
слоуж
однои
преподобнагѡ
ѣздятъ
а҆рта
##леньи
належа
прелща
##бавено
философи
сохранитъ
Всякъ
исполнит
хеся
исцел
свѧщенницы
струи
савин
ѡбрѧщет
Августа
боранъ
пространо
сиротамъ
и҆сполн
##вⸯше
оудариша
известит
оцѣсти
метати
стрѣлцовъ
лодьѣ
турецкому
бж҃іею
старьць
і҆акѡва
передѣлати
пророческое
##хⸯте
##хⸯме
голѣма
читается
създалъ
пригвоз
хоженого
подписал
оупокои
нащокина
нелѣпо
ιз
πρ
Ини
Пѹ
Пса
Сл
бг
вкра
глем
еж
есты
иѣ
имо
истъ
оуды
пїѧ
пшена
рово
срѧ
схра
увели
уцини
іѵ
ѡвы
ѧку
ѹми
##ѹмно
##сныи
##ѧн
##щут
##двер
##дбь
##шнѧ
##бва
##ⱕште
##ꙑнѣ
##фѡ
##стерь
пожит
наконь
##тисе
##лины
##ропта
##тоѫ
##редѣ
##речены
##нат
токо
въвръ
дающ
приѣ
всу
застав
завели
заець
мосто
##лесъ
##шаѫ
##чица
рака
нице
##шили
и҆мене
соб
промол
##саве
##мань
##стаа
##боихъ
##жимь
оутробѣ
##ръкъ
изрече
маа
маки
##хаила
самоу
своеѫ
вынял
питѣ
житі
сыры
руская
ножи
є҆лицы
##сътвори
##цифо
возгре
бѣз
бѣдѣ
бѣдные
лѣво
##гъда
куми
имꙗ
иметъ
##телница
переко
##н҃и
полꙿ
полтѣ
стражь
странных
а҆ра
тужить
тугою
##ствена
единѣмь
ᲂу҆шы
##новеніе
сьмъ
ст҃ую
грѣхо
слух
ларі
деньгами
и҅мѫ
царьское
черная
благопри
нашла
учитъ
сѹхо
сѹдовъ
рублѣ
##слобо
шестна
розва
потопъ
молится
б҃гом
рыбе
повелѣва
риби
болшаго
помолим
родивону
чь҆
покаря
##пьство
##янія
реченое
##ргну
скакати
сплати
послѣднихъ
сн҃ови
закономъ
горта
домꙑ
молотить
Сътвор
##щутся
данилѣ
чистому
хрстолюби
кꙋнъ
голове
сретоша
подобни
принесла
вотчинную
алма
стоишь
бесѣдѹ
##битиѥ
ряда
смирит
таковымъ
лѹкꙑ
##нꙿны
племенъ
истому
въсем
##шеньи
##слышали
дх҃омъ
срази
никите
Израи
сильнымъ
авгѹ
андреев
Святая
въсемъ
таинъ
таимени
дмитреева
жонка
каменье
ѥсм
изволилъ
грѣшьныи
дв҃ду
##ѭ҄ште
русьстѣи
нарицаемо
нарицаемаго
разорение
##ковеска
страшное
колѣнѣ
рѧдца
ловлю
архиепи
ѣхалъ
комѹждо
трꙋда
поедь
козма
##глаголати
Тии
измѣнники
##ѣзжае
##жыти
почитали
судьею
парду
тиуна
алексеа
правеже
знаменито
жилища
члв҃ци
пояса
старинную
Развѣ
своєю
кровать
безумнаго
шкода
жєртвы
ѡбрѧщете
посторон
прельща
баранов
позвани
целомь
рожденъ
дружбу
Кромѣ
призывать
мр҃т
латини
богомолец
турецкаго
никитича
двенатцать
жаловальные
изум
свидѣтельство
сѣчахꙋ
истерѧлъ
діяконъ
выбрать
тархан
доложа
обрѣтше
архіереи
васьяна
георгиꙗ
брѧчи
Словеса
фарі
вдругоряд
плетью
Єто
Бѧше
Вⸯ
Гда
Ню
Слѹ
аро
ато
жвѹ
ия
оч
одоб
рвовъ
снове
ужъ
эти
явятся
є҇
ѡсꙋ
ѻть
ѿтъ
҆мѧ
ꙁда
Ꙗвѣ
##рских
##иши
##зение
##ахъ
##тлѧ
##сіѧ
##жного
##дла
##пленъ
##хнеть
##лбу
##шымъ
##яри
##їмъ
##is
поблю
##тия
##личь
нере
нести
##кать
##каше
този
точками
въше
въправи
воѡ
дог
дошло
мосѣи
##мок
ницъ
нимьже
##шину
и҆щꙋ
просыпа
съвѧ
##поша
отрав
##нъи
вежѣ
##дѣв
##дѣноу
стꙿ
оузѧ
лютой
##чато
илие
ваву
мадіа
хобо
хочете
преити
посѹ
##паѥ
##паги
бедрѣ
сабель
##мехъ
честити
дѣльма
##гинъ
разбо
стога
стоѧть
##лѧеть
кую
велъ
перечня
##цьне
безⸯ
безче
безсловес
##н҃ъ
##цѣм
ползы
мужество
скотину
плаваю
ѡ҆сꙋ
ѡ҆скор
василемъ
црское
первее
лоудь
милості
і҆ес
Въста
дьж
дьмъ
##гыни
Над
имѣе
имѣѫ
имѣаше
червь
человѣкѡмъ
враты
государьство
тъбѣ
##ниимь
приказнымъ
Кога
млти
##шкино
раꙁа
раꙁꙋ
бересты
кр҇т
пустоты
своѥꙗ
податеи
спалъ
отдаи
##ющоу
##ковыхъ
пѧн
починку
кропи
##гера
строения
волных
людьхъ
въдамъ
намꙑ
##ꙁъва
##виться
гл҇а
невѣжда
красные
ѡбразомъ
детище
слѫ
половиноу
роусѣ
отьцеви
подвиѕа
бесѣда
начнуть
обѣтова
Хоро
оставит
емлетъ
веселити
съгрѣшен
могуще
болѣꙁ
##вьрть
трьть
морскаго
івановичь
повѣдаеть
тысѧща
##чинати
наслѣдите
романови
поимаю
гръци
оброчные
умереть
евти
священниче
Князя
сказывалъ
огньмь
колѣба
церковным
церковную
пользу
нѹжно
лѣпоты
сюда
съкрꙋ
блъгар
кормление
прославилъ
клещь
##дрьж
скверны
рабынь
галичь
объявилъ
бꙋдꙋт
приезде
рабски
пѫт
ѡтрока
##десетъ
пріѧти
полочане
##ждениемъ
тобоѭ
стерлядеи
палицы
алеѯандра
государствахъ
башню
зꙋе
ондрѣя
спустя
управы
пропове
узрѣвъ
француж
Григорей
слꙋжбꙋ
колокол
сковоро
члвч
доволну
построены
прародителей
разгоре
супротивнаго
обозовъ
діакѡн
заѹтра
ѡ҆правданіѧ
а҆вімеле
##ilе
є҆зекіа
блг҃ослов
полуосми
39
in
iли
iub
¦к
Бѣло
Зме
Зову
Идолище
Олго
Орелъ
Пеле
Сморо
Украи
ачи
вклад
вжо
деме
ет
едят
знь
злей
зрети
злии
ижден
лже
лкто
лену
нхъ
овы
ослоу
рзнѣ
сши
сбор
уха
улки
убавити
цоу
ънъ
ыеву
юмола
ябедни
єдно
ѕѡ
ѡсп
ѡскѹ
ѡсподинь
Ѣдетъ
Ѥгоже
ѥска
ѥрмо
ѥсомо
ѥрмъ
ѥлбу
ѧно
ѧлъ
ѧковъ
ѧковь
ѧрꙑ
ѧбет
ѻлександ
ѻсподо
ѿказа
ѿпѣ
҂ꙁ
҂ѕ
ӏже
ӏма
ӏване
⋮в
ꙁм
ꙁрѧ
ꙗзо
ꙩг
ꙩна
ꙩси
ꙩста
ꙩсподи
ꙩкупи
ꙩсподо
ꙩфоно
ꙩсподарю
##еса
##еni
##здра
##уѕ
##жлѧ
##жія
##юци
##дному
##чій
##гто
##геви
##ѥца
##ѥмсѧ
##ѥздъ
##ꙑваю
##҃с
##iоn
##ȥъ
##ri
##28
##стр
потво
пошолъ
наслава
налучи
##воше
##енїи
##ласъ
недили
недале
нестере
##ноѭ
##рочно
##натъ
##ваха
##ваючи
##рините
топьрь
въвер
вънѧтръ
##диню
дарми
дачам
дачах
воют
прина
привь
привѧ
дошедши
гошити
##деславе
заву
затво
зачати
засыпать
##вирти
моз
севе
себъ
рако
##шековее
##сиѳо
камѣ
кадець
соѳь
продѧ
пролет
прорыски
съдила
съповѣда
##мало
отсюду
вези
векоше
##жися
##нѣга
##нѣцѣ
##въшоу
оупи
оувы
оуци
оустъ
оупоко
микꙑ
##еника
##бижо
твоӏ
сину
сиденье
пах
панꙋ
пашне
стат
теса
изꙑма
маце
малѧтѣ
хотъ
хомоу
хоцоу
прекра
послови
велишь
великꙋ
##луо
робоу
роспоу
беросто
##ляется
цасть
лиху
вѣстѣ
##душъ
##щаные
выпись
грамъ
пиры
жирѧ
жихна
жильцы
вильни
##баку
##еньтеѧ
дѣтей
сырой
рускои
нооу
ногоу
разѹм
мноꙁ
стоють
сторово
сторове
##дывати
##скамоу
##цинѣ
возне
возмь
возить
мѣкѣ
медомъ
местѧт
вьсꙗ
вькшь
тѣшеноу
сухꙑ
кушати
куона
всѧкѹ
чинь
имѫ
имоволо
Дажь
Дадонъ
челоую
челобѣтьѥ
нѣжи
переставливати
безволоки
взиде
великог
полте
страница
страдны
##стъкѣ
поклно
дубо
дубие
крат
крадет
положꙋ
пеюци
сѣро
есмꙑ
бьли
бьла
бьль
бьма
бьжѧ
волокъ
волосте
##бьють
##бъка
лом
лодие
милославь
есиѳа
грѣвни
грѣвенѣ
слугы
власов
дьла
ларь
ласково
лаиди
поигры
Томже
короми
коробеи
животно
##ловиѧ
человѣцѣхъ
меншему
михаӏ
михалю
гд҇нимъ
дватцеть
рубл
гривень
г҃ӏ
дитьи
Александрова
златую
жатвы
доведут
корови
приказꙑваю
розмет
бласлови
онсиѳо
##буо
конным
##дѹма
продае
риж
рици
федось
нашихо
потклѣ
##раздо
тьри
погрь
коуни
коунь
коуноу
коунахъ
плотины
в҃е
Милая
ньжѧть
игумени
осмаго
Додон
цѣрк
гл҃ти
Сорокъ
бересто
шидови
шишакъ
держал
Присно
крть
злодѣ
поручной
##штенъ
дъвь
бориць
дорофѣ
дорогами
дорожка
положиле
зобижо
противенъ
сердци
илькѣ
тꙑхъ
кладетъ
кланисѧ
дворнюю
і҆и҃сѣ
молотца
вꙑѥ
вꙑхъ
вꙑроу
вꙑдалъ
вꙑжлѧ
соукъ
гурь
срочька
гривьною
гривьнꙑ
Проговорилъ
пожаловат
##шенинъ
##ломѫ
славной
Оттого
Отпира
селема
Кир
третьѣ
трубу
кꙋнѣ
полутори
полуторъ
взѧлѣ
московка
купиле
целовѣ
полътину
пришлете
водаӏ
водано
с҃щ
двце
сподиню
кнѧзоу
въдадѧ
Лао
домана
единоро
исполовиѧ
хотѣноу
принесо
вотчинни
скорой
народомъ
поутеши
тоудора
агге
крило
крича
слою
товарыщев
двести
##торои
григорьи
григорьевы
занежѣ
просро
ѡбраꙁъ
##новою
июри
##лꙗють
ц҃ри
лошачек
поганꙑ
поганыихъ
степаноу
вѣруемъ
ѥсифа
исковой
история
тереньтеѧ
пребываютъ
помрут
съгрѣшени
##щꙋсѧ
праведный
рьзнь
рьзно
рьзан
никиѳо
прекрасною
цетвьр
цетвете
цетвирти
вѣдая
родовые
кн҃а
кн҃ъ
Добрыни
трьтие
чоло
владыце
поздно
сыщут
монастырьские
лоуди
лоутьѧ
облаци
Станови
морстей
мордоко
колонка
прикащиков
##жѧнъ
цьсть
жалоба
Бедер
довоу
домои
##земка
##роткѣ
телеги
##крѣплѧ
влч
судиямъ
красоте
црк҃ве
игнатко
серебрѧ
помещику
вѣчнаго
богатырская
Цари
надела
оводоки
##нномꙋ
поноров
тверды
силамъ
цолобитье
въспѧть
желѣзен
опасно
ѡстафии
пъкланѧние
ондреевич
сребря
златору
Алешу
Суминъ
Судеб
удару
ѡгнѧ
посылаетъ
священника
священнике
судей
выборного
лѧшьке
ключник
месяць
собакѣ
дияком
ударит
чернилами
цетверете
рѣзане
##ѳиме
дубни
Дружневны
Дружневне
искорми
пятую
ѳом
ѳомоу
Магилену
присълале
носитъ
##ннана
коробье
писмом
##ѣзжай
##ѣзжать
##ровѣе
чудотвор
Многолетное
прокошь
воздание
Азону
ѡвощь
иноземцев
ставке
посула
четвертию
несмыс
поличного
иванъкоу
полоутора
ѧколи
белокамен
Михаилова
136
гривеноу
зелоного
благословил
милосердия
шюба
епископы
ѕвѣріе
рядовых
бобры
бобрꙑ
гледа
варѧгы
лживꙑѧ
Филонъ
соблюди
матьрью
подкоп
жеребчикъ
доспѣсехъ
прибѣгни
сносу
сносе
приезжих
девѧте
Богородице
поцте
исправивъше
бьрковьскь
Великій
нарѧжѧ
##чатамъ
велможа
всадника
возопиша
поверстной
Антиохъ
Антиоше
откупщиком
поѣдите
давꙑжею
дворѧнину
дворѧнине
дьака
стряпчими
отчеству
розъехали
розъеж
приѣхаша
Самсонъ
живоначаль
Печаль
радъка
змѣиному
наследье
зьмлю
ѡнани
багатыря
багатырская
умышлением
гюрьгѣ
Говорила
костини
серьбро
ꙋчините
георе
перелог
грабежь
обещался
жилцы
безбожнаго
ꙩвдо
змеенковъ
см҃рт
молодогь
приимай
сновидови
##ѥвица
Івановича
лазорь
братомо
целомо
целобитиѥ
бо҃го
Подобаетъ
снега
жалуѥшь
Всеславьевичю
Ярославъ
мнозѣхъ
полтиноу
нездꙑле
отьцьви
поворотом
чл҃вци
ѧкимоу
е҅пискоу
спущу
неверному
вхого
куоно
бѣлкѣ
утнеть
спсеніе
кадьць
пропусна
лоньскиѥ
кудри
Роксаною
ѡлговичь
возвѣстиша
цесарь
влд҃кѣ
розобь
торговала
дѣйству
блусти
студен
диꙗлось
дьсѧто
Кандавлусь
пятидесятника
варварꙑ
април҃
отсечь
просоле
поцелу
Нектанаву
хс҃ъ
чертамъ
поклоняется
гривънꙑ
игрꙑ
##б҃ѧ
тешитца
драгоцен
шляпу
Левко
цртвіа
гюрьгеви
прободоша
наимитоу
товаркова
пльсковици
восмьдесят
отпустную
Варфоломей
ослушался
кожюхъ
глядя
коровꙋ
мълъви
мълъвоти
##ритана
Милостивый
платѧце
привязанъ
григориӏ
плисина
домитра
коробѣѧ
плтину
кутузова
рагозину
##словее
хрѣстьѧ
мясое
сороцица
Стефанит
выпися
поклажее
нежиле
прибавливати
бьрьковь
позовници
боудьть
лоукънъ
ꙩндрѣю
лонеского
Конечная
рисунка
коузми
цолобитьѥ
Кандакии
Врионуша
ꙁемь҆
возненавидит
мясным
изосими
##нцифо
чьтвьрть
ѧвлѧютсѧ
оѳими
разрыва
прекословее
тꙑсѧчь
свалился
торжеку
поутру
Смородину
недоборехъ
курьѥго
иванокоу
дъбр
нечестно
бескабално
ѻтдал
татьбах
усадища
прославить
анисье
новъгородьскꙑи
коръвоу
напреди
ѻсподь
микоулѣ
дьвѧти
кнѧгини
бъръзѣ
клюцника
стьпаноу
бѣлонога
бѣлоногъ
турабьѥвѣ
турабьѥвых
Фрагмент
Фрагменты
соловьиному
канцеля
челядинъ
безсудные
дивляшеся
княженецкіи
прилбица
бедрамъ
благословеньице
гр҃вн
квашнина
дунилова
гж҃е
климѧтѣ
пшенки
Горынишшо
полуехт
Кіевскій
станѧте
озеревахъ
геронтиа
вѧтичи
##натцатеро
оурѧдило
людъе
воцарисѧ
ѳьдора
нажирꙋ
татъбоу
куролѣ
клинском
въноухъ
оксиньи
офоносу
пуодуо
бесудную
ньжиль
ньдьлуо
рꙋцьи
пьшьнѣцѣ
члк҃ъ
торпицѧ
перемолотили
вожанъ
възьмъши
роспросным
свезле
шутки
Залатой
Епистимия
##оmin
Богдан
трицеть
голиное
завьть
заамвон
ѳѵміа
шадрина
исоправи
манꙋиле
которꙑѥ
сьрьбра
сьмъке
##ilеmus
390
iubilеmus
¦к¦
ѥрмолѣ
ѥрмълѣ
ѥлбугою
⋮в⋮
топьрьво
сухꙑхо
имоволожѧнъ
безволокитно
страдныѥ
лаидиколѣ
потклѣтѣ
цѣркв҃
шидовицихъ
оводокиѧ
мълъвотицѣхъ
Дꙋ
Едно
Испо
Ю҆
аби
абꙑ
вꙁѧ
гова
еде
мстити
оху
пля
ыном
ясть
ѹстъ
ѹправи
ѿч҃е
##вѵ
##едно
##новыми
##ꙋтъ
##сет
##жнаго
##жского
##ю҄
##бов
##ⸯже
##40
##стника
помъ
поюща
постити
##овꙋ
##гохъ
нат
наги
прве
##енка
нелюб
##нися
##реа
въѡбра
дарове
##тара
приять
пристѫпи
вселѧ
закре
##доми
##неева
рало
расть
нивъ
камы
сожител
проиде
прозрѣ
съгорѣ
##полу
отби
отступ
##дѣ҆
##пиѧ
силоу
##стоꙗ
течаше
пресели
##ряя
реках
велии
##пахъ
рог
роска
вѣстъ
вѣтру
##душ
##мес
пими
живаго
##цево
##овичя
є҆л
##сою
##нѧхъ
сущая
прѣмꙋ
##права
Боюся
всѣдъ
городити
друже
иноку
би҃
пела
сѣдоста
глат
##пухину
писаніѧ
владѣть
рѣче
рѣкѹ
чюжую
бан
##новавъ
##лꙋчи
##стѣх
ѻ҆б
златыя
ѡтдати
розно
рыбъ
поклонити
нашия
нашима
скѫ
Солн
очистить
истины
##ченꙑ
бориска
рѹкою
пріима
конькова
наказанъ
гусли
высость
данил
славных
четырь
любими
полутретья
дьякъ
ꙁемꙿ
другою
врѣмень
нынешнего
Виждь
стоялъ
хощю
остались
предалъ
Весели
ѡбраꙁь
собраніи
вдове
честныя
оставил
микитка
сильныя
крыл
мѡу
изыдоша
##ниѥмъ
спасеніѧ
поваровъ
црь҆
мьстиславль
чрево
вѣчныѧ
пушкарскимъ
въскре
пѡб
пъти
въсталъ
десеть
цѣловати
цѣловали
цѣловалъ
карпа
филипов
ꙁлобѣ
рѧд
ѹ҆бо
подлинные
александру
хранитъ
другимъ
пльти
дяди
володимером
келаря
явлена
третій
Карпъ
ангелы
жертвен
прѣстоль
ѣздили
бѹдѹть
отечества
генварѧ
вещью
исправит
недостоинъ
влъх
ѡбоимъ
покланяются
оц҃ѧ
##деснꙋю
достиже
исполнить
ярославского
налѣзуть
Христосъ
звезда
брусокъ
казначея
магметъ
незлоби
иноческому
гордынею
сборѣ
##емлюще
єдиного
вооружа
отнюд
пограбили
кльнѣте
трѧпе
І҆и҃
тържь
Пламен
претерпѣ
Гри
Кр
Немо
Фо
вписа
итить
мю
новыи
ося
ссе
хіі
ігу
ѹсть
ꙋгг
ꙗвить
##рꙑи
##ꙋстѣ
##шн
##шники
##бнаго
##ѭща
##стень
##стная
##стровъ
посте
поника
##тици
[...]
