#version: 0.2
Ġ Ð
Ð ¾
Ð °
Ð µ
Ð ¸
Ġ Ñ
Ñ Ĥ
Ð¾ Ð
Ñ Ģ
Ð ½
Ñ ģ
Ñ Ĭ
Ð »
Ð ²
ĠÑ ģ
ĠÐ ¸
Ñ Į
Ñ ĥ
Ð ¼
ĠÐ ¿
Ð º
Ð ´
ĠÐ ²
Ñ £
Ñ ĭ
ĠÐ ½
C T
č Ċ
CT X
Ñ ı
ĠÐ ´
ĠÑ Ĥ
Ñģ ÑĤ
ĠÐ º
Ð ³
ĠÐ ±
Ñ Ī
Ñ İ
Ñ ħ
ê Ļ
Ð¾Ð ²
ĠÐ ¼
Ð ·
Ñ ĩ
Ð ±
ĠÐ ¾
Ñ §
ĠÐ½ Ð°
¶ Ðµ
ĠÐ¿ ÑĢ
Ð¾Ð ¼
ÑĤ Ð¸
Ð¾ ÑĢ
ĠÐ ³
Ð ¿
Ð¾Ð »
Ð» Ð¸
Ð½ Ð¸
ÑĢ Ð°
ĠÑ Ģ
Ð» Ð°
ĠÐ½ Ðµ
Ñ Ĩ
Ò Ĩ
C H
Ðµ ÑĤ
Ðµ Ð¼
ĠÐ¿ Ð¾
Ð¾Ð ´
ĠÐ °
ĠÐ ·
ĠÐ µ
Ðµ Ð½
Ð³ Ð¾
Ð² Ð¾
Ðµ ÑĢ
G A
Ñ ī
Ð¾Ð ³
ĠÑ ĩ
Ñ ĸ
ĠÐ »
Ð° ÑĢ
Ð ¶
Ñģ Ðº
Ò ĥ
Ð½ Ð°
ÑĤ ÑĮ
êĻ ĭ
I T
L IT
Ð² Ð°
ĠÑ ĥ
ĠÐ² ÑĬ
Ð½ Ñĭ
Ð¼ ÑĬ
ĠÐ ¶Ðµ
Ðµ Ð»
Ðº Ð°
ĠÐ´ Ð°
ĠÑģ ÑĤ
Ð½ Ð¾
Ñħ ÑĬ
Ñ ¹
Ðº Ð¾
ĠÐ ĺ
Ð¾ ÑĤ
Ð¾Ð ½
Ð ¶Ðµ
Ð¾Ð ±
Ñĥ Ð´
Ð¾ Ñģ
R CH
U RCH
CH URCH
Ð ¹
Ð¸ ÑĤ
E P
I C
EP IC
ĠÐ¿ÑĢ Ð¸
Ð¼ Ð¸
ĠÐ² Ñģ
Ðµ Ð²
Ð´ Ð°
ĠÐ Ĳ
A I
D AI
L Y
DAI LY
Ġ [
GA P
Ð° Ðº
ĠÐ¾ ÑĤ
ĠÑģ Ð²Ð¾
E GA
L EGA
LEGA L
ĠÑ ħ
ÑĪ Ð°
Ð¸ Ð½
ÑģÑĤ ÑĮ
Ð¸ Ð»
ÑĤ Ð¾
Ðµ Ð´
ĠÐ· Ð°
Ð¾Ð³ Ð¾
Ñģ Ñı
ĠÑĢ Ð°
êĻ Ĺ
ĠÑ ¡
Ð° Ð½
ĠÐ½ Ð¸
Ñ ¡
ÑĢ Ðµ
ĠÑ Ĩ
Ð¾Ð º
ÑĢ Ð¸
ÑĪ Ðµ
Ð´ Ðµ
Ð° Ð»
Â ·
Ð° Ð²
ÑĪ Ð¸
C E
C I
E N
S CI
EN CE
SCI ENCE
ĠÑģ Ðµ
Ð¾Ð¼ ÑĬ
ĠÑģ ÑĬ
ÑĢ Ñ£
Ð¾ Ñĥ
ĠÑ ¿
Ð´ Ð¸
êĻ ģ
ĠÐ± Ñĭ
ÑģÑĤ Ð¸
Ðº Ð¸
ĠÑ ı
Ñĩ Ð¸
Ð¾Ð ¶
Ðµ Ñģ
Ð¾Ð ¹
ÑĤ ÑĬ
Ñĩ Ðµ
Ð¾Ð² Ð°
Ñ «
Ġ Â·
êĻ ĳ
Ð¾Ð ·
Ð» Ðµ
Ð¾Ð ¿
Ñī Ðµ
ĠÐ ¶
ĠÐ² Ð¾
ĠÐ± Ð¾
Ðµ Ð»Ð¸
Ð½ Ðµ
ĠÐ» Ñİ
Ð¸ Ð¼
ĠÐ¾ Ñĥ
Ð² Ð¾ÑĢ
ĠÑĤ Ð¾
Ð¸ Ñģ
Ð° ÑĤ
ÐµÐ¼ ÑĬ
Ð¾Ð¼ Ñĥ
ĠÐ¸ Ð»Ð¸
ĠÑģ Ð»
Ð² Ñ£
ĠÐ¿ Ð¾Ð»
Ð½ Ñ£
ĠÐ Ł
ĠÐ ¡
ĠÐ¿Ð¾ Ñģ
Ð¸ ÑĤÐ¸
ÑĨ Ð°
Ð½ Ñı
Ð´ Ñ£
ĠÐ Ĵ
ĠÑģ Ñ§
ĠÐ Ŀ
ÐµÑĤ ÑĮ
ÑĢ Ñĥ
ĠÐ¼ Ð¾
Ð° Ð¼
Ð» ÑĬ
Ð¾Ð ¶Ðµ
ĠÐ¸ Ð·
ĠÐ¸ Ð¼
ÐµÑĤ ÑĬ
ÑĢ Ð¾
Ð½ ÑĬ
Ð² ÑĬ
ĠÑĤ Ðµ
ÑĤ Ð°
ĠÐ¾ Ð±
Ġ :
Ð° Ñģ
ĠÐ³ Ð¾Ñģ
ĠÐµ Ð³Ð¾
ĠÐ² ÐµÐ»Ð¸
Ð² Ð¸
Ð½ Ñĥ
ĠÑĢ Ðµ
ĠÐ± ÑĥÐ´
ĠÐº ÑĬ
Ð¸ Ñħ
Ðº ÑĬ
Ġ êĻĹ
Ñģ Ð¸
ÑĤ Ðµ
Ñĩ Ð°
ĠÐ¿ Ð¾Ð´
Ð» ÑĮ
Ð» Ð¾
ÑĢ ÑĮ
Ñĸ Ðµ
Ð¼ ÑĮ
ĠÑĩ ÑĤÐ¾
Ð½ ÑĮ
ÐºÐ° Ð·
ÑĢ ÑĬ
Ðµ Ð·
ĠÐ² Ñ£
Ð» Ñ£
ĠÐ´ Ð¾
Ðº Ñĥ
ĠÐ ĳ
ĠÐ¿ÑĢ Ð¾
ĠÐº Ð°
Ð¾Ð² Ñ£
Ð° ÑĤÐ¸
ĠÑĨ Ð°ÑĢ
Ð¼ Ñĥ
ĠÑĩ ÐµÐ»
ĠÐ ¢
ĠÑĤ Ð²Ð¾
ĠÐ Ķ
ĠÐ ŀ
ĠÑ Ķ
Ò ĩ
ÑĥÐ´ Ð°ÑĢ
ĠÐ² Ñĭ
ĠÑģÐ²Ð¾ Ðµ
ĠÐ³ ÑĢÐ°
Ð¾Ð² Ð¸
ĠÐº Ð¾
Ñ ¥
Ð» Ñı
ĠÐ´ Ñ£
ĠÐ» Ð¸
Ð¼ Ñ£
â Ģ
ĠÑģ Ñĭ
ĠÐ²Ñģ Ðµ
Ò ħ
ĠÑĢ Ñĥ
ĠÐ· ÐµÐ¼
ĠÐ¼ Ð½
Ñĩ ÑĮ
ĠÑģ Ð¸
ĠÐ³Ð¾Ñģ ÑĥÐ´Ð°ÑĢ
Ñĸ Ð¸
ĠÑ Ī
Ð» Ñİ
ĠÑ ĸ
ÑģÑĤ Ð°
ĠÐ± ÑĢÐ°
ĠÐ ļ
ĠÑĢÐ° Ð·
Ñī Ð°
Ð¾Ð² ÑĬ
Ñ Ħ
ĠÐ¿ Ð¾Ð¼
ĠÐ ľ
ĠÑģ Ð²
ĠÐ¿ÑĢ Ðµ
Ð¶ Ð¸
Ð´ Ð¾
ÐµÐ½ ÑĮ
Ñī Ð¸
ÑģÑĤ Ð°Ð²
ÑģÑĤ Ð¾
Ð¾ÑĢ Ð¾Ð´
Ð± Ñ£
ĠÐ¿ ÐµÑĢ
ĠÐº Ð°Ðº
ĠÐ¼ Ð¸
ĠÑĤ Ð°
ĠÑĤ Ð°Ðº
ĠÐ¿ Ð¾Ðº
ĠÐº Ð¾ÑĤ
ĠÐ´ Ð¾Ð±
ÑģÐº Ð¸
Ð¿ Ð¾Ð´
ĠÐº Ð½Ñı
ĠÑ ¥
Ð± Ð¾
Ð¼ Ð°
ĠÐ² Ð¸
Ð³ Ð°
ĠÐºÐ¾ÑĤ Ð¾ÑĢ
Ð¾Ð² Ð¾
Ð¾Ð² Ðµ
ĠÐ¸ Ñģ
ÑĢ Ñĭ
ĠÐ² Ð¾Ð·
ÑĪ ÑĮ
Ð´ ÑĬ
ĠÑģ Ð¾
ÑĨ Ðµ
ĠÑĤ Ñĭ
ĠÐµ ÑģÑĤÑĮ
Ð½Ð¸ Ðµ
ĠÐ¶ Ð¸
Ð»Ð° Ð²
Ð¾Ð» ÑĮ
ÑĨ Ð¸
Ð´ Ñĥ
ĠÑĤ Ð¸
ÑģÑĤ Ð²
ĠÑĤ Ð¾Ð³Ð¾
Ñģ Ñ§
Ñģ Ð»
ĠÐ¼ Ñ£
Ð± Ð¸
Ð¶ Ð°
Ġ âĢ
Ġ ,
Ġ .
ÑģÐº Ð°
ÑģÑĤ Ñĭ
ĠÐºÐ½Ñı Ð·
ĠÐ¾ÑĤ ÑĬ
ĠÑ Ħ
ÑĢ Ñı
ĠÐ± Ñ£
ĠÐº Ð¾Ð½
Ð± Ðµ
ĠÐ» Ñ£
ĠÐ² ÑĮ
ĠÑ ¹
Ð¾Ð² Ñĭ
ĠÑĤ Ñ£
Ð»Ð° Ð³
ĠÐ´ ÐµÑĢ
Ð¸ ÑĤÑĮ
ĠÐ ĵ
Ñĥ Ð¿
ĠÐ² Ð¾Ð»
â ¸
ĠÐ¿ Ñĥ
Ð½ Ñ§
Ð² ÑĮ
Ġ êĻģ
ĠÑģÐ²Ð¾ Ð¸
êĻ ¿
Ñı ÑĤ
ĠÐº Ð¾ÑĢ
ĠÐ¿ Ð°
ĠÐ± ÐµÐ·
ĠÐ¿ÑĢ Ñ£
ĠÐ²Ñģ Ñ§
ÑĨ Ñĭ
ĠÐ½ Ð¾
Ð´ ÑĮ
Ð² ÐµÑĢ
Ð´ Ñĭ
ĠÑģÑĤ Ð°ÑĢ
Ġ êĻ
Ð¾Ð» Ð¸
ĠÐµ Ð¼Ñĥ
ĠÑģ Ð°
Ð¼ Ð¾ÑĤ
ÑģÑĤ Ð²Ð¾
Ñĥ Ñİ
ĠÐ± Ð¾Ð³
Ð² Ñĭ
Ðµ Ð¹
ĠÐ² Ð°
ĠÑı ÐºÐ¾
Ñħ Ð°
Ð¾ Ñİ
ĠÑģ Ñı
ĠÐ¸ Ñħ
ĠÐ¸ Ð²Ð°
ĠÑģ Ðº
Ñ Ĺ
ĠÐ ķ
ĠÑģ Ð¿
ÐµÐ² Ð¸
Ð½Ð¾ Ðµ
Ðµ Ð½Ð¸
Ð» ÐµÐ½
ĠÐ¼ Ðµ
ĠÐ³ ÑĢÐ¸
Ð½Ñĭ Ðµ
ĠâĢ Ķ
Ð± Ñĭ
Ð½Ñĭ Ñħ
Ðµ ÑĨ
Ñ Ķ
ĠÐ² Ð°Ñģ
ÐµÐ¼ Ñĥ
Ð¸ÑĤ ÑĬ
Ð½Ð¸ Ðº
ĠÐºÐ°Ðº ÑĬ
ĠÐ² ÐµÐ»
ĠÐ·Ð° Ð¿
Ð» Ñ§
ĠÐĿ Ðµ
ĠÐ² Ð·
Ñģ Ðµ
ĠÐ²Ñģ Ñ£
ĠÐ½ Ñ£
Ð³ Ð¸
ĠÐ´ Ðµ
ĠÐ½Ð° Ð¿
ĠÐ²ÐµÐ»Ð¸ Ðº
Ð² Ðµ
Ñģ Ð°
ÐµÐ¼ ÑĮ
Ð¶ ÑĮ
Ñħ Ð¾Ð´
Ð¸Ð½ Ñĥ
ÑĨ Ñ£
Ð¾ Ðµ
Ð¸Ð» ÑĬ
ĠÐ²ÑĬ Ð·
Ð¾Ð½ Ð°
ĠÐĶ Ð°
ĠÐ¼ Ð¾Ð»
Ð³ Ñ¡
ÐµÐ½ ÑĬ
ĠÑĥ ÐºÐ°Ð·
Ð°Ð» ÑĬ
Ð¾Ð¶ Ð¸
Ġ êĻĭ
ĠÐ¿ Ð¾ÑĢ
Ð¾Ð´ Ð°
ĠÐ¿ Ð¸Ñģ
ĠÐ±ÑĥÐ´ ÐµÑĤ
ÐµÐ½ Ðµ
Ñģ ÑĬ
Ð³ Ð´Ð°
Ð½Ð° Ð³Ð¾
Ð¸ÑĤ Ðµ
ĠÐ¿ Ð¾Ð²
Ñĸ Ð°
ĠÐºÐ¾ÑĤÐ¾ÑĢ Ñĭ
ÐµÑĢ Ðµ
ĠÐ´ Ð²Ð¾ÑĢ
ĠÑģÑĤ ÑĢÐ°
ÑģÑĤ ÑĬ
Ð¼ Ð¾
ĠÐ²Ñģ Ñı
ĠÐº ÑĤÐ¾
ĠÐ¿Ð¾ ÑĤ
ÑĢÐ° Ð²
Ñģ Ñ£
Ð· ÑĬ
ÐµÐ» ÑĮ
Ñĥ ÑĤ
ĠÑĢÐµ ÑĩÐµ
Ò Ħ
ÐµÐ½ Ð°
ĠÑģ Ð¾Ð±
ĠÐ¿ÑĢ Ð°Ð²
ÐµÑĤ ÑģÑı
ĠÐ³ Ð¾ÑĢÐ¾Ð´
ĠÑ »
ĠÑģ Ð¼
Ð¸Ð» Ð¾
ĠÐ»Ñİ Ð´Ðµ
Ð» Ñĥ
Ñģ ÑĮ
Ð³ ÑĬ
ĠÐ´ ÑĢÑĥ
ĠÐ´ Ñĥ
ĠÐº ÑĢÐ°
ĠÐº ÑĢÐµ
Ġ ÒĨ
ĠÐ¼ Ñĥ
ĠÐ¿ Ð¾Ð³
Ð° Ð·
Ñİ ÑĤ
Ð²Ð° ÑĤÐ¸
Ð¸Ð» ÑĮ
Ð¸ ÑħÑĬ
ĠÑ İ
ĠÑ ķ
ĠÐ³ Ð¾ÑĢ
Ð³ Ñĥ
ĠÑ §
Ðµ Ñħ
ĠÑģ Ñ£
ĠÐ± Ð»
ĠÐ¿ Ð¸
ĠÐ´ÐµÑĢ ÐµÐ²
ĠÑģ Ð°Ð¼
Ð¸ Ð¼ÑĬ
ĠÑģÐ²Ð¾Ðµ Ð³Ð¾
ĠÑĤÐ° ÐºÐ¾
Ñĸ Ñ§
Ðº Ð¾Ð²
Ðº Ð¾Ð¶Ðµ
ĠÐ¼ Ð°
Ð½Ð¾ Ñİ
Ñĩ Ñİ
ĠÑĤ Ð²Ð¾ÑĢ
Ð± Ð°
Ð»Ð°Ð³ Ð¾Ð»
ĠÐ¿ Ð»Ð°
Ðº Ñĭ
ĠÑģ ÑĥÐ´
ĠÐµ Ñģ
ÑĤ Ñĭ
ĠÑĨ ÑĢ
Ð´ Ð¸Ð½
ÑģÑĤ Ðµ
ĠÑģ Ñĥ
Ð°ÑĢ Ð¸
ĠÐ¸ ÑħÑĬ
Ð¿ Ð°
Ð» Ñĭ
ÑĨ ÑĮ
ĠÐ ł
ĠÑĤ Ð¾Ð¼
Ð¿ Ð¸
ĠÐ± ÑĮ
Ñĸ Ñİ
Ð»Ðµ Ðº
ĠÑĩ Ðµ
ĠÐº ÑĢ
ĠÑģÑĤ Ð°
Ñı Ð½
ĠÐ± Ð¾Ð»
ĠÐ¿ Ðµ
ĠÐ¼Ð½ Ð¾Ð³
ĠÐ³ÑĢÐ° Ð¼Ð¾ÑĤ
ĠÑĤ Ñĥ
Ð½ Ð¾Ð¹
ÑĢ ÐµÐ¼
Ð½Ñĭ Ñı
Ð¾ Ð¸
ĠÑĤ Ð¾Ð¼Ñĥ
ÑģÑĤ Ð²Ð°
â¸ ±
Ñ ³
ĠÐ¿Ð¾Ñģ Ð»Ð°
Ð± ÑĢÐ°
Ð· Ñĭ
ÑĮ Ñı
ĠÐ² ÐµÑĢ
² Ĥ
á ²Ĥ
á²Ĥ Ñĥ
Ð¾Ð² Ð¾ÑĢ
ÑĪ ÐºÐ°
ĠÐ Ľ
ĠÐ³ ÑĢ
Ġ á²ĤÑĥ
ĠÐ´ Ð¾Ð¼
Ñı ÑĤÐ¸
Ð½Ñĭ ÑħÑĬ
Ð¾ ÑģÑĤ
Ð° Ð³Ð¾
ĠÑĤÐµ Ð±Ñ£
ĠÐ³ Ð»Ð°Ð³Ð¾Ð»
ĠÐ² Ðµ
Ð°Ð½ Ð´
ĠÐ´ ÑĢ
ĠÑĢ Ð¾Ð´
ĠÐ»Ñİ Ð´
ĠÐº Ñĥ
ĠÑħ Ð¾
ĠÑĤ ÑĢ
ĠÐ³Ð¾Ñģ Ð¿Ð¾Ð´
ĠÐ»Ñİ Ð´Ð¸
ĠêĻĹ ÐºÐ¾
Ð¸Ñħ Ð°
ĠÑĥ Ñĩ
ĠÐ° ÑīÐµ
ĠÑĢÐ° Ð´Ð¸
Ð¼ Ñĭ
ĠÑģ ÑĮ
ĠÐ¸ Ð¼ÑĬ
ĠÐ·ÐµÐ¼ Ð»Ð¸
ĠÐ¿ Ð¾Ð¿
ĠÐĳ Ð¾Ð³
ĠÐ±Ð¾ Ñı
ÐµÐ½ Ð¾
Ð½ Ñİ
Ñģ Ð¿
Ð» ÐµÐ²
ĠÐµ ÑģÐ¸
ĠÐ³ ÑĢÑ£
ĠÐ¼ Ñĭ
ĠÑģÐ» Ñĥ
Ð· Ð°
Ð¼ Ðµ
Ð² Ñĥ
ĠÑĩ ÐµÑĢ
ĠÐ³ Ñģ
ĠÑĤÐ²Ð¾ Ðµ
ĠÑģÑĤ Ð¾
ĠÐ¸Ð²Ð° Ð½
ĠÐ¾ Ð½
ÑģÐº Ð¾Ð³Ð¾
Ñħ Ñĥ
ĠÑħ Ð¾ÑĤ
ĠÐĵ Ð¾Ñģ
Ðº Ð¾Ð¼
Ð¾ÑĤ Ð²Ð¾ÑĢ
Ñģ Ð»Ð°
Ð» Ð¾Ð½
ĠÐĴ ÑĬ
ĠÑģ Ð²Ñ£
Ġ 1
Ð¸ Ð»Ð¸
ĠÑĩ Ð»
ĠÐ² Ð»Ð°
ĠÑĢ Ñ£
ÐµÐ» Ñ£
ÑĤ Ñ£
ĠÐ± Ð³
ĠÐ¿ÑĢ ÐµÐ´
ĠÐ¸Ñģ Ð¿
ĠÑĩ Ð°
Ðµ Ð²Ð°
ĠÐ¼ Ð½Ñ£
ÑĢ Ð¾Ñģ
ĠÐ»ÑİÐ´Ðµ Ð¹
ĠÐ´ ÐµÐ½ÑĮ
ÑĤ Ð²Ð¾ÑĢ
Ó ı
ĠÑĩ ÑĤ
ĠÐ¸ Ð¶Ðµ
Ð½Ñĭ Ð¼
ÑĢ Ñ§
ĠÐ° Ð½
Ð»ÐµÐº Ñģ
ĠÑĩ ÐµÑĤ
ĠÐ¼ Ð°Ð»
Ð± Ñı
ĠÐºÐ° ÐºÐ¾
ĠÐ± ÐµÑģ
ĠÑ ³
â¸ ¯
ĠÐ¿ Ð¾Ð±
ÑĪ ÑĤÐµ
ĠÑħ Ð¾Ð»
ĠÐ¸Ð¼ Ñ£
ĠÐ¼ Ð¸Ð»Ð¾
ĠÐ¿ Ð¾Ð¶
ĠÐ¼Ð¾ Ðµ
ĠÑĨÐ°ÑĢ ÑĮ
ĠÑĩÐµÐ» Ð¾Ð¼
ĠÑģ ÐµÐ¼
ÑĢ Ð¾Ðº
ĠÐ¸ Ð½
ĠÑĩ Ñİ
ĠÐ² Ð¾ÑĤ
ĠÐ½Ðµ Ð³Ð¾
ĠÑģÑĭ Ð½
ĠÐ¼Ð½ Ð¾Ð³Ð¾
ĠÑģÐ²Ð¾ Ñİ
ĠÑĤÐµ Ñħ
Ñı ÑĤÑĮ
ĠÑĩ Ð¸
ĠÑģ Ð¸Ð»
ÐµÐ½ Ñĭ
ĠÑĤ ÑĢÐ¸
ĠÑĥÐºÐ°Ð· Ñ£
Ð»ÐµÐºÑģ Ð°Ð½Ð´
Ð¸ÑĤ Ð°
ĠÐ´ Ð¾Ð²
Ð½Ñĭ Ð¸
ĠÐ¿ÑĢÐ¾ ÑĤÐ¸
ĠÐ±Ñĭ ÑĤÐ¸
ĠÐ± Ðµ
ÑģÐº Ñĭ
ĠÑģÐµ Ð³Ð¾
ÐµÐ» ÑĬ
ĠÑĤ ÐµÐ¼
ĠÐ± Ð»Ð°
ĠÐ²Ð¸ Ð´Ñ£
Ð³ Ð¾ÑĢ
ĠÐ´Ñ£ Ð»Ð°
ĠÐ³Ñģ Ð´
ĠÐ»Ñİ Ð±
ĠÑģÐ» Ð¾Ð²
ĠÐµ Ð¶Ðµ
ÐµÑĤ Ðµ
ĠÐ» Ñĥ
ĠÐ½Ð¸ Ñħ
ĠÑģ ÐµÑĢ
ĠÐ½Ð¸ Ðº
ÐµÐ´ Ð¾ÑĢ
ĠÐ¿ Ð°Ðº
Ñ ķ
ĠÑĩÑĤ Ð¾Ð±
Ð½Ñĭ Ð¼ÑĬ
ĠÐ¿ÑĢ Ð¾Ñģ
ĠÑĩÐµÐ» Ð¾Ð²Ðµ
ĠÐ¸ Ð½Ð¾
Ð½Ð¸ Ñı
ĠÑĤÐ²Ð¾ Ð¸
Ð½Ñĥ Ñİ
Ð½Ð° Ñı
êĻ Ļ
ĠÐ»Ñ£ ÑĤ
ĠÑĤ Ð¾Ð±
ĠÐ³ Ð»
Ð¼ ÐµÐ½
Ð¾ ÑģÑĤÐ¸
ĠÐºÐ° Ð·
ĠÐ¿ÑĢÐ¸ ÐºÐ°Ð·
ĠÐºÐ¾ÑĤÐ¾ÑĢÑĭ Ðµ
ÑĨ Ñĥ
ĠÐ²ÐµÐ»Ð¸ ÐºÐ¸
Ð¾Ð³ Ð´Ð°
êĻĭ Ð´
Ðº Ñ¡
ÑĪ ÑĤ
ĠÐĿ Ð°
ĠÐºÐ½ÑıÐ· ÑĮ
Ð³ Ð¾ÑĢÐ¾Ð´
ĠÐ³ Ð´
ĠÑģ Ð½
Ð½Ð¸ Ð¸
ĠÐ½ Ñĭ
ĠÐ½Ð° ÑĪ
ĠÑħ Ð¾Ð´
Ñİ ÑĤÑĬ
Ð· ÑĮ
ĠÐ·ÐµÐ¼ Ð»Ñİ
Ġ Î
ÑĢ Ð¾Ð¼
ĠÐ± Ð¾ÑĢ
ĠÐĵÐ¾Ñģ Ð¿Ð¾Ð´
ĠÐ± Ð¶
ĠÐ² ÑĢÐµÐ¼
ÐµÐ² ÑĬ
ĠÐ¾ Ð½Ð¸
ĠÑħÐ¾Ð» Ð¾Ð¿
Ðº Ðµ
ĠÐ¼ ÐµÐ½
ĠÑģÑĤ Ð¾ÑĢ
Ð¾Ð² ÑĮ
Ð½Ð¸ ÐºÐ°
ĠÐ¾ Ñģ
Ð¸Ð½ Ðµ
ĠÐº Ð¾Ð³Ð¾
ĠÐ¿ Ð¾Ð½
Ð°ÑĤ Ñĭ
Ð¾Ð² Ñĥ
ĠÐ³ Ð¾Ð´
ĠÐ³ Ð¾Ð»
ÑĢÐµ Ð±
ĠÑģÑĤ ÑĢÑ£
ĠÑĩÐµÐ» Ð¾Ð²Ñ£
ĠÐ¼ Ð¾Ð½Ð°
ĠÐ½Ðµ Ð¿
Ð¸Ñģ Ð°
ĠÐ² ÑĢÐ°
ĠÐ½Ðµ Ð¼
ĠÐº ÑĥÐ¿
ĠÐ Ĺ
ĠÐ½Ð° Ñģ
Ð³ Ð¾Ð´
ĠÐ¸ ÑģÑĤ
ĠÐ² Ð¾Ð´
ĠÑ¡ Ð±
Ñ µ
Ð¾ÑĢ Ð¾
ĠÑı Ð·
ĠÑĢ Ð¾Ð·
Ðµ ÑĪÐ¸
ĠÐ¿ÑĢÐ¸ ÑĪ
ĠÐ¶Ð¸ Ð²Ð¾
ĠÐ±ÑĢÐ° ÑĤ
ĠÐ³Ð¾ÑģÑĥÐ´Ð°ÑĢ ÑĮ
ĠÑ¡ ÑĤ
ĠÐ´ Ð½
ĠÑģÐ» Ñĭ
ĠÐµ Ð¼
ĠÐ³ÑĢÐ¸ Ð²
ĠÑĢÑĥ Ð±
ÑģÑĤ Ñ£
ĠÐ¾ Ð¿
ĠÐº Ð°Ð¼
Ð² ÐµÐ´
ĠÐ² ÐµÑģ
ĠÐ½Ð° Ð¼ÑĬ
ĠÑģÐµ Ð±Ðµ
Ð½ Ð¾Ð¼
ÑĩÐ¸ Ð½Ð¸
ĠÐĲ ÑīÐµ
ĠÑģ Ñ¹
ĠÑ ī
ĠÐ³Ð¾ÑģÑĥÐ´Ð°ÑĢ Ñİ
ĠÐ´ Ð²Ð°
ĠÐ¿Ð¾Ð¼ Ðµ
ĠÑĤ ÑĬ
ÑģÐº Ñĥ
ĠÐ½Ðµ Ð´
ĠÐ¼Ð¾Ð½Ð° ÑģÑĤÑĭ
ĠÑģ Ð»Ð°
ĠÑģ Ð¾ÑĤÐ²Ð¾ÑĢ
Ð° Ð´
ĠÐ³ Ð»Ð°
ÑģÐº Ð¾Ð¹
Ð· Ð¸
Ñ§ ÑĤÑĮ
ĠÐº Ð½Ñ§
ĠÐ· Ð»Ð°
ĠÐĲ Ð»ÐµÐºÑģÐ°Ð½Ð´
ĠÑĤ Ñı
ĠÐ §
ĠÐ²Ð°Ñģ Ð¸Ð»ÑĮ
Ð½ Ð¾Ð³Ð¾
Ð¾Ð½ ÑĬ
Ñ Ń
Ð½Ñĭ Ð¼Ð¸
ĠÐ» Ðµ
ĠÐ· Ð½Ð°
ĠÐ¿Ð¾Ð´ Ð¾Ð±
Ñİ ÑĤÑĮ
ÑĢÐ° ÑĤÐ¸
Ð¾Ðº ÑĬ
ĠÑģ Ð»Ð°Ð²
ĠÐ±Ñĭ Ð»Ð¾
Ðµ Ñİ
ĠÐ¼ Ð¾ÑĢ
ĠÐ¿Ð¾ ÑģÑĤÐ°Ð²
ĠÐ° ÑĢ
ÑģÑĤÑĮ Ñı
Ñħ Ð¾
ĠÑħ ÑĢÐ°
ĠÐ¼ Ð°ÑĤ
ĠÐºÐ½ÑıÐ· Ñı
ĠÐ· Ð°Ðº
ĠÐ´ ÑĮ
ÑģÐº Ð¾Ð¼
ĠÐ¼ Ñ§
ĠÐ £
ĠÑģÐµ Ð±Ñ£
ĠÐº Ð¾Ð»
ĠÐ± êĻĳ
ĠÐº Ð½Ð¸
ĠÐ¾ Ðº
Ð°Ð½ ÑĬ
Ð°Ð» ÑĮ
ĠÑĢÐ°Ð· Ñĥ
ÐµÐ² Ñĭ
ĠÑģÐ° Ð¼ÑĬ
Ñĩ Ð¸Ð½
ĠÐ½Ð° Ð´
Ð°ÑĢ ÑĮ
ĠÐ ¥
Ñī ÐµÐ½
ĠÐ¼ Ð»
ĠÐ¸Ð· ÑĬ
Ð½ Ñ¹
Ð¾Ð¼ ÑĮ
Ð¿ Ñĥ
Òĥ Â·
ĠÐ´Ð¾Ð² ÐµÐ´
ÑģÑĤ ÑĥÐ¿
Ñ§ ÑĤ
Ð½Ñĭ Ð¹
ĠÑĤ Ð¾ÑĤ
ĠÐ±ÑĥÐ´ ÐµÑĤÑĬ
ĠÐ¼ Ð¸ÑħÐ°
ÑģÐºÐ° Ð³Ð¾
Ð½Ð¸ ÐºÑĬ
ĠÐ²ÑģÐµ Ð°
Ð¸Ð¼ Ð°
ÐµÐ´ ÑĬ
ÑĤ Ð¾ÑĢ
ĠÐ± Ð»Ð°Ð³
Ðµ Ð¸
Ñħ Ð¸
Ð½ êĻĭ
ÑĪ Ðº
Ñī ÑĮ
ĠÐ´ Ð»Ñı
ĠêĻ ĩ
ĠÑģÐ» Ð¾Ð²Ð¾
ÑģÐº Ð¾Ð¼Ñĥ
ĠÑĢ Ñĭ
Ð¸ Ð»Ð°
ĠÐµ Ð´Ð¸Ð½
Ð½ Ð¾Ð¼Ñĥ
Ñİ ÑīÐµ
ÑĢ Ð¾Ð¿
ĠÑĢÑĥ ÑģÐ¸
ĠÐ¼Ð¾ Ð¸
Ðº ÑĢÐ°
ĠÑģÑĭ Ð½Ð°
ĠÐ¾ Ð½ÑĬ
ĠÐŁ Ð¾
ĠÐ¿ Ð»
ĠÐ±Ð¾Ñı ÑĢ
ĠÐ¾ Ð³
Ġ -
Ñĸ Ñı
Ð¸ Ð´Ðµ
ĠÐ¿Ð¾Ð² ÐµÐ»Ñ£
Ð¾Ð´ Ñ£
ĠÐ±Ñĭ Ð²Ð°
ĠÐ¿ ÐµÑĤ
Ð± ÑĮ
ÑģÐº Ð¾Ðµ
Ð´Ð¾ ÑĪÐ°
ĠÐ· Ð´
ĠÑģÑĬ ÑĤÐ²Ð¾ÑĢ
ĠÑģ Ð¾Ð»
ĠÎ ¹
ĠÐ½Ð° ÑĪÐµ
ÑĪ ÑĤÐ¸
ĠÑģÐ¼ ÐµÑĢ
ĠÑģÑĤ Ð°Ð½
ĠÐ´Ð¾Ð± ÑĢ
Ñģ Ñĭ
Ð¸ Ð½Ð°
ÐµÑĤ Ð°
ĠÐ½Ð° ÑĪÐ¸
Ðº Ð¾Ð¼ÑĬ
Ð½Ð¾ Ñĥ
ĠÐ¿Ð¾Ðº Ð»Ð¾Ð½
ĠÑģ ÐµÐ»
ÑģÐºÐ¸ Ðµ
ĠÑģÐ»Ð¾Ð² ÐµÑģ
ÑĪ Ñĥ
ĠÑĨÐ°ÑĢ Ñİ
ĠÐ¼ ÑĮ
ÑĢÑ£ Ð¿
ĠÐ´Ð¾Ð²ÐµÐ´ ÐµÑĤÑģÑı
ĠÐ¿Ð¾ ÑĪ
Ð¸ Ð´
Ð¾Ð³ Ð°
Ð°Ð½ ÑĮ
ĠÐ±Ñĭ ÑģÑĤÑĮ
Ð¶ ÑĬ
ĠÐ´ Ð¸
ÐµÑĢ Ð¸
Ð½ ÑĸÐµ
ĠÐ¿ Ñ£
ĠÐ¡ Ðµ
Ð¸Ð½ ÑĬ
ĠÐ¿ÐµÑĢ Ðµ
ÑĢ ÐµÐ´
Ð¿ Ñ£
ĠÐ²Ñģ ÐµÐ¼
ÐµÐ² Ñĥ
ĠÑ ł
Ð¾Ð²Ð° ÑĤÐ¸
Ð½Ñĥ ÑĤ
ĠÐ¶Ðµ Ð½Ð°
ĠÐ¼Ð¾ ÑģÐº
ĠÑĤ Ñ§
Ð° ÑĪÐµ
Ð¾Ð²Ð¸ Ñĩ
ĠÐ²ÐµÐ»Ð¸Ðº Ð¾Ð³Ð¾
ÑĪ ÐµÐ½
Ð´Ð° ÑĤÐ¸
ĠÐ ¯
ÐºÐ¾ Ñİ
ĠÑĤÐµ Ð±Ðµ
ĠÐ³ Ð¾Ð²Ð¾ÑĢ
ÐµÑĨ ÑĬ
ÑĤ Ð²
ĠÐ²ÑģÑı ÐºÐ¸
ĠÑ £
Ð° ÐºÐ¾
Ð½ ÐµÑģ
ĠÑĦ ÐµÐ´Ð¾ÑĢ
ĠÐ´ Ð¾Ð»
Ð± ÑĬ
Ñ¹ Ð´
ĠÑĤ Ð¾Ð¼ÑĬ
ĠÐ½Ð° ÐºÐ°Ð·
ĠÐ²Ð¾Ð» Ð¾Ð´
Ð² ÑĪÐµ
ĠÐ´ ÐµÐ»
ĠÐ¸Ð¼ Ð°
ĠÐ½ ÑĬ
Ñĩ ÐµÐ½
ĠÑĩÐµÑĤ Ð²ÐµÑĢ
ĠÐ¼ ÑĬ
Ð¸Ð¼ ÑĮ
Ð°ÑĢ Ñı
ĠÐ± Ð°
Ð½ êĻĳ
ĠÐ´Ð¾Ð± ÑĢÑĭ
ÑĤ Ñĥ
Ñģ Ð»Ð°Ð²
ĠÑĩ Ð¸Ñģ
Ñİ Ñī
ĠÐ½Ðµ Ð±
ĠÑģÐ² ÑıÑĤ
ÑģÑĤ ÑĢÐ¾
ĠÐº Ð¾Ñĥ
Ð² Ð¾Ð»
ÐµÑĢ ÑĮ
Ð¾Ð½ ÑĮ
ĠÐ²Ð¾Ð· Ð¼
ĠÑģÐ»Ñĥ Ð¶
ĠÑĥ ÑĩÐ¸Ð½Ð¸
ĠÐ¼ Ñ¹
ĠÑģÐ»Ñĭ ÑĪÐ°
ĠÐ°Ð½ Ð´
ĠÐĿ Ð¾
ĠÐ± Ð¾Ð»ÑĮ
Ð´ Ñ§
ĠÐ²ÑĬ êĻģ
ĠÐ¼ ÐµÐ½Ðµ
ÑĨ ÑĬ
ĠÐ±ÑĢÐ° ÑĤÑĮ
Ð¸ Ð¼Ð¸
Ð½Ð¾ Ð¸
Ð½Ð¸ ÑĤÐ¸
ĠÑģÑĤ Ð¾Ð»
ĠÐ¾Ð± Ñĭ
ÑĪ ÑĬ
Òĥ :
Ðº Ñ¹
ĠÑĤ Ð¾Ð²
ĠÑģÑĤ Ðµ
ÑĢ Ñİ
ÑģÐº Ð¸Ñħ
ĠÐ¼ Ð°ÑĢ
ĠÐ¿ÑĢ Ð°
Ð²Ð° ÑĤÑĮ
Ð² ÐµÑĤ
ÐºÐ¾ Ðµ
ĠÐ¼ÐµÐ½ Ñı
ÑģÑĤ ÑĢÐ°
ĠÑħ ÑĢÐ¸
ĠÐ±Ð»Ð° Ð³Ð¾
Ð¾ ÑĪÐ°
ĠÐ¸ Ð³Ñĥ
ĠÑĥ Ð±Ð¾
ĠÐ¿ÑĢ Ð¾Ð´Ð°
ĠêĻ ĸ
ĠÐ½ ÑĮ
ĠÐ¿ Ð¾Ð·
ÑĢ Ð¾Ð²
ÑģÑĤ Ð°Ð½
Ñģ Ð»Ð¸
Ð¶ Ð´Ðµ
ĠÑĩ ÑĮ
ĠÑĤ ÑĮ
Ð°Ð² ÑĬ
ĠÐ¶ Ð°Ð»
Ñħ ÑĮ
ĠÐ¿Ð¾Ð´ ÑĬ
ĠÑĨ ÐµÑĢ
ĠÐ² Ð¾Ñģ
ĠÑ¥ Ð³Ð¾
ĠÑģ êĻĭ
ĠÐºÐ¾ÑĢ Ð¾Ð»
ĠÑĤ Ð¾ÑĢ
ĠÐ¿Ð¾Ð» Ð¾
Ð¿ Ð¸Ñģ
Ð¸ ÑĪÐ°
ĠÐ¿Ð¾Ð¶ Ð°Ð»
ĠÐ²ÐµÐ»Ð¸ ÐºÐ°
Ð½ Ð¾Ð¼ÑĬ
Ð¸ÑĤ ÐµÐ»
ĠÐ¡ ÑĤ
ĠÐ± Ð¸ÑĤÐ¸
ĠÐ±ÑĥÐ´ ÐµÑĤÑĮ
Ð¼ êĻĭ
ĠÐ²Ñģ Ð¸
Ðº Ð¾Ð³Ð¾
ĠÐ½ Ð¾Ð²
Ð» Ð¾Ð²
Ð¸ Ð¸
ĠÑĨ Ñ£
ĠÐ¿Ð¾ Ñĩ
ÑģÐº Ð¾Ð¸
ĠÐ¾Ð± ÑĢÐ°
ĠÐ´ ÐµÑĤ
Ð´ êĻĭ
ĠÐ½Ð° Ñĩ
ĠÐ¼ Ð¾Ð¶Ðµ
ĠÐ½Ð° ÑģÑĬ
ĠÐ¿Ð¸Ñģ Ð°
ĠÑĨÐ°ÑĢ Ñı
Ð¾ ÑģÑĤÑĮ
Ð»Ð° Ð´
ĠÐ¿ÑĢ Ð¾Ð¼
Ñ§ ÑĤÐ¸
Ðº Ñ£
ĠÐ¼Ñ£ ÑģÑĤÐ¾
ĠÐ¼ Ð¾Ð³
ĠÑģÐ²Ð¾Ð¸ ÑħÑĬ
Ñģ Ñĥ
ĠÑĤ Ð°Ð¼
Ð¼ Ð¸ÑĤ
Ð± Ñĥ
ĠÑģ ÐºÐ°Ð·
ĠÑĤ Ð¾Ð¹
Ð¾Ð¶ ÑĮ
ĠÐ¸ ÑģÐº
ĠÑĢ Ð¾Ñģ
Ð³ Ñĭ
Ð¾Ð¶ Ð°
ĠÑģÐ²Ð¾Ð¸ Ð¼ÑĬ
ĠÑĩÐµÐ» Ð¾Ð±
Ġ Óı
Ñħ Ð¾Ð¼ÑĬ
ĠÐµ Ð³Ð´Ð°
ĠÑĥ Ð¼
ĠÑĪ Ðµ
Ð³ ÑĢÐ°
ĠÐ¼ êĻĭ
Ð½Ð¸ ÐºÐ¸
ĠÑĢÐ° êĻģ
ĠÐµ Ð´Ð¸
Ð½ ÐµÐ½
ĠÑģÐ²Ð¾ Ð¸Ñħ
ĠÐ´Ð¾Ð± ÑĢÐ¾
ĠÐ¿Ðµ Ñĩ
Ð¶ Ð°ÑĤÐ¸
Ð°ÑĢ Ñĭ
ÐµÑĢ ÑĬ
ĠÑĢÐµ Ñĩ
ĠÐ²Ð¾ ÐµÐ²
ĠÐ± êĻĭÐ´
ĠÐ¿Ð¾Ñģ Ð»
ĠÐ±Ð¾Ð³ Ð°ÑĤÑĭ
ĠÐ¾ Ð´
ĠÑĥ Ð±
ĠÑĤÐ°Ðº ÑĬ
Ñħ êĻĭ
ÑģÐ» Ñģ
ĠÐ¿Ð° ÑĩÐµ
ĠÐ± Ð»Ð¸
ĠÐº Ð¸
Ð²Ð° Ð½
ĠÐ²Ð¾Ð»Ð¾Ð´ Ð¸Ð¼
ĠÐµ Ð²Ð¾
ÑĤÐ¸ ÑĤÐ¸
ĠÑĩÐ» Ð¾Ð²Ñ£
ĠÐ³ÑĢÐ° Ð´
ĠÐ²Ð° Ð¼ÑĬ
ĠÐº ÑĢÑ£Ð¿
ĠÐ¿ Ð°ÑĤ
Ð¾ÑĤ Ð°
ĠÐ² Ð¾ÑĢ
ĠÐ¼ Ð¸ÑĤ
Ð²Ð° Ð»Ð¸
ÑģÐº ÑĥÑİ
ĠÐºÑĢÐ° Ñģ
ĠÐºÐ½ÑıÐ· Ñİ
ĠÐ´ Ð²
Ð± Ð¾ÑĢ
ĠÐ´ÐµÑĢÐµÐ² Ð½Ñı
ĠÑģÐ²Ð¾ Ñ¥
ÑĪ ÐºÐ¸
ĠÐ½Ð¸ Ð¼ÑĬ
ĠÐ² Ð¿
Ġ Ò
ĠÐµ Ñı
ĠÐº Ð¾Ð¼Ñĥ
Ð¸ ÑĪÐ¸
Ð½ Ñĸ
ĠÐ¾ ÑĩÐ¸
ÑĢ êĻĭ
Ð¾Ð² Ð°Ð»
Ðµ Ð¶Ðµ
ĠÐ¿Ð¾ Ñħ
Ð¾Ð²Ð¸ ÑĩÐ°
ĠÐ½Ð¸ ÑħÑĬ
Ðº Ð¾Ð²Ð°
ĠÑģ ÐºÐ°
ĠÑı ÐºÐ¾Ð¶Ðµ
ĠÐ¿Ð¾Ñģ Ð»Ñ£
Ð² Ð¾Ð´
ĠÐ¼Ð¸Ð»Ð¾ ÑģÑĤÐ¸
Ð¾Ð»ÑĮ ÐºÐ¾
Ð¾Ð²Ñ£ Ð´Ð°
ĠÐ»ÑİÐ´ ÐµÐ¼
ĠÐ¿ÑĢÐ¾ÑĤÐ¸ Ð²
Ðº êĻĭ
Ð½Ð¸ Ñİ
ĠÐ¾ÑĤ Ð´Ð°
ĠÐ¶Ð¸ Ð²
Ð¸Ð½ ÑĮ
ĠÐ½Ð° ÑĩÐ°
ĠÐ¿Ñĥ ÑģÑĤÐ¾
ĠÑĢÑĥÑģÐ¸ Ð¸
ÑĹ Ðµ
ĠÐ¸Ð¼ Ð°ÑĤÐ¸
ĠÑı Ð´
Ð² ÑĢÐ°
ĠÐ¿Ð¾Ðº Ð°
ÑģÑĤÐ² Ñĥ
Ð¸Ð¼ Ð¾
Ð¾Ð» Ñ£
ĠÒ Ĥ
ĠÑĢ Ð¸
ÐµÑĨ ÑĮ
Ð³ Ð¾Ð¶Ðµ
ĠÑĤ ÑĢÐµ
ĠÑģÐ²Ð¾ ÐµÐ¼Ñĥ
ĠÐ²ÑģÑ£ ÑħÑĬ
Ð²Ð¾ Ðµ
ĠÑĤ Ð¾Ð»
ÑĪ ÑĤÐ°
0 0
ĠÐĿ Ð¸
ĠÐľ Ñĥ
ÑĨ Ñİ
ĠÐ¼ Ð½Ðµ
ĠÐº Ð½
ĠÐŁ ÑĢÐ¸
ĠÐ´ Ð½Ð¸
Ð½ Ð¾Ð²
Ð¸ Ðµ
ĠÑģÐµ Ð±Ñı
ĠÐº ÑĢÑĥ
Ð° Ð»Ð¸
ĠÐ¿Ð¾Ñģ Ð»Ñĥ
ĠÐ² Ð°ÑĢ
Ñħ Ð¾Ð²
ĠÐ° Ð¿
ĠÐ²ÑĢÐµÐ¼ Ñı
ĠÐ³ÑĢÐ¸ Ð³Ð¾ÑĢ
Ð¸ Ñı
Ð¸ÑĤ ÑģÑı
ĠÐ¿ Ð°Ð¼
ÑĨ Ñ§
ĠÐ´ ÑĬ
ĠÐ± ÑĬ
ĠÐ± Ñĥ
ĠÐ´ ÐµÑģ
ĠÐ¿ÑĢ Ñı
ĠÑģÐ²Ð¾Ðµ Ð¹
Ð¶ Ð´Ð°
ĠÐº Ð¾Ð»Ð¸
Ð½ ÐµÑĤ
Ð½Ð¸ ÑĨÐ¸
Ð° Ñħ
ĠÑģÐº Ð¾ÑĢ
ÑĪ Ñİ
ĠÐ²ÐµÐ»Ð¸Ðº Ð¾Ð¼Ñĥ
ĠÐ²Ð¾ÑĤ ÑĩÐ¸
ĠÐ½ÐµÐ± ÐµÑģ
ĠÐ´Ð° ÑĤÐ¸
ĠÑĢ Ñ¹
ÐµÐ½ ÑĸÐµ
ĠÑģÐµ Ð»Ð°
ĠÑģÐ¾Ð± Ð¾Ñİ
Ð» Ð¾Ð¶
ĠÐ²Ð¾ Ð¸Ð½
ĠÑĤ Ð°ÑĤ
ĠÐ²ÑĬ Ñģ
Ð½Ð° Ñ§
ÑģÐ» Ð¾Ð²
ÑĪ ÐºÐ¾
Ð¸Ð½ Ñ£
Ð¾ÑĤ Ñĭ
ĠÐĴ Ð»Ð°
ĠÐĲ Ð¶Ðµ
Ðº ÑĮ
ĠÐ¼ Ñı
ĠÑģÑĭ Ð½ÑĬ
ĠÑĢ êĻĭ
ĠÐ²Ñĭ Ñģ
ÑģÑĤÐ°Ð² Ð¸
Ñģ Ð½Ð¾
ĠÐ¿ÑĢ Ñĸ
ĠÑģÐ²Ð¾Ð¸ Ð¼Ð¸
ĠÐ ¤
ĠÑģÐµÑĢ Ð´
ĠÑģÐ² Ñı
ĠÐ± Ð¸
ĠÐ¶ Ð¸ÑĤÐ¸
ĠÑ ¾
Ð½ Ñ«
Ð³ Ð½Ð°
ĠÐ¿Ð°Ðº Ñĭ
ĠÑĤ Ð¾Ð³Ð´Ð°
Ð°Ðº ÑĬ
ĠÑĤÑ£ Ð¼ÑĬ
ĠÐ´ Ð°ÑĢ
ĠÐ± ÐµÑĢÐµ
ĠÐ¿Ð¾ÑĢ Ñĥ
Ð¶ Ð´
ĠÐĺ Ð»ÑĮ
Ñı Ð²
Ñ§ ÑĪÐµ
ĠÑĤÐµ Ð±Ñı
ĠÐ´ Ð¾ÑĢ
ĠÐ³ Ð»Ð°Ð²
ĠÑģ Ð¼Ñ£
ĠÐ¸ Ð´Ðµ
Ð¾Ð» Ð¾
ĠÐ³ Ð½Ñ£
ĠêĻģ Ð°
ĠÑĨ ÐµÐ»
ĠÑĢÐ° Ð´Ð¾
Ñĭ Ñħ
ĠÑĥÑĩ Ð½ÑĥÑĤ
Ð¼ Ñı
ĠÐ±ÑĥÐ´ Ñĥ
ĠÑģ Ñ«
ĠÑĩ Ð°Ñģ
ĠÑĢÐ° Ð±
ĠÐ²Ð°Ñģ Ð¸Ð»
ĠÐ¸ Ð»ÑĮ
Ð½Ð¸ ÑĨÐ°
ÐµÐ» Ðµ
ĠÑĤÐ¾ Ð¸
Ð¾Ð½ Ñĥ
ĠÐ ¦
êĻĳ Ð¸
ĠÐ²ÑģÑ£ Ð¼ÑĬ
ĠÐ¿Ð¾Ð± Ñ£
ĠÐ¿Ð¾Ð¼ Ñĭ
Ð¾Ðº Ð°
ĠÑħ ÑĢ
ĠÐ³ÑĢÐ° Ð´ÑĬ
Ð¶Ðµ Ð½
Ð´ Ñı
Ð¾Ð²Ñĭ Ñħ
Ñĭ Ð¸
ĠÐ¿Ð¾Ð´Ð¾Ð± Ð°
ĠÐ¿Ð¾Ñģ Ð°Ð´
ÑĪ Ñı
Ð¾Ð¶ Ð½Ð¾
Ð»Ð° ÑĤÐ¸
ĠÑĪ Ð¸
Ð° Ð½Ð°
Ð½Ð¸ ÑĨÑĭ
ĠÐ¼Ð¾Ð» Ð¸ÑĤ
Ð¼ Ð¾Ñĥ
ÑĢÐ¾Ð¿ Ð¾Ð»
Ð´ ÐµÑĤÑĮ
Ò į
ĠÐ¶Ðµ Ð½Ñĭ
ĠÐ²Ñ£ ÑĢ
ÐµÐ²Ð¸ Ñĩ
ĠÑģÐ²Ð¾Ðµ Ñİ
ĠÑĤ Ð²
ĠÑı Ð²
Ð´ ÐµÑĤÑĬ
ĠÑĩÑĤÐ¾Ð± ÑĬ
ĠÐºÐ¾Ð½ ÑĮ
ĠÐ´ Ð¾Ð¿
ĠÑı Ð·Ñĭ
ĠÐ³ÑĢÐ° Ð´Ð°
ÐµÐ¼ êĻĭ
ĠÐµÑģ Ð¼Ð¸
Ð¾ÑĤ ÑĬ
ĠÐ»Ñİ Ð±Ð¾
Ġ 2
ĠÐ´Ð¾Ð± ÑĢÐ°
ĠÑħ Ð»Ñ£
ÑģÐº Ð¾
ĠÐ¿Ñĥ ÑĪÐº
ĠÐº Ð¾Ð¿
ĠÐ¾Ð± ÑĬ
ĠêĻ ©
ĠÐľÑĥ ÑĢÐ¾Ð¼
ĠÐºÑĢÐµ ÑģÑĤÑĮÑı
ÐµÐ²Ð¸ ÑĩÐ°
Ð¿ ÑĢÐ°
ĠÑĤ êĻĳ
ÑĨ Ð¾Ð²
ĠÐ¡ ÑĬ
ĠÐŀ ÑĤ
Ð¾ÑĤ Ñ£
Ðº Ð²Ð¸
Ð°Ð½ ÑĸÐµ
ĠÐ° Ð·ÑĬ
ĠÐ½Ð¸ Ð¼Ð¸
Ð³ Ð°ÑĢ
ĠÐ·Ð°Ð¿ Ð°Ñģ
Ñ§ Ñī
ĠÐ¿Ð¾Ñģ Ð»Ðµ
ĠÑĤ ÑĢÐ¾
Ð¶ Ñĥ
ĠÑģÑĤ Ð²Ð¾ÑĢ
ĠÐ¿Ð¾ÑĪ Ð»Ð¸
Ð» Ð¾Ð±
ĠÐ¼Ð° Ð½Ð°
Ê ¼
ĠÐ±ÑĢÐ° ÑĤÐ°
ĠÑĥ ÐµÐ·
ĠÐ² êĻĳ
ÐºÐ¾ Ð¸
ĠÐ¿ÐµÑĢ ÐµÐ´
ĠÐ´ÑĢÑĥ Ð³
Ð¾Ð½ Ð¸
ĠÐ¸Ð²Ð° Ð½Ð°
ĠÐ¿ÑĢÐµ ÑĩÐ¸
ÑģÐºÐ¸ ÑħÑĬ
Ð¾Ð¼ Ð¾
âĢ Ĳ
ĠÐ¿ ÑĮ
ĠÐ½ Ð±
Ñĸ ÐµÐ¼ÑĬ
Ð³ Ð¾Ð²Ð¾ÑĢ
ÐµÐ²Ð¸ ÑĩÑĮ
ĠÐ³ÑĢÐ¸ Ð²ÑĮ
ÑģÑĤÑĮ ÑıÐ½
Ð¾Ð²Ð¸ ÑĩÑİ
Ð¾Ð± ÑĮ
ĠÑģÑĤ Ð°Ð²
ĠÐ ĸ
ĠÐ³ Ñĥ
Ð½Ð° Ð°
ĠÐ±ÑĥÐ´ ÑĥÑĤ
ĠÐĴÐ»Ð° Ð´Ð¸
Ð¾Ð· Ð¸
ĠÑģÑĥ ÑĤÑĮ
Ð°Ð» Ð¾
Ð¾Ð²Ð¸ ÑĩÑĮ
ĠÐ²Ð· Ñı
ĠÐ³Ð¾ÑģÑĥÐ´Ð°ÑĢ Ñı
ĠÐ´Ñ£ Ð»Ð¾
Ð¾Ð¼ Ñ¹
ĠÐĳ Ð¾Ð¶Ð¸
Ð²Ð¾ Ñİ
ĠÐ´Ð° Ð½Ð¸
Ð¾Ð± Ð¾Ð´
Ñĭ Ð¼ÑĬ
ĠÑĢÐµ Ðº
ĠÐ¢ Ð°ÐºÐ¾
ĠÐ¿ÑĢÐ¸ ÑħÐ¾Ð´
ĠÐ¼ Ð°Ðº
ĠÑģÐ¸ ÑĨÐµ
ĠÐ» ÐµÑģ
ĠÑģ Ð¾Ð²
ĠÑģ ÑĢ
ĠÐº Ñ¹
ĠÐ³ Ð´Ñ£
ĠÐµ Ð»Ð¸
ĠÑģÐ» Ñ¹
Ð· Ñ£
ĠÑ¥ Ð¼Ñĥ
Ð°Ð½ Ðµ
ĠÐŁ ÑĢ
ĠÐ´ Ð¼Ð¸ÑĤ
ÑĤ ÑģÑı
ĠÐ¿Ð¾Ðº Ð»Ð°
Ð¸Ð» Ñĥ
ÑĢÐ¾ ÑģÑĤÐ¸
ÑĤ ÐµÐ»
ÑģÐ» Ñĭ
ĠÑģ ÐµÐ´
Ð¾Ð´ ÑĬ
ĠÑĢÐ° Ð´
ĠÐ¾ÑĤ ÑĨÐ°
ĠÑĩÑİ Ð´
- .
ĠÑģÐ²Ð¾ Ñı
ĠÐ³Ð¾ÑģÑĥÐ´Ð°ÑĢ ÐµÐ²Ñĭ
ÐµÐ² Ðµ
Ð¾ÑĢÐ¾Ð´ Ð¸
Ð¾ÑĢ Ð°
ÑĤ ÑĨÐ°
ĠÐ¿Ð¾Ð¼ Ð¾
Ð¿ Ð¾
ĠÐ±Ñĭ Ð»Ð¸
ĠÐ¿Ð°ÑĤ ÑĢÐ¸
ĠÐ¸ êĻģ
ĠÐľ Ð¸ÑħÐ°
ĠÐ²ÑģÐµ Ð³Ð¾
ĠÑĩÐµÑĤ Ñĭ
ÑĥÐ´ Ð¸
ĠÐ¿Ð¾Ñģ Ð°
Ð± Ð°Ð»
Ð³ ÑĢÑ£
ĠÐ» Ð°
ĠÐ²Ð¾ Ð¸
ĠÐºÑĢÐ° Ð»ÐµÐ²
ĠÐĲÐ»ÐµÐºÑģÐ°Ð½Ð´ ÑĢÑĬ
ĠÐ´ Ð¾Ð½
ÐºÐ¾ Ñĥ
Ð± Ð°Ð²
Ñī Ñĥ
ĠÐ·ÐµÐ¼ Ð»Ñı
ĠÐ´ êĻĭ
ĠÑĤÑĢ ÐµÑĤÑĮ
Ð¾Ð» Ñİ
ĠÐ· Ð´Ñ£
Ð¿ ÑĬ
Ñĩ Ð½Ð¾
ĠÐ±Ñĭ Ð»Ð°
ĠÐ½Ðµ Ð¼Ñĥ
ĠÑĢÑĥÐ± Ð»ÐµÐ²
ĠÐ¼Ð¾Ð½Ð°ÑģÑĤÑĭ ÑĢÑı
ĠÐ¿ êĻĭ
ĠêĻĹ ÐºÐ¾Ð¶Ðµ
ĠÑĤÐ¾Ð± Ð¾Ñİ
ĠÐľ Ð¾
ÐµÐ¼ Ð°
ĠÑ¡ Ñģ
Ð¼ Ñ§
ĠÑģÐ² Ð¾Ð¹
ĠÑĤÑ£ ÑħÑĬ
ĠÐº êĻĭ
Ðº Ð¾Ð¹
Ð³ Ð³
ÑģÑĤ ÑĢ
ĠÐ¾ÑĤ Ð¿Ñĥ
ĠÐ¼Ð¾ÑģÐº Ð¾Ð²
ĠÐĳÐ¾Ð³ Ð°
ĠÐ´ ÑĮÑı
ĠÑĢÐ°Ð·Ñĥ Ð¼Ñ£
ĠÐ¼ Ð¾Ð¹
ÑĤ ÑĢ
ĠÐ´ Ð¾Ð¼ÑĬ
Ð°ÑĤ Ð°
ĠÐ½Ðµ Ð¸
ĠÑĪ ÑĤÐ¾
ÑĪ Ñ«
ĠÐ¿Ð°ÑĤÑĢÐ¸ Ð°ÑĢ
ĠÐ¼ ÑĥÐ´
ĠÐ½ êĻĳ
ĠÑĤÐ²Ð¾Ðµ Ð³Ð¾
. ,
ĠÐ¿ Ð°Ð²
ĠÐ¾Ñĥ Ð±Ð¾
ĠÐ½Ð°ÑĪÐµ Ð³Ð¾
Ð±Ñĭ Ð²Ð°
Ġ â
ĠÐ¾ÑĤ Ð²ÐµÑĤ
ĠÐ· ÑĬ
ÑĪÑĤ Ñı
Ðº Ð¾Ð²ÑĬ
Ð¾Ð½ Ñĭ
Ð¼ Ñ¹
ĠÐ¼Ñ£ ÑģÑĤÐ°
Ð³ Ñ¹
ĠÐ²Ñģ ÐµÐ¼ÑĬ
ĠÐ³ Ð°
ĠÑģÐ° Ð¼Ð¸
ĠÑģ Ð¾Ñĥ
Ð²Ð° Ð»ÑĬ
ĠÑĥ Ð³Ð¾Ð´
ĠÐ½Ð° Ð¼
Ñİ ÑīÐ¸
ĠÐ´Ð¾ ÑģÑĤÐ¾
ÑģÐº Ð¸Ð¼
Ðµ ÑĤÐ¸
ĠÑģ Ð½Ð°
Ð· Ñĥ
ĠÐ½Ðµ Ð¼ÑĬ
êĻģ Ð°
ĠÑĩÐµÐ» Ð¾Ð¼ÑĬ
ĠÐ½Ð°Ð´ Ð¾Ð±
- -
ĠÐ´Ðµ Ð»Ð°
ĠÐ¢ Ð¾
ĠÐ¿Ð¾Ð» ÑĬ
ĠÐ±ÑĥÐ´ Ð¸
ĠÐ´Ð° Ð»
ĠÐ½Ð°Ð¿ Ð¸ÑģÐ°
ĠÐ¸Ð¼ ÐµÐ½
Ð± Ñ¡
Ð¾Ð» ÑĬ
ĠÐ³ Ð¾
ĠêĻģ ÐµÐ¼
ĠÐ»Ñİ Ð´ÑĮ
ĠÐ²ÑģÐµ Ð³Ð´Ð°
ĠÐºÑĢÐµ ÑģÑĤÑĮÑıÐ½
ĠÐ½Ð¸ ÐºÐ°
Ð» Ð¾Ð¶Ð¸
Ð°ÑĢ ÑĬ
Ð½ ÑĸÐ¸
ĠÐ¢ Ñ£
ĠÑĩÐµÐ»Ð¾Ð± Ð¸ÑĤ
ÑĤ Ð¾Ð¶Ðµ
Ñİ ÑĢ
Ð¾Ð¼ êĻĭ
ĠÑģ Ð¼Ð¾ÑĤ
ĠÐ² Ð½Ð¸
ĠÐ² Ð´
ĠÐº Ð»Ð°
ÑĢ ÑĤ
Ð¾Ðº Ð¾
ĠÐ¶ Ð¸ÑĤ
ĠÐ±ÑĢÐ° ÑĤÐ¸
ÑģÐº Ð¾ÑĢ
ĠÐ²Ð° ÑĪÐµ
âĢ Ŀ
ĠÐ²Ð°Ñģ ÑĬ
Ðº Ð¾Ð¼Ñĥ
ĠÐµ ÑīÐµ
ĠÐºÐ½Ñ§ Ð·
ĠÐ°ÑĢ Ñħ
Ð¾Ð½ Ðµ
ĠÐ² ÐµÐ´
ĠâĢ Ĳ
Ñĭ Ð¹
ĠÐµ Ð´
ĠÐ° ÑĪÑĤÐµ
ĠÐ¸Ð¼ Ñı
ĠÐ½ Ð¾Ð³
ÑĨ ÐºÐ¸
ĠÐ¿Ð¾ Ð¸
ĠÐĵÐ¾ÑģÐ¿Ð¾Ð´ ÑĮ
ĠÐ² ÑĢÑ£
Ð½Ð¸ ÐºÑĥ
ĠÑĨÑĢ Ðº
ĠÐ³ Ð½
Ñ£ Ð¸
ĠÐ´ ÐµÐ²
Ð¾ÑĢ Ð¸
ĠÐļ Ð¸
ĠÐ¼Ð¾Ðµ Ð³Ð¾
ĠÐ¸Ð³Ñĥ Ð¼ÐµÐ½
ĠÐ¿Ð¾Ð» Ðµ
ĠÐ´ Ð¾Ñģ
Ð² ÑĢÐ°ÑĤÐ¸
ÑĢÐ° Ð½
ĠÐ±Ñĭ Ð»ÑĬ
ĠÐµÑģ Ð¼ÑĮ
ĠÑĥÐºÐ°Ð· Ñĥ
Ð² ÑĪÐ¸
ĠÐ¼ ÐµÑĢ
Ñı ÑĤÑĬ
ĠÐ´ÐµÑĢÐµÐ² Ð½Ð¸
ĠÐ³ÑĢÐ°Ð¼Ð¾ÑĤ Ñĭ
ÑĮ Ñĸ
ĠÐ¼ Ð¸Ð»
ĠÐ¿Ð¾Ð¼ Ñ£
ĠÑĤÐ°Ð¼ Ð¾
ĠÐºÐ° Ð±Ð°Ð»
ĠÐ½Ñĭ Ð½Ðµ
Ñĭ Ñı
Ð½ Ð¾Ð²Ð°
Ñ£ Ð·
Ñĩ Ð¸Ð½Ñĥ
ĠÐ°Ð½Ð´ ÑĢÑ£
Ġ 3
Ð´ ÐµÑĤ
ĠÐ¼Ð°Ð» Ð¾
Ñĭ Ðµ
ĠÐ¸Ð¼Ñ£ ÑĤÐ¸
ĠÑĩÐµÐ»Ð¾Ð²Ðµ ÐºÐ°
ĠÐ¿Ð¾Ð½ ÐµÐ¶Ðµ
Ð¾Ñģ Ð¸
Ð³ Ð¾Ð²
ĠÑģ êĻĻ
ÑģÐºÐ¸ Ð¼ÑĬ
ĠÐ¿Ð¾Ð´ Ð°
ĠÐ¸Ð»ÑĮ Ð¸
Ð½Ð° Ð°Ð³Ð¾
Ñİ ÑīÐ°
Ð»Ñı ÑĤÐ¸
Ð¾Ð¼ Ð°
ÑĥÐ´ Ð°
ĠÑģ ÐµÐ¼ÑĮ
Ð½Ð¸ Ñ¥
Ð½Ð¸Ðº Ð¾Ð²
ĠÐ·Ð°Ð¿ Ð¸Ñģ
ÑģÑĤ Ñĥ
ĠÑ «
ĠÐ¼Ð°Ð½Ð° ÑģÑĤÑĭ
ÑĹ Ð¸
ĠÐĹ Ð°
ÑĪÐ° Ð³Ð¾
ĠÑĥ ÑģÑĤÑĢÐ¾
Ñĭ Ð¼
ĠÑĢ Ð¶Ð¸
ĠÐ¿ÑĢÐ¸ ÑģÑĤÐ°Ð²
ĠÐŁ Ð¾ÑĤ
Ð± Ð»Ð¸
ĠÑģÐ¿ Ð°Ñģ
ĠÐ²Ð¾ÑĤ ÑĩÐ¸Ð½
Ð´ Ñ¹
ÑĨ ÐµÐ¼ÑĬ
ĠÑģÐ» Ð¾Ð²Ð°
ĠÑģÑĤÐ° ÑĤÑĮ
ĠÑģÑĤ Ñ£
ĠÐ²Ñģ Ñİ
ÑĹ Ñ§
ĠÐ²ÑĬ Ð´Ð°
ĠÑģ ÐµÑĢÐµ
ĠÐ² Ð¸Ð½
ÐµÐ´ Ð¸
êĻģ ÑĬ
ĠÐĳÐ¾Ð³ ÑĬ
Ð½Ñĭ Ñ§
Ñ£ Ð»Ð¾
ĠÐ¿ÑĢ ÑĸÐ¸
ĠÑħÐ¾ Ñī
ĠÐĶ Ð¾Ð±
ĠÐ³ÑĢÐ°Ð¼Ð¾ÑĤ Ð°
ĠÐ¾ ÑģÑĤÐ°Ð²
ĠÐĳÐ¾Ð³ Ñĥ
Ñĩ ÐµÑĤ
ĠÐ±Ð¾Ð³ Ð°
ĠÐŁ Ð¾Ñģ
ĠÐ²Ð· ÑıÑĤÐ¸
ĠÐ³Ð¾Ð´ Ñĥ
ĠÐ¼Ð¸Ð»Ð¾ ÑģÑĤÑĮ
ÑģÑĤ Ð²Ð¸
ĠÐ³ Ð´Ðµ
Ðµ ÑĪÑĮ
ĠÐ´ ÑĪ
ĠÐ¥ ÑĢÐ¸
ĠÐ² Ð¾Ð¹
Ñı ÑĪÐµ
ĠÑħÐ¾ÑĤ Ñ£
ĠÑĤÐ¾Ð± Ñ£
ĠÐ½ Ð¾Ñģ
ĠÐ¾ÑĤÐ²ÐµÑĤ ÑĩÐ¸
ÑĩÐ° Ð»Ð¸
ĠÑģÑĤÐ°Ð½ Ñĥ
ĠÐ´ ÐµÐ½Ðµ
Ð¾Ð² Ð°Ð½
Ñ¡ Ð²ÑĬ
Ð´Ð¸ ÑĤÐ¸
ĠÑģÐ¼ÐµÑĢ ÑĤÐ¸
ĠÐ¿ÑĢÐ¸ ÑģÑĤÑĥÐ¿
ÑĢÐ¾ Ñİ
ĠÐ¿Ð¾ ÑģÑĤ
ĠÑĥÐµÐ· Ð´Ðµ
ĠÐ³ÑģÐ´ ÑĢÑĮ
ĠÐ± Ñ¹Ð´
ĠÑģ Ð¾ÑĢ
ĠÐ Ĩ
ĠÐ½ÐµÐ´ ÑĢÑĥ
ĠÐ¼Ð½ Ñ¡
ĠÐ° Ð»
Ð´Ðµ ÑģÑı
ĠÐ¼Ð¾ Ñı
ĠÐ´Ðµ ÑģÑı
ĠÐ·Ð° Ð½Ðµ
ĠÐ±ÑĮ ÐµÑĤ
Ð¾Ð± Ñĭ
ĠÑĥ Ðº
ĠÐ²Ð¾ÐµÐ² Ð¾Ð´
Ð¿Ð¾Ð´ Ð¾Ð±
Ð³Ð¾ ÑĤ
ÑĥÐ´ Ñĭ
ÑĢ ÐµÐ½
ĠÐ»Ñ£ ÑĤÐ°
Ð¼ ÐµÐ½Ð¸
ÑĢÐ¾ ÑģÑĤÑĮ
ĠÐ² Ð¾Ð´Ð°
ÑĮ Ð¸
ĠÐ²ÑĬ ÑģÑ£
ĠÐ¿ÑĢÐµÑĩÐ¸ ÑģÑĤÑĭ
ĠÑģÐ²Ð¾ Ð¸Ð¼
ÐµÐ² Ñ£
ĠÑĩÑĤÐ¾Ð± Ñĭ
ĠÐ·Ð´ Ð¾ÑĢ
ĠÐĴ Ð¾
ĠÐ¿ÑĢÐ¸ Ð²ÐµÐ´
Ð´ ÑĢÐµ
ÑĪ êĻĭ
ĠÐ±ÑĢÐ°ÑĤÑĮ ÐµÑİ
ĠÑĥ Ð´
ĠÐ¿ÑĢ Ð¾Ð¿
ĠÐ±ÐµÐ· ÑĬ
ĠÐ´ÐµÑĢÐµÐ² Ð½Ñİ
ĠÐ¿ÑĢÐ¾ÑĤÐ¸ Ð²Ñĥ
ĠÐ¿ÑĢÐ¸ Ð²
ĠÐ° ÐºÑĭ
ĠÑģÑĤÐµ Ð¿
ĠÐ¾ Ð²
ĠÐ¿Ð°Ðº Ð¸
ÑģÐºÐ¸ Ð¸
ĠÐ¶ ÑĬ
Ġ 7
Ð»Ñ£ Ð·
ĠÐ²Ð¾Ð·Ð¼ Ð¾Ð¶Ð½Ð¾
ĠÐ´ÑĢ êĻĭ
ĠÐĺÐ»ÑĮ Ñı
Ð· Ð´Ð°
ĠÐ¾Ð± ÑĢÑ£
ĠÐ´ Ñħ
ĠÐº Ð¾Ñģ
Ð½Ð¸Ðº Ð¾Ð¼
ÑĢ Ñ¹
ĠÐ¼Ð¸ÑĤ ÑĢÐ¾Ð¿Ð¾Ð»
Ð³ Ð»Ð°
ĠÐĿ ÑĬ
ÐºÑĥ Ñİ
ÐµÑĤ Ð¾
ĠÑģ Ð¾Ðº
ĠÐ¾ Ð½Ð°
ĠÐ¼ ÐµÐ´
Ð°Ð» Ðµ
ĠÐ²Ñĭ ÑĪÐµ
ĠÐ¿Ð¾Ð¼Ðµ ÑģÑĤÑĮÑı
ĠÐ¿ÑĢÐµ Ð¶
ĠÑģÐµÐ¼ ÐµÐ½
ĠÐ±Ð¾ÑĢ Ð¸Ñģ
ĠÐ³ ÑĢÐµ
ĠÑĥÑĩ Ð½ÐµÑĤ
Ñ£ ÑħÑĬ
ĠÐ³ Ð¾ÑĤ
Ð¸ÑĤ Ñĥ
ĠÐ½Ñĭ Ð½Ñ£
ĠÑĤ ÐµÑĢ
ĠÐ¿Ð¾Ð» Ð¾Ð¶
Ð¿ Ðµ
ĠÑģÑĤ ÑĢÐ¾
ĠÑĢÐ°Ð· Ð¼Ñ£
ĠÑģÑĤÑĢÑ£ Ð»ÑĮ
ĠÐķ ÑĢÑĥ
ĠÐ¿Ð¾ Ñĥ
ĠÑİ ÑĢÑĮ
ĠÐ¿ÑĢ Ð¾ÑĢ
ĠÐ§ ÑĤÐ¾
ÑģÐºÐ° Ñı
ĠÐ½Ð° ÑĢÐµ
ÑĪ Ð½Ð¸
Ðµ Ñ¡
ĠÑĤÐ°Ðº Ð¾Ð²Ð°
ÑĩÐµ ÑģÑĤÐ¸
Ð¼ ÐµÐ½Ð°
ĠÐºÐ¾Ð½ Ñı
ĠÐ´ ÐµÐ½
ÑģÐ»Ð° Ð²ÑĬ
Ð¸ ÑĪ
ĠÑ³ ÐµÐ´Ð¾ÑĢ
ĠÐ²ÐµÐ» Ð¼Ð¸
ĠÐ¸Ð»ÑĮÐ¸ ÑĩÑİ
Ð¾Ð²Ñĭ Ð¼
ÑĩÐµ Ð¹
Ð» Ð¾Ð¼ÑĬ
ĠÐ¼Ñ£ ÑģÑĤÑ£
ĠÐ» ÑĮ
ĠÐķ Ð³Ð´Ð°
ÑĢ Ñĸ
ÐºÐ° Ð¼Ð¸
ĠÐ²ÐµÐ»Ð¸ÐºÐ° Ð³Ð¾
ĠÐķÑĢÑĥ ÑģÐ»
ĠÐ¿ÑĢÐµ Ð´Ð°
ĠÐ»ÑİÐ´Ðµ Ð¸
ĠÐľÐ¾ ÑģÐº
ĠÑĢÐ° ÑĤ
ĠÐ¿Ð¾Ð» Ð¾Ð²
Ð± Ð¾Ð¹
ĠÐºÐ¾ÑĤÐ¾ÑĢ Ð¾Ð¹
â ±
ĠÐ±Ð¾Ð³ Ð¾ÑĢÐ¾Ð´Ð¸
ĠÐ½Ð° ÑĢ
ĠÑģÐ²Ð¾Ðµ Ð¸
ĠÐ½Ð¸ Ñĩ
â± ķ
ĠÑģ ÑĢÐ¾Ðº
ĠÐ¿ÑĢÐ°Ð² ÐµÐ´
ĠÐ¿ÑĢ ÐµÐ¼
ĠÑĩÐ¸Ñģ Ð»Ð°
ĠÑĤÐ¾Ð² Ð°ÑĢÑĭ
Ðº êĻĳ
ĠÐ²ÐµÑģ ÑĮ
ĠÐ²ÑĮ ÑģÐµ
ĠÑģ ÐµÐ¼ÑĬ
Ð´ Ð¾Ñĥ
ĠÐ´ Ð²Ñ£
Ð½Ð¸ ÑĤ
ĠÐ¿ÑĢÐ¾Ð¼ Ñĭ
Ñĭ ÑĤ
Ð´Ð¸Ð½ ÑĬ
Ð¿Ð¸ ÑģÐº
ĠÑĩÐµÐ»Ð¾Ð²Ñ£ ÐºÑĬ
ÑĮ Ð¼Ð¸
ĠÑĢÑĥ Ñģ
Ð²Ð° Ð»
Ñ§ ÑĤÑĬ
ĠÐ±Ð¾ ÑĥÐ´
ĠÑ¥ Ñģ
ĠÑģ ÐºÐ¾
ĠÐ¾Ð±ÑĬ ÑıÐ²
ÐºÐ¾Ð² ÑĮ
ĠÐŁ ÐµÑĤ
ĠÐ½Ðµ Ð²Ñ£
ĠÐ½Ð¾Ð² Ð³Ð¾ÑĢÐ¾Ð´
ĠÐ½Ðµ Ð¶Ðµ
ĠÑģÐ²Ð¾ ÐµÐ¼
Ð¾Ð¿ Ð¾Ð»
ĠÐ³Ð¾ÑĢÐ¾Ð´ Ð°
ĠÑĩÐµÐ»Ð¾Ð²Ðµ Ðº
ĠÐºÑĢÐµ Ð¿
Ð° ÑĢÐ°
ĠÐ²Ð¸ Ð´
Ð²Ñ£ ÑīÐ°
ĠÐ½Ð° Ñĥ
Ñĥ Ð±
ĠÐºÐ°Ð¼ ÐµÐ½
ÐºÑĢÐ° Ñģ
ĠÐ¿ÑĥÑģÑĤÐ¾ ÑĪÑĮ
Ñħ Ñ¹
Ð¾Ð» Ð°
Ð¸ÑĤ ÐµÐ»ÑĮ
ĠÐ±Ðµ êĻģ
ĠÑĤÑĭ ÑģÑı
ĠÐ¿Ð¾Ð¶Ð°Ð» Ð¾Ð²Ð°Ð»
Ð»Ð¸ Ð½
Ð¾ÑĢ Ñĥ
ĠÑĤÐ²Ð¾ÑĢ Ð¸ÑĤÐ¸
ÑĤÐ¸ Ð½
Ð»ÐµÐ½ Ð¾
ĠÐ¼ Ñ«
ÐµÐ½ÑĮ Ðµ
Ð½Ð¸ Ð½Ð°
Ñ ¯
ĠÐ½Ðµ Ð¹
ĠÐ¿Ð¾ ÑħÐ¾
ĠÐ´Ðµ ÑĤÐ¸
ĠÐ²ÐµÐ»Ð¸ÐºÐ¸ Ð¹
Ñĩ ÐµÐ½Ð¾
ĠÑģÐ¾ÑĤÐ²Ð¾ÑĢ Ð¸
ĠÑĨÐ°ÑĢ Ð¸
ĠÑĩÐµÑĤÑĭ ÑĢÐµ
Ñĭ ÑĤÐ°
ĠÑĤÐ²Ð¾ Ñı
ÑĦ Ð¾Ð½
ĠÐ¿ Ð»Ð¾
Ñħ Ð¾Ð¼
Ð»Ð° Ð²ÑĬ
Ð¸Ñģ Ñ§
ÑĪ ÐµÐ´
ÑħÐ° Ð»Ð¸
Ñĭ ÑħÑĬ
ĠÑĤ Ð¾Ð»ÑĮÐºÐ¾
ĠÑĥ Ð±Ð¸
ĠÐ¾Ð³ Ð½ÐµÐ½
ĠÐ´Ñ£Ð»Ð° ÑĤÐ¸
ĠÑģÐ²Ñ£ ÑĤ
ĠÐ¿ÑĢÐ¸ Ð´Ðµ
ĠÑ¡ Ð±ÑĢÐ°
Ð³ êĻĭ
Ð¸Ð» Ðµ
ÑģÑĤÐ¸ Ñİ
Ð»Ñİ Ð±
ĠÐ¾ ÑĤÑĮ
ÑİÑĤ ÑģÑı
ĠÐ½Ð¸ Ð¶Ðµ
ĠÑĤÐ¾Ð» ÐºÐ¾
Ð½ÑĮ Ðµ
Ð» Ð¾Ð¼
Ð· Ðµ
Ñ¥ ÑĤÑĮ
ĠÑģÑĤ ÑĢ
ÑĢÐ° Ð²Ð¸
ÑĨ êĻĭ
ĠÐ¼Ð¾Ð» Ð¾Ð´
ĠÑģÐµ Ð¸
Ð¾Ð½ Ñ£
ĠÑ¥ ÑģÐ¸
Ðµ Ð»Ð°
ĠÑĥ Ð·
ĠÐµ ÑģÑĤÐµ
ĠÐ±êĻĭÐ´ ÐµÑĤÑĬ
ĠÐĴ Ñ£
Ñ£ Ñħ
ĠÑĥ ÑĤ
ĠÐ´Ð° Ð²Ð°ÑĤÐ¸
ĠÐ²Ð¾Ð»Ð¾Ð´Ð¸Ð¼ ÐµÑĢ
ĠÐĳ Ð¾Ð²Ð°
ĠÐ´Ð¾Ð¼ Ð°
ÑģÑĤ Ð²Ñ£
ĠÐ¢ Ð°Ðº
ĠÐĴ ÑĮ
ĠÑħÐ¾ÑĤ Ñı
Ñĩ Ð°ÑĤ
ĠÐ¿Ð¾ÑĢ Ð¾
ĠÑģÑĬ Ðº
Ð° Ð³
Ð°Ð· Ð°ÑĢ
ĠÐ½Ñ£ ÑģÑĤÑĮ
ĠÐ· Ð¾Ð»
Ðµ Ð¶
ĠÐ¿Ð¾Ð» Ñĥ
ĠÐ´ÑĢÑĥ Ð³Ð°
Ð² ÑĢÑĬ
ĠÑĤ Ð¾Ñĥ
ĠÐ± Ñ¹
ĠÐ· Ð»Ð¾
ĠÑĤ Ð¾Ð»Ð¸
ÑģÑĤÐ² êĻĭ
Ð² Ð¾Ð·
ĠêĻĸ ÐºÐ¾
ĠÐ²Ð¾ÑĤÑĩÐ¸ Ð½Ñĭ
Ð¶Ðµ ÑĤ
ĠÐ´Ð¾Ð± ÑĢÑ£
ĠÐ¿ÑĢ Ð¸ÑĤ
Ð½ ÐµÑĤÑĮ
ÑĤÐ¸ Ð½Ð°
ĠÐ¿Ð¸ Ñī
Ð½Ð¸ ÐµÐ¼ÑĬ
ĠÐ´Ð° Ð»ÑĬ
ĠÑģÐ¸ ÑħÑĬ
ĠÐ¼Ðµ Ð¶
ĠÐ±Ð» Ð³
Ð°Ð· Ñĥ
ĠÐ²Ð¸ Ð´Ð¸
Ñ¡ Ð¼ÑĬ
Ð¾Ð» Ð½Ð¸
ĠÑĩ Ð¸Ð½
ÑĪÐ¸ ÑħÑĬ
ĠÑ¹ Ð±Ð¾
ĠÐ¾Ð±Ñĭ ÑĩÐ°
ĠÐ´Ð° Ð²
ĠÐºÑĥ Ð½ÑĬ
ĠÑĢ Ð¾Ñĥ
ĠÐ¡ Ð¾Ð»
ĠÐ±ÐµÑģ Ñ£
ĠÐ¿Ð¾Ð´ Ð²Ð¸
ĠÑģÐ½ Ð°ÑĢÑı
ĠÐ¾ Ð¶Ðµ
ĠÐ¿ÑĢ Ð¾Ðº
ĠÑĤÑĥ ÑĤÑĬ
ĠÐ¿ÑĢÐ¸ Ð½ÐµÑģ
ĠÐ³ÑģÐ´ ÑĢÑİ
ÐµÐ²Ð¸ ÑĩÑİ
Ð°Ð½ Ñĥ
ÑĨ ÐµÐ¼
ĠÐ¸ Ñİ
Ð° Ñı
ĠÐ¸ ÑģÐºÑĥ
Ð¾Ð¼ Ñ£
Ð» ÐµÑĤ
ÐµÐ» Ñİ
Ñ¹ Ñİ
Ġ1 0
ĠÑĤ êĻĭ
Ñ§ ÑīÐµ
ĠÐ³ÑĢÑ£ Ñħ
Ñĸ Ð¹
Ð´ Ð½Ð¾
ĠÑģÐ»Ð¾Ð²ÐµÑģ Ð°
ĠÐº Ð»Ñİ
ĠÐ¿ÑĢÐµ Ð¶Ð´Ðµ
ĠÐ´Ð° Ð»Ðµ
ĠÐµ Ðµ
ÐºÐ¾ ÑĪÐ°
Ð¾Ð¶ Ð´Ðµ
Ġ 4
ĠÐ²Ð· Ñ§
ĠÐ¼ Ð½Ð¾Ñİ
ĠÐ¿Ð»Ð° ÑĤÐ¸ÑĤÐ¸
ĠÐ¼Ð°ÑĤ ÐµÑĢÐ¸
ĠÐ³ÑĢ Ð²
ĠÑĢÐ°Ð· Ð´Ñ£
ĠÐ¼ Ñģ
ĠÐ¡ Ñĭ
ĠÐ´ ÑĢÐ°
ĠÐ¿ÑĢ Ð¾Ð´
ĠÐ¿ÑĢ Ð¾ÑĤ
ĠÑĩÐµ ÑģÑĤ
ĠÐ¿ ÑĤÐ¸
Ð» êĻĭ
ĠÑģ Ð¾Ñģ
Ð´Ðµ Ð¶Ðµ
ĠÐ¿Ð¾Ð· Ð½Ð°
Ð»Ð¸ ÑģÑı
ĠÐ± êĻĭ
ÑĨ Ñı
ĠÐ¿ÑĥÑĪÐº Ð°ÑĢ
Ð± ÑĢÑı
Ð¶ Ð½Ð¾
ĠÑģÑĬÑĤÐ²Ð¾ÑĢ Ð¸
Ð¼ ÐµÑĢ
ĠÐ²ÑĬ ÑģÐ¿
Ð°Ðº Ð¾Ð½
ĠÐ²Ñ£ ÑĢÑĥ
ĠÑĤÐ¾ Ðµ
ĠÐ¡ Ð¸
ĠÐ±Ñĭ Ñģ
ĠÑĢ Ñı
ĠÐ²ÑĮ ÑģÑı
ĠÐ»Ñ£ ÑĤÐ¾
Ð· Ð´
Ð½ ÑĸÑ§
ÑĮ Ñİ
ĠÐ½Ð¸ Ð¼
ÑĢ Ð¸Ð»
ĠÐ¼Ð¸ ÑĢÑĬ
ĠÑı Ð¶Ðµ
ĠÑģ Ð¼Ð¸
ĠÑħ ÑĤÐ¾
Ñģ Ð¿Ð¾Ð´
ĠÑ ĭ
ĠÐ´ Ð¾Ñĥ
ĠÐ´Ñ£ ÑĤ
ĠÑĢÑĥ ÐºÑĥ
ĠÐ» Ð¾ÑĪÐ°
ĠêĻ Ģ
ĠÑĩÐµ ÑĤÐ¸
ĠÐ² ÑĤÐ¾ÑĢ
ÑģÑĤ êĻĭ
Ð´ ÐµÑĢ
ĠÑħ Ð¸ÑĤ
ĠÐ¾Ð± Ñ£
Ð½ Ð¾Ð³
ĠÐ¡ Ð²
ĠÑĸ Ñ¡
ĠÐºÐ¾ÑĤÐ¾ÑĢ Ð¾Ðµ
ĠÐ¸ÑģÑĤ Ð¸Ð½
ĠÐºÐ¾ ÑģÑĤ
Ð²Ñ£ ÑĤ
Ð¸ Ð´Ñ£
ĠÐ´Ñ£ ÑĤÐ¸
ĠÐ¢ Ñĥ
ĠÐ´Ð° ÑģÑĤÑĮ
Ð´Ðµ ÑģÑ§
ĠÐ¶Ðµ Ð»Ð°
ĠÐ¿ Ñ¹
ÐµÐ² Ð¾Ð»
ĠÑĤÐ²Ð¾ Ñİ
ĠÐ» ÐµÑĤÐ°
ĠÐ¿ÑĢÐ¸ Ð¸Ð¼
ÑĥÐ´ ÑĮ
ĠÐ¢ Ñĭ
ĠÑģÐ²Ð¾ ÐµÐ¼ÑĬ
Ð° Ð±
ĠÑģÑĭ Ð½Ñĥ
ĠÐ¿ÑĢÐµ Ð¶Ðµ
ÑĤÐ¸ ÑģÑı
ĠÐ° Ð·
ĠÐ¼Ð¸ ÑĢ
ĠÐ´ÐµÑĤ ÐµÐ¹
ĠÐ¼Ð¾ ÐµÐ¼Ñĥ
ĠÐµ Ð¹
ĠÑģ Ð¾Ð³
ÑĨ Ð¾Ð¼
ĠÐ» Ñ¹
Ð½ ÐµÐ¼
ĠÐ´ÐµÑĢ Ð¶
ĠÐ¿ ÑıÑĤÐ¸
ĠÐ¼Ñĥ Ð¶Ð°
ĠÐ¿Ð» ÐµÐ¼
ĠÑģÐ²Ð¾ Ñ§
Ðµ Ð½Ð¸Ðµ
ĠÐ´ Ð²Ñĥ
ĠÐ²Ð¾Ñģ Ð¿
ĠÑģÑĬ Ð³ÑĢÑ£
ĠÑģÐº Ð¾ÑĢÐ¾
ĠÐ² Ð¾Ð¿
ĠÐ²ÑģÑ§ Ðº
ĠÐ± Ð»Ñİ
ĠÐ· Ð²Ñ£
Ð¿ ÑĮ
ĠÐ³ Ð¾Ð½
Ð»Ð° ÑĤ
ĠÐĵÐ¾Ñģ ÑĥÐ´Ð°ÑĢ
ĠÑģÐ¾Ð± Ñ£
Ñı Ð¼ÑĬ
ĠÐ¿Ð¾ Ð¸Ð´Ðµ
ĠÐļ Ð¾
ĠÐ¿ Ð¾Ð²Ñ£
ÑģÑĤÐ² ÐµÐ½
ĠÐµÐ´Ð¸Ð½ ÑĬ
ÐµÑģ Ð»Ð°Ð²
ĠÐ± Ñ«
ĠÐ½Ð° Ðº
ĠÑģÑĤÐ¾ Ñı
ĠÑĤ Ð¸Ð¼Ð¾
ÐµÐ» Ð¾
ĠÑĩÑİÐ´ Ð¾ÑĤÐ²Ð¾ÑĢ
Ð¾Ð²Ñĭ Ðµ
ÑĪÐµ Ð½Ð¸
ĠÑĩÐµ Ð³Ð¾
ĠÐ²ÐµÑģ ÐµÐ»Ð¸
ĠÐ¿Ð¾Ñģ Ñĭ
ĠÑħÑĢÐ¸ ÑģÑĤ
Ðµ Ð²Ð¾
ĠÐ´ÑĢ Ñ¹
ÐµÐ¼ Ð¸
Ð¼ Ð°Ð½
ĠÑĢÐ° Ð²
Ð²Ð° Ñı
ĠÐ²ÑĮ ÑģÑ£
ÐºÐ° Ð³Ð¾
ĠÐ¿Ð¾Ð» Ð¾Ð¶Ð¸
ĠÐ·Ð°Ð¿ Ð¾Ð²Ñ£
Ð½Ðµ Ñİ
ĠÐ¿ÑĢÐµ Ð±ÑĭÐ²Ð°
ÑģÐº Ð¾Ð¼ÑĬ
ÑĤÑĮ ÑģÑı
Ð¾Ð³ Ð¸
ĠÐ´ ÑĢÑĬ
ĠÑħ Ð»Ðµ
ĠÑģÐ² ÐµÑĢ
ĠÐ¿ ÑıÑĤÑĮ
Ð· Ð½Ð¸
Ñĩ Ñı
ĠÐļ Ð°ÐºÐ¾
ÑĪÐ° ÑĤÐ¸
ĠÐ²Ñĭ ÑĪ
ĠÑģÐ»Ð° Ð²Ð°
Ñ§ Ð´
Ð½ êĻĹ
Ð½Ðµ Ð¹
ÑĪ Ñ§
ĠÐ¾ ÑģÑĤ
Ð¾ÑĤ Ñĥ
ĠÑĩ ÐµÐ¼ÑĬ
Ñģ Ð¾
ĠÑĤÑ£ Ð»Ð¾
ÐµÐ½Ð¸ Ñı
Ð½Ñĭ Ð¸ÑħÑĬ
ÑģÐº ÑĬ
ĠÐ¿Ð¸ ÑīÐ°
Ð¾Ð» Ðµ
âĢĿ .
ĠÐ´ÐµÐ» Ð¾
ĠÐĺ Ð·
Ñĩ Ð¸ÑĤ
ĠÑģÑĤÐ°ÑĢ Ð¾ÑģÑĤÐ¸
Ñĥ Ð½
ĠÑģ Ð»Ðµ
ĠÑģÐ² Ð¾Ð±Ð¾Ð´
ĠÐ¿ÐµÑĢ Ð²
ĠÐµÐ¼ êĻĭ
ÐµÐ´ ÑĮ
ĠÑģÐµÐ» Ð¾
ÑĤ Ñı
Ð²ÑĮ ÑĢ
ĠÐ´ÑĢ Ð¾Ñĥ
ĠÐ³ÑĢÐ°Ð¼Ð¾ÑĤ Ñĥ
Ð° Ð½Ð¸Ðµ
ĠÑĤ Ð¾Ð¿
ĠÑĢÐ¾Ð´ Ð¸
ĠÐ¿ÑĢ ÑĬ
ĠÑĩÐ¸ ÑģÑĤÐ¾
ĠÑī Ð¾
ÑĤÐ° Ð³Ð¾
Ð½ ÑĸÐ°
ĠÐ·ÐµÐ¼ Ð»Ðµ
Ġ (
ÑĢÐ°Ð² Ð¸ÑĤÐ¸
Ð²Ð° Ð³Ð¾
ĠÐ±Ñĭ ÑĤÑĮ
ĠÐ¿Ð¾ÑĤ Ð¾Ð¼Ñĥ
ĠÐ¼ Ð»Ð°
ĠÐ³ Ð¸
ĠÐ¿ÑĢÐµ ÐºÑĢÐ°Ñģ
Ð¶Ð¸ ÑĤÑĮ
ĠÐµÐ¼ Ñ¹
ĠÐ°Ð½Ð´ ÑĢÐµ
ĠÐ¾ ÑĢ
ĠÐĳ Ñ£
ĠÐ¿Ð¾ÑģÑĤÐ°Ð² Ð¸
ĠÑģÐµ Ð»Ð¸
ĠÐ¿Ð¾Ðº Ð°Ð·
ÑģÐºÐ¸ Ð¹
ĠÐ¿Ð¸Ñģ Ð°Ð½
Ð»Ð° Ð²Ð°
ĠÐ¿ÑĢÐ° Ð²Ð¾
ĠÐ½Ðµ ÑĤ
ĠÐ² Ð»
ĠÑĤ Ñ¹
ĠÐ¢ Ð°
ÑĨÐµ Ñİ
ĠÐº Ð¾Ð·
ÑģÐºÐ¸ Ñı
ĠÑģ ÑĢÐ°
ÑģÑĤÐ¸ ÑĤÐ¸
ĠÑģÑĤ Ñĭ
ÑģÑĤÑĮ Ðµ
ĠÐ²ÑģÐµ Ñı
ĠÐ± ÐµÑĢ
ÑģÐ»Ñĭ ÑĪÐ°
ÑĢÐ¸ ÑĤÐ¸
ĠÐ´Ð²Ð¾ÑĢ ÑĬ
Ð» êĻĹ
ÑĤÐ¸ ÑĤÑĮ
ĠÐ¿ÑĢÐ¸ Ð·
ĠÑĤÐ¾Ð¼ Ñ¹
Ð» ÐµÑģ
ĠÑĨ ÐµÑĤ
ĠÐ¼Ð¾ÑĢ Ðµ
ĠÐ½Ðµ Ð½Ð°
Ð´ ÑĢÐ°
ĠÐº Ð¾Ð¼
ĠÐ²ÐµÐ» Ñ£
ĠÐ¿Ð¾ÑĤ Ð¾Ð¼ÑĬ
ĠÐ³Ð¾ÑģÑĥÐ´Ð°ÑĢ ÐµÐ²Ñĥ
ĠÐ³ÑĢÐ°Ð¼Ð¾ÑĤ Ðµ
ĠÑģÑĥÐ´ Ð°
ĠÐ± Ð°ÑĤ
ĠÐ° Ð¶Ðµ
ĠÑ¡ ÑĨ
Ð½ Ñ¡
ĠÐµÐ»Ð¸ ÐºÐ¾
Ð²Ñ£ ÑĤÑĬ
ĠÐł Ð°
ĠÐ¿ÑĢ Ð¾Ð³
ĠÐ° Ð²
ĠÐ¿ÑĢÐ¾ ÑģÑĤ
ĠÑĢ ÑĮ
ĠÐ¿Ð¾Ð³ Ð¸
Ð»Ðµ Ð½Ð¸Ðµ
ĠÐ¿ÑĢÐµÑĩÐ¸ÑģÑĤÑĭ Ðµ
ĠÐ± Ð¾Ð¶Ð¸
ĠÑĥ Ð³
ÑĨÐ° ÑĤÑĮ
ĠÐ¾Ð±ÑĢÐ° Ð·
Ñī Ñİ
ĠÐ½Ðµ Ð¼ÑĮ
ĠÐ²Ñ£ Ð´Ð°
ĠÐ³ÑĢ Ð¾Ð±
Ð² ÑĪ
ĠÐ¿ Ð»ÑĬ
ĠÐ³ÑĢÐ° Ð´Ñ£
Ð°Ð¼ Ð°
ĠÑĤ Ð¾Ðº
ĠÐ´Ð¼Ð¸ÑĤ ÑĢÐµ
ĠÐµÐ´Ð¸ Ð½Ð¾
ĠÐº ÑĢÐ¸
ÑĪÐ¸ Ñħ
ĠÐ²ÑģÑıÐºÐ¸ Ñħ
ĠÐ½Ð° Ð¼Ð¸
ÑģÐºÑĭ Ð¸
Ñ ¿
ĠÐºÐ¾ÑĤÐ¾ÑĢÑĭ Ñħ
ĠâĢ ĵ
ĠÑħÑĢÐ° Ð±
Ð¿Ð¸ÑģÐº Ð¾Ð¿
ĠÐ¿ÑĢÑ£ Ð´ÑĬ
ÑĦ Ð¸
Ð»ÐµÐ½ ÑĸÐµ
ÑĤ ÐµÐ»ÑĮ
ĠÐ¿ÑĢÐ¸ ÑģÐ»Ð°
Ðº Ð»Ð¾Ð½
ÑĦ Ð°
Ð¾ÑĢ ÑĬ
ĠÐ¿ÑĢ Ð°Ð·
ĠÐ¿ Ð¸ÑĤÐ¸
ĠÑģ Ð¾Ð²Ñ£
ĠÐ¿ÑĢ Ð¿
ĠÑģ Ð¸Ð»ÑĮ
ĠÐ¿ Ð°ÑĢ
ĠÐ²Ðµ Ñĩ
ĠÐ´ Ð¾Ð¼Ñĥ
ÑĢÐ¾ ÑĤÐ¸
Ð²Ñĭ Ð¸
ĠÑģ ÑĤÑĮ
ĠÐ¼Ð¾Ð³ Ñĥ
Ñ§ Ð¸
ĠÐ¼Ð¾ Ñİ
ĠÑĥÑĩÐ¸Ð½Ð¸ ÑĤÐ¸
ĠÑģÐ» êĻĭ
ĠÐ° Ð³Ð³
ÑģÑĤÐ² Ðµ
ĠÐ±ÑĮ ÑİÑĤ
ĠÑ¥ ÑģÑĤÑĮ
Ñı Ð½Ð¸
ĠÐ¾ Ð»
ĠÑģÑĬ Ð±
ĠÑĤÐ¾ÑĢ Ð³
Ð´ ÑĢÑ£
ĠÐº Ñĭ
ĠÐº ÑĢÑĭ
ĠÐ½Ð° Ð´ÑĬ
ĠÑĪÐµ ÑģÑĤÑĮ
ĠÐ´ÐµÑĢ Ð¶Ð°ÑĤÐ¸
ĠÐ³ Ð°Ð²
ĠÐ¿ÑĢÐ¸ Ð½Ð¾
Ð» Ñ¹
ĠÐĶÐ¾Ð± ÑĢÑĭ
ĠÐ¼ ÑĤ
ÐµÐ¼ Ð¾
ĠÑģÑĭ Ñī
Î ¹
ĠÐ¯ ÐºÐ¾
Ð½ ÐµÐ¼ÑĬ
ÑĪ ÐµÐ½ÑĮ
ÑīÐµ ÑĪÐ¸
ĠÑĥ ÐºÑĢÐ°
ÑĩÐµ Ð³Ð¾
ĠÐĴ Ñĭ
ÑĩÐ¸ Ð½Ð°
ĠÐ¶Ðµ Ð»Ñ£Ð·
ĠÐ±Ñĭ ÑĪÐ°
ÑīÐ° Ð³Ð¾
ĠÑħÑĢÐ¸ ÑģÑĤÐ¸
Ð½ ÐµÐ²
Ðµ ÑĩÐµ
Ġ1 2
ĠÐ°Ð½Ð´ÑĢÑ£ Ñİ
ĠÑģ Ð¾Ð·
ĠÑĤ ÑĢÑĮ
Ñħ ÑĢÐ°
ĠÐ¿Ð¾ÑĤ ÑĢÐµÐ±
ĠÐ»Ñ£ ÑĤÑĬ
Ð´ Ð¾Ð²Ð°
ÐµÐ» Ñı
ĠÑĤÐ°Ðº Ð¾Ð¶Ðµ
ĠÐ¿Ð¾ÐºÐ»Ð° Ð½Ñ§
Ð²Ðµ ÑģÑĤÐ¸
ÑĪ ÐºÑĥ
ĠÐ½Ð¸Ðº Ð¾Ð¼Ñĥ
ĠÐºÑĢÐµ ÑģÑĤ
ĠÐŁ ÑĢÐµ
ĠÐº Ð»Ð¸
Ñ »
ÐµÑģ Ñ§
ÑĩÐ¸ ÑĤÐ¸
Ð°Ðº Ð¸
ĠÑĩ ÐµÐ¼
ĠÑĤÐ°Ðº Ð¾Ð²Ð¾
ĠÐ²Ð»Ð° Ð´Ñĭ
Ð¾Ñģ ÑĮ
ĠÐĽ Ð°Ð·Ð°ÑĢ
ĠÑĢÐ° ÑģÐ¿
ÑĩÐ¸ Ñħ
ĠÐĵÐ¾ÑģÐ¿Ð¾Ð´ Ð°
Ðº Ð¾Ð½
ĠÐ¾ ÑĢÑĥ
ÑĤÑĮ Ñİ
ÑĢ Ð¾Ñĥ
ĠÑħÐ¾ÑĤ Ñ§
ĠÐ°ÑĢ ÑħÐ¸
ĠÑĨÐµÑĢ ÐºÐ²Ð¸
ĠÑģÐ²Ð¾Ðµ Ñı
Ð»Ðµ Ð½Ð¸
ĠÐ²Ð¾Ð» Ð¾ÑģÑĤÐ¸
ĠÐ¿ÑĢÐ¸ÑĪ ÐµÐ´
ÑĪÐ¸ Ð¼ÑĬ
ĠÐ²ÑģÑ§ ÐºÐ¸
ĠÐ¶ ÑĮ
ÑĢÐ¾Ñģ Ð»Ð°Ð²
ĠÐºÐ¾Ð½ Ð¸
ĠÐ³Ð»Ð°Ð³Ð¾Ð» Ð°
ĠÑĤ ÑĢÑĥ
ĠÐ»ÑİÐ´ ÐµÐ¼ÑĬ
ĠÐ±Ð»Ð°Ð³Ð¾ ÑģÐ»Ð¾Ð²
ÑĩÐµ ÑģÑĤ
ĠÑģ Ð²Ð¸
ĠÐ½Ð° ÑĢÑı
Ð³ Ð»Ñĭ
ĠÐ¾ÑĤ ÑĢÐ¾Ðº
ĠÑħ Ð¾ÑĢ
ĠÐ³ÑĢÐ¸Ð³Ð¾ÑĢ ÑĮ
ĠÑ Ĭ
ĠÐ´ÐµÐ½ Ð³Ð¸
ĠÐºÐ½Ð¸ Ð³
Ð¾Ð¶ Ð´
ĠÐ²ÑģÑ£ Ð¼Ð¸
ĠÑģÐ¾Ð² ÐµÑĢ
ĠÐ»ÑİÐ´ÑĮ Ð¼Ð¸
ÑĢ Ð¾Ð²Ð°
Ñĭ Ð²Ð°
ĠÐ¸Ð· Ñ§
ĠÐ¼ Ñ¡
ÑģÑĤ ÑĢÑ£
Ð¿ ÑĢÐ°Ð²
Ñ« Ñī
ĠÑĢ Ð¾ÑģÑĤ
êĻģ ÑĮ
ĠÐ²Ñ£ Ð´
ĠÐ¿ÑĢÐ¸ÑĪ Ð»Ð¸
ĠÐ¼Ð¾Ð½Ð°ÑģÑĤÑĭ ÑĢÑĮ
ĠÑģÐµÑĢÐ´ ÑĨÐµ
ÑĨ Ð¾
ĠÐ²ÑģÐµÐ¼ Ð¸
ĠÑģ Ð¾ÑĤ
ĠÐ´Ð° ÑģÑĤÑĬ
Ð¸Ð» ÑģÑı
ÑĢÐ° Ð·
ÑĤ Ñĸ
ÑĤ Ñ§
Ñģ Ñ¹
Ð¾Ð´ Ð¸
ĠÐ» Ð²
Ð» Ñ¡
ĠÑĩÐ¸ ÑģÑĤ
Ð· Ð°Ð½
ĠÐ°ÑĢÑħ Ð¸Ð¼
ĠÐºÐ¾Ð½ Ñİ
ĠÐ²ÑģÐµ Ñħ
ĠÐµÐ¼ Ð¾Ñĥ
ĠÐ¼Ñĥ Ð¶ÑĮ
ÑģÑĤ Ð¸Ð½
ÑģÑĤ ÐµÑĢ
ĠÐ¿Ð¾Ð¼Ñĭ ÑĪ
ĠÐ¼Ñĥ Ð¶Ð¸
ÐµÑħ Ð°Ð»
ĠÐ´ÑĢ ÐµÐ²
Ðº Ð¾Ð¿
ĠÑĩÐµÐ»Ð¾Ð± Ð¸ÑĤÑĮ
ĠÐ³ÑģÐ´ ÑĢ
ĠÑĪ Ð°ÑĤ
Ð» ÑģÑı
ĠÐ²Ð¾ÑĤ ÑĩÐ¸Ð½Ñĥ
ĠÐ¿Ð¸ÑīÐ° Ð»Ð¸
Ð½Ð¸ Ñĩ
ÐµÐ» ÐµÐ½
Ñģ Ð¾Ð¼ÑĬ
ĠÑ Į
ĠÐ¾Ð± Ð°
ĠÑĥ ÑĢÑı
ĠÑģÑĬ Ð¼Ñ£
Ñı Ð¹
ĠÐºÐ¾ÑĢÐ¾Ð» ÐµÐ²
Ð· Ð¾
ĠÐ· Ð¸Ð¼
ĠÐ¾Ñĥ Ð¼
ĠÑĤÐ¾ÑĤ ÑĬ
ĠÐ½Ð° ÑĪÐ°
Ð± ÑĢÑ£
ĠÐ¸Ð¼Ð° ÑĤÑĮ
ÑĩÐ° ÑĤÐ¸
ÑĤ Ð²Ð°
ĠÑģÑĤÑĢÑ£ Ð»ÑıÑĤÐ¸
ĠÑģÐ¿ Ð¸Ñģ
ĠÐ´ Ð²Ðµ
Ñĩ Ñĥ
Ñ£ Ð¼ÑĬ
Ð¶ Ñİ
ĠÐ¼Ð½ Ð¾Ð¶Ðµ
Ð½ Ð¾Ð²Ð¾
ĠÑħ Ð²Ð°
ĠÐ±ÑĭÐ²Ð° ÐµÑĤÑĬ
ĠÐ¿ Ð°Ð½
ĠÑĤÐ°Ðº Ð¸Ñħ
ĠÐ¸Ð²Ð°Ð½ Ð¾Ð²Ð¸Ñĩ
ĠÐ¾Ð± Ð»Ð°
ĠÐ³Ð¾Ð²Ð¾ÑĢ Ð¸ÑĤÑĮ
Ð¸ ÑĢÐ°
ĠÐ² Ð°Ð¼
ĠÐ± Ñ¡
ĠÐ¼ Ð¸Ñħ
ĠÑĤ ÑĢÐ°
Ð´ Ð²Ð¸
ĠÐ±Ð¾Ð»ÑĮ ÑĪ
ĠÐ´Ñĥ ÑħÐ¾Ð²
ĠÐ·ÐµÐ¼ Ð»Ñ§
ĠÑģ ÐµÐ½
Ñĸ Ñģ
ĠÐ²ÐµÐ» ÐµÑĤÑĮ
ĠÐ´Ð¸ Ð²
Ð» Ð¾Ð²Ð°
ĠÐ² Ð¼Ðµ
Ð³ Ð»Ð¾
Ñĥ Ð±Ð¸
ÑĪ ÑĤÑĮ
ÐºÑĥ Ð¿
Ð¾ÑĢ Ðµ
ĠÑģÑĤÐ°ÑĢ Ð¾
ĠÐ¿ ÑıÑĤ
ÐµÑħ Ð°Ð»ÑĬ
ĠÑģÐ°Ð¼ Ð°
ĠÐ·Ð° Ð¼
ĠÐ±Ð¾Ð³ Ð°ÑĤ
ĠÐ° ÐºÐ¸
Ð½Ñ£ Ð¸
ĠÐ¸Ð¼ Ñ§
Ð±Ñĭ ÑĤ
ĠÐ²Ñģ ÐµÐ²Ð¾Ð»
ÑģÐºÐ¸ Ð¼Ð¸
Ð¶ Ð´ÑĮ
ĠÑģÐ» Ñ£
ĠÐ²Ð° ÑĪ
ĠÐĺ Ð½Ð¾
ĠÑģÐ² Ñ§
ĠÐ²ÐµÐ»Ð¸ ÑĩÐµ
ĠÑĤÐ°Ðº Ð¾Ð²Ñĭ
ÑģÑĤ ÐµÐ¹
ĠÑģÐ¸ Ðµ
ĠÑģÐ¸Ð» Ñĭ
ĠÐ²ÐµÑĢ Ñħ
ĠÐ¶Ðµ Ð½Ñĥ
ĠÐ±ÑĢÐ° ÑĤÐµ
Ñĭ Ð²Ð°ÑĤÐ¸
Ð³Ð¾ ÑĪÐ°
ĠÑĤÐ² Ð¾Ð¹
ĠÑģÑĤÑĢÐ° ÑĪ
ĠÐºÐ½Ñ§ Ð·ÑĮ
ÑĤ Ð¾Ð¼
ĠÐ³ Ð¾ÑģÑĤ
Ñģ Ð»ÑĮ
Ð³ Ð¾Ð¼ÑĬ
ÑģÐ» Ñĥ
ĠÐ¸ Ð´
Ð´Ð¸ ÑĤÑĮ
ĠÐ½Ð°Ð¿ Ð°
ĠÐ°Ð» ÑĤÑĭ
ĠÐºÐ° ÑĢÐ°
Ġ 5
ĠÐ· Ñ£Ð»Ð¾
ĠÐ¿ÑĢÐ¸ ÐºÐ°
ĠÐ¿ÐµÑĢ ÐµÐ´ÑĬ
ĠÐ²Ðµ Ð´Ð°
ĠÐ» Ð¸Ñħ
Ð´Ñ£ ÑĤÐ¸
Ñī êĻĭ
ĠÐ¿Ð¾Ð´Ð¾Ð±Ð° ÐµÑĤÑĬ
ÑĮ Ðµ
ĠÐº ÑĢÑĬ
ĠÑĩÐ¸Ñģ Ð»Ð¾
ĠÑģ Ð°Ð²
Ñĭ Ð¼Ð¸
Ð¶Ðµ Ð½ÑĬ
ÑĤÐ¾ Ðµ
ÑģÑĤÑĭ Ð½Ð¸
ĠÐ¿ Ð¾Ð²Ñ£Ð´Ð°
ĠÐ¿ÑĢÐ¸ ÐµÐ¼
ĠÐ´Ð²Ð¾ÑĢ Ð°
ĠÐ³Ð¾ÑĢÐ¾Ð´ ÑĬ
ĠÐ¼ Ð½Ð¸
ĠÐ¼Ð½Ð¾Ð³ Ð°
ĠÐ¿Ð¾ÐºÐ»Ð¾Ð½ ÑĬ
ĠÐ¿ÑĢÑı Ð¼Ð¾
Ð¾Ð» ÐºÐ¾
ĠÑĩÐµ Ð²Ð¾
ĠÐµÑģ Ð¼Ñı
ĠÐ±Ð¾Ð³ ÑĬ
Ð± êĻĳ
ĠÐ± Ð³ÑĬ
ÑĤÐµ Ð¹
Ð°ÑĢ Ñ£
Ð½Ðµ Ð¸
ĠÐ± ÑĨ
ĠÐ± Ñ§ÑĪÐµ
ĠÐ¾Ð± Ð¸
ĠÑĥ Ð¾
Ñī Ð¾
ĠÐ¿ÑĢÐ¸ Ð¼Ñ£
ĠÑģÐ²Ð¾Ñ¥ Ð³Ð¾
Ð¿ ÑĢÐ¾Ñģ
ĠÐ·Ð° Ñħ
ĠÐ²Ð¿ ÐµÑĢ
ĠÐ´ÐµÑĢ Ð¶Ð°
ĠÑģÐ¾Ð± ÑĢÐ°
Ð°Ð½ÑĮ Ðµ
ĠÑĤ ÐµÐ»
Ðµ Ñĩ
ĠÐĺ Ð»Ð¸
ĠÑĤÐ¾Ð¼ ÑĮ
Ðµ Ð¾Ð´
Ġâ ģ
ĠÐ³Ð¾ÑģÑĥÐ´Ð°ÑĢ ÐµÐ²Ð°
ĠÐ»Ñĥ ÐºÐ°
Ð½ ÑĨÐµ
Ñ§ Ð½
Ð¿ Ð¸ÑģÐ°
ÑĨ Ð¾Ð²ÑĬ
ĠÐ¼Ðµ ÑģÑĤÐ¾
ĠÐ» Ð¾Ñĥ
Ð¼Ð¸ ÑĢÐ°
Ðº Ð¾Ð²Ð¾
ĠÐ´ Ð¾Ðº
Ð¾Ð³ ÑĬ
ĠÐ¾Ð± ÑĢÑı
ĠÐ´Ð¾ ÑģÑĤ
ĠÑĩÐµÐ»Ð¾Ð±Ð¸ÑĤ ÑĩÐ¸
ĠÐ²Ð° ÑĪÐ°
ĠÑĨ ÑĮ
ĠÐĶ ÑĢÑĥ
ÑģÑĤÐ°Ð² ÑĬ
Ð» Ð¾Ñĥ
ĠÐĲ Ð½
Ðº Ð»Ð°
ĠÑĢÐµ ÐºÑĬ
Ð»ÐµÐ½ ÑĬ
ĠÐ² Ð¼Ñ£
ĠÑĤ Ð¸Ñħ
ÑĢÐ¾ Ñĩ
ĠêĻĹ Ð²
ĠÐĴ ÐµÐ»Ð¸
ĠÐľ Ð°ÑĢ
Ð½Ð¸ Ð½
ĠÑ¡ Ð½
ÐµÐ¼ ÐµÐ½
ĠÐ¿Ð¾ ÑĩÐ¸Ð½
ÑĢÐµ ÑĤÐ¸
ĠÐ ¨
Ð´Ðµ ÑĪÐ¸
Ð¸ÑĤÐ¸ ÑģÑı
ĠÐ½Ðµ Ð¼Ð¾
ÑģÑĤÑĮ Ñİ
ĠÐ½Ð° ÑĢÐ¸
Ð½Ð¸ êĻĹ
Ñī Ð°ÑĤÐ¸
ĠÐ²Ð¾Ð» Ð¾ÑģÑĤ
ĠÐ¿Ñĥ ÑĤÐ¸
Ð½Ñ¹ Ñİ
Ð² ÐµÑģ
ÑģÑĤ Ñ¹
ĠÑĤÑĭ ÑģÑ§
Ð³ ÑĮ
ĠÐ¾Ñĥ Ð±
Ð²Ð¾ Ð¸
ÑĤÐ¾ Ñĥ
ĠÐŁ Ð¾Ðº
ĠÐķ Ð³Ð¾
ĠÐ½Ð°Ð¿ Ð¸Ñģ
ĠÐ½ÐµÐ¶Ðµ Ð»Ð¸
Ð» Ð¾Ð¶Ðµ
ĠÐ½Ðµ Ð´Ð¾
ĠÑıÐ´ ÑĢÐ°
Ð¾ÑĤ Ð¾
Ð»Ð¸ Ñĩ
Ñģ êĻĹ
ĠÑĨ ÑĤÐ¾
ĠÐ» Ð¸ÑĤ
ĠÐ¾Ð½ Ð´ÑĢÐµ
ĠÐ¿Ð¾Ðº ÑĢÑĭ
ĠÐĺ Ð²Ð°Ð½
ĠÑģÐ¸Ð» Ð¾Ñİ
Â ¦
ĠÐ·Ð° Ð²Ð¸
ĠÑĢÑĭ ÑĨ
ĠÐ² ÐµÑĤ
Ð¶ Ð°Ð½
ĠÐ²Ð¾ ÑģÐº
ĠÐŁ Ð¾Ð´
ĠÐ¸ Ð¼Ð¸
Ġ 6
ĠÐ²Ð¾Ð´ Ñĭ
ÑĢÐµ Ð¿
ĠÐł Ñĥ
ĠÐŁ ÑĢÑ£
ĠÐ² Ð´Ð°
ÑĨ ÐºÐ¾Ð³Ð¾
Ð²Ð° ÐµÑĤÑĬ
ĠÐ¼Ð¾ Ñ¥
ĠÐ¼ÑĮ ÑģÑĤÐ¸
ÑĪÐ¸ ÑĤÐ¸
ÑģÐº Ð¾Ñİ
Ðµ ÑĢÐ°
Ð½Ð¸Ðº Ð¾Ð¼ÑĬ
ĠÐ¿Ðµ ÑĩÐ°Ð»Ð¸
ĠÐĲ ÑĪÑĤÐµ
ĠÐ±Ñ£ Ð»
Ñĩ ÐºÐ°
ĠÐ¸ Ð½ÑĭÐµ
Ñĥ Ð¼
ĠÐ¿Ñĥ ÑĪÐºÐ¸
ĠÐ¼Ð¸ÑħÐ° Ð¹
Ð²Ð° Ð¹
ĠÑģÑĤ Ð°Ð»ÑĬ
ĠÐ½Ð°Ð¿ ÑĢÐ°Ð²
Ð¾Ñģ ÑĬ
ĠÐ³Ð¾ÑģÐ¿Ð¾Ð´ Ð¸Ð½Ðµ
ĠÐ¿Ð¸ÑģÐ° Ð½Ð¾
ĠÐ²ÐµÐ» ÐµÑĤÐ¸
Ð¾Ð· Ñ£
ĠÐ·Ð´ ÑĢÐ°Ð²
ĠÐ²ÑĭÑģ Ð¾Ðº
ĠÑ¡ Ð¿
ĠÑģÑĬ Ð¼
Ð´Ñĥ ÑĤ
Ð²ÑĬ ÑĪÐµ
Ð¼ÑĮ Ð¶Ðµ
ĠÑĨÐ°ÑĢ ÑģÑĤÐ²Ð¾
ĠÐ¼Ñĥ Ð¶Ðµ
ÐµÑĤ ÑĨÐ°
ĠÐ¼Ñĥ Ð¶
ĠÐ²Ð¾ÐµÐ² Ð¾Ð´Ð°
ĠÐ¼Ð¾ Ñ§
ĠÑĩÐ¸ Ð½Ð¸ÑĤÐ¸
ĠÐ¿Ð¾Ñħ Ð²Ð°
ÑĤÐµ Ð¸
Ð¼ Ð¾Ð»
ĠÐ¿ÑĢÐ¸ Ñģ
ÑĢÑı Ð¼Ð°
ÐºÐ¾Ð¼ Ñ¹
Ð½Ð¸ ÐµÐ¼
Ð»Ð° Ð³Ð°
ÐºÐ° Ñı
Ð¿ Ð¾Ð»
ĠÑģÑĭ ÑģÐºÑĥ
ĠÐ»Ð¸ ÑĨÐµ
ĠÐ½ÐµÐ¿ ÑĢÐ°Ð²
ĠÐ±Ð¾Ð³Ð°ÑĤÑĭ ÑĢ
ĠÐ´ ÑĢÐµ
ĠÐ¶Ðµ Ð½Ðµ
ĠÑĨ ÑĢÑĮ
ĠÐ½Ð°Ð¿ ÐµÑĢ
ĠÐ»Ð¸ ÑĨÐ°
Ð° ÑĤÑĮ
ĠÑģÑĬ Ð²Ñ£
Ð½Ðµ Ðµ
ĠÐŁ Ð¾Ð¼
ĠÐ½Ð°Ð¿ ÑĢÐ°
ĠÑģ Ð¸Ð¼
ÑĥÐ´ ÑĬ
ĠÐ¿ÑĢÐ¾ÑĤÐ¸ Ð²ÑĬ
ĠÐ» Ð¾Ð²
ĠÐ» Ð°Ð²
ĠÐ¿ Ð»Ñ£
ĠÐ¼ Ð°ÑĤÐ¸
ĠÐ¿ÐµÑĢ ÐµÐ²
ĠÐ¼Ð¸ ÑĢÐ°
ĠÐ¶Ð¸Ð²Ð¾ ÑĤ
ĠÑĤ Ð¾Ð³
ĠÐ¼Ñ¹ Ð¶
Ðµ Ð³Ð¾
ĠÐ³ ÑĬ
ÐºÐ¸ ÑĦ
Ð¾Ð¼ Ð¾Ñĥ
ĠÑı ÐºÐ¾Ð²
ĠÐ±ÑĮ Ñİ
ĠÐ¿ÑĢÐ°Ð² ÑĮ
ÑģÐº ÑĸÐµ
ÑģÑĤÐ² Ð¾Ð¼
ĠÐ½Ð°ÑĪ ÑĬ
Ð³ Ð¾Ð²ÑĬ
Ñı Ð½Ðµ
ĠÐ³Ð¾ÑĢÐ¾Ð´ ÐµÑħ
ĠÐ¸Ð²Ð°Ð½ Ð¾Ð²Ð¸ÑĩÐ°
ĠÐ²Ð¾ÑĤÑĩÐ¸ Ð½Ð°
ĠÑģÐ²Ñ£ ÑĤÑĬ
ĠÐ¸ Ð³Ð½Ð°
ĠÐ±Ñĭ Ð»
ĠÑģ ÑĸÑ§
ĠÐ³Ð¾ÑĢ Ñ£
ĠÑĤÐ°ÐºÐ¾ Ðµ
Ð¼ÑĮ ÑĢ
ÑģÑĤÐ° Ð½Ð¸
ĠÐ¼Ð¸ÑħÐ° Ð¸Ð»Ñĥ
Ð½Ð¸ ÑĤÑĮ
ĠÐ·Ð»Ð° ÑĤÐ°
Ð´ Ð¸ÑĤÐµ
ĠÐ²ÐµÐ»Ð¸ ÐºÑĬ
ĠÑģÑĭÐ½ Ð¾Ð²Ðµ
Ð½Ð¸ ÑħÑĬ
ÑĢ Ð¾Ð¼ÑĬ
ĠÑģ ÐµÐ»ÑĮ
ĠÐº Ð°ÑĢ
Ð³Ð¾ ÑģÐ»Ð¾Ð²
ĠÐ³ÑĢÐ° Ð´Ñĥ
ĠÐ²Ñ£ Ñĩ
Ð° Ð¼ÑĬ
ĠÐĶ Ð°ÑĢÐ¸
Ð¾Ð´ Ñĥ
ĠÐµ Ð¸
Ð¾Ð± Ñ£
ĠÐ°Ð¿ Ð¾ÑģÑĤ
ĠÐ´Ð¾Ð¿ ÑĢÑıÐ¼Ð°
Ð¸ ÑĨÐ°
ĠÑģÐ¸ Ñı
ĠÐ¶Ð¸Ð²Ð¾ ÑĤÐ°
ÑģÐº êĻĭ
ĠÐ¿Ð¾Ð¼Ðµ ÑīÐ¸
ĠÐµ ÑģÑĤ
ĠÐ´Ð° Ð¶Ðµ
ĠÑģ ÑĸÐµ
ĠÐ¸Ð¼ Ðµ
ĠÐ²Ð¾Ð· Ð¼Ð¸
Ð½Ð¸ Ð¼Ð°
Ñģ Ð»ÑĬ
ĠÑģÐ¸ Ð´
ĠÐ¸Ð· Ñĭ
ĠÑĢ Ð¾Ð¼
ĠÑĤÐ¾Ð²Ð°ÑĢÑĭ ÑīÐ¸
ĠÐ³ ÑĮ
Ð»Ð¸ ÑģÑĮ
Ñĥ ÑĤÑĮ
Ñī ÐµÑĤ
ĠÐ¢ Ð¾Ð³Ð´Ð°
ĠÑģÐ¿Ð¸Ñģ Ð¾Ðº
ĠÑĤÐ²Ð¾Ðµ Ð¸
ĠÑĤÐ°ÑĤ Ð°ÑĢ
ĠÑĩ Ñı
ĠÐ¶Ðµ ÑĢÐµÐ±
ÐºÐ¾ ÑĤÐ¾ÑĢ
ĠÐ» ÑĬ
ĠÐ± ÐµÐ»
Ð¿ Ð»
ĠÑģÐµÑĢ ÐµÐ´
ĠÑģÑĭÑī ÐµÑĤÑģÑı
ĠÐ½Ð° ÑĪÑĮ
Ð¼ ÐµÑĤ
ĠÐ² ÑģÐºÐ¾ÑĢ
ÑĶ Ð¼ÑĬ
ĠÐ²ÑģÑ£ Ñħ
ÑģÐ¿ Ñ£
ĠÐºÐ¾ Ð¸
ĠÑģÑĬ Ñģ
ÑĤ ÑĢÐ°
Ñ¡ Ð¼
Ð»Ð¸ ÑĤÐ¸
ĠÐ¿ Ð¾Ð³Ð¾
Ð½Ð¸ ÑĩÐµ
ĠÐ¿Ð¾ÐºÐ»Ð¾Ð½ Ð¾
Ñī ÑĬ
Ð±Ð¾ Ñİ
ĠÐ½Ð° Ð´Ðµ
Ð± Ð»
Ð± Ñ§
ĠÐĺ Ð¶Ðµ
êĻĭ ÑĤÑĬ
Ñģ Ð²
ĠÑĩÐ» Ð²
Ð´ Ð¾Ð¼ÑĬ
Ð³ Ð»Ð¸
Ñĩ ÐµÑĤÑĬ
ĠÐ° Ð»Ðµ
ĠÐ½Ð°Ñģ Ð»Ñ£
ĠÐ²Ð¸Ð½ Ð¾Ð²Ð°
ÑģÑĤÐ¸ ÑĤÑĮ
ĠÐ´Ð° Ð¸
ĠÐ¸Ð· Ð±Ð°Ð²
ÐµÐ´ Ð¾Ð½
ĠÑĤ ÑĢÐµÐ±
ÑĢÐ° ÑĪÐ¸
ĠÑĢÐ¾Ð´ Ñĥ
ĠÐ²Ð¸Ð´Ñ£ ÑĤÐ¸
ĠÑıÐ² Ð»Ñı
ÑĦ ÑĬ
ĠÐ²Ð¿ ÑĢÐµÐ´
ĠÑĤ Ð²ÐµÑĢ
Ð³ Ð¾Ð½
ĠÐ¶Ðµ Ð½
ĠÐļ Ð°ÐºÑĬ
ĠÐ´ÑĢÑĥ Ð³ÑĬ
ĠÑĥ Ð¶Ðµ
ÑĢÐ¸ Ð½Ð°
ĠÐĴ Ð¾Ð»
Ð¾Ð²Ð¾ Ñİ
Ð»ÐµÐº ÑģÐµ
Ñĩ ÐºÐ¸
ĠÐ±ÑĢÐ° ÑĪ
ĠÐ¼Ð¸ÑħÐ° Ð¸Ð»Ð°
ĠÐ³ÑĢÑ£ ÑĪ
ÑıÑĤ ÑģÑı
ĠÐ±ÑĢÐ°ÑĤ Ñĥ
Ð¾Ð´ ÐµÑĢ
ĠÐ³ÑĢÑ£ ÑħÑĬ
Ð°Ð» Ñĥ
ĠÑİ Ð½Ð¾
ĠÐ¾ ÑģÐ¸
êĻģ Ñĭ
ĠÐ¿Ð¾Ð³ Ð°
Ð°Ñħ Ñ«
ĠÐĽÐ°Ð·Ð°ÑĢ ÐµÐ²Ð¸ÑĩÑĮ
ĠÐ²ÑĬ ÑģÐµ
ĠÐºÐ¾ÑĢ Ð°Ð±
Ð¾Ð»Ñİ Ð±Ð¸
Ð¿ Ð¾Ð²Ð°
ĠÐĲ Ð·
ĠÐĴ Ð°Ñģ
ĠÑĢÐ°Ð·Ñĥ Ð¼
ĠÐ¿ÐµÑĤ ÑĢÐ°
ĠÐ²Ð· Ñĭ
ĠÑħÐ¾ ÑĩÐµ
Ð· Ð½Ð°
ĠÐº ÑĮ
ĠÐµ Ð³Ð¾Ð¶Ðµ
ĠÑĤÐ²Ð¾ Ñ§
Ð½Ð¸Ðº Ð¾Ð²ÑĬ
ĠÑĢÐ° ÑĤÑĮ
Ð² Ð¾Ð»Ð¸
ĠÐ´Ð° Ð»Ð¸
ĠÑĩÐµ ÑģÑĤÑĮ
ĠÐ´ Ð½ÑĮ
ĠÐ» ÐµÑĤ
ĠÑĨ Ð°
ĠÐĿ Ñ£
Ð½Ð° êĻĹ
ĠÑ§ Ð·ÑĬ
Ð¾ ÑĪ
ĠÐ¿Ð¾Ð´ ÑĮÑı
ĠÐ¸Ñģ ÑħÐ¾Ð´
ĠÐ· Ð³Ð¾Ð²Ð¾ÑĢ
ÑĤ Ð²Ð¾
ĠÐ±ÑĢÐ° ÑĤÑĬ
ÐµÐ½ÑĮ Ñİ
ĠÑĢÐµ ÐºÑĥ
ĠÑģÑĮ ÑĢ
Ð²Ð¸ Ð´Ð¸
ÑĤÑĮ Ðµ
ĠÐ²ÑĬ ÑģÐº
Ð¼ ÐµÐ½Ðµ
ĠÐ²Ð¾Ð» Ñİ
ĠÐ·Ð°Ðº Ð¾Ð½
ĠÐ±ÑĥÐ´ ÐµÑĪÐ¸
ÐºÐ° Ñħ
Ð¾Ð²Ñĭ ÑħÑĬ
-- --
Ðµ ÑħÐ°Ð»Ð¸
ĠÑĢ Ð¾
ĠÐ¿Ð¾Ð» Ð¸
ĠÑĢÑ¹ Ðº
ĠÐ¿ ÑģÐº
ĠÑĤÐ²Ð¾ Ð¸ÑħÑĬ
ĠÐºÑĢÐ°Ð»ÐµÐ² Ð½Ð°
ĠÐ¾ÑĤ Ð´Ð°ÑĤÐ¸
ĠÐ¡Ðµ Ð³Ð¾
Ð¿ Ð°Ñģ
ĠÑĪ Ð°Ð½
Ġ1 00
ĠÐ¿ÑĢ Ð¾Ð²
ÑģÑĤÐ² Ð¾Ð¼ÑĬ
ĠÐ¼ Ð¾Ñĥ
ĠÐ¿ Ñ§ÑĤÑĮ
êĻ ½
ĠÐ¸Ð· Ð²Ñ£
ĠÐ´Ñ£ Ð»Ñ£
Ðµ ÑħÑĬ
ÑģÑĤ Ð¾Ðº
ĠÐ½Ð° Ð¼Ðµ
ĠÑĩÐµÑĤÐ²ÐµÑĢ Ð¾Ð³
ĠÑĢÐ° Ð±ÑĬ
ĠÑģÐ²Ñ£ ÑĤÐ°
ĠÐ±Ð¾Ð³Ð¾ÑĢÐ¾Ð´Ð¸ ÑĨÑĭ
Ð¸ Ð²
ĠÑģÐ¸ ÑĢ
ĠÑĢÑĭ Ð±
ĠÐ¸Ð³ÑĥÐ¼ÐµÐ½ Ñĥ
ĠÐ¿ Ñ¡
ĠÑĤÐ¾Ðº Ð¼Ð¾
Ð¶ Ñ£
ĠÐŀ Ñĥ
ĠÑģÑĤ Ð¾Ð»ÑĮ
Ð½ ÑĸÑİ
ĠÑģÐ¾Ð³ ÑĢÑ£
ĠÐ»ÑİÐ´Ðµ Ñħ
ĠÐ²ÑĢÐµÐ¼ Ñ§
Ð½ êĻ¿
ÑĪÐ° ÑģÑı
ĠÑĢÐ° Ñģ
ĠÑıÐ´ ÑĢÐ¾
ĠÑģ Ð¸Ñħ
ĠÑģÐ¸Ð» Ñĥ
ĠÐ»Ñĥ Ð³Ð¸
Ð¸ Ð´Ð¾ÑĪÐ°
ĠÐ¿ Ð¸ÑĤ
Ðº ÑĢÑĭ
ĠÐºÐ¾ÑĢ Ð¼
Ð½Ð¾Ð¼ Ñ¹
ÑĢÐµ Ð¹
ĠêĻĹ Ð¶Ðµ
ÐºÐ° Ñ§
ĠÐ¼Ðµ Ð¶Ð¸
Ñ¡ Ð½Ð°
ĠÐ´ Ñī
ĠÐ¸Ð½ Ð¾Ð³Ð¾
ĠÐºÐ°Ð¼ ÐµÐ½ÑĮ
ĠÐ´Ð¾Ð½ Ð´ÐµÐ¶Ðµ
ÑĢ Ð¼
ĠÐ¿Ð¾Ð³ ÑĢÐµ
ĠÐķ ÑģÑĤÑĮ
ĠÐ¼ Ð°Ñģ
Ð¿ Ñģ
ĠÐ±Ñ£ Ñģ
Ð¹ ÑģÑı
Ð¾Ð²Ñĭ Ð¼ÑĬ
Î ±
Ð³ Ð°ÑĢÐ¸
Ð´ÐµÑģÑı ÑĤ
Ð¿ êĻĭ
ĠÐ´ Ð½Ðµ
ĠÐ¿ÑĢÐ¸ ÑģÐ½Ð¾
Ð´ Ñ«
ĠÐ²ÑģÑ§ ÐºÐ¾Ð¸
ĠÐ¿Ð¸ ÑĪ
ÒĨ .
ĠÐŁÐµÑĤ ÑĢÑĬ
ÑģÑĤÐ² Ð¾Ð²Ð°
Ð¸ÑĤ Ñĭ
ĠÐ½Ð°ÑĪ ÐµÐ¼Ñĥ
ĠÑģÐ¸ Ð»Ð°
ÑĤ Ð¾Ð½
Ð² êĻĭ
Ð¶ Ð´Ð¾
ÑĪÐ¸ ÑģÑı
ĠÐ¼Ñĭ ÑģÐ»Ð¸
ĠÐ¸ÑģÐº Ð°ÑĤÐ¸
Ñģ Ð¸Ð¼
ÑĢÐ° Ð²ÑĮ
Ð² ÑĢÑĮ
ÐµÐ¼ Ð¾Ñĥ
ĠÑħÐ»Ðµ Ð±
Ñĭ Ð¸ÑħÑĬ
ĠÐ¼Ð½ Ð¾Ð·Ð¸
ĠÐ² ÐµÐ·
ÑĢÑ£ Ð±
ĠÑĢÐ¾Ð´ Ð¸ÑĤÐµÐ»
ĠÐ± Ð¾Ð¶
ÐµÐ½ Ñĥ
ĠÐľÐ¾ÑģÐº Ð²Ðµ
ĠÐ½ Ñ«
Ð·Ñĭ Ð²Ð°
ĠÐ¿ÑĢÐ¸ÐºÐ°Ð· Ñĥ
ĠÑģÐ»ÑĥÐ¶ Ð¸Ð»
Ð¿ ÑĢ
ĠÑĢÐµ Ðµ
ĠÐ½ Ð½
Ð»ÑİÐ± Ð»ÐµÐ½
ĠÐ¶Ðµ Ð½Ñ£
ĠÐ¿ÑĢÐ¸ ÑıÑĤ
ĠÐºÐ¾ÑĢ Ð¾Ð»ÑĮ
ĠÐºÑĢÐµÑģÑĤÑĮÑı Ð½Ðµ
ĠÐ´ Ñĸ
Ð³ Ðµ
Ð»Ñİ Ð±Ð¸
ÑĦ Ðµ
ÑĪÐ° ÑģÑ§
ĠÐ¼Ð» ÑģÑĤÐ¸
Ð½ÑĮ Ñĸ
Ð½Ð¸ Ñħ
ĠÐ¿Ð¾Ð» Ð¾Ð²Ð¸
ÑĪÑĤÐ° Ð°Ð³Ð¾
ĠÐ½ Ñĥ
ĠÐº Ð¾Ð¶
Ñİ ÑĪÐºÐ°
ĠÐ´Ð²Ð¾ÑĢ Ðµ
ĠÐ¿Ð¾Ð¼ Ð¸Ð»
ĠÐ´ÑĢÑĥ Ð¶
ĠÐĲÐ»ÐµÐºÑģÐ°Ð½Ð´ ÑĢÑĥ
Ñģ Ð¼ÑĮ
ĠÑģ Ñĸ
ĠÐ» Ð°ÑĤÐ¸
ĠÑ¡ Ðº
ÑĩÐ¸ Ð¼
Ð½ÑĮ Ñİ
ĠÐºÐ½Ð¸ Ð³Ð°
ĠÐ³Ð»Ð°Ð² Ñĭ
ĠÐľÑĥÑĢÐ¾Ð¼ ÐµÑĨÑĬ
ĠÐ· Ð¼Ð¸
ĠÐ¿Ð¾ÑģÐ»Ñ£ Ð´
Ð¼ ÐµÐ½ÑĮ
ĠÑĤ ÑİÑĢ
Ð¹ ÑĤÐµ
ĠÐ³Ð¾Ð» Ð¾Ð²Ð°
ĠÐ¼Ð¸ÑħÐ° Ð¸Ð»
Ð²ÐµÐ´ Ðµ
ĠÐ½Ð°Ð¼Ðµ ÑģÑĤ
ÑĤ Ð½Ð¾
ĠÐº Ð»ÐµÐ²
ĠÑ¡ Ð³
ĠÑ¿ ÑĨ
ĠÐ³ÑĢÑ£ ÑĪÑĮ
ĠÑĩÐ° Ð´Ð¾
ĠÑ¡ Ð²
ĠÐºÐ°Ð· Ð½Ð°
Ð½Ð¸ ÐµÐ¼ÑĮ
Ð¾Ñģ Ð»Ð°Ð²
ĠÐ¼Ð° Ð»Ð°
ĠÐµ Ð·
ĠÐ²ÐµÐ» ÑĮÐ¼Ð¸
ĠÐķÑĢÑĥÑģÐ» Ð¾Ð½
ĠÑĨÐµÑĤ Ð²ÐµÑĢ
ĠÐ²Ð¼Ðµ ÑģÑĤÐ¾
ĠÑĥ Ð¼ÑĬ
Ð¾Ð¶ Ð´Ð°
Î ¿
ĠÐ½ Ð¾Ð³Ð°
ĠÑģÐµ ÑģÑĤ
ĠÐ²Ñģ ÐµÐ¼Ñĥ
ĠÑģÑĥÐ´ Ñĥ
ĠÐºÑĥ Ð·
ĠÐ²Ð»Ð° ÑģÑĤ
ĠÑģ ÑĢÐµÐ´
ĠÑģÑĤ Ð°ÑĤ
ÑģÑĤÐ² Ñ¹
ĠÐ¿ÑĢÑ£ Ð´Ð°
ĠÐ¸ÑģÐ¿ Ð¾Ð»
ĠÑĩÐµÐ»Ð¾Ð²Ñ£ ÐºÐ°
ĠÐ´ÑĢÑĥ Ð¶Ð¸
ĠÑģÐ¾Ð· Ð´Ð°
ĠÐ¿ÑĢ ÑĮ
Ð½Ð¸ Ð¼
ĠÐ¿Ð¾Ñģ Ñ£
ÑĪÑĤ Ñİ
ĠÐ¿Ð¾ÑģÐ»Ñĥ ÑĪÐ°
ĠÐº ÑĢÑĮ
Ð½Ñĭ Ð°
ĠÐ¿ ÑĬ
ĠÐ¸Ð²Ð°Ð½ Ð¾Ð²
ĠÑģÐ½Ð°ÑĢÑı Ð´Ñĥ
i n
ĠÐ¿ Ð»Ðµ
ĠÐ½Ð¸Ñĩ ÑĤÐ¾Ð¶Ðµ
ĠÐ»Ñİ Ð±Ð¸
ĠÑģÐº Ð¾Ð½
Ð»Ð¸ Ð½Ð°
ĠÐ¿Ð¾Ñģ ÑĢÐµÐ´
ĠÐ» ÐµÐ²
ĠÐ¿Ð»Ð° ÐºÐ°
ĠÐ´ÐµÑĤ ÐµÐ¼
ĠÐºÐ°Ð¼ ÐµÐ½Ð¸
Ñĩ Ð°Ð½
ĠÐ²Ð¸ Ð´Ðµ
ĠÐ¾ Ð´Ð¸Ð½
ĠÑĢÐ°Ð· Ð±Ð¾Ð¹
ÑģÐ»Ð° Ð²Ð°
ĠÐ»ÑİÐ± Ð¾Ð²ÑĮ
ĠÐ±Ð»Ð¸ Ð·
ĠÐ±ÑĥÐ´ Ðµ
ĠÑĢÑĥ ÐºÐ¸
ĠÐ½Ð° Ð´Ñ£
ĠÑĢ Ð¾Ð±
ĠÑĩ ÑĢÐµ
ÑĥÐ´ Ñĥ
ĠÑģÐµ Ð¹
ĠÑĦ ÑĥÐ½
ĠÐ°Ð½ Ð³
ĠÐ¸ Ð½Ñ£
Ñı ÑģÑı
ĠÐ³Ð»Ð°Ð³Ð¾Ð» Ð°ÑĤÐ¸
ĠÑĢ Ð¾Ð¶Ðµ
Ð¸ Ð²ÑĬ
ĠÑģ ÑĢÐµÐ±
Ð½Ð¸ ÑĨ
ĠÐ½Ð¾ ÑīÑĮ
ĠÑ Ĺ
Ð¾ÑĤ Ðµ
Ñĩ Ð¸ÑĤÑģÑı
ĠÐ³ ÑİÑĢ
ĠÐ²ÑģÑ§ ÐºÐ¾Ðµ
ĠÑģÐ°Ð¼ Ð¾Ð³Ð¾
ĠÐ¿ÐµÑĩ Ð°ÑĤ
ĠÐ³Ð¾ÑĢ Ð°Ð·
Ġ 9
ĠÐ²Ñĭ Ð±Ð¾ÑĢ
ĠÐ±Ð»Ð°Ð³Ð¾ ÑģÐ»
Ð¿ ÑĢÑ£
ÐµÑģ ÑĮ
ĠÐ¿ÐµÑĤ ÑĢ
Ñı Ð·
ÐµÐ¼ Ñ¹
ĠÐ¿Ð¾Ð» Ñı
Ñħ Ñ«
ĠÐ±ÑĢÐ° Ð½ÑĮ
ĠÐ½Ð¸Ðº Ð¾Ð»Ð¸
ĠÐĴÐ»Ð°Ð´Ð¸ Ð¼
ĠÐ¾ Ñĩ
Ð½Ð¸ Ð°
ĠÐ¶Ðµ Ð½Ð¾Ñİ
ĠÐ¿ÑĢÐ¸ Ð»Ð¾Ð¶
ĠÐºÐ½Ð¸ Ð³Ð¸
ĠÑĤÐ¾Ð¿ Ð¾ÑĢ
ĠÐ¿ÑĢÐ¸ Ð±Ð»Ð¸
ĠÑĩÐµÐ»Ð¾Ð²Ñ£ ÑĩÐµ
Ñħ Ð¾ÑĤÑ£
ĠÐ° Ð´Ð°
ĠÐ´Ð¾ÑĢ Ð¾Ð³
Ð¶Ðµ ÑĤÑĮ
ÑĩÐ¸ ÑĤÑĮ
êĻģ Ð¸
ĠÑ¡ Ð½Ð¸
ĠÐ½Ñ£ Ðº
ĠÐ±Ð¾Ð» Ð³Ð°ÑĢ
ÑĤ Ð¾Ð¼ÑĬ
ĠÑģÐ»Ð°Ð² Ñĭ
ĠÐ´ÑĮ Ð½ÑĮ
ĠÐ½Ð°Ð¿Ð¸ÑģÐ° Ð½Ð¾
ĠÐº êĻĳ
Ð±Ð¸ ÑĪÐ°
ĠÐ³ÑĢÑ£ ÑħÐ°
Ð°ÑĢ Ñ§
ĠÐ¸Ð²Ð° Ð½Ñĥ
ĠÑĩÐ° ÑģÑĤÐ¸
Ġ7 0
ĠÑģ ÑĥÐ¿
ĠÐĲ Ð»Ðµ
ĠÑ³ ÐµÑ¡
Ð»Ð° Ð²Ð¸
ĠÐ¸ Ð½ÑĭÑħ
ĠÐ¿ÑĢ ÐµÑģ
ĠÐ½Ðµ Ð²
ĠÐºÐ¾ÑĢ Ð¼Ð¸
ÑħÐ° ÑĤÑĮ
ĠÑģ ÑĢÑ£
Ð²Ð¾ Ñĥ
Ð½Ñ£ Ðµ
ĠÐ³Ð¾Ð²Ð¾ÑĢ Ð¸ÑĤÑĬ
ĠÑĩÐ° Ð´Ð°
ĠÐ¼ êĻĳ
ĠÑĤÐ¾ Ñİ
ĠÐ²Ñ£ ÑĤ
ĠÐĴ Ð¸Ð´Ñ£
ĠÐ¶Ð¸ Ð²Ñĥ
ĠÐ¿Ñĥ ÑĤÑĮ
ĠÐ²ÐµÐ»Ð¸ÐºÐ¸ Ð¸
ĠÑ¡ ÑģÑĤÐ°Ð²
ĠÐ²Ð¾Ð» Ð¸
ĠÑĤÑĢ ÐµÑĤ
Ñ ©
ÐµÐ½ ÑĸÐ¸
ĠÐ¿Ð¾Ðº Ð¾ÑĢ
ĠÐº Ñ¡
Ð´Ð¾ Ñİ
Ð»ÐµÐ½ Ð°
ĠÐ²Ð¸ Ð½Ð°
Ð°ÑĢ Ðµ
ĠÐ¿Ð°ÑĤÑĢÐ¸Ð°ÑĢ Ñħ
ĠÑģ êĻĹ
Ð½ÑĮ Ñı
ĠÐ¸ ÑĤÐ¸
ĠÐ¿ÑĢÑı Ð¼
ĠÑģÐ¸ Ð¼ÑĬ
Ð¸ÑĤ ÐµÐ»Ð¸
ÐºÐ¸ ÑĤÐ¸
ĠÐŁ ÐµÑĢ
ĠÑĢÑĥ ÑģÑĮ
ĠÐ¿Ð¸Ñī Ð°Ð»ÑĮ
ÑģÐº Ðµ
ĠÐ¥ÑĢÐ¸ ÑģÑĤ
ÑĩÐµ Ñİ
ĠÐ¿ Ð¸ÑĤÑĮ
ÑĢ Ñ¡
ĠÐ¼Ðµ Ñĩ
ĠÐ¿Ð¾Ð³Ð¸ Ð±
Ī Ļ
ĠÑģ ÐµÐ¼Ñĥ
ĠÐ¿ÑĢÐ¸ Ð»Ñ£
ÑĢÐ¸ ÑĩÑĮ
ĠÐ³Ð¾ÑģÐ¿Ð¾Ð´ ÑģÑĤÐ²Ð¾
ĠÐºÐ°Ð· Ð½Ð¸ÑĤÐ¸
Ñ§ ÑĤÐµ
ĠÐ½Ð° Ð¼Ñ£
ÑģÐº ÑĸÐ¸
ĠÐĶ Ñĥ
ĠÑģÐµÑĢÐµ Ð±
ĠÐ½Ð°ÑĢÐ¸ ÑĨÐ°
ĠÐºÐ»Ñİ Ñĩ
ĠÐ¿ÑĢÐ¿ Ð±
ĠÐ²ÑģÑ§ ÐºÐ¾Ð¼Ñ¹
Ð¼Ñĭ ÑĪ
ĠÐ½Ð¸ Ð¼ÑĮ
ĠÐ¿Ð¾Ð´Ð¾Ð± Ð½Ð¾
ÐµÑĢ Ñĥ
ÐµÑģ Ð°
ĠÐ³Ð»Ð°Ð² Ñĥ
ĠÐºÑ¹ Ð¿
ĠÐºÐ¾Ñģ Ð°
ĠÐº Ð¾Ð³Ð´Ð°
Ð¸Ð» Ð¾Ñģ
ĠÐ´Ñĥ Ð±
ĠÐ¶Ð°Ð» Ð¾Ð²
Ð¾ Ñĩ
ĠÐ³ ÑĢÑĬ
ÑĹ Ñİ
ĠÐ¿Ð¾ÑģÑĭ Ð»Ð°
ĠÐ¾Ñĥ Ñĩ
ĠÐ»Ðµ Ð¶
ĠÑĥÐ³Ð¾Ð´ ÑĮÐ¸
ĠÐ± Ð¾Ð¶Ðµ
ĠÐºÐ¾ÑĤÐ¾ÑĢÑĭ Ñı
Ð·Ð° Ð¼Ð¸
ĠÑģ êĻĳ
ĠÐµ Ð²
ĠÐ»ÑİÐ´ Ð¼Ð¸
ĠÐ¿Ð¾Ð´Ð¾Ð±Ð° ÐµÑĤ
ÑĢ Ð¸Ð½
ĠÐº ÑĥÐ´Ñĭ
Ð°Ð² ÑĪÐµ
ĠÑĩÐ° ÑģÑĤÑĮ
Ð½Ð¾Ð¼ êĻĭ
ĠÐ¿Ð¾ÑģÐ» êĻĭ
Ð°Ð½ Ð¾Ð²
ĠÐŀ ÑĤÑĬ
ĠÑħÑĢ ÑģÑĤ
ÑīÐµ Ð¸
Ðº Ñ«
ĠÐ²ÐµÐ»Ð¸ ÐºÐ¾Ðµ
Ñµ Ð¿
Ð´ Ð¾Ð²
ĠÑģÐ²Ñı ÑīÐµÐ½
ĠÐ±Ð»Ð°Ð³ Ð¾Ð´
ĠÐ²Ð¾Ð»Ð¾Ð´Ð¸Ð¼ ÐµÑĢÑĬ
ĠÐ¿Ð° ÐºÐ¾
ĠÑĩÐµÐ»Ð¾Ð²Ðµ ÐºÑĥ
Ð¾Ð» Ð¾Ð¼
ĠÐ²Ñ£ ÑĢÐ¾Ñİ
ĠÐ¿Ð¾ÑĪÐ»Ð¸ Ð½Ñĭ
ĠÐ¼ ÐµÐ»
ÑĪÐ¸ Ð¼
ĠÑĢÑĥÐ± Ð»ÑĮ
Ð½êĻĳ Ð¸
Ð» Ð¾Ñģ
Ñİ ÑĩÐ¸
ĠÑĦ Ð¸Ð»Ð¸
Ð°ÑĤ Ðµ
ĠÑĪÐ¸ ÑĢÐ¾Ðº
Ð³Ð¾ Ðµ
ĠÐ¸Ð¼ ÑĮ
ĠÐ¼ ÑĨ
Ð»Ð° ÑģÑĮ
Ð³ Ð´Ñĭ
ĠÐ¡ Ð°Ð¼
ĠÐ¿ÑĢÑ£ Ð¼
ĠÑĤÑĢÐµ ÑĤÐ¸
ĠÐŁ ÑĢÐ¾
ĠÐºÐ¾Ð½ ÑĨÐ°
ĠÐ½Ð°ÐºÐ°Ð· Ð°Ð½Ð¸Ðµ
Ñı ÑħÑĥ
ĠÐĲ Ð¼Ð¸
ĠÐ³ Ð»Ðµ
ĠÐ· Ð»Ð¾Ð±
ÑĪÐµ Ñİ
ĠÐ±Ñĭ Ð²
ĠÐļ ÑĬ
ĠÑĤÑ£ Ð»ÐµÑģ
ĠÑģÐ¿ Ð¸
ĠÐ¼Ð½Ð¾Ð¶Ðµ ÑģÑĤÐ²Ð¾
Ñĭ Ð½Ðµ
ĠÐ½ Ð¾Ð²Ð°
ĠÑĪ ÐµÐ»
Ð´Ð¾ Ñħ
ĠÑģÐ¿ ÑĢÐ°ÑĪÐ¸
ĠÐ³Ð½Ñ£ Ð²ÑĬ
ĠÐ± ÑĢÐµ
ĠÐ¡ Ð»Ñĭ
Ð²Ñĭ Ð¹
ĠÐºÐ¾Ñĥ Ð½Ð¾
ĠÑĢ Ñ«
ĠÑģÐ²Ð¾ ÐµÐ¼ÑĮ
ĠÑ¡ Ð½ÑĬ
ĠÑģÑĤÐ¾ÑĢ Ð¾Ð½Ñĭ
ĠÐ³ Ñ¹
ĠÐ¿ÑĢÐ¸ Ð»Ðµ
ĠÐ¸Ð¼ ÐµÐ½Ð¸
ĠÑģÐ»ÑĭÑĪÐ° Ð²ÑĬ
ÑģÐº êĻĳ
ĠÑĢÐ° Ð±Ð°
È ¥
ÑĢ Ð¸ÑĤ
ĠÑĥÐ¼ ÐµÑĢ
ĠÐ¿Ð°Ð¼ ÑıÑĤÐ¸
ĠÐĴ Ñģ
ĠÐ²Ð¾Ð· Ð²ÑĢÐ°ÑĤÐ¸
ĠÑĤ Ð¾Ð²Ð¾
Ð³ Ð½Ñ£
ÐµÐ· ÑĬ
ĠÐļ Ð½Ñı
ĠÐ»ÐµÑģ Ñĭ
ĠÐ½Ð¾Ð²Ð³Ð¾ÑĢÐ¾Ð´ ÑĮ
ĠÐ¿ÐµÑĢ ÐµÑģ
ĠÐ¿Ð¾Ð³ ÑĥÐ±
Ð° Ð³Ð°
ĠÐ¿ Ð¾Ð¶Ð¸
Ð³ Ð°ÑĤÐ¸
ĠÐ½Ð° Ð¹
ÑīÐ¸ Ð¼ÑĬ
ĠÑĤÐ°Ðº Ð¾Ð¹
ĠÑģÑĤÑĢ ÐµÐ»
ĠÑĤÐ²Ð¾ÑĢ Ð¸
ĠÐ´ ÑĢÑĮ
ĠÐ° Ð»Ð¸
Ð¶ ÑĥÑĤ
ĠÐ¿ÑĢÐ¸ Ð¸Ð´Ðµ
ĠÐ½Ð¾ ÑīÐ¸
Ð½Ð¸Ðº Ñĭ
ĠÐ¾Ñģ Ð¾Ð±
ĠÐ´Ñ£ Ð»ÑĬ
Ð»ÐµÐ½ Ñĭ
ĠÐ¶Ðµ Ð·
ĠÐ´Ñĥ ÑĪÐ¸
ÐµÐ² ÑĮ
ĠÐ¶Ð¸ ÑĤÑĮ
ĠÑ¡Ð± ÑĢÑ£
ĠÐ¾ ÑģÐ°
ĠÐľÑĥÑĢÐ¾Ð¼ ÐµÑĨÑĮ
ĠÐ¿Ñĥ ÑĪÐµ
ĠÐ²ÑģÑ§ ÐºÐ¾Ð¼ÑĬ
ĠÐ²Ð°ÑģÐ¸Ð»ÑĮ ÐµÐ²Ð¸ÑĩÐ°
ĠÐ¿ÑĢÐ¾Ð¼ ÐµÐ¶
ĠÑħ Ð°
ĠÐ¿Ð¾Ð¿ Ð°
ĠÐ¿ÑĢÐ¸ Ð²Ð¾Ð´
ĠÐ¼Ð¸ÑĤ ÑĢÐ¾Ð¿
ĠÐºÐ½Ñ§Ð· Ñİ
ÑīÐ¸ ÑħÑĬ
ĠÐ»ÑİÐ´ ÑĸÐµ
ĠÐ½Ð°ÑĩÐ° ÑĪÐ°
ĠÐ³ Ð»Ñĥ
ÑĪÐ° Ñı
ĠÐ¼Ð¾ÑģÐº Ð²Ðµ
ĠÐ¾Ð±Ñĭ ÑģÐº
ĠÑĢÑĥÐ± Ð»Ñı
Ð¾Ð± ÑĢÐ°
ĠÐ¢ ÑĬ
ĠÐ³Ð¾ÑĢ Ñĭ
ĠÐŁ Ð°
ĠÐ¸ Ð´Ñĥ
ĠÐ²Ð· ÑıÑĤÑĮ
êĻģ Ñ£
ĠÐ´ÐµÐ½Ðµ Ð³
ĠÐ¼ Ð¸Ð¼Ð¾
ĠÐ³Ð»Ð°Ð³Ð¾Ð» Ñı
ĠÑģÐ¼ÐµÑĢ ÑĤÑĮ
ĠÐ² Ð°Ð²
ĠÑĤÐ²Ð¾ ÐµÐ¼Ñĥ
Ð¿Ð¸Ñģ Ð¸
Ñī Ð¸Ñħ
ĠÐ¾Ð³ Ð½ÑĮ
ĠÑĩÑĮ ÑĤÐ¾
ĠÑģÐµÑĢÐµ Ð±ÑĢÐ°
ĠÑĢÑĭÑĨ ÐµÑĢ
ÑĢ Ð¾Ð´
Ð°ÑĢ Ñĥ
Òĩ .
Ñĩ Ð°Ð»
ĠÐ·ÐµÐ¼ Ð»ÑĮ
ĠÐ¾ ÑģÑĤÐ°
ĠÐ¾Ð± Ðµ
ĠÐºÐ¾ Ðµ
ĠÐ²ÐµÐ» ÐµÐ½Ð¾
ĠÑģÐ¼ÐµÑĢ ÑĤ
ÑĮ Ð¼
ĠÐ½Ðµ Ñģ
ĠÑĩÐµÑĤÐ²ÐµÑĢÐ¾Ð³ ÑĢÐ°Ð½
ĠÑģ Ð½Ñ£
Ð¼ Ð¶Ðµ
ÑĤÐ¸ Ð½Ñĥ
ÑĪÐµ Ðµ
ÑĤ Ð²Ñĭ
ÑĪ Ñ£
ĠÐ² Ð²ÐµÑĢ
ĠÐºÐ½Ñı Ð³
Ð½Ð¸ ÑĨÑĥ
ĠÑģÐº Ð¾Ð»ÐºÐ¾
Ð½ Ð¾Ð²Ðµ
ĠÐĳ Ñĭ
ĠÑĪ Ñĥ
ĠÐ»Ðµ Ð¶Ð°
ĠÑĥÐ± Ð¾Ð³
Ð¸ ÑģÑı
ĠÐ± ÑĢÐ¾Ñģ
Ð¾Ð» Ñĭ
Ð¾Ñĥ Ð¼Ñ£
ÐºÐ¾Ð¼ ÑĮ
ĠÐ¿Ð¾Ð¼Ñĭ ÑģÐ»Ð¸
ĠÐŁ Ð¾Ð»
ĠÐ²ÐµÐ»Ð¸ ÐºÑĥÑİ
ĠÐ²Ð¸ Ð´Ñı
ĠÐ¿Ð° ÑĪ
ĠÑĨÐµÑĢ ÐºÐ¾Ð²
Ð± Ð»Ð°
Ð½Ñ£ Ð¹
ÑĤ ÑģÑ§
Ñħ Ñĭ
ĠÑĢÐ° ÑģÑĤ
Ð±Ðµ Ð¶
ĠÑĤÑĢÐ¾ Ð¸
ĠÑģÑĢ Ð´
ĠÐ³ Ð¾ÑģÑĤÑĮ
ĠÐ¿Ð¾ÑĪÐ»Ð¸ Ð½
ĠÐ² Ñĸ
Ð½Ð¸ Ð¼ÑĬ
ĠÑĢÑ£ ÑĪÐ°
ÑĪ êĻĻ
ÑĪÐ¸ ÑĤÑĮ
ĠÑ¡ Ð´
ĠÐ´Ð¾Ð¿ ÑĢÐ°Ð²Ð¸ÑĤÐ¸
ĠÑģÑĤÐ°ÑĤÑĮ Ð¸
ĠÐ¸ Ð½Ð°
ĠÐ± Ñ§
Ð´Ð¸ Ð½Ð°
ĠÐºÑĢ Ð¾Ð¼Ñ£
ÑĪ Ð¾Ñĥ
Ð°ÑĢ Ñİ
ĠÑĢÐµ ÐºÐ¾ÑĪÐ°
ĠÑģÐ² Ðµ
ĠÐ¼Ðµ ÑģÑı
Ð½ ÐµÐ¼Ñĥ
ĠÑħÐ¾Ð´ Ð¸
ÑģÑĤ Ð½Ð¾
ĠÐ± Ð³Ð°
Ð¿ Ð¾ÑĢ
ÑĪÐµ Ð½Ð¸Ðµ
ĠÑ¿ Ð´Ð°
ĠÐ´Ñ£ Ð»Ñĥ
ĠÑıÐ·Ñĭ ÐºÑĬ
ĠÑĥ ÑģÑĤÐ°Ð²
ĠÐ³Ð¾ÑĢ Ðµ
ĠÐ¿ÑĢÐ¸ÐºÐ°Ð· Ðµ
ĠÐ° Ð±
Ð¿ Ñ¹
ĠÐ¾Ð± Ð¾Ð·
ĠÐĽ Ñİ
ĠÑħÐ¾Ð»Ð¾Ð¿ Ð¸
Ñħ Ð°ÑĤÐ¸
Ñĩ ÑĤÐ¾
Ñ§ ÑīÐ°
ĠÐ¿Ð¾Ð¶Ð°Ð» Ñĥ
ĠÐ¸Ð³Ñĥ Ð¼
ÑĤ Ð°Ð½
Ð¶ Ð´Ñĭ
Ð¾Ð²Ñ£ ÑĢ
ĠÐ¿ÑĢ Ð¾Ð·
Ð´Ð° Ð²
ĠÑĢÐ°Ð´Ð¾ ÑģÑĤÑĮ
ÑĩÐ¸ Ð½Ñĭ
ĠÐ³Ð¾Ð» Ð¾Ð²Ñĭ
ĠÐ´Ð°Ð»Ðµ ÑĩÐµ
Ð» Ð³
ĠÐ·Ð° Ð´
ĠÑħÐ¸ÑĤ ÑĢÐ¾ÑģÑĤÐ¸
ĠÐ´Ð° Ð½ÑĮ
ĠÐŀ Ð½
ĠÐ¿Ð¾Ð¿ ÐµÑĢÐµ
ĠÐ´ Ð²ÐµÑĢ
ĠÐ³Ð¾Ñģ Ð¿
ĠÐ²Ð¾Ð· ÑĢÐ°
ĠÐ½Ñ£ ÑĤÑĬ
ĠÐ¿Ð» Ð¾Ð´
ĠÐ±Ð¾ Ñİ
ĠÑĤÐ° ÑĤÑĮ
ĠÐºÐ¾ÑĤÐ¾ÑĢ Ð°Ñı
ĠÐĲ Ð·ÑĬ
ĠÑģÐ¾ ÑģÑĤÐ°Ð²
Ð¾Ð± Ð¸
Ð´Ð° Ð½
ÑĢÑ£ ÑĤÐ¸
Ð¸ Ð·
ĠÐ¿Ð¾Ð² Ð¸Ð½
Ð· Ñİ
ĠÐ¾ ÑĨ
ĠÐ¿Ð¾ ÑħÐ¾Ð´
ĠÐ¸ÑģÐ¿ ÑĢÐ°Ð²
ĠÐ¼Ð¾Ðµ Ð¸
ĠÐ½Ðµ Ð±Ð¾
ĠÑģÐ¾ ÑħÐ°
ÑĢ ÐµÑĤ
ĠÐ²Ñ£ ÑģÑĤÑĮ
ĠÐ½Ñ£ ÐºÐ¾Ðµ
ÑĨÑ£ ÑħÑĬ
Ð²Ð° Ð½Ð°
ĠÐ´Ð° ÑĤÑĮ
ĠÐ±Ð¾Ð³ Ð¾Ð¼
ĠÐºÐ¾Ð» Ñ£
ÑĢÐ¾ÑĤÐ¸ Ð²
Ð³ ÑµÐ¿
ĠÐ¿Ð¾Ð» Ñİ
ĠÑĢÐµ ÑĩÐ¸
ĠÑģ ÑĸÐ°
ĠÐ²Ñ£ ÐºÐ°
ĠÑĨÐ°ÑĢ ÑģÑĤÐ²Ð°
ĠÑģÑĤÐ°ÑĢ Ñ£
ĠÐ²ÑĢÐµÐ¼ ÐµÐ½Ð¸
ĠÐ´ÐµÑĢÐµÐ²Ð½Ñı Ð¼Ð¸
ÑĤÑĨÐ° ÑĤÑĮ
Ñĩ ÐµÐ½Ñĭ
ĠÑĥ ÑĩÐµ
ĠÐ¿ÑĢÐ¸ Ñı
ĠÐļ ÑĤÐ¾
ĠÐºÑĢÑĥ Ð¶
ĠÐ» Ð¾
êĻ ħ
ĠÐºÐ¸ ÐµÐ²
ĠÑĤ Ð¾Ð¶Ðµ
Ñħ Ð¾ÑĤ
ĠÐµ Ð»
ĠÐ²ÐµÐ»Ð¸ ÐºÐ¾
ĠÐ²Ð°ÑģÐ¸Ð»ÑĮ Ñı
ÑģÑĤ Ñ«
ĠÐµ ÑģÑĤÑĬ
ĠÐ´Ð¾ Ñĩ
Ñµ ÑģÐµ
Ð¾Ðº Ð¸
ĠÑģÐ² Ð¸Ð½
ĠÑ£ ÐºÐ¾
ĠÐ¾ Ð´Ðµ
ÐµÑģ ÑĬ
Ð½ ÐµÑĤÑĬ
ĠÐ±Ð¾ÑĢ Ð¸ÑģÐ°
ĠÑĩÐ¸Ð½ Ð¾Ð²
Ð»Ð¸ ÐºÐ°
Ð´ ÑĨÐ°ÑĤÑĮ
ÑģÑĤ Ð°ÑĤ
ĠÐ¶ Ð¸ÑĤÐ°
ĠÑĤÐµ Ð¿
ĠÐ¿ÑĢÐ¾ ÑĪ
ĠÑĤÐµÐ¼ Ð¸
ĠÐ¶Ð¸Ð²Ð¾ ÑĤÑĬ
Ñ§ Ð»ÑĬ
ÑĦ Ð°Ð½
ĠÐº Ð½ÑĥÑĤ
Ñĸ ÐµÐ¼ÑĮ
ĠÑģÑĤÑĢÐ° ÑħÑĬ
ÑĤ Ð¾Ð²
ĠÐ½ Ð¾Ð²ÑĬ
ĠÑĢÐ°Ð· êĻĭ
ĠÐ¿Ð¾Ð¼Ðµ ÑģÑĤÑĮÐµ
Ð¸Ð´ ÐµÑĤÑĮ
ĠÐºÑĢ Ð¾Ð²
ĠÐºÐ»Ð° Ð½Ñ§
Ðµ r
ĠÐ¸ Ð¾ÑģÐ¸
ĠÐ¾Ð¿ ÑĢÐ¸ÑĩÑĮ
ĠÐ´Ð¸ Ñı
ĠÐ¿Ð¾ÐºÐ»Ð°Ð½Ñ§ Ð½Ð¸Ðµ
Ð°Ðº Ñĥ
ÑĪ Ð¸ÑĤ
ĠÐ½Ðµ Ñİ
ĠÐ½Ð¸ Ð·
ĠÑ¹ Ð¼
Ñĭ Ñ§
ÑĪÐµ Ð¸
ÐµÑĤÑĮ ÑģÑı
ĠÐ¾Ñĥ Ð±Ñ¡
ÑģÑĤÑĭ Ð½Ñİ
ĠÐ°ÑĢÑħÐ¸ Ðµ
ĠÐ¿ÑĢÑĸÐ¸ Ð´Ðµ
ĠÐ¿Ð¾ Ð¸Ð¼Ð°
ĠÑħ Ð²Ð°Ð»Ð¸
ĠÐ´Ñĥ Ð¼
ĠÐ±Ð»Ð° Ð¶Ðµ
ĠÑ į
Ð¶Ðµ ÑĤÑĬ
ĠÐ·Ð°Ð¿Ð¾Ð²Ñ£ Ð´Ð¸
Ñī Ñ¹
ĠÐŀ Ð½ÑĬ
ĠÑģÑĮÑĢ Ð´ÑĮ
ÑģÑĤ Ð¾Ð²
ĠÐ²ÐµÐ»Ð¸ÐºÐ¸ Ð¼ÑĬ
ÑĤ Ð¾Ð²Ð°
ĠÑĥ Ð²Ð¸
ĠÐ²ÐµÐ»Ð¸Ðº Ð¾Ð¹
Ġâ ĪĻ
Ġ â¸±
ĠÐ¿Ð¾Ð» ÑĮ
ĠÐºÐ°Ð· Ð°ÐºÑĬ
ĠÐ´Ð¾Ð±ÑĢ Ð¾Ð´Ñ£
ĠÐ¼ Ð¾Ð»Ð¸
ĠÐ²ÐµÐ»Ð¸ ÐºÐ¾Ñİ
ĠÐ²Ð»Ð° ÑģÑĤÑĮ
ĠÐ¿ ÑĭÑĤÐ°
ĠÐ¾ ÑģÑĤÐ°Ð½
Ð¾Ð± Ð°
ĠÐ²ÑĮ Ñģ
ĠÐ¾ÑĩÐ¸ Ð¼Ð°
ĠÐĴÐ»Ð°Ð´Ð¸ Ð¼Ð¸
ĠÐ½Ð° Ð·Ð°
ĠÐ° Ð¼Ð¸
Ð¿ ÑĢÐ¸
ĠÑģÐ¸ Ñİ
ĠÐ¿Ð¾ÑĤ Ñı
ĠÑģÑĤ ÑĥÐ¿
ĠÐ½Ð° Ð·
ĠÐ¡Ñĭ Ð½Ñĥ
ĠÑĤÐ° Ð¹
ĠÐ³ Ð»Ñ£
ĠÐºÑĢ Ð¾Ð²ÑĮ
ĠÐ´Ð¾Ð¼ êĻĭ
ĠÑģÐ¼Ð¾ÑĤ ÑĢÑı
ÑĪ Ð¾
Ð½Ðµ ÑĨÑĬ
ÑīÐµÐ½ ÑĸÐµ
ĠÐ¾ÑĤÐ²ÐµÑĤÑĩÐ¸ Ðº
ĠÐ²ÑģÐµ Ð³Ð´Ñĭ
ĠÐ±Ñ£ Ð»Ñĭ
ĠÑģÐ¾ÑĤÐ²Ð¾ÑĢ Ð¸ÑĤÐ¸
ĠÐ²Ð°ÑģÐ¸Ð»ÑĮ ÐµÐ²Ð¸Ñĩ
Ñģ ÐµÐ½
ĠÑĢÐ°Ð´Ð¾ ÑģÑĤÐ¸
ĠÑħÐ¾Ð»Ð¾Ð¿ Ð°
ĠÑģÐ»Ð° Ð´
ĠÐ¿Ð¾ÑģÐ° Ð´Ð¸
ĠÐ¸Ð· Ð²Ð¾Ð»
ĠÑģÑĤÑĢÐ° Ð½Ð°
ĠÑĩÐµÑĢ Ð½Ð¸
ĠÐ²Ð¸Ð´Ñ£ Ð²ÑĬ
ĠÑģÐºÐ°Ð· Ð°
Ð½Ñı Ð³Ð¾
ĠÐºÐ½ÑĥÑĤ Ð¾Ð¼
Ñģ Ð¸ÑĤÐ¸
ÑĥÐ´ Ñ£
Ð¾Ð½ Ð¾Ñģ
ĠÐ½Ð¸ Ð¶
Ð»Ñı Ð¹
ĠÑģÐ¼ Ñĭ
ĠÑĦÐµÐ´Ð¾ÑĢ Ð°
Ð» Ð¾Ð²Ð¾
ĠÐ¿ Ð¾Ð¹
ĠÐ¸Ð¼Ð° ÑĪÐ¸
Ð» Ñģ
Ð°Ð² Ð¸
ÐºÑĬ ÑĢ
ĠÐ´Ð°Ð² Ñĸ
ĠÑĥ Ñģ
ĠÑģ Ð¾Ð½
Ð¶Ð¸ Ðµ
ÐµÐ½ÑĮ Ñı
Ð±Ð¾ Ð¸
ĠÐ¼Ðµ ÑĩÑĮ
ĠÐ¼Ð°Ð½Ð°ÑģÑĤÑĭ ÑĢÑĮ
Ð´Ñ£ Ð¶Ðµ
ĠÐĳ Ð»Ð°
ĠÑī Ðµ
ĠÐºÐ¾ÑĢÐ¾Ð» Ñı
Ð°Ð·Ñĥ Ð¼Ñ£
ÑĤ ÐµÐ½
Ñī ÐµÐ¼ÑĬ
ÑĢ ÐµÑĤÑĮ
Ð¼ Ð°ÑĤ
ĠÐ» Ñ§
ĠÑģÑĥÐ´ Ðµ
ĠÑ¡Ð± Ð¸Ñħ
Ð´ Ð¾Ð¼
ĠÐº Ð¾Ð¼Ñ¹
ĠÐºÐ½Ñı Ð¶Ðµ
ĠÐ¾Ðº Ð¾Ð»Ð¾
ĠÐĶÑĢÑĥ Ð¶
ĠÑĤÐ²Ð¾ Ð¸Ð¼ÑĬ
ĠÐķ Ð¶Ðµ
ĠÐ¼Ðµ ÑģÑĤÐ°
ĠÐ±Ð»Ð¸ Ð¶
ĠÐľÐ¸ÑħÐ° Ð¸Ð»Ð¾
Ñ¡ Ð½ÑĬ
ÑĢÐ¸ Ð»Ð°
ĠÐ²ÑĬÐ· Ð´Ð°
ĠÑģ Ð¾Ð»Ð¸
ĠÐ¼ ÑģÑĤÐ¸
ĠÐ¿Ð¾Ñģ ÑĬ
ĠÐºêĻĭ Ð¿
ĠÑĤ Ð¾Ð¶
ĠÐ¿Ð¾Ð¼ Ð¸Ð½Ð°
ĠÐ¼Ðµ ÑģÑĤ
ÐµÐ½ Ñ£
Ð°Ð» Ñ£
ĠÐ²Ð¾ ÑģÑĤ
ĠÑģÐ¾Ð» Ð¾Ð¼
ĠÐ´ÑĢÑĥÐ³ Ð¾Ð¹
ÑģÑĤ êĻĳ
ÑģÑĤÐ¸ Ð¸
ĠÐļ Ð°
ĠÐ Ħ
ÑĨ ÐºÐ¾Ð¹
Ð³ Ð»
ĠÑĢ Ð¾ÑģÑĤÐ¸
ÐºÐ° Ð¼ÑĬ
ÐºÐ° ÑħÑĬ
ĠÐ¿Ð¾Ð» Ñ£
ĠÑĸ Ñģ
ÑģÐºÐ° Ð°
ĠÑģÐº Ð¾Ð»ÑĮÐºÐ¾
ÑģÑĤ ÑĸÑİ
ĠÐ¼Ñ£ ÑģÑı
ĠÑĤÑ£ Ñħ
Ð±Ð¸ ÑĢÐ°
Ðµ Ðµ
ĠÑ» ÑģÐ¿Ð¾Ð´
ĠÑĢÐ¾Ð· Ð±Ð¾Ð¹
ĠÑ¡ Ð±Ñĭ
ĠÐĲÐ»ÐµÐºÑģÐ°Ð½Ð´ ÑĢÐµ
ĠÑĥÑģÑĤÑĢÐ¾ Ð¸ÑĤÐ¸
Ð¶ Ñ§
ĠÐ²Ñ£ ÐºÑĭ
ĠÑ ¸
ĠÐ¿ÑĢ ÐµÐ²
ÑīÐµ Ð¹
Ñħ Ñĸ
ĠÐ¿Ñ£ Ñģ
ĠÐµ Ñĥ
ĠÐ²ÑĬ ÑģÐ°
Ð¾Ð¿ Ð°
ĠÐ·ÐµÐ¼ Ð»Ñ£
ĠÐ½Ð°ÑĪÐ¸ Ð¼
ĠÐ¼Ñ£ ÑĢÑĭ
ĠÑĢÐ°Ð·ÑĥÐ¼Ñ£ ÑĤÐ¸
ÑĪ Ð¸Ð½
ÐµÑĤ ÑģÑ§
ĠÑħ Ð¾ÑĢÐ¾
ĠÐ½ÐµÐ±ÐµÑģ ÑĮ
ĠÑ º
ĠÐ± ÐµÐ´
ĠÐ¿ÐµÑĤ ÑĢÑĥ
Ñĩ ÐµÐ¼
ĠÐ¿Ð¾Ð´ Ð»Ð¸Ð½
ĠÐ²ÐµÑĢ ÑĮ
ÑĪÐµÐ½ ÑĸÐµ
ĠÐ±Ñ£ ÑĪÐµ
ĠÑħÐ¾ ÑīÐµÑĪÐ¸
ĠÐµ Ð¿
ĠÑ¿ ÑĤ
ÑģÑĤÐ² Ð¾Ð²Ð°ÑĤÐ¸
ĠÑĢÐ°Ð· Ð¾ÑĢ
Ð´Ð° Ð»Ð¸
ĠÐ±Ð»Ð° Ð³Ð°
ĠÐ¿ÐµÑĩ Ð°Ð»ÑĮ
Ð» Ñĸ
Ð¾Ð²Ð° ÑĤÑĮ
Ð¿ ÐµÐ·
Ð¶ Ð°Ñģ
Ð¾Ð½ Ð¾
ĠÐºÐ½Ñı Ð¶
ĠÐ½Ð°Ð´Ð¾Ð± Ð½Ð¾
ĠÐ¿ÑĢ ÑĢ
ĠÐ³Ð¾ÑĢÐ¾Ð´ Ð¾Ð²
ĠÐ¼Ð¾Ð½Ð°ÑģÑĤÑĭ ÑĢ
ĠÐ¸Ð´Ðµ Ð¶Ðµ
ĠÐ¾ Ð·
ĠÑģÑĤÑĢÐ° Ð½Ñĭ
ĠÐ¼Ñĥ ÑĢ
ĠÐ³ÑĢÐ¸Ð² Ð½Ð°
ĠÐºÐ°Ð±Ð°Ð» Ñĭ
ĠÐ¼Ð¸ÑĤÑĢÐ¾Ð¿Ð¾Ð» Ð¸ÑĤÐ°
ĠÐ¡Ð² ÑıÑĤ
ĠÐĶÑĢÑĥÐ¶ Ð½ÐµÐ²
ĠÐ¾Ñĥ ÑĤ
ĠÑħÐ¾Ð´ Ð¸ÑĤÐ¸
ĠÐĵÐ¾ÑģÐ¿Ð¾Ð´ Ð¸
ĠÐ¼Ð°Ðº ÐµÐ´Ð¾Ð½
ĠÐ¿ÑĢÐ°Ð²Ð¾ ÑģÐ»Ð°Ð²
ĠÐ¿Ð¸Ñģ Ð¼Ð°
ĠÐºÑĢ Ð¾ÑĤ
ÐµÐ½Ð¸ Ñİ
Ð² Ð°ÑĢ
Ð»Ðµ Ð·
ĠÐ³Ñĥ Ð±
Ð´Ðµ Ð¸
ĠÑģÐ¼ Ð¾Ð»
ĠÐºÐ½Ñ§Ð· Ñ§
Ñĩ ÑĬ
ĠÐ¼Ñ£ ÑĢÐ°
Ð³Ñĥ ÑģÑĤÐ°
ĠÐ¼Ð½Ð¾Ð³ Ð¸Ðµ
ĠÐ¤ Ð¸Ð»Ð¸
ĠÐ² Ð¸ÑĤ
Ñģ êĻĭ
ĠÑģÐ² ÐµÑĤ
ĠÐ¸ Ð½ÑĭÑħÑĬ
ĠÐ» êĻĭ
ĠÐ¢ Ð¾Ð³Ð¾
ĠÐĶ ÐµÐ²
ĠÑĢÐ°Ð· Ð²Ñ£
Ñ³ ÑĬ
ĠÑģÑĤÐ¾ÑĢ Ð¾Ð¶Ðµ
ĠÐ½Ð°ÑĪÐ¸ ÑħÑĬ
ĠÐķÑĢÑĥÑģÐ» Ð¾Ð½ÑĬ
ĠÑĤÐ°Ðº Ð¸ÑħÑĬ
ĠÑ ¯
ĠÐĽ Ð¸
ĠÑĥÑĩ Ð¸Ð½
ĠÑĤÐ¾Ð»Ð¸ ÐºÐ¾
ĠÐ¼Ð»Ð° Ð´ÑĬ
Ġ h
ĠÐµ Ð´Ð°
ĠÑĢÑ¹Ðº Ð¾Ð´Ñ£
ĠÐ¿ ÑĭÑĤ
ĠÑħ Ñ¹
Ð¸Ð½ Ð¾Ð²
ĠÑĶ Ð³Ð¾
ĠÐ¿Ð¾ÑĢ Ñ§Ð´
ĠÐ¿Ð¾Ð³ Ñĭ
ĠÐ½ÐµÐ´ ÐµÐ»
ĠÐ² ÐµÐ½
ĠÐ·ÐµÐ¼Ð»Ðµ Ñİ
ĠÐ¸ ÑĤ
ÑģÑĤ Ð¾Ð¼ÑĬ
ĠÐ± ÑıÑĪÐµ
ĠÐĶ Ð¾
ĠÐ±Ð¾Ð» ÑĪÐ¸
ĠÐ¸Ð³Ñĥ Ð¼ÐµÐ½Ð°
ĠÐ´ Ñĭ
ĠÐº Ð¾Ð²
Ð½Ð¸ ÑĩÑĮ
ĠÐµ Ð³Ñ¡
ÐµÐ´ Ðµ
Ġ Â¦
ĠÐ± Ð¸Ð»Ð¸
Ñ¹ Ð±
ĠÂ· :
ĠÑĤÐ¾Ð± Ðµ
ÑĪ ÐµÐ½ÑĬ
Ð· Ð½ÑĮ
ÑĪÐ° Ð»
ĠÑĦ ÐµÐ´
ĠÐ´Ð° Ð½Ñĭ
ĠÑģÐµ ÑģÑĤÑĢÐ°
ĠÐľ Ð°Ð³
ĠÐ±Ð¾Ð» Ñ£Ð·
ĠÐ²ÐµÑĢ ÑħÑĬ
ĠÐ¥ÑĢÐ¸ ÑģÑĤÐ°
ÑĬ Ð»
ĠÐ½Ð° ÐºÐ°
ÑĤÐ° Ñı
Ñ¥ Ð¼ÑĬ
ĠÑĨÐµÑĢ ÐºÐ¾Ð²ÑĮ
ĠÐ³ Ñİ
ĠÐ¿ÑĢÐ¸ Ð³
ÑģÑĤÐ¾ Ñĩ
ĠÑģÐ°Ð¼ Ð¾Ð¼Ñĥ
m in
Ð¸ Ð½Ð¾
ĠÐļ Ñĸ
ĠÐ¿Ð¾ÑĤÑı Ð³Ð»Ð¾
Ð´ ÑĢÑĬ
ĠÑĥ Ð±ÑĭÑĤ
Ð¸Ð» Ñ£
ĠÐ²Ð¾ ÑģÑĤÐ°
ÑģÑĤÐ² ÑĥÑİ
ĠÐ± Ð¾Ð³Ð¾
ĠÑģêĻĭ ÑĤÑĮ
ĠÑĢÑĥÑģ ÑĸÐ¸
ÑĢ Ð¾Ð²Ð¸
Ð¾Ð² Ð°Ð»ÑĬ
ÑģÐº Ð°ÑĤÐ¸
Ñĩ ÐµÑĤÑĮ
ĠÑģÑĤÐ°ÑĢ ÑĨÐ°
ÑħÐ¾Ð´ Ñı
ĠÑģÑĢÐ¾Ðº Ñĥ
Ñı ÑħÑĬ
ĠÑ¡ Ð±Ñ£
ĠÐ¾Ñĥ ÑģÑĤÑĢÐ¾
ĠÐ¿ÑĢÐµ Ð±Ñĭ
ĠÐ²Ð¾Ð¸Ð½ ÑģÐºÐ¸ÑħÑĬ
ĠÐ¿ÑĢÐµÐ´ ÑĬ
ĠÐ²Ð¿ÑĢÐµÐ´ ÑĮ
ĠÐ² Ñ§
Ð¿ Ð°Ð½
Ð»Ð° Ð¼
ĠÐ¼Ð° ÑģÑĤÐµÑĢ
ĠÑģÐµÑĢÐ´ ÑĨÐ°
ĠÐ¾ ÑĤÐ¸
ĠÐ²ÑĬ Ð¿
ĠÑħÐ»Ñ£ Ð±
ĠÐ¸Ñģ ÑĨ
ĠÑģÑĤÐ¾ÑĢ Ð¾Ð½Ñĥ
ÑĦÐ¾Ð½ Ð°Ñģ
ĠÐ¼ Ð»Ð°Ð´
ĠÐľ Ñĭ
ĠÐ¸ Ð³Ð¾ÑĢ
ĠÐ° Ð²ÑĢÐ°
ĠÐ» Ð¾Ñģ
ĠÐŁ Ð¾Ð¿
ĠÐ±ÐµÐ· Ð¾
ĠÐ³Ð¾ÑĢÐ°Ð· Ð´Ð¾
ĠÐ¼Ð¸ÑĤÑĢÐ¾Ð¿ Ð¾Ð»Ð¸
ĠÑĥ Ð»Ð¸
ĠÐ´Ð° Ð²Ð°
ĠÐ¿Ð° Ð´Ðµ
ĠÐ¿Ð¸Ñģ Ð°ÑĤÐ¸
ĠÑ ±
ĠÐ½ Ñ¹
ĠÐº Ð°ÑĤ
ĠÑĤÐ¾ Ñı
Ð½êĻĭ Ñİ
ÑĢÐµ Ð¸
ĠÐ²Ð¾Ð· Ð»ÑİÐ±Ð»ÐµÐ½
ĠÐ³ÑĢ Ñ§
ĠÐ³Ð¾ÑģÐ¿Ð¾Ð´ ÑĮ
ÑĢ ÐµÐ²
ĠÐ¾ Ð½Ð¾
ĠÐ¶ Ð°
ĠÐ²Ð° Ð¼Ð¸
ĠÑĩÐ»Ð¾Ð²Ñ£ ÐºÑĬ
Ġh Ðµr
ĠÐ¾ÑĤ ÑĨÑĥ
ĠÑģÐ° Ð¶Ðµ
ĠÐ¿Ð¸Ñģ Ð°Ð»
ĠÑģÐºÐ° Ð¶ÑĥÑĤ
ĠÑģÑĤÐ²Ð¾ÑĢ Ð¸
ĠÐ¼ ÑĢÐ°
ÑģÐ¸ Ð¸
ĠÐ²Ñ£ ÐºÑĬ
ĠÐ¸Ñģ ÑĨÑĥ
Ð³Ð¾ÑĢÐ¾Ð´ Ð°
ĠÑĤÐ¾Ð² Ð°ÑĢÑĬ
Ð³Ð¾ Ñĥ
Ñī ÑĸÐ¸
ĠÐ» Ð¾Ð´
ĠÑĢÐ° ÑĤÐ¸
ĠÐ¿ÑĢÐ¾ Ñĩ
ĠÐ¿ÐµÑĢ ÐµÐ¼
ĠÐµÑģ Ð¼Ð¾
ĠÐ¾ÑĤ Ð¾
ĠÑı Ð²Ð¸
ĠÑģÐ» Ð¾Ð±Ð¾Ð´
ĠÐ±Ð¾Ð» Ñ£
ĠÐºÐ° Ð´
ĠÐĶÐ° Ð½Ð¸
Ñ« ÑĤÑĬ
ĠÐ¯ ÐºÐ¾Ð¶Ðµ
ĠÐ±ÑĥÐ´Ñĥ ÑĤÑĮ
ĠÐ´ÑĢÑĥÐ³ ÑĥÑİ
Ð¾Ð¶ÑĮ ÑģÑĤÐ²Ð¾
Î ½
ĠÑĪ ÑĮ
ĠÐ¿Ñĥ ÑĪÐºÐ°
ĠÐ¿ÑĢÐ¸ÑĪ ÐµÐ´ÑĬ
Ñī Ð¸Ð¼
ÑĢÐ¾Ñģ Ð»Ð°Ð²ÑĬ
ĠÐ¿ÑĢÐ¾Ñģ Ð»Ð°Ð²
Ñĩ Ð½Ð¾Ðµ
ÑĢÐµ ÑĩÐµÐ½
ĠÐºÐ½ÑıÐ· Ð¸
ĠÑģÑĤÐ°Ð² Ð¸ÑĤÐ¸
ÐºÐ¸ÑĦ Ð¾ÑĢ
ĠÐ¿Ð¾Ð² Ð°ÑĢ
ĠÑģÑĤÐ¾ Ð¸ÑĤÑĬ
ĠÐ¿Ð¾Ð¼Ðµ ÑģÑĤ
ĠÐ²Ð¾ÑĢ Ð¾Ð²
ÑĦ Ð°Ð½Ð°
ĠÐ¿Ð¾ÑĤ Ð¾Ð¼
ĠÐ¿ÑĥÑģÑĤÐ¾ ÑĪÐ¸
Ġâģ ŀ
ĠÂ·: Â·
ĠÐľÐ°Ð³ Ð¸Ð»
Ð½Ð¸ ÑĨÐµ
ÑĩÐ° ÑĤÑĮ
Ñī Ð½Ð¾
ĠÑĢÐµ ÑīÐ¸
ÑĪÑĤÐ¸ Ð¸Ð¼ÑĬ
ĠÐ±Ñĭ Ð²ÑĬ
ĠÐĳ Ð¾Ð»
Ð½Ð° Ð³Ñ¡
Ð¾Ð· ÐµÐ¼
ĠÑģÑĤÐ° ÑĢÐ°
ĠÑ¡Ñģ Ð¿Ð¾Ð´
ĠÑģÐ¾ÑĢ Ð¾Ðº
ĠÐ¿ÑĤÐ¸ ÑĨÐ°
ĠÐ³Ð¾Ð´ Ñĭ
Ðµ Ð±
ĠÐĳ ÑĢÐ°
Ð½Ñĥ ÑĤÑĬ
ĠÐ¿ÐµÑĢ Ð²Ð¾Ðµ
ĠÐ²Ðµ ÑģÑĤÐ¸
ĠÑģ Ñİ
Ð· Ñı
ĠÐ° Ð»ÐµÐºÑģÐ°Ð½Ð´
Ð¾Ð¶ Ð¸ÑĤ
ÑĹ ÐµÐ¼ÑĬ
ĠÐ½Ð°ÑĪÐ¸ Ñħ
ĠÑģ Ð²Ð°
ĠÐ´Ð¾Ð¼ Ñĭ
ĠÑģÐ»Ð°Ð² Ñĥ
ĠÐ¿Ð¾ÑģÐ» Ñ¹
Ð´Ð° Ð¹
ĠÐ¸Ð¼ Ñĥ
Ð½ÑĮ Ð¸
ĠÐ¼Ð°ÑĤ ÐµÑĢÑĮ
Ð± Ð¸ÑĤÐ¸
ĠÐ¿ÑĢ ÐµÐ·
ĠÐ²Ð»Ð° ÑģÑĤÐ¸
ĠÐ·Ð½Ð° Ð¼ÐµÐ½Ð¸
êĻ ĩ
ĠÐ»Ñĥ Ñĩ
ÑīÐµ Ðµ
ĠÐ±ÑĮ ÐµÑĤÑĬ
ĠÐ¼Ð½Ð¾Ð³ Ñĭ
ÑĤ êĻĭ
Ð² ÐµÐ»Ð¸
ÑģÑĤÐ²Ð¸ Ðµ
Ð³Ð¾ Ñİ
Ð¶Ðµ Ð½ÑĸÐµ
ĠÐ´Ð¾ ÑĩÑĮ
ĠÐ´Ñ£ Ð²Ð¸
ĠÐ°Ð»Ðµ Ñ¯
ĠÐ¿ÑĢ ÐµÐ»
ĠÑĢÐµ ÐºÐ¾
ĠÐ±ÑĢÐ° Ð½Ð¸
Ð¾Ð²Ð¾ Ð¸
ĠÐ¿Ð»Ð° ÑĤÐ¸
ĠÐ²Ð°ÑģÐ¸Ð»ÑĮ ÐµÐ²
Ð² Ñ¹
ĠÑģÐ¾Ð» Ð½ÑĨÐµ
ĠÐĵÐ¾ÑģÑĥÐ´Ð°ÑĢ ÑĮ
ÑĪ ÐµÐ´ÑĬ
ĠÐ¿ÑĢÐ¸ ÑģÑĬ
ĠÑĢÐ°Ð· Ð»Ð¸Ñĩ
ĠÐ±Ð¾Ð³Ð° ÑĤÑĮ
ĠÐ± Ð¾Ð±Ñĭ
Ð½Ð¸ Ð´Ðµ
Ð»Ð° Ñı
ĠÐ¿Ð°Ðº êĻĳ
Ñ£Ñħ Ð°Ð»ÑĬ
Ñı Ð´
Ð¿ Ð¾Ð²
ĠÑħÐ¾Ð»Ð¾Ð¿ ÑĬ
ĠÑģÑĤÑĢÑ£ Ð»Ñı
ĠÐ¿ÐµÑĤ ÑĢÑĬ
ÑĤ ÐµÑĢ
ĠÐ¾ Ð²Ð¾
ĠÐ¿ÑĢÐ¾ ÑģÑĤÐ¸
ĠÐĿÐ¸ Ðº
Ñĩ ÐµÐ½ÑĬ
ĠÐ· Ð»
ĠÐŁ Ð¾Ð½
ĠÐ¼Ð°ÑĢ ÑĤÐ°
ĠÐºÐ¾Ð»Ð¸ ÐºÐ¾
ĠÑĢÐµÐº Ð»ÑĬ
ĠÐº Ð°Ð»
Ñħ Ð°Ð½
ĠÐ¼Ñ¡ ÑµÑģÐµ
Ð¸ Ñİ
ĠÑģÑĤÐ¾Ð» ÑĬ
ÑĤ Ð¾Ð²ÑĬ
ÑĢ Ñ«
Ð¾Ð² Ð¾Ð»
ĠÐ· ÐµÐ»
ĠÐºÐ¾ÑĤÐ¾ÑĢ Ð¾Ð³Ð¾
ĠÐ¢Ñ£ Ð¼ÑĮÐ¶Ðµ
Ð¾ Ñı
Ðº Ð¾Ð²Ðµ
êĻ ¯
ĠÐ¼Ð¾ ÑĩÐ½Ð¾
ĠÐ¾Ñģ Ð¼Ð¸
ÑĢ Ð¾Ð½
Ð°Ðº Ñ¡
ÑĢÑĭ Ð¹
ĠÐ±Ð¾Ð»ÑĮ ÑĪÐµ
ĠÐ¿Ð¾ÑħÐ¾ ÑĩÐµ
ĠÐĶÐµÐ² Ð³
Ġ 8
Ðµ ÑĪ
ĠÑģ ÑĤÐ¸
ĠÐ¿Ð¾ Ð¸Ð¼
ĠÐ° Ð³
Ðº Ð¼Ð¾
ĠÐ¼Ð¾ ÐµÐ¹
ĠÐ½êĻĳ Ð½Ðµ
ĠÐ°ÑĢÑħÐ¸Ð¼ Ð°ÑĢ
ĠÐ± Ð¾Ð¹
ĠÑģÐ¾ ÑħÑĢÐ°
ĠÑĢÐ°Ð± Ð¾ÑĤ
Ð³ Ð¾Ð¼
Ð± êĻĭ
ĠÑĥ ÑģÑĤÐ°
Ð³Ð¾ÑĢÐ¾Ð´ Ñ£
ĠÑģÐ»Ðµ Ð·Ð°Ð¼Ð¸
ĠÐ¸ Ð½Ð¾Ðµ
ÑģÑĤêĻĭ Ð¿
ÑĩÐµ Ðµ
êĻĳ ÑħÑĬ
ĠÑģÑĥÐ´ Ð¸ÑĤÐ¸
ĠÐ³Ð¾ÑģÐ¿Ð¾Ð´ Ð¸Ð½Ð°
ĠÐµ Ð·Ð´
ĠÑĥ ÐºÐ°
ĠÐ¸ ÐµÐ²
ĠÐ¿Ð°Ð¼ ÑıÑĤÑĮ
ĠÑĩÑİÐ´Ð¾ÑĤÐ²Ð¾ÑĢ ÑĨÐ°
ĠÐ´Ð²Ð¾ÑĢ ÑıÐ½
ĠÐ¾Ðº Ð¾Ð»Ð½Ð¸
ÐµÑģ Ðµ
ĠÑĤÐ°Ðº Ñ¡
ĠÐµ Ñİ
ĠÐ¿ÑĢÐ¸ Ð´Ð¾ÑĪÐ°
Ð³Ð¸ Ð¿
ĠÑĩÐ° ÑģÑĤÐ¾
Ð² Ð¾Ð½
ĠÐ¿Ð¾ ÑģÑĤÑĢÐ°
ĠÑĢÐ°Ð· Ñģ
Ð² Ñı
Ð´Ð° Ð»
ĠÑģÐ²Ð¾Ðµ Ð³Ñ¡
ÐµÐ½Ð° Ð³Ð¾
ĠÑģÐ»Ñ¹ Ð¶
ĠÑ¥Ñģ Ð¼ÑĮ
Ð° Ð½Ð¾
ĠÐ¿ Ð»ÑĮ
ĠÐ·Ð»Ð° ÑĤÐ¾
Ð² êĻĳ
ĠÐ²ÑĬ Ð¸Ð½Ñĥ
ĠÑģÑĤÐ°ÑĢ ÑĭÐ¹
Ð¾ÑĢÐ¾ ÑĤÐ¸
ĠÑĤÑĬ Ð³Ð´Ð°
ĠÐ¼Ð¾Ð¶Ðµ ÑĤ
ĠÐ¿Ð¾Ð»Ð¾Ð² ÑĨÐ¸
ĠÑĩ Ð¸Ð½Ñĥ
ĠÐ²ÑģÑı ÐºÐ¾Ð¼Ñĥ
ĠÐ²Ð¾Ð´ Ñĥ
ĠÐ´ÑĢÐµ Ð²Ð¾
ĠÐ¾ Ð¶Ð¸
ĠÐ´Ð² Ð´
Ð´ êĻĳ
ĠÐ¿Ð¾ ÑģÑĤÐ¸
ĠÐ½Ð°Ð¿ÑĢÐ° ÑģÐ½Ð¾
ĠÐ¿Ð¾ ÐµÑħÐ°Ð»ÑĬ
Ñĸ êĻĹ
ĠÐºÐ¾ÑĢ Ð¾Ð±ÑĮ
ÑģÑĤÐ²Ð¾ Ñĥ
ĠÐ´Ñĥ ÑĪÑĥ
ĠÐĴ Ð¸
ĠÑģ Ð½ÑĬ
ĠÐ²ÑĬ ÑģÑĤ
Ð¸ÑĤ ÑĨÐ°
ĠÑģÑĭ Ð½Ðµ
ĠÐ¾Ð±ÑĭÑĩÐ° ÐµÐ¼ÑĬ
ĠÐ³ ÑĢÑĮ
ĠÐ¶Ðµ Ð½Ð¸
ĠÐ¾Ñĥ Ðº
ĠÐ¿Ð¾ÑĢÐ¾ ÑħÑĬ
ĠÐ¸Ð· Ð¼Ñ£
ĠÐĳ Ð¾Ð¶Ðµ
ĠÐ²Ð» Ð´
ĠÐ´ Ð»ÑĬ
ĠÑĢÑĥ ÐºÐ°
ĠÐ½Ñ£ ÐºÑĭ
ĠÑģÐ¾Ð± Ð¾ÑĢ
ĠÐĽ Ñĥ
ĠÐ¾ ÑģÑĤÐ°Ð²Ð¸
Ð»Ð° ÑģÑı
Ð½Ñ£ Ð¼ÑĬ
ĠÐ¼Ð¾ Ð¸Ð¼ÑĬ
ĠÐ³ÑĢÐ° Ð´Ðµ
ĠÐ·Ð°Ðº Ð¾Ð½ÑĬ
Ñħ Ñ¡
ÑĩÐµ ÑĢÐ°
ĠÐºÑĢÐµÑģÑĤÑĮÑı Ð½Ð¸
ĠÐ¾ÑģÐ¸ ÑĦ
ĠÐ¿ÑĢÐ¸ êĻĹ
ĠÐ´ÐµÐ» Ðµ
ĠÐ· Ð°ÑĢÑı
ÑĩÐ¸ Ðµ
Ġ min
ĠÐ³Ð¾ÑģÐ¿Ð¾Ð´ ÑģÑĤÐ²Ð°
ĠÐļÐ½Ñı Ð·ÑĮ
Ðº Ð²Ð°
ĠÐ´ Ð²Ð¸
Ð°Ðº Ð¾Ð²
ĠÑĨ ÑĢÑĬ
ÑĢÐ¸ Ñı
ĠÐ¼Ð¾ Ð¸ÑħÑĬ
Ð»Ðµ Ð½Ð¸Ñı
ĠÐ±Ð¶ ÑĤÐ²
Ð¾Ð¿Ð¾Ð» ÐºÑĬ
ĠÐ¿Ð¾ÐºÐ°Ð· Ð°
ĠÐ± Ð»ÑĬ
ĠÐ¿Ð° Ðµ
ĠÐ¿Ð¾Ð» ÐºÐ¸
ĠÐ³ÑĢ Ð¾Ð·
ĠÐ¼Ð¾Ð¶Ðµ ÑĤÑĮ
ĠÐ½ÐµÐ½Ð° Ð²Ð¸
Ðµ ÑģÑĤ
Ðº Ð¸Ð½
Ðº Ð½Ñĥ
ÐºÐ¸ Ð¹
Ð¸Ñħ ÑĮ
Ð¼Ð¾ÑĤ ÑĢÐ¸
ÑģÐ»Ð° Ð²Ð¸
ĠÐ¼Ð°ÑĤ Ñĥ
ĠÐ±Ð¾ÑıÑĢ ÑģÐºÐ¸Ñħ
Ġ1 5
ĠÐ³Ð¾Ð» Ð¾Ð²Ñĥ
ĠÐº ÐµÐ»Ð°
ÑĦ Ð¸Ð¼
ĠÐ±Ð» Ð³Ð¾
Ð¼ Ñ¡
ĠÐ´ Ð²ÑĮ
ÑĨ Ð¾Ð¼ÑĬ
ĠÐ¿Ð¾ ÑĩÐµ
ĠÐ¿ÑĢÐ¸ Ð³Ð¾Ð¶Ðµ
ĠÐ½Ð°ÑĪÐ¸ Ð¼ÑĬ
ĠÑĤÐ¾Ð² Ð°ÑĢ
ĠÐ½Ð¾Ð²ÑĬ Ð³Ð¾ÑĢÐ¾Ð´
Ð´Ðµ Ð»Ð¸
Ð´ Ð°ÑĢ
Ð¿ Ð¾Ð¼
Ð½Ñĭ Ð¸Ð¼ÑĬ
ĠÐ´Ð° Ð²Ð°ÑĤÑĮ
ĠÐ½Ð¸ ÑĩÐµÐ³Ð¾
ĠÐ¿Ð¾Ð» Ð¾Ð½
ĠÐĴ Ð¾Ð·
ĠÑĤÐ²Ð¾ Ñ¥
ĠÑĥ Ð¼Ð¸
ĠÐ¼Ð¾ ÐµÐ¼êĻĭ
ĠÐºÑĢ Ð¾Ð²Ð¸
Ð²Ð° Ð½ÑĬ
ĠÐ²ÑģÑı ÐºÐ¾Ð³Ð¾
ĠÑĢÑĥ ÑĨÑ£
Ð¶ Ð°Ð²
ĠÐ¶Ð¸ Ð²Ñĭ
ĠÑģÑĤÐ°ÑĢ Ð¾ÑģÑĤ
ĠÐ³Ð¾ÑĢÐ¾Ð´ Ñ£
ĠÐ¿ Ð°Ñģ
ÑģÑĤ Ð¾Ð¹
Ð½Ðµ ÑĪÐ¸
ĠÑĤÑ£ Ð¼ÑĮ
ĠÑķ ÑĸÑģ
ĠÐľÐ¸ÑħÐ° Ð¸Ð»Ð°
ĠÐ¼Ð¸Ð» Ð¾Ñģ
ĠÑĤÑĢ êĻĭ
ĠÐ³Ð¾Ð» Ð¾Ð²Ñ£
ĠÐ¿Ð¾Ð¼Ð¾ ÑīÐ¸
Ð¼ êĻ¿
ĠÐ¿ÑĢ Ð¾ÑĢÐ¾
ĠÑħÐ»Ñ£ Ð±ÑĬ
Ð² ÐµÐ½
ÑģÑĤ Ð°Ñģ
ĠÑģÑĤÐ° Ð½Ð¸
ĠÐ±Ð¾Ð»ÑĮ ÑĪÐ¸
Ð´ÐµÑģÑ§ ÑĤÑĮ
ĠÐ¸ ÑģÐºÐ°
ĠÐº Ñ«
ĠÐº Ð»Ñ§
ĠÐ¿Ð¾ Ñ£
ÑĢÐ¸ Ð¸
ĠÑģÑĬ Ð¿
ĠÐ·Ð³Ð¾Ð²Ð¾ÑĢ Ð¸ÑĤÑĬ
ĠÑģÑĭÐ½ Ñ¡Ð²ÑĬ
ĠÐ·Ð°Ð¿Ð°Ñģ Ñĭ
ĠÐ¸Ð¾ÑģÐ¸ ÑĦ
Ð»Ð¸ Ð¼
ÑīÐ¸ ÐºÐ¸
ĠÑĢ ÑĬ
ĠÐĴ ÑģÐµ
ĠÐ¶Ð¸ Ð²ÑĬ
ĠÐ· Ð´Ðµ
ĠÐ¿ÑĢÐ¸ Ð±Ñĭ
ĠÑģÑĬ Ð²ÑĢÑĬ
ĠÐ·Ð°Ð¿ Ð¾Ð²Ñ£Ð´Ð°
ĠÐĲÐ»ÐµÐºÑģÐ°Ð½Ð´ ÑĢÐ°
ĠÐ¿ÑĢÐ°Ð· Ð´
ĠÐ¼Ð¸Ñħ Ð°Ð»
ĠÐ·Ð° ÑĤÐ²Ð¾ÑĢ
ĠÐŀ Ð½Ð°
Ð½ ÑĨÐ°
Ð¶Ðµ Ð¸
ĠÐ²Ñ£ ÑĢÑĭ
ĠÐ¿ÑĮ ÑĢ
ĠÑĤÑĢÐµÑĤÑĮ Ñı
Ð° Ñ§
ĠÐ´Ð¾ ÑģÑĤÐ°
ĠÐºÐ¾ÑĤÐ¾ÑĢÑĭ Ð¼
ĠÐ¿Ð¾ÑģÐ»Ð° Ð½
Ð¾Ð¼ Ñĭ
ĠÐ½Ðµ Ð²Ð¸Ð´Ð¸
ĠêĻģ Ð°Ðº
ĠÑģÑĤÐ¾ ÑıÑĤÑĮ
ĠÑ ¤
Ñ§ Ð½Ð¸
ÑĢÐ° Ð³
ĠÑģÐ¸Ð» Ñ£
ĠÐ½ Ñİ
ĠÐ´Ñ£ Ð»Ñı
ÑīÐ¸ ÐºÐ¾Ð¼
ĠÑģÐº Ð²Ð¾Ð·
ĠÐµÐ´Ð¸ Ð½Ð°
ĠÑģ â±ķ
Ð´ ÐµÐ¼ÑĬ
ĠÐ¾ ÑģÑĤÑĢ
Ð± ÐµÑĢ
ĠÐ½Ð° Ð¾Ñĥ
ĠÐ³ÑĢÐ° Ð´Ñĭ
ÑģÑĤÐ¾ Ð¸
ĠÐ´ÑĢÑĥ Ð³Ð¸
ĠÑģ Ð°Ð»
Ñı Ð¼
ĠÐ´Ð° Ð½Ð¾
ĠÐ²Ð¾ÐµÐ²Ð¾Ð´ Ñĭ
ĠÐ² Ð½Ñĥ
Ð± Ð»Ñİ
ĠÑģÑĭ ÑģÐºÐ¸
Ð±Ð¸ Ð»Ð¸
ĠÐ²ÑģÑ§ ÐºÐ¾Ð³Ð¾
ĠÑģÑ£ Ð´Ðµ
Ð» ÑĤ
ĠÑģ Ð´Ñ£
ĠÐ¾ÑĤ ÐµÑĨÑĬ
ĠÐ¼Ñ£ ÑĢÐ¾Ñİ
ĠÐ¼Ð¾Ð» Ð¸ÑĤÐ¸
ĠÐ¿ÑĢÐ°Ð² Ð¸ÑĤÐ¸
ĠÐł Ðµ
ĠÐ°Ð² Ð³ÑĥÑģÑĤÐ°
ÑĪ ÐµÐ½Ð¾
ÑĪ Ð½Ð¾
ĠÐ¼ Ð½Ð¾
ĠÐ³Ð¾ÑĢÐ¾Ð´ Ñĭ
ĠÐ¼Ñ¹ Ð¶ÑĮ
ĠÐ½Ð¾Ð³ Ð¸
Ð¾ Ñħ
ÑģÑĤ Ð²ÑĬ
Ð»Ð¸ Ð²Ð°
ĠÐ´Ð¾Ð± ÑĢÐµ
ĠÐ²Ð° ÑĪÐ¸
ĠÐ·Ð°Ðº Ð»Ð°Ð´
ĠÐ³ÑĢÐ¸Ð²ÑĮ Ð½ÑĬ
ĠÐ±ÐµÑĢÐµ ÑĩÐ¸
ÑĤÑı Ð±ÑĢÑı
ĠÐ°Ð»ÑĤÑĭ Ð½
ĠÐ³ Ð¾ÑģÑĤÐ¸
ÑģÐº Ð¾Ð²Ð¾
ĠÐºÑĢÑ£Ð¿ Ð¾ÑģÑĤÑĮ
ĠÑĢÐ°Ð² Ð½Ð¾
ÑģÑĤ Ð°ÑĢÐ¸
Ð½Ð¸ ÑĩÐ¸
ĠÑĪ Ð°
ĠÑģÐ° Ð´
ĠÐ²Ðµ ÑīÐ¸
Ð» ÑĶ
ĠÐ¿ÑĢÐµ ÑģÑĤ
ĠÑģÐ¿ Ð°
ÑģÑ£ ÑħÑĬ
ĠÑģÐ²Ð¾Ñ¥ Ð¼Ñĥ
ÑĤ ÑĢÐ¾
ÑĦ Ñ£
ĠÐ²ÑģÑ£ Ð¼
Ñı ÑīÐµ
ĠÐ³ ÐµÑĢ
ÑģÐº Ñ£
ĠêĻģ ÑĬ
ĠÐ´Ñĥ ÑĪÑı
ĠÐ»ÑİÐ´ ÑıÐ¼ÑĬ
ĠÐ±ÑĥÐ´Ñĥ ÑĤÑĬ
ÑĮ ÑĢ
Ð»Ð° Ð½
ĠÐµ ÑģÑĤÐ²Ð°
ĠÐºÐ°Ðº Ð¾Ð²Ð°
ĠÐ¿Ð¸Ñģ ÑĮ
ĠÑĤÐ²Ð¾ÑĢ Ñ§
ÑĪ ÐµÐ²
ĠÑĩ Ð¾Ð»
ĠÑ¡ Ð»Ðµ
Ð½Ñ£ Ð¼ÑĮ
ĠÐ¼Ð¸ Ðº
ĠÑĤÐ²Ð¾ÑĢ Ð¸ÑĤÑĮ
ĠêĻĸ ÐºÐ¾Ð¶Ðµ
ĠÐ± Ð¶Ð¸
ĠÑģÑĤÐ°ÑĢÐ¾ ÑģÑĤÐ°
¾ ¿
á ¾¿
ÑĢ Ð¾Ð²ÑĬ
ĠÐ± Ð¾Ð±
Ð¶Ð° Ð»Ð¸
ĠÐ´Ð²Ð¾ÑĢ Ñĭ
ĠÑ§ Ð·Ð¾
ĠÑĩÐ»Ð¾Ð²Ñ£ ÐºÑĥ
ĠÐ¼Ð¾Ð»Ð¸ÑĤ Ð²Ð°
ÑĩÑĮ Ñİ
ĠÐľ Ð°Ðº
ĠêĻģ Ð½Ð°
Ï Ħ
ÑĨ ÐºÐ¾Ð¼Ñĥ
ÐºÐ¸ Ð½Ð°
Ð½Ñı Ñı
Ð¾Ð²Ñĭ Ð¼Ð¸
ĠÐ¿ÑĢÐ¸ÑĪ ÐµÐ»ÑĬ
ĠÐ¼ÑĬ Ð½
ĠÑģ Ð¾Ð¿
Ñı Ð½Ð¸Ðµ
ÑĢÐ° Ð´
ĠÑģÑĬ Ð¼ÑĮÑĢ
ĠÑħÐ¾Ð´ Ð¸Ð»Ð°
ĠÐ·Ð°Ð¿Ð¸Ñģ Ð¸
ĠÐ°ÑĢÑħÐ¸Ðµ Ð¿Ð¸ÑģÐºÐ¾Ð¿
ĠÐ¿ Ñģ
Ñı Ð½Ð°
êĻĭ Ð¸
ĠÐ´Ñ£ Ð»Ð¾Ð¼ÑĬ
ĠÐ²ÐµÐ» ÐµÐ»
ĠÐĳÐ¾Ð¶Ð¸ Ñı
ĠÐ» Ð¾Ðº
ÑĤÑĮ Ñı
ĠÐ¼Ñ£ ÑĢÑĥ
ĠÑħÑĢÐ¸ÑģÑĤÐ¸ ÑıÐ½
ĠÐ¸ Ð³
ÐºÐ° ÑĤÐ¸
ĠÐ¼Ð½Ð¾Ð³ Ð¸
ĠÐ¿ÑĢÐ¸Ð· Ð²Ð°
ĠÑĥÐ³ Ð¾Ð»ÑĮ
ÑĢ êĻĳ
ĠÐ² â¸¯
ĠÐ²Ñģ ÐµÐ»ÐµÐ½
Ñ« ÑīÐµ
ĠÐ¿Ð¾Ð» Ð¾Ð¶Ðµ
ĠÑģÑ£ Ð´Ñ§
ĠÐ¿Ð¾Ð¼Ñ£ ÑĩÐµÐ½Ð¾
ĠÐ·Ð¾Ð» Ð¾ÑĤÑĭ
ĠÐ´ Ð½Ñı
ĠÐ¼ ÐµÐ½ÑĮ
Ð½Ð° Ð¼Ð¸
ĠÐ¢ Ðµ
ĠÑĤÐ²Ð¾ ÐµÐ¹
ĠÐºÐ¾ÑĤÐ¾ÑĢÑĭ Ð¹
Ð±ÑĢÐ° Ð½
ĠÐ½Ðµ Ð´Ñ£
ĠêĻ© ÑģÐ¿Ð¾Ð´
ĠÐ³ÑİÑĢ Ð³
Ñı Ñħ
ĠÐ´ ÑĢÑ£
ĠÑħ ÑĬ
Ð¾Ð¶ ÑĬ
ĠÑ³ÐµÑ¡ Ð´
ĠÐ²ÑģÐµ Ð¸
ĠÑģÐ¸ Ð¸
ĠÐ²ÐµÑģ ÐµÐ»
ĠÐ¾ ÑģÐº
ÐµÑĢ Ñ£
Ð½Ð¾ Ñģ
ĠÐ½Ð°Ñģ Ñĭ
Ð²ÐµÑģ ÐµÐ»Ð¸
ĠÐ½Ðµ Ñı
ĠÐ¿Ð»ÐµÐ¼ ÑıÐ½
ĠÐ´Ð° ÑģÑĤ
Ð°Ð½ Ð½Ð°
ĠÐ¸Ð¼ ÑıÐ½
ĠÑĤ Ð¾Ð²Ð°
ĠÐ½Ðµ ÑĩÐ¸
ĠÑĤÐµÐ» ÐµÑģ
ĠÐ¼ Ñĸ
ĠÐ´Ð° Ð´Ðµ
ÑĢÐ¾ ÑĪÐ°
ĠÐ¿Ð¾ÑģÐ»Ð° ÑĤÐ¸
ĠÐ³Ð½Ñ£ Ð²Ð°
ĠÑĤÑİÑĢ Ð¼Ñĥ
ĠÑħÑĢÐ° Ð½Ð¸
ĠÐ¿Ð¾Ñĩ Ð¸ÑĤÐ°
Ñĩ ÐµÐ¼Ñĥ
ĠÐ¼Ñ¹Ð¶ Ñ¹
Ñĩ ÐµÐ¼ÑĬ
ÐºÐ¸ Ð¼ÑĬ
ĠÐĿ Ñ«
ĠÐ¸Ð· Ð²Ð¾Ð»Ð¸
ĠÑĪ ÐµÐ´
ĠÑģÐ°Ð¼ Ð¾
ĠÑģÐ²Ð¾ Ð¸Ð¼ÑĮ
ĠÐ¼Ð» ÑģÑĤÑĮ
ĠÐ¿Ð¾ÑģÐ»êĻĭ ÑĪÐ°
ĠÐ° Ð¶ÑĮ
Ð½Ðµ ÑģÑĤÐ¸
Ð°ÑĤ Ñĥ
ĠÐ´ÑĢÑĥ Ð³Ñĭ
Ð½Ñĸ ÐµÐ¼ÑĬ
Ð³ êĻĳ
Ð± Ð»Ñ§
ĠÐ¿Ð¾Ð³ ÑĥÐ±Ð¸
ĠÐ¿Ð¾ÑģÐ»Ð° Ð»ÑĬ
ĠÐ±Ð¾Ð³Ð¾ÑĢÐ¾Ð´Ð¸ ÑĨÐ¸
ĠÐ°Ð½Ð´ÑĢÐµ Ñİ
Ð²Ñ£ Ðµ
ĠÐºÐ¾ÑĤÐ¾ÑĢ Ð¾Ð¸
ĠêĻģ Ð»Ð°
ĠÐĽ Ñ£
ĠÐ² ÐºÑĥ
ĠÐ½Ðµ Ðº
ĠÐ¿ÑĢÐ¸ Ð¸
ĠÐ½ÐµÐ¼ êĻĭ
ĠÐ·Ð½Ð° Ð¼ÐµÐ½
ĠÐ³ Ðµ
ĠÐ¿ÑĢÐ¾ ÑĩÑĮ
ĠÐ¿ÑĢÑ£ Ð´
Ð²ÐµÐ´ Ð¸
ĠÑģÑĤÐ°Ð½ ÐµÑĤ
ÑģÑĤ Ð¸Ð»ÑĬ
ÑĤÐ¸ Ð½ÑĬ
ÑĪÐµ ÑģÑı
êĻģ Ð½Ð°
ĠÐ¿Ð¾ÑĢ Ñ¹
ĠÑĩÑİ Ð´Ðµ
ĠÐ· Ð»Ñĭ
ĠÑ¡ Ð±Ð¸
ĠÐķ ÑīÐµ
Ð¿Ð° Ð½Ð°
ĠÑģÐ»Ñĥ ÑĩÐ¸ÑĤÑģÑı
ĠÐ²Ð¾Ð· Ð´Ð°
Ñĩ Ð¸Ð½Ðµ
Ð½Ð¸ ÑĨÑİ
ĠÐ¶Ð¸ Ð·Ð½Ð¸
ĠÐ¿Ð¸Ñģ Ð¼Ð¾
ĠÑĢÑĭ Ð±Ð°
ĠÐ²ÑģÑıÐºÐ¸ Ðµ
ĠÐ²Ð·Ñı Ð»ÑĬ
ÑĨ Ð¾Ð²ÑĭÑħ
ĠÐ¸Ð½ Ð¾Ð·ÐµÐ¼
ĠÑĩÐµÐ»Ð¾Ð±Ð¸ÑĤÑĮ Ñİ
ĠÐ² ÐµÑĢÐµ
ĠÐ¶Ðµ Ð»
ĠÑģÐ¿ Ð¾ÑĢ
ĠÐ²Ð· Ñ§ÑĤÐ¸
ĠÐ¼Ð½Ð¾Ð³ Ð¸Ð¼Ð¸
ĠÐ´Ð°Ð½Ð¸ Ð»
Ðº Ñģ
ÑģÑĤÐ° Ð²Ð°
ĠÐ³Ð¾ÑĢÐ¾Ð´ Ðµ
Ð½Ñİ Ñİ
ĠÐ³Ð¾ÑģÐ¿Ð¾Ð´ Ð¸
ĠÐ¼Ð¾ÑĢ Ñİ
Ð¾Ð»Ñİ Ð±
ĠÐ´ÐµÑģÑı ÑĤ
ÐµÑĢ Ð¾
Ð¶ ÑĸÐµ
ÑĩÐ¸ Ñİ
ĠÐ³Ð¾ÑģÑĥÐ´Ð°ÑĢ ÐµÐ²Ðµ
ĠÑĤÐ°Ðº Ð¾Ð¶Ð´Ðµ
Ð° ÐºÐ°
ĠÐ¾ ÐºÐ°
ĠÐ¶Ðµ ÑĢÐµ
Ñ¹ Ð¼
ĠÐ´Ðµ Ð¸
ĠÐĴÐ¾Ð» Ð¾Ð´
ĠÐ¸ Ð´Ð¸
ĠÐ¶Ð¸Ð²Ð¾ ÑĤÑĭ
ĠÐĴÐ»Ð°Ð´Ð¸Ð¼ ÐµÑĢÑĬ
ĠÑĢÐµ ÐºÐµ
ĠÐºÐ° Ð±Ð°
ĠÐ¿Ð¾Ð¼Ð¾ ÑīÑĮ
ĠÐ¸ Ð½ÑĬ
ĠÐ³ Ð»Ñ§
ĠÐ· Ð¼Ñ£
ĠÑĥ ÑģÐ»ÑĭÑĪÐ°
Ð´Ð° Ð½Ð°
ĠÐ²ÑĮ ÑģÐ¸
ĠÐ´Ñĥ ÑĪÐ°
ĠÐ²Ð°ÑĪÐµ Ð³Ð¾
ĠÐ´Ñ£ÑĤ ÐµÐ¼ÑĬ
Ñĩ ÑĸÑİ
ĠÑı ÑĢÐ¾ÑģÐ»Ð°Ð²
ĠÑĢÑĥ ÐºÐ°Ð¼Ð¸
Ð±Ð¸ Ðµ
ĠÐ·Ð°Ð¿ Ð¾Ð²
ĠÐ¿Ð¾Ð³ êĻĭ
ĠÑģÑĤÐ° Ð»Ð¸
Ð°Ð·Ñĥ ÐµÑĤÑĬ
ĠÐ² Ð¾Ð»ÑĮ
Ð¾Ð¼ Ð¸
ÐºÐ° ÐºÐ¾
ĠÐºÐ° Ð·Ð°
ĠÐ±Ð»Ð°Ð³ Ð¾Ð´Ñ£
ĠÐ±ÑĭÐ²Ð° ÐµÑĤÑĮ
ĠÐ¿Ð¾Ð±Ñ£ Ð´Ð¸
ÑģÐº Ð¾Ð²Ð°
ĠÐ´ÐµÐ½ÑĮ Ð³Ð¸
ĠÐ¸Ð½ Ð´Ñ£
ĠÑĩÐµÑĤÐ²ÐµÑĢ ÑĤÐ¸
ÑĤ ÑĢÑĮ
ĠÐ¿ ÑĪÐµÐ½Ð¸
ĠÐ½Ð° ÑģÑĤÐ°Ð²
ĠÐ²ÑģÐµ ÑħÑĬ
ÑĪÐ¸ Ð½Ð°
ĠÑģÐº Ð²ÐµÑĢ
ĠÑĤÐ¾Ð² Ð°ÑĢÐ¸
ĠÐ¡ÑĤ ÑĢÐ°
ĠÐ¼Ð¾Ð¶Ðµ ÑĤÑĬ
ĠÑģÑĤÑ£ Ð½Ñĭ
ĠÐ´ Ð»Ð¸
ĠÐ± Ð¾Ñĥ
ĠÐºÑĥ ÑĢ
ĠÐ´Ð¾Ð±ÑĢÑĭ Ð¹
ĠÐ¿Ð¾Ñħ Ð²Ð°Ð»Ð¸
ĠÐ¿Ð¾ÑħÐ¾ÑĩÐµ ÑĪÑĮ
Ðº Ð»Ð¸
ĠÑģÐ» ÑĮ
ÑĢÐ° Ð¼Ð¸
ÑĨ ÐµÐ¼ÑĮ
ÐµÑĢ ÐµÐ¼
ĠÐ¾Ñĥ Ð¶Ðµ
Ð¶Ðµ Ð¹
ĠÐ´Ð¾Ð¼ Ð¾
ĠÐ´ÑĮ ÑĢ
ĠÐ±Ð¾Ð³Ð°ÑĤÑĭ ÑĢÑı
ĠÐ¢Ð°Ðº Ð¾Ð¶Ðµ
Ð½ Ð¾Ð¿
ĠÐ½Ð¸ ÑĩÑĮ
ĠÐ°ÑĢÑħÐ¸Ð¼ Ð°Ð½Ð´
ĠÐ· Ð¾Ð²
ĠÑģÐ²Ð¾ Ð¸Ð¼Ð°
ĠÑģÐ²Ð¾ ÐµÐ¼êĻĭ
ĠÐ¿ÑĢÐ¾ Ñħ
ĠÐ±ÑĭÐ²Ð° ÑİÑĤÑĬ
Ñĩ Ð½Ð¾Ð¹
ĠÐ³ Ð°Ð»Ð¸
ĠÑģÐ» Ð¾Ð²Ñ£
ĠÐ¶Ð¸Ð²Ð¾ ÑĤÑ£
ĠÑĦÐµÐ´Ð¾ÑĢ Ð¾Ð²
ĠÐºÐ¾ÑĢÐ¾Ð» Ñİ
Ð± Ð»ÑĮ
ĠÐ¾ÑĤ Ð²Ðµ
ĠÑĨÐ°ÑĢ Ñ§
ĠÐ²Ð¾Ð´ Ð¾Ñİ
ÐµÐ²Ñĭ Ð¼
ĠÐ²Ð·Ñı Ð»
ÑģÑĤÑ£ Ð¸
ĠÐ½ÐµÐ¸ Ð·
ĠÐ¿Ð¸Ñī Ð°Ð»
ĠÐ¸ Ðº
ĠÐ¿Ð¾ Ð¸ÑĤÐ¸
ĠÐ¼Ð°Ð» Ñ£
ĠÐ´ÐµÐ» ÐµÑħ
Ð´ Ð¾Ð±
ÑĪ Ð»Ð¸
ĠÐ¿ÐµÑĩ Ð°Ð»
ĠÐ¸Ð· Ð¾
Ð¸Ð´ ÐµÑĤ
ĠÐ¿Ð¾ÑģÑĢÐµÐ´ Ñ£
Ð² Ñ§
Ð»Ðµ Ð¿
ĠÐºÐ° Ð»Ð¸
ĠÐ±ÐµÐ· Ð·
ĠÐ¿Ð¾Ð»Ð¾ ÑĨ
ĠÑģ ÑĸÐ¸
ÑĪ ÐµÐ½Ð°
Ñ§ Ð»Ð¸
Ð¾ÑĢ Ñ£
ĠÐ·Ð´Ñ£ Ð»Ð°
ĠÐ° Ð»ÐµÐºÑģÐµ
ĠÐ²Ñģ êĻĹ
ÑģÑĤÐ² Ñĭ
ĠÐ²ÑģÑ§ ÐºÐ°Ñ§
ĠÐ³Ð¾Ð²Ð¾ÑĢ Ð¸ÑĤÐ¸
ĠÐ´Ð¾Ð±ÑĢÑĭ Ðµ
ĠÐ¢Ñĥ ÑĤÑĬ
Ð½Ð¸ Ð½ÑĬ
Ð°ÑĤ Ñ£
Ð¾Ð²Ñĭ Ñı
ĠÑģÑ£ Ð´
ĠÐ§ Ð°
ĠÐµ ÑĢÐµ
ÐºÐ¸ Ð¼
ĠÐ±Ð¾Ð» ÐµÐ·
ĠÑĩÐµÑĢ ÑĤÑĭ
ĠÑģ Ð»Ð¸
ĠÑģ ÐºÑĬÑĢ
ĠÑħ ÑĢÐµ
ÑīÐµ Ð½Ð¸Ðµ
ĠÐ¿Ð¾Ð¶ Ð½Ð¸
ĠÐ¶Ðµ Ð½ÑĮ
Ð´Ð¾ ÑģÑĤÑĮ
ĠÐ¿ÐµÑĢ ÑģÑĤ
ĠÐ¿Ð» Ð¾ÑĤ
ĠÐ³ Ð¾Ð´Ð°
ĠÐ²ÑĢÐ° Ð³ÑĬ
ĠÐ¿ÑĢÑĸ Ð¸Ð¼
ĠÑģÐ¼ÐµÑĢÑĤÐ¸ Ñİ
ÐµÑĤ Ñ£
ÑģÐº Ð¾Ð²
Ð²Ñ£ Ñī
ĠÑģÑĭÐ½ Ð¾Ð¼
Ġ êĻĳ
Ð³ Ñ£
Ð¸Ð½ êĻĭ
ĠÐ²Ñ£ ÑĩÑĮ
ĠÐ¸Ð²Ð° Ð½ÑĬ
ĠÑĩÐµÐ»Ð¾Ð²Ðµ ÐºÑĬ
ĠÑĩÐ°Ñģ ÑĬ
ÑĮ Ð½Ð¾
Ñĸ Ñ«
ĠÐ¿ÑĢÐµ ÑģÑĤÐ°Ð²Ð¸
ĠÐ³Ð¾ÑĢ Ð°
ĠÐ¸ÑģÑĤ ÐµÑĨ
ĠÐ£ Ð¶ÑĬ
Ð¾Ð²Ð¸Ñĩ ÑĬ
ĠÐ±Ð° Ð³
ĠÐ½ Ð¾Ð²Ñ£
ĠÐ´Ñ£ Ð»Ñ§
ĠÐ´Ð¾Ð±ÑĢÐ° Ð³Ð¾
Ð³Ð¾ÑĤ Ð¾Ð²
ĠÐ´ Ð°ÑĢÑĭ
ĠÑĤ ÐµÐ»Ñ£
ĠÐ½Ðµ ÑĢÐ°
ĠÐ¿Ð¾ ÑĩÐ°
Ð¾Ð³ Ñĥ
ĠÐ±Ð¾Ð» Ðµ
ĠÑĥÑĢÑı Ð´
ĠÐ²ÐµÐ» ÐµÐ½ÑĮÑİ
ĠÐ½ÐµÐ´ÑĢÑĥ Ð³Ð¾Ð²ÑĬ
ĠÑĤ ÑĢÑĬ
ĠÐ¼Ð¸ ÐºÑĥ
ĠÐ³ÑĢÐ¸Ð² ÐµÐ½ÑĬ
ĠÐ²ÑģÑıÐºÐ¸ Ð¼Ð¸
Î µ
ĠÑĢ Ñ§
ĠÐ¿Ð¾Ð» ÐºÑĬ
00 0
ĠÐ» ÑĥÑĤ
ĠÐ¶Ðµ Ð½Ñ¹
ÐµÐ» Ñĭ
ĠÐ¿ÑĢÐ¸ Ð±Ð°Ð²
ĠÑħ ÑĥÐ´
ÑĢÐ¾ ÑģÑĤ
ĠÐ»ÑİÐ± Ð¸Ð¼
ĠÐ¿ÑĢ Ñ§
ĠÑģÑĤ Ñĥ
Ð²Ñ£ Ð´Ñ£
ĠÐ»Ð¸ ÑģÑĤÑĬ
ÑģÐºÐ° Ñ§
ĠÐ´ÐµÑĢ Ð·
ĠÐ¿Ð»Ð° ÑĤÑĮÐµ
ĠÐ´ÑĢ Ð¾Ð±
ĠÐ ®
ÑĢ ÐºÐ¾Ð²ÑĮ
ĠÑģ ÑĢÐµ
Ð»Ðµ Ð¹
Ñī ÐµÑĤÑĮ
Ð²Ð° Ð¸
ĠÐ´Ð° Ð»Ð°
ĠÐ¸Ð¼ Ð°Ð¼
Ð°Ñģ Ð°
ĠÑģÑĤÐ¾ ÑıÑĤÐ¸
ĠÑģÐ»ÑĥÐ¶ Ð±Ñĥ
ĠÑĨÑ£ Ð»Ð¾Ð²
ĠÑĥ ÑĤÐµ
ĠÐ¿Ð¾ÑģÐ» Ð¾Ñĥ
ĠÑģÑĤÐµÐ¿ Ð°Ð½
ĠÐ²ÑĮÑģÐµ Ð³Ð¾
ĠÐĶÐ¾Ð±ÑĢÑĭ Ð½Ñı
Ð² ÑģÑı
ĠÐ³ Ð»Ñİ
Ð¾Ñģ Ð»Ð°Ð²ÑĬ
ĠÐĵ Ð»Ð°Ð³Ð¾Ð»
ĠÑĤÑĢ Ñ¹
ĠÐ»ÑİÐ´ÑĮ Ðµ
ĠÐ¿ Ñ§ÑĤ
Ð¿ Ñĭ
Ð¸ÑĤ ÑģÑ§
ĠÑĥÑĩ Ð½ÑĥÑĤÑĬ
ĠÐ±Ð¾Ð³Ð°ÑĤÑĭ ÑĢÐ¸
ĠÐ¼Ð°Ð½Ð°ÑģÑĤÑĭ ÑĢÑı
ĠÑĥ Ð±ÑĮ
Ð¾Ð²Ðµ Ð¹
Ð»ÐµÐº ÑģÑ£
ĠÐµÐ´Ð¸ Ð½Ð°Ð³Ð¾
ĠÐĸ Ðµ
ĠÐ¿Ð¾Ñģ Ð¿Ñ£
ĠÐ·ÐµÐ¼ ÐµÐ»ÑĮ
Ð½Ð¸Ðº ÑĮ
ĠÐ´ÐµÑĢÐµÐ² ÐµÐ½ÑĮ
ÑĤÑĭ Ð¸
ĠÐ±êĻĳ Ñģ
ÑĤ êĻĳ
ĠÐ¸Ð· ÑģÑĤÐ°ÑĢÐ¸
ĠÐ²Ð¸ Ð½Ñĭ
ĠÐ²Ð°ÑģÐ¸Ð» ÐµÐ¹
ĠÐ² ÑħÐ¾Ð´
ĠÐ½ Ñĸ
ÐºÐ° Ð¼
ĠÑıÐ²Ð»Ñı ÐµÑĤ
Ñħ Ð½Ð¸
Ð¿ ÑĢÐµ
ĠÑı Ð·ÑĬ
ĠÐ¿Ð° ÑĪÐ½Ð¸
ĠÐ¿Ð¾Ð² ÐµÐ»Ð¸
ĠÐ¿Ð¾ÑĤ ÑĢÐµ
ÐµÑĤÐµ Ð¸
ĠÐļ Ð°ÑĢ
ĠÐ´ÐµÑĢÐµÐ² Ð½Ðµ
ĠÐ³ÑĢÑ£Ñħ Ñĭ
ĠÐ¿ÑĢÐ°Ð²ÑĮ Ð´ÑĮ
ÑĢÐ°Ð³ Ð¼ÐµÐ½
ĠÑģÐ» Ð¾Ñĥ
ĠÐ¶Ð¸ Ð»Ð¸
ĠÐ¶Ð¸ Ð·Ð½ÑĮ
ĠÑģÐ¾Ð± Ðµ
Î¿ Ï
ĠÐ¿ÑĢÐ¸ ÑĪÑĮ
ĠÐ·Ð° Ð±
ĠÐ¾Ð± Ð¾
ĠÐ½Ð°Ð¿ Ð¸ÑĪ
Ñķ Ñ£
ĠÐ³Ð»Ð° Ð²Ð°
ĠÐ´ÑĮ ÑģÑ§
ĠÐ±Ð¾ÑıÑĢ ÑģÐºÐ¾Ð³Ð¾
ĠÐºÐ¾Ñĥ Ð½ÑĬ
ĠÑģÐºÐ° Ð¶ÐµÑĤ
Ñ§ Ð½Ð°
ĠÐ¿Ð¾ ÑĤÐµ
ĠÑĦ ÐµÐ¾Ð´
ĠÐ»Ð°ÑĤÐ¸ Ð½Ðµ
ÑĤ Ñ¹
Ð¾ÑĢ Ð¾Ð½
Ð²Ð° ÑĪÐµ
ĠÑĨ Ñģ
ĠÐ»ÑİÐ± ÑĬ
ĠÐ²ÐµÐ»Ð¸ÐºÐ¸ ÑħÑĬ
ĠÐ±Ð¾ÑıÑĢ Ð¸Ð½Ñĥ
ĠÐ´Ð°ÑĢ ÑĬ
ĠÑĩ ÐµÑģ
ĠÐ¸Ð½ Ð¾Ð¼Ñĥ
Ð°Ð½ÑĮ Ñİ
ĠÑģ ÑģÑĭ
ĠÐ¶Ðµ ÑĢ
ĠÐ¶Ðµ Ð½ÑĬ
ĠÑģÑĤÐ¾ÑĢ Ð¾Ð½
ĠÐ¼Ð¾ÑģÐº Ð²Ñ£
ĠÐļÐ¸ ÐµÐ²ÑĬ
ĠÑģÑĤ Ñ§
ĠÐŁ Ð¾Ð¸
Ð´Ñ£ ÑĤÐµ
ĠÑĦ Ð°ÑĢÐ°
ĠÐ¿Ð° Ð³Ñĥ
ĠÐ¿Ð¾Ñħ Ð¾ÑĤ
Ð¾ ÑĦ
ÑģÑĤ Ñ§
Ð¶Ðµ Ð¼ÑĬ
ĠÐ´Ñ£Ð»Ñ£ ÑħÑĬ
ĠÐ±Ñĭ ÑĤ
ĠÐ²Ñĭ ÑħÐ¾Ð´
ÑĢÐ¾Ñģ Ð¸
Ð´ ÑĢ
ÑĢÐ° Ð²ÑĬ
Ð²Ð° Ð°
ĠÑĢÐ° Ð¸
ĠÐ¿ÑĢÐµÐºÑĢÐ°Ñģ Ð½Ð°Ñı
ĠÑģÑĤ ÑĬ
ĠÐ¢ Ð²Ð¾ÑĢ
ĠÐ²ÑĬÐ· Ñ§
ĠÐ½Ð¸ÐºÐ¾Ð»Ð¸ Ð¶Ðµ
Ð½Ð¾ ÑģÑĤÐ¸
ĠÑģÐ»Ð¾Ð²ÐµÑģ ÑĬ
ĠÑģÐ»ÑĥÐ¶ Ð±Ñĭ
Ð¿Ð¸Ñģ ÑĮ
ĠÐ¿ÑĢÐµÐ¼ ÑĥÐ´
ĠÐ½ÐµÐ´ÐµÐ» ÑīÐ¸
ĠÐ² Ð½Ðµ
Ð¾Ð¿ Ð¸
ĠÑģÑĤÐ°ÑĢ Ð¾Ð¼Ñĥ
ĠÑħÐ¾Ð´ Ð¸Ð»
ĠÐ³Ð¾Ð» Ð¾Ð²
ĠÐ¾ÑĤÐ´Ð° Ð²Ð°ÑĤÐ¸
ĠÐ²ÑĢÑ£ Ð¼Ñı
Ð°Ð½ ÑĨÑĭ
Ð½Ñı ÑĤÑĮ
Ð´Ñ£ ÑħÑĬ
Ð²Ð¸ Ð¸
ĠÐ¿Ð¾Ðº ÑĢÐ¾Ð²
ĠÐ²Ð¾Ð· Ð´Ð²Ð¸
Ð²Ñĭ Ð¼ÑĬ
ĠÐ¼Ðµ Ð¶ÑĬ
Ð³Ð»Ñĭ Ñħ
Ð¾ÑĢ ÑĮ
ĠÑĢÑĥÐ± Ð»Ð¸
ĠÑĨÐµÐ» Ð¾Ð²Ð°Ð»
Ð¼ Ð½
ĠÑĢ Ð¾Ð²
ĠÐ¼Ñ£ ÑģÑĤÐµ
ĠÐł Ð°Ð·
ĠÐºÐ¾Ð» ÐºÐ¾
ĠÐ¾ ÑĥÐ´
ĠÑģÐ» êĻĳ
ĠÐ²ÑģÑ§ ÐºÐ¾
ĠÐ½Ð°ÐºÐ°Ð· Ð°Ð½
ĠÑĩÐ»Ð¾Ð²Ñ£ ÐºÐ°
ĠÑĢÐ°Ð´ Ð¾Ð²Ð°ÑĤÐ¸
ĠÐ¿ÑĢÐ¸Ð² ÐµÐ·
ĠÐ½Ð¸Ðº ÑĤÐ¾Ð¶Ðµ
Ð¸ÑĤÐµÐ» Ñı
ĠÐ¿ Ð¾Ð²Ðµ
ĠÐ½Ð° Ð¸
ĠÐ¾Ð± ÑĮ
ĠÐ²Ñ£ ÑĢÐ°
ĠÐ´Ð¾Ð¼ Ð¾Ð²
ĠÐº Ð²Ð°
ĠÑĤÐ¸ Ñĥ
ĠÐºÑĢÑ£Ð¿ ÐºÐ¾
Ð°ÑĤ ÐµÐ»ÑĮ
ĠÐ¡ Ð°
ĠÐ·Ð°Ð¿ Ð»Ð°ÑĤÐ¸
ĠÐ½êĻĳ Ð½Ñ£
ĠÑĤÑĥ ÑĢ
Ð±ÑĢÐ° ÑĤÐ¸
ĠÐ³Ð»Ð°Ð³Ð¾Ð» ÑİÑīÐµ
Ġ1 3
Ð¸Ñģ Ð¸
ĠÑģÐ»Ð¾Ð² Ð¾Ð¼ÑĬ
ĠÐ±Ð¾Ð³Ð°ÑĤÑĭ ÑĢÑĮ
Ð± ÑĢÑ§
ÑĨ Ð¾Ñĥ
ĠÑĥ Ñħ
Ð»Ðµ Ð²Ð°
ĠÐ¢ ÑĢÐ¾
ĠÑĤÐ²Ð¾ ÐµÐ¼
ĠÐ²ÑģÑ§Ðº ÑĸÐµ
Ð³ Ð½Ñĥ
Ð· Ñ§
Ð¾Ñĥ ÑĤÑĮ
ĠÐ¿Ð¾Ð» Ð°ÑĤÑĭ
ÐºÐ°Ð· ÑĬ
ĠÐ¿ÑĢÐ¾ ÑĩÐ¸
ĠÐ¼Ñĭ ÑģÐ»ÑĮ
ĠÐ½Ð± Ñģ
ĠÐ» Ð°Ð·
ĠÐ±Ð¾Ð» ÑĪ
ĠÐ²Ð°ÑģÐ¸Ð»ÑĮ Ñİ
ĠÐ¼ÑĬ Ð½Ñ£
ĠÑģÑĤÑĢÑ£Ð»ÑĮ Ð±Ñ£
Ñĥ Ð¼Ñĥ
ĠÑĪ Ð»Ð¾
ĠÑķ Ñ£
ĠÐ±Ð»Ð° Ð¶ÐµÐ½
ĠÐĴÐ¾Ð»Ð¾Ð´ Ð¸Ð¼
ĠÐ¿ Ð¾Ð¶Ðµ
ĠÐº ÐµÐ¼
ĠÐ¿ÑĢ Ð¾Ð¶Ð¸ÑĤ
ĠÑĥ ÑģÐ¿
Ð²Ð¸ ÑĤÑĮ
ĠÐºÑĬ ÑĤÐ¾
ĠÑĥÑĩÐ¸Ð½Ð¸ ÑĤÑģÑı
ĠÐ´ÐµÐ½Ðµ Ð¶
Ð³Ð¾ÑĤ Ð¾Ð²Ð°
ĠÐ²ÐµÐ»Ñ£ Ð»ÑĬ
ĠÐ½Ð° Ð·ÑĭÐ²Ð°
Ð»Ð¸ ÐºÐ¾
ĠÑ¿ Ð½Ñİ
Ð´Ð¸ Ð½Ð¾
ĠÐ¾Ð± Ð»Ð¸
ÐµÐ½Ð¸ Ð¸
ĠÐ¿Ð¾ÑģÐ»Ð° ÑĪÐ°
ĠÐ´Ð¾Ð² Ð¾Ð»
ĠÐ½Ð¸Ðº ÑĤÐ¾
ĠÐ¿ÑĢÐ¾Ñģ Ð¸
ĠÐ·Ð»Ð° ÑĤÑĭ
Ñĭ Ð½Ð¸
ĠÑħ Ð°ÑĢ
êĻĹ ÑĤÐ¸
ĠÐ¼Ð¾ ÑīÐ½Ð¾
ĠÐ²ÑģÐµ Ñİ
ĠÐ²Ð¾Ð¹ ÑģÐºÐ°
ĠÐµ ÑĢ
Ð²Ð° ÐµÑĤ
Ñ¹ Ð¸
ÑĤÐ¾ Ñİ
ĠÑ¥ Ð¼Ñ¹
ĠÐ¸Ð²Ð° ÑĪÐºÐ¾
ĠÐ¿Ð¾ÑģÐ»Ð° Ð»
Ð»ÐµÐ² ÑĬ
ĠÐ½Ð°ÑĪ Ñĥ
ĠÐ±Ñĭ Ñħ
ĠÐ¶Ð¸ Ð²ÐµÑĤ
ĠÐ´Ð¾Ð» Ð³Ð¾
ĠÑĢ Ð¾Ð³
ĠÑ¡ ÑĩÐ¸
ĠÐ³Ð¾ÑģÑĥÐ´Ð°ÑĢÐµÐ²Ñĭ Ñħ
ĠÐº Ð¾Ð±Ñĭ
ĠÐ¿Ð¾Ð³ ÑĢÐµÐ±
ĠÐ³Ð¾ÑģÐ¿Ð¾Ð´ Ð¸Ð½Ñĥ
ĠÐ²ÑĢÐ° ÑĤÐ°
ĠÐ·Ð¾Ð» Ð¾ÑĤ
ĠÐ¸ÑĤ ÑĤÐ¸
Ð¼ êĻĳ
ĠÑĢÐ° Ð±Ñĭ
ĠÑĤÐ¾ ÑĩÐ¸Ñİ
Ð°ÑĤ ÐµÐ»
ĠÑ¥ Ð¶Ðµ
Ð¾Ð»Ð¸ ÐºÐ¾
ÑĥÑĤ ÑģÑı
Ð¾Ð²ÑĮ Ðµ
ĠÐ¾Ð±ÑĢÑ£ ÑĤÐµ
ĠÐłÑĥ ÑģÐ¸Ð¸
Ñĥ Ñģ
Ð»Ñ£ Ð´ÑĬ
ĠÑĤÐ²Ð¾Ðµ Ð³Ñ¡
ĠÑĢÑ£ ÑĩÐ¸
ĠÐ¾Ðº Ð»Ð°Ð´
ĠÑĤÐ°Ð¼ Ñ¡
ĠÐ² Ð´Ñ£
ĠÐ±Ð¾Ñı ÑĢÐ¸Ð½Ð°
ĠÐ¼ÑĮ Ð½ÑĮ
Ð¸ Ð½Ñĭ
Ð³ Ð»Ð°Ð³Ð¾Ð»
ĠÑĢÑĥ ÐºÐ¾Ñİ
ĠÑĤÐ°Ðº Ð¸Ð¼ÑĬ
ĠÐ³Ð»Ð° Ñģ
ĠÑĢÐ°Ð·Ñĥ Ð¼ÑĬ
ĠÐ¿Ð¾ÑĢÑĥ ÐºÐ¸
ĠÐŁÐ¾ÑĤ Ð¾Ð¼ÑĬ
ĠÐ±Ð»Ð°Ð³Ð¾ÑģÐ» Ð¾Ð²Ðµ
ĠÑģÐµ Ð±Ñ§
ĠÐºÐ° ÑĤÐ¾
ĠÑĩÐµ ÑģÑĤÐ¸
ĠÐºÑĥÐ¿ Ð¸Ð»
ÑģÑĤÑĥÐ¿ Ð¸
ĠÐ¿Ñ£ ÑĪÐ¸ÑħÑĬ
Ð» ÐµÐ¼ÐµÐ½
ĠÐ¿ÑĢÐ¸ Ð³Ð¾Ð´
Ð´Ð° ÑĤÑĮ
ĠÐ¿Ð¾ ÑĤÐ°
êĻĹ ÑĪÐµ
ĠÐ¿Ð¾Ð» Ð¾Ñĥ
ĠÐ³Ð»Ð°Ð³Ð¾Ð» Ñ§
ĠÑĨÐµÐ» Ð¾Ð²Ð°
ĠÐ²ÑģÑ§Ðº ÑĹÐµ
ĠÐ± Ð¸Ð»ÑĬ
Ð»Ñ£ Ð½
Ð·Ð¸ ÑĢÐ°
ĠÐ²ÑģÑıÐºÐ¸ Ð¼
ĠÐ¼Ð¾ÑģÐºÐ¾Ð² ÑģÐºÐ¸Ð¸
ĠÐ´ ÐµÐ²Ð¸
Ñĩ ÐµÐ½Ð°
ĠÐ¿ÑĢÐ°Ð² Ð´Ñĥ
Ð»Ñĥ ÑĩÐ¸
ÑģÐºÑĭ Ñı
ÑĤÐ¾ÑĢ Ð°
ĠÐ¦ Ð°ÑĢÑĮ
ĠÐ¸Ð·Ñ§ ÑģÐ»Ð°Ð²ÑĬ
ĠÐŁÐ¾Ð½ ÐµÐ¶Ðµ
ĠÐ½ Ñ§
ĠÐ± Ð¾Ð¶ÑĮ
Ñī Ð°Ð½
Ð½Ð¸Ðº Ñ¹
ĠÐ´ÑĢÑĥ Ð³Ñĥ
ĠÑĤÐ¾Ð¼ êĻĭ
ĠÐ¸Ñİ Ð½Ñı
ĠÐ´Ð° Ð½
ĠÑģÑĤ Ð°ÑĤÐ¸
Ð²Ñ£ ÑĤÐ°
ĠÐ¿Ð¾Ð» ÐºÑĥ
ĠÐĳ Ð»
ĠÐ²Ð¾Ð» Ñħ
ĠÑİ Ð¶Ðµ
ĠÑģÐ»Ð¾Ð² Ñĥ
ĠÐ¸Ð¼ÐµÐ½ ÐµÐ¼ÑĬ
ĠÐ¿Ð¾Ñģ Ñĥ
ĠÑĶ Ð¶Ðµ
ĠÑĤÐ°Ðº Ð¶Ðµ
Ð»Ð°Ð³ Ð¾Ð»Ð¸
ĠÑĤÐ¾ÑĢ Ð³Ð¾Ð²
ĠÑĢÐ°Ð± Ð¾ÑĤÐ°
ĠÑĢÐµÐº Ð»Ð°
ÑĪÐµ Ð½Ð¸Ñı
ĠÑģÐ²Ñı ÑĤÐ°Ð³Ð¾
Ġ3 0
ĠÐ»Ð¾ÑĪÐ° Ð´Ð¸
ĠÐºÑĢÐµ ÑģÑĤÐ¸
ĠÐĽ Ðµ
ĠÐ¼Ð½Ñ¡ Ð³Ð¾
ĠÐ¿ÑĢÐ¾ÑĢ Ð¾ÐºÑĬ
ĠÑģÑĥ Ð·Ð´Ð°
ĠÐ²ÑģÑıÐºÐ¸ ÑħÑĬ
ĠÐĺÐ»ÑĮ Ñİ
ÑĨÐºÐ¸ Ñħ
ÑģÑĤÑ¹ Ð¿
ĠÐºÐ°ÐºÐ¾ Ðµ
ĠÐ½ÐµÐ¿ ÑĢÐ°Ð²ÑĮ
ÑĪ ÐµÐ»ÑĬ
ÑĢÐ¸ ÑĤÑĮ
ĠÐ¶ Ð¸Ð»
ĠÐ³ ÐµÐ½
ĠÐ´Ð° Ð²Ñĭ
ĠÐ½Ð¸ Ð±
Ð¾Ð²Ð¸ Ñİ
ÑĩÑĮ ÑģÑĤÐ¸
ĠÐ¿ÑĢÐµ ÑģÑĤÐ°Ð²
ĠÐ¿Ð° Ð»Ð°
Ñ£Ð· Ð¶Ð°
ĠÐ¸Ñİ Ð»Ñı
ĠÐ¡Ð»Ñĭ ÑĪÐ°
ĠÐº ÑĤ
ĠÑĢ Ð¸Ð¼
ĠÐ¸ÑģÑĤ Ð¸Ð½ÑĮ
ĠÐ²ÑĮÑģÑ£ ÑħÑĬ
ĠÐ¿Ð¾Ñģ Ð»Ñĭ
ĠÐŀ Ð½Ð¸
ĠÑģÐ¸ ÑĢÑ£
ĠÑĤÐ°Ðº ÑĥÑİ
ĠêĻģ Ð²Ñ£
ĠÐ¼Ð¾Ð» Ñİ
ĠÐ±êĻĳ ÑģÑĤÑĬ
ĠÐ·Ð´ ÑĢÐ°Ð²Ð¸
ĠÑĢÐ°Ð·Ð¼Ñ£ ÑĢ
ĠÐ¸ Ð½ÑĭÐ¼
ĠÑģÐ¸ Ð±Ð¸
ĠÐ¿Ñĥ ÑģÑĤÐ¸
Ð²Ð¾Ð» ÑĬ
ĠÐ¿Ð¾Ð»Ð¾Ð²Ð¸ Ð½Ð°
ĠÐ²Ñ£ ÐºÐ¸
ĠÐĶ Ñ£
ĠÑģÑĤÑĢÐ° Ð½
ĠÐºÐ½Ñ§ Ð·Ð¸
ĠÑĢÐ¾Ñĥ ÑģÐ¸
ĠÐ¼Ð¸Ð»Ð¾Ñģ ÐµÑĢ
ĠÐĲ Ð´Ð°
ĠÑħ Ñĥ
ĠÐ¼Ñģ ÑĨÐ°
ÒĨ ,
ĠÑĨÐ°ÑĢ ÐµÐ¼ÑĬ
ĠÐ¿Ð¾ÑĢ Ð°
ĠÐ¼Ð½Ð¾Ð³ Ð¸Ñħ
ĠÐ´ÐµÑĢÐ¶ Ð°Ð²
ÑĢ Ð¾Ð»
Ð» ÐµÑĤÑĮ
ÑĤÑĮ Ñ§
ĠÑĢÐµ ÐºÐ¸
ĠÐ²Ð¸ Ð½Ð¾
ĠÐ¿Ð° ÑĪÐµÐ½
ĠÐ²Ð°Ñģ Ð¸Ð»Ð¸
Ð´ Ð¸ÑĤ
ĠÐ´Ð° ÑĪÐ°
Ð¶Ðµ Ð½Ð¸
ĠÑģÐ¼ Ð¾Ð»ÑĮ
ĠÐ±Ð¾Ñı ÑĢÐµ
ĠÐĴÑĬ Ð·
ĠÐ´Ð¾Ð±ÑĢÑĭ Ñħ
ĠÐ´Ð°ÑĢ Ñĥ
ĠÑĥ ÑĤÑ£
Ñ« ÑĤ
ĠÐ¿Ð¾Ð¼Ðµ ÑģÑĤÐµÐ¹
ĠÐ¾ÑĤÑĮ ÑĨÑı
êĻģ Ð½ÑĮ
ĠÐ¸Ñģ ÑĨÑ£
ĠÐĵ Ð¾ÑĢÐµ
ĠÐ¸Ñħ ÑĮ
ÑĥÑĤ ÑĩÐ¸
ĠÑģ ÑĸÑİ
ĠÐ¸ ÑģÑĤÐ¸
Ð± Ð»Ñı
ĠÐ¿Ð¾Ð² ÐµÐ»
ÑĤÑĨÐ° ÑĤÐ¸
ĠÐº Ð°Ð½
ĠÐ¿ÑĢÐ¸ Ð³Ð¾Ð²Ð¾ÑĢ
ĠÐ¾ÑĤ ÐºÑĥÐ¿
ĠÑĨ Ð¸
ĠÐ¡ Ð¿Ð°Ñģ
ĠÐºÐ° Ð¿
ĠÐºÐ¾ÑĢ Ð°
ĠÐ¸Ð²Ð° ÑĪÐºÐ°
ĠÑĤÐ¾Ð¼ Ð¾Ñĥ
ĠÐ¸Ð²Ð°Ð½ Ð¾Ð²Ð¸ÑĩÑİ
ĠÑģÐ²Ð¸ Ð´Ñ£
Ð° ÑħÑĥ
Ð´Ð¸ Ð¼ÑĬ
ĠÐļ Ð¾Ð½
ĠÐ²Ð· ÐµÐ¼
ĠÐ´Ð²Ð¾ÑĢ Ð¾Ð²
Ð´ Ñĸ
ĠÐ¼ ÑĢÑĮ
ÑĨ Ñ«
ĠÐ¼ Ð¾Ðº
Ð»Ð¸ Ð²ÑĬ
ĠÐ´Ð° Ð¹
ÑĪÐ° Ð°Ð³Ð¾
ÐµÐ½ ÑĸÐ°
ÑģÑĤÐ¾ Ñı
ĠÑĤÐ° Ð¼ÑĬ
Ñ³ Ð¾Ð½
Ð»Ð¸ Ð²Ð¾
ĠÐµ Ð¿Ð¸ÑģÐºÐ¾Ð¿
êĻĭ Ð¼
ĠÐ¿ÑĢÐµ Ð¿Ð¾Ð´Ð¾Ð±
ĠÐ±Ñ£ Ð¶Ð°
ĠÐ½Ñ£ ÐºÐ¾
ÐºÐ¾Ð² Ñĥ
Ð¾Ð³ Ð¾Ð²Ð¾ÑĢ
ĠÑĸ Ð²Ð°Ð½
ĠÐ¸Ð²Ð°Ð½ Ð¾Ð²Ð°
ĠÐ³Ð¾Ð´ ÑĬ
ĠÐ²ÑģÐµÐ²Ð¾Ð» Ð¾Ð´ÑĬ
Ð¼ Ñĸ
ÐµÐ¼ Ðµ
ĠÑģÐ¼ ÑĢ
ĠÐ±ÑĮ Ñĸ
ĠÐĵÐ¾ÑģÐ¿Ð¾Ð´ Ñĥ
ĠÐ¼Ð°Ðº ÑģÐ¸Ð¼
ĠÐĶÐ¾Ð±ÑĢÑĭ Ð½Ñİ
Ð¸Ñģ Ðµ
ĠÐ±ÐµÑģ ÑĩÐµ
ÐµÐ½Ñĭ Ñħ
ĠÐ´ÐµÑģÑı ÑĤÑĮ
ĠÐ¿Ð¾Ð¶Ð°Ð»Ñĥ Ð¸
ĠÐ¸ Ð½Ñĭ
Ñ¥ Ð²Ð°
ĠÐºÐ¾Ð½ Ñ£
ĠÑĤÑ£ Ð¼Ð¸
ĠÐ´Ð¾Ð¼ Ñ¹
ĠÐ±ÐµÑĢ ÐµÐ·
ĠÐ¶ÐµÑĢÐµ Ð±Ðµ
Ð¾ÑĢ ÑĤÐ¸
Ð½Ð° ÑħÑĬ
ĠÐĺ Ð½
ĠÐ²ÑĮ ÑģÑĮ
ĠÑĢÐ¸ Ð·
ĠÐ¶Ð¸ÑĤÐ¸ Ðµ
ĠÑħÐ»Ñ£ Ð±Ð°
ĠÐ¼ÐµÐ¶ Ð´Ñĥ
ĠÑĥ Ð¼Ñĭ
ĠÐĳ ÑĥÐ´
Ð´Ñĥ ÑĤÑĬ
ĠÐ²ÑģÑ§ ÐºÐ°Ð³Ð¾
Ġ1 4
ĠÐ¼Ð¸ÑħÐ°Ð¹ Ð»
ĠÐºÐ»Ð°Ð½Ñ§ Ñİ
ĠÐº ÑĥÐ´Ð°
Ð»Ð° Ð´Ñĥ
ĠÐ²Ñģ ÐµÑģ
ĠÐ¿Ð¾Ñģ Ð¾Ð»
ĠÐºÑĬ Ð½Ñ§
ĠÐ¿Ð¾Ðº Ð°Ð¼
ĠÐ²ÑģÑı Ðº
ĠÐ¿Ð¾Ð»Ð¾Ð² Ð¸Ð½Ñĥ
ĠÑģ Ð¾Ð»ÑĮ
ĠÐ¿ÑĢ Ð¾Ð»
êĻĭ Ñİ
ĠÑģÑĤ ÑĢÐµ
ÑĩÐµ Ð¸
ĠÑģÐ°Ð¼ Ð¾Ð´ÐµÑĢ
ĠÑģÐ¾Ñĥ ÑĤÑĮ
ĠÐ½Ð°Ð´Ð¾Ð± Ðµ
ĠÐ²Ð½Ð¸ Ð´Ðµ
ĠÑĤ ÑĢÑ£
ĠÐ¾ÑĤ Ðº
ĠÐ¸Ñģ ÑĨÐ¾Ð¼
ĠÐ³Ð¾ÑģÐ¿Ð¾Ð´ Ð¸Ð½ÑĬ
ĠÑģÐ²ÑıÑĤ ÑĭÐ¸ÑħÑĬ
ĠÑĢÐ¸ Ð·Ñĭ
ĠÐ¿ÑĢÑ£Ð¼ ÑĥÐ´
ĠÐ° ÑĤ
ĠÑĩ ÐµÐ¼Ñĥ
Ð¸ÑĤ Ð¾
ĠÑģÑĬ Ð²
ĠÐ¡ ÑĮ
ÐµÑĢÐµ Ð¸
ĠÐ³ÑģÐ´ ÑĢÑ§
ĠÐľÐ¸ÑħÐ° Ð¹
ĠÐ¾ÑĤÐ¿Ñĥ ÑģÑĤÐ¸
ĠÐµÐ´ Ð¸Ð½Ñĥ
ĠÑģÑĤÐ°ÑĢÐ¾ÑģÑĤÐ¸ ÑĪÐºÐ¾
ĠÐ±Ð°ÑĤ Ñİ
Ï ģ
ÑģÐº Ñ¹
ĠÐ¾Ñĥ Ð¼Ñ£
ÑĹ Ð°
ĠÐł ÐµÑĩÐµ
ĠÐ±Ð¾Ð» Ð³Ð°ÑĢÐ¸
ÑĪÑĤÐµ ÑĪÐ¸
ÑĪ Ñ¹
ÑĨ Ð¾Ð²Ð°
Ñ¹ ÑĤÑĬ
ĠÐ¿ÑĢÐ¸ ÑģÐ¿Ñ£
ĠÐ¿Ñĥ ÑĤ
ĠÐµÐ´Ð¸Ð½ Ð¾Ð³Ð¾
ĠÐ´ÐµÑģ Ñ§ÑĤÑĮ
Ð¾Ð² ÑĮÑı
Ð²Ð° ÑİÑĤ
ĠÑĥ Ð²Ñ£
ĠÐ±Ñĭ Ð²ÑĪÐµ
ĠÑĸ Ð²Ð°
ĠÑĢÐ¾Ð´ ÑĬ
ĠÐ¼Ñ¹ Ð¶Ð°
ĠÐ²Ð°ÑģÐ¸Ð» ÐµÐ¸
ĠÑĥÐ´ Ð°ÑĢ
ĠÑĦÑĥÐ½ ÑĤÐ¾Ð²ÑĬ
ĠÑģ êĻĭÐ´
ĠÐ¿ Ñ§
ĠÐ½Ðµ ÑĩÐµÑģÑĤÐ¸
Ð¶ Ñı
ĠÐ¶Ð¸ Ð´
ĠÑģÑĤÑĢÐ° Ð½Ñ£
ĠÑģÐ»Ð¾Ð²ÐµÑģ Ñĭ
ĠÐ¼ÑĥÐ´ ÑĢÑĭ
ĠÐ²Ð¾ÑģÐº ÑĢÐµ
ÑĢ ÐµÐ¼ÑĬ
Ñģ Ð¾Ð²
ĠÐ½Ð¸ Ð·ÑĬ
ĠÐ¿Ð¾Ð± Ð¸
ĠÑģÑ¹ Ð´Ñĭ
ĠÑĢÑĥÐ±Ð»ÐµÐ² ÑĬ
Ð¼ Ð¾Ð¶Ðµ
Ð± Ð¾Ð¶
Ð½Ð¸ ÑĨÑ£
ĠÑı ÑĢÐ¾Ð¿Ð¾Ð»
ĠÐ¿ÑĢÑ£ ÑģÑĤ
ÑĢÐ¾Ðº ÑĬ
Ð½ÐµÐ½ Ð°Ð²
ĠÐ¿Ð¾ÑĩÐ¸Ð½ Ð¾Ðº
ĠÐ½Ð° Ð¼ÑĮ
ĠÐ° ÑĦ
ĠÐ¾ÑĤ ÑĤ
Ñ« ÑĤÑĮ
ĠÐ²Ñ£ ÑģÑĥ
ĠÑĨÐ°ÑĢ ÐµÐ²
ĠÐ¿ÐµÑĢ ÐµÐ»
ĠÐ±ÑĮ ÑİÑĤÑĬ
ĠÑģÐ»Ñĥ Ð³Ð°
ĠÑģÑĬÑĤÐ²Ð¾ÑĢ Ð¸ÑĤÐ¸
ĠÐ±êĻĭÐ´ êĻĭÑĤÑĬ
ĠÐ¼Ð¾Ð»Ð¸ÑĤ Ð²Ñĥ
ĠÐ¡Ð¾Ð» Ð¾Ð²ÐµÐ¹
ĠÐ¿Ð»ÑĬ ÑĤÑĮ
ĠÑĢ ÐµÐ²
ĠÑĨÐ°ÑĢ ÐµÐ²Ñĥ
ĠÐ¿Ð° Ð´
ĠÐ¿Ð¾ÑģÑĤÐ°Ð² Ð¸ÑĤÐ¸
ĠÐ²ÑģÐºÐ¾ÑĢ Ñ£
ÑĤ ÐµÐ»Ð¸
ĠÑĤ Ñ¡
ĠÐ²ÑĬ Ð¿Ð°
ĠÑĤÐ²Ð¾ Ð¸Ñħ
ĠÐ¿Ð¾Ð¼ Ð¾Ð»
ĠÐ¿Ð¾ÑĢ Ñĭ
ĠÑķ Ð²Ñ£
ĠÑĩÐµÑĢ ÐµÐ·ÑĬ
ĠÑĩÐ°Ñģ Ñĭ
Ðº Ð¸Ð½Ñĥ
ÑĪ ÐµÑĤÑĮ
Ð²Ð° ÐµÑĤÑĮ
ĠÐ¶Ðµ Ð»Ñ£
ÑĨÐµ Ñħ
ĠÑħÐ¾ ÑĤÑĮ
ĠÐ´ÑĮ Ð½Ð¸
ĠÐ±Ð¾ÑıÑĢ ÑģÐºÐ¸Ðµ
ĠÐ¡ÑĤ ÑĢÐ°ÑĤÐ¸
Ð¾ ÑĥÐ´
ĠÐ² Ð¿Ð°
ÐµÑĢ Ð¶
ĠÐ» Ð¶Ð¸
Ð¶ Ð¸ÑĤÐ¸
ĠÑĥ Ð´Ð°
Ñ¹ Ð¼Ñ£
Ð´Ð¸ Ð»Ð¸
ĠÐĿ ÑĮ
ĠÐ³ÑĬ ÑĢ
Ñģ Ñģ
Ð´ ÑĨÐ°
ĠÐº Ñĸ
ĠÑ¿ Ð²ÐµÑĢ
ĠÐºÐ¾Ð½ Ð½ÑĭÑħÑĬ
Ð¸ÑĤÑĮ ÑģÑı
ĠÐ¿ÑĢÐµÐ´ Ñ£
ĠÑģÑĤÐ¾ÑĢ Ð¾Ð¶
Ġ2 0
ĠÐĴÐ¾ ÐµÐ²
ÑģÑĤÐµ Ð¸
ĠÑģÐ»Ð¾Ð²ÐµÑģ Ð¸
ĠÐºÑĢÑ£Ð¿ Ð¾ÑģÑĤÐ¸
ĠÑĢêĻĭ ÐºêĻĭ
ĠÑĤ ÐµÐ¼ÑĬ
ĠÐ¿ÑĢÐ¸ ÑĪÐµ
ĠÐ½Ð¸ ÐºÐ¾ÑĤÐ¾ÑĢ
ĠÐ¡ Ñĥ
ĠÑĤÐ°Ðº ÑĸÐµ
ĠÐ²ÑĬÐ· Ð²ÑĢÐ°ÑĤÐ¸
ĠÐ´ÑĢÑĥ Ð·Ð¸
ĠÐ¾ÑĤÐ´Ð° ÑĤÑĮ
ĠÐ¿ÐµÑĢÐµÐ² Ð¾Ð·
ĠÐ² Ð¾Ð½
ĠÐĳ Ðµ
Ð¼Ð° Ð½Ð°
ĠÐ·Ð»Ð° ÑĤ
ĠÑĢÑĭ Ð±Ñĭ
ĠÐ²Ð¾Ð¹ ÑģÐºÐ¾
Ġ4 0
i Ðµ
Ð»Ð° Ð´Ñĭ
ĠÐ²ÐµÐ»Ð¸Ðº Ð¾Ð¼
ĠÑģÑĤÐ° Ð»Ð°
ĠÑĩÑİ Ð´Ð¾
ĠÑģÐ»ÑĥÐ¶ Ð¸ÑĤÐ¸
ĠêĻģÐµÐ¼ Ð»
ĠÐ² Ð¾ÑĢÐ¾ÑĤÐ¸
. âĢ
Ð½ ÑĸÑı
Ð¼Ð° ÑĤÑĮ
ĠÑĤÐ°ÐºÐ¾Ð²Ð° Ð³Ð¾
ÑĤ ÑĢÐ¸
ĠÐ± Ð¸Ð»
ĠÐĲ Ð²
ĠÑģÑĬ Ð±Ð¾ÑĢ
ĠÑĤÑ£ Ð¼
ĠÑĩÐµÑĢ ÑĤÐµ
ĠÑģÐµÐ´ Ð¼ÑĮ
ĠÐ¼ Ð¸Ð½Ñĥ
ĠÐ¿Ð¾ ÐµÑħÐ°Ð»
Ð¶Ðµ Ð½Ð¸Ðµ
ĠÐ¾Ñĥ Ð¿
ĠÑģÑĤÐ°ÑĢ Ð¾Ð¹
ÑĨÑĮ Ð¼ÑĮ
ĠÐ¼Ð½Ð¾Ð³Ð¾ Ðµ
ĠÐ¥ Ð¾
Ð¾Ð²Ð¸Ñĩ Ñĥ
ĠÐ²ÐµÐ»Ð¸ÐºÐ° Ñı
Ð´Ð° Ð»ÑĬ
ÐºÐ¸ ÑħÑĬ
ĠÐ ħ
ĠÑĤ ÑĢÑı
ÑĨÑ£ Ð¼ÑĬ
ĠÐĶÑĢÑĥÐ¶Ð½ÐµÐ² Ð½Ð°
Ð² Ð»Ñ§
Ñī ÐµÑĢ
Ð¾Ð³ Ð¾Ð¶Ðµ
ÑĩÐµ Ð½Ð¸Ðµ
ĠÐ³Ð¾ÑĢÐ¾Ð´ Ñĥ
ĠÑĤÐ²Ð¾ÑĢ Ð¸ÑĪÐ¸
ĠÐ´Ð¾Ð±ÑĢÑĭ Ð¼ÑĬ
ĠÐ´Ð¾ÑĢ Ð¾Ð³Ð¾
ĠÐ¿Ð¾Ð´Ð¾Ð±Ð° ÐµÑĤÑĮ
ĠÐ¿Ð¾ÐºÐ»Ð° Ð½Ñı
ĠÐºÐ¾Ð½Ñİ ÑĪ
ĠÐ¼Ð»Ð°Ð´ ÐµÐ½
ĠÐ´ ÐµÑĤÑĮ
ĠÑĩ Ð¸Ð½ÑĬ
ÑĪÐ¸ Ð¸
ĠÑ¿ Ð²Ñ£ÑīÐ°
ĠÐ²Ð¾Ð· Ð¼Ñĥ
ĠÐ²ÑģÑ§ ÐºÑĬ
ĠÐ¿ÐµÑĢÐµ êĻĹ
ĠÐ¼Ð¸ÑĤÑĢÐ¾Ð¿Ð¾Ð» Ð¸ÑĤ
Ð¾Ð¼ Ð¸Ð½Ð°
ĠÑ¥ Ð¼Ð¾Ñĥ
ĠÐ´Ñĥ ÑĪÐµ
ĠÐ¿Ð¾Ð¼Ðµ ÑģÑĤÑĮ
ĠÐ³ÑĢÐ¸Ð²ÑĮ Ð½Ñ£
ĠÐ· ÐµÐ»Ð¾
Ñ¡ Ð±ÑĢÐ°
ÑĢÐ¸ ÑĪÐ¸
ĠÐ¿Ð¾Ñģ Ð¼Ñ£
ĠÐĴ Ð¸Ð´
ĠÑģÐ»Ñĥ ÑĪÐ°
ĠÐ²Ð´ Ð²Ð¾Ðµ
ĠÐľÐ¾ÑģÐº Ð¾Ð²
Ð»Ð° ÐºÐ°
ĠÐ´Ð° Ð»ÑĮ
ĠÑĤÑ£ Ð»Ð°
ĠÐ²Ð· ÑıÑĤ
ĠÐ²ÐµÑĢ ÑħÑĥ
ĠÐ¿ÑĢÐ¾Ñģ Ð»Ð°Ð²Ð¸
ĠÐ³Ð»Ð° ÑģÑĬ
ĠÐ²Ð¾Ð»Ð¾Ð´ Ð¸Ð¼Ð¸
ĠÑģÐ²ÑıÑĤ ÑĭÑħ
ĠÑĥÑĩÐ¸Ð½Ð¸ ÑĤÑĮ
ĠÑĩÐµÐ»Ð¾Ð±Ð¸ÑĤÑĩÐ¸ ÐºÐ¸
Ð²Ð° ÑĤ
ĠÐ´Ð° Ð¼ÑĬ
ĠÐĲ ÑĢ
ĠÐĳ ÑĥÐ´Ð¸
Ð³Ð° Ñħ
ĠÐ²Ð¾Ð·Ð¼ ÐµÑĤ
ĠÐ½Ñ£ÐºÐ¾Ðµ Ð³Ð¾
ĠÑģÑĢÐµ Ð±ÑĢÐ°
Ð¼ Ð¾ÑĢ
ĠÐ¿Ð¾Ð´ Ð»Ðµ
ĠÑĩÐ¸ Ð½Ð¸
Ð° ÑĤÑĬ
Ñģ Ð²Ð¸
Ñı Ð½ÑĬ
ĠÐ¾ÑĤ Ð¿Ð¸
ÑĢÐµ Ð½Ð¸Ðµ
ĠÐ¿Ð¾Ð» Ðº
ĠÐŁ Ð¸ÑģÐ°
ÑīÐ¸ Ð¸
ĠÑĤÐ°Ðº Ð¾Ð²
ĠÐ»ÐµÑģ Ñĥ
ĠÐ¿Ð¾Ð¼ÑĭÑĪ Ð»Ñı
Ðµ ÑĪÑĬ
ĠÐ³ ÑĢÑı
Ð½Ñı Ð¼Ð¸
ÑīÐ° Ñı
ĠÑģÐ¾Ð± Ð»Ñİ
ĠÐ²Ð¿ÐµÑĢ ÐµÐ´ÑĬ
ĠÐ¸ Ð½Ð¾Ð¹
ĠÐ²Ñģ Ð¿
ĠÐĳ Ð¾Ð²Ñĥ
ĠÑĤÐ°Ðº Ð¸Ð¼
ĠÐºÐ¾ÑĤÐ¾ÑĢ ÑĥÑİ
ĠÐ»Ñ£ Ð¿
ĠÐ±Ð¾Ð» Ñ§
ĠÐµÐ´Ð¸Ð½ Ð¾Ð¼Ñĥ
ĠÐŁÐ¾ÑĤ Ð°Ð½ÑĨÑĭ
ĠÑħÐ¾Ñī ÐµÑĤ
ĠÐĶÐµÐ²Ð³ ÐµÐ½Ð¸
ĠÐ½ Ð¾ÑĢ
Ð»Ð° Ð·
ĠÐĴ ÑģÑ§
ĠÐ²Ð¸ Ð´Ñ§
ĠÐ´Ð¾Ð±ÑĢ Ð¾Ð¼ÑĬ
ĠÑĪÐ¸ ÑĢ
Ð³ Ð½Ð¸
ĠÐ¼ ÑĢ
ĠÐ½Ðµ ÑĤÑĬ
ÑĨÐ° ÑħÑĬ
ĠÐ´Ð¾Ñģ Ð¿Ñ£
Ñħ Ð¾Ñĥ
ĠÐ¿ÑĢ Ð¾Ð»Ð¸
ĠÑģÐµ Ð³Ñ¡
ĠÐ²ÐµÐ»Ð¸ ÐºÑĥ
ÑĸÐµ Ñİ
Ð¾Ð²Ð¸ ÑĤÑĮ
ĠÐ·Ð°Ð¿ Ð¸
Ð»Ñ§ ÑĤÐ¸
ÐºÑĭ Ð¸
ĠÐ¿ÑĢÑı Ð¼Ñĭ
ĠÐ¿Ð¾ÑĢÐ¾ ÑħÑĥ
Ð»Ð° Ð¼Ð¸
ĠÐµ Ñµ
ĠÐ¼Ñ£ ÑģÑĤÑĬ
Ð²Ñĭ Ñħ
ĠÎ Ļ
ĠÐ²Ð¸Ð´Ð¸ ÑĪÐ¸
ĠÑģÑĤÐ°ÑĤ ÐµÐ¹
Ðº Ð»Ð°Ð´
ÐµÐ½ ÑĸÑ§
Ð²Ð° Ñ§
Ð¾Ðº Ñĥ
ĠÐ¿Ð¾ÑĢ Ð¾Ð·
ĠÐ·Ð´ Ð°ÑĢ
ĠÐ±ÐµÑĢÐµ Ð¶Ðµ
ĠÐºÐ»ÐµÐ² ÐµÑĤ
ĠÐ¼ Ð¸Ð½
Ð»Ñİ ÑĤ
ĠÐ¾Ð½ Ð¾Ð³Ð¾
ĠÐ»ÑİÐ± Ð²Ð¸
Ñ£ Ðµ
Ñ¡ ÑĤ
ĠÐ¿ÑĢÐ¾ ÑħÐ¾Ð´
ĠÐ»Ð¸ ÑĨÐµÐ¼
Ð²Ñĭ ÑħÑĬ
ĠÐ½ÐµÐ²Ñ£ ÑĢ
ĠÐĲÐ½ ÑĤÐ¸
ĠÐºÐ¾ÑĢÐ°Ð± Ð»ÑĮ
Ð² ÑĪÐ°
ĠÑģ Ð¸Ð½
ÑĨ ÐºÐ¾Ð¼
Ð¶ Ð´Ð¸
Ñĩ Ð°Ñģ
ĠÐ·Ð°Ð¿ Ð¸ÑģÐ°
ĠÐ¿Ð¸ Ð²
ĠÑģÑĤÐ° Ð½Ñĭ
ĠÑģÐµÐ¼ ÐµÐ½Ð°
Ð±Ð¾ÑĢ Ð¾ÑĤ
Ñħ Ð°Ð»ÑĬ
Ð¾Ð¶ Ð´ÑĮ
ĠÐ´Ð²Ð¾ÑĢ ÐµÑĨ
ĠÑģÑ£ Ð¼Ð¾
ĠÑģÐ»Ð° Ð²Ñ£
ĠÐ±Ð¾ÑıÑĢ Ð¸Ð½
ĠÐºÐ¾Ñĥ Ð½Ñ£
ĠÐ±êĻĭÐ´ êĻĭ
ĠÐ½ÐµÐ´ÑĢÑĥ Ð³Ð¸
ĠÐ¼ ÐµÑĤ
ÐµÐ½ Ñİ
ÐµÐ½ ÑĸÑİ
ĠÐĺ ÑģÑĥ
ĠÑģÐ¿ Ñģ
ĠÑĨÑĮ ÑĢ
ĠÑģÐºÐ¾Ð½ ÑĩÐ°
ĠÐ´Ð° Ð¶Ð´ÑĮ
ĠÐļ Ð¾ÑĤ
ĠÐºÑĥÐ¿ Ð¸
Ð½Ð¾Ð¼ Ð¾Ñĥ
ĠÑģ Ð¸Ð¼ÑĮ
Ñı Ð½Ñĭ
Ð¿ Ð¾Ð²Ñ£
Ð»Ð¸ Ð¼ÑĬ
ĠÐ¡ Ð¾
ĠÐ²Ñ£ ÑĢêĻĭ
ĠÐľ Ð½Ð¾Ð³Ð¾
ĠÑģÑĤÐ°ÑĢ Ð¸Ð½
ÑģÑĤÑĥÐ¿ Ð°
ĠÐ´ÐµÑĢÐ¶Ð° ÑĤÑĮ
ĠÐ¸ Ð³Ñ¹
ĠÐº Ðµ
Ð´Ð¸ ÑĪÐ¸
Ð½Ð¸Ðº Ðµ
ĠÑĩÑĮ ÑģÑĤÑĮ
ĠÐ½Ð°ÑĩÐ° ÑĤÑĬ
ĠÐ¿ÑĥÑĪÐµ ÐºÑĬ
ĠÐ¸Ð¼ Ð°ÑĤ
ĠÐ¼Ð° ÑĤÑĮ
ĠÐ½ÐµÐ¿ ÑĢÐ¸
ÑģÐºÐ¾Ð¼ Ñ¹
ĠÐ¸ Ð½ÑĭÐ¹
Ð· Ð°ÑĤÐ¸
ĠÐ¿Ð¾Ð´ ÐºÐ¾Ð¿
ĠÐ´Ð¾ Ð¸
ĠÐ¿Ñĥ ÑģÑĤ
ĠÑģÐ²Ñ£ ÑĤÑĮ
ĠÐĴÐ»Ð°Ð´Ð¸ Ð¼ÐµÑĢ
ĠÐ¾ÑĤÐ¿Ñĥ ÑģÑĤ
ĠÑģÐ¼Ð¾ÑĤ ÑĢÑ§
Ð» ÐµÐ¼
Ð´ ÑĢÐ¸
ĠÐ´ ÐµÑĤÐµÐ¸
ĠÐ¿ÑĢÑ£ Ð¶Ð´Ðµ
ĠêĻ Ĩ
ĠÐ³Ð¾ÑĢ Ñĥ
ĠÑģÐ²Ñ£ ÑĤÐ¸
ĠÐ´ÐµÐ½Ðµ Ð³ÑĬ
Ð² Ð¸ÑĤÐ¸
ÑĪ Ñĭ
ÑĦ ÑĮ
ĠÑģÐ¿ ÑĢÐ°Ð²
ĠÐ¼ÑĬ Ð½Ð¾Ð³
ĠÐ±Ð°ÑĤ ÑİÑĪÐºÐ°
ĠÐ³ÑĢÐ¸Ð³Ð¾ÑĢÑĮ ÐµÐ²
Ð² Ð¾Ð¹
ĠÑģÑĤ Ð°Ð»Ð¾
Ð¾ÑĤ Ð¾Ñİ
ĠÐ³ÑĢÐ¸Ð² Ð½Ñĭ
Ð¸ÑĤÐµÐ» Ñİ
Ð² Ñĸ
Ñĥ ÑĢ
Ð¶ Ð¸ÑĤÑĬ
ĠÐ±Ð¾ êĻĹ
Ð½Ñ£ ÑħÑĬ
ĠÑĤÐ°Ðº Ð¸Ðµ
ĠêĻĭ ÑĩÐ¸Ð½Ð¸
ĠÐ½Ð°Ð¿ÑĢÐ°Ð² Ð»ÐµÐ½
ĠÐ°Ð± ÑĸÐµ
ĠÐ¾ÑĤ ÐµÑĩÐµ
ĠÐľ Ð¸
ĠÑĤÐ²Ð¾Ðµ Ñı
ĠÑģÐµÐ¼ Ð¸
ĠÐ½ÐµÐ±ÐµÑģ Ð¸
ĠÐ¸Ð·Ñ§ ÑģÐ»Ð°Ð²
ĠÐ½ÐµÐ¿ÑĢÐ°Ð² ÐµÐ´
ĠÐ¿ÑĢÐ¸ Ð¿Ð°
ĠÐ¿ÑĢÐ¸ ÐµÑħÐ°Ð»Ð¸
ĠÐ²Ð¾ Ðµ
ĠÐ²Ñĭ ÑģÐ»Ñĥ
ĠÑģÑ¹ ÑĤÑĮ
ĠÐ¼Ð» ÑĤ
ĠÐ¸ Ð´Ñ£Ð¶Ðµ
ÑģÑĤ Ð°Ð»ÑĬ
ĠÐ¼ Ð¾Ñģ
Ð¶ Ð´Ñĥ
ÐºÐ¾ Ñģ
ĠÑĢÑı Ð´
ĠÐºÐ¾ÑĤÐ¾ÑĢÑĭ ÑħÑĬ
ĠÑĩÐ»Ð¾Ð²Ñ£ ÑĩÑĮ
ĠÐ³Ð¾ÑĤ Ð¾Ð²
Ð½Ðµ Ð³Ð¾
ĠÑģÐµÐ» Ðµ
ĠÑĩÐµÑĤÐ²ÐµÑĢ ÑĤÐµÐ¹
ĠÐ´ÐµÑģÑı ÑĤÐ¸
ĠÐ¿ÑĢÐ¾Ð¼Ñĭ ÑĪ
ĠÐ²ÐµÐ»Ð¸ÑĩÐµ ÑģÑĤÐ²Ð°
Ñ£ ÑĤÐµ
ĠÐ´ Ð²Ð¾
ĠÑĢ êĻĳ
Ð¾Ð´ Ðµ
ĠÐ¿ÑĢÐ¸ Ð±Ñ£
Ñ« Ñ§
ĠÐ¼Ð¸ ÐºÐ¸ÑĦÐ¾ÑĢ
ĠÐ»ÑİÐ´Ð¸ Ðµ
ĠÑħÑĢÐ¸ÑģÑĤ Ð¾ÑģÑĬ
ĠÐĴÐ»Ð°Ð´Ð¸Ð¼Ð¸ ÑĢÑĬ
Ð¶ êĻĭ
ĠÐ¿Ð¾Ð» ÑĤÐ¸Ð½Ð°
ĠÑģÐ° Ð¿
ĠÑģÐº ÑĢÑĭ
ĠÐ½ÐµÐ¼ Ð¶Ðµ
ĠÐ¸Ð¼Ð° Ð¼ÑĬ
ĠÐ½Ð°ÑĢÐµ ÑĩÐµ
ĠÐ½Ð°ÑĢÑı Ð´Ñĥ
ĠÑģ Ð¿Ð¾Ð´Ð¾Ð±
ĠÐ¿ Ñ§ÑĤÐ¸
ĠÐº Ð¾Ð»ÑĮ
ĠÐ¼ Ð°ÑĢÐ¸
ĠÑĢ Ð¾Ð´Ð°
ĠÐ²Ñģ ÐµÐ´
ĠÐ·Ð° Ð²
ĠÐļ ÑĢÐ°
ÐºÑĮ Ñĸ
ĠÐ´ Ñ¹
ÑĢÐ¸ Ñİ
ÑĩÐ° Ð¹
Ñ§ÑĤ ÑģÑ§
ĠÐ¿Ð¾Ð¸ Ð´Ð¾ÑĪÐ°
Ñĩ Ð¸Ð»ÑĬ
ÐµÑĢ Ð²Ð°
Ð»Ñı Ñħ
ĠÐ´Ñ£ ÑĤÑĮ
Ð¾Ð²Ð¾ Ðµ
ĠÐ²ÑĮ Ð·
ĠÐ±êĻĳ Ð»Ð¾
ÐºÑ¹ Ñİ
Ð²ÑĢÐ° ÑīÐ°
ÑĢ Ð³
ÑģÐº ÑĸÑ§
ĠÐ¶Ðµ Ð¼
ĠÐ±Ð¾ Ð¸
ĠÐļ Ð°Ð»Ð¸
ĠÐ³Ð»Ð°Ð³Ð¾Ð» Ñİ
ÑĢÑĸ Ð°ÑĢ
ĠÐ· Ð²ÐµÑĢ
ÑĪÐ¸ ÑĪÐ¸
ĠÐ¡Ð¸ ÑĨÐµ
ĠÐ²Ñ£Ð´ Ð¾Ð¼Ð¾
Ð² Ñ¡
ĠÐ¼ Ð°Ð¼
ÑĤÑĮ ÐµÐ²
Ñ¡ Ð±
ĠÑĪ ÑĤ
ĠÐľ Ð½Ð¾Ð³
ĠÐ¼Ð½Ð¾Ð³ Ð¸ÑħÑĬ
ĠÐ²ÐµÐ»Ð¸ÐºÐ¸ Ñħ
ĠÑħÐ¾Ñī ÐµÑĤÑĮ
ĠÑĢÐ°Ð·Ð´Ñ£ Ð»Ð¸
ĠÑħ êĻĭ
ĠÐ½Ð¸Ñħ Ð¶Ðµ
Ð²Ð°Ð½ Ð³
ĠÑĤÐ² Ð°ÑĢÐ¸
ÑĤ Ð°ÑĢ
Ð» ÐµÐ¼ÑĬ
Ð¼ ÐµÐ½ÑĬ
Ðº Ð¾Ð±
Ð°Ð½ ÑĸÐ°
ĠÑģÑĬ Ð±ÑĢÐ°
ĠÐ±ÐµÐ· ÑĥÐ¼
ĠÐ²Ð· ÐµÐ¼ÑĬ
ĠÐºÑĥÐ¿ Ð»ÐµÐ½
ĠÐ£ ÐºÐ°Ð·ÑĬ
---- ----
ĠÐ´ Ð¾Ð»Ð¸
ĠÐ³ Ð½Ðµ
ÑĢÐ° Ð¼
ĠÐ¿ÑĢÐ¸ ÐµÐ·
Ð½Ðµ ÑĨÑĮ
ĠÐ¿Ð¾ÑģÐ»Ð° Ð»Ð¸
ĠÐ»ÑİÐ± Ð¾Ð²Ð¸Ñİ
ĠÑ¡Ð± Ð»Ð°
ÑĩÐµÐ½ Ñ£
ĠÑĩÐµÑĤÐ²ÐµÑĢ ÑĤ
ĠÑħÑĢÐ¸ ÑģÑĤÐµ
ĠÑĨÐµÐ» Ð¾Ð²
ĠÐ½Ð°Ðº ÑĢÐµÐ¿
ĠÐ¿Ð¸ÑĪ ÐµÑĤ
ĠÐ¿ÑĭÑĤ ÐºÐ¸
ĠÐ½Ð°ÐºÑĢÐµÐ¿ ÐºÐ¾
ĠÑģ ÑħÐ¾Ð´
Ñĩ Ð½ÑĭÐ¼
ĠÐ²Ñ£ ÑĢÑ£
ĠÐ²ÑĮ êĻģ
ĠÐ¿Ñĥ ÑģÑĤÑĭ
ĠÐ±ÐµÐ· Ñģ
ĠÐ±ÐµÐ· Ñĥ
ĠÐ¸ÑģÐ¿ ÑĭÑĤÐ°
ĠÑģÑĤÐ¾ÑĢ Ð¾Ð½Ñ£
ĠÐ² Ð°Ð»
ĠÐ¿Ð¾ÑĢ ÑĥÑĤÑĩÐ¸
ĠÐ²Ðµ ÑīÑĮ
ĠÐ¼Ð¾Ð¶Ðµ ÑĪÐ¸
ĠÐ½Ð¸ÐºÐ° ÐºÐ¾Ð¶Ðµ
ĠÐ¾ Ð»Ðµ
ĠÐ¿ÑĢÐ¸ ÑĩÐ°
ĠÑ¡ Ð²Ð¾
ĠÑĢÑ£ Ð·
ĠÑħÐ¾Ñī ÐµÑĤÑĬ
Ð² Ð¸Ð½
Ñĩ Ð°Ð»ÑĬ
ĠÐĳÐ¾Ð³ Ð¾ÑĢÐ¾Ð´Ð¸
ĠÐºÑĢÐµÐ¿ Ð¾ÑģÑĤÐ¸
Ðº Ñĸ
ĠÐ´ ÑĪÐ°
ĠÐ¿Ð¾ Ð¸Ð´
ĠÐ¿ÑĢÐ¾Ð¼ Ðµ
Ð± ÑĶ
ĠÐ²ÑĬ ÑģÑĤÐ°
ĠÑ¡ Ð¶Ðµ
Ð½Ñı Ð°Ð³Ð¾
ĠÐ¿ÐµÑĢ Ð²Ð°Ð³Ð¾
ĠÐ»ÑİÐ± Ð¾Ð²
ĠÑĤÑĬ ÐºÐ¼Ð¾
ĠÐ¿Ð¾ÑģÐ» ÐµÐ´
ĠÐ±Ñ¹ Ð´Ð¸
Ð¼ Ñ«
ÑģÑĤ Ñĸ
ĠÑĢ Ð¾Ð¶ÑĮ
ĠÐ¿Ð¾ÑĤ Ð¾Ð¿
ĠÑĢÐ¾Ñģ Ð¿ÑĢÐ¾Ñģ
ÑģÐºÐ¾ÑĢ Ñ£
ĠÐ±Ñ¹Ð´ ÐµÑĤÑĬ
ĠÐºÐ½Ð¸Ð³ Ð°Ð¼
ĠÑĩÐµÑĢÐ½Ð¸ Ð³
ÑģÐº êĻĳÐ¸
ĠÐ¶Ðµ ÑģÑĤÐ¾Ðº
ĠÐ¿Ð¾Ð´ Ð»Ñ£
Ð»Ð¾ ÑģÑĤÐ¸
ĠÐ´Ñ£ Ð»Ñĭ
ĠÑĪ ÐµÐ´ÑĬ
Ð¶Ð° ÑĪÐµ
ĠÐ³ÑĢÐ°Ð´ Ð¾Ð¼ÑĬ
ĠÐ¿ÑĢÑĸ ÐµÐ¼
ĠÑ³ÐµÐ´Ð¾ÑĢ Ð¾Ð²Ð¸ÑĩÑİ
Ð³ Ð»Ðµ
ĠÐ¿Ð¾ ÑĨ
ĠÐ½Ñ£ ÐºÐ¾ÑĤÐ¾ÑĢ
Ñ³ ÑĮ
ÐµÐ²Ñĭ Ñħ
ĠÑĤÑĢÐµ Ñħ
ĠÐ²Ð·Ñı Ð»Ð¸
ĠÐ¿ÐµÑĢÐµêĻĹ ÑģÐ»Ð°Ð²
ÑĤ Ð²ÐµÑĢ
ĠÐ¿ÑĢÐ¾ ÑĪÑĥ
ĠÐ¿Ð¾Ð½ Ð¾
ĠÐ³ÑĢÐ¸Ð² ÐµÐ½
ĠÐ¼Ð¾Ð½Ð°ÑģÑĤÑĭ ÑĢÐµ
ĠÐ§ Ñı
ÑĪÐº Ñ£
ĠÐ´Ð¾Ð¼Ð° ÑĪ
ĠÑģÑĬÐ± Ð»Ñİ
ĠÐ¾ ÐºÐ¾
ĠÐ¿Ð¾ ÑĤÑĬ
Ð¾Ð± Ðµ
Ð¾Ñģ Ð°
ÑĨÐ° Ð¼Ð¸
Ð³Ð¾ÑĢ Ñ£
ĠÑģÑĤÐ¾ÑĢ Ð¾Ð¶Ð¸
ĠÑģÐ¾Ð²Ñ£ ÑĤ
ĠÐ²ÑģÐºÐ¾ÑĢ Ðµ
ĠÐºÐ½ÑıÐ³ Ð¸Ð½
Ñİ ÑģÑı
ĠÐ½Ð° Ð¼Ð¾
ĠÐ½Ðµ Ð´Ñĥ
ĠÑĦ ÑĢÐ°Ð³Ð¼ÐµÐ½
ĠÐ¿Ð¾Ð³ Ð°Ð½
ĠÐ¿ÑĢÐ¸ÐºÐ°Ð· ÑĬ
ĠÑĦÐµÐ´Ð¾ÑĢ Ñĥ
ĠÑģÐ²ÑıÑĤ Ð¾Ð³Ð¾
ĠÑĥÑĤ Ð²ÐµÑĢ
ĠÐ³Ð»Ñĥ Ð±
Ð½ ÑĨ
Ð´ Ð½Ð°
ĠÐ¿Ð¾Ð¼ ÑıÐ½Ð¸
ĠÐ¿Ð¾Ðº Ð¾
ĠÑĤÐ²Ð¾ÑĢ Ð¸ÑĤ
ĠÐ¶Ð¸Ð² ÑĥÑĤ
ĠÑĤÐ¸Ð¼Ð¾ Ñ³
ĠÐľÐ°ÑĢ ÑĪÐ°Ð»
ĠÑĢ Ð¾Ð¶Ð¸
ĠÑģÑĤ Ð³Ð¾
ĠÐ¿ÑĢÐ¸ Ð²ÐµÑģÑĤÐ¸
ÐºÐ¸ Ð¼Ð¸
ĠÐ¿ÑĢÐ¾ ÑĩÐ°
ĠÐŀ Ð±Ð¾ÑĢÐ¾ÑĤ
Ð´Ñĭ ÑħÐ°
ĠÑģÐ¼ Ðµ
ĠÐ±ÑĮ ÑĢÐºÐ¾Ð²ÑĮ
ĠÑģÐµÐ»Ð¸ ÑĤ
ĠÐŁÐ¾Ðº Ð°Ð·ÑĥÐµÑĤÑĬ
ĠÐ±ÐµÐ·Ð· Ð°ÐºÐ¾Ð½
Ġ {
ĠÐ¿ÑĢÐ¸ ÐµÑħÐ°Ð»
ĠÐ´Ð¾Ð± ÑĢÑĬ
ĠÐ±Ð»Ð°Ð³Ð¾ ÑĩÐµÑģÑĤÐ¸
ĠÐ¿Ð¾Ð»Ð¾Ð¶ Ð¸ÑĤÐ¸
Ðº Ð¾Ð²Ð¸
Ñı Ð½Ñĥ
Ð½Ð° Ð¼ÑĬ
ĠÐ¿Ð¾Ð¸ Ð´Ð¸
ĠÐ²Ð»Ð°ÑģÑĤ ÐµÐ»Ð¸
ĠÐ° ÐºÐ¾
êĻĹ ÐºÐ¾
ĠÐ´Ð²Ð° ÑĤÑĨÐ°ÑĤÑĮ
ÑĪÑĤÐ¸ Ð¸ÑħÑĬ
ĠÐ¼Ð¸Ð»Ð¾ÑģÑĤÐ¸ Ñİ
ĠÐ±Ð»Ð°Ð³Ð¾Ð´ Ð°ÑĢ
ĠÐº Ð¸Ñģ
ĠÐ»Ñ£ Ð¿Ð¾
ĠÐ¿Ð¸ÑģÐ° ÑĤÑĮ
Ð³ÑĢÐ° Ð´
ĠÐ½Ð¾Ð²Ñ£ Ð³Ð¾ÑĢÐ¾Ð´Ñ£
ĠÐ·Ð° Ð¼Ñĥ
Ð¶Ð¸ Ð¼ÑĬ
ĠÐ¿Ð¾Ð² ÐµÐ»Ðµ
ĠÐºÐ½Ð¸ Ð¶
ĠÐºÐ¸ ÑĢÐ¸Ð»
ĠÐ½Ð°Ð¿Ð¸ÑģÐ° Ð½Ñĭ
ĠÑĤÑĭÑģÑı Ñĩ
ĠÐ¡Ð² Ñı
Ñı Ð»Ð¸
Ð»Ð° Ñħ
Ð½Ð¾ Ñ¥
ĠÑ¡ ÑģÑĤÐ°
ĠÐ¶ Ð¾Ð½
ĠÐľ ÑĬ
ĠÐ¿ÐµÑĢ ÑĮ
ĠÐ¿Ð»Ð° ÑĤÐµ
Ġ1 8
ĠÑĢÑ£ ÐºÐ¸
ĠÐ³ÑģÐ´ ÑĢÑı
ĠÑģÐµÐ» Ñĥ
Ð° Ð¸
Ñı Ð¼Ð¸
ĠÐ½Ð° Ð²Ñĭ
Ð´Ð° Ð½ÑĬ
ĠÐ²ÑĬÐ· ÑĮÐ¼Ð¸
ĠÑģÑĤÑĢÐ° ÑħÐ°
ĠÐ¿Ð¾ÑģÐ»Ð° Ð½Ð°
ĠÑĢÐ¸ Ð·Ñ£
ĠÐ¶Ð¸ÑĤÐ¸ Ñı
ĠÑģÐ¾ÑĢ Ð¾ÐºÑĬ
ĠÐ² Ð½ÑĥÑĤ
ĠÐ° Ñģ
ĠÑģÐº Ð¾Ð»ÑĮ
Ð¿ÑĢÐ° Ð²Ð¸
ĠÐ¿ÑĢÐ¸Ð¸Ð¼ ÐµÑĤÑĮ
Ñĩ ÐºÑĥ
Ð²Ð° Ñİ
Ð°Ð» ÑģÑı
Ð±Ð¸ ÑĤÑĮ
ĠÐ¼Ñĥ Ð¶Ñĥ
ĠÐ´ÐµÑĤÑĮ Ð¼Ð¸
ĠÐ½Ðµ Ð³
ÐºÐ¸ Ðµ
ÐºÐ¸ Ñı
Ð¾Ð²Ð° Ð»Ð¸
ÑĨÐ° Ð¼ÑĬ
ĠÐ¾Ñģ Ð¿Ð¾Ð´
ĠÐ¾Ð±ÑĢÐ° Ð·ÑĬ
ĠÐ½Ð¸Ð± ÑĥÐ´ÑĮ
ĠÑĤ Ñī
ĠÑģÐ» ÑĬ
Ñ³ Ð¸Ð¼
ÑģÐºÐ¾Ð¼ êĻĭ
ĠÑĪÐµ ÑģÑĤ
ĠÐ²Ð´ Ð¾Ð²Ð°
Ñĸ ÑĶ
ÑģÐº Ð¾Ñĥ
ĠÐ´Ð° Ð½Ð°
ĠÑĦ Ð¸Ð»Ð¾Ñģ
ĠÑ¹ Ð±
ĠÐ·Ð°Ð¿ Ð°
ĠÐ´Ð¾Ð±ÑĢ Ð¾Ð¹
Ðº ÑĤÐ°
Ð³ ÑĢÐ¸
ĠÐ» Ð¾Ð¶
ĠÐľ Ð¾Ð»
ĠÐ²Ð¾ÐµÐ²Ð¾Ð´ Ð°Ð¼
ĠÐ¿Ð¾Ð» Ñ¹
ĠÐ¶Ð°Ð» Ð¾Ð²Ð°Ð½
ĠÐ¾Ð³Ð½ÐµÐ½ Ð½ÑĭÑħÑĬ
ĠÑĤÐ¾Ñĥ ÑĢ
ĠÑģÑģÑĭ Ð»
Ð» ÐµÑĤÑĬ
ĠÐ½Ð° ÑĢÑ§
ĠÐ¿Ð¾ Ñı
ĠÐ· Ñĥ
ÑĢÐ¾Ñģ Ð»Ð°Ð²Ð°
ĠÐºÐ½Ð¸ Ð³Ñĭ
ĠÐ½Ð°Ñĩ ÐµÑĢ
ĠÐ±Ð¾Ð³Ð°ÑĤÑĮ ÑģÑĤÐ²Ð¾
Ð» êĻĳ
ĠÐ¾ ÑĦÐ¾Ð½Ð°Ñģ
ĠÑĢÐ° Ð½Ð¾
ĠÑģÑĬ ÑģÑĤÐ°Ð²
Ð³Ð° Ð¼Ð¸
ĠÑ§ ÐºÐ¾
Ñµ ÑĢ
ĠÑĢÐµÑĩ ÐºÐµ
ĠÐ·Ð°Ð¿Ð¸Ñģ ÑĮ
ĠÐ² Ð»ÑĬ
ÑģÑĤ Ð¾Ñĥ
ĠÐµ ÑģÑĮ
ĠÐ¾ÑĤ ÑĩÐ¸Ð½Ñĥ
ĠÐ¡ Ñ£
ĠÐ±Ð» Ð³Ð¾Ð´
ĠÐºÐ¾Ñĥ Ð¿
ĠÐ¿ÑĢÐ¸Ð²ÐµÐ´ Ðµ
ĠÑĤ ÑĢÐ°Ð²
Ð¶ Ñ«
ÑĸÐ¸ Ð¼ÑĬ
ĠÐ²ÐµÐ» ÐµÐ»ÑĬ
ÑģÐ»Ð° Ð±
ÑŃ ÑĤÑĬ
ĠÐ³ÐµÐ½ Ð²
ĠÐĴÐ»Ð°Ð´Ð¸Ð¼ÐµÑĢ Ñĥ
ĠÐº Ñ£
ĠÐ½Ðµ Ð³Ñ¡
Ð¶ Ð°ÑĤ
ĠÐ¿ÑĢÐ¸ Ð¿
ĠÐ¼Ð¾ Ð¸Ð¼
ĠÑĨÐ°ÑĢ ÐµÐ²Ð¸
Ð´Ð¾ ÑģÑĤÐ°
ÑĨÑ£ Ð½
ĠÐ»ÑİÐ± ÐµÐ·
ĠÐ´Ð¾Ð±ÑĢÑĭ ÑħÑĬ
ĠÑĥÐ± Ð¾Ð¹
ĠÐºÐ°Ð±Ð°Ð» Ñĥ
ĠÐ¿Ð¾Ð´Ð»Ð¸Ð½ Ð½Ð¾
Ñī ÐµÐ¼
ĠÐ¶Ðµ Ð»ÐµÐ·
ÑĪÐµ Ð¹
ĠÐ²ÐµÐ»Ð¸ ÑĨÑ£
ĠÐ¼Ð¸ ÑĢÑ£
ĠÐ±êĻĳ ÑĤÐ¸
ĠÐ¿Ð°Ð² Ð»Ð¾Ð²
ĠÐ¾Ð³Ð½ÐµÐ½ Ð½ÑĭÑı
ĠÐĵÐ¾ÑģÑĥÐ´Ð°ÑĢ Ñİ
ĠÐ¿Ð¾ÑģÑĭ Ð»Ð°ÑĤÐ¸
Ð´ Ð±
ĠÑģÐ²Ð¾ ÑĶ
ĠÐ²Ñĭ ÐºÑĥ
ĠÐ²ÑģÐµ Ð¹
ĠÑģÑĤÐ°ÑĢ Ð¸
ĠÐ½Ð¾Ð²Ð³Ð¾ÑĢÐ¾Ð´ÑĮ ÑĨÐ¸
ĠÑķÑ£ Ð»Ñ¡
Ð¾Ðº ÑĥÐ¿
ĠÐ´ÐµÑĢÐµÐ² Ð½ÐµÑİ
ĠÐºÑĥ Ð½Ñĭ
ĠÐ¸ Ð´ÐµÑĤÑĮ
Ð½Ð¸ ÑĨÑĮ
ĠÑģÑĤ ÑĢÑı
ĠÑħ Ð¼
ĠÐ¾Ñĥ Ñģ
Ñ¥ Ð¼ÑĮ
ĠÐ¿Ð¸ ÑĢÑĬ
ĠÐ¸ÑģÐ¿ ÑĢÐ°Ð²Ð¸
ĠÑĩÐµÐ»Ð¾Ð²Ñ£ ÐºÐ¾Ð¼ÑĬ
ĠÑģÑĤÐ°Ð½ ÐµÑĤÑĬ
ĠÐ½Ð°ÐºÐ°Ð· Ð°
ĠÐ¸ Ð³ÑĢÐ°
ĠÑģÐ²Ð¾ Ð°
ĠÐ¡ ÐµÑĢ
ĠÐ¼Ð¸ ÑĢÑĮ
Ð±Ð° Ð¼Ð¸
ĠÐ»Ðµ Ð¾Ð½
ĠÐ¿Ð¾Ñĩ ÑĤÐ¾
ĠÐ¸Ð´Ðµ ÑĪÐ¸
ĠÐ¼ÐµÐ´ Ñĥ
ĠÐ¿ÑĢ ÑĹ
ĠÐ» Ð°ÑĢÐ¸
ĠÑĥ ÑĪÐ¸
ĠÐ´Ð¾ ÑħÐ¾Ð´
Ð´Ñĭ Ð¸
ĠÐ¿Ð¾Ð² ÐµÑĢ
ĠÐ½Ð¾Ð²Ð° Ð³Ð¾ÑĢÐ¾Ð´Ð°
ĠÐºÐ¾Ð½ Ñ§
ĠÑĢÐ°Ð´Ð¾ ÑģÑĤ
Ð´ Ñ¡
ĠÐ´ÑĢÑĥ Ð³Ð¾Ðµ
ĠÐ¼Ð½Ð¾Ð³ Ð¾Ð»Ñ£
ĠÐ½Ð°Ñģ Ð¸Ð»ÑĮ
ĠÑģÐ»ÑĭÑĪÐ° ÑĤÐ¸
ÑģÑĤÐ²Ð¸ Ñı
ĠÐ·Ð´Ð¾ÑĢ Ð¾Ð²Ð¾
ĠÑ¡ Ð»ÑĮ
ĠÑı ÑģÑĤÐ¸
ĠÑģÐ² ÑıÑĤÐ¸
ĠÐ¿ÐµÑĢ ÐµÑģÐ»Ð°Ð²
ĠÐ¼Ñ£ ÑĢÑ£
ĠÑģÑĤÐ¾ êĻĹ
ĠÑħÐ¾Ð» Ñ¡
ĠÐ±Ñĥ Ð»Ð°ÑĤ
ĠÐ¼Ñ£ÑģÑĤÑ£ ÑħÑĬ
ĠÐ²ÑģÑ§ÐºÐ¸ Ñħ
Ġ ;
Ñģ Ñĸ
Ð² ÐºÐ°
Ð² êĻ¿
ĠÐº ÑĥÐ´
Ð»Ð¸ Ð¸
ĠÐ´Ð° ÑĤ
ĠÐ¿ÑĢÐ°Ð² ÑĥÑİ
ĠÐ³Ð¾ÑĢ ÑĮ
Ð½ÐµÑģ Ðµ
ĠÐ²Ð°ÑĢ Ñ§
ĠÑĤ ÑĢÑ£Ð±
Ð´Ðµ Ñģ
Ð»Ðµ Ð¸
ĠÐ¾Ð± Ð¸ÑĤÐµÐ»Ð¸
ĠÐ¿Ð¾Ð¼ Ð¾Ð»Ð¸
ĠÑģÐºÐ°Ð· Ð°Ð»ÑĬ
ĠÑĤÑĢÐµ Ð³ÑĢÐ°
ĠÐ´Ð¾Ñģ Ð°
ĠÐ¾Ð±ÑĬÑıÐ² Ð»ÐµÐ½Ð¾
ÑĪ ÐºÐµ
ĠÐ» ÐµÐ´
ĠÑģÑĤ Ð¾Ð¸
ĠÐ¿ÑĢÐ¸ Ð»Ð¾Ð¶Ð¸
ĠÐ±Ñĭ Ð²ÑĪÐ¸
ĠÑģÐ°Ð¼ ÑĮ
ĠÑĤÐ²Ð¾ÑĢ Ñı
ĠÑĩÑİ Ð¶Ðµ
ÑİÑīÐ¸ Ð¼ÑĬ
ĠÐ¸Ð½Ñ£ ÑħÑĬ
ĠÐ¿Ð°ÐºÐ¾ ÑģÑĤÐ¸
Ð¿ Ð¾Ñĥ
ĠÐ¿ÑĢÐ¸ Ð´Ð°
ĠÑĪ ÑĤÐ¸
ĠÑģÐ¿ ÑĢÐ¾Ñģ
ĠÐ»ÑİÐ´ ÑĸÐ¸
ĠÑĩÐµÑĢ ÑĤÑĥ
ĠÑ³ ÐµÐ´
ĠÐ±Ñ¹Ð´ ÐµÑĤ
ÐºÐ»Ð¾Ð½ Ð¸
Ð¾Ð´ Ñĭ
Ñī ÐµÐ½Ñĭ
ÑĩÐ° Ñİ
ĠÐ±Ð¾Ñı ÑĢÑĭ
ĠÑģÐ»ÑĥÐ¶ Ð±Ðµ
ĠÑģÐ½Ð° ÑģÑĤÑĮ
ĠÐ´Ð¾Ñĩ ÐµÑĢÐ¸
Ñģ Ñ«
Ð» ÑĸÐ°
ĠÐ¾ Ð´Ð¸Ð½ÑĬ
ĠÐ° Ð±Ð¸Ðµ
ĠÐ¿ÑĢÐ¸ Ð¸Ð¼Ð¸
ĠÑĢÐ° Ð´Ñĥ
ÑĩÐµ Ð²Ð¾
ĠÑģÐºÐ¾ÑĢ Ð±
ĠÐ½Ð°ÑģÐ»Ñ£ Ð´
ĠÐ± Ð¸ÑĤÑĮ
ÑĪÑĤÐ¸ Ð¸
ĠÐ³Ð°Ð² ÑĢÐ¸Ð»
Ġ +
ĠÑĤ Ð°Ð²
ĠÐ¾ Ð´Ñ£
ĠÐ¾ ÑĥÐ´Ð°ÑĢ
ĠÐºÐ°Ðº Ð¾Ð¹
ÑĤÐ²Ð¾ÑĢ Ð¸
ĠÐ¸Ð¼Ñ£ ÐµÑĤÑĬ
ĠÐ¿ÐµÑĤ ÑĢÐ¾Ð²
ĠÐ²ÑģÑıÐºÐ¸ Ñı
ĠÐ·Ð°Ð¿Ð°Ñģ ÑĬ
ĠÑĥÐºÐ° Ð¶ÐµÑĤ
Ð½Ð¸ Ñ§
ÐºÐ¾ ÑĥÐ¿
ĠÐ¿ÑĢÐ¸ ÑģÐ»Ð¸
ĠÑĨ Ð¾Ð»
ĠÐ´Ð²Ð¾ÑĢ Ñ£
ĠÐ¿Ð»Ð° ÑĤÐ¸ÑĤÑĮ
ĠÑģÑĤÐµ Ð¿Ð°Ð½Ð°
ĠÐ´Ð¾ÑģÑĤ Ð¾Ð¹
ÑĤ Ð¾Ð»
Ð» Ñ«
ĠÑĤ Ð°ÑĤÐ¸
ĠÐ¼ Ð¾Ð³Ð¾
Ñĩ Ð½ÑĭÐµ
Ð´Ð° Ð»Ðµ
ĠÐ²ÐµÐ» ÑĮÐ¼
ĠÑĩÐµÐ»Ð¾Ð²Ñ£ ÐºÑĥ
ĠÐ¿Ð°ÑĤÑĢÐ¸Ð°ÑĢ ÑħÐ°
ĠÑģÐ½Ð° ÑģÑĤÐ¸
ÑĢ ÐºÐ°
ĠÑģÑĬ Ð´Ñ£
ĠÐ¿Ð»Ð° ÑĩÑĮ
ĠÐ¼Ð½Ð¾Ð³ Ð¸Ñı
ĠÐ¾Ðº Ð¾Ð»ÑĮ
ĠÐ¶ÐµÐ½Ð° Ð¼
ĠÐ±ÑĢÐ°ÑĤÑĮ Ð¸
ĠÐ¶Ð¸Ð² êĻĭ
ĠÑģÐµÐ¼ÐµÐ½ Ð¾Ð²
ĠÑħÐ¾ÑĢÐ¾ ÑĪÐ¾
Ñģ Ð¾Ð¶Ðµ
Ð¾ÑĢ Ð¾ÑĤ
ĠÐĺ ÑģÐ¿
ĠÐ¾Ñĥ Ð³Ð¾Ð´
ĠÐļ Ð°Ð½
Ð³Ð° Ð¹
ĠÑģÑĥÐ´ ÑĮÑı
ĠÐ½Ð¸Ðº Ð¾Ð³Ð¾
ĠÑģÑĬÑģ â¸¯
Ñģ ÑħÐ¾Ð´
ĠÐ± Ð¶ÑĮ
Ð½Ð° ÑĤÐ¸
ĠÑĥ Ð¼Ñ£
Ð´Ðµ Ð¹
ĠÐ¿Ð¾Ðº Ð¾Ð¸
ĠÐ²Ð° ÑĪÐ¸ÑħÑĬ
ĠÐ¸ÑģÐºÑĥ Ñģ
ĠÑģ Ð°ÑĢ
Ð· Ð´Ñĭ
ĠÐ¿Ð¾Ñģ Ð»Ð¸
ĠÐ½Ð°Ð¿ Ñĥ
ĠÑģÑĤÑĢÑ£ Ð»
ĠÐ¿Ð¾ÑģÑĤ ÑĢÐ¸
ĠÐ¿Ð»Ð¾ ÑĤÐ¸
ĠÐºÐ¾ÑģÑĤ ÑĢÐ¾Ð¼
ĠÐ´Ð¾ÑģÑĤÐ° ÑĤÐ¾
Ð»Ðµ Ð½Ð¸Ð¸
ĠÐ¿ÑĢÐ¾Ð¼Ñĭ ÑģÐ»
ĠÐ¾Ð±Ð¸ Ð´Ñĥ
ĠÐ¼ÑĨ ÑģÐ°
Ðº ÑĢÐµ
ĠÐ¿ÑĢ ÐµÑĤ
ÐµÑĢ Ñı
ĠÐ¾Ð± ÑĢÐ°ÑĤÐ¸
Ð¾Ð´Ð° ÑĤÑĮ
ĠÐ¿Ð¸ ÑĪÐµ
ĠÑģÐ°Ð¼ Ð¾Ð¼Ñ¹
ĠÐĴÐ°Ñģ Ð¸Ð»Ð¸
ĠÐºÐ½Ð¸Ð³Ð° Ñħ
ÑĢ ÐµÐ½Ñĭ
Ð² ÐµÐ½Ð¸
Ð¼ Ð°ÑĤÐ¸
ĠÐº Ð¾Ð±
Ð¶ Ð¸Ð¼
Ð¾Ð½ Ð¾Ð²
ÐºÐ¸ Ñħ
Ð±Ð¸ Ð¸
ĠÐ²Ð¾Ð» Ð¾
ĠÐ¿Ð¾Ð½ Ðµ
ĠÐ¿Ð°Ð² Ð»Ð°
ÑĢ Ð¼Ð¸
ĠÐ¾ÑĤ ÑĨÐ¾Ð²
ĠÑĤÑĢ ÑĥÐ´
ĠÑģÐµÑĢ Ð³
ĠÐ²ÑĢÐµÐ¼ ÐµÐ½Ð°
ĠÑĢêĻĭ ÑĨÑ£
ĠÐļÐ¸ ÐµÐ²Ð°
Ð¾Ð± ÑĢÐ°Ð·
Ð¾Ð²Ð° Ñı
ĠÐ²Ñ£ Ñģ
ĠÐĳ Ð¾Ñı
ĠÑĪ Ñİ
ĠÐ¿Ð¾Ð¿ Ñĥ
ĠÐ³Ð»Ð° Ð²Ñ£
Ð³Ð½Ñ£ Ð²Ð°
Ð° Ð»Ð°
ĠÑ¡ Ð»
ĠÐ¿Ð¾Ð» Ð¾ÑĤ
ĠÐµÑģÑĤÑĮ Ð»Ð¸
ĠÐĲÐ»ÐµÐºÑģÐ°Ð½Ð´ ÑĢ
ĠÐ¶Ð°Ð» Ð¾Ð²Ð°Ð»
ĠÐ¿ÑĥÑĪÐº Ð°ÑĢÑı
.âĢ ł
ĠÐ¸ Ð½ÑĭÐ¼ÑĬ
ĠÐ² ÑģÑĤÑĢÑ£
Ñĩ Ð½
ĠÐ½Ð° Ð»Ðµ
ÑĤÐ¸ Ð½Ðµ
ĠÑĥ Ð¼ÑĮ
ĠÐ¿ÑĢÐ¸ ÑģÑĤÐ°Ð²Ð°
ĠÐ¿Ð¾Ð» ÑĥÑĤ
ĠÑĪ ÑĬ
ĠÐ¿Ð¾Ð»Ð¾ ÑĤÑĮ
ÑģÐºÐ¾ ÑĩÐ¸
ÑİÑīÐ° Ð³Ð¾
ĠÐŁÐ¾Ñģ Ð»Ñĥ
ĠÑĢÐ°Ð·êĻĭ Ð¼Ñ£
Ð´ Ð¾Ð¼Ð¾
ĠÐ½Ð° ÑģÐ»
Ð¾Ð¼ Ðµ
Ð´Ð¸ Ðµ
ĠÐºÐ¾Ð½ Ðµ
ĠÐ¸Ð²Ð° Ð½Ðµ
ÑĶ Ð½
ĠÑĩÐµ ÑģÑĤÐ¸Ñİ
ĠÑĩÐ¸Ñģ Ð»Ð¾Ð¼ÑĬ
ĠÑģÑ« ÑĤÑĬ
ĠÐľÐ°ÑĢ ÐºÐ¾Ð±
ĠÐĶÐ°ÑĢÐ¸ Ð¹
ĠÐĲÐ»Ðµ ÑĪÐ°
ÐµÐ½ ÑĸÑı
ĠÐ¿ÑĢÐ¸ Ð¸Ð¼ÑĬ
ĠÐ¿Ð¾Ð» ÐºÐ¾Ð²
Ð½Ñı ÑĤÐ¸
ĠÐ¸Ð· Ð²Ðµ
ĠÐ²Ñ£ ÑģÐ¸
ĠÐ´Ð¾Ð± Ñĭ
ĠÑģÑĤÐ°ÑĢ ÐµÑĨ
ĠÐ¾Ð±Ñĭ ÑģÐºÑĥ
ĠÑģ Ñī
ĠÐ¿ÑĢÐ¸ Ðº
Ð¸Ð» Ð¾Ð²Ð°
ÑģÑĤÐ¸ Ðµ
ĠÐ¼Ð¾ ÐµÐ¼ÑĬ
ĠÐ¼Ð¾Ðµ Ð³Ñ¡
ĠÐ¿Ð¾ÑĪ ÐµÐ»ÑĬ
ĠÑģÐºÐ°Ð· Ñĭ
ĠÐ¶Ð¸Ð² ÐµÑĤÑĬ
ĠÐ¿êĻĭ ÑĤÐ¸
Ñĩ Ñ£
Ð»Ñı ÑĤÑĮ
Ð¼Ð¾ÑĤ ÑĢ
ĠÐ²ÑĬÐ· Ð´Ð²Ð¸
ĠÑģÑ£ Ð²ÐµÑĢ
ĠÐµÑģ Ð¼Ñĭ
ÑģÐºÑĭ Ñħ
ĠÑĢÐ¾Ð· Ð±Ð¾
ĠÐ¾Ð¿ Ð°Ñģ
ĠÑģÐ¾ÑĤÐ²Ð¾ÑĢ Ð¸ÑĪÐ°
ĠÐºÐ½Ñ§ Ð¶Ðµ
ÑĩÐµÐ½ ÑĸÐµ
ĠÐ¶Ð°Ð» Ð¾Ð±
ĠÐ¼ÑĥÐ´ ÑĢÑĬ
ĠÐĶÑĥ ÑħÐ°
Ñģ Ð»Ñ£
ĠÐº Ð»Ðµ
ĠÐ¿ÑĢ Ñĩ
ĠÐ²ÐµÐ» Ð¼
Ð·Ð° Ð½Ð°
ĠÐ¿ÑĢÐ¾Ð´Ð° Ð¶Ð¸
ĠÐ´Ð°Ð² êĻĳ
ÑĪ ÐµÐ¼ÑĬ
ĠÐ° Ð»ÐµÐºÑģÑ£
ÐµÐ» ÐµÐ¼
Ð¾Ð²Ð¸ ÑĩÐ¸
ĠÐ¿Ð¸ ÑĢ
ĠÐ§ ÐµÑĢ
ĠÐ§Ð° Ð´Ð¾
ĠÐ ©
ÐµÐ½ ÑĸÐµÐ¼ÑĬ
Ð¶ Ð¾
ĠÐ¸Ð· Ð±
Ð»Ð¾ Ðµ
ĠÐľ Ð½
ĠÐ²Ð¾Ð» Ð¾Ðº
ĠÐ½Ð¾ Ñı
ĠêĻĭ Ð±Ð¾
ÑİÑīÐ¸ ÑħÑĬ
ĠÐºÑĢÑĭ Ð¼
ĠÐ½Ð°Ð¿Ð¸Ñģ Ð°ÑĤÐ¸
Ñģ Ñİ
ÑĪ ÐµÐ¼Ñĥ
ĠÐ¿ÑĢÐ°Ð² Ð´Ð°
ĠÐ¾Ð¿ ÑıÑĤÑĮ
ĠÐ£ Ð¶Ðµ
ÑĨÐºÐ¸ Ðµ
ĠÐ¼ÑĮÑģÑĤÐ¸ ÑģÐ»Ð°Ð²ÑĬ
ĠÐ´ Ð½Ñ£
Ñī Ñĭ
ĠÐĺ Ð¾
Ñ¡ Ð¼ÑĮ
ÑĢÐµ ÑĩÐµ
ĠÑĤÐ²Ð¾ ÐµÐ¼ÑĬ
ĠÑģÐ² Ð¾Ð±
ĠÐºÐ¾ÑĤÐ¾ÑĢÑĭ Ð¼ÑĬ
ĠÐ±Ñ¹Ð´ Ñ¹
ĠÐ²Ð¿ÐµÑĢ ÐµÐ´ÑĮ
Ñģ Ð¸Ð¼Ð°
ĠÐ¿ ÑĪÐµ
ĠÐ¿ ÑĤÐµÐ½
ĠÐº Ð»Ñ£
Ñĩ Ñ§
ĠÐ¡ Ð¾Ð·
ĠÐ²Ñ£ ÑģÑĤÐ¸
ĠÐ»Ð¸ ÑĨÐµÐ¼ÑĬ
ĠÐ¶Ð¸ Ð²Ð°
ĠÐ¿Ðµ ÑĩÐµÐ½Ñ£
ĠÑħÑĢÐ° Ð¼ÑĬ
ĠÑģÐ²ÑıÑĤ Ñĭ
ĠÐ¿ÑĢÐ¾Ð¿ Ð¾Ð²Ñ£Ð´Ð°
ĠÐ± Ð¸Ñģ
ĠÐ²ÑĬ Ð¼Ñ£
ĠÐĺ ÑħÐ½Ð¸
ĠÑģÐ²Ð¾ êĻĹ
ĠÑħ Ð°Ð»
ĠÐ¶ Ñĭ
Ð´Ð¾ ÑħÑĬ
Ð»ÐµÐ½ ÑĸÐ¸
ĠÑħÑĢÐ° Ð¼Ð¸
ĠÐ»ÐµÑģ Ð¾Ð¼
ĠÐ¾ÑĤÐ¿Ñĥ ÑģÐº
Ð´ÐµÑĢ Ð¶Ð°
ĠÐ´ÑĢÐµ Ð²Ð°
ĠÐ¿Ð¸ÑĤÑĮ Ðµ
ĠÐºÑĢÑĥÐ¶ Ð°Ð»ÑĮ
ĠÐļÑĸ ÐµÐ²ÑĬ
ĠÐľÐ°ÑĢÐºÐ¾Ð± ÑĢÑĥ
ĠÐ½Ð° ÑĢÐ¾
ĠÐŁ Ð°Ðº
ĠÐ¼Ð° Ð¸Ñı
Ð¾Ð½ÑĮ ÐºÐ°
Ð·Ðµ ÑĢÐ°
ĠÐŁÐ° ÑĩÐµ
ĠÑĥÐ±ÑĭÑĤ ÐºÐ¸
Ð³Ð¾ Ð¸
ĠÐ·Ð° Ð±Ñĭ
ĠÑģÐ¸Ð» Ðµ
, .
ĠÑģÐ» Ð¾Ð²ÑĬ
ĠÑģÑĤÐ°ÑĢ Ð¾ÑģÑĤÑĮ
ĠÐ¿Ð¾Ð³ ÑĢÑ£
â¸± .
ĠÐ²Ð¾Ñģ ÑħÐ¾ÑĤÑ£
ĠÐºÑĢÐµÐ¿ Ð¾ÑģÑĤ
ĠÐ·Ð°Ñħ Ð°ÑĢÑĮ
ĠÐ±Ð¾Ð»Ñ£Ð· Ð½Ð¸
ĠÐ¸ Ð´ÐµÑĤÑĬ
Ð»Ð¸ Ð²Ð°ÑĤÐ¸
ÐµÐ¼ Ñĭ
Ð°Ðº Ð¾Ð²Ð°
ĠÐ¾ÑĤ ÐºÐ°Ð·
ĠÐ¿Ð»Ð° ÑĩÑİ
ĠÐ¸ÑģÐ¿ Ð¾Ð²Ñ£Ð´Ð°
ĠÐ¤ Ð¸Ð»
ĠÐ²ÐµÐ»Ð¸ÑĩÐµ ÑģÑĤÐ²Ð¾
ĠÐ»Ð¸ÑĤ Ð¾Ð²
ĠÑ¡Ð»Ðµ Ð³ÑĬ
ÑĢÐ° Ð²Ð°
ĠÐ½Ðµ Ð²Ð¾Ð»
ÑĢÐ¸ Ð¼
ÑīÐ¸ ÐºÐ°
ĠÐ²ÑĮ ÑģÑ§
ĠÐ²Ð° ÑĪÑĬ
ĠÐºÑĢÐµ ÑģÑĤÑĬ
ĠÐ±ÑĢÐ°ÑĤÐ¸ Ñı
ĠÐ¿ÑĢÐ¾ÑĢ Ð°Ð·ÑĥÐ¼Ñ£
Ð¸ Ñī
Ñī Ð¾Ñĥ
ĠÐĴ ÑģÑı
ĠÐ¿ÑĢÐ°Ð² Ð¾Ð¹
ĠÐ¸ÑģÐ¿ Ð¾Ð²Ñ£
ĠÐ¸ÑģÑĤ Ð¸Ð½Ñ£
ĠÐ¿Ð°ÑĤ ÑĢÑĸÐ°ÑĢ
Ð² Ð¾Ð¼Ñĥ
ĠÐ½Ðµ ÑģÑĬ
ĠÑı ÑĢÐ¾ÑģÐ»Ð°Ð²ÑĬ
ĠÑģÑĥÐ´ ÑĬ
ĠÑĥÐº ÑĢÑĭ
ĠÑģÑĤÑĢÑı Ð¿
Ñı Ð½Ð¸Ñı
ĠÐ±Ð»Ñİ ÑģÑĤÐ¸
ĠÐ½Ð°Ð¿ÐµÑĢ ÐµÐ´ÑĬ
ĠÐ¸Ð¾ÑģÐ¸ÑĦ Ð¾Ð²Ð°
ĠÐ¿ÑĢÐ¸ Ð¸Ð´Ð¾ÑĪÐ°
ĠÐŁ Ð¾Ð²
ÑĦ Ñĥ
ĠÐ¿Ð¾Ðº Ð¾Ñģ
Ð¿Ð° ÑĩÐµ
ĠÑĢÑĥÐ± Ð»Ñ§
ĠÐ¼Ð¸ÑĤÑĢÐ¾Ð¿Ð¾Ð» Ð¸ÑĤÑĥ
ĠÑĤÐµÑĢ Ð¿
ĠÐ±Ð¾Ð³Ð¾Ð¼ Ð¾Ð»
Ð¾Ð³ Ñ¡
ĠÐ¸Ð¼ ÐµÐ½Ð°
ĠÐºÐ¾ÑĤÐ¾ÑĢ Ð¾Ð¼Ñĥ
Ð³Ð¾ÑĢÐ¾Ð´ Ñĥ
ĠÐ´ÑĮÑı Ðº
ĠÐ²Ñ£ÑĢÑĥ Ð¹
ĠÐ²Ð²ÐµÑĢ ÑħÑĬ
ĠÐ¿ÑĭÑĤÐ° ÑĤÐ¸
ÑĤ êĻ¿
ĠÑģ Ð½Ð¸
Ð¾Ð³ Ð´Ñĭ
Ð°Ð½ Ð³
ÑĢÑĬ Ð´
ĠÑģÐ² Ñ§ÑĤ
ĠÐ¼Ðµ Ð¶ÑĮ
ĠÑģÑĤÐ°ÑĤÑĮ Ñİ
ĠÐ²Ð¸Ð´Ðµ ÑĤÐ¸
Ð» Ð¾Ð²Ð¸
ÐºÐ¸ Ð¸
ĠÐ¡ Ð°Ð»
ÑģÐ¸ ÑĤÑĮ
ĠÑģÐ¸ Ð¼Ð¸
ĠÑĪ Ð°Ð³
ĠÐºÐ¾ÑĤÐ¾ÑĢ Ð°Ð³Ð¾
Ð²Ñĭ Ñı
ĠÐ³Ð»Ð°Ð³Ð¾Ð» ÐµÑĤÑĬ
ĠÐ½Ð¸Ðº Ð¾Ð»
ĠÐ»Ðµ Ð³
ĠÐµÐ´Ð¸Ð½ Ð¾Ð¹
ĠÐ¸ Ð´Ð¾ÑĪÐ°
ĠÑĢ Ð¾Ð¶Ð´
ĠÑĥ ÑģÑĤ
ÑĩÐ¸ Ð¼Ð°
ĠÐ²Ñ£ Ð´Ñ£
ĠÐ´Ð¾ ÑģÑĤÐ¸
ĠÑĶ ÑģÑĤÑĮ
ĠÐ³ÑĢÑ£ ÑħÐ¸
ĠÐ²ÐµÐ»Ð¸ÐºÐ¸ Ð¼
ÑİÑī Ð¸Ñħ
ĠÐ¾ÑĤÐ´Ð° Ð½Ð¾
ĠÐ±Ñ¹Ð´ ÐµÑĤÑĮ
ĠÐ² ÑģÑĤ
ĠÐ³ Ð»Ð°Ð³Ð¾Ð»Ð¸
Ð½Ð° Ð´ÑĨÐ°ÑĤÑĮ
ÑĪÐ° Ð²ÑĬ
ĠÐ¿Ñĥ Ñģ
ĠÑģÑĤÐ°ÑĢ ÐµÑĨÑĬ
ĠÐĴÑĬ êĻģ
ĠÐ´Ð¾Ð» Ð³
Ð¶ Ñ¹
Ð°Ð² Ñ£
Ð°ÑĤÐ¸ ÑģÑı
ĠÐŀ Ð»Ðµ
ÑģÑĤÐ° Ð³Ð¾
ĠÑģÑĤÑĢÑ£Ð»ÑĮ Ð±Ñĥ
ĠÑİÑĢÑĮ Ð¸
ĠÑĨÐ°ÑĢÐ¸ ÑĨÐ°
ĠÐ¿ÑĢÑıÐ¼ Ð¾Ð¹
ĠÐ½Ð°Ð¹ Ð¼Ñĥ
ÑģÐº ÑĸÐ¹
êĻ¿ Ð¶Ðµ
ĠÐ´Ñĥ ÑĪÑİ
êĻĭÐ´ êĻĭ
ĠÑģÐµÐ»ÑĮ ÑĨÐ°
ÑģÑĤ ÑĸÐ¸
Ñħ Ð¾Ð¶Ð´Ð°
Ñ§ ÑĤÑ£
ĠÐ¿Ð¾ ÑĩÐ¸
ĠÐŁ Ð¾ÑĢ
ĠÐºÐ¾Ð½ ÐµÑĨÑĬ
Ð²Ñĭ Ðµ
ĠÐ°Ð½ ÑĤÐ¾Ð½
ĠÐ´Ð½ ÐµÑģÑĮ
ĠÐ±Ð¾Ð»ÑĮ ÑĪÐ°Ð³Ð¾
ĠÐ»Ð¸Ñħ Ð¾
ĠÑģ ÐºÐ¸
ĠÐ² Ð¾Ð½ÑĬ
ĠÑģÐ¸ Ñĩ
ĠÐĵ Ð¾Ð²Ð¾ÑĢ
ĠÑģÐ¾Ð± Ñ§
ĠÑģÑĬÑĤÐ²Ð¾ÑĢ Ð¸ÑĤÑĮ
ĠÐ²ÑĭÑģ Ð¾ÐºÐ¾
ĠÐºÐ¾ÑģÑĤ ÑıÐ½
ÑĪ ÑĤÐ¾Ñĥ
Ð± Ð°ÑĢ
ĠÐ¿ÑĢ ÑĸÑ§
êĻĭ Ð´Ðµ
ĠÐ¡ Ð°Ð¼ÑĬ
Ð´Ñ£ Ð¸
Ð¶Ð° ÑĤÑĮ
ĠÐºÐ¾Ð½ ÐµÐ¹
ĠÐ³Ð¾ÑģÑĥÐ´Ð°ÑĢÑĮ ÑģÑĤÐ²Ð°
ĠÐ¿ÑĢÐ¸ÑģÑĤÑĥÐ¿ Ñĥ
ĠÑĤÑĢÐ° Ð¿ÐµÐ·
ĠÑģÑĬÐ¼ ÑĢÑĮ
ĠÑĤ Ð¾Ð»ÑĮ
Ð»Ðµ ÑĪÐ¸
ĠÐ¾Ð± ÑĢ
ĠÐ¿Ð¾Ð´ Ð¿Ð¸Ñģ
ĠÑĤÐ¾Ð± Ð¸
ÑĪÑĤ Ñĥ
ĠÑģÑĤÐ¾ÑĢ Ð¾Ð½Ð°
ĠÑĢÐ¾Ð· ÑĬ
ĠÐľÑĥÑĢÐ¾Ð¼ ÑĨÐ°
ĠÐ³ÑĢÐ¸Ð²ÑĮ Ð½Ð¾
ĠÐ¾ÑĤÐ²ÐµÑĤÑĩÐ¸ ÐºÐ°
ĠÑģÐµÑĢÐµÐ± ÑĢÐ¾
ĠÐºÑĢÐµÑģÑĤÑĮÑıÐ½Ð¸ ÑĪÐºÐ°
ÑĤ ÐºÐ°
ÑĢÐ° Ð´Ñĥ
ĠÐ´Ð° Ð±Ñĭ
ĠÐ½Ñ£ Ð¼
ĠÑħÑĢÐ° Ð½Ð¸ÑĤÐ¸
Ð´Ñ§ ÑĤÑĬ
Ð° ÑīÐµ
Ð» Ð¾Ð²Ñ£
Ð² Ñ«
ÑģÑĤ Ð¾ÑĤ
Ð³ Ð½
ÑĪ ÑĸÐ¸
Ð¶Ðµ ÑĤÑģÑı
Ñ³ Ð°
ĠÐ¸Ð½ Ð´Ð¸
ĠÐµÑģÑĤÐµ ÑģÑĤÐ²Ð¾
Ð½ ÐºÐ°
ĠÐ¿ÑĢ Ð²
Ð¿ ÑĢÐ¾
Ð½Ð¸ ÑĨêĻĭ
Ð¶Ðµ Ð½Ð¾
ĠÐ²ÑĬÐ· Ð¼
ĠÐ»ÑİÐ´Ð¸ Ð¸
ÑģÐºÑĭ Ð¼
ĠÐĵÐ¾ÑģÐ¿Ð¾Ð´ ÐµÐ½ÑĮ
ĠÐ³Ð»Ð° Ð²Ð¾Ñİ
ÑİÑī Ð¸Ð¼
ĠÐĿÐ¸ ÐºÐ¸ÑĤÐ¸
Ð¾Ð³Ð¸ Ð²Ð°
ĠÑģÐ¾ÑħÑĢÐ° Ð½Ð¸
ĠÐľ Ð¸Ð»Ð¾
ÑīÐ¸ Ðº
ĠÐ³ÑĢÐ¸Ð² Ð½Ñ£
ÑģÑĭ Ð¿Ð°
ĠÐ¾Ð±ÑĬ Ñı
ĠÑĥÐ´ Ð°ÑĢÐ¸
Ġ100 0
ĠÐ½Ð°Ð¿Ð¸ÑĪ ÐµÑĤ
ĠÑģÑĥÐ·Ð´Ð° Ð»
Ð´ Ð¾ÑĢ
ĠÐº Ð°Ñģ
Ð¿ Ð¾Ñģ
Ð¾Ð³ ÑĢÐ°
Ð¾Ñĥ Ð¼Ð¾Ñĥ
ĠÑĤÑĭ Ð¸
ĠÐ½Ñ£ ÑĤÑĥ
ĠÑĤÐ²Ð¾ÑĢ Ð¸ÑĤÑĬ
ĠÐ±Ð¾ÑĥÐ´ ÐµÑĤÑĮ
ĠÑģÐ¸ÑĢÑ£ ÑĩÑĮ
ĠÐº Ð»Ñı
ĠÐµ Ð³
ĠÑĥ Ð¼Ðµ
ĠÐ¿ÑĢÐ¸ ÐµÐ´
ĠÐ¾Ñĥ Ð·
ĠÑģÐ²Ñ£ Ð¸
ĠÐ²Ð»Ð° Ð´Ñ£ÑĤÐ¸
ĠÑĢÐ°Ð·Ñĥ Ð¼Ð¸
ĠÐ±Ð¾ÑıÑĢ ÑģÐºÐ¸Ð¼
ĠÐĳÐ¾Ð¶Ð¸ Ñİ
ĠÐ´ ÑħÐ°
Ñĸ Ð¼ÑĬ
ĠÐ¿ÑĢÐ¸ ÐµÑħÐ°Ð»ÑĬ
ĠÑģÑĤÐ°ÑĢ ÑĨÐµ
ĠÐ´Ðµ ÐºÐ°
ĠÑł Ð½
ĠÐ´ÐµÑģ Ñ§ÑĤÐµ
Ð½Ð° ÑĤÑĨÐ°ÑĤÑĮ
ĠÐ±Ð¾ Ñ§
ĠÐ²Ñĭ ÑĤÐ¸
ĠÐ¾ÑĤÑĬ Ð²Ñ£
ĠÑĤêĻĭ ÑĢ
ĠÐłÐ° êĻģ
ĠÑģ Ð¼ÑĮ
ÑĩÐ° Ð´
ĠÐ²Ñ£ Ð´Ð°ÑĤÐ¸
ĠÐºÑĢ ÑĤ
ĠÐºÑĥÐ¿ Ð»Ñİ
ĠÑĥÐ±Ð¸ Ð¹
ĠÐ¿ÑĢÐ¸ÐµÐ¼ Ð»Ñİ
ĠÐºÐ¾Ð¶ Ð´Ð¾
Ġ Ï
Ñ£ ÑħÐ°Ð»Ð¸
ĠÐ¿Ð¾ Ñ§
ÑĪÐ¸ Ð¼Ð¸
ÐµÑģ Ð¸
ĠÐ¸Ð· ÑĮ
Ð´Ð¾ ÑģÑĤÐ¸
ĠÐ¸Ñģ ÑĨÐ¾Ð²
ĠÐ½Ð°ÑĪ Ð¾Ð³Ð¾
ĠÐ·ÐµÐ¼Ð»Ñı Ñħ
ĠÑĥÐº Ð»Ð¾Ð½
ĠÐ´ÑĢêĻĭ Ð³
ĠÑĪÐ°Ð³ Ð¾Ð²ÑĬ
ĠÐ¸ Ð½Ð¸
Ñħ Ð¶Ðµ
ĠÐ³ ÑĢÐ¾
ĠÐ´Ð° Ð¶ÑĮ
ĠÑĢÐ° Ð´ÑĬ
ĠÐ¿Ð¾Ð» ÐµÐ·
ĠÐ¾Ð± Ð»Ðµ
ĠÐ²Ð¾Ð· Ð²Ñ£
ĠÐ²ÐµÐ»Ð¸Ðº ÑĭÐ¸
ĠÐ¼Ð¸Ð»Ð¾ ÑģÑĤÑĭÐ½Ñİ
ĠÐ¶Ð¸Ð² Ð¾Ð½Ð°
ĠÑģÑĬÐº ÑĢÑĭ
ĠÐ±ÐµÑģÑ£ Ð´Ñĥ
Ð² Ð¾Ð²Ð°
ĠÑģ Ð¾Ð´ÐµÑĢ
ĠÐ¾ÑĤ ÑĢÐ¾
êĻ¿ Ð½Ð¾
ĠÐ²ÑĢÐµÐ¼ Ðµ
ĠÐ½Ð°ÑĪÐµ Ð¸
ĠÐ¿ÐµÑĢÐµ Ñı
ĠÐ³Ð¾ Ñĩ
ĠÐ¿ÐµÑĢÐ² Ð¾Ð¹
ÑĮ Ð½Ð°
ĠÐ± ÑıÑħÑĥ
ĠÑħ Ð²Ð¾
êĻģ Ðµ
Ð²ÐµÑĢ Ð¸
ĠÑĨÑĢ ÑĤ
ĠÐ²ÑĢÐ° Ð³Ð°
Ð³Ð¾Ð² Ð°ÑĢÐ¸
ĠÐ¾ÑĤÑĢÐ¾Ðº ÑĬ
ĠÐ¾ÑĥÐ± Ð¾Ð³
Ñĩ Ð¸ÑĤÑĬ
ÑĨ ÐºÐ¾Ð¸
ĠÐµ ÑĦ
Ð¾Ñģ Ð»Ð¾Ð²
Ñ« Ð´
ĠÐ¼Ð¸ ÑĢÑĥ
ĠÐºÑĢÐ° Ð»ÑĮ
ĠÐ¿Ð¸ Ð²Ð°
ĠÐ¿Ð¾Ð¿ ÑĬ
ĠÐ¼Ð¾ÑĢ Ñı
ÑİÑī Ñĥ
ĠÐºÐ½ Ð·ÑĮ
Ġ5 0
ÑģÑĤÑ« Ð¿
Ð²Ð° ÑİÑĤÑĬ
Ð½Ñĭ Ð¸Ð¼ÑĮ
ÐµÐ² ÑĢÐ°
ĠÐ¾ÑĤ Ð²
ĠÐ²Ñĭ ÐºÑĥÐ¿
âĢ Ļ
ĠÐ²ÑģÑ§ ÐºÑ¹Ñİ
ĠÑģÑ£ Ð¼Ñ§
ĠÐ¼Ð° Ð¸
ÑĢ ÑĤÐ¸
ĠÑģ Ð¾ÑĢÐ¾
Ð¶ Ð¸ÑĤ
Ð½Ñĭ Ñ«
Ð¶Ðµ Ð½Ð°
ÑĪÐ° Ð¸
ĠÐ¡ Ð»Ð¾Ð²Ð¾
ĠÑģÐ¿ Ð¾Ð»
Ġ1 6
ĠÐ¿Ð¾ÑģÑĤÐ°Ð² Ð¸ÑĪÐ°
ĠÑģÐ¿Ð°Ñģ Ð°
ĠÐ§Ñı Ð´Ð¾
Ðº ÑĸÐ¸
ĠÐ² Ð½Ñ£
ĠÐ² ÑĢÑĬ
ĠÑħ ÑĢÑĮ
ĠÐ·Ð° Ñī
ĠÐ¿Ð¾Ð» Ð°Ð³Ð°
ĠÐ¿Ð° Ð»Ð¸
ĠÐ½Ð¾ Ñī
ĠÐ²ÑģÑı ÐºÐ¾Ð¹
ĠÐ¿Ð¾Ð³ Ñ¹Ð±
ĠÐ¼Ð¾Ð³ ÑĬ
Ð° Ð°
Ð½ ÑĤ
ĠÑģ Ð°Ð½
Ñİ ÑĪÑĤÐ°Ð°Ð³Ð¾
Ð¾Ð± Ð¾ÑĢ
ÑĩÐ¸ Ð¼ÑĬ
ĠÐ¾Ñĥ ÑĩÐµ
ĠÐ¿Ðµ ÑĩÐ°ÑĤÐ¸
Ð·Ð° Ð½Ð¾
ĠÑĤÑ§ Ð¶
ÑĤÐ² êĻĭ
Ð´êĻĭ ÑĤÑĬ
ĠÐµÐ´ Ð²Ð°
ĠÑĨÐ°ÑĢÐ¸ ÑĨÑĭ
ĠÑħÐ¾ÑĩÐµ ÑĪÑĮ
ĠÐĶÐ°Ð½Ð¸ Ð»
ĠÑĢÐ°Ð´Ð¾Ð²Ð°ÑĤÐ¸ ÑģÑı
ÑĮ Ñ§
ĠÐ´ Ð²Ð¾Ñİ
ĠÐ· Ð¾Ð²Ñĥ
ĠÐ¾ÑĤ Ð²Ñ£
ĠÑĢÐ° ÑģÐº
êĻģ Ð¾Ñĥ
ĠÑģÐ²Ð¾Ðµ Ñ§
ĠÐ¿Ð¾Ð¿ Ðµ
ĠÐ´Ñ£Ð»Ð° ÑĤÑĮ
ĠÑģÑ¹ Ð´
ĠÑģÐ»ÑĭÑĪÐ° Ð²ÑĪÐµ
ĠÐ·Ð°Ñħ Ð°ÑĢ
Ð² Ð¾Ð´Ð°
Ð½Ñĭ êĻĹ
ĠÐ¡ Ð¸Ñı
ĠÐ¼Ð¾ ÑģÑĤÑĬ
ÑĩÐ° ÑħÑĬ
ĠÐ³ÑĢÐ¸ ÑĪÐºÐ°
ĠÑģÑĤÑĢÐ° Ð´
ĠÐ±Ð¾Ñı ÑĢÐ¾Ð¼
ĠÐ³ÑĢÐ¸Ð² Ð½Ð¸
ĠÑ£ Ð·
ĠÐ±Ð»Ð¸ Ð·ÑĬ
ĠÐ´Ð¾ÑģÑĤÐ¾ Ð¸ÑĤÑĮ
ĠÐ²ÑĮÑģÑı ÐºÐ¾Ð¼Ñĥ
ĠÐºÐ½ÑıÐ³ Ð¸Ð½Ðµ
ĠÐ»ÑĥÑĩ ÑĪÐµ
ĠÐ¡Ð¾Ð· Ð¾Ð¼
ĠÑģÑĤ ÐµÑĢ
ĠÐ¾ÑĤ ÑĩÐµ
ĠÑı Ð¼
ĠÐ¸Ñģ Ð°Ðº
ĠÐ½Ð¾ ÑĩÑĮ
Ð´Ñĭ Ð¹
ÐµÐ½Ðµ ÑĢÐ°
ĠÐĳÐ¾Ð¶Ð¸ Ð¸
Ñģ ÑĸÐ¸
ĠÐº Ð½Ñ£
ĠÐ¾ Ð»ÑĮ
Ð¸ÑĤ Ñ£
Ð¼Ð¸ ÑĢÐ¸
Ñ¥ Ð¼
ĠÐ²ÑģÑ§ ÐºÐ°
ĠÐ¿Ð¾Ñĩ ÐµÐ»ÑĬ
ĠÐ½Ð¸ÐºÐ° ÐºÐ¾
ĠÐ¿ÑĢÐ¸Ð²ÐµÐ´ Ð¾ÑĪÐ°
ĠÐ±Ñ« Ð´ÐµÑĤÑĬ
ĠÑĢÑĮ ÑĨÐ¸
Ġâģ ĺ
ĠÐ¼ Ð°Ð½
Ð± Ð¸Ð»ÑĬ
Ð¾Ñģ Ð»Ð°Ð²Ð°
ĠÐ¾Ñĥ Ð²Ñ£
ĠÐ²Ð¾Ð· Ð»ÑİÐ±Ð¸
ĠÐ°Ð»ÐµÑ¯ Ð°Ð½Ð´
ĠÐļÐ¾ÑĤ Ð¾ÑĢ
ĠÐ¸ Ð±Ð¾
êĻ ĥ
ĠÐ½Ð° Ð´Ð¾
êĻģ Ð½Ð¸
ĠÑı Ñģ
ĠÐ¶ Ñ§
ĠÑĤÐ¾ÑĢ Ð³Ñ¹
ĠÐ¿Ð¾ÑĤÑĢÐµÐ± Ñĥ
ĠÐĿÑ£ ÑģÑĤÑĮ
ĠÑģ Ð¾Ð´
ĠÐ° Ð´
ĠÐ° Ð½Ð°
ĠÐĿ Ð¾Ð²
Ð»Ñ£ Ð½ÑĮ
ĠÑģÐµÐ¼ Ð¾Ñĥ
ĠÐ´ÑĢÐ° Ð³Ð¸
ĠÐ¿ÑĢÐ¿ Ð´Ð±
ĠÐĴÐ°Ñģ Ð¸Ð»
ĠÑħÐ¾ÑĩÐµ ÑĪÐ¸
ĠÐ¼ÐµÑģÑı ÑĨÐ°
ĠÑģÐµÑģÑĤÑĢÐ° Ð¼Ð¸
ÑĪ ÐµÑĤ
ĠÐµ ÑģÑĤÐ²Ñĭ
ĠÐ¿Ð¾Ð´ Ð¸
ĠÐ¼Ð°Ð» Ð¾Ðµ
ĠÐ¼Ð¸Ð»Ð¾ ÑģÑĤÑĭÐ½Ð¸
ĠÐ¿ÑĢÐ¾Ñģ Ð²Ñ£
ĠÑĩÐµÐ»Ð¾Ð²Ðµ ÐºÐ¾Ð¼
ĠÐ±Ð»Ð°Ð³ Ð¾Ð²Ñ£
ĠÐ´ÐµÑĤ Ð¼Ð¸
Ð»Ð¾Ð¶ Ð¸ÑĤÐ¸
ĠÐ¿Ð¾Ð»Ð¾Ð¶Ð¸ ÑĪÐ°
ĠÐ²Ð¼Ñ£ ÑģÑĤÑ£
ĠÐ´ÑĢÑĥÐ¶Ð¸ Ð½Ð¾Ñİ
ĠÐ·Ð¾Ð»Ð¾ÑĤÑĭ ÑħÑĬ
Ñı Ð½ÑĮ
êĻģ êĻĳ
ĠÑģÑĤÐ¾Ð» Ñ£
ĠÐ·Ð´Ð¾ÑĢ Ð¾Ð²ÑĮÐµ
ĠÐ´Ð°Ð²Ñĸ Ð´ÑĬ
ÑĨ Ñ¹
ĠÑ¡ Ð½Ð°
Ñ« ÑīÐ°
ĠÐ¿ÑĢÐ¾ ÑģÑĤÐ¾
ĠÑĤÐ° Ð¸
ĠÐ¿Ð»Ð° Ñĩ
ĠÐ¿Ð¾Ð¼Ð¾ Ñī
ĠÐ´ÑĢÑĥÐ¶Ð¸ Ð½Ð°
Ġ È¥
Ñĩ Ð½Ð°Ð³Ð¾
ÐµÐ½ ÐµÐ¹
ĠÐ¡ Ðº
ĠÑ¹ Ð¶Ðµ
ÑĥÐ¿ Ð°
ĠÐ½Ð°ÐºÐ°Ð· Ñ¹
ĠÐ¿Ð°Ð¼ Ñ§ÑĤÑĮ
ĠÐ³Ð½Ñ£ Ð·
Ð¿ÑĢÐ° ÑĪÐ¸
ĠÐ¾ÑĢÑĥ Ð¶ÐµÐ¹
ĠÐ¿Ð¾Ð³Ñĭ Ð±
Ð½ÐµÐ½Ð°Ð² Ð¸Ð´Ñ£
Ðµ Ð´Ð°
ĠÐ½Ð° ÑģÐ»Ð°
ÑĢÐ° Ð¼ÑĬ
ĠÐ¿Ð¾ Ð¾Ñĥ
ĠÐ´Ñ£ Ð¸
ĠÐºÐ¾ÑĤÐ¾ÑĢ Ð¾Ð¼ÑĬ
ĠÐ²ÑĬÐ· Ð»ÑİÐ±Ð¸
Ð»Ñĭ Ñħ
ĠÑģÑĤÐ° ÑĪÐ°
ĠÐ¾Ð½ Ð¾Ð¼Ñĥ
ĠÐ¿Ð¾Ð¶ ÑĮ
ĠÐ²Ð¾Ð·Ð¼ Ð¾Ð¶Ðµ
ĠÐŁÐ¾Ñģ Ð»Ð°
ĠÐ·Ð°Ð¿Ð¾Ð²Ñ£ Ð´ÑĮ
ĠÐ¼ÑĮÑģÑĤÐ¸ ÑģÐ»Ð°Ð²
Ñħ Ð¾Ð¶
ĠÐ½Ðµ Ð²Ðµ
ĠÑĩ Ð¸Ð¼ÑĬ
ĠÐ» ÐµÑĤÐ¾
ĠÐ²ÑĬ Ð¿ÑĢÐ°
ÑĤÐ¾ ÑĪÐ°
êĻģ Ð´Ð°
ĠêĻĹ Ð·ÑĬ
ĠÐ½ÐµÐ¼ Ñ¹
ÑģÑĭ Ð»Ð°
ĠÑĤÑĢÐµ ÑħÑĬ
Ðº Ð¾Ð»
ĠÐ° Ð·ÑĮ
ĠÐ´Ð° ÐµÑĤÑĬ
ÑĢÐµ ÑĩÑĮ
ĠÐ´Ñ£ Ð»
ĠÐ²ÑģÑ£ Ð²Ð¾Ð»
ĠÐ¿Ð¸ÑģÐ°Ð½ Ð½Ð¾Ðµ
ĠÑģÑĬÐ¼ÑĮÑĢ ÑĤÑĮ
ĠÑģ Ñĩ
ĠÐ¼ ÐµÐ´ÑĬ
Ñī ÐµÑĤÑĬ
ĠÐ¾ÑĤ ÐµÑĨ
ĠÐ´Ð¾ Ð¸Ð´Ðµ
ĠÐ±ÐµÐ· Ð±Ð¾Ð¶
Ð½ÑĭÐ¸ Ð¼Ð¸
ĠÐ¿ÑĢÐ¸ÑģÑĤÐ°Ð² Ñĥ
ĠÐ±Ð»Ð°Ð³Ð¾ÑģÐ» Ð¾Ð²Ð¸
ÑĤ ÑĢÑĬ
Ð½ ÐµÐ½ÑĬ
ĠÐ¸ ÑīÐµ
ĠÐ¾ Ð»ÐµÐºÑģÐ°Ð½Ð´
Ð»Ð¸ ÑĤÑĮ
Ð¾Ð± Ð¾
Ð½Ðµ ÑĨ
ĠÑĢÐµ ÐºÐ°
ÑĤÐµ ÑĨÑĬ
ĠÐ¿Ð¸Ñģ Ð°Ð»ÑĬ
ĠÐ´Ð¾ÑĢ Ð¾Ð³Ð¸
ÐµÐ»Ñİ Ð±
ĠÐ¶Ð°Ð»Ð¾Ð² Ð°Ð½ÑĮÐµ
ĠÐ±Ð°Ð³ Ð°ÑĤÑĭ
ÑĩÐ° Ð¸
ĠÑĢÑ£ ÐºÐ°
ĠÐ¼Ð°Ð» ÑĭÑı
ĠÑ³ ÐµÐ¾Ð´
ĠÐºÐ°Ð· Ð½Ð¸
ĠÐ½ÐµÐ¿ ÑĢÑ£
ĠÐ¢Ñ£ Ð¼
ĠÑģÑĤÐ°ÑĢÐ¾ÑģÑĤÐ¸ ÑĪÐºÐ°
ĠÑĩÐµÐ»Ð¾Ð±Ð¸ÑĤÑĩÐ¸ ÐºÐ¾Ð¼
Ð´Ð¸ Ð²
ÑĩÐ¸ Ð²ÑĬ
ĠÐĿ ÑĭÐ½Ðµ
ĠÐ¸Ð· Ð¼ÐµÐ½
Ð³Ð° Ð¼ÑĬ
ĠÑĢÑ£ ÐºÑĭ
ĠÐ±ÑĢÐ°ÑĤ Ð¾Ð¼
ĠÐ¼Ð¾ÑģÐº Ð²Ñĭ
ĠÑģÐºÐ°Ð· ÑĭÐ²Ð°
Ð³ÑĢÐ° Ð´ÑĬ
ĠÐ¿Ð¾ÑĢÑĥ ÐºÑĥ
Î ·
Ðº ÑĢÑ£Ð¿
Ð½Ð¸ Ð¹
ĠÑħ Ñģ
ĠÐ¾Ð± ÐµÑģ
ĠÑģÑĭ Ð½Ñĭ
ĠÐ²Ð»Ð° Ð´Ðµ
ĠÐ¶ÐµÐ½Ð° Ð¼Ð¸
ĠÐ²Ð¾Ð¸ ÑģÐºÐ°
ĠÐĴÑĮ ÑģÐµ
ÐµÐ½ Ñı
ĠÐŁ Ð°Ð²
ĠÐ¿ÑĢÐµ ÑģÑĤÐ°
Ð¿Ð¸ Ñı
ĠÐ±ÑĭÐ²Ð° Ð»Ð¾
Ð¿Ñ£ ÑĤÐ¸
ĠÐ½ ÑĶ
ĠÐº ÑĢÐ¾
ĠÐ³ ÐµÐ½ÐµÑĢÐ°
êĻĳ êĻĹ
Ð»ÑĮ Ñİ
ĠÐ¼Ð¾Ð» ÐµÐ±
ÑĥÑĤ Ñĥ
ĠÐ³Ð» ÐµÑĤÑĮ
ĠÐ²Ð¾Ð´ Ñ£
ĠÑĢÐ°Ð·Ñĥ Ð¼Ð°
ĠÐ½Ð°Ð´Ð¾Ð± Ñ£
ĠÐ±ÐµÑģÑĩÐµ ÑģÑĤÑĮÐµ
ĠÐ´ ÑıÐ´
ÑģÑĤ Ð¾Ð¼
ĠÐĲ ÐºÐ¸
Ð²Ð¸ Ðµ
ĠÐ¢ Ð¸
ĠÑĤÐ°Ðº Ð¸Ñı
ĠÐ´ÐµÑĢÐµÐ²Ð½Ñı Ð¼
ĠÐ±Ð»Ð¸Ð· ÐºÐ¾
ĠÑģÐµÐ»Ð¸ÑĤ ÑĢÑĥ
ĠÐ¿ Ð°Ð»
ÑĪ Ñĸ
ĠÐ¿ÑĢ ÐµÑģÐ»Ð°Ð²
ĠÐĶ Ð¼Ð¸ÑĤ
ĠÑģÐ¾ ÑĦ
ĠÐ±Ñ£ ÑĪÐ°
ĠÑģÑĤÑĢÐ° ÑħÐ¾Ð¼ÑĬ
ĠÐ¸Ð¼Ñ£ Ð¹
ĠÐ²Ð¾ÑĤ ÑĩÐ¸Ð½Ðµ
ĠÐ¼Ð°ÑĤ ÐµÑĢÐµ
ĠÐ¾Ð´ Ð½Ð°
ĠÐ¼ÐµÑĢ ÑĤ
ÑĪ Ð¼Ð¸
ÑĪ â±ķ
ÐºÐ° Ð½
ĠÐ±Ñĭ Ð²ÑĪ
ĠÐŁ Ð°ÐºÐ¸
Ð¾Ð¶Ðµ Ð½
ĠÑĤÐ²Ð¾Ðµ Ñ§
ĠÐ²Ð¸Ð´Ñ£ Ð²ÑĪÐµ
Ð³ÑĢÐ° Ð´Ð°
ĠÑĩÐ°Ñģ Ð°
ĠÐ½Ð° ÑģÑĤÐ¾
ĠÐ·Ð° ÐµÐ¼
Ð°Ð² Ñĭ
ĠÐ¿Ð¾Ð¼ Ð°Ð³Ð°
ĠÐ¼Ð¸ ÐºÐ¸
ĠÐķ Ð¼Ñĥ
ĠÑģÑĥ Ðº
ĠÐ¶Ð¸ÑĤ ÑĸÐµ
ÑĪÐµÐ´ ÑĪÐµ
Ñħ Ð¾Ð²ÑĬ
ĠÑĩ ÑĥÐ´
Ð¶ Ñĭ
ÑģÐº Ð²ÐµÑĢ
ĠÑĥ Ð¼ÑĭÑĪ
ĠÐ¶ ÑĢÐµ
ĠÐ³Ð¾ÑģÑĥÐ´Ð°ÑĢ ÑĭÐ½Ðµ
ĠÐļ Ð°Ð·
ĠÐ¿ÐµÑĢ Ð²Ð¾
ĠÐ±Ð¾ÑĢ ÑĤ
ĠÐ¿ÐµÑĢÐµ Ð¿Ð¸Ñģ
ĠÐ½Ð°Ñĩ Ð°Ð»
ĠÐ³ÑĢÑ£Ñħ Ð¾Ð²ÑĬ
ĠÐ½ÐµÐ¼Ð¾ Ñī
ĠÑģÐµÑĢÐµÐ´ ÐºÑĥ
ĠÑĤÑĢÐµÐ± Ñĥ
ĠÑĤÐ¾Ð²Ð°ÑĢÐ¸ ÑīÐ¸
ĠÐ²ÑĭÐºÑĥ Ð¿Ð°
ĠÐ½Ðµ Ðµ
ÐµÐ¼ Ñı
ĠÐ° êĻģÑĬ
ÑģÐº ÑĮ
ÑĢÐµ Ðº
ÑĸÐ¸ ÑħÑĬ
Ð´ÑĮ ÑĢ
ĠÐ½Ð¸Ðº Ð¾Ð»Ñĭ
ĠÑħÐ¾Ð´ Ñı
ĠÐ³ÑĢÐ¸Ð² ÐµÐ½Ðµ
ĠÐ°Ð½Ð´ ÑĢÑİ
ĠÐ½Ð¸ÐºÐ° ÐºÐ¾Ð²Ð°
ĠÐ³Ñİ ÑĢÑĮ
ĠÐ±Ð¾Ð³Ð¾ Ñĥ
ĠÐ½Ð°Ð·ÑĭÐ²Ð° ÑİÑĤ
Ð¼ ÑĢÑĮ
ĠÐ²ÑĬ Ð´
Ð¸ÑĤ ÐµÑģÑ§
Ð°Ð½ Ñ£
ĠÐ²Ñĭ Ð´Ð°
ĠÐ¼Ðµ ÑģÑĤÐµ
ĠÐ²Ð»Ð° Ð´Ñ£
ĠÐ·Ð½Ð° ÑĤÐ¸
Ġ7 1
ĠÐ¿ÑĢÐµÐºÑĢÐ°Ñģ Ð½Ð¾Ð¹
ĠÐºÐ¾ÑĢÐ¾Ð»ÐµÐ² Ð½Ð°
ĠÐºÑ¡ Ð½
ĠÐ¸ Ð½ÑĭÑı
Ð´ Ñ§ÑĤÑĮ
ĠÐ½Ð° ÑĩÐ¸Ð½Ð°
ĠÐ° Ð»ÑĮ
ĠÐĲ Ð½Ð°
ĠÐĴ Ð°ÑĢ
ĠÑĨÐ°ÑĢ ÑģÑĤÐ²Ñĥ
ĠÐ»Ð¸ ÑĪÐ¸
ĠÐ´ÑĮÑı ÐºÑĥ
ĠÐ½Ð¸Ñĩ ÑĤÐ¾
ĠÐ¢ ÐµÐ»
ÑģÐ» Ð¾Ð²Ð¸
Ð½Ñ§ ÑĤÐ¸
ĠÐ·Ð´ÑĢÐ°Ð² ÑģÑĤÐ²Ñĥ
ÑĢ ÐµÑĤÑĬ
ĠÐ¿Ð¾ ÐµÐ´
ĠÐ¸ÑģÑĤ Ð°ÑĢÐ¸
ĠÐ²Ð°ÑģÐ¸Ð»ÑĮ ÐµÐ²Ð¸ÑĩÑİ
ĠÐ¿ÑĢÐ¾Ð¿ Ð¾Ð²Ñ£
Ð» Ð²
ĠÐ´ Ð²Ð¾Ðµ
Ð¶ Ð°Ð½ÑĸÐµ
Ñ¡ Ð´
ĠÐ¿ÑĢÐµ ÑģÑĤÑĥÐ¿
ĠÑģÐµÑĢ ÑĮ
ĠÐ¿ÑĢÐ¾Ñģ Ð¸ÑĤÑĮ
ĠÐ´Ð¾Ð±ÑĢ Ð¾Ð³Ð¾
ĠÐ²Ð¾Ð¸Ð½ ÑģÐºÐ¸Ð¼ÑĬ
ĠÐ¼Ð¾Ð»Ð¾Ð´ ÐµÑĨÑĬ
ĠÐ¢Ñĥ Ð³Ð°ÑĢ
ĠÐ³ÐµÐ½Ð² Ð°ÑĢÑı
Ñ ±
ĠÑĩ Ñĥ
Ð¶ Ð½Ñĭ
ÐºÐ° Ð²
ĠÑģÐ²Ð¾ Ñ«
ĠÑ¡ ÑĨÐ°
Ñ« Ñ«
ĠÐºÐ¾ÑĤÐ¾ÑĢ Ð¾Ð¼
ĠÐºÑĢ Ð¾ÑĤÑĬ
ĠÑĤÐ²Ð¾Ðµ Ñİ
ĠÑģÑĤÐ¾ Ð¸ÑĤÑĮ
ĠÐ²Ð¸Ð´Ñ£ ÑħÑĬ
ĠÐ±Ð¾ÑĢ Ð¸
ĠÑģÐ»Ñ¹ Ð³ÑĬ
ĠÑĥÐº ÑĢÑ£Ð¿
ĠÑģÐ¼Ð¸ ÑĢ
ĠÑħÐ»Ðµ Ð±Ð°
ĠÐ¼ ÑĢÑĬ
Ð± Ð¾Ð³
ĠÐ³ êĻĭ
ÐµÐ½ Ð¾Ðµ
ĠÑĨ Ðµ
ÑĪÐµ Ð³Ð¾
ĠÐ¼Ð¾ êĻĹ
ĠÐ²Ñĭ ÑģÑĤÑĢÑ£
ĠÐ¿ÑĢÑ£ Ð¶Ðµ
ĠÐ²ÐµÐ»Ð¸Ðº ÑĸÐ¸
ĠÐ»ÑİÐ´Ðµ ÑħÑĬ
ĠÐ¼Ð° Ð³
ĠÑģÐµÑĢ Ð´Ðµ
Ð³Ð¾ÑĢÐ¾Ð´ Ðµ
ĠÑħÐ¾Ð»Ð¾Ð¿ ÐµÐ¹
ĠÐ¿Ð¾ÑģÐ»Ñ£ Ð´Ð¸
ĠÑģÐ¼Ð¸ ÑĢÐµÐ½
ĠÐ¾ÑĢÑĥ Ð¶Ð¸
Ñ§ Ð»Ð¾
Ñ§ ÑģÑ§
Ð½Ð¾ ÑģÑĤÑĮ
ĠÐ¿Ñĥ ÑģÑĤÑĭÐ½Ð¸
ĠÐ²ÐµÐ»Ð¸ÐºÐ¸ Ðµ
ĠÐ¿ÑĢÐ¸ÑĪ ÐµÐ»
ĠÐ¿Ð» Ð¾Ð´ÑĬ
ĠÐ´Ð¾Ð±ÑĢÐ¾ Ðµ
ĠÐºÐ½ Ð·Ñİ
ĠÑĢÐ°Ð´Ð¾ ÑģÑĤÐ¸Ñİ
ĠÐºÑĢÐµÑģÑĤÑĮÑıÐ½ Ð¾Ð¼
Ð° Ð´Ð¸
Ñģ ÑĨÑ£
ĠÐ¸ Ð½ÑĭÐ¼Ð¸
Ð´ ÐµÐ»
ĠÑ¡ ÑĤÑĬ
ĠÐ¿Ð¾Ð´ ÑĢÐ°
ĠÐ¼Ð½ Ð¾Ð¶Ð°
ÑīÐ¸ Ð¼Ð¸
ĠÐ²ÐµÐ»Ð¸Ðº Ð¾Ð¼ÑĬ
ÑĢÐ¾Ðº Ð°
ĠÐ±ÑĭÐ²Ð° ÐµÑĤ
ĠÐ½ÑĭÐ½Ðµ ÑĪ
ĠÑģÑĤÐµÐ¿ ÐµÐ½Ð¸
ĠÐ±Ñ£Ð»Ñĭ Ñı
ĠÐ¿Ð¾ÑģÐ»Ñ¹ ÑĪÐ°
Ð´ ÑĢÐ°Ð²
Ð± ÑĢ
ĠÐ²Ñ£ Ð½ÑĮ
ĠÐŀ Ð¶Ðµ
ÑĪÑĮ Ð´ÑĬ
ĠÑĤÑĭ Ñħ
ĠÐ¿Ñĥ ÑĪÐºÑĥ
Ð¼Ð¾ÑĤ ÑĢÐ¸ÑĤÐ¸
ĠÐºÐ¾Ð» ÐµÑģ
ĠÐ¾Ð´ Ð½Ð¾Ð³Ð¾
ĠÑĤÑĢÐµ Ð¿
ĠÑħÐ»Ñ£ Ð±Ñĭ
ĠÐ¿ÑĥÑĪÐº Ñ£
ĠÑĥÑģÑĤÑĢÐ¾ Ð¸ÑĤÑĮ
ĠÐ¿ÑĢÐµÐ¶ Ð½ÐµÐ¼Ñĥ
ĠÐ±êĻĭ Ð´Ð¸
ĠÐºÐ¾ÑģÑĤ Ñ§Ð½
ĠÑ¡Ð¿ Ñ§ÑĤÑĮ
ĠÐ²ÑĭÐ±Ð¾ÑĢ Ð½ÑĭÑı
Ð¾ ÑĤÐ¸
ÑĤ ÑĸÐµ
ĠÑĤ ÑĥÑİ
Ð¿ Ð¾ÑģÑĤ
ÐµÐ´ ÑĢ
ĠÐ²Ñ£ Ð½
ĠÐ³Ð¾ÑģÑĥÐ´Ð°ÑĢ ÑģÑĤÐ²Ð°
ĠÐľ Ð°ÑĤ
ĠÐľ Ð°ÑĢÐ¸
ÑģÑĤÐ² ÐµÐ½Ñĭ
ĠêĻ ħ
ĠÐ¿ÑĢÐ¾Ñģ Ð¸ÑĤÐ¸
ĠÐ½Ð°Ð·Ð° Ð´ÑĬ
ÑĪ ÐµÐ½Ñĭ
Ð± Ñ¹
ĠÐ½Ð° Ð¸Ð¼
ÐµÑĤ Ñĥ
Ñī Ñĸ
Ð²ÑĬ Ð·
ĠÑħÐ¾Ð´ Ð¸ÑĤÑĮ
ĠÐ·Ð°Ðº Ð¾Ð½Ð°
ĠÑĢÐ°êĻģ Ð¾ÑĥÐ¼Ñ£
ÑĨÐºÐ¸ Ð¸
ĠÑĤÐ¸Ð¼Ð¾ ÑĦÐµ
ĠÐ¿Ð¾ ÑģÑĤÑĬ
ĠÐµ Ð³Ð¸Ð¿
Ñī ÐµÐ½Ð¾
Ð²Ð° Ð»Ð°
êĻģ êĻĭ
Ð»Ñ£ Ðµ
ĠÐ¼Ð¾Ð» Ð²
Ġ1 7
ĠÐºÑĢÐ°Ñģ Ð¾ÑĤÑĥ
ĠÐ²Ð°ÑĢ Ð»Ð°
ĠÐ²ÑĬÐ´Ð° Ð»Ðµ
ĠÑģÐµÐ»ÑĮ ÑĨÐ¾
Ð± Ð¾Ð»
ĠÑģÑĤ ÑĢÑĥ
ĠÐ¿ÑĢÐ¾ ÑĩÐ¸Ñħ
ĠÑĥÐ¼ Ð½
ĠÐ²Ð¾ÑĢ Ð¾ÑĤ
ĠÑħÐ¸ÑĤ ÑĢÐ¾ÑģÑĤÑĮ
ĠÑ¡Ð³ Ð½ÑĮ
ĠÐ¸ Ð¾
ÑĮ ÑĨÐ¸
ĠÑĩ Ð°ÑĢ
Ð½Ñĥ ÑĤÐ¸
ĠÐºÐ¾ ÑģÑĤÐ¸
ĠÐ²Ð¾Ð» Ð¾Ñģ
ĠÐ¿Ð¾ÑĤ ÑĢÑ£
ÑĪÑĤÐµ Ð½Ð¸Ðµ
ĠÐŁÐ¾ ÑĩÑĤÐ¾
ĠÐ·Ð°Ð½Ðµ Ð¶Ðµ
ĠÐ·Ð´Ð¾ÑĢ Ð¾Ð²Ðµ
ĠÐ½Ð¾Ð²ÑĬÐ³Ð¾ÑĢÐ¾Ð´ ÑĬ
ĠÑĥ Ð²Ðµ
ĠÐ½Ð¸ ÐºÐ¸ÑĤÐ¸
ĠÑģÐµ Ñı
ĠÐ¸Ð· Ð±Ñĭ
Ð½Ñĥ ÑĤÑĮ
ĠÐ»Ñ£ ÑĤÐµ
ĠÐ·Ð°Ð¿ Ð»Ð°
ĠÑģÐµÐ¼ Ð¾
ĠÐ³ÑģÐ´ ÑĢÐ¸
ĠÑģÑĤÐ¾Ð» Ð°
ĠÑĥÐ· Ð½Ð°
ĠÐ¿ÑĢÐ¾Ð³ Ð½Ñ£
ĠÐ°Ð¿Ð¾ÑģÑĤ Ð¾Ð»ÑĬ
ĠÐ¶ÐµÐ· Ð»ÑĬ
ĠÐ½Ð¾Ñı Ð±ÑĢÑı
ĠÑģ ÐµÐ»Ñ£
Ñ£ Ð¹
ĠÐĺ Ð±Ð¾
êĻĳ ÑĪ
ĠÐ¸Ð· Ð²
ĠÐ¼Ðµ Ð¶Ñĥ
ĠÑģÑĥ Ñħ
ĠÐ¼êĻĭ Ð¶ÑĬ
ĠÑģÐ²ÐµÑĢ ÑħÑĬ
ĠÑģÑĬÐ± Ð»Ð°
ĠÐ° Ð¶ÑĬ
ĠÐµ Ð²Ð°Ð½Ð³
Ð´Ñĥ ÑĤÑĮ
ĠÐĵ ÑĢÐ°
ĠÐ´Ð²Ð¾ÑĢ ÐµÑħ
ĠÑĩÐ°Ñģ Ñĥ
ĠÑĢÑı Ð´Ñĥ
ĠÐ´Ñī ÐµÑĢÑĮ
ĠÑĤ ÑĥÑĤ
ĠÐº ÐµÑģ
ĠÐ· Ð±ÐµÐ¶
Ð°Ðº Ð¾Ð½ÑĮ
Ð¸Ð½ ÑģÐºÐ¾Ð³Ð¾
ĠÐ¿Ð¾ÑģÐ»Ð° Ð½Ð¸Ðµ
ĠÐ´Ð¾ÑĢ Ð¾Ð³Ð°
ĠÑĤÐ² Ð°ÑĢÑĮ
ÑģÑĤêĻĭ Ð¿Ð¸
ĠÐ¿ÑĢÐ¸Ð³ Ð¾Ð¶Ð°
ĠÑģÐºÐ²Ð¾Ð· Ñ£
ĠÐ»ÑİÐ±ÑĬ Ð²ÑĮ
Ñħ Ðµ
Ñħ Ñ£
ÐµÐ½ ÑĹÐµ
ĠÐ¿ÑĢÐ¸ Ð·ÑĭÐ²Ð°
ĠÑĢÐ° Ð½Ñĭ
ĠÐĳ Ð»Ð°Ð³
ĠÐ´Ñ£ ÑĤÐµÐ¸
ĠÐ´Ð¾Ð± ÑĢÐ¾Ð¼
ĠÑģÐ¾ ÑĥÐ´
ĠÐ²Ð¾Ð» Ñı
ĠÑĢÑ£ ÑĩÑĮ
ĠÐºÑĢÐ°Ñģ Ð½Ð°
ĠÐ¿Ð¾ÑĢÑĥ Ñĩ
ĠÐ¼ÐµÑĢ ÑĤÐ²Ñĭ
ĠÐ»Ð¾ÑĪÐ° Ð´ÑĮ
ÑģÐºêĻĭ Ñİ
ĠÐ¾ÑģÐ° Ð´
ĠÐ°Ð¼Ð¸ Ð½ÑĮ
Ð» Ð¾ÑģÑĮ
Ñĥ ÑģÑĤÐ¸
ĠÐ½Ð° ÑģÐ°
ÑĨ ÐµÐ²
ÑģÐº ÑĸÑı
Ð¹ ÑĤÐ°
ĠÐ¿ÑĢÐ¸ ÑģÑĤÐ°Ð½Ð¸
ĠÐ½Ð¸ Ð³
ÑīÐ¸ ÐºÐ¾Ð²
ÑĥÑİ ÑĤÑģÑı
ĠÐ½Ñ£ ÑĩÑĤÐ¾
ĠÐ¿Ð¾Ð¶ Ð½ÑıÐ¼Ð¸
ĠÐ¼Ð½Ð¾Ð³Ð¾ ÑĨÑ£Ð½
ĠÐ¿ÑĢÐ¸ÐºÐ°Ð· Ð°Ð½Ð¾
ĠÐ¾Ñģ Ð½Ð¾Ð²
ĠÑĤÐ°ÑĤ Ñı
ĠÑģÑĤÐ°Ð² Ð¸ÑĤÑĮ
ĠÐ±ÑĢÐ°ÑĤÐ¸ Ð¸
ĠÑĸÑ¡ Ð°Ð½
ĠÐ·Ð²Ñ£ ÑĢÐ¸
ĠÐ´ÑĥÑħÐ¾Ð² Ð½Ð¾Ð¹
ĠÑģÐ²Ñ§ ÑīÐµÐ½
ĠÐ°ÑĢÑħÐ¸Ð¼Ð°Ð½Ð´ ÑĢ
Ð¶Ðµ Ñİ
ĠÑħ Ð¾Ð¶Ðµ
ĠÐ¸Ð· Ð³Ð½Ð°
ĠÐļ Ð°Ðº
ĠÐºÑĢÐ° ÑģÑĮ
ĠÐ¿Ðµ ÑĩÐ°ÑĤÑĮ
ĠÑĤÑĢ Ð¸ÑĤ
ĠÐ½ÑĭÐ½Ñ£ ÑĪ
ĠÐ½Ð°ÑĢ Ð¾Ð´Ð°
Ġ Òĩ
Ñ£ ÑħÐ°
Ð»Ð° Ð³Ð¾
ĠÑĩ Ñ£Ð¼ÑĬ
Ð´Ð° Ð¸
ĠÐ·Ð° ÑĥÑĤ
ÑĩÐ¸ ÑģÐ»
ĠÐ¿Ð¾Ð» Ð¾Ð²Ðµ
Ð³Ð¾Ð´ Ð°ÑĢ
ĠÑĦÐµÐ´Ð¾ÑĢ Ð¾Ð²Ð¸ÑĩÐ°
ĠÐ¿ÑĢÐ¾Ð´Ð° Ð¶Ñ£
ĠÐ¿ÑĢÐµÑĩÐ¸ ÑģÑĤÐ¾Ð¹
ĠÐ¼Ð¾Ñ¥ Ð³Ð¾
Ð½ Ð¾ÑĢÐ¸
Ð¼ ÑĢÐµ
Ð³ Ð½ÑĮ
ĠÐ½Ð° ÑĩÑĮ
ĠÐ½Ð° Ð¼Ð°
ĠÑĥ ÑĢ
ÑĩÐ¸ Ñı
Ð¸Ñħ êĻ¿
ĠÐ´ÐµÐ» Ñĥ
ĠÐ½Ð°Ñĩ Ð½ÐµÑĤÑĮ
ĠÐ±Ð¸ Ñİ
ĠÐ± Ð°Ñģ
Ð¾Ð» Ñĥ
Ð¶ Ð°Ð»ÑĬ
ĠÑħ Ð¾Ñĥ
ÑĩÐ° ÐµÑĤÑĬ
ĠÐ²ÑģÐµ Ñ§
ĠÑĤÐ°Ðº Ð¾Ð¼Ñĥ
ĠÐ¾Ð½ Ð´ÑĢÑ£
ĠÑħÐ¾Ð´ Ð¸Ð»ÑĬ
ÑĪÑĤÐ¸ ÑģÑı
ĠÐ¼Ð¾ÑģÐºÐ¾Ð² ÑģÐºÐ¾Ð³Ð¾
ÑĪÑĤÑı Ñı
ĠÐļÐ¸ ÐµÐ²Ðµ
ĠÐ¸Ð³ÑĥÐ¼ ÐµÐ½ÑĮÐµ
Ñĩ ÐµÑģ
Ð»Ð° Ð»ÑĬ
ÑĤÐ¾ Ð¸
ÑĢÑĬ Ð²
ĠêĻģ Ð°ÐºÐ¾Ð½
ĠÐ¸Ñħ Ð¶Ðµ
ĠÐķ Ð³Ð¸Ð¿
ĠÑ¡Ð± ÑĢÑ§
ĠÐ´Ñ£ÑĤ Ð¼Ð¸
ĠÐ¿ÑĢÐ¸ÐºÐ° Ð¶Ð¸
ÑģÑĤ Ð¾ÑĢ
ÑĤÐ¸ Ð½Ñĭ
Ð»Ð¸ Ð¼Ñ£
ĠÐ½Ð¸ ÐºÐ¾Ðµ
Ñ¡ ÑģÐ¸
ĠÑĨ Ð²Ñ£ÑĤ
ĠÑ¿ Ð²Ñ£
Ð°Ð¼ Ð¾
ĠÑĦ ÑĢÐ¾Ð»
ĠÐ½ÐµÐ¿ Ð¾Ðº
ĠÐ´Ð¸ êĻĹ
ĠÑĩÑĮ ÑģÑĤÐ¸
ĠÐ¼Ð¾Ð»Ð¸ÑĤ Ð²Ñĭ
Ðµ ÑĩÐ°ÑĤ
ÑĤ Ð¾Ð³Ð¾
ÑĪ Ð¸Ð»ÑĬ
ĠÐ¡ ÐºÐ°
ĠêĻĹ Ð²Ñ£
ĠÑĸ Ð·
ĠÐºÐ¾ÑĤÐ¾ÑĢÑĭ Ð¸
ĠÐ¿ÑĢÐ°Ð² Ð´Ð¾Ñİ
ĠÑģÐ»Ð°Ð² Ð½Ð°Ð³Ð¾
ÑģÐºÐ¾Ð¼ Ð¾Ñĥ
ĠÐ¼Ð¸ÑħÐ° Ð¸Ð»Ð¾
ĠêĻĩ Ð»Ð¸
Ð¾Ð´Ñ£ Ð¸
ĠÐ¼Ð¾Ð¶Ðµ ÑĪÑĮ
ĠÐ¼ÑĥÐ´ ÑĢÐ¾ÑģÑĤÑĮ
ĠÐ¿Ð¾ ÑīÐ°
ĠÐ· ÐµÑĢ
Ñī ÐµÐ½Ð°
ĠÐ» Ñ«
ÑĩÐ¸ ÑģÑı
ÑģÐºÐ° êĻĹ
ĠêĻģ Ñ£Ð»Ð¾
ĠÐ¿ÑĢÑ£ Ð»ÑĮ
ÑĶ Ð½ÑĸÑ§
ĠÐ²Ð°Ñģ ÑĮ
ĠÑģÑĤÑĢÐ° Ð½Ñĥ
ĠÐ¸ÑģÐ¿ Ð¾Ð»Ð½Ð¸
ĠÑĢêĻĭ ÐºÐ¸
ÑĢ ÐºÑĥ
ĠÐ´ Ð¾Ð·
ÑĨ ÐµÐ²ÑĬ
ĠÐ±Ðµ Ð³Ð»ÑĭÑħ
ĠÐ¾Ñģ Ñĥ
ĠÐ²ÐµÑģÐµÐ»Ð¸ Ðµ
ĠÐ³ÑĢÐ¾Ð± Ð°
ĠÑ¡Ðº Ð¾Ð»Ð¾
ĠÑģÐµÑģÑĤ ÑĢÐ¸
ĠÐ¿ÑĢ ÐµÐ»ÑĮ
Ñī Ñ£
ĠÐĺ Ð¼Ñ£
ÑĢÐµ Ð½Ð¸
Ð¾Ñĥ Ð¼
ĠÐ¾Ñĥ ÑĩÐ¸Ð½Ð¸
ĠÐ¼Ð½ ÑģÑĤ
ĠÐ²ÐµÐ»Ð¸Ðº ÑĸÐ¹
ĠÐµÐ¼ Ð»Ð¸
ĠÑģÐ¿Ð°Ñģ ÐµÐ½Ð¸Ðµ
ĠÐŁÐµÑĤ ÑĢÐ°
ÐµÑģÐ»Ð°Ð² ÑĮ
Ġ70 9
ĠÐ¢ÑĢÐ¾ Ð¸
ĠÐĲÐ½ÑĤÐ¸ Ð¾
ĠÐ¿ Ð°Ð½ÑĬ
Ñĩ Ð°ÑĤÑĭ
ĠÐºÑĢÐ° Ð¹
ĠÐ»Ð° ÑģÐº
ĠÐ²ÑĤÐ¾ÑĢ Ð¾Ðµ
ĠÑģÐ»ÑĥÐ¶Ð¸Ð» ÑĭÑħ
ĠÐ¿Ð¸ÑīÐ°Ð» ÐµÐ¹
ĠÐ¿ÑĢÐ¸ Ð¸Ð¼Ð°
ĠÑĨ Ð¾
ĠÐ¶ ÑĶ
ĠÐ±Ñ£ Ð³Ð°
ĠÐ»Ñĥ ÐºÑĬ
ĠêĻĢ Ð°
ĠÑģÑĢÐ° Ð¼
ÑĤ ÑĨ
Ðº Ð¾Ð¶
ĠÐ³ Ð°Ð»
ĠÐµ ÑģÑĤÐ²Ñ¹
ÑĩÐµ ÑģÐºÐ¸
ÑİÑĤ ÑģÑ§
ĠÑĩÐµÑĤÐ²ÐµÑĢ ÑĤÑĮ
ĠÑĨÑĢÐº Ð²
ĠÐ´Ñĸ Ð°Ð²
ĠÑģÑĢÐµÐ± ÑĢÐ¾
ĠÐ³ÐµÑĢ Ð¾Ð½
Ðº ÑĸÐµ
ĠÐº Ð´ÑĮ
Ð´Ð¸ Ð²ÑĬ
ĠÐ¾Ð± ÑĢÐ¾Ðº
Ñ¥ Ð²Ð¸
ÑģÐºÐ° ÑĤÑĮ
ĠÑĦ Ðµ
ĠÑĦ Ð°ÑĢ
ĠÑģÑĤÐ¾ Ð¸ÑĤ
ĠÑģÐµÑĢ Ð³Ð¸
ĠÐºÐ°Ð· Ð½ÑĮÑİ
ĠÐ²ÑĢÐ° Ð³Ð¸
ĠÐ³ÑĢÐ¸Ð² Ð½Ðµ
Ð»Ð¾Ð¶ Ð¸ÑĤÑĮ
ĠêĻ© Ð²
ĠÐ³ÑĢÐ² Ð½Ð°
ĠÐ½ÐµÐ½Ð° ÐºÐ°Ð·
ĠÑĩÐµÐ»Ð¾Ð±Ð¸ÑĤÑĮ Ðµ
ĠÑıÐºÐ¾Ð² Ð»ÐµÐ²
ĠÐ±ÑĢÐ°ÑĪ Ð½Ð°
ĠÐ´ÑĮÑģÑ§ ÑĤÑĮ
ĠÐĶÐµÐ²Ð³ÐµÐ½Ð¸ Ð¹
Ð´ ÑĢÑĮ
ĠÐ² Ð¸Ð½Ñ£
ĠÐ²ÑĬ ÑģÐ¸
ĠÑģÑĤ Ð°Ð»
ĠÐ¿Ð¾Ð» êĻĭ
ĠÐ³Ð¾ÑģÑĥÐ´Ð°ÑĢ ÐµÐ²Ð¾
ĠÐ¿ÑĢÐ°Ð² Ð´Ñ£
ĠÐ¿ÑĢÐ°Ð² Ð¸ÑĤÑĮ
ĠÑģÑĥ ÑīÐ°
ĠÑģÐ»ÑĭÑĪÐ° Ð²
ĠÑıÐ² Ð½Ð¾
ĠÑĢÐµÐº ÑĪÐµ
ĠÐ½Ð°ÑĢ Ð¾Ð´
ĠÐ´ÐµÑĢÐ¶ Ð¸ÑĤÑĬ
ĠÑĦÐ¸Ð»Ð¸ Ð¿
ĠÐ° Ð¼
Ð°Ñģ ÑĬ
Ð²Ð¸ Ð´Ñ£
ĠÐ±Ñ£ Ð´
ĠÐ¿Ð° Ð½Ð°
ĠÐ²ÑģÑı ÐºÑĬ
ĠÑģÐ¾Ð± Ð¾Ð»
ĠÑĤÐ¾Ð¼ Ð¾
ĠÐ²Ð¾ÑĢ Ð¾ÑĤÐ°
ĠÐ´Ð°Ð½Ð¸ Ð»Ð°
ĠÑĢÐ¾ÑģÑĤ Ð¾Ð²
ĠÐºÑĢÑĬ Ð²ÑĮ
ĠÐ¸ ÑģÑĤÐ¾
ĠÑĤ ÐµÑģ
ĠÐ¿ÑĢ Ð¾ÐºÐ¾
Ð¾ÑĢ Ð¾Ð²
ĠÐµ ÑģÑĤÐ¸
ĠÑĥ ÑĤÐ°
Ð°Ð² ÑĮ
ĠÐ¼Ð½ Ð¾Ð¶ÑĮÑģÑĤÐ²Ð¾
ĠÑĤÑı Ð¶Ðµ
ĠÐ¼ÑĬ Ð½Ð¾Ð³Ð¾
ĠÐ¿êĻĭ ÑĤÑĮ
ĠÐ²Ð°ÑĪÐµ Ð¸
Ð½ ÐµÐ½Ð¾
ÑģÑĤ Ñı
Ð³ Ð°Ð½
Ð¾Ð» Ð¾Ð¿
ĠÐ° êĻģÑĮ
ÑģÐº ÑĮÑĸ
ĠÑ¡ Ð±Ð°
Ð½Ñĥ Ð»ÑĬ
ĠÑĪ Ðº
ĠÑģÑĤÐ°ÑĢ ÑĨÐ¾Ð¼
ĠÑķ Ð°
ĠÐ±ÐµÑģ ÐµÑĢ
ĠÐºÑĥÐ¿ Ð¸Ð»ÑĬ
ĠÑħÑĢÐ¸ÑģÑĤÐ¸ Ð°Ð½
ĠÐ¼Ñ¡ÑµÑģÐµ Ð¸
ĠÐ² Ñ¡
ĠÐ´ Ð¾ÑĢÐ¾
ĠÐ³ Ð²Ð¾Ð·
ĠÐ» Ñĭ
ĠÐĺ Ð²Ð°
ĠÑ¿ Ð¿êĻĭ
ĠÐ¿Ð¾ÑģÑĤÐ°Ð² Ð¸ÑĤÑĮ
ĠÑĥÑĩÐ¸Ð½Ð¸ ÑĤ
ĠÑģÐºÐ°Ð· Ð°ÑĤÐ¸
ĠÑģÐ½Ð°ÑĢÑı Ð´ÑĬ
ĠÐºÐ»Ð¸ Ð¼
ĠÐºÐ»ÑİÑĩ Ð½Ð¸ÐºÑ¹
ĠÐ¼Ð°ÑĤÑĥ ÑĪÐºÐ°
Ðµ ÑħÐ°
ĠÐ¸ ÐºÐ¾Ð½
Ñ£ Ð¼ÑĮ
ĠÐº Ð»Ð°Ð´
êĻĭ Ð¼Ñ£
ĠÐ¿ÑĢÐ¾ ÑģÑĤÑĢÐ°
ĠÐ¿ÑĢÐ¾ ÑĩÐµÐµ
ÐµÐ½ÑĮ Ð¸
ĠÐ±Ð¾Ð³ ÑĮ
ĠÐ¼Ð° ÑİÑĤÑĮ
ĠÑĢÐ¾Ð´ Ð¸ÑĤ
ĠÑģÐ¾ÑĤÐ²Ð¾ÑĢ Ð¸ÑĪÐ¸
ĠÐ¿Ð¾Ñĩ Ð°Ð»ÑĬ
ĠÑģÐºÐ¾ÑĢ Ð±Ð¸
ĠÐ¾Ð±ÑĢÑ£ ÑģÑĤÐ¸
ĠÑĢÐ¾Ð¼ Ð°Ð½
ĠÐºÐ¾ÑĢÐ° Ð±Ð»Ð¸
ĠÑģ Ð¾Ð´Ñ£
ĠÑģÑĭ Ð¸
ĠÐ´ÐµÑĢ Ð¶Ð¸
ĠÑģÐ° êĻĭ
ĠÑħÐ¾ ÑīÑĥ
ĠÑĢÑ£ ÑĨÑ£
ĠÐ¿Ð¾Ð± Ð¸Ð»ÑĬ
ĠÑĩÑĮ ÑĢ
ĠÐºÐ¸ ÑĢ
ĠÐ²Ð¿ ÑĢÐ¾Ðº
ĠÐ²ÑĢÑ£ Ð¼Ñ§
ĠÑĪÐ°Ð½ ÑĨÑĭ
ĠÐ´ÑĢÑĥÐ¶ Ð¸Ð½Ñĥ
ĠÐ²Ñ£ÑĤ ÑĢÑĬ
ĠÑĩÐ¾Ð» Ð¾Ð²Ðµ
ĠÐ²Ð¾ÑģÐºÑĢÐµ Ñģ
ĠÐ¿ ÑĤÐ°
ĠÐ½Ðµ Ð·
ĠÐ· ÑĢÑı
ĠÐ½Ð¸ ÑĦÐ¾Ð½
ĠÐ»Ñİ Ð±Ñı
ĠÐ´Ð¾Ð± ÑĢÑĥ
ĠÐºÐ¾Ð½ Ð´ÑĢÐ°
ĠÑģÐ° Ñħ
ĠÐ±Ð» ÑĥÐ´
ĠÑĨÑĢ Ñİ
ĠÐ±ÐµÑģ ÑĩÐµÑģÑĤÐ¸
ĠÐ±ÑĢÐ°ÑĤ ÑĸÐ¸
ĠÑĤÐ¸Ñħ Ð°Ð½
ĠÑĤ Ð°ÑĢ
ĠÐº Ð´Ñ£
ĠÐĴ ÑĤÐ¾ÑĢ
Ð²ÑĮ ÑĢÑĮ
ĠÐ¿Ð¾Ð¿ ÐµÑĨ
ĠÐ»ÑİÐ± Ð¸ÑĤÐ¸
ĠÐ³Ð»Ð° ÑģÐ¾Ð¼ÑĬ
ĠÐºÑĢÐ°Ñģ Ð½Ð¾
ĠÐ¦ Ð°ÑĢ
ĠÑĩÐµÐ»Ð¾Ð±Ð¸ÑĤÑĮ Ñı
ĠÐ´Ð¾Ð¼Ð¾ ÑĩÐ°Ð´
ĠÑĩ ÑĤÐ¸
Ð¾Ð¿ Ð¸Ñģ
ĠÐ²Ñĭ Ð¿
Ð¾Ð²Ñĭ Ð¹
ĠêĻģ Ð»Ð¾Ð±
ĠÐ²Ð· ÑıÐ²
ĠÐºÐ¾ÑĤÐ¾ÑĢÑĭ Ð¼Ð¸
ĠÐ²ÐµÑĢ Ð²ÑĮ
ÐºÐ¾Ð¼ êĻĭ
ÑĤÑ£ Ð¸
ÑģÑĤÑ£ ÑħÑĬ
ĠÐ±Ð° ÑĪ
ĠÐ¤ ÐµÐ´Ð¾ÑĢ
ĠÑģÐ¾Ð² Ð¾ÐºÑĥÐ¿
ĠÑ¡Ð±ÑĢÐ° Ð·
ĠÐ¡Ð¾Ð» Ð¾Ð²ÑĮÑı
ĠÐ²Ñ£Ð´ Ð¾Ð¼
ĠÐ²Ð¸ÑĤ ÐµÐ·
ĠÐ´Ð»Ð¸ Ð½Ñĥ
ĠÐĶÐ¾Ð±ÑĢÑĭÐ½Ñİ ÑĪÐºÐ°
ĠÐŁÐ¾ÑĤÐ°Ð½ÑĨÑĭ ÑıÐ½Ð°
ĠÑģ Ñģ
Ñħ Ð¾Ð½
ĠÐ½Ðµ Ñĥ
ĠÐ²Ñ£ ÑģÐ¾Ð¼ÑĬ
ĠÐ¿ÑĢÐ¾ ÐµÐ·
ĠÐ²Ð¾Ð» ÐµÑİ
ĠÐ¿Ð° Ð´Ð°
ĠÑģÐ¾Ð± Ð°ÐºÐ°
ĠÑģÑĥ Ð¶Ð´Ð°
ĠÑĨÑ£ Ð»
ĠÑıÐ·Ñĭ ÐºÐ¸
ĠÐĳÐ¾Ð¶Ð¸ Ð¹
ĠÐ·ÑĬ Ð»Ð¾
ĠÐĨ Ð²Ð°Ð½
Ñ¿ Ð²Ñ£
ĠÑĤÑĢÐµÑĤ ÐµÐ¹
ĠÑģÑĤÐ°ÑĢÑ£ Ð¸ÑĪÐ¸
Ð¸Ñħ Ð¾Ð¼
ĠÑĩÐµÐ» Ñ§
ĠâĢ Ļ
ĠÐºÐ½ÑıÐ· ÐµÐ¼ÑĬ
ĠÐ½Ð¾ ÑĩÐ¸
ĠÐ²ÑģÑı ÐºÐ°Ð³Ð¾
ĠÐ³ÑĢÑ£ ÑħÐ¾Ð¼ÑĬ
ĠÑģÐµÐ¼ êĻĭ
ĠÐºÐ°Ð· Ð½Ñĭ
ĠÐ¿ÑĢÐ¸ÑĪ Ð»Ð°
ĠÐ½ÐµÐ± ÑĢÐµ
ĠÐ²Ð¾Ð¹ ÑģÐºÑĥ
Ð´ÐµÑģÑ§ ÑĤÑĬ
ĠÐ¿ÐµÑĢÐµÑı ÑģÐ»Ð°Ð²
Ð· ÐµÐ¼
Ð½Ð¸ ÑĤÐµ
ÐµÑĤ ÑģÐµ
Ð¾Ð´ Ñ¹
ĠÐ· ÐµÐ»ÑĮ
ÑĢÑ£ Ð²ÑĬ
ĠÐµÐ»Ð¸ ÐºÐ°
ĠÑģÑĭÑģÐºÐ¸ Ð²Ð°ÑĤÐ¸
Ðµ ÑģÑı
Ð» ÑŃ
ĠÐ¿ÑĢ ÐµÐ»Ðµ
Ñĸ Ñĸ
Ð¸ÑĤ Ð¾Ð²
ĠÑı Ð¼Ñĭ
êĻĳ ÑģÐ»Ð¸
ĠÐ¸Ð· Ð¼Ð°
ĠêĻĭ Ð¼
ĠÐ¼Ñĥ ÑĩÐµ
ĠÑĩÐ¸ ÑģÑĤÑĭ
ÑģÐºÑĭ Ðµ
ĠÐ¿Ð¾ÑħÐ²Ð° Ð»Ð°
ĠÐ´Ð¾ÑĢÐ¾Ð³ Ðµ
ĠÐ» Ð¾Ð¿
Ð¶Ðµ Ð²
ĠÐ¾Ð± ÑģÑĤÐ¾
ĠêĻģ Ð´Ðµ
ĠÐ´Ðµ Ð»Ð°ÑĤÐ¸
ĠÑģÑĮ Ð´Ðµ
ĠÑģÑĮ ÑĤÐ²Ð¾ÑĢ
ĠÐºÐ½Ð¸ Ð³ÑĬ
ĠÐ²ÑĢÑ£ Ð¼Ðµ
ĠÐ´ÑĢÑĥÐ³Ð° Ñı
ĠÐ¸Ð´ ÑĤÐ¸
ĠÐ´Ð¾ÑĢÐ¾Ð³Ð¾ Ñİ
ĠÐµ ÑħÐ°ÑĤÐ¸
ĠÐ» Ð°Ð·Ð°ÑĢ
ĠÐ¾ÑĤ Ð²Ð¾Ð´
ÑĪÐ° Ð¹
Ð¾Ð²Ð° ÑĤ
ĠÑĢÐ°Ð· Ð±Ð¾Ð¸
ÑģÐºÑĭ Ð¹
ĠÐ¿Ð¾Ð½ Ð¸
ĠÑł ÑĤ
ĠÐ´Ð¾ÑģÑĤÐ¾ Ð¸Ð½ÑĬ
ĠÐ¿Ð¾Ð»Ð¾Ð¶ Ð¸ÑĤ
ĠÑĤÐ¾Ð³ Ñ¡
ĠÑĢÐ°Ð·Ð±Ð¾Ð¹ Ð½Ð¸ÐºÑĬ
ĠÐ¸ÑģÐºÐ° ÑĤÑĮ
ĠÐ´ Ñı
ĠÐ» Ñı
ĠÐ» ÐµÐ²Ð°
ÑĢÐ¸ Ð»Ð¸
ĠÐ¼Ð¾ ÑģÑĤÐ¾Ð²
ĠÐ¿Ð¸ Ð²Ð¾
ĠÐ³Ð»Ð°Ð³Ð¾Ð» ÐµÑĤÑĮ
ĠÑģÐ½ Ð¾Ð²Ð¸
ĠÐ½Ð°Ñĩ Ð°Ð»ÑĮ
ĠÐ²ÐµÑĩ ÐµÑĢ
Ġ 000
ÑĤ ÑĸÐ°
ÑĪÐ° Ð°
ÑģÑĤÐ° Ñı
ĠÐ²Ð¾Ð· Ð½ÐµÑģ
ĠÑģÑĥ ÑģÑ£
ĠÐĴÐ¾Ð»Ð¾Ð´Ð¸Ð¼ ÐµÑĢÑĬ
ĠÐ¿ Ð¸ÑĤÐ°
ĠÑĤ ÐµÐ»ÑĮ
Ð¸ÑĤ Ð°ÑĤÐ¸
Ð°Ðº Ð¾Ð¼
ĠÑ¿ Ð¸Ð´Ðµ
ÑĩÐ° ÑĪÐµ
ĠÑĨÑĢ Ñ§
ĠÐ³ÑĢ Ð¾Ð¼
ĠÐ´ÑĢÑĥÐ·Ð¸ Ð¸
Ð¼ ÐµÑĤÑĮ
ÑģÑĤ Ð¸ÑĤ
ĠÐ¾ ÑĢÐ°
ÑĤÐ¸ Ð¸
ĠÐ³ ÐµÑĢÐ°
ÐµÐ½ Ñ§
ĠÐ¡ Ð²Ñ£
ÑĩÑĮ Ñı
ĠÑģÐ°Ð¼ Ðµ
ĠÐ´ÑĢ Ð¾Ð²Ð°
ĠÑĢÑĭ Ð´Ð°
ĠÐ¾Ð³ Ð¾Ð²Ð¾ÑĢ
ĠÐ±ÑĥÐ´Ñĥ ÑĩÐ¸
ĠÐ»Ñ¹ ÑĩÐ¸ÑĤ
ĠÐ±Ð¾Ð»ÑĮÑĪ Ð¾Ð¼Ñĥ
ĠÐ¿Ñ£Ñģ Ð½Ð¸
ĠÐ¿Ð¾ÑĢÑ§Ð´ Ð½Ñ§
ĠÑģÑĤÑĢÑ£Ð»Ñı ÑİÑĤÑĬ
ĠÐºÐ°Ð±Ð° Ð»Ð°Ð¼
ĠÑĤ ÑĢÐµÐ¼
ĠÐ¼ Ð¾Ð»ÑĮ
ĠÑ¡ Ð»Ð³
ĠÑĤÐµ Ðº
ÑĤÑĭ Ð¹
Ð³Ð¾ÑĢ ÑĮ
ĠÐ»ÑİÐ± Ð²Ðµ
ĠÐ²ÐµÑģ Ñĥ
ĠÐ¼êĻĭ Ð¶Ð°
ĠÑĥÐ± Ð¸ÑĤ
ĠÐºÑĢÐµÑģÑĤÑĮÑı Ð½Ð¸Ð½Ð°
ĠÑģÑĤÐ²Ð¾ÑĢ Ð¸ÑĤÐ¸
ĠÐ²Ð°Ð² Ñµ
Ð³ÑµÐ¿ ÐµÑĤ
ĠÐ½Ð°Ð¸ Ð¿Ð°ÑĩÐµ
Ñģ Ð°Ð½
ĠÐ¸ Ð´ÐµÑĤ
ĠÐ½Ðµ Ð¿Ð¾Ð´Ð¾Ð±
ÑĩÐµ ÐºÑĬ
Ð¸Ð¼ Ðµ
ĠÐ¾Ñĥ Ð³
Ñ¥ ÑĪÐ¸
ĠÐ¶Ð¸ Ð²Ð¸
ĠÐ½Ð°Ð¿ Ð¾Ñģ
ĠÐ¼ÑĮ ÑĢÑĤ
ĠÐ¿ÑĢÑĸÐ¸ Ð´Ð¾ÑĪÐ°
ÑģÑĤÐ²Ð¸ Ð¸
Ð´ÐµÑģÑı ÑĤÑĬ
ĠÑģÑĥÐ¿ Ð¾ÑģÑĤ
ĠÐ²ÐµÑĢÑĮ Ñħ
ĠÑģ Ñ¡
ĠÐ½ Ð¾Ñĥ
Ñħ Ð°Ð»
ĠÐ³ Ð¾Ð²Ñ£
ĠÑĢ ÑĨÑĭ
Ð¶ Ð´êĻĭ
Ð¾Ñģ Ñĥ
ĠÑĢÐ° Ð±Ð¸
Ð½Ñ§ Ñ§
ĠÐķ Ð»Ð¸ÐºÐ¾
ĠÐ³Ð¾ÑĢÐ¾Ð´ Ð¾Ð¼
Ð»ÐµÐ² ÑĭÑħÑĬ
ĠÐºÑĥÐ¿ Ð¸Ð»Ð¸
ĠÐ¼Ñ§ Ñģ
Ð¸ÑĪÐ° ÑģÑı
ĠÐĸ Ð¸
ĠÑģÐµÐ´ Ð¼Ð¸
ĠÐ´ÑĢÑĮ Ð·
ĠÐ½Ð°Ð·Ð° Ð´Ð¸
Ð¸Ð¼ Ñ£
ĠÑĤÐµ ÐºÑĥ
Ð´ÑĮ Ñİ
ĠÑĢÑ£ ÑħÑĬ
ÑĪÑĤÐµ Ð¸
ĠÐ±ÑĢÐ°ÑĤ ÑĸÐµ
ĠÐ¾Ð±Ð° ÑĩÐµ
ĠÐ°Ð»ÑĤÑĭ Ð½Ð°
Ñģ Ð²Ð¾
ĠÐ¿ ÐµÑģ
Ð½Ð¸ ÑĩÐ°
Ñī ÐµÐ¼Ñĥ
ÑĩÐ¸ ÑħÑĬ
Ð¸Ñģ ÑĮ
ÑĨÐ° Ð¼
ĠÐ¿Ð¾Ð¼ Ð¸
ĠÑĤÐ° Ð±
ĠÐºÐ¾ÑĤÐ¾ÑĢ Ð¾Ñİ
ĠÐºÐ°Ð· Ð°ÐºÐ¸
ĠÑģÑĤÐ¾ÑĢ Ð¾Ð¶Ð°
ĠÐ³Ð¾Ð» ÑĥÐ±Ð¸
ĠÐ³ÑĢÐ¸Ð² ÐµÐ½Ð¾
ĠÐ¼Ñ§ ÑģÐ¾
ÑĤÐ² Ñ¹
ĠÐ¿Ð°Ð¼ Ñ§ÑĤ
ĠÐ¸Ð¼ÐµÐ½ ÐµÐ¼
ĠÐ²ÑģÑ§ÐºÐ¸ Ð¼ÑĬ
ĠÐ¿ÑĢÐ¾ÑģÑĤÐ¸ ÑĢÐ°
Ðµ Ñı
Ð¸ Ð¹
Ð½Ð¸ Ð¼Ð¸
Ð»Ð° Ð´Ð°
ÐµÑĢ Ð´
ÐºÐ° Ð°
ĠÐ¿ÑĢÐ¸ ÐºÐ»Ð°
ĠÐ·Ð° Ð³
ĠÑĤÐ²Ð¾ ÐµÐ¼êĻĭ
ÑĢÐ¾ÑģÑĤÐ¸ Ñİ
ĠÐ½Ð¾Ð³ Ð°ÑĤÑ£
ĠÐ¿ÑĢÐ¾Ð¼Ñĭ ÑģÐ»ÑĬ
ĠÑĩÐ¸ÑģÑĤ Ð¾Ð¼ÑĬ
ĠÐ¿ Ð¾ÑĢÐ¾Ð´
ĠÑĤ Ð¾Ð³Ð°
Ð± Ñ«
ĠÐ» ÐµÑĤÑĬ
ĠÐ²ÑĬ ÑģÐºÐ¾ÑĢÑ£
Ð¸Ð» Ñĭ
ĠÐ¿Ð¾Ð» Ð°ÑĤÑĥ
ĠÐ¸Ð¼ Ð¶Ðµ
ĠÑĪ Ð»Ð¸
ĠÐ¼Ñĥ ÑĢÐ¾Ð¼
ĠÐ¼Ñĭ ÑĤ
ĠÐ¿Ñ£ ÑĤÐ¸
ĠÐ¼Ð°Ð½Ð° ÑģÑĤêĻĳ
ĠÐ²ÑģÑ§ÐºÐ¸ ÑħÑĬ
ĠÐ»ÐµÐ² Ð¾Ð½
ĠÐ¸Ð¼ÑĮ Ð¶Ðµ
ĠÑĤÑĢÑı Ð¿ÐµÐ·
Â Ń
Ð¿ Ð»ÑĬ
ĠÐ· Ð»Ñ£
ÐµÐ½ ÑģÐºÐ¾Ð³Ð¾
ĠÐ²ÑĬ Ð²ÐµÐ´Ð¸
Ð¾Ñģ Ñı
ĠÐ½Ð¸ ÐºÐ¸
Ð°Ð¼ ÐµÑĤ
ĠÐ¢ ÑĢÐ¸
ĠÐ²Ñĭ ÑĪÑĮ
ĠÐ±ÑĢÐ° Ð½
ĠÑ¹ ÐºÑĢÐ°
ĠÑģÑĤÐ°ÑĢ ÑĭÐµ
ĠÐ¿Ð»Ð° Ð²Ð°
ĠÐ¿Ðµ ÑĩÐ¸
ĠÐ³Ð¾Ð²Ð¾ÑĢ Ð¸ÑĤ
Ð¶Ð´ ÐµÐ½
ĠÑģÐ²Ð¾ÐµÐ¼ Ñ¹
Ñģ Ð¾Ñĥ
ĠÐ² Ð»Ð¾Ð¶Ð¸
ĠÐ¿Ð¾Ð¼ Ð¸Ð»Ñĥ
ĠÑħÐ¾ ÑīÐµ
ĠÐ»Ñĥ Ðº
ĠÐ²Ð¾ÑĢ Ð¾Ð½
ĠÐ¾ÑĤÐ´Ð° Ð½Ñĭ
ĠÐ½Ð¾Ð²Ð³Ð¾ÑĢÐ¾Ð´ ÑĨÐ¸
ĠÑħÐ¾ÑĢ Ð¾Ð¼
ÑĢ ÑĤÑĮ
ĠÐ¿ Ð¾Ð²Ð¸
Ð· Ð±Ð°Ð²
ĠÐ³ Ð¾Ð¹
ĠÐ¿Ð¾ ÑĩÑĮ
Ñ¹ Ð¿
Ð¾Ð· Ð½Ð°
ĠÐĴ Ð¾Ð»ÑĮ
ĠÐ²Ñ£ Ð¶
ĠÑģÑĭ ÑĢÑĥ
Ð±Ð¾ ÑĪÐ°
ĠêĻ Ĭ
ĠÐ¿Ð¾Ð± Ðµ
ĠÐ¼ÐµÐ½ ÑĶ
ĠÐ¿ÑĢÐ¸Ð¸Ð¼ ÐµÑĪÐ¸
ĠÐ¿ÑĢÐ¾Ð³ Ð½Ð°
Ð»Ð¸Ð¼ Ð¿Ð¸Ñı
ĠÑģ ÐµÐ½Ð°
ĠÐ² Ð¸Ð½Ñĥ
ĠÐ½Ðµ Ð²Ð¾
ĠÐ· Ð¸
ĠÑĥ Ð¿
ĠÐ²ÑĬ Ð½Ð¸
ÑĩÐµ Ð²Ð°
Ð»Ñı Ð½
ĠÐ¿Ð¾Ð¼ Ð¾Ð¶Ðµ
ÑĢÑĭ Ð¸
ĠÐ¿Ð¾ÑĢ Ð°Ð·
ĠÐ±Ð¾Ð» Ñı
ĠÐ±Ð¾Ñı ÑĢÑĬ
ĠÐ½ÐµÐ¿ ÑĢÐµ
ĠÑģÑ¹ Ð´Ð°
ĠÐ¼Ð¾Ð¶Ðµ Ð¼ÑĬ
ĠÐ³ÑģÐ´ÑĢ Ð½Ð¸
ĠÐ²ÐµÐ· Ð´Ñ£
ĠÐ±Ð»Ð°Ð³Ð° Ñı
ĠÐ¸Ð¼ÑıÐ½ Ð½Ð¾
Ñģ ÑĨ
ÑĮ ÑĤÐ¾
Ð¾Ð² Ð»Ð°
ĠÐ¾ÑĤ Ð²ÐµÑĢ
ĠÑĢÐ° Ð¶Ð´Ð°
Ð¶Ð¸ ÑĪÐ¸
ĠÑģÑĤÑĢÐ° Ð½ÑĬ
ĠÑĤÐ²Ð¾ÑĢ ÑıÑĤ
ĠÐ³ÑĢ Ñ¹
ĠÑĢÐ¾Ð· Ð´Ð°
ĠÐ´Ð½ ÑĸÐ¸
ĠÐ½ÐµÐ´ ÐµÐ»ÑĮ
ĠÑĨÑ£ Ð»Ð¾Ð²Ð°
ĠÐ½Ð°Ð¿Ð° ÑģÑĤÑĮ
Ð¼ ÐµÐ½Ñĭ
ĠÐ½Ðµ Ð²ÐµÑĢ
Ñī ÐµÐ½ÑĬ
Ð°Ð¼ ÑĮ
ÑĤÐ° Ð°
ĠÐ½Ð°Ð¿ Ð¾
ĠÑĨÑĢ ÑģÑĤÐ²Ð¾
ĠÐ³Ð»Ð°Ð³Ð¾Ð» Ð°ÑĪÐµ
ĠÐ¿ÑĢÐ¾ÑĤÐ¸Ð² êĻĭ
Ð½Ñ« Ñ§
ĠÐ¼ÐµÐ¶ Ð´êĻĭ
ĠÑģÐ¸ÑĢ Ð¾ÑĤÐ°
ĠÑħÑĢÑģÑĤ ÑĹÑ§
ĠÐ½ Ð¾Ð³Ð¾
ĠÑĤ Ñ«
Ñħ Ð¾Ð²ÑĮ
ÑĤÐ¸ Ñ§
ĠÐ±Ð¾Ð³ Ð´Ð°
ĠÐ³Ð»Ð° ÑģÐ°
ĠÐ±Ð»Ð°Ð³ Ð¾Ð´Ð°ÑĤÑĮ
ĠÑģÐ¿ÑĢÐ°ÑĪÐ¸ Ð²Ð°ÑĤÑĮ
Ð´ÑĨÐ° ÑĤÐ¸
ÑĢ Ðº
ĠÐ» Ð°Ð´
ĠÑĥ Ð²
ĠÐ¿ÑĢÐ¸ ÑıÑĤÐ¸
ĠÐ¡ Ð¼
ĠÐ¿ÑĢÐ° Ð¿Ð¾ÑĢ
ĠÑĢÐ¾Ñģ ÑħÐ¾Ð´
ĠÐ´Ð°ÑĢ Ð¾Ð²Ð°
ĠÐŁÑĢ Ñĸ
ĠÐºÐ°Ð±Ð°Ð» Ðµ
ĠÑģÑĤÑĢÑ£Ð»ÑĮ Ð±Ð¾Ñİ
ĠÐ¿ÑĥÑĪÐºÐ°ÑĢ ÑģÐºÐ°Ð³Ð¾
ĠÐ±ÑĢÐ¾Ñģ Ð°ÑĤÐ¸
ĠÐ¿ÑĥÑĪÐºÐ° Ð¼ÑĬ
Ð¾Ð² Ð¸Ð½
Ð½Ð¸ ÑĨÑ§
ĠÐ½Ðµ ÑīÐ°
ĠÐ²Ñģ ÐµÐ»Ð¸
ĠêĻĹ Ð²Ð¸
ĠÐ¿Ð¾Ð´ ÑĢÑĥ
ĠÐ¿ÑĢÐ¾ êĻģ
ĠÐ±Ñ£ ÑģÐ¸
ĠÐ¸Ð¼Ñ£ ÑİÑĤÑĬ
ĠÐ²Ð¾Ð»Ð¾Ð´Ð¸Ð¼ ÐµÑĢÐ¸
ĠÐ·Ð´Ñ£ ÑģÐµ
ĠÐ¿ÑĢÐµÑĩÐ¸ÑģÑĤÑĭ Ñı
ĠÐ¼ÑĥÐ¶ Ñı
ĠÐ¶ÐµÐ¼ ÑĩÑİ
Ð½ ÐµÐ½Ñĭ
Ñ£ ÑĪÐµ
Ñĭ Ð½Ñı
ĠÐ¼Ð¾ Ð°
ĠÐºÐ¾ Ñı
ĠÑĤÐ° ÐºÐ°
ÑģÐºÑĭ Ñ§
ĠÐ¼ÐµÐ½ ÑĪÐ¸
ĠÑ³ÐµÐ´Ð¾ÑĢ Ð°
ĠÐ·Ð¾Ð» Ð¾ÑĤÐ°
ĠÐ½Ð°Ð¿Ð¸Ñģ Ð°Ð½
ĠÐ¶ÐµÑģÑĤÐ¾Ðº Ð¾Ðµ
Ð° êĻĹ
ÑĢ Ð³Ð¸
ĠÐ½ Ñ¥
ĠÐº Ð¾Ð´
ÑĪ ÐºÐ¾Ñİ
Ð± ÑĸÐµ
ÑĤÐ¸ Ðµ
Ð»Ð° Ñ§
Ð¶ Ð¸Ñħ
ĠÐ¶ ÑĢÑĬ
ÑģÐ¸ Ñİ
Ð¼Ð° Ð³Ð¾
ÑĥÑİ ÑĤ
ĠÐ±Ð» Ñ¹Ð´
ĠÐ¼Ð¾Ðµ Ñİ
ĠÑģÑĤÐ¾ÑĢ Ð¸
Ð½Ð¸ÑĨÐ° ÑħÑĬ
ĠÐ±êĻĭ Ð´Ðµ
ĠÐ¶ÐµÐ»Ñ£Ð· Ð¾
ĠÐ½Ð°Ð¿ÐµÑĢ ÐµÐ´Ð¸
ĠÐĴÐ»Ð°Ð´Ð¸Ð¼ ÐµÑĢÑĮ
ĠÑĥÑħ Ð²Ð°ÑĤÐ¸
Ð² ÑĪÑİ
Ðº Ð°ÑĢ
ĠÐ½ Ð¾Ð²Ðµ
Ñİ ÑĢÐ¸
ÑĤÐ¸ ÑģÑ§
Ð²ÑĬ ÑĪÐ¸
ĠÐ´ÐµÑĢ ÐµÐ²Ð¾
ÐµÐ½Ð¸ êĻĹ
Ð³Ð¸ Ð½Ð°
ĠÐ³Ð¾ÑĢÐ¾Ð´ Ð¾Ð¼ÑĬ
Ð¿Ð° Ð»Ð¸
ĠÐ²ÐµÐ»Ð¸ÐºÐ¸ Ñı
ĠÐ²Ð¾Ð»Ð¾Ð´Ð¸Ð¼ ÐµÑĢÑĮ
Ð¾Ð»Ñİ Ð±ÑĮ
ĠÐ»Ð°Ð² ÐºÐ¸
ĠÑħÑĢÑģÑĤ ÑĸÑ§
Ñĭ Ð½Ñ£
ÑĪ ÐµÐ»
ÑĪ ÑıÑĤÐ¸
ĠÐ¼ Ð°ÑĢÑĮ
ĠÐ¿ÑĢÐ¸ ÑĤÐ¸
ĠÐ¿Ð¾Ð» ÑĤÐ¸Ð½
ĠÑĤÐ°Ðº Ð¾Ð³Ð¾
ĠÐ²Ð¾Ð· Ð°
ĠÑģÐº ÑĢÑĬ
ĠÐ¼Ð¾Ð» Ð¾Ð²Ð¸
ĠÐ¼Ð° ÑģÑĤ
ĠÑĩÐµÑĢ ÐºÐ°
ĠÐ±Ðµ ÑĪÑĤÑĮ
ĠÐ¼Ð°ÑĤ ÐµÑĢ
ĠÐºÐ¾Ñĥ Ð½Ðµ
ĠÑģÐºÐ¾ÑĢ Ð±ÑĮ
ĠÐ²ÑĬÑģ ÑħÐ¾ÑĤÑ£
ĠÐ³ÑĢÐ¸Ð²ÑĮ Ð½Ð¾Ñĥ
ĠÐ¿ÑĢÐ¾Ðº Ð»Ñı
ĠÐ¿Ð¾Ð»Ð¸ ÑĩÐ½Ð¾Ðµ
ĠÑ»ÑģÐ¿Ð¾Ð´ Ð¸Ð½Ðµ
ĠÐļÐ°ÑĢ ÑĤÐ°
Ð´ Ð¸ÑĤÑĬ
Ñĭ Ð¼Ð°
Ñĩ Ð°Ð»ÑĮ
Ñ§ Ð½ÑĬ
Ñī Ñ«
Ð¼Ð¸ Ð½
Ð´Ðµ ÑĨÑĮ
Ð´Ð¸ ÑĪÐ°
Ð°Ñģ Ð¸
ĠÑĤÐ°Ðº Ð¾Ð²ÑĬ
ĠÑĦ Ð¸
ĠÑģÐ° Ð²Ð°
ĠÐ·Ð°Ð¿ Ð°Ð´
ÑİÑĤ ÑĨÐ°
ĠÐ³Ð¾ÑģÐ¿Ð¾Ð´ Ð¸Ð½ÑĮ
ĠÑĨÑ£ Ñģ
ĠÑĥÐ¼ ÑĢÐµÑĤ
ĠÐ¿ÑĢÐ¾Ð´ Ð°ÑĤÐ¸
ĠÐ½ÐµÐ¼Ð¾ ÑīÐ¸
ĠÐ½Ð°Ð¼Ñ£ ÑģÑĤ
ĠÑĤ Ð¸ÑĤÑĥ
ĠÐº Ð¾Ð³Ð°
ĠÐ³ ÑģÑĮ
Ð½Ð¸ ÑĨÐµÑİ
ĠÐ¿ÑĢÐ¸ Ð»Ñĥ
Ð´Ð¸ Ð¼
ÑĩÐ° ÑĤÑĬ
ĠÐ¿Ð¾Ð¼ Ð°
Ð¶Ð° Ñħ
ĠÐ±Ñ£ Ð»Ð¾
ĠÐ³Ð¾ÑĢ Ð¾
ĠÐµÑģ Ð¼ÑĬ
ĠÐļÐ¸ ÐµÐ²Ñĥ
ĠÐ³ÑĢÐ¾Ð± ÑĬ
Ð¿Ñģ Ð²Ð°
Ï ĥ
ĠÐ´ Ð½ÐµÐ¹
ĠÑĤ Ð²ÑĮÑĢ
ĠÐ¼ Ð¸Ð»Ñĥ
Ñ§ ÑģÐ»Ð°Ð²
ĠÐ· Ð±
ĠÑħ Ð°Ð½Ð°
ÑĩÐ¸ Ð¼Ð¸
ĠÐ¿ÑĢÐ¾ Ðµ
Ð¼Ñ£ ÑĢ
ÑİÑī êĻĭ
ĠÑĤÑĮ ÑĢ
Ð²ÑĢÐ° ÑĤ
ĠêĻģÐµÐ¼ Ð»Ñİ
ĠÐ»ÑĮ ÑģÑĤÐ¸
ĠÐ¿Ð¾Ð»Ñĥ Ð½Ð¾
ĠÐºÐ¾ÑĢÐ¼Ð¸ ÑĤÐ¸
ĠÐ± ÑĢÑĥ
ĠÐ± ÑĥÑĤ
Ñĩ ÐµÑĢ
ĠÐµ Ð´Ñĥ
Ð²Ð° ÑħÑĬ
Ð½Ð¾ ÑĥÑİ
ĠÐ¡ ÑĤÐµ
ÑĤÐ° ÑĤÐ¸
ĠÑ¥ Ð³Ð¾Ð¶Ðµ
ĠÐ´Ñĥ ÑĪÐµÑİ
Ñ³ Ðµ
ĠÑģÑĤÐ¾ ÑıÑĤÑĬ
ĠÑģÐµÐ¼ Ñ¹
ĠÑģÐºÐ°Ð· Ð°Ð»
ĠÐ²Ð½Ð¸ Ð·ÑĬ
ĠÐ¿ÑĢÐ¸Ð½ÐµÑģ Ðµ
ĠÐ²Ð·Ñ§ ÑĪÐ°
Ð¿Ð¸ÑģÐ° Ð½Ð¾
ĠÐ¿Ð¾Ð´ÑĮÑı ÑĩÐµÐ¼Ñĥ
ĠÐ¢ÑĬ Ð³Ð´Ð°
n i
ÑĤ ÐµÐ¼
Ð´ Ð¾Ð²Ð°ÑĤÐ¸
Ñħ ÑĢÐ¸
ĠÐ¼ Ð°Ð»ÑĬ
ĠÐ¾ÑĤ Ð¿Ð¸Ñģ
ĠÐ¾Ñĥ Ð±Ð¸
ĠÑĤÐµ Ð±ÑĶ
ĠÐ²Ñ£ Ð´Ñĥ
ĠÐºÐ°Ðº Ð¾Ð²Ð¾
ĠÑģÐ¼ ÐµÐ½Ð°
ĠÑģÑĤÐ¾ Ñ§
ĠÐ½Ð¸Ðº Ð¾Ð³Ð´Ð°
ĠÑģÐ²ÑıÑĤ Ð¾Ð¼Ñĥ
ĠÐ¿Ð¾ÑħÐ¾ ÑĩÐµÑĤ
ĠÑģÐ»Ñ£ Ð´ÑĬ
ĠÐ´Ñī ÐµÑĢÐ¸
ĠÐ¸Ð³ÑĥÐ¼ ÐµÐ½ÑĬ
ÑĤ ÐºÐ¾
Ñĩ Ð°ÑĢ
ĠÑĢ Ð¾Ð¶
ĠÑĢ Ð¾ÑĤÑ£
ĠÐµ ÑĢÐ¼
ĠÑĥ Ð¿Ð¾Ð²Ð°
ĠÐ·Ð° ÑģÑĤÑĥÐ¿
ĠÐ²Ñĭ ÑĤ
ÐºÐ¾Ð¼ Ð¾Ñĥ
ĠÐ´ÐµÑĤ Ð¾
Ð½Ñ« ÑŃ
ĠÐ³Ð½Ñ£ Ð²
ĠÐ¿Ð¾ÑģÑĬ Ð»Ð¸
ĠÐ½Ð°ÑģÐ» ÐµÐ´
ĠÑĤÑĢÐ¸ÑĤ ÑĨÐ°ÑĤÑĮ
ĠÑģ ÑĢÑĮ
ÑģÐº Ñ¹Ñİ
ĠÐľ ÑĮ
ĠÐ²Ð¾Ð» Ð¾ÑģÑĤÑĮ
ĠÑģÑĥ ÑīÐµ
ĠÐ²Ð»Ð° Ð´
ÑīÐµÐ½ ÑĸÐ°
ĠÑģÐ¾Ð» Ð½
ĠÐ¿Ð¸ÑģÐ° Ð»Ð¸
ĠÑģÐ¾ÑĢ Ð¾ÐºÐ°
ĠÐĺÐ²Ð°Ð½ Ð¾Ð²Ð¸ÑĩÑĮ
ĠÐŁÑĢÑ£ Ð¼
ĠÐ¿Ð¾Ð¼Ð¸Ð» Ð¾Ð²Ð°
ĠÐ½Ð°ÑĢÐ¸ÑĨÐ° ÐµÐ¼
ĠÐºÑĤ Ð¾Ð¼êĻĭ
ĠÐ¼ êĻĭÐ´
ĠÐ¼ Ð¾Ð¶Ð½Ð¾
ĠÐ½Ð° êĻĭ
ĠÐ½Ðµ Ð±Ñĭ
Ñī Ð¸Ð½Ñĥ
ĠÐ¿ÑĢÐ¸ Ð·Ñĭ
Ð°Ð² ÑĪÐ¸
ĠÐŁ ÑĢÐ°Ð²
ĠÐ¿ÑĢÐ¾Ñģ Ñ§
ĠÐ±ÑĢÐ°ÑĤÑĮ Ñı
ĠÐ½Ð°ÑĢ Ð¾Ð´ÑĬ
ĠÐºÑĢÑĭ Ð»ÑĮ
ĠÑģÐ¸Ð±Ð¸ ÑĢ
ĠÐ² Ð½
ĠÐ½ Ð±Ð¾
ĠÐ· Ð¾Ð±
Ñĸ ÑĤ
Ð¾Ð½ Ñ§
Ð¾Ñģ Ð¸Ð¸
Ð¸Ð½ Ñ¹
Ð¸Ñģ Ñĥ
ĠÐºÐ°Ðº Ð¸Ñħ
ĠÐĵ Ð¾ÑĢ
Ñķ Ð¸
ĠÑģÐ²ÑıÑĤ ÑĭÑħÑĬ
ĠÐŁÐ¾ÑĤ Ð¾ÐºÑĬ
Ð·Ð°Ð½ Ñ£
ĠÐºÐ°Ð·Ð½Ð° ÑĩÐµ
Ð° Ð½Ð¸
ĠÐ» Ð¾Ð³
ĠÐ¿ÑĢÐ¸ Ð»Ð°Ð³Ð°
Ð¼Ð¸ Ð½Ð°
ÑĩÑĮ Ðµ
ĠÐ±Ð¾Ð³ Ñĥ
ĠÐķ Ð´Ð°
ĠÐ¿ÑĢÐ°Ð² Ð´Ñĭ
ĠÑħÐ¾Ð»Ð¾Ð¿ ÑģÑĤÐ²Ð¾
ĠÐ½Ð°Ñģ Ð¸Ð»
ĠÐ±Ð¸ÑĤÐ¸ ÑģÑı
ĠÐ¤ ÐµÐ¾Ð´
ĠÑĥÐµÐ· Ð´
ĠÐ¿ÑĢÐ¾Ðº Ð»Ñ§
ÑĤÐ²Ð° Ð¼Ð¸
ĠÐĴÑģ ÐµÑģÐ»Ð°Ð²ÑĮ
ĠÐ±Ñ§ ÑħêĻĭ
ĠÐľÐ°Ð³Ð¸Ð» ÐµÐ½Ð°
Ï ī
ÑĢ Ñģ
Ð» ÐºÐ¸
ĠÐ¾ ÑģÐ»Ñĥ
ĠÑĨÐ°ÑĢ ÐµÐ¹
ĠÐ¼Ð¸Ð»Ð¾ ÑģÑĤÑĭ
ĠÐĹ Ð»Ð°
Ð¿Ñĥ ÑģÑĤÐ¸
ĠÐ´Ð¾Ð±ÑĢÐ¾ Ð¸
ĠÑĩÑĢÐµ Ð·ÑĬ
ÑĤ Ð²ÑĮ
ĠÑģ Ð±Ð¾ÑĢ
ĠÐ¿ Ð¾Ð²Ð°
ĠÑĢÐµ ÑĩÐµÐ½
ĠÐ²ÑĬÐ· ÑĬ
Ð»Ñĭ ÑħÑĬ
ĠÐ²Ðµ ÑĩÐµÑĢÐ°
ĠÑģÑĮ Ð¼ÑĮ
ĠÐ¼Ñĭ ÑĪ
ĠÐ¸Ð¼ÐµÐ½ Ð¾Ð²Ð°Ð½
ĠÐ³Ð¾ÑĤ Ð¾Ð²Ð¾
ĠÐ²ÑĬÑģÐ¿ ÑĢÐ¸
Ð´ Ð¾Ðº
Ð· Ð½Ð¾
Ð»Ð¸ Ð²Ñĭ
ĠÑģÑĤ êĻĳ
ĠÑ¡ ÑģÑĤÐ°ÑĤ
ĠÐ¿Ð¾Ð¼ Ð¾Ð³Ð°
ĠÑĦ ÐµÐ²ÑĢÐ°
ĠÐ²Ð¾Ð» Ñ§
ĠÐ´Ð¸ Ð²Ð¸
ĠÑł Ð½Ð¸
Ð½êĻĳ Ñ§
ÑİÑī Ñ¹
ĠÑģÐºÐ° Ð¶Ð¸
ĠÑĩÑİÐ´ Ð¾Ð²
ĠÐ¼ÐµÐ¶ Ñİ
ĠÐºÐ°ÑĢÐ° Ñĥ
ĠÐ¿ÐµÑĤÑĢÑĥ ÑĪÐºÐ°
ĠÐ½ Ð½Ñ£
Ð³ Ð°Ð»
ĠÐ± Ð¸Ð»Ð¾
Ñĩ ÐµÐ½ÑĮ
ĠÐ¿Ð¾Ñģ ÑĢÑ£
ĠÐºÐ¾ ÑģÑĤÐ°Ð½
ĠÐ»Ð¸ ÑĪ
ĠÐķ Ð²
ĠÐºÑĥ Ð½
Ð½Ð¾Ð¼ ÑĮ
ĠÑĤÑı Ð³Ð»Ñĭ
ĠÐ¼êĻĭ Ð¶ÑĸÐµ
ĠÐºÑĢÑĥ Ð³Ð¾Ð¼ÑĬ
ÑģÑĤÐ²êĻĭ Ð¸
ĠÐ±ÐµÐ·Ñĥ Ð¼ÑĮ
Ñħ Ð²Ð°
Ð¶ Ð¸ÑĤÐµ
ĠÑĤÐµ ÑħÑĬ
ĠÐ²Ñĭ Ð´Ð°ÑĤÐ¸
ĠÐºÐ¾Ð½ ÐµÑĨÑĮ
ĠÐ¿ÑĢÑ£ Ð·ÑĮ
ÑģÑĤÐ°Ð½ ÐµÑĤÑĮ
ĠÐ½ÐµÐ±ÐµÑģ Ðµ
ĠÐ¿ÑĢÐ¾ÑĢ Ð¾Ðº
ĠÐ½Ð°Ð¿ÐµÑĢ ÐµÐ´ÑĮ
ĠÐ²Ð¾ÑĤÑĩÐ¸Ð½Ð° Ñħ
ĠÑħÐ¾ÑĩÐµ ÑĪÑĬ
ĠÐ½Ñĥ Ð¶
ĠÐ¿ÑĢÐ¸ÑģÑĬ Ð»Ð¸
ĠÐ»Ð¸ÑĨÐµÐ¼ Ñ£
ÑĤ Ð°Ð½ÑĬ
Ñģ ÐµÐ´
Ðº Ð¾ÑĢ
ĠÐ² Ð¸Ð½Ðµ
ĠÐ½Ð° Ð³
ĠÐ° Ð±Ñĭ
ĠÑģÑĤ ÑĢÐµÐ¼
Ð¶Ðµ Ð½Ñĭ
Ð°Ð½ ÑĸÐ¸
ĠÑģÑĬ ÑħÑĢÐ°
ĠÑĢÐ°Ð· Ð»Ð¸
ĠÐºÐ°Ðº ÑĥÑİ
ĠÑģÐ¿ Ñĥ
ĠÐ´Ñĥ ÑħÐ°
ĠÐł Ñ£
ĠÐ¸ÑģÐ¿ Ð»ÑĬ
ĠÐ£ ÑģÐ»ÑĭÑĪÐ°
ĠÐ¿Ð» Ð¾Ð´Ð°
ĠÐ±Ð¸ ÐµÑĤ
ĠÑħÑĢÐ°Ð± ÑĢÑĭ
ĠÐĴÐ»Ð°Ð´Ð¸Ð¼Ð¸ ÑĢÑĥ
ĠÑģÐ°Ð» Ð´Ð°
Ð± Ð»Ðµ
Ð¾Ñģ Ð»Ð°
ÑĤÐ° Ð¸
ĠÑĢÐ°Ð· Ð´
ĠÑģÑĤÐ°ÑĢ Ñ£Ð¸
ĠÐ¿Ð¾ÑĤ ÑĢÑ£Ð±
ĠÐł Ñĭ
ĠÑģÑĤÐ° Ð´Ð¾
ĠÑģÐµÐ» ÑĨÐ¾
ĠÐ¼êĻĭ Ð¶ÐµÐ¸
ĠÐ¼Ð¾ÑģÐºÐ¾Ð² ÑģÐºÐ¾Ð¼
ĠÐ±Ð¾ÑĢÐ¸Ñģ Ñĥ
ÑĢÐ¾Ñĩ Ð½ÑĭÐµ
ĠÐ¿Ð¾ÑģÑĢÐµÐ´ Ð¸
ĠÐ´Ð²ÐµÑĢ Ð¸
ĠÐ¿Ð¾ÑģÑĤÑĢÐ° Ð´Ð°
ĠÐ¿Ð¾ÑĩÐµ Ð»Ð°
) ,
Ð² ÑĢ
Ð½Ð¸ Ð»Ð¸
ĠÐ° ÑģÑ£
ĠÐ· êĻĭ
êĻĭ Ð´Ð¸
ĠÑĨ ÑĢÐ°
ĠÐ¿Ð¾Ð» ÑĤÐ¸
Ð´Ð¾ ÑħÐ¾Ð¼ÑĬ
ĠÐ¿ÑĢÑ£ ÑģÑĤÐ°Ð²Ð¸
ĠÐ¼Ð¾Ð» Ñ§
Ð´Ð¸Ð½ ÑĮ
ĠÐ²ÑĢÐµÐ¼ ÐµÐ½
ĠÐ´ÐµÐ» Ð¾Ð¼
ĠÐ¿Ð¾ÐºÐ° êĻģÐ°
ĠÐ±Ñĥ Ð¹
ĠÐ²Ð·Ñ§ Ð»ÑĬ
ĠÐºÑĭ Ñ¥
Ð»ÑĶ Ð²Ñĭ
ĠÐ¶Ð¸Ð²Ð¾Ð½Ð° ÑĩÐ°Ð»
ĠÐ¿ Ð¾Ð½Ð°
Ð³ Ð½êĻĭ
Ñĩ Ð½Ð¾Ñİ
ĠÐ¾ ÑĨÐ°
ÑĨ Ð°ÑĢ
ĠÑĥ Ð¶Ð°Ñģ
ĠÑģÑĤ Ð¾Ð¿
ĠÑĢÐ° Ð´Ð°
ÑĪÐµ Ð²Ð¾
ĠÐ¶ Ð²Ð¾
ĠÐ²Ð° Ñİ
ÑħÐ¾Ð´ Ð¸ÑĤÑĬ
ĠÐ´Ð¾Ð² Ð¾Ð»ÑĮ
ĠÐĵÐ¾ÑģÐ¿Ð¾Ð´ Ð½Ñı
ĠÐ²Ð°ÑģÐ¸Ð»ÑĮ ÐµÐ²Ð°
ĠÐ¿Ð¾Ð· Ð²Ð°
ĠÐ¾Ð±ÑĢÑ£ ÑĤÐ°
ĠÑĤÑĭÑģÑı ÑĩÑĮ
ĠÐ¿Ð¾Ð¼Ð¸Ð» Ð¾Ð²
ĠÐ³ÑİÑĢ Ð³Ð¸
ĠÐ´Ð¾Ð±ÑĢÐ¾Ð´Ñ£ ÑĤÐµÐ»
ĠÑģÑĤÐ°ÑĢÐ° Ð³Ð¾
Ñī ÑĭÐ¼ÑĬ
Ð°Ð½ êĻ¿
ĠÑ¿ Ð¿Ð°
ĠÐ²Ñĭ Ð¼Ñĭ
ĠÑĢÑĥ Ñħ
ĠÑģÐ¸ Ð¹
ĠÐ²Ð¾Ð· Ð´Ñĥ
ĠÐ²ÑĬÐ· Ð½ÐµÑģ
ÑİÑī ÑĸÐ¸
ĠÐºÑĢÐ°Ð»ÐµÐ² Ð½Ñĭ
ĠÑģÐ²Ð¾ÐµÐ¼ Ð¾Ñĥ
ĠÐ±Ð¾Ð¶Ð¸ Ñı
ĠÐ±Ð¾Ð»ÑĮÑĪ Ð¾Ð¹
ĠÐŁÐ¾Ð» ÐºÐ°
ĠÐĵÐ»Ð°Ð³Ð¾Ð» ÐµÑĤÑĮ
Ð½ Ð¾Ð²ÑĬ
ĠÑģ Ð¾Ð¼
ĠÐ¿Ð¾Ð¶Ð°Ð» êĻĭÐ¸
ĠÐ²Ð·Ñı ÑĤÐ¾
ĠÐ¾ÑĤÑĮ ÑĨÑĮ
Ñħ Ð¾Ð¼ÑĮ
ĠÐ¾ ÑĨÑ£
ĠÐ½Ð° Ð³Ð°
ÑĪÐ° Ñ§
ÑĪÐ° ÑĪÐµ
ĠÐ³Ð¾ÑģÑĥÐ´Ð°ÑĢ ÐµÐ²
ĠÐ¿Ð¾Ðº ÑĥÐ¿
ĠÐ½Ð°Ð¿ Ð¾Ð»Ð½Ð¸
ĠÑģÑĬÑĤÐ²Ð¾ÑĢ Ð¸Ð»ÑĬ
Ð°Ð½ÑĮ Ð¸
ĠÐ±Ð¾Ð³Ð°ÑĤÑĭ ÑĢÐµÐ¹
ĠÐ¼Ð°Ðº Ð°ÑĢ
ĠÐ¼Ð»Ð° Ð´Ð°
ĠÐ¾Ð±Ð¸ Ð´Ð¸
ĠÐ´Ð¾Ðº Ð»Ð°Ð´Ñĥ
ĠÐ¿ÑĢÐ¸Ð±Ð»Ð¸ Ð¶Ð¸
Ï Ĥ
ÑĤ Ð¾Ð¼Ñĥ
ĠÐ¿Ð¾ ÑģÑĤÐ°
ĠÐ· Ð´Ð°
ĠÑĥ ÑħÐ¾
ĠÐ²Ð¾ Ñİ
ĠÐ¾Ñĥ ÐºÑĢÐ°
ĠÑģÐ» Ð¾Ð²Ñĭ
ĠÐ¿ÑĢÐ¾ ÑģÑĤÑĮ
ĠÑĶ Ñģ
ÑīÐ° Ñ§
ĠÐ¿ÑĢÑ£ Ð±ÑĭÐ²Ð°
ÑħÐ¾Ð´ Ñ§
ĠÐ¸Ð¼Ñ£ Ñı
ĠÐºÐ¾Ð» Ð°
ĠÐ¿ÑĢÐ° êĻģ
ĠÐ¸Ð¼ÐµÐ½ ÑĥÑİÑĤÑģÑı
ĠÐ»Ñ¹ Ñĩ
ĠÐ²Ð»Ð°Ð´Ñĭ ÐºÐ°
ĠÐ¿Ð¾Ð³ÑĢÐµ Ð±Ðµ
ĠÐ¿Ð¸ÑģÑĮ Ð¼Ð°
ÐºÑĢÐµ ÑģÑĤÑĬ
Ð¼ Ð¾Ð¶Ð½Ð¾
ĠÐ²ÑĬ Ð¿ÑĢÐ¾Ñģ
ĠÐ¿ÑĢÐ¸ Ð¿Ð¸Ñģ
Ð¾Ðº Ð¾Ð²
ÑĢÑ£ Ð»Ñı
ĠÐºÐ¾Ð½ ÐµÑĩ
ĠêĻĭ Ð·
ĠÑ§ ÐºÐ¸
ĠÑĩÐµÑĢ Ð²
ĠÐ°Ð½ ÑĤÐ¸
ĠÐ»Ðµ Ð±
ĠÐºÐ¸ ÐµÐ²ÑĬ
ĠÐ¼Ð¸ÑĤ ÑĢÐ¾
ĠÑģÐ¾Ðº ÑĢÐ¾Ð²Ð¸
ĠÐ²ÑĮÑģÑ£ Ð¼ÑĬ
ĠÐ¿ÑĢÐ¾ÑģÑĤ Ð¾ÑĢ
Ð»Ð¾Ñģ Ñı
ĠÐ¿Ð°ÑĪ Ð½Ñİ
Ð» Ð¾Ð²ÑĬ
ĠÐ¿Ð¾ ÐµÑħÐ°Ð»Ð¸
ĠÑı ÐºÑĥ
Ð½Ðµ ÑĪÑĮ
ĠÐºÐ° Ð¿Ñ¹
Ð¼Ñĭ Ð¸
ĠÐºÐ°Ð· Ð½Ñĥ
ĠÐ¾Ñģ Ð¼ÑĮ
Ð¾Ð½Ð¸ Ñİ
ĠÐ²Ð¾Ð»Ð¾Ð´Ð¸Ð¼ÐµÑĢ Ñĥ
ĠÑģÐµÐ½ ÑĤÑıÐ±ÑĢÑı
ĠÑ¿Ð½Ñİ Ð´
ĠÐ²Ð·ÐµÐ¼ ÑĪÐµ
ĠÑģ Ð¾ÑĤÑĬ
ĠÐ½ Ð¾Ð²Ñĥ
Ð³ Ð°Ð»ÑĬ
Ð³ Ð½ÐµÑĤÑĮ
Ð¾Ð´ ÑĢÑĬ
ÑĥÐ´ Ð¸ÑĤÐ¸
ĠÑ¡ ÑģÑĤÑĢ
ĠÐ¿Ð¾Ð» ÑĥÐ´
Ð¾Ð²Ð¸ ÑĨÐ°
ĠÐļ Ð½Ñ§
ĠÐºÐ½ÑıÐ· Ðµ
ĠÐ²ÑĬÐ· Ð´ÑĭÑħÐ°
ĠÐ¼ÐµÐ½ Ð¾Ð²
ĠÐ·Ð»Ð° Ñı
ĠÐºÐ¾Ð» Ð¾Ð´
ÑĤÐ² ÑĢÑĬ
ĠÐ¾Ð´ Ð½
ĠÐ² Ñı
Ð¾Ð² Ð¾Ð¹
ĠÐ³ Ñĭ
ÐµÐ´ Ð¸Ð½
ĠÐ¿Ð¾Ð´ Ð²Ð¾Ð´
ĠÑĶ ÑģÐ¼ÑĮ
ĠÐ»Ñ£ Ð½Ð¸
ĠÐ¼Ñĥ Ð¶ÑĬ
ĠÐ¼Ð½Ð¾Ð³ ÑĬ
ĠÐ½Ð¸Ñħ ÑĤÐ¾
ĠÐ³Ð» ÑĤÑĮ
ÑĪÑĤ ÐµÑĤÑĮ
ĠÐ¸ÑģÑĤ Ð¾ÑĢ
ĠÐ¼Ð°Ðº ÐµÐ´
ĠÐ¼Ð¾ÑģÐºÐ¾Ð² ÑģÐºÐ¸Ñħ
ĠÐ¾Ð» ÑĤ
ĠÐ¿ÑĢÐ¸Ð½Ð¾ Ñģ
ĠÐ¾ÑĤÑĢÐ¾Ðº Ð°
ĠÐ¾Ð±Ð»Ð° Ð´Ð°
ĠÑĤÐ¸ÑĤÑĥ Ð»ÑĬ
ÑĢ Ð»
ÑĢ Ð¸ÑĤÐµ
Ñģ Ð¾Ð²ÑĬ
Ð» ÑĸÐµ
Ð² ÑĥÑİ
ĠÐ² êĻģ
ĠÐ¿ÑĢ Ð¾Ð±
Ð¾ÑĢ Ñĭ
ĠÐ» Ð¾Ð²Ñ£
ĠÐ·Ð° ÑīÐ¾
Ð»Ðµ Ð¶Ð°
ĠÐ±ÑĥÐ´ ÑĮ
ĠÐ²ÐµÑĢ ÑħÐ¾Ð²
ĠÐ¿Ð¾Ð½ Ð¾Ñģ
ĠÐ·Ð½Ð° ÑĤÑĮ
ĠÐºÐ¾Ñĥ Ð½
ĠÐ´ÐµÑģ Ñ§ÑĤÐ¸
Ð¶Ð´ Ñ«
ĠÐºÐ»Ð° ÑģÑĤÐ¸
ÑĨÐºÐ¸ Ð¼
ĠÐ·Ð´ÑĢÐ°Ð² ÑĸÐµ
ĠÐ¿Ð¾ÑħÐ¾ÑĤ ÑıÑĤ
ÑĪ ÐºÐ¾Ð²
ÑĤÐ¸ Ñİ
ĠÐ½Ðµ Ð¸Ñģ
ĠÐ¼Ð¾ ÐµÐ¼
ĠêĻĹ ÑĢÐ¾ÑģÐ»Ð°Ð²
ĠÑģÐ¸ ÑĢÐµÑĩÑĮ
ÑģÑĤÐ² ÑĮ
ĠÐ¼Ñ£ Ð´
ĠÑ¡Ð± ÑĮ
ÑģÑĭ Ð»Ð°ÑĤÐ¸
Ð¸Ð´ ÐµÑĤÑĬ
ĠÐ¿Ð¾Ð±Ñ£ Ð´
ĠÐ·ÑĬ Ð»Ñĭ
ĠÐ¼Ð½Ñ¡ Ð³Ð°
ĠÐ¿ÑģÐº Ð¾Ð²
ĠÑģÐ»ÑĥÐ¶Ð¸Ð» ÑĭÐµ
ĠÐ±Ð»Ð°Ð¶ÐµÐ½ Ð½ÑĭÑı
ĠÐ¸ ÑģÑĤÐ¾Ñĩ
ĠÐ¾ Ð³Ð¾ÑĢÐ¾Ð´
ĠÐ· Ð³
Ð²Ð° ÑİÑĤÑĮ
ĠÐ¿ÑĢÐ¸ Ð´ÐµÑĤÑĮ
ĠÐĲ Ð²ÑĢÐ°
êĻĳ ÑĢÐ¸
Ð¸Ð¼ Ð¸ÑĤ
Ð»Ñı Ð´Ð¸
ĠÐ¼Ñ£ Ð´Ñ§
ĠÐ²ÐµÑĢ ÑģÑĤÑĬ
ĠÑ£ ÑħÐ°ÑĤÐ¸
Ð°Ð²ÑĬ ÑĪÐµ
ĠÑģÐ²Ñı ÑĤÐµÐ¹
ĠÐ²Ð°ÑĪ ÐµÐ¼Ñĥ
ĠÐ¶ÐµÑĢÐµÐ±Ðµ Ð¹
ĠÑģÐ°Ð¼Ð¾Ð´ÐµÑĢ Ð¶
ĠÐŁÐ°Ðº Ñĭ
ĠÐ¸ Ñī
Ñı Ð·Ð¸
âĢ ĵ
ĠÐ²Ð¾Ð· ÑĮÐ¼Ð¸
ÑģÐ° Ð½Ð°
ĠÑĥÐºÐ°Ð· Ð°Ð»ÑĬ
ĠÑģÑĥ Ð½
ĠÑģÐ¾ÑĤÐ²Ð¾ÑĢ Ñİ
ĠÐ»Ðµ Ñµ
ĠÐ²ÑģÑıÐºÐ¸ Ð¼ÑĬ
ĠÑģÐµÑĢÐ´ ÑĨÐµÐ¼ÑĬ
ĠÑĢÐ°Ð± Ð¾ÑĤÑĭ
ĠÑĥÐ³Ð¾Ð´ ÑĮÑı
ĠÑģÑĤÐ¾Ñı Ð»Ð¸
ĠÐ´ÑĢÐ¾Ñĥ Ð³Ð°
ĠÑĤÑĢÑĮ Ð¿Ñ£
ĠÑģÐ¾Ð²ÐµÑĢ ÑĪÐµÐ½
ĠÐ¿ÑĢÐ¸Ð»Ð¾Ð¶ Ð¸Ð»
ĠÐ¤Ð¸Ð»Ð¸ Ð¿
ĠÐ·Ð°Ð¿Ð¾Ð² ÐµÐ´Ð¸
â ģ
Ñģ Ð½Ð°
Ñĩ ÐµÐ²
ÑĢÐ° Ð·Ñĥ
ĠÐ¿ÑĢÐ¸ Ð½ÐµÑģÑĤÐ¸
Ð°Ð½ ÑĸÑİ
ĠÑģÐ¾Ð± Ñı
ĠÐºÑĢÐµ ÑģÑĤÐ°
Ð±Ð° ÑħÑĬ
ĠÐ²Ðµ Ñī
ĠÐºÐ½ Ð·
ĠÐ¢Ñ£ Ð¼Ð¶Ðµ
ĠÑģÐ¾Ðº Ð¾Ð»ÑĬ
ĠÐ¡Ð»Ñĭ ÑĪÐ¸
ĠÐĳÐ¾Ð» Ð³Ð°ÑĢ
Ð» ÐµÑĤÐµ
ÑĮ Ð¼ÑĬ
Ðº ÑĪÐ¸
Ð´ ÑĢÑİ
ÑģÑĤ êĻ¿
ĠÑĢ ÐµÐ´
ĠÐ´Ð° Ñİ
ĠÑģÑĤ ÑĥÐ´
ĠÐ¾ÑĤ Ñģ
ĠÐºÐ¾ ÐµÐ¼Ñĥ
ĠÐ²ÐµÐ» Ðµ
ĠÐ¿Ð¾Ð¿ Ð¾ÑĢÑĤÐ¸
ĠÑĤÑĬ ÑĢ
Ð´Ñı ÑĤÑĬ
ĠÐ½ÐµÐ´ÑĢÑĥ Ð¶
Ð² Ð»Ñı
ÐµÑĢ Ñĭ
ĠÑ¡ ÐºÐ°
ÑĢÑĥ Ð¶ÑĮ
ĠÐºÐ° Ð¶Ðµ
ĠÐĶ ÐµÑĢ
ÑīÐ¸ ÑģÑı
ĠÐ³Ð¾ÑĢ Ð´Ñĭ
ĠÑĥÐ± Ð¸ÑĤÐ¸
ĠÐ³Ð¾ÑģÑĥÐ´Ð°ÑĢÐµÐ²Ñĭ Ð¼
ĠÐºêĻĭ Ð½Ð¸ÑĨÐ¸
ĠÐ´ÑĢêĻĭ Ð³Ð°
ĠÐºÑĢÐµÑģÑĤ Ð½Ð¾Ð¼Ñĥ
ĠÑģÑĬÐ¼Ñ£ ÑĢÐµ
ĠÐĴÐ¸Ð´Ñ£ Ð²ÑĬ
ĠÐ¿Ð¾ÐºÐ°Ð¼ Ñ£
Ñĥ ÑĤÑĬ
Ñ£ Ð»Ð¸
ĠÐ¿ÑĢ Ð¸ÑĤÑĬ
ĠÐ²Ñģ ÐµÐ¼ÑĮ
Ð¾Ð· ÐµÑĢ
ĠÑĤÐ° ÑĢÐ°
ĠÐ±Ñ£ Ð»ÑĬ
ĠÑģÑĤÑĢÐ° ÑĪÑĮ
ÑģÐºÑĭ Ð¼Ð¸
ĠÐ¸Ð½Ð¾ ÑĩÐµ
ĠÑĨÐµÑĢ Ðº
ĠÑĦÑĥÐ½ ÑĤÐ°
ĠÐ¿ÑĢÐ¿Ð± Ð½Ð°Ð³Ð¾
ĠÑģÑĢÐ´ ÑĨÐµ
Ð° ÑħÑĬ
Ð½ ÐºÑĬ
ĠÑģ Ð½Ð¾
ĠÐ¸ Ð½ÑĭÐ¸
Ð³ Ð¾Ð²Ð°
ÑĨ ÐµÐ²Ð¸
Ð¾Ð± ÑĬ
ĠÐ½Ð¸ ÑĪÑĤ
ĠÑ¿ Ðº
Ð½Ðµ Ñħ
ĠÐĴ Ð¾Ñģ
ĠÐ¼Ð½ Ð¾Ð¶ÑĮ
ĠÑģÐ¸ Ð°
ĠÐļ ÑĢ
ĠÐļ Ñĥ
ĠÐľ ÐµÐ´
ÑģÑĤÐ°Ð² Ð¸ÑĤÐ¸
ÑģÐµ Ð¸
ĠÐ¿ÑĢÐ°Ð² ÑĬ
ĠÑħÐ¾ ÑĩÐµÑĤÑĮ
ĠÐ³Ð¾ÑģÐ¿Ð¾Ð´ Ð°
ĠÐ½ÐµÐ´ Ñ¹
ĠÐ¼Ð¾ÑĢ ÑĮ
ĠÐ¾Ð±ÑĬÑıÐ² Ð»Ñı
Ð½Ð¸Ñĩ ÐµÐ¼Ñĥ
ĠÐ¶Ð¸Ð²Ð¾ÑĤ Ð¾Ð²
ĠÑĢÐ¾Ð¼ Ð°Ð½Ð°
ĠÐ¿Ð»Ð¾Ð´ Ñĭ
ÑĩÐ¸ ÑīÐ°
ÑĤÐ° Ð°Ð³Ð¾
ĠÑĸ ÐµÑĢ
ĠÐ¿Ð¾ÑģÐ»Ð° ÑĤÑĮ
ĠÑħÐ¾ ÑĤÐ¸
ĠÐ¾ÑĩÐ¸ Ñİ
ĠÐ²Ð°ÑĢ ÑĪÐ°
ĠÐ²Ð°Ð²Ñµ Ð»Ñ¡
ĠÐ¸ Ð½Ð¸Ð¸
ĠÐ´ Ð¾Ð³Ð¾Ð²Ð¾ÑĢ
Ñħ Ð¾Ð¶Ð´
Ð± Ð¾Ð²
ĠÐ½Ðµ Ð²Ð¾Ð·
ĠÐ· ÑĢÐ°
ĠÐ· Ð¾Ð»Ð¾
ĠÐ» ÐµÐ²ÑĬ
ÐºÐ° Ð»ÑĬ
ĠÑģÑĤ ÑĭÐ¸
ÑĢÑĥ Ñİ
ĠÐ¢ Ð¾Ð¼ÑĮ
ĠÐ¶Ð¸ Ð²Ðµ
ĠÑģÑĤÐ°ÑĢ Ð¸Ð½Ðµ
ĠÐ¿Ð¾ÑĢ Ð¾Ñĥ
Ð²Ð°ÑĤÐ¸ ÑģÑı
Ð·Ñĭ Ð´Ðµ
Ð·Ñĭ ÐºÑĬ
ĠÐ¥ Ð¾Ð»Ð¾Ð¿
ĠÐ¿ÐµÑĢÐµ Ð¿Ñĥ
ĠÑģÐºÐ¾ ÑĤÐ°
ĠÐºÑĭ ÐµÐ²Ñ£
ĠÐŁÐ¾Ð´ Ð¾Ð±Ð°
ĠÐ¿Ð¾Ð¼ÐµÑīÐ¸ ÐºÐ¾Ð²
ĠÐ¿ÑĢÐ¾Ð² Ð¾Ð´
ĠÐ¼Ñ£ÑģÑı ÑĨÑĮ
ĠÑģÐ´Ñ£ Ð»Ð°
ĠÑģÐºÑĬÑĢ Ð±Ð¸
Î »
Ñĩ êĻĭ
ĠÐ· Ð¼Ðµ
Ð½Ð° ÑĤÑĨÐ°ÑĤÐ¸
êĻģ Ñ¹
ÑĤÐµ ÑħÑĬ
ĠÐ¿Ð¾Ð¼ Ð¸Ð½
ĠÑ¹ Ð±Ñ¡
ĠÐ¿Ð¾ÑĢ êĻĭ
ĠÑħÐ¾Ð´ Ð¸ÑĤ
ĠÐ¼ÑĬ Ð»
ĠÐ´êĻĭ ÑĪêĻĭ
ĠÐ·Ð¼Ð¸ Ð°
ĠÑĦÑĢÐ°Ð³Ð¼ÐµÐ½ ÑĤ
ĠÑģÐ¿Ð¾Ð» Ð½Ð°
ĠÐ¿ ÑĮÑı
Ð¾Ð² Ñı
ÐµÐ½ Ð·
ĠÐ»Ñİ ÑĤÑĭ
ĠÐ¼Ð¾ ÑīÐ¸
ĠÐ¼Ð¸ ÑĪÐºÐ°
ĠÐ²Ðµ ÐºÐ¸
ĠÐ³ÑĢÐ¸Ð² Ð½ÑĮ
ĠÐ³ÑĢÐ¸Ð² ÐµÐ½Ð°
ĠÐ¿Ð¾Ð· ÐµÐ¼Ð°
ĠÐ¿Ð¾Ñħ Ð²Ð°Ð»
ĠÐºêĻĭ Ð½Ðµ
ĠÐ²Ð¾ÑĤÑĩÐ¸Ð½ Ð½Ð¸ÐºÐ¾Ð²
ĠÑģÑĬÐº Ð¾Ð½ÑĮ
ĠÐ¢Ð° Ð¶Ðµ
ĠÐ±Ð¾Ð¶Ð¸ Ð¸
ĠÑĢÑ¹Ðº Ð¾Ð´
ĠÑĨÐµÑĤÐ²ÐµÑĢ ÑĤÐµ
ĠÑĩÐµÑĤÐ²ÐµÑĢÐ¾Ð³ÑĢÐ°Ð½ ÑĨÐ°
ĠêĻ©ÑģÐ¿Ð¾Ð´ Ð¸Ð½Ðµ
ĠÐ¿ÑĢÐ¾Ð¶Ð¸ÑĤ Ð¾Ñĩ
ĠÐľÐ°ÑĢÑĪÐ°Ð» ÐºÑĥ
ĠÐ¾Ð±ÐµÑģ ÑĩÐµÑģÑĤ
ĠÐŁÑĢÑ£Ð¼ ÑĥÐ´
ĠÐ¿ Ñĸ
ĠÐ¾ Ð¶ÑĮ
ĠÐ½Ðµ ÑĩÑĮÑģÑĤÐ¸
ĠÐ¾ÑĤ ÑħÐ¾Ð´
ÑĩÐ¸ Ð¸
ĠÐ¿Ð¾Ð» Ð¾Ð½ÑĬ
ĠÐ±ÑĥÐ´ ÐµÑĪÑĮ
Ð¸Ñħ Ð¾Ð¼ÑĬ
ĠÐ¿Ð¾Ð´ Ð¾ÑĪ
ĠÐºÐ½ÑıÐ· ÐµÐ¹
ĠÐ²Ð¾Ð» ÑĬ
ĠêĻģ Ð»Ð¾
ĠÐ¿Ð° Ð´Ð¾ÑĪÐ°
ĠÐ²Ð° ÑĪÑĥ
ĠÑħÐ¾ÑĤ Ñ§Ñī
Ð¾ÑģÑĤÐ¸ Ñİ
ĠÐ·Ð°Ðº Ð¾Ð½Ñĥ
ĠÐ±Ð»Ð°Ð³ Ð¾Ð²Ð¾Ð»
ĠÐ¿Ð¾Ñĩ ÐµÑĢ
ĠÐ¿Ð¾ÑģÐ°Ð´ Ð½Ð¸ÐºÐ°
ĠÐ¿ÐµÑĢÐµÐ´ Ñ£
ĠêĻģÐµÐ¼ Ð»Ð¸
ĠÐ²Ð½Ð¸ Ð¼Ð°
ĠÐ²Ð¸Ð´Ð¸ ÑĤÑĮ
ĠÐ²ÐµÐ»Ð¸ÑĩÐµ ÑģÑĤÐ²Ñĥ
ĠÑĩÑİÐ´Ðµ ÑģÐ°
ÑĢ ÐµÐ½ÑĬ
Ñģ Ð»Ñı
ĠÐ¸ Ð»
ĠÐ½ êĻĭ
ĠÑĤ ÐµÑĢÐµ
ÑģÑĤ Ñ¡
ĠÐ¾ Ð»Ð¸
Ñ§ Ð½Ðµ
ĠÐ¿Ð¾ ÑĩÐµÑģÑĤ
Ð¾Ðº Ðµ
ÑīÐµ Ð½Ð¸Ñı
ĠÐ¼Ð¾ ÑģÑĤÑĭ
ÑĤÐ° Ð¹
Ð¾Ð²Ð¸ ÑĨÐ¸
ĠÑģÐº Ð¾Ð±Ðµ
ÑĶ ÑĤÑĮ
Ð¼Ðµ ÑĢÐ°
ĠÐºÐ½Ð¸ Ð¶ÑĮ
ĠÐ¿Ð»Ð¾ ÑĤÑĮ
Ġ ÒĦ
ÑĤ Ð½Ð°
ĠÐ¿ Ð°Ð½Ñĥ
ĠÐ¿ÑĢ Ñ¡
ĠÑĩ êĻĭ
ĠÐ·Ð° Ð¹
Ð½Ñı Ð»
ĠÐ¢ Ð°ÐºÑĬ
ÑģÑĤÐ² ÑĸÐµ
Ð¸ÑĤÐµ ÑģÑı
ÑģÑ£ Ð¼ÑĬ
ĠÑĤÐ²Ð¾ÑĢ Ð¸ÑĤÐµ
ÑĤÑ£ ÑħÑĬ
ĠÑĩÐ¸ Ð½Ð¸ÑĤÑĮ
ĠÑģÑ« Ð´
ĠÑģ ÐµÐ»ÑĬ
Ñ£ ÑĤÑĮ
ĠÑĢ Ñ¡
ĠÐ¸Ð¼ ÑĥÑĤÑĮ
ĠÐ³ÑĢÐ° Ð±Ðµ
ĠÑģÐ¸ êĻĹ
Ð½Ð¸Ðº Ñ£
ĠÐ±Ð» Ð¶
Ġ1 1
ĠÑħÑĢÐ¸ ÑģÑĤÐ°
ĠÐµÐ´Ð¸ Ð½Ð¾Ñİ
ĠÐĶÐ¾Ð± ÑĢÐ¾
ĠÐ¿ÑĢÐ¸ÑĤ ÑĩÐµÑİ
ĠÐŁÐ¾Ðº Ð»Ð¾Ð½
ĠÐ² ÐºÐ¸Ð½Ñĥ
ÑĪ Ð¸ÑĤÐµ
Ð· êĻĭ
ĠÐ¾ Ð²ÑĮ
ĠÐ¾ÑĤ ÑĨÑĭ
ĠÐºÐ¾ÑĢ Ð¾Ð±
Ð³Ð¸ Ð½Ð¸
ÑıÑĤÐ¸ ÑģÑı
ĠÐ½Ð¸Ðº Ð¾Ð³Ð¾Ð¶Ðµ
ĠÑģÐ»Ð°Ð² ÑĮ
ĠÐ´Ð¾Ð²ÐµÐ´ ÐµÑĤÑĨÐ°
ĠÐ³ÑĢÐ¸Ð³Ð¾ÑĢ ÐµÐ¹
Ð½Ñ« Ñ«
Ġ2 4
ĠÑĥÑģÑĤÑĢÐ¾ ÐµÐ½Ñĭ
ĠÐ¿Ð»Ð¾ ÑīÐ°
ĠÐ±ÐµÑģÑ£ Ð´Ñĭ
ĠÐ½Ð¸ÐºÐ¾Ð¼Ñĥ Ð¶Ðµ
ĠÑģÑĤÑĢÐ°ÑĪ Ð½Ð¾
Î ¼
Ð¿ ÑĢÑĬ
ÐµÑĤ êĻ¿
ĠÐ» Ð°ÑĢ
ÐºÑĬ Ð²ÑĮ
ĠÐ¿Ð¾Ð´ Ð²Ð¾ÑĢ
ĠÐ¿ÑĢÐ¾ Ð¸Ð·
ĠÑĤÐ°Ðº Ð¸Ð¼Ð¸
ĠÐ¼Ð¾Ð» ÑĩÐ°Ð½
ĠÑģÑ£ Ð´Ñı
ĠÐ½ÐµÐ¿ Ð¾ÑĤ
ĠÐŁÑĢÐ¸ ÐºÐ°Ð·
ĠÐ²ÑĬÑģ ÑħÐ¾
ĠÐ²Ñ£ÑĢ Ð¾Ð²Ð°
ĠÐ½Ð°Ñĥ ÑĩÐ¸
ĠÐ²ÑĮÑģÑ£ Ð¼ÑĮ
ĠÐĴÐµÐ»Ð¸ ÐºÐ¸Ð¹
ĠÐ³Ð¾Ñĩ ÐºÐ¾Ð¼ÑĮ
Ġ i
Ñģ ÑĢ
ĠÐ¸ ÑģÑĤÑĮ
ĠÐ¸ ÑģÐºÐ¸
ÑģÑĤ Ð¸ÑĤÑĬ
Ñİ ÑĪÑĤÑİ
Ð±Ð¸ Ñ¥
ĠÑģÑĥÐ´ Ð¾Ð¼
ĠÐ³ÑĢÐ°Ð¼Ð¾ÑĤ Ñ£
ĠÑĩÑİ Ð¶Ð¸
ĠÐ±Ðµ ÑģÐº
Ñķ Ð°
ĠÐ°ÑĢÑħÐ¸Ð¼Ð°ÑĢ Ð¸ÑĤÑĥ
ĠÑĥ Ð¼Ð°
ĠÑģÑĤ ÑĢÐ¾Ðº
êĻģ Ñ«
ĠÐ±Ñĭ ÑħÑĬ
ĠÐĳ ÐµÐ·
ĠÐľ Ðµ
ĠÐ±Ñ£ Ð´Ñĥ
ĠÐĵ Ð¾
ĠÑģÑĤÑĢÐ° ÑģÑĤÐ¸
ĠÐ¼Ð¾ÑĢ Ñ§
ĠêĻģÐ° Ð¿Ð¾Ð²Ñ£
Ð½Ð¸ÑĨÐ° Ñħ
ĠÐĹÐ° ÑīÐ¾
ĠÑģÐ¼Ñĭ ÑģÐ»
ĠÑģÐ°Ð¶Ðµ Ð½ÑĮ
ĠÑħÐ¾Ð»Ñ¡ Ð¿ÑĬ
ĠÑģ Ñµ
ĠÐ¸ Ð³êĻĭ
ĠÑĤ Ð¾Ð³Ð¸Ð²Ð°
ĠÐ± Ð°ÑĢ
ĠÐ± ÐµÐ»Ðµ
ĠÐ¶Ðµ Ð½êĻĭ
ĠÐ´Ð° Ð´ÑĥÑĤ
ĠÐ¸Ð· Ð±ÑĢÐ°Ð½
ĠÑĤÐ²Ð¾ Ð°
ÑģÐ» êĻĳ
Ð±Ð¸ ÑĢÐ°ÑĤÐ¸
ĠÐºÐ¾ÑĢ Ð¾ÑĤ
ÐµÐ½Ð° Ñ§
ĠÐ¿Ð¾ÑģÐ»Ð° Ð½Ñĭ
ĠÑģÐ¸Ð» ÐµÐ½ÑĬ
ĠÐ±êĻĭÐ´ ÐµÑĤÑĮ
ĠÐ²Ñ£Ð´Ð° Ñİ
ĠÐ¾ÑĢÑĥ Ð¶Ð¸Ðµ
ĠÑĤÐ¸Ñħ Ð¾
ĠÑģÑĥÐ¿ ÑĢÐ¾ÑĤÐ¸Ð²
ĠÐ± ÑĢ
ÑĪ Ð½Ð¾Ðµ
ĠÐ·Ð° ÑĤ
Ð°Ð½ Ñĸ
Òĩ ,
ĠÐ´Ñ£ Ð»Ðµ
ĠÑĢÐ°Ð· Ð³Ð½Ñ£Ð²Ð°
ÑĢÑı Ð¹
ĠÐ²Ð· Ð³Ð¾Ð²Ð¾ÑĢ
ĠÑģÑĭÐ½ Ñ¡Ð¼ÑĬ
ĠÐºÑĥÐ¿ ÑĩÐµÐ¹
ĠÐĹ ÐµÐ½Ð·
ĠÑĢÐ°Ð·Ñĥ Ð¼ÑĮ
Ð½ÐµÑģ Ð¾ÑĪÐ°
ĠÐ¾ÑĤÐ´Ð° Ð²Ð°ÑĤÑĮ
ĠÐĴÐ»Ð° Ð´Ñĭ
ĠÐľÐ¸ÑħÐ° Ð¸Ð»
ĠÐ¿Ð°ÑĤÑĢÐ¸Ð°ÑĢ ÑħÑĥ
ĠÐ³ÑĢÐµ ÑĩÐµ
ĠÐ¿ÑĤÐ¸ ÑĨÑĮ
ĠÐļÐ¾ ÑīÐµ
ĠÑĩÐ¸ÑģÑĤÐ¾ Ðµ
ÑĪÐµÐ½ÑĮ ÐºÐ°
ĠÐ½Ð°Ð¿ÑĢÐ° Ñģ
ĠÐ¿ÐµÑĩÐ°ÑĤ Ð½ÑĭÑħ
ĠÐ·ÐµÐ¼Ð»ÑĮ Ð½ÑĭÐ¸ÑħÑĬ
ĠÐ½ÐµÐ¿ÑĢÐ°Ð²ÑĮ Ð´Ñĭ
ĠÐ·Ð¾Ð²Ñĥ ÑĤÑĬ
ĠÑĥ ÑģÑĤÑĮ
ĠÐ¿Ð¾Ñģ Ð¾Ð»ÑĮ
Ð´Ñ£ ÑĤÐµÐ»ÑĮ
ĠÐ²Ñ£ ÐºÐ¾Ð¼ÑĬ
ĠÑģÑĭ ÑģÐº
ĠÐ¿Ð¾Ðº Ð»ÐµÐ¿
Ð»ÐµÐ½ ÑĸÑı
ÑģÐµ Ñħ
ĠÑ» Ð½
ĠÐ²Ð»Ð° Ð´ÐµÑĤÑĮ
ĠÐ¸Ð½ Ð¾Ð³Ð´Ñĭ
ĠÐ·Ð»Ð° ÑĤÐ¾Ð¼
ĠÐ¾Ðº ÑĤÑıÐ±ÑĢÑı
ÑĪÐº Ð¾Ð¼ÑĬ
ĠÐµÐ»Ð¸ Ð·
ĠÐ¿ÑĢÐ¾Ð´ Ð¾Ð»
ĠÐ°Ð´Ð° Ð¼Ð°
ÑĢ Ð¸ÑĤÑĬ
Ð» Ð½Ð¾
ĠÑģ Ð±
ĠÐ¿Ð¾ ÑģÑĤÑĭ
ĠÐ·Ð° Ð¸Ð¼
Ð´Ðµ Ð»Ð°
ĠÐŁ Ñĥ
ĠÐºÐ° Ð´ÑĮ
ĠÑģÑĤÐ°ÑĢ ÑĨÑĭ
ĠÑģÑĤÐ°ÑĢ ÑĭÐ¼
Ð½ÑĭÑħ ÑĮ
ĠÐºÑĢ Ð¾Ð²Ðµ
ÑĩÐ¸Ð½ ÑĬ
ĠÐ´Ð¾Ð» Ð¶
ĠÐ¿ÑĭÑĤÐ° ÑĤÑĮ
Ð¼Ð°ÑĤ ÑĢÐ¸
ĠÐ¶Ð°Ð»Ð¾Ð²Ð°Ð½ ÑĮÑı
ÑĤ Ð²Ð¾Ñİ
Ð½ ÐµÐ¼ÑĮ
Ð² ÑĸÐ¸
Ð¾ÑĢ Ð¼Ð¸
ĠÐ´Ð° ÑģÐ¸
ÑĢÐµ Ðµ
ĠÐ²Ð¾ Ñ¥
ĠÐ¿Ð¾Ñģ Ð¼Ð¾ÑĤ
ĠÐ´Ñ£ Ð²
ĠÐ¼Ð½ Ð¾Ð¶
ĠÐ¿Ð¾Ð¼ Ð°Ð·
ĠÐºÐ¾ÑĤÐ¾ÑĢ Ð°Ñ§
ÑĢÑı ÑĤÑĮ
ĠÑģÐ¼ ÐµÐ½
ĠÑĤÑĢ ÑĥÐ´Ð°
ĠÐ´ÐµÑĢÐµÐ²Ð½Ñı Ñħ
ĠÑģÑĢ ÑĨ
ĠÑģÑĢ Ð¾Ð´
ĠÐ²ÐµÐ»Ñ£ ÑĤÐ¸
ĠÐ³Ð»Ñ£ Ð±Ð°
ĠÐ¿Ð¾Ð¼ÐµÑģÑĤÑĮ ÐµÐ¼
ĠÐ´ÐµÐºÐ° Ð±ÑĢÑı
ĠÑĤ ÐµÑĤ
Ð· Ð²Ð°
ĠÑģÑĬ Ð²ÑĢÑĮ
ÑĢÑĮ Ñģ
ĠÐ»Ð¸ ÑģÑĤÑĮ
ĠÑĩÐµÑĢ ÑĤÐ°
ĠÑĩÐµÑĢ Ð½ÑĭÑħ
ÐºÑ¡ Ð¼ÑĬ
ÑĪÑĤ ÐµÐ¼ÑĬ
ĠÐ·Ð½Ð° Ð¼Ñı
ĠÑĥÐ¼ ÑĢÐµÑĤÐ¸
ĠÑıÐ·Ñĭ ÐºÐ°
ĠÐ¾Ð±ÑĭÑĩÐ° Ð¹
ĠÐ¡Ñĭ Ð½Ð°
ĠÑģÑĢÐ° Ð¼Ð¾ÑĤ
Ð²Ñı ÑīÐµÐ½
ĠÐ°Ð»ÐµÐºÑģÐµ Ñİ
ĠÐº ÑĸÐ¸
Ñ§ Ð½ÑĮ
ĠÐ¾ÑĤ Ð²Ñ£ÑīÐ°
ĠÑ¡ ÑĤÐ¸
Ð°Ñģ Ð»Ñģ
ĠÐ²ÐµÐ»Ð¸ ÑĤ
Ð¶Ð¸ Ð¾
ÑģÑĤÐ¾ Ðµ
ĠÑħÐ¾ ÑĪÑĤÐµÑĪÐ¸
ĠÑĢÑ£ ÐºÑĥ
ĠÐ¼Ð¾Ðµ Ñı
ÐºÑ¡ Ð²ÑĬ
ĠÑĩÐ»Ð¾Ð²Ñ£ ÐºÐ¾Ð¼ÑĬ
ĠÐ´ÑĬ Ð²Ñ£
ĠÐ²Ñ£ÑĢ Ñ¹
ĠÐ¼ÐµÑĢ Ñĭ
ĠÑĭ Ð²Ð°
ĠÐ´ÑĢÑĬ êĻģ
ĠÐ³ÑģÐ´ÑĢ Ð½Ñ§
ĠÐ±Ð¾Ð¶Ðµ ÑģÑĤÐ²ÐµÐ½
ĠÐ¿Ð¾Ð¼ÐµÑģÑĤ Ð½ÑĭÑħ
ĠÐ°ÑĦ Ð¾Ð½ÑĮÐºÐ°
Ð± Ð¾Ñĥ
Ð»Ð° ÑĤÑĬ
ĠÐĺ Ñģ
ĠÐ¼Ð¾ Ð¸Ñģ
ĠÐ¼Ð¾ Ð¸Ñħ
ĠÑĤÐ° ÐºÐ°Ñı
ĠÐ¸Ñģ ÑĨÐ°
Ð´Ñĥ Ð¼
Ð»ÐµÐ² ÐµÑĤÐ°
ĠÐ±Ðµ êĻģÑĬ
ĠÐ½ÐµÐ¼ ÐµÑĨ
ÑģÑĤÑĢÐ¾ Ð¸
ĠÐ²Ñ£ÑĢ Ð¾Ñĥ
ĠÐ¿Ð¾Ð¼Ð¾ ÑĩÑĮ
ĠÑģÑĤÐµÐ¿ Ð°Ð½Ð¾Ð²
ÐµÑ¡ Ð´
ĠÐĶÐ°ÑĢÐ¸ Ñİ
ĠÑİÐ½Ð¾ ÑģÑĤÐ¸
Ð² ÑĪÑĥ
Ðº ÑĤÐ¾
ĠÐ´ ÐµÐ½Ð¸
Ð¿ Ð¸ÑĤÑĮ
ĠÐ½Ðµ Ð»Ð¸
ĠÐ» Ð°Ðº
ĠÑģÑĤ Ð¾Ð»ÑĮÐºÐ¾
ĠÐ·Ð° Ð»Ð¾Ð¶Ð¸
êĻĹ Ð²
ĠÑ¡ Ð´Ñ£
ĠÐ²Ñĭ Ð¼
ĠÐ¿ÑĢÐµ Ð¿
Ð»Ñ§ ÑĪÐµ
ĠÐł Ð¾Ðº
ĠÐ±êĻĳ Ð²ÑĬ
ĠÐ±Ð»Ð°Ð³ Ð¾ÑĢÐ¾Ð´
ĠÐ¡ÑĤ Ð°ÑĢ
ĠÐ¾Ð´ Ð½Ð¾Ð¹
ĠÑĥÐ± Ð¸Ð»ÑĬ
ĠÐ²Ð°ÑģÐ¸Ð» Ñİ
ĠÐºÑĢÐµÑģÑĤÑĮÑı Ð½Ð¸Ð½
ĠÐ·ÐµÐ¼Ð»Ñı Ð¼Ð¸
ĠÐ¼Ð¾ÑģÐºÐ¾Ð² ÑģÐºÐ¾Ð¼Ñĥ
ĠÐ²Ð¸Ð´ Ð¸ÑĤ
ĠÐ½Ð°Ð¿Ð° ÑģÑĤÐ¸
ĠÐ°Ð½Ð´ÑĢÑİ ÑĪÐºÐ°
ĠÑģ ÐºÑĥ
ĠÐ¶Ðµ ÑĢÑĤ
Ð¾Ð½ Ð¾Ð²Ð°
ĠÑģÐ» Ð¾Ð¶
ĠÑĢÐµ ÐºêĻĭ
ÐµÐ· Ð¶Ð°
ĠÐ»Ð¸ Ð¿ÑģÐ²Ð°
ĠÐľ Ð°Ð¼Ð°
ÑģÑĤÑĭ Ðµ
ĠÑĤÑ£ ÑģÐ½Ð¾
ĠÑģÐº Ð¾Ð¿
ĠÐ²ÐµÐ»Ð¸Ðº ÑĸÑı
ÑĤÑĭ ÑħÑĬ
ĠÐ²ÐµÑĢ Ñĥ
ĠÐ¿Ð¾Ð¿ ÑĢÐ°Ð²
ĠÐ½Ð°ÑĪ ÐµÐ¼ÑĬ
ĠÑģÐ»Ð°Ð² êĻĭ
ĠÐ¥ Ð¾Ð´
ĠÐ±ÑĢÐ°ÑĤÑĮ Ðµ
ĠÐĸ ÐµÐ½Ð°
ĠÐ¿ÑĢÐµÐ¼ êĻĭÐ´
ÐµÑĢÑĥ ÑģÐ°
ĠÐĳÐ»Ð° Ð³Ð¾ÑģÐ»Ð¾Ð²
ĠÑģÑĬÐ¼ÑĮÑĢ ÑĤÐ¸
ĠÐ½ÐµÐ´Ñ£ Ð»Ñİ
ĠÐ¿ ÐµÐ½ÑĮ
ĠÐ¼ ÐµÑģ
ĠÐ¼ Ð»ÑĬ
Ð»Ð¸ Ð¼Ð°
Ð½Ð¸ ÐºÐ¾Ñĥ
ĠÑĥ ÑģÑĤÑĢÐ°
ĠÑģÑĬ Ð²ÑĮÑĢ
ĠÐ²Ñ£ ÑĢÑĮ
ĠÐ¼Ð¸ ÑĢÐ¾
ĠÑĤÐ° Ð¶Ðµ
ÑĶ Ð¼
ÑħÑĥ ÑĤÑĮ
ĠÐ¼Ð°ÑĤ Ð²Ðµ
ĠÑģÑĤÐ²Ð¾ÑĢ Ð¸ÑĪÐ°
ĠÑĤÐ²Ð¾Ñ¥ Ð³Ð¾
ĠÐ¢Ðµ Ð±Ñ£
Î¿Ï Ĥ
u s
Ð¿ Ð»ÑĮ
ĠÑĢ Ð¾Ð³ÑĬ
ĠÐ¿Ð¾ êĻģÐ½Ð°
ÐµÐ½ Ñĸ
ĠÐ» Ð¾Ð½ÑĮ
ĠÐĲ Ð¼Ð¸ÑĢÐ°
ĠÐĳ ÐµÐ»
ĠÐŀ Ð¹
ĠÐ¸Ñģ ÑĨÑĭ
ĠÐºÐ½ÑıÐ· ÐµÐ¼
ĠÑĦ Ð¾Ð¼
ĠÐºÑĢÐ°Ð»ÐµÐ² Ð½Ðµ
ĠÐ¿ÑĢÐ¸Ð²ÐµÐ´ ÑĥÑĤ
ĠÑĥÐ´ Ð¾Ð±ÑĮ
ĠÑĢÐ°ÑĤ Ð¼Ð°Ð½
ĠÐ´Ð¼Ð¸ÑĤÑĢÐµ Ñı
ĠÑģÑĤÐ°ÑĢÐ¾ÑģÑĤ Ð°Ð¼
ĠÐ°ÑĢÑħÐ¸Ð¼Ð°Ð½Ð´ ÑĢÐ¸ÑĤ
ĠÐĺÑħÐ½Ð¸ Ð»Ð°ÑĤ
ĠÐĶÐ°Ð½Ð¸Ð» Ð¾Ð²Ð¸ÑĩÑĮ
Ð¾ ÑĦÐ°
Ð² êĻĳÐ¸
Ñı Ð»ÑĬ
ĠÑĤÐ¾ Ñ§
ÑĩÐ° Ñı
ĠêĻģ Ñĭ
ĠÑģÑĤÑĢÐ° Ñħ
ĠÑ£ ÑħÐ°ÑĤÑĮ
ĠÑĥÐ³Ð¾Ð´ ÑĮ
ĠêĻģÐµÐ¼ Ð»Ñ§
ĠÑĤÐ¾Ð³ Ð´Ñĭ
ĠÐ¼Ð°Ñģ Ð»Ð¾
ĠÑĢÐ¾ÑģÑĤÐ¸ ÑģÐ»Ð°Ð²
ĠÑĸÐ²Ð° ÑĪÐºÐ¾
ĠÑ ©
ÑĤ Ñ¡
Ñģ Ð¾Ðº
ĠÑģ ÐµÐ½ÑĮ
ÑĢÐ° Ð³Ð¾
ĠÑħ ÑĭÑĤ
ĠÑģÐµ Ð¶Ðµ
ĠÐ¡ ÑĤÐ¾
ĠÐ¸Ð· Ð»Ð¸
ĠÑĤÐ°Ðº Ð¾Ð¼ÑĬ
ĠÐ¿Ð¸ ÑĪÑĥ
ĠÐ¿Ð»Ð° ÑĩÐ°
ĠÐ½Ð°ÑĪÐµ Ð¹
Ð´Ñ§ ÑĪÐµ
ĠÑĩÑĮ Ð¸
ĠÐ¡ÑĤ ÑĢ
ĠÐ³ÑĢÐ¸Ð³Ð¾ÑĢ ÑĮÑı
ĠÐ´ÐµÑģ Ñ§
ĠÐ½Ð¾Ð³ Ñĥ
ĠÐ¼ÑģÑĤÐ¸ ÑģÐ»Ð°Ð²ÑĬ
ĠÐĳÑĥÐ´ ÐµÑĤÑĮ
Ð° Ð½Ñĭ
ÑĤ Ñ«
Ð» êĻ¿
Ð² ÐµÐ·
ĠÐ² Ð¾Ð½ÑĮ
ĠÐ´ Ð¾Ð»ÑĮ
ÑģÑĤ ÑĢÑĬ
ÑĪ Ð¸ÑĤÑĬ
ĠÐ¼ Ð¾Ð¶Ð°
Ñĩ Ð½ÑĭÐ¼ÑĬ
ÑĢÐ° ÑĤÑĮ
ĠÑĢ ÑĥÐ´
ÐµÐ¼ Ð»Ñİ
ĠÑĨ ÐµÑģ
Ð¼Ñĥ Ñİ
ÑģÐ» Ð¾Ð²Ðµ
ĠÐĵ Ð°Ð²
ĠÐ¿Ð¾ÑĤ Ð¾Ð¼ÑĮ
ĠÐ½Ð¸Ðº Ð¾Ð»Ð°
ĠÐ²ÑĢÐ° Ð·Ð¸
ĠÐ¾Ð¿ Ñĭ
ĠÐºÑ¹ Ð¿Ð¸
ĠÐºÑĢÐµÐ¿ Ð¾ÑģÑĤÑĮ
ĠÐ¿ÑĪÐµ Ð½Ð¸ÑĨÐ¸
ĠÐ²ÑģÑĤ ÑĢÐµ
ĠÑģ Ð¾Ð¶
ĠÐ´ Ð¾Ð²Ðµ
ÑĪ Ð¸Ð½Ðµ
ĠÐ¾ Ð½ÑĮ
ĠÐ½Ð° Ð³Ð¾
ĠÐ· Ð²Ð°ÑĤÐ¸
ĠÐĺ Ð²Ð°Ð½Ð°
Ð¾ÑĤ Ñ«
ÑĢÐµ Ð²Ð°
Ð´Ðµ Ñħ
ÑĪÐ¸ Ðµ
ĠÐ¿Ð¾Ð» ÐºÐ¾Ð¼ÑĬ
ĠÑĨÐ°ÑĢ ÑģÑĤÐ²
ĠÐĵ ÑĢÐ¸
Ð»ÐµÐ½ ÑĸÐ°
ÑĶ Ð²ÑĬ
ĠÐºÑĥ Ð·ÑĮ
ĠÑģÐ»Ñĥ Ð¶Ðµ
ĠÐ¸Ð²Ð°Ð½ ÐºÐ°
ĠÐ¿Ð¾Ð½ Ð¾Ð¼
ĠÑ¡Ð± ÑĢÐµ
ĠÐºÐ°Ð¼ ÐµÐ½Ðµ
ĠÑģÐ»Ð° Ð´ÑĬ
ĠÐ¿ÑĢÐ¾Ð´Ð° Ð¸
ĠÑĤÑĮ Ð¼ÑĮ
Ñ¯ Ð°Ð½Ð´
ĠÑģÐ»êĻĭ Ð¶
ĠÑģÑĤÐ°ÑĢÐ¾ ÑģÑĤÐµ
ĠÐºêĻĳ Ñ¥
ĠÐľÐ°Ðº ÐµÐ´Ð¾Ð½
ĠÑĤÐ¸Ñĥ Ð½Ð¾Ð¼
Ð´ Ð¾Ð»Ð¸
Ð´ ÐµÐ»ÑĬ
ĠÐ² Ð¾Ð¶
Ñı ÑīÐ°
Ñĩ Ð½ÑĭÑħ
ĠÐ½Ð° Ð²ÐµÐ´
ÑĢÐ° Ð±
ÑģÐº Ñ«
ĠÐ·Ð° ÑģÐ²Ð¸
ĠÐ²Ñĭ Ð²ÐµÐ´
ĠÑĤÑĭ Ðµ
ĠÑħÐ¾ ÑĨÐµ
ĠÑĢÑ£ Ð·Ð°Ð½Ñ£
ĠÑħÐ¾Ð»Ð¾Ð¿ Ñĥ
ĠÐºÐ¾Ð» Ð¾Ð¼
ĠÐ´êĻĭ ÑĪÐ°
ĠÑ¥Ñģ Ð¼Ðµ
ĠÐ²ÐµÑĩ ÐµÑĢÑĬ
ĠÐ²ÐºÑĥ Ð¿Ñ£
ÑĤ Ð½Ð¾Ðµ
Ð¼ Ð°Ð½ÑĬ
ĠÐ¿ Ð¾Ð²Ñĭ
ĠÐ½ Ð¾Ð²Ð¾
ĠÐ¾ ÑģÑĮ
Ð¾Ñģ Ð¾Ð¼ÑĬ
ĠÑģÑĬ Ð´
Ð»ÐµÐ½ Ðµ
ĠÑĤÑĥ ÑĢÐµ
Ð¼Ðµ Ð½Ð¸Ðµ
ĠÐ¯ Ð·
ĠÐ¸Ð¼Ð° ÑĤÑĬ
ĠÑĢÐ¾Ñģ Ð¿ÑĢÐ°ÑĪÐ¸
ĠÐ²Ð¾Ð¸Ð½ ÑģÐºÑĸÐµ
ĠÑģÐµÐ¼ÐµÐ½ Ð¾Ð²Ð°
ĠÐ¼ÑĥÐ¶Ðµ Ð¹
ĠÐ´ Ð¾Ð¶
Ñħ Ð¾Ð¶Ðµ
ĠÑĥ ÑĤÑĢ
ĠÐ²Ð¾ Ð¸Ð½ÑĬ
Ð¸Ð¼ Ñĥ
Ð¾Ð²Ð¸ ÑĩÐµ
âĢ ¦
ĠÐľ Ð½Ñ£
ĠÐ²ÑĮ ÑĢÑĮ
ĠÐ±Ð³ Ñ¹
ĠÐ±ÑĢÐ°ÑĤ ÑĸÑ§
ĠÐ¿Ð¾ÑĪ Ð»Ð°
ĠÐ±ÑĢÐ°ÑĤÑĮ Ñİ
ĠÐ¼êĻĭ Ð¶Ðµ
Ð½ÐµÐ½ ÑĸÐµ
ĠÐ±Ð»Ð¸ Ð¶ÑĮ
ĠÐ´ÑĬ Ð»
ĠÐ¼Ð¸Ð»Ð¾ÑģÑĤÑĮ Ñİ
ĠÐ½Ð¾Ñģ Ð¸ÑĤÐ¸
ĠÐ¿ÑĢÐ¸ÑģÑĤÑĥÐ¿ Ð°ÑĤÐ¸
ĠÐ¼Ð½Ñ¡ Ð³Ñĭ
ĠÐ¿ÑĢÐ¾Ð´ Ð°Ð»
ĠÐ±ÑĢÐ°ÑĪ Ð¾Ð²
ĠÐ½Ñ£Ðº ÑĤÐ¾
ĠÑĥÐ¼ÐµÑĢ ÑĪÐ¸Ñħ
ĠÐ¾ÑģÐ¸ÑĦ Ð¾Ð²
ĠÐ¿Ð¾Ð³ÑĥÐ±Ð¸ ÑĤÑĮ
ĠÑģÐ»ÑĮ Ð·Ñĭ
ĠÑĢÐ¾Ð·Ð±Ð¾ Ðµ
ĠÑĤ Ð¾Ð½
ĠÑĤ ÑĸÐ¸
ÐµÐ¼ ÑģÑı
ĠÑģÑĤ Ð°Ð½ÑĬ
ĠÑ¡ ÑĢ
Ð¸Ñģ êĻĭ
ĠÑĨÐ°ÑĢ ÐµÐ²Ð°
ĠÐ´Ñ£ Ð¹
ÑģÑĤÐ¾ Ñİ
ĠÐµÐ¼Ñĥ Ð¶Ðµ
ÑħÐ¾Ð´ Ñ§Ñī
ĠÑģÑĤÐ° Ð³
ĠÐºÐ°Ð· Ð°ÐºÐ¾Ð²
ĠÐ¾Ð¿ Ñ§ÑĤÑĮ
ÑģÑĤÐ°Ð½ Ð½Ð¾
ĠÐ¿ÐµÑĢÐµÐ´ Ð¸
ĠÐ½Ð¾Ð³ Ð°Ð¼Ð°
ĠÐ°Ð½Ð´ÑĢÑ£ Ð¸
ĠÑģÑĤÐ°ÑĢÐ¾ ÑģÑĤÑĭ
ĠÐ¸Ð½Ð° ÐºÐ¾
ĠÑģÐºÐ²Ð¾Ð· ÑĮ
ĠÐ»Ð¾Ðº ÑĤÐ¸
ĠÐ¿Ð¾Ð³êĻĭ Ð±
ĠÑģÐ¸Ñĩ ÐºÑĭ
Ð° ÐµÑĤÑĮ
ĠÑģ Ð¾Ð½ÑĬ
Ð¾Ð² Ñ¹
ÑĢÐ° Ð²Ñ£
ĠÐ° Ñ³Ð¾Ð½
ĠÐ¿Ð¾Ð» ÑĤÐ¾ÑĢÐ°
Ð´Ñ£ Ð»ÑĬ
Ð½ÑĮ ÑĨÐµ
ĠÑģÐº Ð¸Ð½
ĠÐ±Ð»Ð°Ð³ Ð¾Ð²Ðµ
ĠÐ¿ÑĢÐ° Ð²Ð°
ĠÐ¿ÑĢÐ¸ÑħÐ¾Ð´ Ð¸ÑĤÐ¸
ĠÐ²ÑĢÑ£ Ð¼ÐµÐ½Ðµ
ĠÐ¿ÑĢÐ¸Ð½ÐµÑģ Ð¾ÑĪÐ°
ĠÐ¾Ð±Ñ£ ÑīÐ°
ĠÐ²ÐµÑĤ ÑĪÐ°
ĠÐºÐ½ÑıÐ³Ð¸Ð½ Ñı
Ñĩ Ñĭ
Ð¿ Ð°ÑĤ
ĠÑĥ Ð¼Ð¸ÑĢÐ°
ÐµÐ» Ð¾Ð¼ÑĬ
ĠÑħ Ñ£
ĠÑħ ÐµÑĢ
ĠÐ·Ð° Ð¾Ñĥ
ĠÐ¸Ð· Ð¾Ð±
Ð½Ñ§ Ð³Ð¾
ĠÐ´Ðµ Ð¶Ðµ
ĠÐ¼Ð¾Ð» Ð²Ð¸
ĠÑģÑĤÐ° Ð³Ð¾
ĠÑģÑĤÐ° Ð´Ð°
ĠÑĥÑĩÐ¸Ð½Ð¸ Ð»Ð¸
ĠÐ¿Ð¾Ð¶Ð°Ð» Ð¾Ð²Ð°ÑĤÐ¸
ĠÑĪÐµ ÑģÑĤÐ¸
ĠÐºÐ¾Ð¿ ÑĮÐµ
ĠÐ¿Ð¾Ð¼ÐµÑģÑĤÑĮÑı Ñħ
ĠÐ¡Ð¾Ð» Ð½Ñĭ
ĠÐļÐ¾ ÑīÐµÐ¹
ĠÐ¿ÑıÑĤÑĮ Ð´ÐµÑģÑıÑĤ
ĠÐ½Ð°ÑĢÑı Ð´ÑĬ
ĠÑĩÐ»Ð² ÐºÑĬ
ĠÐ¸Ð·Ð²Ñ£ ÑģÑĤ
ĠÐ¼ÐµÑĩ ÐµÐ¼ÑĬ
ĠÑ¡Ð±Ð¸Ñħ Ð¾Ð´ÑĬ
ĠÑĢÐ¾Ð·Ð±Ð¾Ð¹ Ð½Ð¸ÐºÐ¸
ĠÐ½ÐµÐ¸Ð· ÑĢÐµÑĩÐµÐ½
Ð²Ñ£Ñī Ð°Ð²ÑĬ
ĠÐ²ÑģÐ¿ Ð¾Ð»Ð¾
ĠÐ§ÐµÑĢ Ð½Ð¸
Ð¼ Ð½Ñ£
Ñĩ Ð½Ð°
ĠÐ¾Ñĥ ÑĩÐ¸ÑĤÐ¸
ĠÐ¿ÑĢÐ¾ Ð¸
ĠÐºÐ°Ðº Ñ¡
Ð¶Ð° Ð¸
ĠÐ³Ð¾Ð» Ð¾Ð²Ð¾Ñİ
Ð³Ð¾Ð´ Ð½Ð¾
ĠÑĤÑĮ ÑĩÑĸÑİ
ĠÐ¿Ð¾ÑģÐ» Ð¾Ð²ÑĬ
ĠÐºÑĢÑĥ Ð³ÑĬ
ĠÑģÐ²Ñ£ÑĤ Ð»Ð¾
ĠÐ´Ð²Ñĥ ÑħÑĬ
ĠÑģÐ»Ñ£ Ð¿
ĠÐŁÑĢÑ£ Ð´ÑĬ
ĠÑĢÐ¾Ð´Ð¸ÑĤÐµÐ» ÐµÑħ
ĠÐ²Ð½Ðµ Ð³Ð´Ð°
ĠÑģ ÑīÐµÐ½
ÑĢÐ° Ð½Ð¸
ĠÑ¡ ÑģÑĤ
Ð´Ðµ ÑĪÑĮ
ĠÐ²Ð¾ ÑģÑĤÐ°Ð²ÑĬ
ĠÑģÐ» ÐµÐ´
ĠÐ¡ Ð¸Ð¼
ÑĢÑĮ Ñİ
ÑīÐ° ÐµÑĤ
ÑĨÐ¸ Ð¸
ĠÐºÐ¾ÑĢ ÐµÐ½ÑĮ
ĠÐ¿Ð¾ÑĤ ÑĢ
ĠÑİ Ð´Ðµ
Ð³Ñĥ Ð±
ĠÐ¿Ðµ Ñī
Ð¼Ñĭ ÑģÐ»Ð¸
êĻĻ ÑĤÑĬ
ĠÐĹ Ð°Ð½Ðµ
ĠÐ±êĻĭÐ´ ÐµÑĤ
ĠÐ¼Ð¾Ð»Ð¸ÑĤ Ð²Ñ£
ĠÑħÐ¾ÑĤÑ£ Ð»ÑĬ
ĠÐ½Ð°Ð¼Ñ£ Ñģ
ĠÐ»êĻĭ ÐºÐ°
ĠÐ¿ÑĥÑĤ ÐµÐ¼ÑĬ
ĠÐ² ÑĢ
ĠÐ´ ÐµÐ¼ÐµÐ½
ĠÐº Ð¾Ð¼êĻĭ
ĠÑģÑĤ ÐµÐ½Ð°
ĠÑħ Ð²Ð°Ð»
ĠÑ¡ ÑģÑĤÐ°Ð²Ð¸
ĠÐ¶ êĻĭ
ĠÐ²Ñĭ Ð¿Ñĥ
ĠÐ±Ñ£ Ð´Ñĭ
ĠÐł Ð°Ñħ
ĠÑ³ Ðµ
ĠÐ´Ð¾ÑĢ Ð¾Ð¶
ĠÐ³Ð¾ÑģÑĤ Ñ§
ĠÐ¾ÑĤÐ¸ Ð´Ðµ
ĠÐ¡ÑĤÑĢÐ° ÑħÑĬ
ĠÐ¿ÑĢÐ¸Ðº Ð»Ñİ
ĠÑģÑĥÐ½ Ð´Ñĥ
Ð½ Ð¾Ð¶
Ðº Ð¾Ð»ÑİÐ±Ð¸
ĠÐ² êĻ¿
ĠÐ± Ð¶Ðµ
ĠÐ¾ Ð»ÐµÐºÑģÐµ
ĠÐ¿ÑĢ ÑĪÐµ
Ð¾Ð½ Ð¾Ð²ÑĬ
ÑĩÐ¸ Ð»Ð¸
ĠÐ¼Ð¾ ÑģÑĤÑĥ
ĠÑĤÐ²Ð¾ Ð¸Ð¼
ĠÐ³Ð¾ÑģÑĥÐ´Ð°ÑĢ ÑģÑĤÐ²Ð¾
ÑĦ ÐµÐ¹
ĠÑģÐ² Ð¸Ð½ÑĮ
ĠÑģÐ¾ ÑĪ
ĠÐºÑĢÐ° Ð»Ð¸
ĠÐ¿Ð»Ð° ÑĩÐ¸
ĠÑģÑĤÑĢÑ£ Ð»Ñĭ
ĠÐ·Ð´ ÑĢÐ°Ð²ÑĬ
ĠÑĦÐµÐ´Ð¾ÑĢ Ð¾Ð²Ð°
ĠÐ´Ð¾Ð» Ð³Ð¸
ĠÐ¿Ð¾Ð»Ð¾ ÑĨÐºÐ¾Ð³Ð¾
ĠÐ²Ð¾Ð»Ð¾Ð´Ð¸Ð¼ ÐµÑĢÐ°
ĠÐºÑĢÑ£Ð¿ Ð¾ÑģÑĤ
ĠÐ¿Ð¾ÑģÐ»Ñ£ Ð´ÑĮ
ĠÐ±ÑĢÐ°ÑĤÐ¸ Ðµ
ĠÑĢÐ°ÑĤ Ð½ÑĭÑħ
ĠÐºÑĭ ÐµÐ²Ñĥ
ĠÐĴÐ°Ñģ Ð¸Ð»ÑĮ
ĠÑ ¦
ÑĮ ÑĨÑĮ
Ð´ ÑıÑĤÑĮ
ÑģÑĤ ÑĢÐ°ÑĤÐ¸
Ð³ Ð¾Ð²Ñ£ÑĢ
ÑĤÐ¸ ÑĤ
Ñ¹ ÑĤÑĮ
Ð¶Ðµ ÑĪÐ¸
ĠÑ¿ ÑĨÑĮ
ĠÐ¸Ð¼ ÐµÑĤÑĮ
Ð²ÑĬ êĻģ
ĠÐºÐ¾Ð½ Ð½ÑĭÐ¼ÑĬ
ÑĶ ÑĤ
ĠÐ·Ð°Ð¿ Ð¸ÑģÑı
ĠÐ¿Ð¸Ñģ ÑĨÐ¾Ð²ÑĭÑħ
ĠÐł Ð¾ÑģÑĤ
ĠÐ±Ð¶ ÑĸÐ¸
ĠÐ²ÑģÐµÐ¼ Ñ¹
ĠÑĦÐµÐ´Ð¾ÑĢ Ð¾Ð²Ð¸Ñĩ
ĠÐ´Ð¾ÑģÑĤÐ¾ Ð¸Ð½
ÑĢÐ°Ð½ ÑĨÑĥ
ĠÐ¾ÑģÑĤÐ°Ð² Ð»Ñı
ĠÑģÑĤÑĢÐ¾ Ð¸ÑĤÐ¸
ĠÑİÑĢÑĮ Ñİ
ĠÐ»Ð² ÐºÑĬ
ĠÐ¿Ð¾Ð¼ÐµÑīÐ¸ ÐºÐ¸
ĠÐ½Ð°Ð¼ÐµÑģÑĤ Ð½Ð¸ÐºÐ¾Ð¼
ĠÐ±ÐµÑĢÐµÐ¶Ðµ Ð½ÑĮÐµ
ĠÑ Ń
ĠÐ¿ ÑĥÐ´
Ð¾Ð³ Ñĭ
Ð½Ð° Ð¸
ĠÑħ Ð¾Ð¼Ñĥ
ĠÑĢÐ° Ñĥ
Ð¸Ð¼ Ð°ÑĤÐ¸
ĠÑĤÐ²Ð¾ ÐµÐ¼ÑĮ
ĠÐ³ÑĢÐ° Ð½Ð¸
Ð¼Ð° Ñı
ĠÑģÐ¾ Ñĩ
Ð¶Ð° ÐµÑĤ
ĠÐ¼Ð½Ð¾Ð³ Ð¸Ð¼ÑĬ
ĠÑĤÑĢ Ñ¹Ð´
ĠÐ´Ð²Ð° ÑĤÑĨÐ°ÑĤÐ¸
ĠÐ²Ð°ÑģÐ¸Ð» ÐµÐ²Ð¸ÑĩÑİ
Ð½Ð¸Ñ¥ Ð¼ÑĮ
ĠÑĢÐµÐºÑĥ ÑīÐµ
ĠÐ½Ñ£ÐºÑĭ Ð¹
ĠÐ·Ð´ÑĢÐ°Ð²Ð¸ Ðµ
ĠÐºÐ»Ð°Ð½Ñ§Ñİ ÑģÑ§
Ðº Ð½Ñ¹
ĠÑĤ Ñİ
ĠÐº Ð½Ð¾
Ð»Ð° Ñģ
ĠÐ½Ðµ Ð¼Ð¸
Ð¾Ñĥ Ñİ
ĠÑĢÐ°Ð· Ð¼ÑĭÑĪ
ĠÑģÐ² ÐµÑĤÐµ
Ð¶Ð¸ Ð³Ð°
ÑĨÐ¸ Ð½Ð°
ĠÑģÑĤÐ°ÑĢ ÑĨÑĥ
ĠÐ¿Ð¾Ð² Ð¾Ð»
ĠÑĩÐµÑĢ ÐµÐ·
Ð¸Ð»Ð¸ ÑģÑı
ĠÑģÑ¹ ÑīÐ°
ĠÑģÐ¾ÑĤÐ²Ð¾ÑĢ Ð¸ÑĤÑĬ
ÑİÑī Ñİ
ĠÑĤÑĢÐµÑĤÑĮ Ñİ
ĠÑħÐ¾ÑĤÑ£ Ð½Ð¸Ðµ
ĠÐ¿ÑĢÐ¾Ð¿ Ð°
ĠÐ´Ð¾Ðº Ð»Ð°Ð´
Ð·Ð½Ð° Ð¼ÐµÐ½
ĠÐ³Ð¾Ð»Ð¾Ð²Ð° Ð¼ÑĬ
ĠÐ¿ÑĢÐ¾Ð¶Ð¸ÑĤ Ð¾Ðº
Ã ·
ĠÐ¿ Ð»Ñĥ
ĠÐ´ Ñ¡
ÑĢÐ° êĻģ
ĠÑ¡ Ñĩ
ÐºÐ¸ Ð½Ð¾
Ð½Ðµ ÑħÑĬ
ĠÑģÐ» Ð½
ĠÑģÐ² ÐµÑĤÐ°
ĠÐ²ÑģÑı ÐºÑĥÑİ
ĠÐ¼Ð¾Ð½Ð°ÑģÑĤÑĭ ÑĢÐ¸
ĠÐ½Ð°ÑĪÐµ Ð³Ñ¡
ÑĤÐ² ÑĢÑĮ
ĠÑĢÑ¹ ÑģÑĮ
ĠÐ¾Ð±ÑĭÑĩÐ° Ñİ
ÑģÑĤÐ¸Ð½ Ð½Ñĥ
ĠÐ¿ÑĢÐµÐ² Ð¾Ð·
ĠÐºÐ°ÑĤ Ð¾ÑĢ
ĠÑģÐ»êĻĳ ÑĪÐ°
ĠÐļÐ°Ð½ Ð´Ð°Ð²
Ðµ ÑħÐ°ÑĤÑĮ
ÑĤ ÑĸÐ¸
Ð½Ð¸ ÑĨÑĬ
ÑĪÐ° ÐµÑĤÑĬ
ĠÐ²Ð¾ Ð¾ÑĢÑĥ
ĠÐ¾Ñĥ ÑĤÑ£
ĠÐ¿Ð¾Ð» Ñĭ
ĠÐ¡ ÑĥÐ´
ĠÐĿ Ð°Ñģ
ĠÐ¿Ð¾Ð´ Ð°ÑĤÐ¸
ĠÐĳ Ð¾ÑĢ
ĠÐ¿ÑĢÐ¾ ÑģÑĤÐ°
ĠÐ±ÐµÐ· Ð°ÐºÐ¾Ð½
ĠÐ¿ÑĢÐ°Ð² Ð¸
ĠÐ¶Ð¸Ð²Ð¾ ÑĤÐ²Ð¾ÑĢ
ĠÐ¡ÑĤ ÐµÑĢ
ĠÐ²Ð¾ÐµÐ² Ð¾Ð´Ñ£
ĠÑĤÐ°ÐºÑĬ Ð¶Ðµ
ĠÐ¤ Ð°ÑĢÐ°
ĠÐ´ÑĮÑı Ð²Ð¾Ð»ÑĬ
ĠÐ·Ð¸Ð¼ Ñ£
ĠÐºÐ°Ð¼ÐµÐ½Ð¸ ÐµÐ¼ÑĬ
ĠÐ¾ÑĥÑģÑĤÑĢÐ¾ Ð¸ÑĤÐ¸
ĠÐ¿ÐµÑĢÑģÑĤ ÐµÐ½ÑĮ
ĠÐ·Ð°Ð¿Ð¸ÑģÐ° ÑĤÑĮ
ĠÐ½ Ð¾Ð¶
Ñı Ð½Ð¸Ð½Ð°
ÑĪ Ð¸ÑĤÑģÑı
Ñ§ Ñħ
ĠÐ½Ðµ ÑĢÐ°Ð·
ĠÐĲ Ð»Ð¸Ð¼Ð¿Ð¸Ñı
ÑģÑĤÐ¸ ÑĪÐ°
Ð²Ñ£ ÑģÑĤ
ĠÐºÐ° ÑĪÐ¸Ð½
ĠÐ»Ð¸ ÑģÑĤÐ°
ĠÐľ ÐµÐ´Ðµ
ĠÑĤÐ°Ðº Ð¾Ð²ÑĭÑħ
ĠÐ´Ðµ Ð¶Ð¸
ĠÑģÑĤÑĢÐ° ÑħÑ¹
ĠÑģÑĥ ÑīÑİ
Ð¿Ð° Ð´Ð°
ĠÐ¿ÑĢÐ¸ÐºÐ°Ð· Ð½ÑĭÐ¼
ĠÑģÐ¾ÑĤÐ²Ð¾ÑĢ Ð¸Ð»ÑĬ
ĠÐ¿Ð¾ÐºÐ° Ð¶ÐµÑĤÑģÑı
ĠÑĨÐµÐ» Ð¾Ð¼ÑĬ
ÐµÐ²Ð¸Ñĩ Ñĥ
ĠêĻ© Ð½
ĠÐ´ÐµÐ»Ð° Ð¼
ÑĪÐµÐ½ÑĮ ÐºÐ¾
ĠÐºÑĢÑĬ Ð²Ð¸
ĠÐ¼Ð°Ñģ Ð»Ð°
ĠÐ¼Ð¸Ðº Ð¸ÑĤ
ĠÑĪÐ¸ÑĢ Ð¸Ð½Ñĥ
ĠÐ³Ð»ÑĥÐ± Ð¾Ðº
ĠÐ±ÑĮÑĢÐºÐ¾Ð²ÑĮ ÑģÐºÐµ
ĠêĻ©Ð² ÑģÐ°
ĠÐļÐ°Ð½Ð´Ð°Ð² Ð»Ñĥ
ĠÐ¿ Ñı
ĠÐ½Ð° Ð²Ð¾Ð´
Ñĸ ÑĤÐ¸
ĠÐ½Ð¸ ÐºÐ¸ÑĦÐ¾ÑĢ
ÐµÑģ Ñ£
ĠÑģÑĭ ÑģÐºÐ°ÑĤÐ¸
ĠÐ³Ñģ Ð´ÑĮ
ĠÐ¸ÑģÐ¿ Ð¾ÑĢÑĤÐ¸
ĠÐ½ÐµÐ´ ÐµÐ»Ñİ
ĠÐ±Ð»Ð°Ð³ Ð¾Ð²
ÑĪÐµÐ½ ÑĸÐ°
ĠÐ¾Ð±ÑĢÐ° Ð·Ð°
ĠÑĥÐ± Ð¾Ð³Ð°
ĠÐ¸Ð¼Ð¸ Ð¶Ðµ
Ð½Ð¸ÑĨ Ñ«
ĠÐ¥ÑĢÐ¸ÑģÑĤ Ð¾Ñģ
ĠÑĤÐ°Ð¹ Ð½Ð¾
Ð° Ð¼Ð¸
ÑĢ ÑĸÐ¸
ĠÐ² ÐºÑ¹
Ñĩ Ð½ÑĭÑħÑĬ
ĠÐ¿ÑĢ Ð¾ÐºÐ°
ĠÐ³ ÐµÑ¡
ÑĨ ÑĸÐ¸
ÐµÑĤ Ñĭ
ĠÑĢÐ° ÑģÐºÐ°
ÑĩÐ¸ ÑĪÐ¸
ĠÐ¾Ñĥ ÑģÑĤÐ°Ð²
ĠÐ¿Ð¾Ñģ Ð¾Ð±
ĠêĻĹ ÑĢÐ¾ÑģÐ»Ð°Ð²ÑĬ
ĠÐŀ ÑĤÑĮ
ĠÐ²Ñĭ Ð¸
ĠÐ¿Ð¾Ð¼ Ð¾Ð·Ð¸
ĠÐ²Ð¸ Ð¶Ñĥ
Ð¶Ð° Ð¹
ÑĶ Ñİ
ĠÐ¿Ð¸Ñģ ÑĨÑĭ
ĠÑģÐ¾Ð» Ð¾Ð´Ñĥ
ĠÐ½Ð°ÐºÐ°Ð· ÑĭÐ²Ð°ÑĤÐ¸
ĠÐ´ÑĬ Ð¼Ð¸ÑĤ
ĠÐ¢Ñ£ Ð¼ÑĬ
ĠÐ¶Ð¸ÑĤ ÐµÐ»ÑĮ
ĠÐľÐ¾ÑģÐº Ð²Ñĭ
ĠÐ¿Ð¾Ð´Ð²Ð¸ Ð·Ð°
ĠÐ¶Ð°Ð»Ð¾Ð² Ð°Ð»ÑĮ
ĠÐ³Ð»Ñ£ Ð±ÑĬ
ĠÐ²Ð½Ðµ Ð·Ð°
Ð¸ êĻĹ
Ð¸ Ð´Ð¸
Ðº ÑĢ
Ñĭ ÑĪ
ĠÐº Ð¾Ð²Ð¾
Ð½Ð¸ ÑĤÑĬ
ĠÐ° Ð±Ð¾
ĠÑģÐ² ÐµÐ´
Ð³Ð° ÑħÑĬ
ĠÑģÐ¾ ÑĦÐ¸
ĠÐ¼Ðµ ÑĩÐ¸
ĠÐ¿Ð¾ÑģÐ»Ð° Ð½Ð¾
ĠÑģÐ¸Ð» Ð½Ð¾
ĠÑģÐ»Ð¾Ð² Ð¾Ð¼
ĠÐ¼Ð°ÑĢ ÑĤÐ¸Ð½
ĠÐ°Ð¿ ÑĢ
ĠÐ²Ð¸Ð´ Ð¸ÑĤÐµ
ĠÑģÐ¾Ñģ ÑĥÐ´Ñĭ
ĠÑĤÑĭÑģÑ§ ÑīÑĬ
ĠÐ¸Ð·Ñĭ Ð´Ðµ
ĠÐºÑĢÐµÑģÑĤÑĮÑıÐ½Ðµ Ñħ
ĠÑĦÐ°ÑĢÐ° Ñ¡
ĠÐ²Ð·ÑıÑĤ Ñĭ
ĠÐ³Ð½Ñ£Ð· Ð´Ð¾
Ð» ÐºÐ°
ĠÐ¸ Ð²ÐµÑĢ
Ñ£ Ñı
ĠÑĢ Ð¾ÑĤ
ĠÐµ Ñ§
ĠÐ·Ð° Ð²Ñ£ÑĤÑĬ
ÑīÐµ Ð²Ð°
ĠÐŁ Ð¸Ñģ
Ġ: -
ĠÑĪ Ð»Ð°
ĠÐĵ Ð»
ĠÐ¿ÑĢÑ£ Ð¿
ĠÐ¿ÑĢÑ£ ÑģÑĤÐ°
ĠÐ²ÑĬÐ· Ð¼Ð¸
ĠÑĥÑĩ Ð½ÐµÑĤÑĬ
ĠÑģÐ»Ñĥ Ð¶Ð¸ÑĤÑĮ
ĠÑģÐ²Ñ£ ÑĤÑĥ
ĠÐ¼Ð¾ÑĢ Ð¸
ĠÐ°Ð¿ ÑĢÑ£Ð»Ñı
Ð´ÐµÑģÑ§ ÑĤ
ĠÐ¿ÑıÑĤÐ¸ Ð´ÐµÑģÑıÑĤ
ĠÐ¸ÑģÑħÐ¾Ð´ Ñ£
ĠÑģÑĢÐµÐ´ Ð¸
Ġ70 8
ĠÐ¾Ð±Ðµ ÑīÐ°
ĠÐĴÐ°ÑĢ ÑĦ
Ð² Ð½Ð¾
ĠÐ² Ð¸Ñģ
Ð¸Ð½ Ð¾Ð²Ð°
ÑīÐµ Ð½Ð¸Ð¸
ĠÐļ ÑĢÐµ
ÑģÐºÑĭ Ð°
ĠÐ²ÐµÐ»Ð¸ÐºÐ¸ Ð¼Ð¸
ĠÐ±êĻĳ Ð»ÑĬ
ĠÑĢÐ°Ð·ÑĥÐ¼Ñ£ Ð¹
ĠÐ²ÐµÐ´ Ð¾Ð¼Ð¾
ĠÑĢÐ°Ð·Ð¼Ñ£ ÑĢÑĥ
ĠÐ¾Ð³Ð½ÐµÐ½ Ð½ÑĭÐ¼ÑĬ
ĠÐĴÑ£ Ð´Ð¾Ð¼Ð¾
ĠÐ²ÑĭÑĪ Ð¸Ð½Ñĥ
ĠÐºÑĥÐ· Ð½Ðµ
ĠÐ¿ÑĢÐ¾Ð¼ÐµÐ¶ ÑĥÑĤ
ĠÐ½Ð°Ð¿ÑĢÐ°Ð²Ð»ÐµÐ½ ÑĸÑİ
ĠÐ½ÐµÑīÐ° Ð´Ð½Ð¾
Ñĭ Ð²Ð°ÑĤÑĮ
ĠÑĤ ÐµÐ»Ðµ
ĠÐ³ Ð»Ð¸
Ð»Ð° Ð½Ñı
ÐµÐ½ Ð½Ð¾
ĠÑĥ Ð¿ÑĢÐ°
Ð½Ð¾ ÑģÐ¸
êĻĳ Ð¼ÑĬ
Ð»Ðµ Ñİ
ĠÐ¿Ð¾Ñģ ÑĢÐ°Ð¼Ð¸
ÑīÐ° Ð°
ÑĦ Ð°Ð½ÑĬ
ĠÐ±Ñ£ Ð´Ð°
ĠÐ½Ñ£ Ñģ
ĠÑģÑĤÐ° Ñ³ÑĮ
ĠÑĤÑĥ ÑĢÐ°
ĠÑħÐ¾ ÑĩÑĥ
ĠÑī ÑĮ
ĠÑģÐ¾Ð» Ð½Ðµ
ĠÐ¾Ð´ Ð½Ð¾Ð¼Ñĥ
ÑĤÐµÐ» Ñİ
ĠÑħÐ¾Ñī ÐµÑĤÐµ
ĠÐ±ÐµÑģÑ£ Ð´Ð¾Ð²Ð°
ĠÐ½ÐµÐ´Ð¾ ÑģÑĤÐ¾
ĠÐ½Ñ£Ðº Ð¾Ð³Ð´Ð°
ĠÐºÑĥÐ½ Ð³Ñĥ
ĠÐ² ÑĢÑĮ
ĠÐ´ Ð¸Ð¼Ð¸ÑĤ
Ð· Ñ¹
Ð»Ð¸ ÑĨÐ¸
ĠÐ½Ðµ Ð¿Ð¾Ð´
ĠÐµ ÑĢÐµÐ¼
Ð°Ð½ Ð¾Ð²Ð°
ĠÑĨ ÑĢÐ¸
ÑģÑĤÐ¸ êĻĹ
ĠÑı Ð±
ĠÑĢÐµ Ð±ÑĢÐ°
ĠÐĳ Ð¾
ĠÐ²ÑģÑı ÐºÐ¾Ðµ
ĠÐ¼Ð° ÑģÑĤÐµ
ÑģÐ¿ Ð¾Ð»
ĠÑĩÐ¸ ÑģÑĤÐ°
ĠÐ½ÐµÐ¼ Ð¾Ñĥ
ĠÐ¾Ð¿ Ð¾Ð»
ĠÑģÐ»Ð¾Ð²ÐµÑģ Ðµ
ĠÐ½Ð°Ñĩ Ð°Ð»Ð¾
ĠÐĴÑĭ ÑĪÑĮ
ĠÐ¼ÑĥÑĢ Ð·Ð°
Ñģ Ð½Ð¸
ĠÑģ Ð¾Ð¹
Ñħ êĻ¿
Ñĩ ÐµÐ²ÑĬ
ĠÐ½Ð° Ñ¹
ĠÐ· ÑĥÐ±
ĠÐ» Ð°ÑĤÑĭ
Ð¶ ÑıÑĤÐ¸
êĻĭ ÑĤÑĮ
Ð²Ð° ÑĪÐ°
Ð°Ðº Ð¾Ð²ÑĬ
ĠÐ²Ñ£ ÑģÑĤÐµ
ĠÑĨÐ°ÑĢ ÐµÐ²Ð¸Ñĩ
ĠÐ¸Ñģ Ð°
ĠÐºÐ¾ÑĢ Ð¾Ð²Ð°
ĠÑģÐ°Ð¼ Ð¾Ð¸
ĠÑħÐ¾ÑĤ Ðµ
ĠÐ¾Ð¿ ÑĢÐ°Ð²ÑĮ
ĠÐ¥ Ð¾ÑĤ
ĠÑģÐ¼ÐµÑĢ ÑĤÑĮÑİ
ĠÐ¢Ñ£ Ð¼ÑĮ
ĠÐ²Ð¾Ð¿ ÑĢÐ¾ÑĪÐ°
ĠÐłÐ° Ð´Ñĥ
ĠÐ¿ÑĢÐ¾Ð³ Ð¾Ð²Ð¾ÑĢ
Ð³Ð°ÑĢÐ¸ Ð½Ð°
Ñģ ÐµÐ¼ÑĬ
Ð² ÑģÑ§
Ñħ Ð¾Ð²Ð°
Ñħ Ð²Ð°ÑĤÐ¸
ĠÐ· ÑĢÑ§
ĠÐ· Ð±Ð¾ÑĢ
Ð¾Ñĥ Ð¸
ĠÐ¸Ð· Ð±Ð¸
ĠÑĢÑĥ ÐºÐ¾Ð¿
ĠÑĤÑ£ Ð»Ñĥ
ĠÐĵ ÑĢÐµÑĩÐµ
ĠÐ¿Ð° ÑģÑĤÑĭ
ĠÐ²ÑĬÐ· Ð´ÑĬ
ĠÐ¿Ð¾Ð³ Ð½Ð°
ĠÐ¿Ð¾ÑģÑĤÐ°Ð² Ð¸Ð»Ð¸
ĠÐ²Ð°ÑĢ Ð¸ÑĤÐ¸
ĠÐĳÐ¾Ð¶Ð¸ Ðµ
ĠÐ¿Ð»ÑĬ ÑĤÐ¸
ĠÐ´Ð¾ÑĢÐ¾Ð³ Ñĥ
ĠÑĩÐ¾Ð» Ð¾Ð¼ÑĬ
ĠÐ¿ÑĢÐ¾ÑĩÐ¸ Ð¸
ĠÐ¡Ð²Ñı ÑĤÐ°Ð³Ð¾
ĠÐ·Ð´ÑĢÐ°Ð²ÑģÑĤÐ²Ñĥ Ð¸
Ð°Ð» Ð¾Ð¼ÑĬ
ĠÑģÐ¸ ÑĨ
ĠÑĢÐ°Ð· Ð±
ĠÑ¹ ÑģÑĤÐ°Ð²
Ð»Ñ§ Ð½Ðµ
ĠÐ¼Ð°Ð» Ñĭ
ĠÑĩÐ¸ ÑģÑĤÑĬ
ĠÑĤÑĢÐ¸ ÑģÑĤÐ°
ĠÐ±Ðµ Ð³Ð°Ñħ
ĠÑħÐ¾Ð»Ð¾Ð¿ ÑģÑĤÐ²Ðµ
ĠÐ³Ð¾Ð» Ð¾ÑģÐ¾Ð¼ÑĬ
ĠÐµÐ´Ð¸Ð½ ÑĮ
ĠÐ±ÐµÑģÑ£ Ð´Ð¾Ð²Ð°ÑĤÐ¸
ĠÑĤÑĭÑģÑ§ Ñĩ
ĠÐĨÐ²Ð°Ð½ Ð¾Ð²Ð¸ÑĩÑĮ
ĠÐ´ÑĢÑĮÐ· Ð½Ð¾Ð²Ðµ
ĠÐ¢Ð¾Ð¼ÑĮ Ð¶
Ð² ÐµÐ½ÑĬ
ĠÑģ Ð¿Ð¾Ð´
ĠÐ± Ð´
Ñĩ ÐºÐ¾
ĠÐ¾ Ð·ÐµÑĢÐ°
Ð»Ð¸ Ñħ
ÑģÑĤÐ¸ Ð»Ð¸
ĠÑĤÐ¾ ÑĩÑĮ
ĠÐ¾Ð± Ð¾Ð»
ĠÑĨÐ°ÑĢ Ñ£
ĠÐŀ Ð±
ĠÐł Ð¾Ñģ
Ð¿Ð¸ ÑĪÐ¸
ĠÐĽ ÐµÐ²
ĠÐ³Ð¾ÑģÐ¿Ð¾Ð´ ÑģÑĤÐ²êĻĭ
ĠÐ³Ð¾Ð» Ñĥ
ĠÐºÐ¾Ð» Ð¾Ðº
ĠÐ¶Ð°Ð» Ð¾ÑģÑĤ
ĠÐ·Ð´Ñ£ ÑģÑĮ
ĠÐ´ÑĢÐµÐ² Ð»Ðµ
ĠÐ³ÑĬ ÑĢÐ°Ð´Ñĥ
ĠÐ¿Ð¾Ð³Ð¸Ð± Ð»Ð¾
ĠÑģÑĤÑĢÐ°ÑħÑĬ Ð¼ÑĮ
ĠÐ²ÑģÐµÐ´ ÐµÑĢÐ¶
ÑĢ ÑĸÐµ
Ð½ ÑĹ
ĠÐ¿ Ñ«
Ñĩ ÐµÐ»
Ñ§ Ð½ÑĸÐµ
Ð¿ ÐµÑĢ
ĠÐ· ÑĮ
ĠÑ¡ ÑĢÑĥÐ¶ÑĮ
ÑĪÐµ Ð²Ð°
ĠÑĢÐµ Ð´Ð°
ĠÐ²Ñ£ ÑĤÑĢ
ĠÐ³ÑĢÐ° Ð±
Ð»Ñİ ÑĤÑĮ
ĠÐ¿Ð¾Ð¼ ÐµÑĢ
ĠÐ¼Ñ£ ÑģÑĤ
ĠÐ´Ð²Ð¾ÑĢ ÑĨÐ¾Ð²ÑĭÑħ
ĠÐ±Ð» Ñ¹
ĠÑĨÑĢ ÐºÐ²Ð¸
ĠÐ¼Ð½Ð¾Ð³ ÑĸÐµ
ĠÐ¿ÑĢÐµÐ´ Ð¾
ĠÑĩÐ° Ð´
ĠÐ½ÐµÐ´ Ð¾Ð±
ĠÑħÑĢÐ° Ð±ÑĢÐ°
ĠÑģÐ²Ð¾Ñ¥ Ð¸
ĠÐ¿ÑĥÑģÑĤÐ¾ ÑĪÐ¼Ð¸
ĠÐ·ÑĬ Ð»Ñ£
ĠÐ°ÑĢÑħÐ¸ ÑģÑĤÑĢÐ°ÑĤÐ¸
Î¿Ï ħ
Ð» Ð¾Ð´
Ð² Ð°ÑĢÐ¸
ĠÐ² Ð½Ð¸ÑĤÐ¸
ĠÐ½ Ñı
ĠÐº Ð´Ðµ
Ð¾Ð² êĻĭ
ĠÐºÐ° ÐºÐ°Ñı
Ð±Ñ£ Ð³
ĠÐ³Ð¾ÑĢ ÐºÐ¾
Ð²Ð¾Ð» Ð°
ĠÐ¼Ñ¹ Ð¶Ðµ
ĠÐ¿Ð¸ÑģÐ° Ð½Ð°
ĠÐ¼Ñ« Ð¶ÑĮ
ĠÑģÐ¾Ñģ êĻĭ
ĠÐ¿Ð¾Ð³ÑĥÐ± Ð¸ÑĤÐ¸
ĠêĻģÐ½Ð° Ð¼ÐµÐ½
Ð¾ ÑĤÑĮ
Ð½ Ð¾Ð±
ĠÐº Ð»ÑĮ
ĠÐ± Ð¸ÑĤ
ĠÐ° Ð¶Ð½Ð¾
Ð¾Ð³ ÑĢÑ£
Ð²Ð° Ð°Ð³Ð¾
ĠÐ¾ÑĤ Ð½Ñİ
ĠÐ¾Ð± Ð²Ð¸
ĠÐ»Ð¸ ÑĪÐµ
ĠÐ¿ÑĢÐµ Ð±
ĠÑģÑĤÐ°ÑĢ ÑĨÐµÐ¼
ĠÐ´ÑĢÑĥ Ð³Ð¾Ð¸
ĠÑģÐ²ÑıÑĤ ÑĭÑı
ĠÐ¾Ð±Ñĭ ÑģÐºÐ¾Ð¼
ĠÑĤÐ¾ÑĢ Ð³Ñĥ
ĠÑĢÐ¾Ñģ Ð¿Ð¸ÑģÐ¸
ĠÐ±Ð»Ð¸ Ð¶Ðµ
ĠÐ¿Ð¸ÑĤÐ¸ Ðµ
ĠÐ´Ñ£Ð²Ð¸ ÑĨÐ°
Ð» ÐµÐ½ÑĮÐµ
ÑĮ ÑģÑĤÐ²Ð¾
ĠÐ¾ Ð½Ñ£
ĠÐ¾ Ð½Ñĥ
ĠÐ³ Ð»ÑĮ
ĠÐ½Ðµ Ð·Ð½Ð°
ĠÐ¿Ð¾ ÑĤÐ¾
ĠÐ²ÑĬ Ð»ÑĬ
ÐºÐ° êĻģÐ°
Ð¾Ð± Ñĥ
êĻĹ ÐºÐ¾Ð¶Ðµ
ÑīÐµ Ð½Ð¸
ĠÐ¶ Ñı
ĠÐ¸Ð· Ð±ÑĢÐ°
ĠÐ¾Ð± Ð¾ÑĢÐ¾ÑĤ
ÑīÐ° ÐµÑĤÑĬ
ĠÐ²Ð¾Ð· Ð´ÐµÑĢ
ĠÐ±Ñ£ ÑģÑĬ
ĠÐ²Ð° ÑģÐºÐ°
ÐµÐ½Ð¸ Ñ¥
Ð½Ð¸Ðº Ð¾Ð²Ð°
ĠÐ²ÐµÐ»Ð¸Ðº Ñĭ
ĠÐ¿Ð¸Ñģ Ð°Ð½ÑĸÐµ
Ð±Ð° ÑĩÐµ
ĠÑĨÐ°ÑĢÑĮ ÑģÑĤÐ²Ð°
ĠÐ³Ð¾Ð²Ð¾ÑĢ Ð¸Ð»Ð¸
ĠÐ¿ÑĢÐ¾Ð´Ð° Ð²Ð°ÑĤÐ¸
ĠÑĨÑ£ Ð»Ð¸
ĠÑĨÑĢÐº Ð²ÑĮ
ĠÐ´ÐµÐ² Ñı
ĠÑģÐ¾Ðº ÑĢêĻĭ
ĠÐ¾Ð» ÑĦ
ĠÑ¡Ð½ Ð´ÑĢÑ£
ĠÐ³Ð¾ÑģÐ¿ Ð¾Ð¶Ðµ
Ñģ Ð¾Ð²Ð°
ĠÐ¿ Ð°Ð½ÑĮ
ĠÐ´ ÑħÑĬ
ÑĪ ÐµÐ¼
ĠÐ¿ÑĢ Ñĥ
ĠÐ¿ÑĢ Ð¾Ð²Ñ£
Ð¿ Ð¾Ð»ÑĮ
ÐºÐ° Ð¼Ð°
Ð´Ð¸ ÑģÑı
ĠÐŁ Ð»Ð°
ĠÐ¾Ð± Ð¸Ð´
Ð²Ð¸ ÑģÑı
ÑīÐ° ÑĪÐµ
Ð³Ð° Ð»Ð¸
ĠÐĵ Ð´Ñ£
ĠÐ³ÑĢ ÑĨÐ¸
ÑħÑĥ ÑģÑı
ĠÐ´Ð¾Ð» Ñĥ
Ð»Ð¾Ð² ÐµÑģ
ĠÐ²Ð¾Ð»Ð¾ÑģÑĤ ÐµÐ»Ð¸
ĠÐ¼Ð¸ÑħÐ°Ð¹ Ð»Ð¾
ĠÑĢÐ°Ð·Ð±Ð¾Ð¹ Ð½Ð¸ÐºÐ°
ĠÐ»ÐµÐ¶ Ð¸ÑĤÑĬ
ĠÐ¿Ñ£Ñģ Ð½ÑĮ
ĠÐ¸Ð³Ð¾ÑĢ ÑĮ
ĠÐ¿ ÐµÐ»
ĠÐ´ ÑħÐ¾Ð²
ĠÐ¼ Ð¾Ð¶
Ð· Ð´ÑĬ
Ð¾Ð³ Ð°ÑĤÐ¸
ĠÐ²Ñģ Ð»Ñ£Ð´ÑĬ
Ñ« ÑīÐ¸
Ð½Ñ£ Ð¸ÑĪÐ¸
ĠÑĢÐµ Ð·Ð°Ð½
ĠÐºÑĬ Ð½Ð¸
ĠÐ¿Ð¾Ðº ÑĢÐ¾Ð²Ð°
ÑĢÑı Ð´
ÐµÐ½Ð¸ ÐµÐ¼ÑĬ
ÑĶ ÑĢ
ĠÐ´Ðµ Ð±
ĠÑģÑĥ Ð±
ĠÐł Ð°Ð·ÑĥÐ¼Ñ£
ĠÐ¸ÑģÑĤ Ð¸Ð½Ñĥ
ĠÑģÐ»Ð° Ð²Ð¾
ĠÐ¿Ñ£ ÑĪÐ¸Ð¼ÑĬ
ĠÑĩÐ¸Ñģ ÐµÐ»ÑĬ
ĠÐŁÐ¾ÑĤ Ð¾Ð¼
Ð´ÐµÑģÑı ÑĤÑĮ
ĠÐ½Ñ¹ Ð¶
ĠÐ°ÑĤ Ð°Ð¼
Ð½ Ð½Ð°
Ð² Ð¸ÑĤ
Ñ§ Ð½Ñĥ
ĠÐ» Ñĸ
ĠÑĥ ÑģÐ»Ñĭ
ĠÐ²Ñģ Ð¸Ð¼ÑĬ
ĠÐ¾ÑĤ ÑģÐµ
Ð¾Ð²Ð° ÑĪÐµ
ĠÐ¿Ð¾Ð´ Ð¿Ð¸ÑģÐ¸
ĠÐ²Ñ£ ÑģÑĤ
Ð»Ñ§ ÑĤ
ĠÐ³Ð»Ð°Ð³Ð¾Ð» Ñĭ
ĠÐ¸ÑģÐ¿ Ð¾ÑĢ
ÐµÑĪÐ¸ ÑģÑı
ĠÐ¶Ð¸ÑĤÐ¸ Ð¸
ĠÐºÐ»Ð° Ð½Ñı
ĠÑĩÐµÑģÑĤ Ð½Ð°Ð³Ð¾
ĠÐ²Ð¾ÑģÐ¿ Ð¾Ð¼Ð¸Ð½Ð°
ĠÐ¿ÑĢÑĬ Ð³Ð°ÑĢ
ĠÐ¾Ð±ÑĢÑı ÑīÐµÑĪÐ¸
ĠÐ¿ÑĢÐ¸Ð±Ð»Ð¸ Ð¶Ð°
ĠÐ¼ÑģÑĤÐ¸ ÑģÐ»Ð°Ð²
ĠÐ¿Ð¾ÑĩÐµ Ð»Ð¸
ĠÑ¿Ð½Ñİ Ð´ÑĬ
ĠÐ¿ÑĢÐ¸Ð³Ð¾Ð´ Ð¸ÑĤ
Ð» ÐºÐ¾
Ñĭ Ð½
ĠÐ½Ð° ÐµÐ¼
Ð½Ð¸ ÑĪÐºÐ¾
ĠÐ¿ÑĢÐ¸ Ð¾Ð±ÑĮ
ÑĩÐ¸ Ð»Ð°
Ð²Ñ£ ÑĢ
ĠÐľ Ð¸Ð»Ð¸
ĠÑģÐ² êĻĻ
ĠÑ¹ ÑĤ
ĠÑĩÐµÑĢ ÑĤÑ£
ĠÑħÐ¾ÑĤ Ñ§ÑīÐµ
ĠÐ¾Ñģ Ð½Ð¾Ð²Ð°
ĠÑĦÐµÐ´Ð¾ÑĢ Ð¾Ð²Ð¸ÑĩÑİ
ĠÑĢÑ¹ Ð±Ð°
ĠÑģÐ»Ñ¹ Ð³Ð¸
ĠÐ±Ð¾Ð¶Ð¸ Ñİ
ĠÑģÐ¾Ð²ÐµÑĢ ÑĪÐ¸
ĠÑĪÐ°ÑĤ ÑĢÑĭ
ĠÐºÐ¸ÐµÐ² ÑģÐºÐ¾Ð¼Ñĥ
ĠÐ½Ð¸Ð· ÐºÐ¾
ĠÐ½Ð¸ÑĩÑĮ ÑĤÐ¾Ð¶Ðµ
ĠÑħÑĢÐµ ÑģÑĤÐ¸
Ð² ÐºÑĬ
Ð² ÑĪêĻĭ
ĠÐ² ÐºêĻĭ
ĠÐ´ Ð¾Ð²Ð°
Ñİ ÑĪÑĤÐ°
ĠÐ¾ ÑĦÐ¾Ð½
ĠÐ¿Ð¾ êĻĹ
ĠÐ´Ð° Ð²ÑĬ
ĠÑģÐµ ÑģÑĤÑĢ
Ð¾Ð¿ ÑĬ
ĠÐ¾Ð± ÐµÑĢÐµ
ĠÐĿÐµ ÐºÑĤÐ°
ĠÐ¿Ð¸ ÑīÑĥ
ĠÑģÐ°Ð¼ Ð¾Ð¿
ĠÐł ÐµÐ·
ĠÐ¼Ñĭ ÑģÐ»
ĠÐ²Ð»Ð° ÑģÑĭ
ĠÑĩÐ° ÑģÑĤÐµÐ¹
ĠÑĤÑĢÐ¸ Ð´ÑĨÐ°ÑĤÑĮ
ĠÑĩÐµÐ»Ð¾Ð²Ðµ ÐºÐµ
ĠÐ¾Ñģ ÑĥÐ´Ð°ÑĢ
Ð±ÑĮ ÑĢÐ°
ĠÐ¶Ð°Ð» Ñĥ
ĠÑģêĻĭ Ð´ÑĬ
ĠÐ¸ÑģÐº ÐµÑħ
ĠÐ¿Ð¾ÑģÐ»Ñĥ ÑĪÑı
ĠÐ¿Ð¾Ð±Ñ£ Ð¶Ðµ
ĠÐ¼Ð¾Ð»Ð¸ÑĤ Ð²Ð¾Ñİ
ĠÑģÐµÐ´ Ð¼
ĠÐ¾ÑĤÐ²ÐµÑĤ Ñĥ
ĠÑģÑĤÑĢÑ£Ð»ÑĮ Ð±Ñĭ
ĠÐ½Ð°Ñĥ ÐºÐ°
ĠÐĴÑĮ ÑģÑı
ĠÑĨÐµÑĤ êĻĳÑĢÐ¸
ĠÑģÐ¾Ð²Ñ£ ÑĤÑĬ
Ð±ÑĢÑ£ ÑĤÐµ
ĠÑģÐ²Ð¸Ð½ ÑĩÐ°ÑĤ
ĠÑĢÑ¹ÐºÐ¾Ð´Ñ£ Ð»ÑĮ
ĠÑĥÐ±ÑĮ ÐµÑĤ
ĠÐ²ÑĭÑģÐ»Ñĥ Ð¶Ðµ
ĠÐ¿ÑĥÑĪÐºÐ°ÑĢÑı Ð¼ÑĬ
ĠÐ¾Ð±ÐµÑģÑĩÐµÑģÑĤ Ð¸ÑĤ
ÑĤ Ð²Ñ£
Ñģ Ð¾ÑĤ
ĠÐ¾ ÑĩÐµÐ¹
ĠÑĢ Ñ§Ð´
ĠÐ° Ð½Ð¾
ĠÐ¿ÑĢÐ¸ Ð½Ñı
ĠÑĢÐ° Ð¶Ð°
ĠÐ½Ð¸ Ð·Ñĥ
ĠÐ¶ Ð°ÑĤ
ĠÐ²Ð¾ ÑģÑĤÐ¾Ðº
ĠÐ¾Ñĥ Ð²
ĠÐĿ ÑĭÐ½Ñ£
ÑĩÐ° ÑģÑĤ
Ð»ÑĮ ÑĪÐµ
ĠÐ¿Ð¾Ðº Ð¸Ð½Ñĥ
ĠÐ²Ð° ÑĪÑĮ
ĠÐ²Ð° ÑĪÐ¸Ð¼ÑĬ
ĠÐ³Ð¾ÑĢ ÑĬ
ĠÐ°Ð¿ ÑĢÐ¸Ð»
ÑĨÐºÐ¸ Ð¼ÑĬ
ĠÐ²Ð¸Ð½Ð¾Ð²Ð° ÑĤ
ĠÑĢÐ¾ÑģÐ¿ÑĢÐ¾Ñģ Ðµ
ĠÑ¡Ð»ÑĮ Ð³Ð°
Ð°ÑĢ Ð¾Ð´
Ð¶Ðµ Ð½ÑĮ
ĠÑĢÐ° Ñı
ĠÐ¿ÑĢÐ°Ð² Ð¸Ð»Ð°
ĠÑķ Ñ£Ð»Ð¾
ĠÑģÐ»Ñĥ Ð¶Ð¸
ĠÐ¸Ð½ Ð¾Ð¼ÑĬ
ĠÐ³Ð¾Ð´ ÐµÑħ
ĠÐ¼Ñ§ ÑģÐ°
ĠÑĢÐ°êĻģ Ñ¹Ð¼Ñ£
ĠÐ´êĻĭ Ð¼Ð°
ÑĤÑĢ ÐµÑĤÑĮ
ĠÐ´ÑĢÑ¹ Ð³Ð°
ĠÐ´Ð¾ÑģÑĤ Ð°Ð»
ĠÐ±Ð¾Ð¶ÑĮ ÑģÑĤÐ²
ĠÐ½Ð°ÑĢÐ¾ ÑĩÐ¸ÑĤ
ĠÐºÑĸÐ¸ Ð¶Ð´Ð¾
Ð¸ Ð½Ð¸
ÑĢ Ð·
ĠÐ¸ ÐµÑĢ
Ðº Ð¾Ð²Ñ£
ĠÐº Ð»ÐµÐ½
ÐµÐ» ÐµÐ¹
ÑĪÐ° Ñİ
ÑĪÐ° ÐµÑĤÑĮ
Ð°Ð½ Ð¾Ð¼ÑĬ
ĠÐ½Ð¸ ÐºÐ¾
ĠÐ»Ñİ ÑĤÑ£
ĠÐŁ ÑĢÐ¾Ñģ
ĠÐ¸Ð· Ð±Ð¸ÑĪÐ°
ĠÑĤÐµ Ð±Ñ§
ĠÑģÑĭ Ð¹
ĠÐ²Ð¸ Ð¶Ð´ÑĮ
ĠÑĤÑ£ ÑħÑĮ
êĻ¿ ÑĪÐµ
Ð²Ñĭ Ð¼
ĠÐ¸ÑģÐ¿ ÑĭÑĤ
ĠÐ²Ð¸Ð´Ñ£ ÑĪÐ°
ĠÐ·Ð»Ð° ÑĤÐ¾Ð¼ÑĬ
ĠÐ±ÑĭÐ²Ð° ÑİÑĤÑĮ
ĠÐ²Ð¾Ð·Ð¼ ÐµÑĤÑĮ
ÑħêĻĭ ÑģÑ§
ĠÐ¿êĻĭ ÑģÑĤÑĭÐ½Ð¸
ĠÐ³Ð°Ð² ÑĢ
ĠÑĤÐ²ÐµÑĢ Ð´Ð¾
ĠÐ¿Ð¾Ð¼ÐµÑģÑĤÑĮ Ð¸
ĠÐ·Ð°Ð¿Ð»Ð° ÑĤÐ¸ÑĤÐ¸
ĠÐ¼Ð°ÐºÐµÐ´ Ð¾Ð½ÑĮ
Ð´ ÐµÑĤÐµ
ĠÑĤ Ð¼Ð°
ÑģÑĤ Ð¸ÑĤÐµ
ĠÐ± ÑĢÑ£
Ñħ Ð¸ÑĤ
Ð»Ð¸ Ð²Ñĥ
ĠÐµ ÑħÐ°ÑĤÑĮ
ĠÑĩ Ñģ
Ð¶ Ð¾Ñĥ
ÑĥÐ´ Ð¾Ñĥ
Ð´Ð° Ð¼ÑĬ
Ñ¡ Ð²Ñĭ
Ð°Ð¼ ÐµÐ½
Ð»Ñı Ñı
ĠÑĢÐ°Ð· Ð±Ð¸
ÑīÐ¸ ÐºÑĥ
ĠÑĨÑ£ Ð»Ð¾
Ð»Ð¾Ð¶ Ð¸ÑĤ
ĠÐ´ÑĢÑĥÐ³ Ð¾Ð¼ÑĬ
ĠÐ²Ð¾Ð»Ð¾Ð´Ð¸Ð¼ÐµÑĢ ÑģÐºÐ¾Ð¼
ĠÐ·Ð¸Ð¼ Ñ¹
ĠÐ¿ÑĢÐ¾ÑĢÐ¾ ÑĩÐµ
ĠêĻģÐ»Ð° ÑĤÐ¾
ĠÐ¿Ð¾ÐºÑĢÐ¾Ð² ÑģÐºÐ¾Ð³Ð¾
ĠÐ± Ð³Ð¾
ĠÐ¿Ð¾ ÑĩÐ¸Ð½Ð¸
ĠÐ¿Ð¾Ð» Ð·Ñĥ
ĠÐ¡ Ð²Ñ£ÑĤÑĬ
ĠÐºÑĬ Ð´Ðµ
Ð»Ñ£ Ð·Ñĥ
ĠÑģÐ²Ð¾Ðµ Ð²Ð¾
ĠÑĤÑ£ Ð¼ÑĮÐ¶Ðµ
êĻ¿ ÑĤÐ¾
ĠÐºÐ¾ÑĢ Ð¾Ð±Ð¸
ĠÐ¼Ð¸Ð»Ð¾ ÑģÑĤÑĸÑİ
ĠÑĩÑİ Ð¶
ĠÐ²Ð¸Ð´Ñ£ Ð»ÑĬ
ĠÐ²ÑĢÐ° Ð³Ñĭ
ĠÐ¼Ð¾ÑĢ Ð¾Ð·
ĠÑħÑĢÐ° Ð½Ð¸ÑĤ
ĠÐ½Ð°ÑĪÐ¸ Ð¼Ð¸
Ð¶Ð´Ðµ Ñİ
ĠÐ¿Ð¸ÑģÐ° Ð½Ð¸Ðµ
ĠÐ³ÑĢÐ¸Ð²ÑĮ Ð½ÑĮ
ĠÐ¿ÑĢÑĸÐ¸ Ð´ÐµÑĤÑĬ
Ð¸ÑĪ ÑĸÐ¸
ĠÐ¿ÑĢÐµÐ¼ Ñ£
ĠÐ´ÑĢÑĬ Ð¶Ð°
ĠÐĺÐ· Ñ§ÑģÐ»Ð°Ð²
Ð½Ð¸Ð¼Ð° Ð¹
ĠÐ¿Ð¾ÑĨ ÐµÐ»
ĠÐ¸ ÐµÐ²Ð°
ĠÐ´ ÐµÐ¼
Ñĩ Ð½ÑĭÑı
ĠÑĢ Ð¶ÐµÐ²
ĠÐ½Ðµ Ð¶
ĠÐ» Ð¾Ð±
êĻģ Ð°Ð½
ĠÑĪ Ð»ÑıÑħ
ĠÐļ Ð¾Ðµ
ĠÑĢÐ°Ð· Ð´Ð°
ÑĦ Ð»ÑıÐ½
ĠÑģÑĤÐ°ÑĢ ÑĬ
ĠÑģÑĭÐ½ Ð¾Ð¼ÑĬ
ĠÑĩÐµÐ»Ð¾Ð²Ñ£ ÑĩÑĮ
ĠÐ½ÐµÐ¿ Ð¾Ð²Ð¸Ð½
ĠÐ´Ð²Ð° Ð½Ð°
ĠÑģÐºÐ°Ð· Ð°Ð»Ð¸
ĠÐ±Ð¾Ð³Ð° ÑĤÑĬ
Ð³Ð»Ð° Ñģ
ĠÐ¿ÑĢÐ¸ÑģÐ»Ð° Ð»ÑĬ
ĠÑĤÐ°ÐºÐ¾Ð²Ð¾ Ðµ
ĠÐ²ÐµÐ´Ð° ÑĤÑĮ
ĠÐ½ÐµÐ´Ð¾ ÑģÑĤÐ¾Ð¸
ĠÐľÐ°Ðº ÐµÐ´
ĠÑħÑĢÐµ ÑģÑĤÑĮÑıÐ½
ÑĪ Ð½Ð°
ĠÐ³ Ð°Ñģ
ĠÐ½Ðµ Ð³Ð¾Ð¶Ðµ
ĠÐ· Ð²Ð°
ĠÐ²ÑĬ ÑģÑ§
Ð¶Ðµ Ð¼
ĠÑħ Ð²
ĠÐ·Ð° Ð±ÑĭÐ²Ð°
ĠÐ¡ ÐºÐ°Ð·
Ð»ÑĬ Ð¼ÑĮ
ĠÐ²Ñ£ Ð²ÐµÑĢÐ¸
ĠÐ²Ð¾Ð· Ð»Ð¾Ð¶Ð¸
ĠÐ±Ñ£ Ð»Ñ£
ĠÑģÑĤÐ°ÑĢ ÑĭÑħ
ĠÐ¼Ðµ ÑĩÐ°
ĠÐ´Ð²Ð¾ÑĢ ÑıÐ½Ðµ
ĠÑģÑ£ Ð´Ñ£
ĠÐ³ÑĢÐ°Ð¼Ð¾ÑĤ Ð¾Ñĥ
ĠÐ²Ð»Ð° Ð´Ð¸
ĠÑģÐ»Ð° Ð²Ð¾Ñİ
ĠÐ¼ÑĮ Ð½Ñ£
ĠÐ´Ð°Ð½Ð¸ Ð»Ð¾
ĠÐ¾Ð² Ð¾Ð³Ð´Ð°
ĠÐ½Ð°Ñĥ ÐºÐ¸
ĠÐ¾Ð±ÑĢÐ°Ð· Ð¾Ð¼ÑĬ
ĠÑģÑĬÐ¼ ÑĢÑĬ
ĠÐ¿ÑĢÐ¾ÑĪ Ð»ÑĭÑħ
ĠÐ¡Ð²ÑıÑĤ ÑĭÑħ
ĠÐ½ Ð¾Ð·Ñ£
ÐµÑĢ Ñ§
ÐµÐ» ÐµÐ¼ÑĬ
ĠÑģÐ²Ð¾ Ñ£
ĠÑģÑĬ Ð¿Ð°Ñģ
Ð¸Ñģ ÑĬ
ĠÐĴ Ð¾Ð¸
ĠÐ¢ Ð¾Ð»ÑĮÐºÐ¾
ĠÑ¥ Ð³Ð´Ð°
ÑģÑĤÐ² Ð¾Ð¼ÑĮ
Ð¶Ð° Ð»Ð°
Ð»ÐµÐ½ ÑĸÑ§
ĠÐ²ÑĬÐ· Ñĭ
ĠÐ²ÑĬÐ· Ñ§ÑĤÐ¸
ĠÑĤÐ°ÐºÐ¾ Ñİ
ĠÑĤÐ²Ð¾ÑĢ Ñ§ÑĤÑĮ
ĠÑģÑĥÐ´ Ð¸
ĠÐ³Ð¾ÑģÐ¿Ð¾Ð´ Ð¸Ð½
ĠÐ³Ð» Ñģ
ĠÑģÐ¾ÑĤÐ²Ð¾ÑĢ Ð¸ÑĤ
ĠÑģÑĤÐ°Ð½ Ð¾Ð²ÑĬ
ĠÐ¿ÐµÑĢÐµ Ð¿
ĠÐ³ÑĢÐ¸Ð³Ð¾ÑĢ ÐµÐ¸
ĠÐ±ÐµÑĢÐµ Ð¶Ð½Ð¾
ÐµÐ²Ð¸Ñĩ ÑĬ
ĠÑĩÐ¸Ð½ Ñ¹
ĠÐ¿ÑĢÐ¸ÑĪÐµÐ´ ÑĪÐµ
ĠÐ°Ð¿Ð¾ÑģÑĤ Ð¾Ð»
ĠÑģÐµÑģÑĤ ÑĢÑĭ
ĠÐ»ÑİÐ±Ð¸ ÑĤÑĮ
ĠÑĦÐ¸Ð»Ð¾Ñģ Ð¾ÑĦ
ĠÐŁÐ¾Ð² ÐµÐ»Ñ£
ÑĤ ÐµÐ¼ÑĬ
ĠÐ¸ ÑĨÑ£
Ð³ Ð¸Ð½
ĠÐ¿ÑĢ Ð¾Ð½
ÑĨ ÐºÑĥÑİ
Ñĸ Ð½Ð°
ĠÐĺ ÐµÑĢÑĥÑģÐ°
ĠÐ²Ð¾ Ð¸Ð½ÑĮ
ĠÐļ Ð¾Ð»Ð¸
ĠÐ¼Ñ£ ÑģÑ§
Ð²ÑĮ Ñĸ
ÑĶ Ð¸
ĠÐ¼Ð¾Ð¸ Ð¼Ð¸
ĠÐ¼Ð°ÑĢ ÑĤÑĭ
ĠÐ½Ð°Ñĩ Ð°ÑĤ
ĠÐ²ÑĬÑģÑ£ ÑħÑĮ
ĠÐ¿ÑĢÐ¸Ð² Ð¾Ð·
ĠÐ¾Ð² ÑģÐ°
ĠÑģÑĤÑĢÑ£Ð»ÑĮ Ð±Ð°
ĠÐ¿Ð¾ÑħÐ¾ ÑĤÑĮ
ĠÑĥÑĩÐ¸Ð½ ÑıÑĤ
ĠÐ´Ð²Ð¾ÑĢÑıÐ½ Ð¾Ð¼
Ð¸ Ð²Ð°
ĠÑģ Ð½Ð¸Ð´Ðµ
ĠÐ² Ð»ÑĮ
ÑĪ Ð½Ñĭ
Ð»Ð° Ð¼ÑĬ
ĠÐ° ÑĦÐ¾Ð½Ð°Ñģ
ĠÐµ ÑģÑĤÐ²Ð¾
ĠÐ¶Ðµ ÑģÑĤ
ĠÐĲ Ð´Ð°ÑĢ
ÑĪÐ° ÐµÑĤ
ĠÑĢÐ° Ð±Ñĥ
ĠÐ½Ð¸ ÑīÐ°
Ð°ÑĤ ÐµÐ»Ñİ
Ð´Ñ£ ÑĤÑĮ
ĠÐ²Ñĭ ÑĪÐ¸
ĠÑĸ ÑħÑĬ
ĠÐ²ÑĮ ÑĢ
ĠÐ¿Ñĥ ÑģÑĤÐ°
ÑħÐ° Ð¶Ð¸
ĠÐ´Ð²Ð¾ÑĢ ÑĨÐ¾Ð²
ĠÑĢÐµÑĩÐµ ÑĪÐ¸
ĠÐ³Ð¾ÑĢÐ¾Ð´ Ð¾
ĠÐµÑģ ÐµÐ¼Ð¾
ĠÐ´Ð¾Ð¼ Ð¾Ð¼
ĠÐ³ÑĢÑ£ ÑģÑ£ÑħÑĬ
ĠÐ²ÑģÐµÐ¼ êĻĭ
ĠÐºÑĢÑĥ Ð³Ñĥ
ĠÐ¿ÑĢÐ¸ÑħÐ¾Ð´ Ð¸ÑĤ
ĠÐ²Ð¾ÑĤÑĩÐ¸Ð½ Ð½Ð¸ÐºÐ¸
ĠÐ¾ÑĢ Ð´Ñĭ
ĠÐºÐ°ÑĢÐ° Ð±Ð»ÑĮ
ĠÐ¿Ð¾Ð³Ð¾ ÑģÑĤÐ°
ĠÑĥÐ¼ÐµÑĢ ÑĪÐ°Ð³Ð¾
ĠÐľÐ°Ð³Ð¸Ð» ÐµÐ½Ñĭ
ĠÐ´Ð²ÑĮ ÑĢÐ¸
ĠÐ¿Ð¸ÑģÑĮ Ð¼Ð¾
ĠÐľÐ°ÑĢÐºÐ¾Ð±ÑĢÑĥ Ð½ÑĬ
ĠÐ²ÐºÐ¸Ð½Ñĥ ÑĤÐ¸
ĠÐĿÐµÐºÑĤÐ° Ð½Ð°
Ð¾ ÑŃ
Ð° Ð²Ð°
Ð» Ð¼Ð°
Ð» Ð¾Ð¼ÑĮ
Ð³ Ð¾Ð»
Ð³ ÑĢÐµ
Ð¾Ð² Ð°Ð²
Ð¿ Ð¾ÑĤ
ĠÐ· ÑĢÑ£
Ð¶ Ð½Ð¸
êĻĭ Ð´Ð°
ĠÐ¡ Ð»Ð°Ð²Ð°
ĠÐºÑĬ Ð½Ñı
ĠÑĢÑĥ ÑģÐºÐ¾Ð¹
ĠÐ±ÐµÐ· Ð´
ĠÐ·Ð°Ð¿ Ð°Ð»Ñĥ
ĠêĻĭ Ð±Ñ¡
ĠÐ¿Ð¾Ð² ÐµÐ´
ĠÑģÑĤÑĢÐ° Ð½ÑĮ
ĠÑĤÐ²Ð¾ÑĢ Ñ§ÑīÐµ
ÑĢÑ§ ÑĤÐ°
ĠÐ»Ñĥ Ð³Ñĥ
ĠÑģÑ¹ ÑīÐµ
ĠÐ¿Ð¾ÑĪ ÐµÐ»
ĠÑģÐ°Ð¼Ð¸ Ð¼
ĠÐ·Ð¸Ð¼ Ñĭ
ĠÐ¿Ð»Ñ£ Ð½
ĠÑĢÑĥÐºÐ° Ð¼Ð°
ÑĦÐ¸Ð¼ Ð¾Ð²
ÐµÑĢÐµÐ¼ ÐµÑĤ
ÑĤ ÑĢÐµ
Ð² Ð¾Ð²ÑĬ
ĠÑģ Ð½Ðµ
Ð´ Ð¸Ð»ÑĬ
ĠÐº ÑĢÑ£
ĠÐº Ñµ
Ñĩ Ð½Ð°Ñı
Ð»Ð° Ð»Ð¸
ĠÐ¿Ð¾ Ð¸Ð´ÐµÑĤÑĮ
Ð²Ð° Ð¼Ð¸
ĠÑĢÐ° Ð³
ĠÐŁ Ð¾Ð¶
ĠÐ¿Ð¾Ð´ Ð½Ñı
Ð½ÑĮ ÑĸÐ¸
ÑĢÑĬ Ð¼Ð¸
ĠÐºÐ¾ Ñİ
ĠêĻģ Ð°ÑĤ
ĠÑĨÑĢ ÑĤÐ²
ĠÐ¸Ð²Ð°Ð½ Ð¾Ð²Ñĥ
ĠÐ¸Ð½ Ð½ÑĭÑħÑĬ
ĠÐ½Ð¸Ðº Ð¸ÑĤÐ°
ĠÐ¿Ð°Ðº ÑĮÑĸ
ÑĪÐµÐ½ ÑĸÐ¸
Ð°Ñħ Ð¾Ñĥ
ĠÑģÐµÑĢÐ´ ÑĨÑĭ
ĠÐ¿Ð¾Ð´Ð° ÑģÑĤÑĬ
ĠÐ±Ñ« Ð´Ñ«
Ð¶Ð°Ð½ ÑĸÐµÐ¼ÑĬ
ĠÐ´ÑĢÑĥÐ¶ Ð¸Ð½Ñ£
ĠÐ¿Ð¾ÑģÐ»Ð¾Ñĥ ÑĪÐ°
ĠÑģÐ¼Ð¾Ð»ÑĮ Ð½ÑĮ
ĠÐĴÐ¾ÐµÐ² Ð¾Ð´Ð°
ĠÑĩÐµÑĢÑĤÐµ Ð¶ÑĬ
ĠÐ´Ð¾ÑģÑĤÐ°ÑĤÐ¾ ÑĩÐ½Ð¾
ĠÑĤÑĢÐµÐ±Ñĥ ÐµÑĤÑĬ
. :
ĠÐ² ÑĪÐµÐ´
ÑģÑĤ Ð¾Ð²ÑĬ
ĠÐ¿ÑĢ ÐµÐ»ÑİÐ±
ÑĤÐ¸ Ð»ÑĬ
Ð¾Ð³ Ð¾Ð´
Ð´Ð° Ð»Ð°
ĠÐĲ ÑĦÐ°Ð½Ð°
ĠÑĨ Ð²Ñ£
ĠÐ¾Ð± Ð¾Ðµ
ĠêĻĹ Ð·
ĠÐ¼Ð½ Ñİ
ÑīÐ¸ Ðµ
ĠÐ²ÑĬÐ· Ð¸
ĠÑģÑ£ Ð´Ð¸
ĠÐ¿Ð¾Ð¿ Ð¾Ð²
ĠÑģÐ»Ñĭ ÑĪÐ¸
ĠÐ¾Ð±Ñĭ ÑģÐºÐ¸
ĠÑģÐµÐ´ Ðµ
ĠÐ¾ÑģÑĤ ÐµÑĢÐµ
Ð½Ð¸Ð¼Ð° ÑĤÑĮ
ĠÑģÑĤÑĢÐµÐ» ÐµÑĨ
ĠÐ¸Ð·ÑģÑĤÐ°ÑĢÐ¸ Ð½Ñĭ
ĠÐºÐ¾ÑģÑĤÑıÐ½ ÑĤÐ¸
Ð³ Ð¾Ð²Ñ£
ĠÐĺ Ð·ÑĬ
ĠÐ¿ÑĢÐ¸ ÐµÑħ
ÐµÐ´ ÑĢÑĬ
ĠÑĨ Ñĭ
ĠÐ¶ Ð°Ð´
ĠÐĴ ÐµÐ»
Ñ¥ Ñİ
ĠÐļ Ð¾ÑģÑĤ
ĠÐ±Ð¾Ð³ Ð¾Ð¼ÑĬ
ĠÐ¿Ðµ ÑīÐµÑĢ
ĠÐ¿Ð°Ðº ÑĮ
Ð±ÑĮ Ðµ
ĠÐ´Ð¾Ð±ÑĢÑĭ Ð¼Ð¸
ĠÐ¿ÑĢÐ° Ð²Ð°Ñı
ĠÐ²Ñ£ÑĢ Ð¾Ð²Ð°ÑĤÐ¸
ĠÐºÑ¹ Ð´Ñĭ
ĠÐ´ÐµÑĢÐ¶ Ð°Ð»ÑĬ
ĠÐ½ÐµÐ¼ÑĮ Ð¶Ðµ
ĠÑħÐ²Ð° Ð»Ñı
ĠÐ²Ð¿ÐµÑĢ ÐµÐ´
ĠÑĢÐ¾Ð¼ Ð°Ð½Ð¾Ð²
ĠÑĤÑĢÐ¾Ð¸ ÑĨÑĭ
ÐºÐ²Ð° Ð¼ÑĬ
ĠÐºÐµÐ»Ð° ÑĢÑİ
ĠÐ¿Ð¾Ð½Ð¾ ÑĪÐµÐ½Ð¸Ðµ
ĠÑ ²
ÑĢ Ð¾Ð±
Ð² Ð¸Ð»
ĠÑģ Ð¾Ð²Ðµ
Ð´ êĻ¿
Ñ§ ÑħÑĬ
ĠÐ³ Ð¾Ð»Ð¸
ĠÐ½Ðµ Ð»
Ð²Ð° ÐµÑĤÑģÑı
ĠÐ¿ÑĢÐ¸ Ð¸Ð´ÐµÑĤ
ĠÐ²Ð¾ ÐµÐ²Ð°
ĠÐ¾Ñĥ Ð¿ÑĢÐ°
ĠÐ²ÐµÐ»Ð¸ ÐºÐ¾Ð¸
ĠêĻĹ ÑĢÐ¾Ð¿Ð¾Ð»
ĠÐºÐ° Ð¿Ð¸
ĠÑ¹ Ð¼ÑĬ
ĠêĻģ Ð»
ĠÐ¼Ð¾Ð» Ð¾ÑĤ
ĠÐ¿Ð¾ÑģÐ»Ð° Ð»Ðµ
ÑĢÐ¾Ð¼ ÑĮ
ĠÐ½ÐµÐ¿ ÑĢ
Ð°ÑĢÑĮ Ñİ
ĠÎ¹ Ð»Ð¸
ĠÐ²Ð¾Ð·Ð¼ ÐµÑĤÑĬ
Ð¾Ð¶Ð° ÑĤÑĮ
ĠÐ¾ÑĤÐ´Ð° Ð»Ð¸
ĠÐ²Ð¾Ð¸Ð½ ÑģÐºÐ¾Ð¼Ñĥ
ĠÐ´ÑĮÑı ÐºÐ°
ĠÐ²ÑĬÐ´Ð° Ð¸
ĠÐ¿Ñ¹ ÑĤÐ¸
ĠÑħÑĢÐ¸ÑģÑĤ Ð¾Ð²Ð°
ĠÐ³ÑĢÐ¾Ð± Ñ£
ĠÐ¼Ð¸ÑħÐ°Ð¹ Ð»Ð¾Ð²
ĠÑģÑĤÑĥÐ¿ ÐµÐ½ÐµÐ¹
ĠÐ¿Ð¾Ð¼Ð¸Ð½Ð° Ð¹
ĠÐ¼Ð¾Ð»Ð¸ÑĤÐ²Ð° Ð¼Ð¸
ĠÐ·Ð°Ð¿Ð¾Ð² ÐµÐ´
ĠÐ±Ð¾Ð»Ñ§ ÑĢÐµ
ĠÐ·Ð´Ð°ÑĢ Ð¾Ð²Ð°
ĠÐ°Ð¿ÑĢ ÐµÐ»Ñı
Ð° Ð³Ð³
Ð¼ ÑĢÐ°
ĠÐ½ Ð¾Ð½Ñ£
ĠÐ´ Ð¾Ð·Ð¸
ĠÐµ Ð³Ð°
ÐµÐ½ Ð¾Ñİ
Ñĸ Ñ¡
ĠÐ» Ð¾Ð²Ð¸
ĠÐ» Ð¾Ð²Ðµ
ĠÐĲ ÑĢÐ¸
ÑĪÐ° Ñħ
ÑĩÐ¸ Ð½Ð¾Ñİ
ĠÐ±Ð¾ ÑĩÐºÐ°
ĠÐ¡ Ð¸Ðµ
ĠÐ¸Ð· Ð²Ð°
ĠÑħÐ¾ Ñĩ
ĠÐ¸ÑģÐ¿ ÐµÑĢÐ²Ð°
ĠÐ¿Ð¾Ð¶ Ð½Ñİ
ĠÐ±ÑĢÐ°ÑĤ Ñı
ĠÐ§ Ñİ
ĠÐ´Ð½Ð¸ Ð¹
ĠÐ¿Ð¾ÑģÐ°Ð´ Ð½Ð¸ÐºÑĬ
ĠÐ´Ð¼Ð¸ÑĤ ÑĢÐ¾Ð²
ĠÑģÐµÑĢÐµ Ð±ÑĢÑı
ĠÐ²Ð¾ÐµÐ²Ð¾Ð´ Ðµ
ĠÐ¿ÑĥÑģÑĤÐ¾ÑĪÑĮ Ñİ
ĠÐ¿Ð¾Ð¼ÑĭÑĪ Ð»ÑıÐ¹
ĠÑģÐ²Ñ§ ÑĤÑĭ
ĠÐ¾ÑģÐ¾Ð± Ð½Ð¾
ĠÐ´Ð¾Ð²Ð¾Ð»ÑĮ Ð½Ð¾
Ï ħ
Ñ ĳ
ĠÐ½ Ñ¡
ĠÐ½ ÑĢÐ°Ð²
Ð¿ Ð¾Ðº
ĠÐ» Ð¾Ð¶Ð½Ð¾
ĠÐ¢ Ð¸Ð¼Ð¾
ĠÑģÐº ÑĥÐ´
ĠÐ´Ð²Ð¾ÑĢ Ð¸
ĠÑģÐ»Ñĥ Ð³Ð¸
ĠÐ»Ñĥ Ð³
ĠÐ·Ð½Ð° Ñİ
ĠÐ°ÑĢ ÑĪÐ¸Ð½
ĠÐ¿ÑĢÐ¾Ð´Ð° ÑĤÑĮ
ĠÑĢÐµÑĩ ÐµÑĤÑĮ
ĠÑĢêĻĭ ÐºÐ¾Ñİ
ĠÑģÐ¼Ð¾ÑĤ ÑĢÐ¸ÑĤÐ¸
ĠÐµÐ´ Ð½Ð¾
ĠÐ¿Ð¾Ð»Ð¾Ð¶ Ð¸Ð»ÑĬ
ĠÐ´Ð²Ñ£ Ð¼Ð°
ĠÑģÐºÐ¾ ÑĤÑĬ
ĠÐ¿Ð°ÑĢ Ð¾Ð±
ĠÑĪÑĮ ÑģÑĤÑĮ
ĠÐ»Ð°Ð· Ð¾ÑĢ
Ð² Ð½Ñ£
Ðº Ð²ÑĮ
Ð´ Ð½Ð¸
ĠÐ² ÑģÐº
ĠÐ¼ Ð°Ð½Ñĥ
ĠÐµ Ð»Ðµ
ĠÑ¡ Ð·
ÑĢÐµ Ð¶
ĠÐºÐ¾ÑĢ Ð½Ð¸
ĠÐ±Ð¾Ð³ Ð´Ð°Ð½
ĠÐ²Ð· Ð¸Ð¼Ð°
ĠÐ½Ñ£ ÐºÐ°ÐºÐ¾
ĠÑĥÐºÐ°Ð· Ð°Ð»
ĠÐºÑĢÐ° Ð»ÑĬ
ĠÑģÑĥÐ´ Ð¸Ð¸
ĠÐ´Ð¾Ð±ÑĢ Ð¾Ð¼Ñĥ
ĠÐ´Ð¾Ð±ÑĢÑĭ Ñı
ĠÐºÑĢÐ°Ñģ Ð¾ÑĤÑĭ
ĠÐ¿ÑĢÐ¸ÑħÐ¾Ð´ Ð¸ÑĤÑĮ
ĠÑĨÑĢÐº Ð²Ð°
ĠÐ²ÑĬÑģÑ£ Ð¼ÑĮ
ĠÐ¿Ð¾Ñĥ ÑģÑĤÐ¸
ĠÐ´ÑĢÑĥÐ³Ð° Ð³Ð¾
ĠÐ²Ð·Ñ§ Ð»Ð¸
ĠÐ±Ð»Ð°Ð³Ð¾ÑģÐ»Ð¾Ð² Ð»ÐµÐ½Ð¸Ðµ
ĠÑĪÐ°ÑĤ ÑĢÐ°
Ð¿Ð¸ÑģÐ° ÑĤÑĮ
ĠÐ¿Ð°ÐºÐ¾ ÑģÑĤÑĮ
ĠÑĤÑ£Ð»ÐµÑģ ÑĮ
ĠÐĴÑģ ÐµÐ²Ð¾Ð»
ĠÐ¾ÑģÑĤÐ°Ð½ ÐµÑĤÑģÑı
ĠÑĪÐµÐ´ ÑĪÐµ
Ð½Ð¾Ð¿ Ð»ÐµÐ¼ÐµÐ½
ĠÐ²ÑģÐµÑģ Ð¾Ð¶
Ð» ÑĸÑ§
ÑģÑĤ ÐµÐ½ÑĬ
Ñħ Ð¸ÑĤÐ¸
ĠÐ¿Ð¾ ÑħÑĥ
ĠÐµ ÑģÑĤÐ°
ĠÑĩ ÑģÑĤ
ĠÑģÑĤ Ð¾Ñİ
Ð¾Ðº Ð¾Ñĥ
Ð¸Ð¼ ÐµÑĤÑĮ
ĠÐ¡ Ð²Ð¾
ĠÐ¸Ð· Ð¼ÐµÐ½Ð¸
ĠÐĶ Ð¸
ĠÑģÐ² Ð°ÑĢÐ¸
ĠÑĤÐ°Ðº Ð¾Ð¼
ĠÑĤÐ¸ Ð²Ñĥ
ĠÐ¿ÑĢÐ°Ð² Ð¸Ð»
ĠÐ³Ð¾ÑĢÐ¾Ð´ Ð¾Ð²ÑĭÐµ
ĠÐ±ÑĮ ÐµÐ¼
Ġ1 9
ĠÐ´Ð¾Ð±ÑĢ Ð¾ÑĤÑĭ
Ð½Ð¸ÑĤÐ¸ ÑģÑı
Ð¿Ð¸Ñģ Ð°Ð½
ĠÐ¿Ð¾Ð±Ñ£ Ð³Ð¾ÑĪÐ°
ĠÐ´Ð¾ÑģÑĤÐ¾ Ð¸Ð½Ð¾
ĠÐ¿Ð¾ÑħÐ¾ ÑĤÐ¸
ĠÐµÑģÑĤÐµ ÑģÑĤÐ²Ð°
ĠÐ²Ð¾ÑģÐ¿ Ð¾Ð¼
ĠÐ±Ñ£Ñģ Ð¾Ð²
ĠÑĪÐ° Ð¿
ĠÐ³ÑĢÐ¾ ÑĪÐµÐ¸
ĠÐ²Ð»Ð°Ð´Ðµ ÑĤÐ¸
â Ł
Ł ¦
ĠÐ½Ð° ÑģÑĮ
ĠÐ¿Ð¾ Ñ£ÑħÐ°Ð»ÑĬ
ĠÐµ Ð²Ð°Ð½Ð°
ĠÑĥ Ð±Ðµ
Ð½Ñĭ Ð¼ÑĮ
ÐµÐ² ÐµÐ¹
ĠÐ¾ÑĤ ÐµÑĨÑĮ
ĠÐ·Ð° Ð²Ð¾Ð´
ĠÑĢÐ° Ð½Ð¸ÑĤ
êĻĳ ÑħÐ¾
ĠÐ²Ð¾Ð· Ð»Ðµ
ĠÐ³ÑĢÐ¸ Ð²ÑĬ
ĠÐ½Ð°Ð¿ Ð¾Ð¸
ĠÑģÑ£ Ð½Ð¾
ĠÐ¼Ð½Ð¾Ð³Ð¾ Ñİ
ĠÐ³ÑĢÐ¸Ð² Ð½êĻĳ
ĠÐ±êĻĳ ÑĪÐ°
ĠÐ³Ð»Ð°Ð² êĻĭ
Ð»Ð¾Ð± Ñĭ
ĠÐ´êĻĭ ÑĪÐ¸
Ġâ Ł¦
ĠÐ½Ð¾Ð³ Ð°ÑĤÐ°
ĠÐ²Ð¾ÑĤÑĩÐ¸Ð½ Ð½Ð¸ÐºÐ¾Ð¼
ĠÐ¾ÑĤÐ²ÐµÑĤÑĩÐ¸ ÐºÐ¾Ð¼
ÑĤÐ¸Ð½ ÑĥÐ´ÑĮ
ĠÐ¢Ñĥ Ð³Ð°ÑĢÐ¸Ð½Ð°
ĠÑģÐ²ÐµÑĢ Ñħ
ĠÑģÑĢÐ° ÑĩÐ¸
ĠÐ¿Ð¾Ð¼ÐµÑīÐ¸ ÐºÐ¾Ð¼
ĠÑĢÑĭÑĨÐµÑĢ Ñİ
ĠÑģÐ¼ÐµÑĢÑĤ Ð½Ð¾Ðµ
ĠÐ¼Ð°ÐºÐµÐ´Ð¾Ð½ ÑıÐ½Ðµ
ĠÐ»Ð¾Ñģ Ð¾ÑģÐ¸
ĠÑ¡ÑģÐ¿Ð¾Ð´ Ð¸Ð½Ðµ
ĠÐ½ÐµÐ´ÐµÐ»ÑīÐ¸ ÐºÑĥ
ĠÐ²Ð¾Ð»Ð¾Ðº Ð¸ÑĤÑĭ
ĠÐ·Ð°Ð¿Ð¸ÑģÑı Ð¼
ĠÐľÐ¸Ð»Ð¸ ÑĤÑĢÐ¸
âŁ §
Î º
Ð¾ Ñ«
ĠÐ¸ Ð²
Ð¼ Ð¾Ñİ
Ð´ Ð¾Ð²ÑĬ
ĠÐ² ÑģÑĤÐ°
Ð· ÑĢÑ£
Ð¾ÑĢ Ð°Ð·
ĠÐ· Ðµ
Ñī ÑĶ
Ð¾ÑĤ êĻĭ
ÑĪÐ¸ Ð¹
ĠÐ¡ Ð¾Ð±
ĠÐ¿Ð¾Ð´ Ð°ÑĤ
Ð»Ñ£ ÐµÑĤÑĬ
ĠÑĢÐ°Ð· ÑģÑ¹
ĠÑĦ Ñĸ
ĠÐ»Ñ£ Ñģ
ĠÑģÑĥÐ´ Ð¸Ñı
ĠÐ¸ÑħÑĬ Ð¶Ðµ
ĠÐ¾Ð½ ÑĤÐ¾Ð½
ĠÐ¼Ð°Ð» Ðµ
ĠÐ¼Ð°ÑĢ ÐºÐ°
ĠÑĩÐµÐ»Ð¾Ð±Ð¸ÑĤ Ð½ÑĥÑİ
ĠÐ¼Ð½Ñ¡ Ð³Ð¸
ĠÐ¾Ð±ÑĭÑĩÐ° Ð¸
ĠÐºÐ°ÑĢ Ð¿
ĠÑĢÐ¾ÑģÑĤÐ¸ ÑģÐ»Ð°Ð²Ð¸
ÑĤÐ¾Ð» Ð¾Ð¼Ñ£
ĠÑĦÐµÐ²ÑĢÐ° Ð»Ñı
Ñı Ð¶Ðµ
Ð¿ Ð°ÑĤÐ¸
Ð»Ð¸ Ñģ
ĠÐ· Ð°ÑĢ
ĠÑĩ ÐµÐ¹
ĠÑģÑĬ Ð·Ð´Ð°
ĠÐ¾Ñĥ ÑģÑĤ
ĠÐ¾ÑĤÑĬ Ð¿Ð°
ĠÐ¿Ð¾ÑģÐ»Ð° Ð½ÑĬ
ĠÐºÐ°Ð· Ð½ÑĮ
ĠÐ¿Ð¾Ð½ Ð¾ÑģÐ¸
ĠÐ¿Ð¾ÐºÐ° Ð¶Ð¸
ĠÐ´Ð¾Ð¼Ð° Ð¶Ð¸
ĠÐ²Ð¸Ð½Ð¾Ð²Ð° ÑĤÑĬ
ĠÑĤÑĢÐµÐ± ÑĥÑİ
ĠÐ¿ÑĢÐ¸Ð»Ñ£ Ð¶Ð½Ð¾
ĠÐ·ÐµÐ» ÐµÐ½Ð°
ĠÑģÐ²Ð¸Ð´Ñ£ ÑĤÐµÐ»ÑĮ
ĠÑĨÐµÐ»Ð¾Ð² Ð°Ð»ÑĮ
ĠÐ¿Ð¾ÐºÐ¾Ñģ Ñĭ
Ð¾ ÑħÑĬ
Ð² â¸¯
ĠÐ½ Ð½Ðµ
ÑģÑĤ Ð¾Ð»
Ñħ Ð½Ñĥ
Ð¾ÑĢ Ð³Ð¸
ÑĨ Ð¾Ð²Ð¾
Ð»Ðµ Ð±
ĠÐ¿Ð¾Ð» ÐºÐ¾Ð²ÑĬ
ĠÑĸ Ñİ
Ð´Ð¾ ÑģÑĤÐµ
ĠÐ²Ð¾Ð· ÑĬ
ĠÐºÐ¾ÑĢ Ð¼ÑĬ
ĠÐ¿Ð¾Ð¿ Ñĭ
ĠÐ¸ÑģÐ¿ ÑĬÐ»
ĠÐ°Ð½ ÑĤ
ĠÐ¿ÑĢÐ¸ÐºÐ°Ð· Ð½ÑĭÑħ
ĠÑģÑĤÐ¾ÑĢ Ð¾Ð½Ðµ
ĠÐ½Ð°ÐºÐ°Ð· Ð°Ð½ÑĸÐµ
Ð¶Ð´Ðµ Ð½Ð¸Ñı
ĠÐ¿Ð¾Ð¶Ð°Ð» Ð¾Ð²Ð°Ð»ÑĬ
ĠÐ¾Ð±ÑĢÐ° Ð·Ñĥ
Ð³Ñĭ Ð¸
ĠÑĢÐµÑĩ ÐµÑĤÑĬ
ĠÑģÐ²Ð¾Ñ¥ Ð¼ÑĮ
ĠÐ´Ð¾Ð±ÑĢÐ° Ñ§
ĠÐºÑĢÐµÑģÑĤÑĮÑı Ð½Ñĭ
ĠÑĨÐ°ÑĢÐ¸ ÑĨÐµ
Ð»ÐµÑĤ Ñ£
ĠÐ¼ÑĥÑĢ Ð·Ñĭ
ĠÐºÑĥÑĢ Ð±
ĠÐ¿Ð°Ð³Ñĥ Ð±Ñĥ
ĠÑĢÐ¾Ð² Ð½Ð¾
ĠÐ½Ð¾Ð²Ñĥ Ð³Ð¾ÑĢÐ¾Ð´Ñĥ
ÒĨ ÒĨ
ĠÑĢÐ° Ð¹
ĠÑ¡ Ð³Ñ¹
ĠÑģÑĬ Ð¿Ð¾Ð´Ð¾Ð±
Ñ« Ð±
ĠÐ²Ñ£ Ð»Ð¸
ĠÑģÐ² Ð°ÑĢ
ĠÐ²Ð¾Ð· Ð²ÐµÑģÐµÐ»Ð¸
ĠÐ±Ñ£ Ð»Ð°
ĠÐ¿ÑĢÑ£ ÑģÑĤÐ°Ð²
ÑĶ ÑĢÐ¸
ÑħÐ¾Ð´ Ð¸ÑĤÑĮ
ĠÐ³Ð¾ÑĢÐ¾Ð´ Ð¾Ð²ÑĭÑħ
ĠÐºÑĢÐ° Ð»Ñİ
ĠÐ¼Ð°Ð» ÑĭÐ¼ÑĬ
ĠÑī ÐµÑĢ
ĠÐ¿Ð¾Ð»Ð¾ ÑĨÑĬ
ĠÐ¿Ð¾ÑģÐ» Ð¾Ð¼ÑĬ
ĠÐ¸Ð¼ÐµÐ½ Ñĥ
ĠÐ¿ÑĢÐ¾ÑĤ Ð¾Ð¿
ĠÑģÐµÑĢÐµÐ± ÑĢÐ¾Ð¼ÑĬ
ĠÑģÐ¿Ð° ÑģÑĤÐ¸
Ð² Ð»ÑĮ
ÑĮ êĻĹ
ÑĪ Ð½ÑĭÐµ
ĠÐ³ Ð½Ð°
Ð½Ð¸ Ð½Ð¾
ĠÑĢ Ðº
ĠÐ¿Ð¾ ÑģÑĤÐ¾
ĠÐ· ÑĢÐ¸
ÐµÐ½ ÐµÑĨÑĬ
Ð¶ ÑģÐºÐ¾Ð¹
ÐºÐ° ÑĤÑĮ
ÑĪÐ° ÑĤÑĮ
ĠÐ·Ð° Ñģ
Ð°Ð½ Ð½ÑĬ
ÑĪÐµ ÐºÑĬ
Ð´Ð¸ Ð»Ð°
Ð½Ðµ Ð²Ð°
ĠÐĳ Ð»Ð³
ĠÑĤÐ°Ðº Ð¾Ð¶
ĠÑ¥ Ð´Ð¸Ð½
ĠÐ²ÑĮ ÑģÐ°
ĠÐºÐ¾ÑĢ Ð¾Ð²Ñĭ
Ð½Ð¸Ðº êĻĭ
ĠÑģÑ£ ÑĩÐ°
ĠÑģÑ£ Ð¼ÐµÐ½Ð°
Ð¼Ñĭ ÑģÐ»
ĠÐ±ÐµÑģ ÑĬ
ĠÐ¼Ð¾Ð½Ð° ÑģÑĤÐ¸
ĠÑĤÑı Ð³Ð»ÑĭÑħ
ĠÐ§ Ð»Ð¾Ð²Ñ£
ĠÐ»Ðµ Ð¶Ð¸ÑĤÑĮ
ĠÐ·Ð°Ðº Ð»Ñİ
ÑĪÐº Ð¾Ð²Ð°
ĠÐ´Ð¸ Ð°ÐºÑĥ
ĠÑģÑĤÐ¾Ð» ÐºÐ¾
ĠÑģÑĤÐ¾Ð» Ð¿ÑĬ
ĠÐ¼Ð°Ðº ÑģÐ¸Ð¼Ð°
ĠÑİÑĢÑĮ ÐµÐ²
ĠÐ¿Ð¾Ð¼Ð¸Ð½Ð° ÑĤÐ¸
ĠÐ´Ð¾Ð¼Ð¾Ð² Ð¸ÑĤ
ĠÐ´Ð¾Ð²Ð¾Ð» Ð½Ð¾
ĠÐľÐ¸ÑħÐ°Ð¹ Ð»
ĠÐ½Ð°Ð²Ñĭ Ðº
ĠÐĴÐ°ÑĢÑĦ Ð¾Ð»Ð¾Ð¼
ÑĤ ÑĸÑİ
Ñģ êĻĳ
ĠÐ´ Ð²Ð¾Ð¸
ÑĪ ÐµÐ²ÑĮ
ĠÐ¼ ÐµÑģÐµ
ĠÐµ Ð¿Ñģ
Ð¾Ð³ Ð¾Ð¶
ĠÐ²Ñ£ Ð¼ÑĬ
ĠÐºÐ° Ð±
ĠÐ·ÐµÐ¼ ÑĮ
Ð½Ñ§ Ñħ
ĠÑĤÐ²Ð¾ÑĢ Ñ§Ñī
ÑĢÐ°ÑĤÐ¸ ÑģÑı
ĠÐ½Ð°ÐºÐ°Ð· Ñĥ
ĠÐ¼ÑĬ Ð½Ð¾Ñİ
ĠÐ´ÑĢÑĥÐ³ Ð¾Ð¼Ñĥ
ĠÐ²Ð·Ñĭ ÑīÐµÑĤ
ĠÑģÐ²Ðµ ÑīÐµÐ½
ĠÐĽÑİ Ð±
ĠÐ¿ÑĢÐ¸Ð±Ñĭ Ð»ÑĮ
ĠÐ® ÑĢÑĮ
ĠÐ±ÐµÑĢÐµÐ· Ñ£
ĠÑĤÐ¾ÑĥÑĢ ÐºÑĭ
ĠÑĤÑĢÐ°Ð² Ñĥ
ĠÐ´ Ð¸ÑĤ
Ñ§ Ð½Ñ¹
ĠÐ¿ÑĢÐ¸ Ñ£Ñħ
ĠÐĲ ÑĩÐµ
ĠÐ²Ð¾ ÑģÑĤÐ¾Ñĩ
ĠÐ¾Ñĥ Ð±ÑĮ
ĠÐŁ Ð¸
ĠÐ¸Ð· ÑĢÐµ
ĠÐ±ÑĢÐ° ÑĪÑĮ
ĠÑ¥ Ð¸
ĠÑ¥ Ð´Ð¸Ð½ÑĬ
ĠÐ¾ÑĤÑĬ Ð¸Ð´Ðµ
ĠÑģÑĤÑĢÐ° ÑģÑ£
ĠÑģÐ¾Ð± ÑĢÐ°Ð²
ĠÐ´Ñĥ Ð³Ð¾Ñİ
ĠÐºÑĥÐ¿ Ð»Ð¸
Ð²Ð¾Ð» Ð¾
ĠÐ¡ÑĤ Ð°Ð²
ĠÐ¸ÑģÐº Ð¾Ñĥ
ĠÐ·Ð°Ð¿Ð°Ñģ Ðµ
ĠÐ¼ÑĥÐ´ ÑĢÐ¾ÑģÑĤÐ¸
âĢĿ ,
ĠÐ¿ÑĢÐµÐ¶ Ð½Ð¸Ñħ
ĠÑĢÐ¾Ñĥ Ñģ
Ð½Ð¸Ð¼Ð° ÐµÑĤÑĬ
ĠÐ±Ñ£Ñģ Ð¾Ð²ÑĮ
ĠÑĨÐ°ÑĢÐµÐ² Ð½Ð°
ĠÐĵÐ¾Ð²Ð¾ÑĢ Ð¸ÑĤÑĬ
Ð¶ Ð´ÑĬ
Ð½Ñĭ Ð¸Ñħ
Ð¾Ñģ Ðµ
ÑĪÐ° ÑİÑĤ
ĠÐ½Ð¸ ÐºÐ¾Ð¼Ð¾Ñĥ
ĠÑĨ Ñİ
ĠÑģÐ» Ð½ÑĨÐµ
ĠÐĴ ÑģÑ£
ĠÐŀ Ð±ÑĢÐ°
ÑģÑĤÐ² ÐµÐ½Ð°Ð³Ð¾
ĠâĢ ¦
ĠÑ¹ Ð´Ð°ÑĢ
ĠÐ³Ð¾ÑĢÐ¾Ð´ Ð¸
ĠÐ¿Ð¾ÑģÐ»Ð° Ð²ÑĬ
ĠÐ¼Ð¾Ðµ Ð²Ð¾
ĠÑĩÑİ Ð²ÑĮ
ĠÑģÑĤÑĢÑ£ Ð»Ð¸
ĠÑ¡ÑĤ ÑĨÐ°
ĠÐ¾Ð±ÑĢÐ° Ð·Ñĭ
ĠÐ´ÐµÑģ ÐµÑĤÐ¸
ĠÐĴÐ»Ð°Ð´Ð¸ Ð¼ÐµÑĢÐ°
ĠÐ²Ð´ Ð¾Ð²Ñĭ
ĠÐ²ÑĬÐ´Ð° ÑģÑĤÑĮ
ĠÐ¥ÑĢÐ¸ ÑģÑĤÑĥ
ĠÐ¿Ð¾ÑħÐ¾ ÑĩÐµÑĤÑĬ
ĠÐ±Ñ¹ Ð´Ðµ
ĠÐ±Ñ¹ Ð´ÐµÑĪÐ¸
ĠÐºÑĢÐµÑģÑĤ Ð½Ð¾Ðµ
ĠÐ¸Ð·Ð±Ð°Ð² Ð¸
ĠÑģÐµÑģÑĤ ÑĢÑĥ
ĠÑĤÑĢÐµÑĤÐ¸ Ð¸
ĠÐ³Ð»Ðµ Ð±
ĠÐ¼ÐµÑģÑĤ ÐµÑħ
ĠÐ´ÑĢÑ£ Ð²Ð¾
ĠÐ²ÑĭÑħÐ¾Ð´ Ñĭ
ĠÑĩÐµÑĢÐ½Ð¸Ð³ Ð¾Ð²Ñĥ
ĠÑģÑĥÐ´ÑĮÑı Ð¼
ĠÐ¿ÑĢÐ¸ÐºÐ»Ð° Ð´Ñĭ
Ð½ Ð½Ð¾
ĠÐ² Ð½êĻĭ
ĠÐ² ÑĩÐµÑĢÐ°
Ñ£ Ð»
Ñī ÐµÐ´
Ð²Ð° ÑİÑīÐµ
ÐºÐ¾ ÑĪÐµ
ÐµÐ² Ñ¹
ĠÑĢÐ° Ð²ÑĬ
ÑĢÐ¸ Ñ§
Ð´Ð¸ Ñı
ĠÑı Ð½
ÐºÑĬ Ð¼Ð¾
ĠÐ±ÐµÐ· ÑģÑĤÑĢÐ°
ĠÐ¿Ð°Ðº ÑĬ
ĠÐ¾Ñģ ÐµÐ½ÑĮ
ĠÐ±ÑĢÐ°ÑĤ êĻĭ
ĠÑĩÐµÑĤÐ²ÐµÑĢ ÑĤÑı
ĠÐ¿ÑĢÑı Ð¼ÑĥÑİ
ĠÐ³Ñĥ Ð¼
ĠÐ²Ð¾Ð»Ð¾Ð´Ð¸Ð¼ÐµÑĢ Ñİ
ĠÐ²ÐµÑĩ ÐµÑĢÐµ
ĠÐ¾Ð±Ð»Ð° ÐºÑĬ
ĠÐ²ÑĬÑģÐº ÑĢ
ĠÐ¿Ð¾ÑģÑĬ Ð»Ð°
ĠÐ¼Ñ£ÑĢÐ° ÑħÑĬ
ĠÑģÑĤÐ°ÑĢÐ¾ÑģÑĤ Ñ£
ĠÐ¸ÑģÑĤÐ¸Ð½ÑĮ Ð½Ð¾
ĠÑģÐ²ÑıÑĤÐ¸ ÑĤÐµÐ»
Ð½ Òį
Ð¼ Ð°Ð¼
ĠÐ´ Òį
ĠÐ± ÑĢÐµÐ²
Ñħ êĻĳ
Ð· Ð½Ñ£
Ñī ÐµÑĤÐµ
ĠÐ» Ð²Ð°
êĻĭ Ð²Ð°
ĠÑģÑĬ Ð²ÑĬ
Ð´Ð¸ Ð¸
ĠÐ²Ð¾ ÑģÐºÑĥ
ĠÐ²Ñĭ ÑģÐ»Ð°
ĠÐ»Ð¸ ÑĨÑı
ĠÑĢÑĥ Ð·
ĠÐ¼Ð½ Ð¾Ð·Ñ£
Ð¶Ð¸ ÑħÑĬ
ĠÐ¿ÐµÑĢ Ð²Ñĥ
ĠÐ¿Ð¾Ðº ÑĢÐ°
Ð³Ð° Ñ§
ĠÐ¼Ðµ Ð¶Ðµ
ĠÐ²ÐµÑĢ Ð²Ð¸
ĠÐ¸Ð½ Ð½ÑĭÐ¼ÑĬ
ĠÑĤÐ¾Ð± Òį
ĠÑħÑĢÐ° Ð¼
ÑģÑĤÑĥÐ¿ Ð¸ÑĤÐ¸
ĠÑģÐ¾Ð» Ð½ÑĨÐ°
ĠÐ¶ÐµÐ½Ð° Ð¼ÑĬ
ĠÐ´ÐµÐ» Ñĭ
ĠÐ¼Ð°ÑĢ ÑĩÐºÐ°
ĠÐ´ÑĬ Ð²Ð°
ĠÑĤÑĢÐ¾ ÐµÑĨ
ĠÐºÐ½Ñ§Ð· ÐµÐ¼ÑĬ
ĠÑģÑĤÐµÐ¿ ÐµÐ½ÑĮ
ĠÑĢÐ°Ð·Ð¼Ñ£ ÑĩÐµÐ½Ð¾
ĠÐ²ÑĮÑģÐµ Ñİ
ĠÐ±Ð¾ÑĥÐ´ Ðµ
ĠÐ¿ÑĥÑĪÐºÐ°ÑĢ ÑģÐºÐ¾Ð¼Ñĥ
ĠÐ´Ð¼Ð¸ÑĤÑĢÐµ ÐµÐ²
ĠÐ·Ð°Ð¼ Ð¾ÑĢ
ĠÐ¾Ð½Ð´ÑĢÐµ Ñı
ĠÐ¿Ð¾Ð¼ÐµÑīÐ¸ Ðº
ĠÐĲÐ¼Ð¸ ÑĢ
ĠÐ¿ÑĢÐ¸Ð»Ðµ Ð¶Ð°
ĠÐ¿ÑĢÐ¾Ð· Ð²Ð¸
ĠÐļÑĸ ÐµÐ²Ñĥ
ĠÑģÐ´Ñ£ Ð»Ð°ÑĤÐ¸
ĠÐ´Ð¾Ð¼Ð¾ ÑĩÐ°ÑĤ
ĠÐ³Ð¾ÑĢÐ° ÑħÑĬ
ĠÐ²ÑĬÐ·Ñ§ Ð»Ðµ
ĠÐºÐ¾Ð½ÑİÑĪ Ð½Ñİ
ĠÐ·Ð°Ð¼Ñĥ Ð¶ÑĮ
ĠÑħÐ¼ ÐµÐ»
ĠÑģÑĩ ÐµÑĤÐµ
ĠÐ³ÑİÑĢÑĮ Ð³
ĠÐĴÐ¾Ð»ÑĮ ÑĦÐ°Ð½
ĠÐľÐµÐ´Ðµ Ñı
ĠÐ¿Ð°Ð½ÑĮ ÐºÐ°
Ð² ÑĪÐ°Ð³Ð¾
ĠÐ¿Ð¾ ÑĩÑĮÑģÑĤÐ¸
ĠÑĥ Ð»Ð¾Ð¶Ðµ
Ð½Ñı ÐµÑĤÑĮ
ĠÐ¿Ð¾Ð´ Ð°ÑĢ
ĠÐ¿ÑĢÐ¾ ÑģÑĤÑĭ
ĠÐ²Ñĭ ÑĤÑĮ
ĠÐºÐ¾ ÐµÐ¹
ĠÐºÐ°Ðº Ð¾Ð²ÑĬ
ĠÐ¼Ñ£ Ð´Ð¸
ĠÑ¹ Ñģ
ĠÑ» Ð±
ÑĩÑİ Ñİ
ĠÑģÐµÐ¼ Ñ£
ĠÐ§ ÑĤ
ĠÐºÐ¾Ð» Ðµ
ĠÐ¿Ð¾ÐºÐ° Ð¶ÐµÑĤÑĬ
ĠÐ¿Ð¾Ð¸ Ð´Ð¾Ñħ
ĠÐºÑĢÐ¸ Ð²
Ð¿ÑĢÐ°Ð² Ð´Ð°
ĠÐ¶ÐµÑĢÐµÐ± ÑĮÑı
ĠÑģÐ¼Ð¾Ð»ÑĮ Ð½Ðµ
ĠÑıÑĢÐ¾Ð¿Ð¾Ð» ÐºÑĬ
ÑĤ ÑĢÐ¾Ðº
ÑĮ ÑģÐºÑĭ
Ñĩ Ð¸Ð»
ĠÐ¾ Ð½Ðµ
Ð¾ÑĢ Ð¾Ð²Ð°
ĠÑĢ Ð¾Ð²ÑĬ
Ð°ÑĢ Ð¸Ð½
ĠÑ¡ Ð±Ð¾
ĠÐ¢ Ð¾Ð¸
Ð¼Ð° Ð»Ð¸
ĠÑħÐ¾ÑĤ Ñ§ÑĪÐµ
ĠÑħÐ¾Ð´ Ð°ÑĤÐ°
ĠÐ¾Ð³ ÑĢÐ°
ĠÐ¾Ð³ Ð½ÐµÐ¼ÑĬ
Ð½ÐµÑģ ÑĬ
ĠÐ±Ð»Ð°Ð³Ð¾ Ñĥ
ĠÐ½Ð¾Ð² Ñ¹
ĠÑıÐ·Ñĭ ÐºÐ¾Ð¼
ĠÑģÑĤÐ²Ð¾ÑĢ Ð¸Ð»ÑĬ
ĠÐ¿Ð¾ÑģÐ° Ð´Ð¸ÑĤÑĮ
ĠÐ½ÐµÐ´ÑĢÑĥ Ð³Ð°
ĠÐŁÑĢÐµ ÑĩÐ¸
ĠÑģÑĤÑĢÐ°ÑĪ Ð½Ð°Ð³Ð¾
ĠÐ¿Ð¾Ð´ÑĮÑı ÑĩÐµÐ³Ð¾
ĠÐ¸Ð·Ð¼Ñ£ Ð½
ĠÐĳÐ¾Ð¶Ðµ ÑģÑĤÐ²ÐµÐ½
ĠÐ»Ð°ÑĤÐ¸Ð½Ðµ ÑģÐºÐ¾Ð¼Ð¾Ñĥ
ĠÑĨÐµÐ»Ð¾Ð²Ð° Ð½Ð¸Ðµ
ĠÐºÑĸ Ð²Ñ¡
ĠÐ½Ð¾ÑĢ Ð¾Ð²Ñĭ
ĠÐ²ÐµÐ»Ð¼ Ð¾Ð¶Ð¸
ĠÑģÐ°Ñħ Ð°ÑĢ
Ñĥ ÑģÐ°
ÑģÑĤ ÑĢÑĥ
ĠÑĥ Ð¿ÑĢÐ°Ð²
Ð´Ð° ÑĪÐµ
Ð°Ð½ ÑĸÐµÐ¼ÑĬ
ĠÐ¸Ð· Ð²ÐµÑģÑĤÐ¸
ĠÐºÐ¾ÑĢ Ñĭ
ĠÐ¿Ð° ÑħÐ°
ĠÐ¸ÑģÐ¿ ÑĢÐ°Ð²Ð¸ÑĤÐ¸
ĠÑģÐ»Ð° Ð²Ð¸
ĠÐºÐ½Ñ§ Ð¶ÑĮ
ĠÐ±Ð»Ð°Ð³ Ð¾Ð²Ñ£ÑĢ
ĠÑĤÑĮ Ð¼Ð°
ĠÑĩÐµÑĤÑĭ ÑĢÐµÐ´
ĠÐ¿ÑĢÐ¾Ð¿ Ñĥ
ĠÐ³Ð¾ÑĤ Ð¾Ð²Ð°
ĠÑĩÐµÑĤÑĭÑĢÐµ ÑħÑĬ
ĠÐ¿Ð¾ÑħÐ²Ð° Ð»Ñĭ
ĠÐŁÐ¾Ð¼ ÐµÑģÑĤ
ĠÐ¼Ñ£ÑģÑı ÑĨÐ°
ĠÐ¸Ðº Ð¾Ð½Ð°
ĠÑģÑĤÐ¾ÑĢÐ¾Ð¶ Ñ£
ĠÐ¿ÑĢÐ¸ÑģÑĤÐ°Ð½Ð¸ ÑīÐµ
ĠÐ¼Ð°ÑģÑĤÐµ ÑĢÐ°
ÑĢ Ð¾Ð·
Ð¼ ÐµÑĤÐ°
ĠÐ¿ÑĢÐ¸ Ð´ÐµÑĤÑĬ
ĠÐĲ Ð¹
ĠÑħ Ðµ
ĠÑģÑĬ Ð½Ñ£
ÑĩÐµ Ð½Ð¸
ĠÐŁ ÑĢÐ¾Ðº
ÑĨÐ° Ñħ
ĠÐ¿Ð¾Ð´ ÑĭÐ¼Ð°
ĠÐ±ÑĢÐ° ÐºÑĬ
ĠêĻģ ÑĮ
ĠÐºÐ¾ÑĢ Ð¼Ð¸ÑĤ
ĠÑģÐ¿ Ð°ÑĤÑĮ
ĠÐ·Ð°Ð¿ ÐµÑĩÐ°ÑĤ
Ñ³ Ñ£
ĠÐĽ Ð°Ð·
ĠÐ²Ð»Ð° Ð´êĻĳ
ĠÐ³Ð¾Ð´ Ð½Ð¾
ĠÑĩÐµÐ»Ð¾Ð²Ñ£ ÐºÐ¸
ĠÐ¾Ð¿ ÑĢÐ°Ð²
ĠÑī Ð°
ĠÐ±êĻĳ Ð²Ð°
ĠÑĢÐ°êĻģ Ð´Ñ£
ĠÐ²ÑĬÑģ Ð°Ðº
Ð²ÑĪÐ¸ Ð¼
ĠÐ²ÑģÑ§Ðº ÑĸÑ§
ĠÐ¿ÑĢÐ¸ÑģÐ»Ð° Ð»
ĠÐ¸Ð´ Ð¾Ð»
ĠÐ²Ð¼Ñ£ ÑģÑĤÐ¾
ĠÐ±ÑĢÐ°ÑĪ Ð½Ð¾
ĠÑĢÑ« ÑĨÑ£
ĠÐ¾ÑģÐ¼Ð¸ Ð½Ð¾Ñİ
Ñĥ Ð±Ð¾
ĠÐ¼ ÑĢÐµ
ÐµÐ¼ Ð¾Ðµ
ĠÑĩ Ð°ÑĢÑĥ
ĠÐ¿ÑĢÐ¸ ÐºÐ»Ð¾Ð½
Ñ¡ Ð²
ĠÐ¸Ð· Ð³Ð¾ÑĤÐ¾Ð²
ĠÑĤÐ°Ðº ÑĸÑı
ĠÑĦ ÑĢÐ°Ð½ÑĨÑĥ
ĠÐ¿Ñĥ ÑģÑĤÑĭÐ½Ñİ
ĠÑģÑĤÑĢÐ° ÑģÑĤÑĮ
ĠÒĨ ÒĨ
ĠÑİ ÑĢ
ĠÐ²ÐµÑĢ Ð¸ÑĤÐ¸
Ð·Ð° Ð¹
ĠÐ¿Ð¾Ð± Ð¾Ð¸
Ġ2 6
ĠÑĢÐ°Ð´ Ñĸ
ĠÐŁÐ¾Ñģ Ð»Ñ£
ĠÐ¾Ð±ÑĬÑıÐ² ÑıÑĤÑģÑı
ĠÐ´ÑĢÑĬ Ð¶Ð°Ð²
ĠÐ¶ÐµÐ»Ñ£Ð· Ð½Ð¾Ðµ
ĠÑħÐ¾ÑĢ Ð¾Ð¼Ñĭ
ĠÑĪÐ°ÑĤ ÑĢÑĥ
ĠÐ¸Ð½Ñ£ Ð¼ÑĬ
ĠÐºÐ»ÑİÑĩ Ð½Ð¸ÐºÐ°
ĠÐ±ÑĢÐµ Ð³Ñĥ
ĠÑĢÐ°Ð·Ð»Ð¸Ñĩ Ð½ÑĭÐ¼Ð¸
ĠÑĤÐµÐ»Ñ£ Ð³Ð¸
ĠÐ¿ÑĢÑ£Ð¼ÑĥÐ´ ÑĢÐ¾ÑģÑĤÐ¸
Ðµ ÑģÑĤÑĮ
ĠÑģ ÑĢÑĬÐ´
ĠÐ¿ Ð»ÐµÐ½
Ñı Ð·Ñĭ
ĠÑĤ Ð»Ñ£Ð½
ÑĪ Ð¸Ð»
ĠÐ¾ ÑħÐ¾ÑĤ
Ð¶ Ð°Ð½Ðµ
ĠÑĥ Ð±Ñ£
ĠÐ·Ð° Ð´Ñ£
ĠÑģÐµ Ñİ
ĠÑı ÐºÐ¾Ð²Ð°
ĠÐ¾Ð± Ñĥ
Ð²Ð¸ Ð½Ð°
ĠÑĢÐµ ÐºÑĭ
ĠêĻĹ Ðº
Ð»Ð¾ Ñİ
ĠÑĢÐ°Ð· ÑĢÑĥ
ĠÑ¥ ÑģÑĤÐµ
ĠÑĤÑĭ Ð¼ÑĬ
ĠÐµÑģÑĤÑĮ ÑģÑĤÐ²Ð¾
ÑĨÐ¸ Ñİ
Ð´ÑĮ Ñĸ
ĠÐ½Ñ£ ÑģÑĤÑĬ
ĠÐ¿Ð¾Ð± ÐµÐ´
ĠÐ²ÑĢÐ° ÑĤÑĬ
ĠÐĹ ÐµÐ¼
ĠÐ´Ð²Ð° Ð´ÐµÑģÑ§ÑĤÑĮ
ĠÑĤÑı Ð¶
ĠÑģÑĬÑĤÐ²Ð¾ÑĢ Ð¸ÑĪÐ¸
ĠÐ±Ð° ÑĢÐ°
ĠÐ½ÐµÐ±ÐµÑģ ÑĬ
ĠÐ²ÑĭÑģ Ð¾
ĠÐ½Ð°ÑĢÐµ Ñĩ
ĠÐ¿Ð»ÐµÐ¼ ÐµÐ½Ðµ
ĠÑħÑĢÐ°Ð± ÑĢÑĭÐ¹
ĠÐ³Ð°Ð² ÑĢÐ°
ĠÑĤÑĢÑĥ Ð±
ĠÐ¿ÑĬ Ð»
ĠÑĩÑĢÐµ Ð·
ĠÐĳÐ»Ð° Ð³Ð¾
ĠÐ½ÐµÐ±ÐµÑģÑĮ Ð½Ð°Ð°Ð³Ð¾
ĠÑģÐ»Ð¾Ð±Ð¾Ð´ Ñĭ
ĠÐ²ÑģÑ£Ð²Ð¾Ð» Ð¾Ð´ÑĬ
ÑĢÐ°Ð·Ñĥ Ð¼Ñ£
ÑĮ ÑģÑĤÐ¸
ÑģÑĤ Ð½Ð¾Ðµ
Ð³ Ð¾Ð²Ð¾
ĠÐ¼ Ð½Ð¸ÑĤ
Ð± Ð¸ÑĤÐ°
ĠÑĩ Ð¾
ĠÐ» ÐµÐ½Ð¸
ĠÐ¿ÑĢÐ¸ Ð½
ĠÐ¿ÑĢÐ¸ Ð»
ĠÐ¾ÑĤ ÐºÑĢÑĭ
ÑĢÑ£ ÑħÑĬ
ĠÐ»Ñİ ÑĤÐ°
ĠÐ¿Ð¾Ð» ÑĥÐ¿
ĠÐĿ Ð¾Ð²Ð°
ĠÐ¸Ð· ÑĭÐ¼
ÑĤÐµ Ñħ
ÑĩÐ° ÐµÑĤ
ĠÐ´Ð¾ Ð¸ÑĤÐ¸
ĠÐ²Ñĭ Ð»Ð°Ð·
ĠÐ»Ð¸ Ð±Ð¾
ĠÐ²Ð° Ð»Ð°
ĠÐ²ÑģÑı ÐºÐ¾
ĠÐ¿Ð¾ÑĤ Ð²ÐµÑĢ
ĠÐ³Ð¾ÑĢ Ñı
ĠÐ²ÐµÑĢ Ð¸ÑĤÑĮ
ÑģÑĤÑĥÐ¿ Ð¸ÑĪÐ°
ĠÐ±Ð¾ÑıÑĢ ÑģÐºÐ¾Ð¼Ñĥ
ĠÑģÐµÐ» ÐµÑħ
ĠÑĥÑĩÐ¸Ð½Ð¸ Ð»
ĠÑĤÑĮ Ð»Ñ£Ð½ÑĮ
Ð¸ÑĤÐµÐ» Ñ§
ĠÐ¼Ð¾Ð¶Ðµ ÑĤÐµ
ĠÑĤÑĢÐµ Ð¿Ðµ
ĠÑģÐºÐ¾ÑĢ Ñ£
ĠÐ´ÐµÐ»Ð° ÑĤÑĮ
ĠÐļÐ¸ ÐµÐ²
ÑģÐºÑĬ ÑĢ
ĠÐ¿ÐµÑĢÐ² Ð¾Ð¼Ñĥ
ĠÐ²Ð´Ð° Ð»ÑĮ
ĠÐ¿ÑĢÐ¸ÑıÑĤ ÐµÐ»ÑĮ
ĠÑħÑ¹ Ð´Ð¾
ĠÐ¡Ð° Ð²Ð°
ÑĢ ÑħÑĸ
ĠÑģ Ð¾Ð·Ð¸
ĠÐ¸ Ð¶
ĠÐ½ Ð¸ÑĤ
ĠÐ¾ ÑĤÐ¸Ð½ÑĥÐ´ÑĮ
ĠÐ½Ð° Ñ§
ÑĢÐ° Ð²Ñĭ
ÑĨ Ð°ÑĤ
ĠÑģÑĤ ÑĢÑ§
ĠÐĴ ÑģÐ¸
ÑģÐ¸ Ð»Ð°
ĠÐ¢ Ð²Ð¾
ĠÐºÐ¾ ÑģÑĤÑĮ
ĠÑĢÐ°Ð· ÑĬ
ĠÐ´Ð¾Ð± ÑĢÐ¸
ÑģÐºÐ° Ð³Ñ¡
ĠÐ´Ð²Ð¾ÑĢ ÑıÐ½Ð¸
ĠÑĨÑĢ ÑĤÐ²Ð¾
ĠÐ¶Ð¸Ð²Ð¾ ÑĤÐ¸Ð½Ñĥ
ĠÐ²Ð°ÑģÐ¸Ð»ÑĮ ÐµÐ²Ð¸ÑĩÑĮ
ĠÐ¼Ñ§ ÑĤÐµ
ĠÐ²Ð¾Ñģ Ð¼ÑĮ
ĠÐ³ÑĢÐ¸Ð³Ð¾ÑĢ ÑĮÑİ
ÑıÐ² Ð»ÐµÐ½
ĠÑĪÐ¸ ÑĪ
ĠÐ¿ÑĢÐ¸ÑħÐ¾Ð´ Ñı
ĠÐ¿Ð¾ÑģÐ° Ð´Ð¸ÑĤÐ¸
ĠÐ°ÑĢÑħ Ð°Ð½Ð³
ĠÑĮ ÑĤÐ¾
ĠÑĪÑĥ ÑĢÐ¼
ĠÐ¿Ð¾Ð»Ðº ÐµÑħ
ĠÐ² ÑĤÐµ
ĠÑĥ Ð³Ð¾ÑĤÐ¾Ð²Ð°
ĠÐ²ÑĬ Ð½Ðµ
Ð¾Ð± Ð¸ÑĤÑĮ
Ð¼Ð¸ ÑĢ
ĠÐĲ ÐºÑĭ
ĠÑĢÐ° ÑģÑĤÐ¾
êĻĹ Ð½Ðµ
ĠÑ¡ Ð½Ð¾
Ð»Ðµ Ð½Ð¸ÐµÐ¼ÑĬ
ĠÐ¸Ð· Ð½ÐµÐ¼
ĠÐºÐ¾Ð½ Ð½ÑĭÐµ
ĠÑģÑĤÐ°ÑĢ Ð¾Ð¶
ĠÐ²Ð° ÑĪÐ¸Ñħ
ĠÐºÑĥÐ¿ Ð¸ÑĤÐ¸
Ð½êĻĳ êĻĹ
ĠÑģÑĤÐ¾Ð» Ð±
ĠÐ½ÐµÐ±ÐµÑģ Ð°
ĠÐºÑĢÐµÑģÑĤÑĮÑı Ð½Ñı
ÑĤÐµÐ» Ñ§
ĠÐ¿ÑĢÐµÑĩÐ¸ÑģÑĤÑĭ Ð°
ĠÑģÑĢÐ¾Ðº ÑĬ
ĠÐ¿ÑĥÑĪÐºÐ°ÑĢ ÐµÐ¹
ĠÐ¼Ð¾Ñ¥ Ð¼Ñĥ
ĠÐ´Ð¾Ñĩ ÐµÑĢ
ĠÑĢÐµÐºÐ¾ Ñħ
ĠÐ±Ð»Ð°Ð³Ð¾Ð´Ñ£ ÑĤÑĮ
ĠÐ½ÐµÐ²Ð¾Ð· Ð¼Ð¾Ð¶Ð½Ð¾
ĠÑ ¢
ÑĤ ÑĶ
ÑĤ Ð¾ÑģÐ»Ð°Ð²ÑĬ
Ð½ ÑĹÐ¸
Ð² ÑĢÑ£
ĠÐ° Ð½ÑĬ
ĠÐĺ Ð¾ÑģÐ¸
ĠÑħ Ð²Ð°ÑĤÐ¸
ĠÑħ ÑĥÐ´Ñ£
ĠÐ·Ð° ÑĢÐ°
ĠÑģÐµ Ð³Ð°
ĠÐŁ Ñ£
ĠÐĳ Ð¾Ð²Ñĭ
Ñ¥ ÑĤÐµ
ĠÐ²Ð¸ Ð¶ÑĮ
Ð»Ñ§ ÑĤÑĮ
ĠÐ¿Ð¾ÑĢ Ð¾Ñģ
ĠÐ¿Ðµ ÑĩÐ°
ĠÐĽ Ð°
ĠÐºÑĥ Ð½êĻĳ
ĠÐ²ÑĢÐ° Ð³Ð¾Ð¼ÑĬ
Ñµ Ð¼
ĠÐ³Ð¾Ð²Ð¾ÑĢ Ð¸
Ð²ÑĪÐµ ÑģÑı
ĠÑģÐ²ÑıÑĤ ÑĭÐ¹
ĠÐ¿ÑĢÐ¾Ð´Ð° Ð¶Ðµ
ĠÐŁÑĢ Ð¾Ð³Ð¾Ð²Ð¾ÑĢ
ĠÐºÑĢÐµÑģÑĤÑĮÑıÐ½ ÑģÐºÐ¸Ñħ
ĠÐ²Ð´ Ð¾Ð²Ð¸
ĠÑİÑĢÑĮ Ñı
ÑĪÐ½Ð¸ Ñħ
Ġ10 5
ĠÐ±Ð¾Ð³Ð°ÑĤÑĭÑĢ ÑģÐºÐ¾Ð¹
ĠÐ±Ð¾Ð³Ð°ÑĤÑĭÑĢ ÑģÐºÐ°Ð³Ð¾
ĠÐ²Ð¸Ð½Ð¾Ð²Ð° ÑĤÐ¾Ð¼
ĠÐ±Ð¾Ð¶ ÑĬ
ĠÑĢÑĭÑĨÐµÑĢ Ñı
ĠÐ³Ð¾ÑĢÐµ ÑģÑĤÐ¸
ĠÑĥÐ²Ð¸ Ð´ÐµÐ»ÑĬ
ĠÐ±Ð»ÑĬ Ð³Ð°ÑĢ
ĠÐ·Ð¼Ñ£ Ð¸ÑĪ
ĠÐ¸Ð½Ð´Ñ£ Ð¸
ĠÐ²Ð¾Ðµ Ð²Ð°ÑĤÐ¸
ĠÐ² ÑĢÐµ
ĠÐ´ ÑĪÐ¸
ĠÐ± Ð»Ñ§
Ñĩ Ð°Ð½Ðµ
ĠÐ¿ÑĢ Ñĭ
ĠÐ³ ÑģÐ¸
ĠÑģÑĤ Ñ¹Ð´
Ð¾Ð± ÑĢÑ£
ĠÑħ Ð¸Ð½
ĠÑģÑĬ Ð²Ñ£ÑĤ
ĠÐ¿Ð¾Ð» Ð°ÑĤ
ĠÐ¿Ð¾Ð» ÑĤÑĢÐµÑĤÑĮ
ĠÐ¿ÐµÑĢ ÐµÑĤ
ĠÐ¿Ð¾Ðº Ð¾ÑĢÐ¸
ÐµÐ½Ð° Ñı
ĠÐ¿Ð»Ð° ÑĤÐ½Ð¾
ĠÑĤÑĢ ÑĥÐ´ÑĬ
ĠÐ¸Ð¼Ñ£ ÐµÑĪÐ¸
ĠÐ²ÑĢÐ° Ð¶Ð´Ð°
ĠÑ¡ÑĤ ÑĢÐ¾
ĠÑĤÑĬ Ð¸
ĠÐ¿Ð¾Ð´ÑĬ Ñı
ĠÐ³Ñĥ Ñģ
ĠÐ¿Ð°Ð² ÐµÐ»ÑĬ
ĠÐ³Ð° Ð»Ð°
ĠÐ¿Ð¾Ð²Ñ£ ÑģÑĤÑĮ
ĠÐ°Ð² Ð´
ĠÐ²Ð·Ñĭ Ð´Ðµ
ĠÐ¿ÑĢÐ¸Ð»Ð¾Ð¶ Ð¸ÑĤÐ¸
ĠÐ¿Ð¾Ð¶Ð¸ Ð²Ðµ
ĠÐ¶ÐµÐ· Ð»Ð°
ĠÑĥÑģÑĤÐ°Ð² Ð¸ÑĤÐ¸
ÑĤ ÐµÐ²
Ð» ÐµÐ½ÑĮ
Ð¼ Ð»Ñ§
ĠÐº Ð¸Ð½Ð¾Ð²
Ñĩ Ð½ÑĭÐ¸
ĠÐ¿ÑĢ Ð¾Ð²Ðµ
Ð»Ð° ÑĤÐ°
ÑĨ Ð¾Ð²ÑĭÐ¼
Ð½Ð¾ ÑģÑ§
ĠÐ²Ñģ ÐµÐ»
ĠÐ·Ð° Ð·
ĠÐ·Ð° Ð²Ñ£ÑĤÐ°
ĠÑ¿ Ð¿Ñ¹
ÐµÑģ Ð»Ñģ
ÑīÐ¸ Ð½Ð°
ĠÑĦ Ð°Ð»
ĠÑĤÑ£ Ð¼Ð¶Ðµ
ĠÐ³ÑĢÐ°Ð¼Ð¾ÑĤ Ð¾Ñİ
ĠÐ¸Ð²Ð°Ð½ Ð¾Ð²ÑĬ
â¸¯ ÐºÐ¾
ĠÐ²Ð¸Ð´Ñ£ Ð»Ð¸
ĠÐ¿ÑĢÐ¸ÑĪ ÑĬ
ĠÐ·Ð»Ð° ÑĤÑĬ
ĠÐ·Ð°Ðº Ð¾Ð½Ñ£
ĠÐºÑĢÐ°Ñģ Ð¾ÑĤÐ°
ĠÐ¦ Ð°ÑĢÑİ
ĠÐºÐ¾Ð¿ ÑĬ
ĠÐ·Ð²Ñ£ Ð·Ð´Ð°
ĠÐ²Ð¼Ðµ ÑģÑĤÐµ
ĠÐ³Ð¾ÑģÑĤ Ñı
ĠÐ¿Ð¾Ð²Ñ£Ð´Ð° ÑĪÐ°
ĠÑģÐ¿Ð¸ ÑģÐºÐ°
ĠÑģÑĮÑĢÐ´ÑĮ ÑĨÐµ
ĠÐ½Ñ£ÐºÑĭ Ð¸
ĠÐ»ÑĥÑĤ ÑĩÐµ
ĠÑģÑĤÐ¾ÑĢÐ¾Ð¶ Ñĥ
ĠÐ¾ÑĦÐ¾Ð½Ð°Ñģ ÑĮ
ĠÐ²ÑĭÐºÑĥÐ¿ Ð°ÑĤÐ¸
ĠÑģÑĥÐ¿Ð¾ÑģÑĤ Ð°ÑĤ
ĠÑĭÐ²Ð° Ð½Ð¾Ð¼
Ñģ ÑĸÐ°
ĠÐ´ Ð¾Ð³
ĠÐ´ Ð»ÑĮ
ĠÐº Ð»ÐµÐ¼ÐµÐ½
Ð³ Ð¾Ð´Ð°
ĠÐ½Ð° Ð·Ñĭ
ĠÐ³ Ð»Ñı
ÐµÐ¼ Ñ£
ĠÐ¿Ð¾ ÑĩÐ¸Ð½Ð°
ÑĥÐ´ ÐµÑĤÑĮ
ÐµÐ² êĻĭ
Ð°Ðº Ð¾Ð½Ð¸
êĻĹ Ð½Ð°
êĻģ Ð¾
ĠÑı Ñĩ
ĠÐ³ÑĢÐ° Ð½ÑĮ
Ð±Ðµ Ð¶Ð°
Ð¼Ð¾ÑĤ ÑĢÑ£
ĠÑģÑ£ Ð½
ĠÐ³ÑĢ ÑĥÐ´Ð¸
ĠÐºÐ¾Ð» Ð¾
ĠÐ´Ð¾Ð±ÑĢÑĭ Ð¼
ĠÑĨÑ£ Ð»ÑĮ
ĠÑĤÐ°Ð¼ Ð¾Ð¶ÐµÐ½
ĠÐ¿Ð¾Ð²Ñ£ ÑģÑĤÐ¸
ĠÐ³Ð¸ Ð±
ĠÑģÑĮÑĢÐ´ÑĮ ÑĨÑĮÐ¼ÑĮ
ĠÑģÑĤÑĢÐ°Ð½Ð° Ð¼ÑĬ
ĠÐ±Ð¾Ð»ÐµÐ· Ð½ÑĮ
Ñĭ ÑĤÐ¸
ĠÐº Ð¾Ð¼ÑĬ
ĠÐº Ð¸Ð½Ñĥ
Ñī ÐµÑĤÑģÑı
ĠÑĩ Ñ§
ĠÐ» Ð¾Ð¶Ð°
Ð´Ð° ÐµÑĤÑĮ
ĠÐŀ Ð²
Ð»ÐµÐ½ ÑĸÑİ
ĠÐ¼Ð¾Ð» Ð¾Ð´Ð°
ĠÐ¿Ð»Ð° ÑĤ
ĠÐµÐ¼ Ð»Ñİ
ÑİÑīÐµ ÑģÑı
ĠÐ´Ð¾Ð±ÑĢ Ð¾ÑĤÑ£
ĠÐ¦ ÑĢ
ĠÐĴÐ»Ð°Ð´Ð¸ Ð¼Ð¸ÑĢÐ°
ÑĩÐµÑĤ Ñĥ
ĠÐ·Ð²Ñ£ ÑĢÑĮ
ĠÐ»Ð² ÐºÐ°
ĠÐ·Ð°Ð²Ð¸ Ð´Ð°
ĠÑĩÑĢÐµ Ð²Ð°
ĠÑ¡Ð±ÑĢÑ£ ÑĤÐ°
ĠÑģÐ¾ÑģÑĤÐ°Ð² Ñĭ
ĠÐ¿Ð°Ð³Ñĥ Ð±Ð°
ĠÑĢÐ¾ÑĥÑģÐ¸ Ð½Ð¾Ñĥ
Ð¸ Ð¶Ðµ
Ñı Ð½Ð¸Ñİ
ĠÑĤ ÑīÐ°
Ñĩ Ð½Ð¾Ð¼ÑĬ
Ð± ÑĢÐ¾
ĠÐ° ÐºêĻĳ
ĠÐ° Ð¶Ð¸Ð¾
ĠÐµ Ð¿Ð¸
ĠÑĩ ÑĮÑı
ÐµÐ» ÑĸÐµ
ĠÐºÑĬ Ñģ
ĠÐ¿Ð»Ð° ÑĤÑĮÑ§
ĠÑģÑĥ ÑīÐ¸
ĠÐºÑĢ Ñģ
ĠÐ¸Ð½ Ð½Ð¾Ð¼ÑĬ
ĠÐ¶Ð¸Ð²Ð¾ ÑĤÐ¸Ð½Ð°
ĠÑī Ñĥ
ĠÐ·Ð½Ð° Ð¼
ĠÐ¾Ðº Ñģ
ĠÐ¾Ð´ Ð½Ð¾
Ġ2 8
ĠÐ´ÐµÐ² ÑıÑĤÑĮ
ĠÑĩÐ¸ÑģÐ»Ð° Ð¼Ð¸
ĠÐ¾Ð±ÑĬÑıÐ² Ð¸ÑĤÑģÑı
ĠÐ¿ÑĥÑĪÐºÐ°ÑĢ ÑģÐºÐ¾Ð¹
ĠÑĪÐ°ÑĤ ÐµÑĢÑĬ
ĠÑĥÑĢÑı Ð´Ñ£
ĠÑģÑĬÐ¼Ñ£ ÑĢÐµÐ½Ð¸Ðµ
ĠÐ²ÐµÑĢÑħ Ð¾Ð²ÑĭÑħÑĬ
ĠÐĳÑĭ ÑģÑĤÑĮ
ĠÐ¡Ð¿Ð°Ñģ Ð°
ĠÐ¿Ð¾Ð¼ÑĭÑĪÐ»Ñı Ñı
ĠÐ±Ð»Ð°Ð³Ð¾Ð´Ð°ÑĢ ÑģÑĤÐ²ÑĥÑİ
ÑĢ ÑĨÑĭ
Ñİ ÑĪÑĤÐ¸
ĠÑĥ ÑģÑĤÑ£ÑħÑĬ
ĠÑģÑĤ Ð³
Ñ¡ Ð½ÑĮ
ĠÑģÑĬ Ð´ÑĢÑĬ
ĠÐ¸Ð· Ð±Ñ£
ÑģÐ¸ Ð²ÑĬ
ĠÐ³Ð¾ÑģÑĥÐ´Ð°ÑĢ Ðµ
ÑīÐ¸ ÐºÐ¾Ð²ÑĬ
ĠêĻģ Ð»Ñ£
ĠÐ²ÑĬÐ· ÑĢÐ°
ĠÐºÑĢÐ° Ð´
ĠÐĽ Ð¸ÑĤÐ¾Ð²
ĠÑģÐµÐ¼ Ðµ
ĠÑħÐ¾Ð´ ÑıÑĤ
ĠÐ±ÑĭÐ²Ð° Ð»Ð¸
ĠÐ¿ÑĢÐ¾Ð´Ð° ÑģÑĤÑĬ
ĠÑĢÐ°êĻģ êĻ¿
ĠÐ¿Ð¾ÑģÐ»Ñ£ Ð´Ñĥ
Ð¶Ð´ ÐµÐ½ÑĬ
ĠÑĨÑĢÐº Ð²Ðµ
ĠÐ¿ÑĢÐ¸Ð²ÐµÐ´ ÐµÑĤ
ĠÐ·Ð»Ð¾ Ðµ
ĠÐ¼Ñģ ÑĨÑ§
ĠÐ½Ð°Ðº Ð¾ÑĢÐ¼Ð¸
ĠÐ´ÑĢÑ¹ Ð¶
ĠÐºÐ¾ÑĢÐ¾Ð»ÐµÐ² ÑģÐºÐ¾Ðµ
Ð±ÑĢÑ£ ÑĤÐ¾
ĠÐºÐ°ÑĢÐ° Ð±Ð»Ñı
ĠÐ¿ÑĢÐ°Ð²ÑĮ Ð´Ñĭ
ĠÑģÑĬÑģ ÑĥÐ´ÑĬ
ĠÐ³ÑĢÑ£ÑĪÑĮ Ð½Ð¸ÐºÐ°
ĠÐ¿ÑĢÐ¸Ð±Ñĭ Ð»Ð¸
ĠÑĪÑĤ Ð¾Ð±Ñĭ
ĠÐ¡ÐµÑĢ Ð³Ð¸
ĠÐ·Ð°ÑĥÑĤ ÑĢÐ°
ÑĤ ÑĨÑĭ
ÑĢ Ð¾Ð¹
ĠÐº Ð½Ðµ
Ð³ Ð»ÑĬ
Ð¿ Ñĸ
ĠÐ½Ðµ ÑģÑĤÑĮ
ĠÐ½Ðµ ÑģÑĤÐµÑĢ
ĠÐ» Ð¸Ñģ
Ð°ÑĢ Ð¾Ð²
ĠÑģÑĤ Ð¾Ðµ
êĻĹ ÑĤ
ÑĪÐµ Ð±
ÑĢÑ£ Ð¿Ð¸
ĠÑ¿ Ð²Ñ£ÑĤÑĬ
ĠÐŁ ÑĤÐ¾Ð»Ð¾Ð¼Ñ£
ĠÐ¸Ð· Ð´Ð°Ð»Ðµ
ÑĸÐµ Ð²Ð°
ĠÑĤÐ²Ð¾ êĻĹ
ĠÐ¼Ñ£ ÑģÑĤÑĥ
ĠÑ¹ Ð³Ð¾Ð´
ĠÐ±Ð¾ÑĢ Ð·Ð¾
ĠÐ³Ð»Ð° Ð²Ð¸
ĠÑģÐ»Ð°Ð² Ð¸ÑĤÐ¸
ĠÐ¾ÑģÑĤ ÑĢÐ¾Ð²
ĠÑģÑĬÐ²Ñ£ ÑĤÐ°
ĠÐ¿Ð¾Ð»Ð¾Ð²Ð¸ Ð½Ñĭ
ĠÐ²ÑĬÐ¿ÑĢÐ° ÑĪÐ°
ĠÐºÑ¡Ð½ ÑģÑĤÐ°Ð½
ĠÐºÐ¸ÑĢ Ð¿Ð¸
ÑĮ Ð½Ð¸
Ðº Ð¾ÑĢÐ°
ĠÐ¼ êĻĻ
Ð± ÐµÑģ
Ñ§ Ð½Ð¾
ÑĤÐ¸ ÑĤÑĬ
ĠÐµ ÑĦÐ¸
ĠÑĥ ÑģÑĤÑĭ
ĠÐ´Ð° Ð¸ÑĤÐµ
Ð¾Ð½ Ð¾Ð¼
ĠÐ¿ÑĢÐ¸ Ð´ÐµÑĤ
ĠÐ¶ Ð¾Ð»
Ð¸Ð¼ Ñĭ
Ð¸Ñħ ÑģÑı
ĠÐ¿Ð¾Ð´ Ð°Ð»
ĠÐ²Ð¾Ð· Ð²ÑĢÐ°
ÑĨÐµ Ð¹
ĠÐ±Ñ£ Ð°
ĠÐ¿ÑĢÑ£ Ð¼Ñ£
ĠÑģÐº Ð¾Ð²
ĠÐ¿Ð¾ÑĢ Ð°Ð±
ĠÐĳÐ¾Ð³ Ð°ÑĤÑĭ
ĠÑĩÐµÐ»Ð¾Ð²Ðµ ÑĩÐµ
ÐµÐ²Ñĭ Ð¼ÑĬ
ĠÐ¾Ð³ Ð½Ñı
ĠÐ¼ÑĬ Ð»ÑĬ
ĠÑģÐ²ÑıÑĤ ÑĥÑİ
ĠÑĥÑĩÐ¸Ð½Ð¸ Ð»ÑĬ
ĠÐ½Ð°Ñĩ Ð°Ð»Ðµ
ĠÐ¸ÑģÐº Ñ¹
Ð³Ð¾ÑĤ Ð¾Ð²Ð¸
ĠÐ±Ð»Ñİ Ð´Ð¸
ĠÐ¿ÑĢÑĬ Ð²Ñ£Ðµ
ĠÐ¿Ð¾ÑħÐ²Ð° Ð»Ñı
ĠÐ´Ð°Ð²Ð° Ð¼
ĠÐ¿Ð¾Ð²Ð°ÑĢ ÐµÐ½
Ð¼êĻ¿ Ð¶Ðµ
ĠÑģÐµÑĢÑĮ Ð±ÑĢÐ°
Ð» ÑĸÐ¸
Ð´ ÐµÐ¼
ĠÐº Ð¾Ð³Ñ¡
ĠÐ½Ðµ ÑĥÐ´
ÐµÑĢ Ð¿
ĠÑĥ Ð³ÑĬ
ĠÑĥ Ð¿Ð¾Ð´Ð¾Ð±
Ð°Ð½ êĻĭ
ĠÐ¾Ñĥ Ð²Ñ£Ð´Ñ£
ÑĤÐ° Ð½Ð°
ĠÐ¸Ñģ ÑĨÐµ
ĠÐ¼Ñ£ ÑĢ
ĠÐĵ Ð»Ð°
Ð¶ÑĮ Ð´Ð¾
ĠÐ¼Ñĥ ÐºÑĥ
ĠÐĵÐ¾ÑģÐ¿Ð¾Ð´ ÐµÐ²Ð¸
ĠÐ³Ð¾Ð» Ð¾Ð´
ĠÐºÐ°Ð¼ Ð¾
ĠÐ¼Ð°ÑĢ ÑĪÐ°Ð»
ĠÐ±ÑĢÐ°ÑĤÐ¸ Ñİ
ĠÐ¿ÑĢÐ¸ÑģÑĤÐ°Ð² Ð¾Ð¼
ĠÐ¿Ð¾Ð»Ð¾Ð¶ Ð¸Ð»
Ð¾Ð¿Ð¾Ð» êĻĭ
ĠÑĩÑİÐ´Ð¾ÑĤÐ²Ð¾ÑĢ ÑĨÑĥ
ĠÐ±Ð»Ð°Ð³Ð¾ÑģÐ»Ð¾Ð²Ðµ Ð½Ð¸Ðµ
ĠÐ½ÐµÐ½Ð°ÐºÐ°Ð· Ð°
âģ ĺ
Ð» ÑĥÑİ
Ð´ Ð²Ð°
ĠÐº Ð¾Ð¶Ð¸
Ñİ ÑĪÑĤÑı
Ð· Ð¼Ñ£
ĠÐ¾ Ñħ
Ð¿ ÑĢÑĥ
ĠÐ½Ðµ ÑĤÑĥ
ĠÐ·Ð° ÐºÐ°Ð·
Ð¾Ðº Ð°Ð¼ÐµÐ½
ĠÐŁ Ð¾Ð²Ñ£
Ð½ÑĮ ÑģÑĤÐ²Ð¾
ĠÐ¢ Ð¾Ð»ÐºÐ¾
ĠÐ²Ñĭ Ð½ÑıÑĤÑĮ
ÑĪÑĮ Ð´Ñĭ
ĠÐ¿Ð° ÑģÑĤÐ¸
ĠÑģÐ° ÑĢÐ°
ÑģÐ° ÑħÑĬ
ĠÑģÐ°Ð¼ Ð°ÑĢ
Ð¿Ð° Ð»Ð°
ĠÐ¿Ð¾Ð¿ ÑĮ
ĠÑĤÑĬ ÑĪÑĤÐ¸ÑģÑı
ĠÐ»Ðµ ÑģÑĤÑĮ
ĠÐ¿ÐµÑĤ ÑĢÐ¾Ð²Ð°
ĠÑģÐ¼ÐµÑĢ ÐµÐ½Ð¾
ĠÐ´Ð¾Ð» Ñİ
ĠÑģÑĤÐµ Ñ³
ĠÐ¼Ð¾Ð³ Ð¸
Ð³ÑĢÐ° Ð´Ñ£
ĠÐ¿ÐµÑĩ ÑıÐ»Ð¸
ĠÑģÐµÑĢÐ´ ÑĨÑĥ
ĠÐľÑĥÑĢÐ¾Ð¼ Ð°
ÑģÑĤÑĢ Ð¾Ð¹
ĠÐ°ÑĢÑħ ÑĸÐµ
ĠÑĤÐµÑĢ Ð¿Ñ£
ĠÐ¿ÑĢÐµÐºÑĢÐ°Ñģ Ð½ÑĥÑİ
ĠÑĤÐ¾ÑĢÐ³ Ð¾Ð¼
Ð³Ð»Ñĭ Ðµ
ĠÐ³ÑĢÐ¸Ð³Ð¾ÑĢÑĮ ÐµÐ²Ð°
ĠÐ¾Ð±ÑĢÑı ÑĪÑĤÐµÑĪÐ¸
ĠÑĢÑĭÑĨ ÐµÑĢÑĮ
ĠÐ»ÑĬ Ð¶Ð¸
ĠÐºÐ°Ð·Ð½Ð° ÑĩÐµÐ¹
ĠÐ²ÑĭÐ±Ð¾ÑĢ Ð½ÑĭÐµ
ĠÐļÑĬ ÑĤÐ¾
ĠÑģÐ°Ð´ Ð¸Ð»ÑģÑı
ĠÐ¸Ð½Ð´Ñ£ Ð¹
Ð»Ñ£Ð´ÑĬ ÐºÑĬ
ĠÐ³Ð¾ÑĤÐ¾Ð² Ð¸ÑĤÐ¸
ĠÐ±Ð¸Ñģ ÐµÑĢ
ĠÐ¡Ð¾Ð·Ð¾Ð¼ ÐµÐ½ÑĬ
ĠÐ½Ð°Ð¿Ð¾Ñģ Ð»Ñ£Ð´ÑĬÐºÑĬ
ĠÐ½Ð¸ÑĪÑĤ ÐµÑĤÑ£
ĠÑģÐ°Ð¼Ð¾Ð¿ Ð°Ð»ÑĮ
ĠÐľÐ°ÐºÐµÐ´ Ð¾Ð½Ð¸Ñİ
ÑģÑĤ Ð¸Ð»
ÑģÑĤ ÑĸÐµ
ÑĤÐ¸ Ð²ÑĬ
ÑģÐº Ð°Ð¼
ĠÐ²Ñģ ÑĮ
ÑĢÐ¸ Ð½Ñĭ
ĠÐ±Ð¾ ÑĩÐºÐ¸
ĠÐŁ Ð¾ÑĢÑĥ
Ñ¥ Ð³Ð¾
ĠÑĪ ÐµÑĢ
ĠÐºÐ°Ðº Ð¸Ðµ
ĠÑģÐ¾ Ñ³
ĠÑĦ ÐµÑ¡Ð´
ĠÐ¿Ð° Ð´ÑĬ
ĠÐ½Ð°Ð¿ ÑĢÐ°Ð²Ð¸
Ð²Ðµ Ð¸
ĠÑģÐ¾Ð± Ð¸ÑĢÐ°
ĠÐºÑĢ ÑģÑĤÑĬ
ÑĢÐµÐ¼ ÐµÐ½
ÑģÑĤÑ£ Ð¹
ĠÑĤÑı Ð³Ð»Ðµ
Ð¸Ð¼Ð° Ñı
ĠÑģÑĤÐ°Ð½ ÐµÑĤÑĮ
Ð¾Ð»Ñ£ Ð¿
ĠÐ¿ÑĢÑĸ Ð¸ÑĤÐ¸
ĠÐºÐ¾Ð½ÑĮ ÑĨÑĮ
ĠÐ·ÑĬ Ð»Ð°
ĠÐ¼ÐµÑĢ ÑĤÐ²
ĠÐ¼Ñģ ÑĨÑĮ
ĠÐ´ÑĢÐ° Ð³Ð°
ĠÑħÑĢÐ°Ð± ÑĢÑĬ
ĠÐ²ÑģÐµÐ²Ð¾Ð» Ð¾Ð´Ð°
ĠÐ½ÐµÐ¿ÑĢÐ°Ð² Ð´Ñĭ
ĠÐ¿ÐµÑĢÐµÐ¼ ÐµÐ½Ð¸
ĠÐ¿ÑĢÐ¾Ñħ Ð»Ð°Ð´
ÑĢ ÑĸÐ°
ĠÑģ Ð¸ÑĤ
Ð¼ ÐµÑĤÑĬ
ĠÐ¾ ÑģÐ»
ĠÐ½Ðµ êĻģ
ÑĤÑĮ Ñĸ
ĠÐ·Ð° Ð½
ĠÐ·Ð° ÐºÐ°
êĻĹ ÑĤÑĮ
Ð²Ñ£ ÑģÑĤÐ¸
ÑĢÐ¾ ÑģÑĤÐ°
Ð»Ñ£ Ð¿
ĠÐºÐ° Ð½Ð°
ĠÐ¼Ðµ Ð¶Ð°
ĠÐ³Ð¾ÑĢ Ð¸
ĠÑģÐ°Ð¼ Ð¾Ð²Ð»Ð°
ÑıÐ½ Ð¾Ð²Ð°
ĠÐ´ÑĢ ÐµÐ²Ñ£
ĠÐ¸Ð½ Ñ¹Ñİ
ÐµÐ½Ñĭ ÑħÑĬ
ĠÑĢÐ¾Ð· Ð¼Ð¸ÑĢÐ¸
ĠÐ¿Ñ£ ÑĪÐ¸Ñħ
ĠÐ¿Ð¾ÑģÐ»Ñĥ ÑħÐ¸
Ð»Ð¾Ð¶ Ð¸Ð»ÑĬ
ĠÑĨÐµÐ» Ð¾Ð²Ð°ÑĤÐ¸
ĠÐ²Ð¾ÑĤÑĩÐ¸Ð½ Ð½ÑĭÑħ
ĠÑģÑĤÑĢ ÐµÐ»ÑĮ
ĠÑģÑĬÑĤÐ²Ð¾ÑĢÐ¸ Ð²ÑĬ
ĠÑħÑĢÐ¸ÑģÑĤ Ð¾Ñģ
ĠÐ¼Ð¾Ñ¥ Ð¸
ĠÐºÐ¾Ð¶ Ñİ
ĠÐŁÐµÑĢ ÑģÐ¸
ĠÐ¾ÑĤÑĤ ÑĥÐ´Ñĥ
ĠÐĳÐ¾Ð³Ð¾ÑĢÐ¾Ð´Ð¸ ÑĨÐ°
ĠÐ½Ð° Ð²
ĠÐ¿Ð¾ ÑĤÐ¸
ĠÐ· Ð²Ð¾Ð½
ÐµÐ½ ÐºÑĥ
ĠÐ²ÑĬ Ð½Ñ£
ĠÐ¿ÑĢÐ¸ Ð²Ðµ
ĠÑħ Ð°Ð¼
ĠÐ½Ð¸ ÑĩÐµÐ²Ð¾
Ñ¡ Ð½
êĻģ Ð½
ĠÐ¡ ÑĤÐ°
ĠÐ¸Ð· Ð¸Ð´Ðµ
ĠÐ²Ñ£ ÑģÑĬ
ĠÐĳ Ð°
ĠÐĳ Ð¶
ĠÑĢÐ°Ð· Ð³ÑĢÐ°
ĠÐ¿Ð¾Ðº Ð¾Ð¹
ĠÑĤÐ²Ð¾ÑĢ ÑıÑīÐµ
ĠÐ¿ÑĢÐ¾Ñģ Ð²Ñ£ÑīÐ°
ĠÐ²Ð¾Ð´ Ð¸ÑĤÐ¸
ĠÐ¿Ð¾Ð¼Ðµ ÑģÑĤÑĮÑİ
ÐµÐ²Ñĭ ÑħÑĬ
ĠêĻĸ Ð¶Ðµ
ĠÐºÐ¾Ð¿ ÐµÐ½
ĠÑģÑĢ ÑĨÐµ
ĠÐ²Ñ£Ñĩ Ð½Ñ¹Ñİ
ÑģÑĤÐ²ÑĬ Ð¼ÑĮ
ĠÑģÐ¾Ð¿ ÑĢÐ¾ÑĤÐ¸Ð²
ĠÑĩÐµÑĤÐ²ÐµÑĢÑĤÑı Ð¼
ĠÐ¿Ð¾Ð»ÑĥÐ¿ Ð¾Ð»
ĠÐ´ Ð¾Ð¹
ÑģÑĤ Ñ§Ð½
ĠÐ½Ð° ÑģÑĤÐ°Ñģ
ĠÑĥ ÑĢÐµÑĩÐµÐ½
ĠÐ±Ð¾ ÑĥÐ´Ð¸
ĠÐŁ Ð¾Ð´ÑĬ
ĠÐ²Ñ£ ÑĢÐ¾Ð²
ĠÐ²Ñĭ ÑĩÐ¸
ĠÐľ ÑĥÐ´
ĠÑ¥ Ð¼
ĠÐ²ÑĬÐ· Ð´Ñĥ
ĠÑģÐ°Ð¼ Ð¾Ð´ÑĢÑĬ
ÑģÐ¿ Ð¾Ð²Ñ£Ð´Ð°
ĠÐ³Ð¾Ð´ Ñ£
ĠÐĹ Ð½Ð°
ĠÐ±Ð¾ÑıÑĢ ÑģÐºÐ¾Ð¹
ĠÐ¿Ð¾ÑģÐ°Ð´ ÑģÐºÐ¸Ñħ
ĠÑıÐ·Ñĭ ÐºÑĥ
ĠÑĤÑĢÐµÑĤÑĮ Ðµ
ÑħÐ¾Ð¼ ÑģÑı
ĠÐ¿ÑĢÐ¸ÑĤ ÑĩÐ°
ĠÐ´Ð¸Ð² Ð½Ð¾
Ð¾Ð»ÑİÐ±Ð¸ Ð²Ð°
ĠÑģÐ¿Ð¸ ÑģÐºÑĥ
ĠÐ¾Ð±Ð¾Ð· Ñĥ
ĠÐ¿ÑĢÐµÐ±Ñĭ Ð²Ð°ÑĤÐ¸
ĠÐ½ÐµÑĢÐ° Ð·Ñĥ
ĠÐ¿ÐµÑĢÐµÐ» Ð¾Ð³Ñĥ
Ðº Ð¾Ð´
Ðº Ð¾Ð»ÑİÐ±
Ð½Ð¸ Ð½Ñĥ
ĠÑĢ Ð¾Ðº
ĠÐ» Ð¾Ð´Ð¸
ĠÐ¿ÑĢÐ¸ ÑģÑ£
Ð´Ð° Ñİ
ĠÐ¾ÑĤ Ð²Ð¾ÑĢ
ĠÑĢÐ° Ð¼Ð°Ð½Ð°
Ñ« ÑŃ
Ð¸Ð¼ Ð¾Ð½
ĠÐ¿Ð¾Ñģ Ðµ
ĠêĻĹ ÐºÑĭ
ĠÑĦ ÑĢÑ§
ĠÐ¿ÑĢÑ£ Ð·
ĠÑ³ Ð¸Ð»Ð¸
ĠÑģÑ¹ ÑģÑ£
ĠÐ¿Ð¾ÑģÑĤÐ°Ð² Ð»ÐµÐ½ÑĬ
ĠÐºÐ½Ð¸ Ð³Ñĥ
Ð±ÑĮ Ñĸ
ĠÐ¾Ð´ Ð¾Ð»Ñ£
ĠÐ³ÑĢÐ¸Ð³Ð¾ÑĢ Ð¸Ð¸
ĠÑĥÐµÐ· Ð´Ð°
ĠÐ³ÑĢÐ¸Ð²ÑĮ Ð½Ð°
ĠÐ¼Ð°Ð½Ð°ÑģÑĤÑĭ ÑĢ
ĠÐ±ÐµêĻģ Ð°ÐºÐ¾Ð½
ĠÐ°Ð»ÑĤÑĭ Ð½Ñĥ
ĠÐ½ÐµÐ´Ð¾ ÑģÑĤÐ°ÑĤ
ĠÐ¾ÑģÑĤÐ°Ð½ ÑĥÑĤÑģÑı
ĠÑĩÐµÑĢÐ½Ð¸ Ð³Ð¾Ð²
ĠÐ°Ð»ÐµÐºÑģÐ°Ð½Ð´ ÑĢÐ°
ĠÐ¸Ð¼Ñĥ ÑīÐµ
ĠÐ¿ÑĢÑıÐ¼Ñĭ Ñı
ĠÐºÑĢÐµÐ¿Ð¾ÑģÑĤ ÑıÐ¼
ĠÐ½ Ð½êĻĹ
ĠÐ´ Ð¾Ð¶Ð¸
ĠÐ´ ÑĪÑ«
ĠÐº Ð»
Ð³ Ð°ÑĤ
ĠÐ± ÑĢÑĬ
ÑĤÐ¸ Ð°
ĠÑĩ ÐµÑĤÑĮ
êĻĭ Ð´ÐµÐ¸
ĠÑģÑĤ ÐµÐ½Ñĭ
ĠÑĢÐ° Ð²ÑĮ
Ð´Ð¸ Ð½Ð¾Ñİ
ĠÑĤÐ¾ ÑĥÐ´
Ð½Ñ£ ÑĤÐµ
ĠÑĢÐ°Ð· ÑģÑĥ
ĠÐºÐ¾ÑĢ Ñĩ
ĠÑģÐ° Ð´Ð¸
Ð»Ñ§ Ñİ
ĠÐ³Ñģ Ð½Ñĥ
ĠÐ½ÐµÐ¿ ÑĢÐ¾
ÑĩÐ¸Ð½ Ñ£
ĠÑĢÐ°êĻģ Ð¾Ñĥ
ĠÐ¿Ð¾Ð¼Ñĭ ÑģÐ»
ĠÐºÐ¾Ð¿ ÑĮÑı
ĠÐ¶Ð¸ÑĤ Ð¾
Ð´ÐµÑģÑı ÑĤÐ¸
ĠÐ³ÑĢÐ°Ð´Ñ£ ÑħÑĬ
Ñ» ÑĢ
ĠÐ¾ÑĥÐ¼ ÑĢÐµ
ĠÐ±Ð¾Ð³Ð°ÑĤ Ðµ
ĠÐ¼Ð¸ÑħÐ°Ð¸Ð» Ð¾Ð²
ĠÑģÑĤÐ°ÑĢÑ£ Ð¹
ĠÐ´Ð²Ð¾ÑĢÐµÑĨ ÐºÐ¾Ð¹
ĠÐ¡Ð°Ð» ÑĤÐ°Ð½
ÑĤ Ð²ÑĬ
ÑĢ Ð¸Ð½Ñĥ
ÑģÑĤ Ð°ÑĢÑ£
ĠÐ³ Ð½Ð¸
ĠÐ¿Ð¾Ñģ ÑĢÐ°Ð¼
Ð½Ñı Ñħ
ĠÐ¸Ð¼ ÐµÐ½Ðµ
ÑĤÐµ Ð±ÑĢÑı
ÑĩÐ° ÑĤÐ¾Ðµ
Ð½ÑĮ êĻĹ
ĠÐ´Ð¾ ÑĪÐµÐ´
ÑĦ ÑĢÐµÐ¼
ĠÐ¿ÑĢÐµ Ð¿Ð¸Ñģ
ĠÐ²Ð¾Ð· Ð±ÑĢÐ°
ÑĨÐµ ÑħÑĬ
ĠÑģÑĤÑĢÐ° ÑĤÐ¸
ĠÑķ Ð»Ð¾
ĠÐµÑģ Ð¼Ñ§
ĠÐ²ÐµÑĢ ÑĪÐ¸ÑĤÐ¸
ĠÐ¸ÑģÐ¿ Ñĥ
ĠÐ¼ÑĬ Ð½Ðµ
ĠÑģÐ²ÑıÑĤ Ñ£Ð¹
ĠÑ¡Ð±ÑĢÐ° Ð·Ñĭ
ĠÑĩÐµÑģÑĤ Ð½Ð¾
ĠÐ´ÑĥÑħÐ¾Ð² Ð½ÑĭÑħ
ĠÑģÐ¸Ð´ Ð¾ÑĢÐ°
ĠÐ¾Ð±ÑĭÑģÐº Ð½ÑĭÐµ
ĠÐ¿Ð¾ÑģÐ¼Ñ£ ÑħÑĬ
ĠÐ¿ÑĢÐ¾Ð¼ÑĭÑģÐ» Ñ¹
ĠÐľÐ¸Ð»Ð¾ ÑģÑĤÐ¸
ĠÐ¶ÑĢÐµ ÑĨÑĬ
ĠÐ¿Ð°ÑħÐ° Ð½ÑĭÐµ
Ð¼ êĻĻ
ĠÐ± Ð°Ð½
Ñ§ ÑīÐ¸
ĠÐ½Ð° Ð·Ð½Ð°Ð¼ÐµÐ½
ĠÐ¿ÑĢ ÐµÐ½
ĠÑĩ ÐµÑĢÐµ
êĻĭ Ð¿
ĠÐĺ Ð²Ð°Ð½ÑĬ
ĠÐ±Ñĭ ÑĪÑı
ĠÐ¾Ñĥ Ð±ÑĭÑĤ
ÑĢÐ¾ ÑĩÑĮ
ĠÐ»Ð¸ ÑĨÐµÐ¼ÑĮ
Ð´Ð¾ ÑĪÐµ
ĠÑģÑĤÐ°ÑĢ ÑĨÐ¸
ĠÐ´Ðµ ÑĪÐµÐ²Ð¾
ĠÐ³Ð¾ÑĢ Ð°Ñħ
ÑıÐ½ Ð¾Ð²
Ð¼Ðµ ÑģÑĤÐ¾
ĠÐ³Ð¾Ð» Ñ£
ĠÐ·Ð½Ð° ÐµÑĤÑĬ
ĠÐ¼Ð» ÑģÑĤÐ¸Ñİ
ĠÐ±ÑĭÐ²Ð° ÑİÑĤ
ĠÐºÑĢÐ°Ñģ ÐµÐ½ÑĬ
Ð½Ñĸ ÐµÐ¼ÑĮ
Ð½Ð¾Ð² ÐµÐ½
ĠÐ¶Ð¸ÑĤÐ¸ Ñİ
ĠÑģÐ¼Ñ£ ÑĤÐ¸ÑĤÐ¸
ĠÑħÑĢ ÑĤ
ĠÐ²Ñ£ÑĢ Ñ«
ĠÐ´Ð¾Ð¿ ÑĢÐ°Ð²
ĠÑģÐ»Ñ¹ ÑĪÐ°ÑĤÐ¸
ĠÐ¼Ð¸Ð» Ð¾Ðµ
ĠÐ·Ð°Ð¿Ð¸Ñģ ÑĭÐ²Ð°ÑĤÐ¸
ĠÐºÐ»Ñİ ÑĩÐ¸
ĠÑĥÐºÑĢÐ° ÑģÐ¸
ĠÐŁÑĢÐµ Ð¶Ð´Ðµ
ĠÑģÐ¸ÑĢ Ð¾ÑĤÑĭ
ĠÑģÐ¸Ð»Ð° Ð¼Ð¸
ĠÐ½Ð¸ÑĩÑĮ ÑģÐ¾Ð¶Ðµ
ĠÐ¿Ð¾ÑĢÐ¾Ð· Ð½ÑĮ
ĠÑĢÑ£Ð· Ð°Ð½ÑĬ
ĠÐ³ÑĢÐ¸Ð²ÐµÐ½ Ð¾Ðº
ĠÑĥÐ¼Ðµ ÑİÑĤ
ĠÐºÐ½ÑıÐ³Ð¸Ð½Ðµ Ñİ
ĠÑģÑĬÐ±Ð»Ð° Ð·Ð½Ð¸
ĠÐ¸ Ð¾Ð½Ñĭ
Ð³ Ð¾Ð»ÑĮ
Ð¿ ÑĢÑĮ
ÑĢÐ° ÑĤÐ°
ĠÐ´Ð° Ð²Ð°Ð»ÑĬ
ĠÐ¿ÑĢÐ¸ Ð³Ð¾ÑĢÐ¾Ð´
ĠÐ·Ð° Ð¶
ĠÐ·Ð° ÑĤÐ¸Ð½
ĠÑı ÑĢÐ¾ÑģÑĤÑĮ
ÑĩÐ° Ñ§
ĠÑĪ Ð¾Ð»
ĠÑĢÐ°Ð· Ð´ÑĢÐ°
ĠÐ¼Ñ£ ÑģÑĤÐ¾Ð¼ÑĬ
ĠÐ»Ñ£ ÑģÑĥ
êĻ¿ ÑģÑĤÐ²Ð¾
Ð¶ÑĮ ÐºÐ¾
ĠÐ²ÐµÑĢ Ñĭ
ĠÐ²ÐµÑĢ êĻĭ
ĠÐ¼ÐµÐ½ Ñ§
ĠÐµÐ¼ Ð»ÑİÑĤ
ĠÑĢÐ°Ð·ÑĥÐ¼Ñ£ ÐµÑĪÐ¸
ĠÑģÐ¾Ðº Ð¾Ð»
ĠÑ³ÐµÐ´Ð¾ÑĢ ÑĬ
ĠÐ¿ÑĥÑĪÐºÐ°ÑĢ Ñİ
ÑģÑĤÐ¸Ð½ Ð½Ñ£
ĠÐ¿Ð¸ÑĤ ÑĸÐµ
Ñ¡Ð½Ð° Ñ³
ĠÐ±Ð¾Ð¶ ÑĸÐµÑİ
ĠÑ¡Ð´ Ð¾Ð»Ñ£
ĠÑģÐ¾ÑĢÐ¾Ðº Ñĥ
Ġ V
ĠÑģ Ð¸ÑħÐ°
Ðº ÑĢÑĥ
ÑĢÐ° Ð½ÐµÑĨÑĬ
ÑĨ ÑĢ
Ñĸ Ð°Ð¼
ÑģÐº Ð¾Ð»ÑĮÐºÐ¾
ĠÐ¶Ðµ Ð½Ð¾
ĠÐ´Ð° Ð¼
ĠÐ´Ð° Óı
Â· âĢĲ
ĠÑı Ð¸
ĠÐ»Ð¸ ÑĪÑĮ
ĠÐ³Ð¾ÑģÑĥÐ´Ð°ÑĢ ÐµÐ¼
ĠÑĪ Ð»Ñı
ĠÐ²ÐµÐ»Ð¸Ðº êĻĳÐ¸
ÑĨÑ£ Ð¼Ð¸
ĠÐ²ÑĬÐ· ÐµÐ¼Ð¸
ĠÑ§ Ð±
ĠÑ§ ÐºÑĬ
ĠÐ´Ð¾Ð¼ Ð¸ÑĤ
ĠÑħÐ¾ ÑĩÑİ
ĠÐ³ÑĢÑ£ Ð²
ĠÑĤÐ¾Ð± ÑĮ
Ð³Ð¾ÑĢÐ¾Ð´ Ñ¹
ĠÎ µ
ĠÑĩÐµÐ»Ð¾Ð²Ñ£ ÑĨÑĭ
ĠÑĢÑĥÐ± Ð»Ðµ
ÑĪÐº Ð¸Ð½
ĠÑģÑĬÑĤÐ²Ð¾ÑĢ ÑĮ
ĠÐ¿Ð¾ÐºÐ»Ð¾Ð½ Ñı
ĠÐ´Ð¾Ð±ÑĢÑĭ Ð¸
ĠÐ¼Ð¾Ð³ Ð»Ð¸
ĠÑıÐ´ ÑĢÑĥ
ĠÑĢÑ¹ ÑĨÑ£
Ð¶Ð´ ÐµÐ½ÑĸÐµ
ĠÑģÐ¼Ñ£ ÑĤÑ£
ĠÐ¿ÑĮ Ñ§
ĠÐ½Ð± ÑģÐµ
ĠÑĩÐµÐ»Ð¾Ð±Ð¸ÑĤ Ð½Ð¾Ð¹
ĠÐ¿Ð¾Ð¼Ñ£ ÑĩÐµÐ½Ñĭ
ĠÐ¾ÑĤÐ²ÐµÑĤÑĩÐ¸ ÐºÑĥ
ĠÐ¼Ð¾Ð»Ð¾Ð´ ÑĨÑĭ
ĠÐ¸ÑģÑĤÐ¸Ð½ Ð½Ñĥ
ĠÐ´ÑĢÑ¹ Ð³Ñ¹
ĠÐ´Ð¼Ð¸ÑĤÑĢÐµ Ð¹
ĠÐ»Ð¾Ñĥ ÐºÑ£
ĠÐĲÐ· Ð¾Ð½ÑĬ
ĠÑĩÐµÑĤÐ²ÐµÑĢÐ¾Ð³ ÑĢÐ°Ð½ÐµÑĨÑĬ
ĠÑģÑĤÐ¾Ð»ÑĮ Ð½Ð¾
ĠÐ½Ð¾Ð³Ð° ÑĤÑĮ
ĠÐĲÐ»Ðµ ÑĪÐµÐ½ÑĮÐºÐ°
Ð¸Ð»Ð¾Ñģ Ñı
ĠÐ¸Ð´Ñĥ ÑĤÑĬ
ĠÐºÑĢÑĥÐ¶ Ð°Ð»Ð¾
ĠÐ»Ð¾Ñģ Ð¾ÑģÑĮ
ĠÐŁÐ¾Ð¿ Ð¾Ð²Ð¸ÑĩÑĬ
ĠÑĥÐ»Ð¸ ÑĨÑĥ
ĠÐºÐ¾ÑĢÐ¾Ð±ÑĮ Ð¸
ĠÐºÑ« Ð½Ñ£
ĠÐ¼Ð¸ÑħÐ°Ð¹Ð» Ð¾Ð²Ð¸ÑĩÑİ
ĠÐľÐ¸ÑħÐ°Ð¹ Ð»Ð¾
ĠÐºÐµ ni
ĠÐļÐ°Ð»Ð¸ Ð½Ð°
ĠÐ¿Ð¸ÑĢ Ð¾Ð³Ð¸
ĠÏ Ģ
ĠÐĲÐ½Ð° Ð´Ð°Ð½ÑĬ
ĠÐ¿Ð¾ÐºÐ°Ð¼Ñ£ ÑģÑĤÑĬ
ĠÐ¿Ð»Ñĥ Ð³
ĠÐ´Ð²Ð¾ÑĢÑĨÐ¾Ð² Ð¾Ð³Ð¾
ĠÑ¡Ð³Ñ¹ ÑĢÑĨÑĭ
Ðµ ÑģÑĤÐ°
Ð² Ð½
ÑĮ ÐµÐ¼ÑĬ
Ð¼ Ð¾Ð²
Ð´ Ñ§ÑĤ
ĠÐ´ Ð¾Ð½Ñĥ
ĠÐº Ñİ
Ñħ ÑģÑ§
ĠÐ½Ð° Ð²Ñ£
ÑĨ ÐµÐ½
ĠÐµ Ñ£
Ñī ÐµÐ²
ĠÑģÐ» Ñİ
ĠÑĤÑĭ Ð¼
ĠÐ¿ÑĢÑ£ Ð±êĻĳ
ÑĨÑĭ Ð¸
ÐµÐ½Ð¸ Ð°
ÑĶ Ð³Ð¾
ĠÐ²ÐµÐ» ÑĮ
Ð°ÑĢÐ¸ Ð½Ð°
ĠÐ¼Ð°Ð» Ñĥ
ĠÑĩÑİ Ð¶ÑĮ
ĠÑģÑĭÐ½ Ð¾Ð²ÑĬ
ĠÐĵÐ¾ÑģÐ¿Ð¾Ð´ Ð½Ð¸
ĠÑģÐµÐ» ÑĨÐ°
ĠÑĥÐ± Ð°Ð²
ĠÑĢÐ¸ Ð·ÑĮ
ĠÐºÐ¾Ð¿ Ð°ÑĤÐ¸
ĠÐ°ÑĢÑħ Ðµ
ĠÐ±Ð»Ð³ ÑĤÑĮ
Ð´ÐµÑģÑ§ ÑĤÐ¸
ĠÐ·Ð²Ñ£ Ð·Ð´Ñĭ
ĠÐ¿ÐµÑĢÐ² Ð¾Ð³Ð¾
ĠÐ¿ÑĢÐ¸Ð»Ðµ Ð¶Ð½Ð¾
ĠÐºÐµÐ»Ð° ÑĢÑĮ
ĠÑĥÑĤÑ£ Ñģ
ĠÐ¿ Ñĭ
ĠÐ¿ Ð»Ð¸
ĠÐ² Ð²ÐµÐ´
Ð³ Ð»ÑĮ
ĠÐ¿ÑĢ Ð¾Ð±Ð¾Ð´
Ð¿ ÐµÑĤ
ĠÐ¿ÑĢÐ¸ Ð¿Ð»
ÑĪÐ¸ ÑģÑ§
Ð¾Ð¿ Ð¾ÑĤ
ĠÐ¸Ð¼ ÐµÑĤ
ĠÐ¾Ð± Ð¾ÑĢÐ¾Ð½
ĠÑģÐ² Ð¾Ð´
ĠÐ¿ÑĢÐ¸ÐºÐ°Ð· Ñĭ
ĠÐ¿Ð¾Ð´Ð¾Ð± Ð½Ð°
ĠÑħÑĢÐ° Ð¼Ñ£
ĠÐ·Ð°Ðº ÑĥÐ¿
ÑĩÐµÐ½ ÑĸÐ¸
ĠÑģÐºÐ°Ð· Ð°Ð½Ð¸Ðµ
ĠÑĥÐ¼ ÑĢÐµ
ĠÐ½Ð¾Ñģ Ñı
ĠÐ¿Ð¾Ð»Ð¾Ð¶ Ð¸ÑĤÑĮ
ĠÐ¿ÑĢÐ¸ÑĤ ÑĩÐ¸
ĠÐ¿ÑĢÐ¾Ð´ Ð°Ð²
ĠÐ´Ð¾Ñĥ ÑĪÐµ
ĠÑĤÐ¾Ðº Ð¼Ñ¡
ĠÑĢÑĭÐ± Ð¾Ð»
ĠÐĴÐ°ÑģÐ¸Ð» ÐµÐ¹
ĠÐ¿Ð¾Ð»ÑĥÐ¿Ð¾Ð» ÑĤÐ¸Ð½Ðµ
Ð¸ ÑģÑĤÑĮ
ÑĤ Ð¾Ð¹
Ð½ Ð´Ñ¹
Ðº ÑĤ
ÑģÑĤ ÑıÐ½
Ð³ Ð½ÐµÐ¼ÑĬ
ĠÐ± Ð¾Ð´
ĠÐ¼ Ð¾ÑĤ
ĠÐ½Ð° Ð½ÑĮ
Ð¾Ð¼ Ñı
ĠÐ¿Ð¾ Ñ¥
ĠÐµ ÑĢÐµÑĤÐ¸
Ð²Ð° Ð°ÑĪÐµ
ĠÑĥ ÑĢÐ¾
ĠÐ½Ð¸ ÐºÑĬ
ÑĪÐ¸ Ð¸ÑħÑĬ
ĠÑģÑĬ Ð²Ñ£ÑĤÑĬ
Ð¾Ð¶ Ð´Ñĭ
Ð´Ñ£ Ð²ÑĬ
ĠêĻĹ ÑĪÐ°
ĠÑĢÐ°Ð· Ð»Ñĥ
ĠÑģÐ² Ñ¡
Ð±Ñ£ ÑħÑĬ
ĠÐ¿Ð° Ñµ
ĠÐ½Ð°Ð¿ Ð¾Ð»
ĠÐºÑĢÐ° ÑĤ
ĠÐ³Ð»Ð°Ð³Ð¾Ð» ÐµÑĤ
ĠÑħÐ¾ ÑĩÐµÑĤÑĬ
Ð¾Ð²ÑĮ Ð¸
ĠÐºÑĥÐ¿ ÑĩÐ¸Ðµ
ĠÐ±ÑĢÐ°ÑĤ Ð¾Ð¼ÑĬ
ĠÐ±ÑĢÐ°ÑĤ ÑĸÐ°
ĠÑī Ð¸ÑĤ
ĠÐ½ÐµÐ´ Ñ«
ÑīÐµÐ½ ÑĸÑ§
ĠÐ´Ð¾Ð» Ð³Ñĥ
ĠÑĤÑĮ Ñĸ
ĠÑģÐºÐ° ÑĤÐµÑĢ
ĠÐ·Ð°Ð¿Ð°Ñģ Ð¾Ð²ÑĬ
ĠÐ²Ð¾ÑģÐ¿ ÑĢÐ¾Ñģ
ĠÐ²Ð°Ð¼ Ð¾
ĠÐ»ÑĥÐºÐ° Ð²
ĠÐ¾Ð±ÑĢÑı ÑīÐµÑĤ
ĠêĻĹÐ² Ð»êĻĹ
ĠÐ°Ð»ÐµÐºÑģÐ°Ð½Ð´ ÑĢ
ĠÐ¢Ð²Ð¾ÑĢ ÑĨÐ°
ĠÐĲÐ´Ð° Ð¼Ð°
ĠÐ¿Ð¾ÑĢÐ° Ð±Ð¾
ĠÐ¸ÑģÑĤÐ¸ Ð½Ð°
ĠÐ¿ÑĢÐµÐ´Ñ£ Ð»Ñĭ
ĠÐ´Ð²Ð¾ Ñ¥
ĠÐ¾ÑģÐ»Ñĥ ÑĪÐ°
ĠÐ¿ÐµÑĩÐ° ÑĤÑĮÑİ
Ð² ÐµÐ¹
ĠÐ¿ ÑĤ
Ð· Ð¾Ð²
ĠÐ½Ð° Ð¸Ð´
ÑĤÐ¸ Ð²Ð¾
ĠÑĢ Ð¾Ð¶Ð´Ðµ
ĠÐ» Ð¾Ð½Ð¸
Ð¶ Ð½
Ð´Ð° Ð²ÑĬ
Ð¸Ð½ Ñ«
ĠÐ·Ð° Ñĩ
ÑĢÐ¸ Ð°
ÑĪÐ¸ Ð²Ð°ÑĤÐ¸
Ð»Ðµ ÑĩÐµ
ĠÐ¸Ð· Ð½Ð°
ĠÐ¿ÑĢÐµ Ð´Ð°ÑĤÐ¸
Ð´Ð¾ ÑħÐ¾Ð¼
ĠÐ¿ÐµÑĢ ÑģÑĭ
ĠÐ±Ñ£ ÑħÑĬ
ĠÑģÑĤÐ° Ð½Ð¸Ñĩ
ĠÐ³ÑĢÐ°Ð¼Ð¾ÑĤ Ð°Ð¼
ĠÑĤÑĢ Ñ§
ĠÑĤÑĢ ÑĥÐ´Ñĭ
ĠÑģÐ²Ñ£ ÑĤÑ£
ĠÐ¼Ð¾Ðµ Ñ§
ĠÐĹ Ð°Ðº
ĠÐ·Ð½Ð° Ð»Ð°
ĠÐ´Ð¾Ð±ÑĢ Ð¾Ð´
ĠÐºÐ¾ÑĢÐ¾Ð» ÐµÐ²Ð¸ÑĩÐ°
ĠÑĤÐ°ÑĤ Ð°ÑĢÑĬ
ĠÑıÐ² Ð¸ÑĤÐ¸
ĠÐ²Ð¸Ð´ ÐµÐ²
ĠÐ²ÑĬÑģÐ¿ Ð¾Ð¼
ĠÑħÐ¸ÑĤ ÑĢÐ¾ÑģÑĤ
ĠÐ¿ÑĢÐ¸Ð· Ð¾Ð²
ĠÐ·Ð´ÑĢÐ°Ð² ÑģÑĤÐ²êĻĭÐ¸
ĠÑĦÐ¸Ð»Ð¸ Ð¿Ð°
ĠÐ²Ð²ÐµÑĢ Ñħ
ĠÐ±Ð¾Ð»Ñ£Ð· Ð½ÑĮ
i Ð°
Ð° Ðµ
Ð½ ÐµÑĤÐµ
ĠÐ´ ÑĸÑı
Ñĩ Ð¾Ð²
ĠÐ³ ÑĢÑĭ
Ð»Ð¸ ÑĨÐ°
Ð¾ÑĤ Ñ¹
ĠÑħ Ð¾Ð¶
ĠÑ¡ ÑĤÐ¾
ĠÑ¡ Ð»Ð¾Ð²
ĠÐºÐ°Ðº Ð¸Ð¼Ð¸
ĠÑĤÐ° Ð»Ð°Ð½
ĠÑ¹ ÑģÑĤÑĢÐ¾
ĠÐ½Ñ£ ÑĤ
ĠÑĤÑĥ ÑĤÐ¾
ĠÐ³Ð»Ð°Ð³Ð¾Ð» ÑİÑĤÑĬ
ĠÐ½Ñĭ Ð½Ñı
ĠÐĹ Ð¼Ð¸
ĠÐºÐ½Ð¸ Ð³êĻĭ
Ð±ÑĮ Ñ¥
ĠÐ¡Ð¾Ð» Ð¾Ð¼
ĠÐ»Ñ¹ ÐºÐ°
ĠÐ¿Ð¾Ð²Ñ£ Ð¶ÑĮ
ĠÑĤÑĢÐ° Ð²Ð°
ĠÐ¿Ð»Ð°ÐºÐ° ÑĤÐ¸
ĠÐ¥ÑĢÐ¸ÑģÑĤ Ð¾Ð²Ð°
ĠÐºÑĢÐ¾ÑĤ Ð¾ÑģÑĤÑĮ
ĠêĻģÐ°Ðº Ð¾Ð½ÑĬ
ĠÐ½Ð°ÑģÐ¸Ð»ÑĮ ÑģÑĤÐ²Ð¾Ð¼
Ð¼ Ð°ÑĤÐ°
ĠÑĤ Ð¸ÑĤ
ÑģÑĤ ÑĢÑĭ
ĠÐ· Ð´ÐµÑģÑı
ÑĤÑĮ ÑĢ
ĠÐ¿ÑĢÐ¸ ÐºÐ¾Ñģ
Ð¼Ð¸ Ð¸
Ð¾Ð¿ Ñĥ
ĠÐ²Ñ£ ÑĨÑ£
ĠÐŀ ÑĢ
Ð¾Ð²Ð¸ ÑĨÑ§
Ñ¥ Ð¸
ĠÑĢÑĥ ÐºÑĬ
ĠÑģÐ² ÐµÐ·
ĠÐ¿ÑĢÐµ Ð¿Ð¾
ĠÐ¿ÐµÑĢ Ð²Ð°
ĠÐ²Ð¾Ð· Ð²ÐµÑģÑĤÐ¸
ĠÑĦ Ð»Ð°
ĠÑģÐ° Ð¶ÐµÐ½
ĠÐ²ÑĬÐ· Ð»Ð¾Ð¶Ð¸
ĠÒĨ .
ĠÐł Ð°Ð·Ñĥ
ĠÐ¿Ð¾Ð¿ ÑĢÐµÐ¶
ÑĢÐ¾Ñģ Ð¸Ð¼
ÑĢÑ§ Ð·
ĠÐ½ÐµÐ¿ Ð¾ÑĢÐ¾
ĠÑģÑ¹ Ð´Ð½Ð¾
ĠÐ¿Ð¾ÑģÑĤÐ°Ð² Ð¸Ð»ÑĬ
ĠÐ¼Ð» ÑģÑĤ
ĠÐ¿ÐµÑĩ ÐµÑĢÑĮ
ĠÐ¿Ð¾ÐºÐ° êĻģ
ĠÐ²Ð°ÑĢ Ðµ
ĠÑģÐ²Ñı ÑĤÐ°Ñı
ĠÐ²Ð°ÑĪÐµ Ð¹
ĠÑĥÐº Ð¾ÑĢ
ĠÐ¼Ð¾Ð»Ð¾Ð´ ÑĨÐ°
ĠÑĩÐµÐ¼ Ñ¹
ĠÐ²Ð¸Ð´Ðµ Ð»Ð¸
ĠÐ½ÐµÐ² ÐµÐ»Ð¸
ĠÐ¿Ð»Ð°ÑĤÐµ Ð¶ÑĮ
ĠÐľÐ½ Ð¾Ð³Ð°
ĠÐ¶Ñĭ Ð²Ð¾
ĠÐ¿Ð¾Ð¿ÑĢÐµÐ¶ Ð½ÐµÐ¼Ñĥ
ĠÐ ¬
ĠÐ² ÑĶ
ĠÐ½ Ð¸Ð½Ðµ
ĠÐº ÑĥÑĤÑĥ
Ñ§ ÑħêĻĭ
ĠÐ½Ð° ÑħÐ¾Ð´
ĠÐ¿ÑĢ Ð°ÑĢÐ¾Ð´
ĠÐ²ÑĬ Ð½Ð¸Ð´Ðµ
ĠÐĺ ÐµÑĢ
ĠÐ¿ÑĢÐ¸ Ñ§
ĠÐ¿ÑĢÐ¸ Ð¼ÐµÑĤ
Ð¼Ð¸ Ð½ÑĬ
ĠÐ½Ð¸ Ð²Ñĭ
Ð´Ð¸ Ð¹
ĠÐ³Ð¾ÑģÑĥÐ´Ð°ÑĢ ÑģÐºÐ¾Ðµ
ĠÐ¿Ð¾Ð¼ ÑĢÐ°
ĠÐ½Ð°Ð¿ ÑĢÐ°Ð²Ð¸ÑĤÐ¸
ĠÐ´Ð²Ð¾ÑĢ ÑıÐ½Ñĭ
ĠÐ±Ð¾Ñı ÑĢÑĮ
ĠÐ¸ÑģÐ¿ ÑĢ
ĠÐ»Ñĥ ÐºÐ¸
ĠÐ½Ð°ÑĪ ÐµÐ¼Ñ¹
ÑĢÐ¾Ð¼ Ñ£
ĠÐ²Ð¾Ð´ Ñ¹
ĠÑ¡Ð± Ð»Ð¸
ĠÐ·Ð°Ðº Ð»Ð°
ĠÐ¡Ðµ Ð³Ñ¡
ĠÑģÐ²Ð¾Ñ¥ Ñİ
ĠÐ¿Ð°Ð¼ Ñ§ÑĤÐ¸
ĠÐ²Ð¾Ð¸Ð½ ÑģÑĤÐ²Ð¾
ĠÑĤÐ°ÐºÐ¾Ð²Ð° Ð°
ÑĢÐ°Ð²Ð¸ ÑĤÑĮ
ĠÐ¼Ð¸ÑĢ Ð¾Ð¼ÑĬ
ĠÐ¼Ð»Ð° Ð´Ñĭ
ĠÑİÐ½Ð¾ ÑĪÐ°
ĠÐ¿ÑĢÐµÐ» ÑģÑĤÐ¸
ĠÐ¼ÑĬÐ½ Ð¾Ð³Ð°
Ð´ Ð½
ĠÐ½ Ð¾Ð·
ĠÐ´ ÑĪÐµ
ĠÐ´ ÑīÐ¸
Ð¶ Ð°Ð»
Ð¶ Ð½ÑĭÑı
ĠÑģÑĤ ÐµÑĢÐµ
Ð¶Ðµ ÑĪÑĮ
ĠÑ¡ Ð±Ðµ
ĠÐ»Ð¸ ÑģÑĤ
ĠÐļ Ð¾Ð½ÑĮ
Ð³Ð° ÑĤÑĮ
ĠÐ²Ð¾Ð· Ð»ÑİÐ±
ĠÑ¹ Ð±Ð¸
ĠÑĥÐºÐ°Ð· ÑĬ
ĠÐ¿Ð¸ ÑĪÐ¸
ĠÐł Ð°Ñģ
ĠÐ±Ð¾Ð» Ð³
ĠÐ¿Ð¾Ð¿ ÑĢÐ¸
ĠÑĩÐµÑĢ Ð½Ð¾ÑĢÐ¸
ĠÐ±ÐµÑģ Ð»Ð¾Ð²ÐµÑģ
ĠÐ¿ÑĢÐ¸ÐºÐ°Ð· Ð½ÑĭÐµ
ÑİÑĤÑĮ ÑģÑı
ĠÑģÐ»ÑĥÐ¶ Ð±Ð°
ĠÐ²Ð¾Ñģ ÐµÐ¼ÑĮ
ĠÐ°Ð¿ Ð»ÑĬ
ĠÐ¼Ñı Ñģ
ĠÑģÑĤÐ°ÑĤÑĮ Ðµ
ĠÐ´Ð¾Ñĥ ÑĪÐ°
ĠÐ²ÐµÑģÐµÐ»Ð¸ ÑĤ
ĠÐ²ÑĭÑĪ Ð»Ð¸
ĠÐ¾ÑģÑĤ Ð°ÑĤ
ĠÐ±Ð¾Ð¶Ð¸ ÐµÑİ
ĠÑĢÐµÐºÑĬ ÑĪÐµ
ĠÑģÐ¸Ñħ ÑĮ
ĠÑĤÑİÑĢ Ð¼Ñĭ
ĠÐºÐ»ÐµÐ² ÐµÑĤÑĮ
ĠÐ±Ð¾Ð»Ð³Ð°ÑĢ ÑģÐºÐ¸
Ð¿Ð¾ÑĢ Ñĭ
ĠÐ³ÑĥÐ± Ð½ÑĭÐ¼
Ð¾Ð²Ð¾Ð» Ð½Ð¾
ĠÐ½ÐµÐ½Ð°Ð²Ð¸ Ð´Ñ§
ĠÐ²ÑģÐµÐ»ÐµÐ½ Ð½ÑĥÑİ
ĠÐ¿ÑĢÐ¸ÑĪÑĮ Ð´ÑĬ
ÐºÐ¾ÑĥÐ¿ Ñ£
ĠÐ²Ð°ÑģÑĮ ÐºÐ°
ĠÐĺÐ²Ð° ÑĪÐºÐ¾
Ð½ ÐµÐ½Ð°
ĠÑĤ Ð¼Ñĥ
Ñħ ÑģÑı
ĠÐ²ÑĬ ÑģÑĤÐ°Ð²ÑĬ
Ð´Ð° ÐµÑĤÑĬ
ÑģÑĤÑĮ Ñĸ
ĠÑĤÐµ Ð¶
ĠÐ²Ñĭ Ð³Ð½Ð°
Ð±Ð¸ Ð½Ð°
ĠÑĤÑ£ Ð»Ñ£
ĠÑģÑĤÐ°ÑĢ Ð¸ÑĨÐ°
ĠÐ³ÑĢÐ¸ Ð´
ĠÐ²ÑĬÐ· Ð»ÑİÐ±Ð»ÐµÐ½
ĠÑĤÐ²Ð¾ÑĢ Ñ§ÑĪÐµ
ĠÐ¸Ð¼Ñ£ Ð½Ð¸Ðµ
ĠÐ¾Ð¿ Ñĥ
ĠÑģÐ»Ð° Ð±Ð¾
ĠÐ¼Ñ¹ Ð¶Ð¸
ÐºÑ£ ÑħÑĬ
ĠÐ´ÑĬ Ð¶Ð´
ĠÐ±Ð¸ Ð²
ĠÐ¼Ð¾Ð»Ð¸ÑĤ Ð²ÑĮ
ĠÐ¼Ñ« ÑĩÐµ
ĠÐ¿Ñ¹ ÑĤÑĮ
ĠÐ°Ð½Ð´ÑĢÐµ Ñı
ĠÐ¿Ð¾ÐºÐ»Ð°Ð½Ñ§ Ñİ
ĠÑĤÐµÐ» ÐµÑģÐ°
Ġ6 0
ĠÐ°Ð¿Ð¾ÑģÑĤ Ð¾Ð»ÑĮ
ĠÐ±Ð»Ð°Ð³Ð¾ÑģÐ»Ð¾Ð²Ðµ Ð½Ð¸Ñı
ĠÐ²ÑģÑıÐº ÑĸÑı
ĠÐ¸Ð·Ñ§ÑģÐ»Ð°Ð² Ñĥ
Ñ§ ÑīÐ°Ð³Ð¾
ĠÐ½Ð° êĻģÐ½Ð°
ĠÐ¿ÑĢ Ð¸ÑĤÐµ
Ð»Ð¸ Ð²
ÑĢÐ° ÑĤ
ĠÑĩ ÑĢ
ÑģÐº ÑĹÐ¸
ĠÐĲ Ð¿ÑĢÐ°
ĠÑħ ÑĢÑ£
Ð¸Ð½ êĻĳ
ĠÑ¿ Ð½
ĠÐ¶ Ð¸Ð»ÑĮ
ĠÐ¿Ð¾Ñģ Ð¾Ð»ÑĬ
ĠÐ¸Ð· Ð²ÐµÐ´Ðµ
ĠÐļ Ñĭ
ĠÐļ Ð¾Ð»
ÑīÐ° Ð¼Ð¸
ĠÐ¿ÑĢÐµ Ð¾Ñģ
ĠÐºÐ¾Ð½ ÑģÑĤÐ°Ð½
ĠÐºÐ¾ÑĢ ÑģÑĥ
ĠÐ¿ÑĢÑ£ ÐºÐ»Ð¾Ð½
ÑħÐ° Ð³Ð¾
ĠÐ±ÑĥÐ´ÐµÑĤ Ðµ
ĠÐ´Ð²Ð¾ÑĢ Ñ§Ð½Ð¸
ĠÐ¿Ð¾ÑĤ ÑĢÐ¾
ĠÑģÑ£ Ð½ÑĮ
ĠÑģÑĥÐ´ ÑĮÐµ
ÑģÑĤÐµ ÑħÑĬ
Ð»Ñĭ Ñı
ĠÐ¿ÑĢÐµÐ´ ÑĢÐµÑĩÐµÐ½
ĠÐ»ÑİÐ± Ð¸ÑĤ
ĠÐĿÐ° ÑģÑĤÐ°Ñģ
ĠÐ¿Ð¾Ð½ ÐµÑģ
ĠÐ³Ð»Ð° ÑģÑĭ
ĠÑĤÐ¾ÑĤ ÑĩÐ°Ñģ
ĠÐ¸Ð¼Ð° Ð»Ð¸
ĠÑģÐ»ÑĥÐ¶ Ð°ÑĤ
ĠÐ¿ÑĢÐ¾Ð´Ð° Ð¶Ñİ
ĠÐ¿Ð¾Ñĩ ÐµÐ»
ĠÐ¼Ð¸ÑĤ Ñİ
ĠÐ²Ð¾ÑĤÑĩÐ¸Ð½ Ð½Ð¸Ðº
ĠÐ»Ð¾ÑĪÐ° Ð´ÐµÐ¹
ĠÐ¿ÐµÑĢÐ² ÑĥÑİ
ĠÑħÐ¾ÑĢ Ð¾Ð½
ĠÑģÐ¾ÑĤ ÐµÐ½
ĠÐ¿Ð¾ÑĩÐ¸Ð½ ÐºÐ¸
ĠÐ¾Ð½Ð´ÑĢÐµ Ð¹
ĠÐ¿Ð¾Ð»Ð¸ ÑĩÐ½ÑĭÐ¼
ĠÐµÐ· Ð´Ñĥ
ĠÐ»Ñ§ ÑħÑĭ
ĠÐ¼Ð°ÐºÐµÐ´Ð¾Ð½ ÑıÐ½
ĠÑģÐ¼Ð¾Ð» Ð¸Ð½ÑĮ
ĠÐ¿Ð¾Ñ£ ÑħÐ°
ĠÐ·Ð½Ð°Ð¼ÐµÐ½ ÑĸÐµ
ĠÐ¾ÑĤÐ² ÐµÑĤÑĬ
ĠÐ±Ð°Ð³Ð°ÑĤÑĭ ÑĢÑĮ
ĠÐ´ÑıÐ´ ÑİÑĪÐºÐ°
ĠÐ½Ð¸Ð³ Ð´Ðµ
ĠÐ¡Ð¼ Ð¾ÑĢÐ¾Ð´
ĠÐ¾ÑģÑĥÐ´Ð°ÑĢ ÑĮ
ĠÐĲÑĢÐ¸ ÑģÑĤÐ¾ÑĤ
ĠÐĴÐ¾Ð»ÑĮÑĦÐ°Ð½ Ð³ÑĬ
Ð½ Ð¾Ð²Ð¸
ĠÐ¾ ÑģÐ»Ð°
Ñ¹ ÑīÐ°
Ð°Ðº Ð¾Ð¼ÑĬ
ĠÐ·Ð° Ð·Ð¸ÑĢÐ°
ÑĩÐ¸ Ðº
ÐµÐ»Ð¸ Ð¸
ĠÐ¸Ð¼ Ð¾Ñĥ
ĠÐĶ Ð¾Ð´
ĠÑĢÐ°Ð· ÑĢÑ£
ĠÐ´Ð¾Ð± ÑĭÑĤ
ĠÐ±Ñ£ ÑģÑĭ
ĠÐ¿Ð° Ð³êĻĭ
ĠÐ±ÐµÐ· êĻĭÐ¼
ĠÐ±ÐµÐ· Ð°ÐºÐ¾Ð½ÑĮ
ĠÐ²Ð° ÑĪÑ§
ÑħÐ¾Ð´ Ð¾Ð½Ð¾Ñģ
ĠÐ¿Ð¸Ñģ Ð°ÑĤ
ĠÐ´Ð²Ð¾ÑĢ Ñĥ
ĠÐ´Ñĥ Ð¼Ð°
ĠÐ¿Ð¾Ð³ Ð¾Ð½
ĠÐµÑģ Ð²Ñ£
ÑĤÑĭ Ðµ
ĠÐ²Ðµ ÑĩÐ½Ð¾
ĠÐ²Ð»Ð° Ð³Ð°
ĠÐ¸Ð½ Ð¾Ð³Ð´Ð°
ĠÑĩÐ¸ Ð½Ð°
ĠÐ²ÑĢÐ° Ð¶
ÑħÐ¸ Ðµ
ĠÑģÐ»Ð¾Ð²ÐµÑģ ÑĮ
ĠÐ´ÐµÑĤ ÐµÐ¼ÑĬ
ĠÐ¿Ð¾ÑģÐ»Ñĥ ÑĪÐµ
ĠÐ¿Ð¾Ð¼Ñ£ ÑĪÐºÐ¸
ĠÐ±Ð¾ÑĢÐ¸Ñģ ÑĬ
ĠÐ½Ð°ÑĢÐµ ÐºÐ¾ÑĪÐ°
ĠÐ¾Ð±ÑĭÑĩÐ° ÐµÐ¼
ĠÐ¿ÑıÑĤÐ¸ Ð½Ð°ÑĤÑĨÐ°ÑĤÐ¸
ĠÐ´ÑĢÑ¹ Ð³
ĠÐ¿ÑĢÐ¿Ð± Ð½ÑĭÐ¸
ĠÑģÐ¿ÑĢÐ°ÑĪÐ¸ Ð²Ð°ÑĤÐ¸
ĠÐ¿Ð¾Ð¶Ð¸ Ð²
ĠÐ²Ð¾Ð·ÑĢÐ° Ð´Ð¾Ð²Ð°
ĠÑį ÑĤÐ¾
ĠÑĤÐ¾Ð²Ð° ÑĢÐ°
ĠÐľÑĬ Ð½
ĠÑģ Ð´Ðµ
ĠÑĤ ÑĸÐ°
Ñĩ Ð½ÑĥÑİ
ĠÐ³ Ð½ÑĮ
Ð´Ð° ÐµÑĤ
ĠÑģÐµ Ð¿
ĠÐ¾Ñĥ ÑģÑĤÑĢÐ°
ĠÐŁ ÑĢÐµÐ´
ĠÑĢÐµ ÐºÐ¾Ñİ
Ð»Ñ£ Ð·ÑĬ
ĠÑĨÐ°ÑĢ ÐµÐ²Ð¸ÑĩÐ°
Ð²Ñĭ Ñ§
Ð»ÐµÐ½ Ñĥ
ĠÐ¼Ð½Ð¾Ð³ Ñ¡
ĠÐ»ÑİÐ± ÑĮ
ÑĢÐ¾Ð¼ Ðµ
ĠÐ³Ð¾Ð» Ð¾Ð²ÑĬ
ĠÑĤÑĬ ÑĩÑĮ
ĠÐ½ÐµÐ´ Ð¾ÑĥÐ¼Ñ£
ĠÐ²Ð¾Ð¸Ð½ ÑģÐºÐ¸Ð¼Ð¸
ĠÐ±ÐµÑĢÐµ Ð³Ñĥ
ĠÐ¼Ð¸Ð» Ð¾ÑģÐ»Ð°Ð²
ĠÑģÐºÐ¾ ÑĤÐ¸
ĠÑĢÑı Ð´ÑĬ
ĠÐ¿Ð¸ÑģÐ°Ð½ ÑĸÐ°
ĠÐ¾Ð±ÑĢÐ°Ð· ÐµÑĨÑĬ
ĠÐ¸Ð²Ð°Ð½Ð¾Ð²Ð¸Ñĩ Ñı
ĠÐĲÐ½ Ð´ÑĢÐµ
ĠÐ²Ð¾ÑĤÑĩÐ¸Ð½Ð° Ð¼Ð¸
ĠÐ¸Ð·Ñĭ Ð¼Ð°
ĠÑĢÐ°Ð·ÑĥÐ¼ Ð½Ð¾
ĠÐ¿ÑĢÐ¸Ð²Ð¾Ð´ Ð¸ÑĤÐ¸
ĠÐ± ÐµÑĢÑĮ
ÑĪ ÑĤÑĬ
Ð¾Ð² Ð¾Ð»ÑĮ
Ð± Ð¸ÑĤ
ĠÐ½Ðµ Ñ§
ÒĨ :
ĠÑģÑĤ ÐµÐ½
ÑĢÑ£ Ð±Ð¸
ĠÑ¿ ÑģÑ£
ÑĩÐ¸ ÐºÐ¸
ÑĤÑĬ ÐºÑĬ
Ð°Ñģ Ñ§
ĠÐ¢ Ð¾Ð¼Ñĥ
ĠÑĶ Ð´Ð¸Ð½
ĠÐĶÐ° Ð´
ĠÐ½Ð°ÑĪ ÐµÐ¼êĻĭ
ĠÑģÑĤÑĢÑ£ Ð»Ð°
ĠÑĤÐ¾ÑĢ Ð¾Ð¿
ĠÐ³ÑĢÐ°Ð´ Ð¾Ð²
ĠÐ²Ð°ÑĢ Ð²Ð°ÑĢ
ĠÑģÐºÐ¾ ÑĤ
ĠÑħÐ¸ÑĤ ÑĢÐ¾
ĠÐ³Ð»Ñ£ Ð±
ĠÑĢÐ¾ÑģÑĤÐ¸ ÑģÐ»Ð°Ð²ÑĬ
ĠÐ¿Ð¾Ð»Ð¾Ð¶Ðµ Ð½Ð°
ĠÐŁÐ¾Ð¸ Ð´Ð¸
ĠÐ½Ð¾Ð²Ðµ Ð³Ð¾ÑĢÐ¾Ð´Ñ£
ĠÐ½ÑĥÐ¶ Ð´Ñ£
Ðº ÑĸÐ°
ÑĪ Ð»Ð°
Ñĩ Ð°Ð²ÑĬ
ÑĤÐ¸ Ð¼
Ð¾Ð» Ð¾ÑĤ
Ñĸ Ð½ÑĬ
ĠÑĥ Ð¿Ð¸
ĠÐ´Ð° ÑħÑĬ
Ð¾Ð½ Ð¾Ð¼ÑĬ
ĠÐ·Ð° Ð»Ðµ
ĠÑģÑĬ Ð±Ð¸ÑĢÐ°
ÑĩÐµ Ð½Ð¸Ñı
ĠÐĿ ÐµÐ´
ĠÐ¸Ð¼ ÑĥÑĤ
ĠÑĢÐµ Ð·
ĠÑĢÐµ ÐºÐ¾Ð¼
ÑĩÐ° Ð»Ð°
Ð¾Ð²Ñ£ Ð¸
ĠÐ¢ Ð¾Ð»Ð¸ÐºÐ¾
ĠÐĶ Ð°Ð²Ð¸
ĠÐºÐ°Ðº Ð¸Ð¼ÑĬ
ĠÐ¿ÑĢÐ°Ð² Ð¸Ð»Ð¾
ĠÑ§ ÐºÐ¾Ð²Ð°
ĠÐµÑģ Ð¼Ðµ
ĠÐ±Ð¾Ð» ÑĪÐµ
ĠÑĤÐµÐ¼ Ð½Ð¸ÑĨÑĥ
ĠÐ·Ð°Ðº Ð¾Ð½ÑĮ
ĠÐ´ÑĮ Ð½Ðµ
ĠÐ¾Ðº Ð»Ð°Ð´Ñĥ
ĠÐ²ÑĬêĻģ êĻ¿
ĠÑĢêĻĭ ÐºÐ°
ĠÑģÐ¼Ñ£ ÑĢ
Ġ2 2
ĠÑĩÐµÑĤÑĭ ÑĢÐ¸
ĠÐ¼ÐµÑĢ ÑĤÐ²Ð°
ĠÐ²Ð¾ÐµÐ²Ð¾Ð´ Ñĥ
ĠÐ¿Ð¾Ð»Ð¾Ð² Ð¸Ð½Ðµ
ĠÐ±Ð°ÑĤ Ð¾Ð³Ð¸
ĠÐ¸Ð·Ñ§ ÑģÐ»Ð°Ð²Ð°
ĠÐ½Ð°Ð¿Ð° Ð´Ðµ
ĠÐ·Ð°Ñħ Ð°ÑĢÐ¸
ĠÐ½ÐµÐ´Ð¾ ÑģÑĤÐ°
Ñ¡Ð¼ êĻ¿
ĠÐ¿ÑĢÐ¾Ñĩ ÑĸÐ¸
ĠÐ±Ð¾Ð±Ñĭ Ð»Ð¸
ĠÐ¿ÑĢÐ¸êĻĹ ÑĤÐµÐ»
ĠÐ¿ÑĢÐ¾ÑĩÐ° Ñı
ĠÑģÑĥÐº Ð½Ð°
ĠÐ±ÐµÑģÑĩÐµÑģÑĤÐ¸ Ðµ
ĠÐ¿ÑĢÐ¸Ð»Ñĥ ÑĩÐ¸ÑĤÑģÑı
Ñ Ł
Ġ v
Ñģ Ñ¹Ð´
ĠÑģ ÑĩÐ°
Ðº ÑĸÐ¹
ĠÐ¼ Ð¾Ð½
ĠÐ³ Ð¾Ñĥ
ĠÐµ Ñĸ
ĠÐ» Ð¾Ð¶Ðµ
ĠÐ¿ÑĢÐ¸ Ð¸Ð´ÐµÑĤÑĮ
Ð´Ð° Ð¼Ð¸
Ð´Ðµ Ð½Ð¸Ðµ
ĠÐ¾Ñĥ ÑģÐ»Ñĭ
ĠÐ¿Ð¾Ð» Ð¾Ð²ÑĮ
ĠÐŁ Ð¾Ð³
ĠÐ¸Ð· Ð¼
ÑģÐ¸ Ð»Ð¸
ĠÐ²Ñ£ ÐºêĻĳ
ĠÑĢÑĥ ÑĨÐµ
ĠÐ²Ð¾Ð· Ð¾Ð¿Ð¸
ÑģÐºÐ° Ð°Ð³Ð¾
Ð¾Ð²Ñĭ Ð¸
Ð´ÑĮ Ð½Ð¾
Ð»ÐµÐ½ ÑĸÐµÐ¼ÑĬ
ĠÐ¼Ð¾Ð» Ð¾
ĠÑģÑĥÐ´ ÑĮ
ĠÐł Ð°Ð´
Ð¿Ð¸ ÑĢÐ°
ĠÐ´Ð¾Ð¼ Ð¾Ð¼ÑĬ
ĠÐ³Ñģ Ð½ÑĬ
ĠÑĩÐ» ÐºÑĮ
ĠÐ¿ÑĢÐµÐ´ ÑģÑĤÐ¾
ĠÐ¸ÑģÐ¿ Ðµ
ĠÑģÐ¸Ð» êĻĭ
ĠÐ´Ð½ ÐµÐ²
ĠÐ±Ð»Ð°Ð³ Ð¾Ð¿
ĠÐ¼ÑĮ Ð½Ðµ
ĠÐ³ÑĢÐ¸Ð³Ð¾ÑĢ Ð¸
Ð´Ñı ÑģÑı
Ġ2 5
ĠÐŀÑĤ Ðº
ĠÐ¿Ð¾Ð¼Ñ£ ÑĤÑĮ
ĠÑģÑĤÑ£ Ð½Ð¾Ð±
Ġ10 4
Ð¼Ð°Ð½ Ð¾Ð²
ĠÐ¿ÑĢÑĬ Ð²Ð¾
ĠÐ¿Ð¾Ð³Ð¸ Ð±Ð»Ð¸
ĠÑĪÐ°Ð½ ÑĨ
ĠÐ´Ð½Ðµ ÑħÑĬ
ĠÐ¸Ð´Ñĥ ÑĩÐ¸
ĠÐ¼Ñ¡ÑµÑģÐµ Ñİ
ĠÐ½ÐµÐ´Ñĥ Ð³ÑĬ
ĠÐ¿ÑĢÐ¸Ð³Ð¾Ð¶Ð° ÐµÑĤÑģÑı
ĠÑĥÐ³Ð¾Ð´ÑĮ ÐµÐ¼
ĠÐ°Ð²Ð´ ÑİÑĪÐºÐ°
ÑĤ Ð²Ñĥ
Ð³ Ð¾Ð¶
ÐµÐ¼ Ð°Ð³Ð¾
ÐºÐ° Ñİ
ĠÐĺ Ð´ÐµÐ¶Ðµ
Ð¶Ðµ ÑĨÑĬ
ĠÐ¾ÑĤ ÑĨÐµ
Ñ¡ Ð²Ð°
Ð»ÑĮ Ð½Ð¾
ĠÐ²Ñ£ Ð´Ñ£ÑĤÐ¸
ĠÐĳ Ð»Ñİ
Ġ. .
ÑģÑĤÑĭ Ð½
ĠÐĵ Ð¾Ð»
ĠÐºÐ¾ÑĢ ÑĩÐµÐ¼
ĠÐ¿ÑĢÐ°Ð² ÑĭÐµ
ĠÐ¼Ñĥ ÐºÐ¸
ĠÐºÑĢ êĻĭ
ĠÐ±Ð¾Ð» Ð¾ÑĤÑĭ
Ð¼Ñĭ ÑģÐ»ÑĮ
ĠÐ³ÑĢÑ£ ÑģÐ¸
ĠÑħÐ¾ÑĤ ÑıÑĤÑĬ
ĠÐ°Ð½ Ð½Ñĥ
ĠÑĨÐ°ÑĢÑĮ ÑģÑĤÐ²Ð¾
Ð³Ð¾ÑĢÐ¾Ð´ ÑĬ
ĠÎ º
ĠÐ²ÑĢÐ° ÑĤÐ¾Ð¼ÑĬ
ĠÐºÐ¾ÑĢÐ¾Ð» Ñ§
ĠÐ´Ð² ÐµÐ¼Ð°
ĠÐ¿Ð¾Ñħ Ð²Ð°ÑĤÐ¸
ĠÐºÐ½ Ð·Ñı
ĠÐ±Ñĥ Ð¼Ð°
ĠêĻģÐ° Ð¿
ĠÐ·Ð°Ð¿Ð°Ñģ Ð¾Ð¼ÑĬ
Ð»Ð¾Ð± Ð¸
ĠÐ´Ð¼Ð¸ÑĤ ÑĢÐ°
ĠÐ´Ð¾ÑģÑĤÐ¾ Ð¸ÑĤÑĬ
ĠÐ±Ð¾ÑĥÐ´ Ñ£ÑĤÐµ
ĠÐ¿ÑĢÐ¸Ð¸Ð¼ Ð°ÑĤÐ¸
ĠÐ¿Ð¾ÑģÐ°Ð´Ð¸ ÑĪÐ°
ĠÐĳÑĢÐ° ÑĤÐµ
ĠÐ¿ÑĢÐ¾Ð¼Ðµ Ð¶ÑĬ
ĠÐłÐµÐ· Ð°Ð½
ĠÐ½Ð¾Ð²Ñ¹ Ð³Ð¾ÑĢÐ¾Ð´Ñ¹
ĠÐ°ÑĢÑħÐµ Ð¿Ñģ
ÑĤ Ð°Ð»
ĠÐ½ Ð¸Ð½Ñ£
Ð³ Ð°ÑĤÐµÐ»ÑĮ
Ð· Ð¾Ð²Ð°
ÑĨ ÐºÐ°
Ð½Ð° Ð´
Ñ¹ ÐµÑĤÑĬ
ĠÐ²Ñģ Ð°
ĠÑ¡ Ð½Ð¾Ð³Ð¾
ĠÐ»Ñİ Ð±Ñĭ
ĠÑĪ Ð¸Ð´
ĠÐľ Ñ£
ĠÐ¿Ð¾Ðº Ñ¹
ĠÐ¸Ñģ ÑĬ
ĠÐĶÐ° Ð¶Ðµ
ĠÐĶÐ° Ð¹
ĠÐ´Ñĥ ÑĪÐµÐ²
ĠÐ¿Ð¾Ð³ ÑĢÐ°
Ð·Ñĭ ÐºÐ¸
ĠÐ¼ÐµÐ½ ÑĪ
ĠÐ¾Ð¿ Ð¾
ĠÐ¾Ðº Ð»ÐµÐ²ÐµÑĤÐ°
ĠÐ¿ÑĢÐ¾Ð´Ð° ÑģÑĤ
ĠÐ¼Ð¸Ð»Ð¾ÑģÑĤÐ¸ Ð²ÑĬ
ĠÐ¿ÑĢÐ¸Ð½ÐµÑģ ÐµÑĤ
ĠÐ¡Ñĭ Ð½Ðµ
ĠÐ»Ð°Ð² ÑĢÐµÐ½
ĠÐ¿Ð¾Ð³Ð¾ ÑĥÐ±
ĠÐ·Ð¼Ð¸ Ñı
ĠÐ±Ð»Ð°Ð³Ð¾Ð´ Ð°ÑĤÐ¸
ĠÐ·Ð»Ð¾Ð± Ð°
ĠÐ¾ÑĥÑĤ Ð²ÐµÑĢ
ĠÐ·Ð°ÑĤÐ²Ð¾ÑĢ Ð¸
ĠÐ¸Ð½Ð¾Ð·ÐµÐ¼ ÑĨÑĭ
Ð¿ÑĢÐµ ÑģÑĤÐ°Ð½Ð¸
-------- --------
ĠÐ²Ð½ÑĥÑĤ ÑĢÑĮ
ĠÐ¾Ð±Ð¾Ðµ Ð³Ð¾
- -.
ÑĤ ÐµÐ¼ÑĮ
ĠÐ² Ð±Ð¾ÑĢ
ĠÑĤ ÑĸÐµ
Ð± Ñĸ
ĠÐ¾ Ð²Ñ£
ĠÐ¿ÑĢ ÑĸÐ°
ĠÐ¿Ð¾ êĻģ
Òĥ .
Ð½Ð° Ð¼
ÐµÐ» ÐµÐ²
ĠÐ²Ñģ Ð¸ÑħÑĬ
ĠÑĢÐ° ÑģÑĤÐ°
Ñ¡ Ð²Ñ£
ĠÐ±Ñĭ ÑģÑĤêĻ¿
ĠÑı ÑĢ
Ð½Ñı ÑĤ
Ð»Ñ£ Ð±ÑĬ
ĠÐŀ Ð»
ÑĩÑĮ ÑģÐºÑĭÐ¸
ĠÐºÐ°Ðº ÑĮ
ĠÐ²Ð¸ Ð´Ð°
ĠÐ»Ñ£ ÑĤÑ£
ĠÐ²ÑĬÐ· Ð½ÐµÐ½Ð°Ð²Ð¸Ð´Ñ£
ĠÐł Ð¾Ð¼
ĠÑĢÐ¾Ð´ Ñĭ
ĠÐ¸Ð²Ð°Ð½ ÐºÐ¾
ĠÑĩÑİ Ð´ÑĮ
Ð³Ð¾ÑĢ Ð°Ð·
ĠÐ´Ñ£Ð»Ð° ÑİÑĤ
ĠÑħÑĢÐ° Ð½Ñ§
ĠÐ¿Ñ£ Ð²
Ð½êĻĳ ÑħÑĬ
ĠÐ¿Ð¾ÑģÐ» ÐµÐ´Ð¸
ĠÐ²Ð¾ÑĢ ÑĬ
ĠÐ½Ð°ÑĩÐ° Ð»Ð°
ĠÐ¿Ð¾ÐºÐ° Ð¶ÐµÑĤÑĮ
ĠÐ´ÑĮÑı ÐºÐ¾Ð¼
ĠÐ±ÑĢÐ°ÑĤÐ¸ êĻĹ
ĠÑ¥Ñģ Ð¼Ð¸
ĠÐ¿ÑĢÐ¾Ðº Ð¾Ð¿
ĠÐ¸ÑģÑĤÐ¸Ð½ Ð½Ð¾
ĠÐ±Ñ« Ð´Ðµ
ĠÐ¿ÐµÑĤÑĢ Ð¾Ð²Ð¸Ñĩ
ĠÐ´ÑĥÐ¼ Ð½ÑĭÑħ
ĠÑĢÐ°Ð±Ð¾ÑĤ Ð°ÑĤÐ¸
ĠÐ¼Ð½Ð¾Ð³Ð¾Ð»Ñ£ ÑĤ
ĠÐ»ÐµÐ´ Ñ¹
ĠÐ¿ÑĤÐµÐ½ ÐµÑĨÑĮ
ĠÐ¤ÐµÐ¾Ð´ Ð¾ÑĢ
ÑĪ Ð½Ð°Ð³Ð¾
ĠÐ¿ÑĢ Ð´Ðµ
Ð¾ÑĢ Ð³
ĠÐ³ Ð°Ð´
ĠÐ½Ðµ Ñ¡
ĠÐ½Ðµ ÑĩÐµÐ¼
ĠÐ° Ñħ
Ð¾Ð³ Ð¾ÑĢ
ĠÑħ ÑĮ
ĠÐ¾Ñĥ Ð¶Ð°Ñģ
ĠÑģÐ» Ð¾Ð±
ĠÑĢÐµ ÑĪ
ĠÐĶ Ð²Ð°
Ð»Ñı Ð´ÑĮ
ĠÐ³Ð¾ÑģÑĥÐ´Ð°ÑĢ Ð¸
ĠÐľ Ð°Ð»
ĠÑģÐº Ð²ÑĢÑĬ
ÑĶ ÑĤÑĬ
Ð½Ð¸Ðº êĻĳ
ĠÐ²ÐµÐ» ÐºÑĭ
Ð¶ÑĮ Ðµ
ĠÐ²ÑĬÐ· Ñı
ĠÑģÑĤÑĢÐ° Ð½êĻĭ
ÑģÐ¿ ÑĬ
ĠÐ´Ñ£Ð»Ð° Ð¼ÑĬ
ĠÐ£ ÑĤ
ĠÐµÐ´Ð¸Ð½ Ð¾Ð¼ÑĬ
ĠÐ¿Ð¾Ð²ÐµÐ»Ñ£ Ð½Ð¸Ñİ
ĠÑģÑĤÐ¾Ð» Ð¿Ñ£
ĠÐ½Ð°Ñĩ Ð½ÐµÑĤ
ĠÑĢÐ¾Ñģ Ð¸Ð¸
ĠÑĥÐ¼ Ð¾Ð¼ÑĬ
Ð»Ñ£Ð· Ðµ
ĠÐºÐ°Ð¼ÐµÐ½ Ð½Ð¾Ðµ
ĠÑĥÐ±Ð¸ ÑĪÐ°
ĠÑĤÐ¾Ð»Ð¸ ÐºÐ°
ĠÑıÐºÐ¾Ð² Ð»
ĠÐ¶ÐµÑĢÐµÐ± ÑĮ
ĠÐ¿ÑĢÐ¸Ð±Ð»Ð¸ Ð¶
ĠÑħÐ²Ð°Ð»Ð¸ ÑĤÐ¸
ĠÑģÐ²Ð¸Ð´Ñ£ Ð½ÑĸÑ§
ĠÐ²ÑĬÐ¿Ð° Ð´ÐµÑĪÐ¸
ĠÑģÐ¸ÑĨ ÐµÐ²Ñĭ
ĠÐ² Ð¸Ð»
ĠÐ² Ð°ÑĢÐ¸
Ñħ Ð¸Ð¼
ĠÐ¼ Ñ§ÑĤÑĮ
ĠÐ¾ Ð¸
ĠÐ³ Ñ¡
ĠÐ¿Ð¾ ÑģÑĤÑĢÐ¾
ĠÐ· ÐµÐ½
ĠÐ» Ð¾Ð¶ÑĮ
ĠÐ¾ÑĤ Ð¾ÑĪ
ĠÐ·Ð° Ð¸Ð¼ÑĬ
ĠÑĨ ÐµÑĤÐ¾
ÑīÐµ ÑģÑı
ĠÐŁ ÑĢÐ°
ÐµÐ· Ð´
ĠÐĳ Ð¾Ð²Ðµ
ĠÐĳ ÑĢÐ°ÑĤÐ¸
ÑīÐ° Ñİ
ĠÐľ Ð°
Ð±Ñ£ Ð¶Ðµ
ĠÐºÐ½Ñı Ð³Ð¸Ð½Ð¸
ĠÑĤÐ¸ Ð¸
Ð½Ñ§ Ð³Ñ¡
ĠÑģÐº ÑĢÑĮ
ĠÑĥÐºÐ°Ð· Ð½Ð¾Ð¹
ĠÐ¿Ð¾Ð³ êĻĳ
ĠÐºÑĢ Ñī
ĠÐ¼Ð½Ð¾Ð³ ÑĭÐ¼Ð¸
ĠÑĢÐ¾Ð´ Ð¸Ð¼
ĠÑĩÑİ Ð¶Ð°
ĠÐ¿ÑĢÐ¾Ñģ Ð»Ðµ
ĠÑĤÐ²Ð¾Ð¸ Ð¼Ð¸
ĠÐ¿ÑĢÐ¸ÐºÐ°Ð· ÐµÑħ
ĠÑģÐ¾ÑĤÐ²Ð¾ÑĢ Ð¸ÑĤÐµ
ĠÐ·Ð½Ð° Ð»Ð¸
ĠÐ¸Ð·ÑĬ Ð¸Ð¼Ð°
ĠÑĤÐ°ÑĤ ÐµÐ¹
ĠÐ¼Ñı ÑģÐ¾
ĠÐ´ÐµÐ² ÐºÐ°
ĠÐ´ÐµÐ² ÐºÑĥ
ÑİÑīÐ° Ñ§
ĠÐ¼Ð°Ð½Ð°ÑģÑĤÑĭ ÑĢÐµ
ĠÐ³Ð¾ÑĤ Ð¾Ð²ÑĬ
ĠÑİÑĢÑĮ Ñ¥Ð²Ð¸
ĠÑģÐ¸Ð»ÑĮ Ð½ÑĭÐ¹
ĠÐ¿Ð¾Ð»Ð¾Ð²Ð¸ Ð½Ð¾Ñİ
ĠÐºÐ°Ð·Ð½Ð° ÑĩÐµÑİ
ĠÐ¿Ð¾Ð»Ñİ Ð±Ð¾Ð²
ĠÐºÐ¸ÐµÐ² ÑģÐºÐ¾Ð¹
Ð³Ð» Ð¾Ð¹
ĠÐĽÑĥ ÐºÐ¾Ð¿
ĠÐ¾ÑģÐ¸ÑĦ Ð¾Ð²Ð°
ĠÐ¶Ð¸Ð²Ñĭ Ñħ
ĠÐºÐ°Ð±Ð° Ð»Ð°
ĠÑģÐºÑĬÑĢ Ð±ÑĮ
ĠÐ¿ÐµÑĢÑģÑĤ Ð½Ð¸
Ñ£Ð·Ð¶Ð° ÐµÑĤÑĬ
ĠÑĢÐ¸Ð· ÐºÐ¾Ð³Ð¾
ĠÐļÐ°Ð»Ð¸ Ð½ÑĬ
ĠÐ¿ÑĢÐ¸ÐµÐ´ ÐµÑĤ
ĠÐ¿ÑĢÐ¸Ð·Ñĭ Ð²Ð°ÑĤÐ¸
ĠÐŁÑĢÐ¸ÐºÐ°Ð· Ñĥ
ĠÐ²Ð·Ð³Ð¾Ð²Ð¾ÑĢ Ð¸ÑĤÑĬ
ĠÐĹÐµÐ½Ð· ÐµÐ²ÐµÐ¹
Ð» Ð¾Ð²Ðµ
ĠÑģ Ð²ÑĬ
ĠÐ² Ð¾ÑĢÐ¾
ĠÐ½Ð° Ð¸Ð´Ðµ
ĠÐ· ÐµÐ¼ÑĬ
ĠÐ· Ð²ÐµÐ½Ð¸
Ñĸ Ð¼
ĠÑĥ Ð´Ð°Ð»
ĠÑ¿ Ð»êĻĭ
ĠÐ¾Ñĥ Ð»Ð¸
ĠÐ¾Ð± Ð¸ÑĤÐµÐ»ÑĮ
ĠÐ²ÐµÐ»Ð¸ ÑĤÑĬ
ĠÐ³ÑĢÐ° Ð¼Ð¾
ĠÐ¼Ð¸ Ð»Ð°Ñı
ĠÑģÐº Ñ¹
ÑģÐµ Ð³Ð¾
ĠÑĥÐºÐ°Ð· Ð°Ð½Ð¾
ĠÐ´Ñĥ ÑħÑĬ
ĠÑģÑĥÐ´ Ð½Ð¾Ðµ
ÑĤÑĭ Ð¼ÑĬ
ÑĪÑĤ Ñ«
ĠÐ½Ð°ÑĪ Ñ§
ĠÑĢÐ¾Ð· Ð½ÑĭÑħ
ĠÑģÑ¹ Ð´ÑĬ
ĠÑĢÐ°Ð·Ñĥ Ð¼Ñĥ
ĠÐ¿Ð¾ÐºÐ»Ð¾Ð½ Ð¸
ĠÐ¿Ð¾ÐºÐ»Ð¾Ð½ Ð¸ÑĤÐ¸ÑģÑı
ĠÐ¿Ð¾ÑĪ Ð»Ñİ
ĠÐ³Ð¾Ð²Ð¾ÑĢ Ð¸Ð»ÑĬ
ĠÐ¸ÑģÐº Ð¾ÑĢ
ĠÐºÑĢÑĥ Ð³Ð°
ĠÑĢÐ°Ð± Ð¾ÑĤÑ£
ĠÐ²Ð°ÑģÐ¸Ð» ÐºÐ¾
ĠÐ¿Ð¾Ð¼Ñĭ ÑģÐ»ÑĬ
ĠÐ¿Ð°Ð² Ð¾Ð»
ĠÐ²Ð¸Ð½ Ð¾Ð³ÑĢÐ°
ĠÐ¾ÑĢÑĥ Ð¶
ĠÐ²ÐµÐ´Ð° Ñİ
ĠÐ±Ñ§ ÑħÑĥ
ĠÐ³Ð¾ÑģÐ¿ Ð¾Ð¶Ð°
ĠÐ·Ð´Ðµ Ð»Ð°
ĠÐ½Ñ£ÑĤÑĥ ÑĤÑĮ
ĠÐ½ÐµÐ¿ÑĢÐ¾ ÑħÐ¾Ð´
ÑĤ Ð¾Ð¶
ĠÐ² Ê¼
Ñħ ÑĢÐ°Ð½
ĠÐ¼ Ð¸Ð¼
ÑĤÐ¸ ÑĪÑĮ
ĠÑĢ Ð¸ÑĤ
Ñĸ Ð°Ð½
êĻĭ ÑĤ
Ð¼ÑĬ ÐºÐ°
ĠÐ´Ð° Ð½ÑĭÐµ
ĠÐ¾ÑĤ Ð²Ñ£ÑĤÑĬ
ĠÑħ Ñ¹Ð´
ĠÑĢÐ° ÑģÐ»Ð°Ð±
ĠÑ¿ ÐºÑĢÑĭ
ÑĩÐ¸ ÐºÑĬ
ĠÐ¸Ð¼ ÐµÐ½ÑĮ
ĠêĻĹ ÑĢÐ¾ÑģÐ»Ð°Ð²Ð°
ĠÐĳ Ð¾Ð·Ñ£
Ð¼Ñĥ ÑĤ
ĠÐŀ Ð²Ð¾
ĠÐ»Ð¸ ÑģÑĤÐ¾Ð¼ÑĬ
ĠÑģÐ² Ð¸ÑĤÑĥ
ĠÐ²Ð¾Ð» ÑĪÐµÐ±
ĠÐ½Ñ£ ÐºÐ¸Ð¹
ĠÐ¿ÑĢÐ°Ð² Ð´êĻĭ
ĠÐºÑĢÐ° Ð¸
Ð¿Ð° ÑĤÑĮ
Ð»Ñĭ Ðµ
ĠÐ¿ÑĢÐ¾Ñģ Ñı
Ð°Ð´ ÐµÐ½
ĠÐ§ ÑĮÑĤÐ¾
Ð´Ñ§ ÑīÐµ
ĠÐºÐ¾ÑĢÐ¾Ð» ÐµÐ²Ð¸
ĠÐ¿Ð¾Ð»Ð¾ ÑĨÐºÐ¸Ð¸
ĠÐ±Ð»Ð¸ Ð·ÑĮ
ĠÐ¾ÑĩÐ¸ ÑģÑĤÐ¸
ĠÐ·Ð´Ñ£ Ð»Ð°ÑĤÐ¸
ĠÑģÐ¾Ñĥ ÑīÐµ
Ġ3 00
ĠÐ¼Ñ« Ð¶Ð°
Ð´ÐµÑĢ Ð¶
ĠÐ°Ð³Ð³ Ð»ÑĮ
ĠêĻĹÐ² Ð»Ñ§
ĠÐ¿ÐµÑĢÐµÐ² Ð¾Ð´
ĠÐ¿ÑĢÐ¾Ñĩ ÐµÑĢ
ĠÐ¿Ð»ÑĮ ÑģÐº
ĠÐ¼Ð¸ÑħÐ°Ð» Ñ§
ĠÐ¿Ð¾Ð»Ð¾Ð¶Ðµ Ð½Ð¾
ĠÐ¾ÐºÐ° ÑıÐ½
ĠÐ¿Ð¾ÑĤÑĢÐµ Ð±Ñĭ
ĠÑģÐ»Ð¾Ð²ÑĬ Ð¼ÑĮ
Ðµ ÑīÐµ
ĠÐ½ ÑĪ
ĠÐº Ð¾Ð»ÑĮÐºÐ¾
ĠÐ½Ð° Ð·Ð¸
Ð¿ Ð¾Ð½
ĠÐ° Ð¸
Ñ¡ Ð½Ð¸
Ñ¡ Ð½êĻĭ
ĠÑı ÑĢÐ¾ÑģÑĤÐ¸
ÑĩÐ¸ ÐºÐ¾Ð¼
ĠÑĤÐ¾ êĻĹ
ĠÐ¿ÐµÑĢ ÑģÐ¸
ĠÐ±Ñ£ Ð°ÑĪÐµ
ĠÑ¹ Ð´
ĠÑħÐ¾ ÑĥÐ´
ĠÐ´Ñ£Ð»Ð° ÑĤÐµÐ»
ÑŃ ÑĪÑĤÐµ
ĠÐ¾Ðº Ð¾Ð»
ĠÐ´Ð¾Ð±ÑĢÐ¾ Ñİ
ĠÐ²Ð¾ÑĢ Ð¾ÑĤÑĬ
ĠÐ¿ÑĥÑĪÐº Ð°ÑĢÐ¸
ĠÐ²Ð·Ñı Ð²ÑĬ
ĠÐ¿êĻĭ ÑģÑĤÐ¸
ĠÑħÐ¾ÑĤÑ£ ÑĤÐ¸
ĠÐ¿ÑĢÐ°Ð²ÐµÐ´ Ð½Ð°Ð³Ð¾
ĠÑĤÐ°ÐºÐ¾Ð²Ñĭ Ñı
ĠÐ´ÐµÑĢÐ¶Ð° Ð»Ð¸
ĠÐ´ÑĢÑĥÐ¶Ð¸ Ð½Ñĭ
ĠÐ¼Ð¾Ð½Ð°ÑģÑĤÑĭÑĢ ÑģÐºÐ¸Ñħ
ĠÐ¼ÑĢÐ° Ð¼Ð¾ÑĢ
ĠÑıÐ²Ð¸ ÑģÑı
ĠÐ¿ÑĢÑ§ Ð¼Ð¾
ĠÐ¿ÐµÑĩÐµÐ½Ñ£ Ð·Ð¸
ĠÑģÑ¡ ÑĤÑĬ
ÑĪ Ð¸Ð½ÑĬ
ĠÐ½Ð° ÑĢÑĥ
Ð»Ð° Ð´ÑĬ
ĠÐ½Ðµ ÑĢ
ĠÐ° Ð³Ð°
Ð¸ÑĤ Ð²Ð°
Ð½Ñı Ð»Ð¸
ĠÑĪ ÐµÐ»ÑĬ
ÑĦ Ð¸Ð¼ÑĮ
êĻ¿ ÑģÐµ
ĠÐºÐ¾ÑĢ Ð¾Ð²
ĠÐ¿Ð¸Ñģ Ð¼Ñĥ
ĠÐ¿Ð¾ÑĤ Ñ£
ĠÐ³Ð¾ÑĢÐ¾Ð´ ÑĮ
ĠÑģÐ¼ ÑĢÐ°
ĠÑģÑ£ Ð´Ð¾ÑĪÐ°
ĠÐ¼Ð° Ñħ
ĠÑĨÑĢ Ñģ
ĠÐ¼Ð½Ð¾Ð³ Ð¸Ð¼
ĠÐ¼Ð½Ð¾Ð³ Ð°Ñı
ĠÑĢÑ£ Ð·Ð°
ĠÑĩÐ° ÑĪÑĥ
ĠÐ²Ð¸Ð´Ñ£ Ñħ
ĠÐ¿ÑĢÐ¾Ñģ ÑĦÐ¸
ĠÐºÐ°Ð· ÐµÐ½
ĠÐ¼Ð¾ÑĢ Ñ£
ĠÐ¶Ð°Ð» Ð¾Ð²Ð°ÑĤÐ¸
ÑĢêĻĭ Ð¶
ĠÑģÑĤÐ²Ð¾ÑĢ Ñ§
ĠÐ´Ð°Ð½Ð¸ Ð»Ð¾Ð²
ĠÑģÐµÐ´ Ð»Ð°
ĠÐ´ÑĢêĻĭ Ð³ÑĬ
ĠÑģÑĤÑĢÐ¾ Ð¸ÑĤÑĮ
ĠÐ±Ð¾ÑĥÐ´ Ð¾ÑĥÑĤÑĮ
ĠÑĭ Ð·
ĠÐŁÐ¾Ð´ Ð¾Ð±
ĠÑĤÑ£Ð»ÐµÑģ Ð°
ĠÐ²Ð¾ÑĢÐ¾Ð² ÑģÑĤÐ²Ð¾
ĠÐ¾ÑĤÐ¿Ð¸ ÑĪÐ¸
ĠÐ»ÑİÐ±ÐµÐ· Ð½Ð¾
ĠÑģÐ²Ð¾ÑĶ Ð³Ð¾
ĠÑĨÑ£Ñģ Ð°ÑĢÑĮ
ĠÐ²ÐºêĻĭ Ð¿Ñ£
ĠÐ¼ êĻĹ
Ñĩ ÐºÑ£
Ð½Ð¸ ÑĪÐ°
ĠÐ· ÑĢÑ£ÑĤÐ¸
Ñī Ð¸Ñģ
Ð°ÑĢ Ð¾Ð¼ÑĬ
ĠÑĥ Ð·ÑĮ
ĠÐ¿ÑĢÐ¸ ÑģÑĭÐ»Ð°
ĠÐĲ Ð¼
Ð¸Ð½ Ñ§
ĠÑĨ Ð°ÑĢÐ°
Ð¾Ðº Ñĭ
ÑĪÐµ Ð½Ð¸ÐµÐ¼ÑĬ
ĠÑı ÑĪÐ°
ĠÑı Ð±Ð»
ÑĩÐ° Ð¼ÑĬ
ĠÑĢÑĥ ÑģÐºÑĥÑİ
ĠÑĢÐ°Ð· Ð´ÐµÐ»Ð¸
Ð¶Ð¸ Ð½Ð°
ÑīÐ¸ Ð½Ñĭ
ĠÐ¿ÐµÑĢ Ð²ÑĭÐ¸
ĠÐĵ Ð´Ðµ
ĠÑģÐ¿ Ñ£
Ð½Ð¸Ðº Ñ¡Ð²ÑĬ
ĠÑģÑ£ ÑģÑĤÐ¸
ĠÑģÐ°Ð¼ Ð¾Ðµ
ĠÑģÑĥÐ´ Ð½ÑĭÐ¼
ĠÐ´Ñ£Ð»Ð° ÐµÑĤÑģÑı
ĠÐ²ÑĢÐµÐ¼ ÐµÐ½Ðµ
ĠÐ²ÐµÑģ Ð¸
ĠÑģÐ»Ð°Ð² Ñ«
ÑĪÐº êĻĭ
ĠÐ¾Ð³ Ð¾Ð½ÑĮ
ĠÐ²ÑĬêĻģ ÑĢÐ°
ĠÑĥÐ¼ Ð°Ð»
ĠÐ¿Ð¾ÐºÐ° êĻĹ
ĠÐ´ÑĢÑĥÐ³ Ð¾Ð¼
ĠÐ¿ÑĮ ÑĢÑĮ
ĠÐ¾Ð±ÑĢÑ£ ÑĤ
ĠÐ²Ð¸Ð´Ð¸ Ð¼Ñĭ
ĠÐ¿Ð¾Ð³Ð¸ Ð±Ð°
ĠÐ³Ð°Ð² ÑĢÐ¸Ð»Ð°
ĠÐ²Ð°Ð¼ ÑĮ
ÑĢÐ¾Ñĩ Ð½ÑĭÑħ
ĠÐ¼ÑĥÐ¶Ðµ Ð²Ð¸
ĠÐ¿ÑĢÑıÐ¼ Ð¾Ñİ
ĠÐ¡Ð°Ð¼ Ñģ
ĠÐ²ÑĬÐ·Ð´Ð° ÑģÑĤÑĮ
ĠÐ¿Ð¾Ð²Ð°ÑĢ Ð½Ñİ
ĠÑģÐ»Ð¾Ð²Ñ£ Ð½ÑĮ
ĠÐ¿Ð°Ð»Ð° ÑĤÑĭ
ĠÐ¾ÑĤÐ¿ÑĥÑģÑĤ Ð¸Ð»
ĠÑĤÐ¸Ð¼Ð¾Ñ³ Ñ£
Ġ71 0
ĠÐ»Ð¸ÑĨÐµÐ¼Ñ£ ÑĢÑĮ
Ð»Ñ£Ð·Ñĥ ÑĤÑĮ
ĠÐ¿ÑĢÐµÐ¾Ñģ Ð²ÑıÑīÐµÐ½
ÑĤ Ð°Ðº
Ð² ÐµÐ»
ĠÐ¸ Ð½Ð°Ñı
Ñ£ Ð¼
ĠÐ´ ÐµÐ´
ĠÐº Ð¾Ð²Ð°
ÑĪ Ð½
ĠÐ¾ Ð²Ð°
ĠÐ½Ð° Ñİ
ÐµÐ½ ÑģÐºÐ¾Ð¹
Ð²Ð° Ð²ÑĬ
ĠÑĥ Ñ£Ð·
ÑģÑĤÑĮ Ð¸
ÑĢÑ£ Ð¸
ĠÐ¼Ð¾ ÑģÑĤÐ°
ĠÐ¸Ð¼ Ð°ÑĪÐµ
ĠÐ²Ñ£ Ð¼Ñĭ
ĠÐ¿ÑĢÐ¾ ÑĨ
ĠÐºÐ½Ñı Ð¸Ð½
ĠÐ¿Ð° Ð´ÐµÑĤÑĬ
ĠÐ²ÑĬÐ· Ð»ÑİÐ±
ĠÐ¿Ð¾ÑĢ Ð¾ÐºÐ°
ĠÐ²Ðµ ÑīÐµ
ĠÑĤÑĢ Ð¾Ñĥ
ĠÑģÐ»Ñĥ Ð³
ÑĪÑĤ Ð°Ð²ÑĬ
ĠÐ¿Ð¾Ð½ Ñ£
ĠÐ¿Ð¾Ð´Ð¾Ð± ÐµÐ½ÑĬ
ÑĢÐµÐ´ Ð¸
ĠÑģÐºÐ°Ð· Ð°ÑĤÑĮ
ĠÐ´ÐµÑģ Ñ§ÑĤ
ĠÑĩÐµÐ»Ð¾Ð±Ð¸ÑĤ Ð½Ð¾Ð¸
ĠÐ½ÐµÐ¹ Ð¶Ðµ
ĠÐ±êĻĭ Ð´ÐµÑĪÐ¸
ĠÐ¿ÑģÐº Ð¾Ð²Ð¸ÑĩÐ¸
ĠÐ¿Ð¾ÑħÐ¾Ð´ Ñĥ
ĠÐ½ÐµÐ¿ÑĢÐ°Ð²ÑĮ Ð´ÑĮ
ĠÐ¿ÑĢÐ¾ÑĩÐ° Ð°
ĠÐ²Ñ£ÑĢÑĮ Ð½ÑĬ
ĠÐ¶êĻĭ Ð¿Ð°Ð½
ĠÐ¿ÑĢÐ¾ÑģÐ»Ðµ Ð·Ð¸
Ñģ Ñħ
ĠÐ¸ Ð½ÑĥÑİ
ĠÐ¿ Ñĩ
ĠÐ² Ñ¹
ĠÐ½ Ð´
Ð½Ð¸ Ð¼ÑĮ
ÑĨ Ð°ÑĢÑĮ
ĠÐ· ÑıÑĤ
ÐµÑĢ Ð¿Ñ£
ĠÐ·Ð° ÑĤÐ¾
ĠÑ¿ Ð¼
ÑĩÐ¸ ÑĤÐ¸ÑģÑı
ĠÐ¾Ñĥ ÑĤÑĢ
Ð²Ð¸ ÑĨÐ°
ÑīÐ° ÑģÑı
ĠÐ¼Ð¸ ÐºÐ¸ÑĤÐ¸
ĠÑĤÐ° Ð¸Ð½Ð¾
ĠÐºÐ¾ÑĤ ÐµÐ»
ÑģÑĤÑĭ Ñı
ĠÑĦ Ð¾Ð¼Ñ£
ĠÐ²ÑĬÐ· Ð¸ÑĢÐ°
Ð¿Ð¸ Ð½Ð°
ĠÐ±ÐµÑģ Ð¿
ĠÑĤÑĢÐ¸ Ð¶Ð´Ñĭ
ĠÐ³Ð»Ð° Ð´
ÐºÑ¹ Ð¿
ÐºÑ¹ ÑĤÑĬ
ĠÐ¿ÑĢÐ¾Ð´Ð° Ð²Ð°ÑĤÑĮ
ĠÑĢÐ°êĻģ Ð»Ð¸
ĠÐ±Ð»Ð¸ ÑģÐºÐ¾
Ġ2 9
ĠÐ½ÐµÐ¸ ÑģÑĤ
ĠÐ½ÐµÐ¸ Ð¶Ðµ
Ð¾Ð¿Ð¾Ð» ÐºÐ°
ĠÑĢÐ°Ð·Ð´Ñ£ Ð»ÐµÐ½Ð¾
ĠÐ²Ð¾ÑģÐ¿ ÑĢÐ¸
ĠÐ¿ÑĢÐµÐ±ÑĭÐ²Ð° ÐµÑĤÑĮ
ĠÑģÐµÐ»Ð¸ ÑīÐµ
ĠÐºÐ¾Ð¼ Ð¸Ñģ
Ð»ÐµÐ½Ð¸ Ð°
ĠÐ¼ÑĥÐ¶Ðµ Ð¼
ĠÑĩÑı ÑģÑĤÑĮ
ĠÐºÑ¹Ð¿ Ð¸ÑĤÐ¸
ĠÐ¶Ð°Ð»Ð¾Ð² Ð°Ð½ÑĮ
ĠÐ²ÐµÐ½ ÐµÑĨÑĬ
ĠÐ·Ð°Ð¿Ð»Ð°ÑĤÐ¸ ÑĤÑĮ
Ð¸ Ñ§
ÑģÑĤ Ð°ÑĢ
ĠÐº Ð¾Ð¶Ðµ
Ñĩ Ð°Ð½ÑĬ
Ñ§ ÐºÐ°
ĠÐµ Ð´ÐµÑĤÑĬ
ĠÐ¿ÑĢÐ¸ Ð±
ĠÐ¾ÑĤ Ð½
ÑģÑĤÑĮ êĻĹ
ĠÑĢÐ° Ð´êĻĭ
ÑĪÐµ ÑģÑ§
ÑĩÐµ ÑĪÐ¸
ĠÑģÐ» Ð¾Ð½ÑĬ
ĠÐ³ÑĢÐ° Ð¶Ð´Ð°
ĠÑĤÐ¸ ÑħÑĬ
ĠÐĵ Ð°
êĻ¿ ÑĤ
ĠÑģÑĤÐ°ÑĢ Ð¾Ð¸
ÑģÐ° Ñĥ
ÑģÐ¿ Ð¾Ð²Ñ£
ĠÑĩÐµÑĢ Ð½Ð¾Ð¹
ĠÑĩÐ° Ð´ÑĬ
ĠÐºÑĥÐ¿ Ð»ÐµÐ½Ð¾
ĠÐ¿Ð¾ÑģÑĤÐ°Ð² Ð»ÐµÐ½
Ð½Ð¸ÑĨÐ° Ð¼Ð¸
ĠÐ´Ð°Ð½Ð¸ Ð»Ð¾Ð²Ð°
ĠÑħÐ¾ÑĤÑ£ Ð»Ð¸
ĠÐ´ÑĢêĻĭ Ð³Ð¸
ĠÐ´ÐµÑĢÐ¶ Ð°ÑĤ
ĠÑĢÐ°Ð² Ð½ÑĭÑħÑĬ
ĠÐ²Ð»Ð°Ð´Ñĭ ÑĨÑ£
ĠÐ½ÐµÐ¼Ð¾ ÑīÑĮ
ĠÐ²ÑĬÑģÐº ÑĢÑĮÑģ
ĠÐ¿ÑĢÐ¸ÑıÑĤ ÐµÐ»
ĠÐ¾Ð±ÑĭÑģÐº Ð½ÑĭÑħ
ĠÐºÐ¾Ð»Ñ£ Ð½Ð°
ĠÐ´Ð¸Ñı Ð²Ð¾Ð»
ĠÑĢÑ¹ÐºÐ¾Ð´Ñ£ Ð»
ĠÐ¿Ð»Ð°ÑĤÐ¸ ÑĤ
ĠÐ°ÑĢÑħÐ¸ÐµÐ¿Ð¸ÑģÐºÐ¾Ð¿ Ð°
ĠÐ¸Ð³Ñ¹ Ð¼ÐµÐ½ÑĬ
ĠÐ¿Ð¾Ð¼Ð¸Ð»Ð¾Ð² Ð°Ð½ÑĬ
ĠÑģÑ«Ð´ ÑĨêĻĭ
ĠÑīÐµÑĢ Ð±Ð°
Ð» Ñ¥
ĠÐ² Ð°Ð¼Ð°
ĠÐ¾ Ð½Ñ£ÑħÑĬ
ĠÐ½Ð° Ð±
ÑĤÐ¸ Ñħ
ÑĢÐ° ÑĤÑĬ
ĠÑĢ Ð°Ðº
ĠÐ¿Ð¾ ÑģÐº
ĠÐ· ÐµÐ»ÐµÐ½
ĠÑĥ ÑģÑĤÑĮÑı
Ð¾Ð½ Ð¸Ñģ
ĠÑģÐµ Ðµ
ÐºÐ¸ Ñİ
ĠÐ±Ð¾ Ð°ÑĢ
Ð»ÑĮ Ñĸ
Ð½ÑĮ ÑĨÐ°
ĠÑĨÐ°ÑĢ ÐµÐ²ÑĬ
ÑĩÑĮ ÑģÐºÑĭ
ÑĩÑĮ Ð½Ð°Ñı
ĠÐ³Ð¾ÑģÑĥÐ´Ð°ÑĢ ÑģÑĤÐ²Ðµ
Ð»Ñİ ÑīÐµ
ĠÐºÐ¾Ð½ Ð¾Ð¿
ĠÐºÐ¾Ð½ ÐµÐ¼ÑĬ
ĠÑģÑĤÑĢÐ° ÑħÐ¾Ð¼
ĠÐ´ÑĢ Ð²
ĠÑĢÐ¾Ð´ Ð¸ÑĤÑģÑı
ĠÐ½Ð¸Ñħ ÑĮ
ĠÐ³ÑĢÐ¸Ð² Ð½Ñĥ
ĠÐ¥ Ð¾ÑĤÑ£
ĠÐºÐ¾Ñĥ Ð¿Ð¸
ÑģÑĤÐ°Ð½ ÐµÑĤÑĬ
ĠÐ²ÑĭÑģ Ð¾ÑĤÑĥ
ĠÐ·ÑĬ Ð»Ð¾Ð±
Ð¾ÑĢÐ¸ Ð·
ĠÐ¢Ð°Ðº Ð¶Ðµ
Ð½Ð¾Ð³ ÑĢÐ°
ĠÐ²Ð¾Ð¿ Ð»Ð¾
ĠÐºÐ»ÐµÐ² ÐµÑĤÐ°
ĠÐ¿ÑĢÐ¸Ð»Ð¾Ð¶ Ð¸ÑĤÑĮ
ĠÑ¡Ð±ÑĢÑ£ ÑĤÐµ
ĠÐ¾ÐºÐ¾Ð»Ð½Ð¸ ÑĩÐµÐ¼Ñĥ
ĠÐ½ÐµÐ¿Ð¾ÑĤ ÑĢÐµÐ±
Ðº Ð»ÑĬ
ĠÐ´ Ð¾Ð²Ñ£
ĠÐº Ð¾Ðº
Ñ§ Ð½ÑĸÑ§
ĠÐ½Ð° Ð²Ð¾Ð·
ĠÐ¿Ð¾ ÑĩÐ°Ð»Ð¸
ĠÐ° Ð»Ð°
ĠÐµ ÑħÐ°Ð»ÑĬ
Ñī ÑĭÑ§
ĠÐ» Ð¾ÑĪ
ĠÐ¿ÑĢÐ¸ ÐµÑħÐ°
Ð¼Ð¸ ÑĢÐ¾
Ð´Ñ£ Ð¼ÑĬ
ĠÐ¸Ð· Ð³Ð¾Ð½
ĠÐ³Ð¾Ñģ Ñ¹Ð´
ĠÐ¢ êĻĭ
ĠÐĶ Ð°Ð²
Ð»Ñİ ÑģÑı
ĠÐľ Ð°Ð»Ð¾
ĠÐ¼Ð¸ ÑĪÐµÐ½Ð¸
ĠÑ¥ ÑģÑĤÑĬ
ĠÐ²Ð¾Ð· Ñ§
ÑģÐ» Ñ¹
ĠÐ¿Ð¾Ð² Ð°Ð»
ĠÑĤÐ²Ð¾ÑĢ ÑıÑĤÑĮ
ĠÐ¼Ð°Ð» Ð¾Ð¹
ÐµÐ½Ñĭ Ðµ
ĠÐĿÐ° Ð¼ÑĬ
ĠÐºÑĥÐ¿ ÐµÑĨÑĮ
ĠÐ¿ÑĢÐ¸ÑĪ Ð»ÐµÑĤ
ĠÑħÑĢÐ° Ð¼Ð°
ĠÐ¿Ð¾ÑĪ Ð»ÐµÑĤ
ĠÑģêĻĭ Ð±
ĠÑıÐ´ ÑĢÐ¾Ð¼ÑĬ
ĠÐ²ÑĭÑģ Ñ¹
ĠÐľÑĥÑĢÐ¾Ð¼ ÑĨÑĥ
ĠÐ·Ð°Ð¿Ð°Ñģ Ñ¹
ĠÐ¿Ð¾ÐºÐ»Ð° Ð¶Ðµ
ĠÐ¿Ð¾ÑģÐ° ÑĨÐºÐ¾Ð¹
ĠÐºÑĢÐ°Ð»ÐµÐ² Ð½Ñĥ
ĠÐ½Ð¾Ð³ ÑĬ
ĠÐ¿Ð¾Ð¸ Ð´Ñĥ
ĠÐ²Ð¾ÑĤÑĩÐ¸Ð½ Ð½ÑĭÑı
ĠÑģÑĤÐ°ÑĤÑĮ Ñ£
ĠÐ¾ÑĤÐ²ÐµÑĤÑĩÐ¸ ÐºÐµ
ĠÐ¿Ð¾ÑĢÐ¾ ÑħÐ¾Ð²
ĠÐ¾Ð±ÑĢÐ°Ð· ÑĨÐ¾Ð¼ÑĬ
ĠÐ´ÑĢÐµÐ² Ð¾Ð¼ÑĬ
Ð½Ð¸ÑĩÐµ ÐºÑĬ
ĠÑģÑĤÐ°ÑĤ ÐºÐ°
in i
ĠÐ¿Ð»Ðµ ÑīÐµ
ĠÑĥÑĩÐµ Ð½Ð¸Ñı
ĠÑģÐ²Ð¸Ð½ ÑĩÐ°ÑĤÐ¾Ðµ
ĠÐ²Ð¾ÑģÑĤ ÑĢÑĭ
ĠÐ¿ÑĭÑĤ Ð¾Ðº
ĠÐ¿Ð¾ÑĢÑ§Ð´ Ð½Ð¸
ĠÐ¼Ð¸ÑĤÑĢÐ¾Ð¿Ð¾Ð»Ð¸ ÑĩÐ¸
ĠÐ±Ð¾Ð±Ñĭ Ð»ÐµÐ¹
ĠÐ·Ð°ÐºÐ»Ð°Ð´ Ð½Ð¾Ð¹
ĠÐ½ÐµÑĩÐ¸ ÑģÑĤ
ĠÑĨÐµÐ»Ð¾Ð²Ð°Ð» Ð½Ð¸ÐºÐ¾Ð²
ĠÐ¿Ð¾ÑĢÑĥÑĤÑĩÐ¸ ÐºÐ°Ñħ
ĠÑĤÑĢÐµÐ³ÑĢÐ° Ð½ÐµÑĨÑĬ
ĠÑħÐ°Ð» Ð¾Ð¿
ĠÑģÐ²Ñ£Ð¸ ÑģÐºÐ¸Ðµ
ĠÐ¾Ð±ÑģÑĤÐ¾ ÑıÐ½
ĠÑĥÐ±Ð¸ÑĤ Ð¾Ð³Ð¾
ĠÐ¿ÑĢÐ¾Ðµ ÑģÑĤÐ¸
ĠÑ¡ÑģÑĤÐ°ÑĤ ÐºÐ¸
ĠÐºÐ°Ð¿Ñ¹ ÑģÑĤÐ°
ĠÑģÐ°Ð¼Ð¾Ð´ÐµÑĢÐ¶ ÑĨÐ°
ĠÐ²Ð°ÑĢÑĪÐ° Ð²Ñĭ
ĠÐ·Ð°ÑĤ Ñħ
ĠÐľÐ¸ÑħÐ°Ð¸Ð» Ð¾Ð²Ñĥ
ĠÑĪÑĥÑĢÐ¼ Ð¾Ð²
ĠÑĢÐ°Ð¼Ð°Ð½Ð° Ð²
ĠÑ¡Ð»Ð¾Ð² Ñ§
ÑĢ ÐµÐ²ÑĬ
Ð¼ Ð¾Ð³Ð¾
ĠÐ¿ Ñ§ÑĤÐµ
ĠÑĤ Ñĸ
Ð³ Ð¾Ð¹
Ð³ Ð¾Ð²Ð¸
ÑĪ Ð½Ðµ
Ñħ Ð»Ð°
Ñĩ ÑĤ
Ñĩ Ð½ÑĭÐ¼Ð¸
ĠÐ½Ð° Ð»Ñ£Ð·
ĠÑĢ Ð¸Ñģ
Ð³Ð¾ ÑĥÑĤÑĮ
Ñī Ð¾Ðº
ĠÐ¿ÑĢÐ¸ Ð¼
êĻĹ êĻģ
Ð´Ðµ ÑħÑĬ
ĠÑģÐµ Ñ§
ĠÐĴ Ð°
ĠÐ¸Ð· Ð¾Ñģ
ĠÑĨÐ°ÑĢ ÑģÑĤÐ²Ð¾Ð²Ð°
ĠÐ¿ÑĢÐµ Ð¾Ð´
ĠÐ¸Ñģ Ñ£
ĠÐ¸Ñģ Ð¿Ð¸
ÑģÐµ ÑħÑĬ
ĠÐ¼Ð¾Ð» Ð¸Ð¼
ĠÑķ Ð»Ð°
ĠÐł ÐµÑĩ
ĠÐ±Ð¾Ñı Ð·Ð½Ð¸
ĠÐ¾Ð½ ÑĤÐ¸
ĠÐ¿Ð¾Ð± ÐµÐ¶
ĠÐ¿Ð¾Ð½ ÑıÑĤ
ÑīÐµÐ½ ÑĸÑı
ÑĤÐ¾ÑĢ Ñĭ
ĠÐ¯ ÑĢÐ¾ÑģÐ»Ð°Ð²
ĠÐ´Ð¾Ð±ÑĢÑĭ Ð¸ÑħÑĬ
ĠÐºÐ¾Ð¼Ñĥ Ð¶Ð´Ð¾
Ð½Ñ« ÑĤÐ¸
Ġ2 1
ĠÐ¿ÑĢÐ¸ÑħÐ¾Ð´ Ñĥ
ĠÐ»ÐµÑģ Ð°
ĠÐ¿Ð°Ð² ÑĮ
ĠÐ¾ÑģÑĤÐ°Ð² Ð»ÑĮ
ÑĨÐµÐ¼ Ñ£
ĠÐ²Ð¼Ñ£ ÑģÑĤÑ¡
ĠÐ¼Ð¾Ñĥ Ð¶ÑĮ
Î± Î¹
ĠÐ¼ÑĭÑģÐ»Ð¸ ÑĤÑĮ
ĠÐ¿ÑĢÐ¸Ð»Ñ£ Ð¶
ĠÐ´ÑĢÑĥÐ³Ñĭ Ñı
ĠÐ¾ÑĤÐ²Ðµ ÑĩÐ°ÑĤÐ¸
ĠÑıÑĢÐ¾Ð¿Ð¾Ð» ÐºÐ°
ĠÑĦÐ°ÑĢ Ð¸Ñģ
ĠÑģÐ»ÑĥÐ¶Ðµ Ð±
ĠÐ§Ð»Ð¾Ð²Ñ£ ÐºÑĬ
Â ´
Ð¼ Ð¾Ð²Ð°
Ð´ ÐµÐ½
ĠÐ½ Ð¾Ð²ÑĭÐµ
Ñı ÑĪÐ°
Ñħ Ð¾Ð¶Ð°
ĠÐ¾ Ð½Ñ£Ð¼ÑĬ
ĠÐ» Ð°ÑĢÑ£
ĠÐ²ÑĬ Ð½
ĠÐ²Ñģ Ð¸Ð¼
êĻĳ Ñ§
êĻĳ ÑĤÐ°
Ð¾Ð¿ ÑĬÐ»
Ð½Ðµ Ð½Ð¸Ðµ
Ð´Ñ£ Ð»Ð°
ĠêĻĹ ÑĢÐ¾Ñģ
ĠêĻĹ êĻģÑĭ
ĠÐºÐ°Ðº Ð¾Ð²Ñĭ
ĠÐ¿Ð¾Ðº Ð»Ðµ
ĠÐ¿Ð¾Ðº Ð°Ð·ÑĥÐµÑĤÑĬ
ĠÐ²Ð¾Ð· Ð»Ð¾Ð¶
ĠÐ¿ÑĢÑ£ Ð±
ĠÑģÑĥÐ´ ÑĮÐ¸
ÑģÐ¿ Ðµ
ĠÑĩÐ¸ Ð½Ñĭ
ĠÐ³Ð» Ñī
Ð¾Ð²ÑĮ Ñİ
ĠÐ´ÑĮ Ð¶ÑĮ
ĠÐ¿Ð¾ÑĪ Ð»Ð¾
ĠÑ£ ÐºÐ¾Ð¶Ðµ
ÑİÑī ÑĭÐ¼ÑĬ
ĠÐºÐ¾ÑĢÐ¾Ð» ÐµÐ²Ð¸ÑĩÑĮ
ĠÑĢÑ¹ ÐºÑ¹
ĠÑ¥Ñģ Ð¼ÑĬ
ĠÐ¡Ñĭ Ð½Ð¾Ð²Ðµ
ĠÐ²ÑĤÐ¾ÑĢ Ð°Ð³Ð¾
Ð½ÐµÐ¼ Ñ¹
ĠÐ±Ñ« Ð´Ð¸
ĠÑģÐ²Ð¾Ð±Ð¾Ð´ Ñĭ
ĠÐ¸Ð·Ð²Ñ£ ÑģÑĤÐ½Ð¾
ĠÐ¼Ð°Ð»Ð° Ð³Ð¾
ĠÐºÐ¾ÑĢÐ¼Ð¸ ÑĤÑĮ
ĠÐŁÐµÑĢ Ð²Ð¾Ðµ
ĠÐ¿Ð¾Ð³Ð¸Ð± ÐµÐ»Ð¸
ĠÑıÐ·ÑĭÐºÑĬ Ð¼ÑĮ
ĠÐ²Ð°ÑģÐ¸Ð»ÑĮÐµÐ²Ð¸Ñĩ Ñı
ĠÐ±Ð¶ÑĤÐ² Ð½Ñĭ
ĠÐ¿ÑĢÐµÑģÑĤ Ð¾Ð»ÑĬ
ĠÑħÑĢÐ°Ð¼Ð¸ Ð½Ñ£
ÑĩÐ°ÑĤÑĭ Ðµ
ĠÑģÐ°êĻĭ Ð»ÑĬ
ĠÐłÑĭ ÑĨ
ĠÑĢÐ°ÑĤÐ¼Ð°Ð½ Ð¾Ð¼
ĠÑģÐºÐ¸Ð½ ÑĸÐ¸
ĠÐ³ÐµÑ¡ ÑĢÐ³Ð¸
i Ð¸
ÑĢ Ð¾Ð¼Ñĥ
Ð´ Ñ¡Ð½Ð°
ĠÐ¼ ÐµÐ»ÑĮ
Ð¾Ð» Ð¸ÑĤ
ĠÑĩ ÑĤÐ¸ÑĤÐ¸
Ð°ÑĢ Ð¾Ð²ÑĬ
ĠÐ¿ÑĢÐ¸ ÑģÑĤÐ°Ð²Ð¸
ĠÑħ ÑĢÐ¾Ð¼
ĠÐ·Ð° Ð³Ð¾Ð²Ð¾ÑĢ
ĠÑĢÐ° Ñħ
ÑĢÐµ Ñģ
ĠÑģÑĬ Ð²Ñ£ÑīÐ°
ĠÐ¶ ÑĢÐµÐ±
Ð¸Ð¼ ÐµÐ½Ð¸
ĠÑĤÐµ Ð¿Ð»
ĠÐ¾Ð± Ð»Ñ£
ĠÐ¾Ð± Ð¾Ñİ
ĠÐĶ Ð¾Ð½
ĠÐļ Ð¾Ð»ÑĮ
ÑģÑĤÐ°Ð² ÑĮ
ĠÐ¶Ð¸ ÑĤÑĮÐµ
ÑģÑĤÑĭ Ð½Ñ§
ĠÐ»Ñ£ ÑģÑĬ
ĠÐ½Ñ£ ÑģÐºÐ¾Ð»ÑĮÐºÐ¾
ÑĨÑ£ Ð¼ÑĮ
ÐµÐ½Ðµ Ð²Ð°
ĠÐĽ Ð²
ĠÑħÐ¾ÑĤ ÑıÑĤ
ĠÐ¸Ð½ Ð¾Ð¿
ÑŃ ÑīÐµ
ĠÐ·Ð½Ð° Ð¼ÐµÐ½Ð°
ĠÐ½Ð°Ð´ Ð¾Ð±ÑĮ
ĠÐ¿ÑĢÐ¾Ð´Ð° Ð»Ð¸
ĠÐ¿Ð¾ÑĢÑĥ ÑĩÐ¸
ĠÐ²ÐµÐ´ ÑĢÐ°
ĠÐ¿ÑĢÐ¸ÑģÑĤÐ°Ð² Ð¾Ð²
ĠÑģÑĤÑ£ Ð½Ñ£
ĠÐ¾Ð±ÑĢÑ£ ÑĤÑĬ
ĠÐ±Ð¾ÑĢÐ¸Ñģ Ð¾Ð²Ð°
ĠÐ¿Ð»ÐµÐ¼ ÐµÐ½
ĠÐ´ÑĢÐ¾Ñĥ Ð³
ĠÐ¿Ð°ÑĢ Ñĥ
ĠÑ¡Ð² ÑģÐ°
ĠÐ±Ð¾Ð³Ð¾Ð¼ Ð¾Ð»ÑĮ
ĠÑģÐºÐ°Ð·Ñĭ Ð²Ð°Ð»Ð¸
Ġ ÏĦ
Ñģ Ð¸ÑĤ
ĠÐ´ Ð°ÑĢÑĮ
ĠÐ¼ ÐµÐ»Ð¸
Ñī Ñ§
Ð¶ ÑĶ
ÐºÐ° ÑĤÐ°
ĠÑģÑĤ Ð¾Ð¹
Ð¾Ñģ Ð°Ð»Ð¸
ĠÑħ Ð»
ĠÑħ Ñ¡
ĠÐ½Ð¸ ÑĮ
ÑĢÐµ Ñİ
ĠÑģÑĬ Ð¼Ð¾ÑĤ
Ð´Ð¸ Ð²Ð¸
Ð½Ñı ÑĤÑĬ
Ð»ÑĮ Ð¼Ð°
ĠÐĳ ÐµÑĢ
ĠÐºÐ¾ ÐµÐ³Ð¾
Ñ¥ Ð¼Ð¾
ĠÐ¿Ð¾Ðº ÑĢÐ¾Ð²ÑĬ
ĠÐºÐ¾Ð½ ÑĬ
ĠÐ¼Ðµ ÑĪÐºÐ°
ĠÑ» ÑģÑĤÐ°
ĠÐ´Ñĥ Ð»Ñ£
ĠÐ¿Ð¸ Ð»Ð¸
ĠÐ¼Ð° ÐµÑĤÑĮ
ÑĤÑĭ Ñħ
ĠÐ¸Ð²Ð°Ð½ Ð¾Ð²Ð¸ÑĩÑĮ
ĠÐ´Ð¾Ð» Ð³ÑĬ
ĠÐ¿Ð¾Ð»Ð¾ ÑĩÐ°
ĠÐ¿Ð¾Ð»Ð¾ ÑĩÐ°Ð½
ĠÐ±Ð¸ ÑİÑĤ
ĠÐ´Ð¾Ð¿ ÑĢÐ°Ð²Ð¸ÑĤÑĮ
Ñ§Ñī Ñİ
ĠÐ³Ð° Ð»Ð°Ð½
ĠÐ²Ð½Ð¸ Ð´Ð¾ÑĪÐ°
ĠÑģÑĤÐµÐ¿ Ð°Ð½Ñĥ
ĠÐ±Ð¾ÑĥÐ´ ÐµÑĤ
ĠÐ¿ÑĢÐ¸ÑĤ Ð¾Ñĩ
ĠÐ´Ð°Ð² Ð½Ð¾
ĠÑģÐ¼Ð¸ ÑĢÐµ
ĠÐ»Ð¾ÑĪÐ° Ð´
ĠÐ´ÑĢÐ¾Ñĥ Ð³ÑĬ
ĠÑ¡Ð±Ñ£ ÑīÐ°
ĠÐ¿Ð»ÑĮ ÑģÐºÐ¾Ð²
ĠÐ´ÑĢÑĥÐ³Ð¸ Ðµ
ĠÐ´ÐµÑģÑıÑĤ ÐºÑĥ
ĠÑĥÐ´Ð° Ð»Ñĭ
ĠÐ¼Ð½Ð¾Ð¶Ð° Ðµ
ĠÑĤÐ¾ÑĩÑĮ ÐºÐ¸
ĠÐ¿Ð¾ÑĢÐ°Ð± Ð¾ÑĤÐ°
ÑĢ Ð¾Ð²Ñĥ
Ð» ÐµÐ´
ĠÐ¸ ÑĪÑĤÐ¸
ĠÐ´ Ñ«
ÑģÑĤ Ð½Ñ£
ĠÐº ÐµÐ»
ĠÐ¼ Ð´
Ñī ÐµÐ½ÑĮ
Ð¾Ð³ Ð»Ð°
ÑĤÑĮ Ð½Ð°
ĠÐ´Ð° ÑİÑĤÑĬ
ĠÐĲ Ð»ÐµÐºÑģÐµ
ĠÐ·Ð° Ð»Ð¾Ð¶Ðµ
ĠÑĢÐ° ÑģÐ»Ð°
ĠÑ¿ Ð´Ð°ÑĤÐ¸
ĠÐ²Ð¾ ÑħÐ¾
ĠÑģÐ» Ñģ
ÑĤÐµ ÑĩÐµ
Ð»Ð¾ ÑĦÑĬ
ĠÐŀ ÑħÑĬ
ĠÐ²Ñĭ Ð¿Ð¸ÑģÐ¸
ĠÐ¼Ð½ Ð¾Ð·
ÑĦ Ð¾ÑĢÐ°
ÑīÐ¸ ÐºÑĬ
ĠÐ²Ð¾Ð· Ñĭ
ĠêĻ į
ĠÐ±Ð¾Ð³ Ð°ÑĤÐ°
ÑħÐ¾Ð´ Ð¸ÑĤÐ¸
ĠÐ´Ð²Ð¾ÑĢ ÑıÐ½Ð¸Ð½Ð°
ĠÐ³Ð¾ÑĢÐ¾Ð´ Ð¾Ð²ÑĬ
ĠÐ³Ð»Ð°Ð³Ð¾Ð» ÑİÑīÐ¸
ĠÑĥÑĩ Ð¸ÑĤÐµÐ»Ñı
ĠÑħÐ¾ÑĤ Ñ§ÑĤÑĮ
ĠÑħÐ¾ÑĤ ÑıÑĪÐµ
ÐµÐ½Ñĭ Ð¼
ĠÐºÐ°Ð· Ð½Ð¸ÑĤÑĮ
Ð·ÑĮ Ñĸ
ĠÐĹ Ð¼Ñ£
ĠÐ²Ð¾Ð´ êĻĭ
ĠÐ¾Ð¿ Ð¾Ð·Ð½Ð°
ĠÐ³Ð¾Ð²Ð¾ÑĢ Ð¸Ð»
ĠÑĪÐµ ÑģÑĤÐ°Ð³Ð¾
ĠÐ¿Ð¾ÑģÐ»Ñ£ Ð´Ð¾Ð²Ð°
ĠÑĪÐ¸ ÑĢÐ¸Ð½
ĠÐ·ÐµÐ¼Ð»Ñı Ð¼
ĠÐ²ÐµÐ´ Ð¾Ð¼Ð°
Ð²ÑĪÐ¸ Ð¼ÑĬ
ÑıÑĪÐµ ÑģÑı
ĠÐ¿Ð¾Ñĥ ÑĤÐ¸
ĠÐ¿ÑĢÐ¾ÑĢ Ð¾ÐºÐ°
ĠÑħÐ¾ÑĤÑı ÑīÐµ
ĠÐ²ÑĤÐ¾ÑĢ Ð¾Ð¹
ĠÐ¶ÐµÐ»Ð° Ñİ
ĠÐ²ÐµÑĩ Ð½ÑĭÑħ
ĠÐ¼Ð½Ð¾Ð¶Ðµ ÑģÑĤÐ²Ð°
ĠÐ·Ð°Ð²Ð¸ ÑģÑĤÐ¸
ĠÐ¿ÑģÐº Ð¾Ð²Ð°
ĠÐ¾Ñĩ Ð½ÑĥÑİ
ĠÐ²Ð¾Ð·Ð»ÑİÐ±Ð»ÐµÐ½ Ð½ÑĭÐ¹
ĠÐ¶Ð°Ð»Ð¾Ð²Ð°Ð» Ð½ÑĭÐµ
ĠÑģÐ¾ÑĢÐ¾ ÑĨÐ¸
ĠÐ¿Ð¾Ð¿ÐµÑĨ Ð°Ð»Ñĥ
ĠÑģÑĬÐ¼Ñ£ÑĢÐµ Ð½Ð¸ÐµÐ¼ÑĮ
Ñģ Ð½
Ð² Ð»Ñ£
ĠÑģ ÐµÐ²
Ñ£ ÑĤÐ¸
ĠÐº Ñ£Ð¼ÑĬ
ĠÐ± Ð¾Ð¼
Ñĩ Ð¸ÑĤÐµÐ»
Ñĩ Ð°ÑĤÐ°
ĠÐ½Ð° ÑģÑĤÐ¾Ñı
ĠÐ· Ñ§ÑĤ
ĠÑģÑĤ ÑĢÑĭ
ĠÐĺ Ð¼Ñı
ĠÑħ Ð°ÑĢÐ°
ÑĪÐ° êĻĹ
Ð¾Ð¿ ÑĢÐµ
Ð¾Ð¿ Ð°Ð»Ð¸
ĠÐ¾Ð± Ð¾ÑĢ
ĠÐĶ Ð½ÑĮ
Ð¶Ð¸ Ð¸
ĠÐ²Ð¾Ð» Ñ£
ÑģÐ° Ð´Ð¸
ĠÐ²ÑĬÐ· Ð³Ð»Ð°Ð³Ð¾Ð»
ĠÑģÑ£ ÑĤÐ¸
ĠÑģÑ£ ÑĩÐ¸
ĠÑģÐ°Ð¼ Ð¾Ð¹
ĠÐĴÑĬ ÑģÐ¿
ĠÐºÐ°Ð· Ð°Ð½
ĠÐ±Ð¾ÑĢ ÑĤÑĮ
ĠÑģÑĤÑĢÑ£ Ð»Ð¸ÑĤÐ¸
ĠÐ·Ð½Ð° Ð½ÑĸÐµ
ĠÐ·Ð½Ð° Ð¼ÐµÐ½Ð¸Ðµ
ĠÐ½ÐµÐ± ÑĢÑ£
ĠÐ²Ð¾Ñģ ÑħÐ¾
ĠÐºÐ¾ÑĢÐ¾Ð» ÐµÐ¹
ÑĪÐºÐ¸ Ð½Ð°
ÑĪÑĤÐ° Ñı
ĠÑģÐºÐ¾ÑĢ Ñ£Ðµ
ĠÐ¸Ð¼Ñı ÑĢÐµÐº
ĠÐ±Ð¾ÑĥÐ´ Ð¾Ñĥ
ĠÐ²Ð¸Ð´ Ð¸ÑĤÑĬ
ĠÑĥÐ· ÑĢÐ¸ÑĤ
ĠÐĴÑ£ ÑĢÑĥ
ĠÐ²Ð¾Ð»Ð¾ÑģÑĤ ÐµÐ»ÐµÐ¼
ĠÑģêĻĳ Ð½ÑĬ
ĠÐ¾Ð±Ð¾Ð· ÑĬ
ĠÑģÑĤÑĢÐ°Ð½Ð° ÑħÑĬ
ĠÐ¼ÑģÑĤÐ¸ ÑģÐ»Ð°Ð²Ð°
ĠÐºÑĥÐ¿Ð»ÐµÐ½ ÑĭÑħ
ÑģÑİ Ð´Ñĥ
ĠÐ²ÑĭÑĪÑĮ Ð½ÑıÐ°Ð³Ð¾
ĠÑĢÐ¸ÑĤ Ð¾ÑĢÐ¸
. âĢĿ
Ï Ģ
ĠÐ¿ ÑĸÑ§
Ðº Ð¼
Ñĩ Ð½Ñĭ
ĠÑĩ Ð¸Ð½Ñ£
ĠÐ¿ÑĢÐ¸ Ð»Ð¸
Ð¸Ð» Ñİ
Ð¾Ðº ÑĮ
ĠÐ¾Ñĥ Ð¼ÑĮ
ĠÐ¡ Ð¸Ð½Ð°
âĢ »
ĠÐļ Ð¾Ð³Ð´Ð°
ÑĦ Ð¾ÑĢ
ĠÐ¿Ð¾Ð¼ Ñ§
ĠÐľ Ð°ÑĤÐ¸
Ð¶Ð° ÐµÑĤÑĮ
ĠÐ²ÑģÑ§ ÐºÐ¾Ñİ
ĠÑģÐ¾Ð± Ð¸
ĠÐ¿ÑĢÐ°Ð² Ñ£
ĠÑĨÑĢ ÐºÐ¾Ð²
Ð·Ñĭ ÑĨÑĭ
ĠÑĢÐ¾Ð´ Ð¸ÑĤÐµÐ»Ð¸
Ð¸ÑĤÐ° Ñı
ĠÐ¿ÑĢÐ¾ÑĤÐ¸ Ð²Ð¾
ĠÐ¿Ð¾ÑģÑĤÐ°Ð² Ð¸ÑĤ
ĠÐ½Ð°ÑĪÐµ Ñı
ĠÑĩÐ¸Ñģ Ð»Ñ£
ĠÐ¿ÑĢÐ° Ð´Ñ£
ĠÐ½Ð°Ñĩ ÐµÐ»
ĠÐ¼Ð¾Ð³ ÑĥÑĤ
ĠÐ´ÑĬ Ð²Ð¾
ĠÐŀÑĤ ÑĩÐµ
Ð¾Ð»Ñİ Ð±Ðµ
ĠÐ¼Ð¸ÑĤÑĢÐ¾Ð¿Ð¾Ð» Ð¸ÑĤÑĬ
ĠÐ¿ÑĢÐµÐ´Ð° ÑģÑĤÑĬ
ĠÑĢÐ°Ð·Ð´Ñ£ Ð»Ð¸ÑĤÐ¸
ĠÐ¿ÑĢÐ¾ÑĤ Ñı
ĠÐ¿ÑĢÐ¸Ð½Ð¾ ÑģÐ¸ÑĤÐ¸
ĠÐĲÐ½ Ð´ÑĢÑ£
ĠÐ»Ð¾Ð² Ð¸ÑĤÐ¸
Î¿ Î½
ĠÑģÐ°Ð¶Ðµ Ð½Ð¸
ĠÑ¡ÑģÐ¿Ð¾Ð´ Ð¸Ð½Ñĥ
ĠÑģÑİ Ð´Ñĭ
ĠÐ¾ÑģÐº ÑĥÐ´Ñ£
ĠÐ¶Ð¸Ð´ Ð¾Ð²Ðµ
ĠÐ¿ÑĢÐ¸ÑĪÐµ ÑģÑĤÐ²Ð¸Ðµ
ĠÐ°Ñģ Ð¿Ð¸
ĠÐ¾ÑĤÑĬÐ²Ñ£ ÑĪÑĤÐ°
ĠÑĢÐ°Ð·Ð»Ð¸ ÑĩÑĮ
ĠêĻģÐ°ÑĤ Ð²Ð¾ÑĢ
ĠÐ¿ÑĢÐ¾ÑĩÐµÑĢ ÑĤÐ¸ÑĤÑĮ
Ð¸ êĻģ
ÑĤ Ð¾ÑĢÐ¾
ĠÐ¿ ÑģÐ°
ĠÐ² ÑģÑĤÑĥÐ¿
Ð¿ ÑĢÐ¾ÑĤÐ¸Ð²
ĠÐ° Ðº
ĠÐ° ÑĢÐ°
Ð¹ ÑĨÐ¸
ĠÐ¾ÑĤ Ñı
ĠÐ·Ð° Ð±êĻĳ
ĠÑ¡ ÑĤÑĮ
Ñ¡ Ñģ
ĠÑģÑĬ ÑĢÑ£
ĠÑı ÐºÐ¾Ð¶
ĠÐĴ ÐµÑĢ
ÑĤÐµ ÑĨ
ĠÑĶ Ð¼Ð¾Ñĥ
ĠÐ³ÑĢÐ° Ð´Ð¸
ĠÑģÑĤÐ°ÑĢ Ð¾Ð³Ð¾
ĠÑģÐ° Ð½Ð¸
ĠÐ¼Ðµ Ñī
ĠÐ½Ð°Ð¿ Ð»ÑĬ
Ð²Ðµ Ðµ
ĠÐ¼Ð¾Ð» Ñ§ÑĪÐµ
ÐµÐ½Ð° Ð°Ð³Ð¾
ĠÐ±ÑĮ ÑĢÑĮ
Ñ³ Ð¾ÑĢ
ĠÑħÐ¾ ÑĩÐµÐ¼ÑĬ
ĠÐ²ÑĢÐ° ÑĤ
ĠÐ¿ÑĥÑĪÐº Ð°ÑĢÑĮ
ĠÐ´ÑĢÐ° Ð³Ð¾
ĠÐ±Ñ« Ð´ÐµÑĤÑĮ
ĠÑģÐ»Ðµ Ð·Ñĭ
ĠÑģÐ°Ð² Ðµ
ĠÐ¿Ð¾ÐºÑĢÑĭ ÑĤÐ¾
ĠÐ²ÐµÐ· Ð´Ðµ
ĠÐ½Ð°Ð¼ÐµÑģÑĤ Ð½Ð¸ÐºÑĥ
ĠÐ½Ð¾Ð³Ð° Ð¼Ð¸
ĠÑĢÐ¾Ð± Ð°
ĠÐ¿Ð¾ÑĩÐ° ÑĪÐ°
ĠÐ´ÐµÑĢÐ· Ð¾ÑģÑĤÑĮ
ĠÐ¼Ð¾Ðº ÑĢ
ĠÐ±Ð°ÑĤÑİ ÑĪÐºÐ¾
ĠÐĳÐµ êĻģ
ÑıÐ½ÑĮ ÑģÑĤÐ²Ð°
ĠÐ¾Ð»ÑĤ Ð°ÑĢÑı
ĠÐ¼ÐµÑģÐµ ÑĨÐ°
ĠÑģÑĤÐ°ÑĢÐ¾Ð¶ Ð¸Ð»
Ð¾ ÑģÑĤÐ°
ĠÑģ Ð³
ĠÐ¿ Ð¾Ð²Ð¾
ĠÐ² ÑıÐ·
Ð³ Ñ«
ĠÐ± Ð»ÑĮ
ĠÐ¼ Ð»ÑĮ
ĠÐ¾ Ñ³
Ð»Ð¸ Ñİ
ĠÑĢ ÑİÑĢÐ¸
ĠÐ» Ð¾Ð¼
ĠÐ» Ð°Ð¼
êĻĹ ÑħêĻĭ
Ð°Ð½ ÑĸÑ§
ĠÐ½Ð¸ Ð¼Ð°
ĠÐ¿Ð¾Ð» Ð°ÑĤÐ°
ĠÐĳ Ð¾Ð¶ÑĮÑģÑĤÐ²Ð¾
ĠÐºÐ¾Ð½ êĻ¿
ĠÑģÑĤÐ°ÑĢ ÐµÑĨÑĮ
ĠÑģÐ° Ð½Ð°
ĠÐ¿Ð¾Ð² Ð¸Ð½ÑĮ
ĠÐ³Ð¾ÑĢ êĻĭ
ĠÑĤÐ²Ð¾ÑĢ ÑĤ
ĠÐ´Ð¾Ð¼ ÑĮ
ĠÐ»ÑİÐ´ Ñĸ
ĠÐºÑĥ Ð»Ð¸
Ð¸Ð»Ð¸ ÑģÑĮ
ÐµÐ½Ñĭ Ñı
ĠÐ½ÐµÐ¿ ÑĢÐ°
ĠÑ¡Ð± Ð¸Ð»
ĠÐ·Ð½Ð° ÐµÐ¼
ĠÐ´ÑĮ Ð²
ĠÑł Ð»Ðµ
ĠÐ¶Ð°Ð» Ð¾ÑģÑĤÑĮ
ĠÑĢÑ¹ Ñģ
ĠÑģÐ²Ñı ÑĤÐ¾Ðµ
ĠÑĨÐµÐ» Ñĥ
ÐµÐ²Ð¸Ñĩ Ñı
Ñ§Ñī ÑĸÐ¸
ĠÐ¸Ð¼ÐµÐ½ ÐµÐ¼ÑĮ
ĠÐ³ÑĢÑ£Ñħ Ð¾Ð²ÑĮ
ĠÑģÐ¼Ð¸ ÑĢÐ¸
ĠÐ´ÑĢÑĬ Ð·
ĠÐ»Ð¾Ñĥ ÐºÑĬ
ĠÐ´Ð¾ÑģÑĤ Ð°Ð»ÑĮ
ĠÐ¸Ð³Ð½Ð° ÑĤÑĮ
ĠÑģÐ¼ÐµÑĢÑĤ Ð½Ð¾Ñİ
ĠÐ½Ð°Ð· Ð°ÑĢ
ĠÐºÐ¾Ð² ÑĩÐµ
Ġ8 0
ĠÐ½ÐµÐ²Ð¸Ð´Ð¸ Ð¼Ð¾
ĠÐ²ÑģÑıÐº ÑĸÐµ
ĠÐ¾ÑĤÐº ÑĥÐ´Ñĥ
ĠÐ¾ÑĤÐ¿ÑĥÑģÑĤÐ¸ Ð»Ð¸
ĠÐ³ÑĬÑĢ Ð´Ð¾ÑģÑĤÑĮ
ĠÐ°ÑĢÑħÐ¸ÑģÑĤÑĢÐ°ÑĤÐ¸ Ð³Ð°
ĠÐ´ÑĬÐ¶Ð´ ÐµÐ²ÑĮ
ÑĤ ÐµÐ½ÑĸÐµ
ÑĢ ÐµÑĤÐµ
Ð½ ÑĶ
Ð² ÐµÐ½ÑĸÐµ
ĠÐº Ð½ÑĮ
ĠÐº Ð½Ñĸ
Ð³ ÑĢÑĭ
ĠÑĢ Ð±Ð»ÑĮ
ĠÐ½Ðµ ÑģÑĤ
ÑĨ ÐºÐ°Ð³Ð¾
ĠÐµ Ñ«
Ñī Ð¸Ð¼ÑĮ
ĠÐ» Ð¾Ð½Ðµ
ĠÑĥ Ð½Ðµ
Ð¶Ðµ Ð½ÑĮÐµ
ÑĢÐ¸ Ð¾Ð½Ñĥ
ĠÑģÑĬ Ð»
Ð¾Ð¿ Ð¾Ð¼
ĠÐĴ ÑĢÐ¸Ð¾Ð½Ñĥ
ĠÐ¼Ð¾ ÑģÑĤ
ĠÐ¼Ð¾ Óı
Ð¾Ð¶Ðµ Ð½ÑĮ
ĠÐ¸Ð¼ Ð°ÑĤÐµ
Ġ: :
ĠêĻĹ ÐºÐ¾Ð²
ÑĢÑĮ Ð¶
ĠÐ¢ ÑĮ
ĠÐ´Ñ£ Ð¶Ñ£
ĠÑĢÑĥ ÑĨÑĮ
ĠÐļ Ð¾Ð½Ðµ
Ð¶Ð° ÑĤÑĬ
ĠÐ¾ÑĤÑĬ ÐºÑĢÑĭ
ĠÑĦ ÑĢ
ĠÐĵ Ñģ
ĠÐĵ Ð°Ð´ÐµÐ½
ĠÐ²Ð¾Ð» Ð½Ð¾
Ð½Ñ§ ÑĤÑĬ
ĠÐºÐ¾ÑĢ Ð¾Ð±Ñ£
ĠÑģÑĤÐ°ÑĢ ÑĭÑı
ÑĥÑİ ÑĪÑĤÐ°Ð°Ð³Ð¾
ĠÐ²Ð°Ñģ Ð¾
ĠÐ¿Ð¾ÑĢ Ð°Ð·ÑĥÐ¼Ñ£
ĠÐ´Ð²Ð¾ÑĢ Ð¾Ð²ÑĭÑħ
ÐµÐ»ÑĮ Ðµ
ĠÐ´Ñĥ ÑĪÐµÐ²ÑĮ
ĠÐ¼Ñĥ ÑĪÐº
ĠÑ§ ÑĤÐ¸
ĠÑģÑ£ ÑĤÑĮ
ĠÐ±Ð» ÑĥÐ´ÑĮ
ĠÐ¿Ð¸ ÑıÐ½ÑĮÑģÑĤÐ²Ð°
ĠÐ±ÑĮ Ð·
ĠÐ´Ð¾Ð¼ Ð°Ñģ
ĠÑħÐ¾ ÑĩÐµÑĤ
ĠÑģÐµÐ¼ ÐµÐ¹
ÑĪÑĤ ÐµÐ²
ĠÑģÑĤÐ¾ÑĢ Ð¾Ð½ÑĬ
ĠÑĢÐ¾Ð· Ð¼Ð¸ÑĢÐ¾
ĠÐ¾Ð¿ ÑıÑĤ
ĠÐºÐ°Ð¼ Ðµ
ĠÐºÐ°Ð¼ Ñ§Ð½Ñ¹
ĠÑĤÑĬ ÐºÑĬÐ¼Ð¾
ĠÐ»Ðµ Ð³ÑĬ
ĠÐµÐ´Ð¸Ð½ Ð¾ÑĢÐ¾Ð´
ĠÐºÐ¾Ñĥ Ð·
Ð¼êĻĭ Ð¶Ðµ
ĠÐ½Ð¾Ð² Ð¾Ðº
ĠÐ½Ð¾Ð² Ð¾Ð¼Ñĥ
ĠÐ¿Ð¸ÑģÐ° Ð½Ð¸
ÑĪÑĤÐ° Ð¹
ĠÐ²ÑĬÑģ ÐµÐ»
ÑĪÑı Ñı
ĠÐºÐ¾Ð¿ Ð¸
ĠÐŀÑĤ ÑĨÐ°
ĠÐ³ÑĢÐ¸Ð²ÑĮ Ð½Ðµ
ĠÐ¿Ð¾ÑģÐ° ÑĨÐºÐ¾Ð³Ð¾
ĠÐ½Ð°Ð´Ð¾Ð± Ð¸
ĠÐ´ÐµÐ² ÐºÐ¸
ĠÐ¼Ð¸Ð» ÑĭÐ¹
ĠÐ²ÑĬÐ´Ð° Ðµ
ĠÐ¾ÑĤÐ²ÐµÑĤÑĩÐ¸ ÐºÐ¸
ĠÐ´ÑĢêĻĭ Ð³êĻĭ
ĠÑĤÐµÑĢ Ð¿Ñ£ÑĤÐ¸
ĠÐ±Ð¾ÑĥÐ´ ÑĮ
ĠÐ¼Ð¾Ð»Ð¾Ð´ Ð¾Ð³Ð°
ĠÑĥÑĤ ÑĢÐ¾
ĠÑģÑĬÐº ÑĢÑĭÐ¹
ĠÐ¿ÑĢÐ¸ÑĤ ÐµÑĢÐµ
Ġ10 7
ĠÐ³ÑĢÐ² Ð½Ðµ
ĠÐ³ÑĢÐ² Ð½Ñ£
ĠÐ²ÑĮÑģÑı ÐºÐ¾Ð³Ð¾
ĠÑĤÐ¾ÑĢÐ³ Ð¾Ð²Ð¾Ñİ
ĠÑĤÑĢÑĮ ÑĤÐ¸Ñ§
ĠÐºÐ»Ð¸ Ð¼ÐµÐ½
ĠÐ¼ÑĥÐ¶Ð¸ ÐºÐ¸
ÑĥÐ±Ð¸ Ð¹ÑĨÐ¸
ĠÐ¿ÑıÑĤ Ð½Ð°ÑĤÑĨÐ°ÑĤÑĮ
ĠÐ¾Ð±ÑĢÑı ÑĪÑĤÐµÑĤÑĮ
ĠÐ¿Ð¾Ð³Ð¾ ÑģÑĤÐµ
ĠÐĲÐ· Ð¾Ð½Ð°
ĠÑģÑĮÑĢ Ð´
ĠÑģÑĤÐ¾Ð»ÑĮ Ð½ÑĭÐ¹
ĠÐ¿Ð¾Ð³ÑĢÐµ Ð±Ð°
ĠÐ³ÑĢÑ£ÑĪÑĮ Ð½ÑĭÐ¸ÑħÑĬ
ĠÑĨÐµÑĤÐ²ÐµÑĢ ÑĤÐ¸
ĠÐ½Ð¾Ð³Ð° ÑĤÐ¾
ĠÐºÑ¡ Ð½ÑĮ
ĠÐ¾ÑģÐ° Ð´Ñ£
ĠÐ¾Ð±ÑĭÑģÐº ÐµÑħ
ĠÑĥÐ±Ð¾Ð³ ÑĭÐ¹
ĠÐ¿ÑĢÐ¾Ð· Ð²Ð°
ĠÑ»ÑģÐ¿Ð¾Ð´ Ð¸Ð½Ñĥ
ĠÐ¤Ð¸Ð»Ð¸ Ð¿Ñĥ
ĠÑĩÐ»Ð¾Ð²Ñ£ÐºÑĬ Ð¼ÑĮ
ĠÐ¿ÑĢÐ¸ÑģÑĬ Ð»ÐµÑĪÐ¸
ĠÐ¾ÑģÐ¸ÑĦ Ð¾Ð²Ðµ
ĠÐ¾ÑģÑĤÑĢ Ð¾Ð²Ñ£
ĠÐ½ÐµÐº Ð»Ñİ
ĠÐ²Ñ£ÑĩÑĮ Ð½ÑĭÑı
ĠÑĤÑĢÑ£ Ð±Ñĥ
ĠÐ·Ð°Ð¿Ð¸ ÑģÐºÐµ
ĠÐ¿Ð¾ÑĤÑĬ ÑĪÑĤÐ¸ÑģÑı
ĠÐ¾ÑģÐ¿Ð¾Ð´ Ð¸Ð½Ñĥ
ĠÐļÐ°Ð½ Ð´Ð°
ĠÐĳÐ¾Ñı ÑĪÑĤÐµÐ¸
ĠÑĢÐ°Ð·ÑĥÐ¼Ð¸ Ð²Ð°
ĠÑĥÐºÐ»Ð¾Ð½ Ð¸ÑĤÑĮ
ĠÑħÑĢÑĮ ÑģÑĤÑĮÑı
ĠÐĲÐºÐ¸ ÑĢÑĬ
ĠÐ¢ÑĥÐ³Ð°ÑĢ Ð¸Ð½ÑĬ
ĠÐ·Ð±ÐµÐ¶ Ð¸ÑĤ
ĠÐ¿ÑĤÐ° ÑħÐ°
ĠÐ±ÐµÐ·ÑĥÐ¼ÑĮ Ð½Ð°Ð°Ð³Ð¾
ĠÐ¿ÑĢÑ£Ð·ÑĮ ÑĢÐ¸
ĠÑģÐ°Ð»Ð´Ð° ÑĤÑĥ
ĠÐ¿Ð¾Ð·Ð²Ð° Ð»Ðµ
ĠÐľÐµÐ´ ÐµÐ¸
ĠÐ¼ÑĬÐ» ÑĩÑı
ĠÐŁÑĢÑ£Ð¼ÑĥÐ´ ÑĢÐ¾ÑģÑĤÑĮ
ĠÐ¾Ð²ÑĮ ÑģÐ°
ĠÑĢÐ¾ÑģÐ¿ÑĢÐ°ÑĪÐ¸ Ð²Ð°ÑĤÐ¸
ĠÐ±Ð»Ð¸Ð¶ÑĮ Ð½ÑıÐ°Ð³Ð¾
ĠÐ¡Ð¸Ð¼ Ð±Ð°Ð»
ĠêĻ©Ð½ Ð´ÑĢÑ£
ĠÐ²ÑĬÐ·Ð´ÑĬ ÑħÐ½Ð¸
ÑģÐºÑĬÑĢ Ð±Ð¸
ĠÑĥÐ³ÑĬ Ð»Ð¾ÑĦÑĬ
ĠÑģÐ¸ÑħÐ° Ð¸Ð»ÑĬ
ĠÑĢÐ¸Ñģ ÑĥÐ½
ĠÑģ Ð±Ð¸ÑĢÐ°
ÑģÑĤ Ð°ÑĤÐ¸
ĠÐ¾ Ð»ÐµÐº
Ð¿ Ð°Ð»Ð¾
Ð¾Ð´ Ð¾
ĠÐ´Ð° Ð²Ð°Ð»Ð¸
ÑĢÐµ Ð»Ð¸
ÑĢÐ¸ Ðµ
ĠÐ¾Ñĥ Ð¼ÑĬ
ĠÐ¿Ð¾Ð» ÐºÐ°ÑħÑĬ
ĠÑĸ Ð½
ĠÐ±ÑĢÐ° Ð¶
ÑīÐ° ÑĤÑĮ
ÑĦ ÐµÐ¸
Ð±Ñ£ Ð³Ð°
ĠÐ¿ÐµÑĢ ÐµÐ²Ñ£
ĠÑĤÐ° ÑĦ
ĠÐ²Ð¾Ð· Ð¼Ðµ
ĠÐ±Ñ£ Ð»Ñĥ
ĠÑ¹ ÐºÐ°
ĠÐ²Ð¾Ð» Ñĭ
êĻ¿ Ð½Ð°
ĠÐ¿Ð¾Ð² Ð¸Ð½Ñĥ
ĠÑģÐ¼ ÐµÑĤ
Ð¸Ð»Ð¾ ÑģÑĤÐ¸
ĠÐ´Ñĥ ÑĪÑĮ
ĠÐºÑĢÐ° Ð»
ĠÐ±Ð» Ð¶ÐµÐ½
ĠÐĽ ÐµÐ²ÑĬ
ĠÐ³Ð»Ð°Ð³Ð¾Ð» ÐµÑĪÐ¸
ĠÑģÐ»Ð°Ð² Ð½ÑĭÐ¹
ĠÐ²ÑĬÑģ ÑħÑĭ
ĠÐ¼Ñı ÑģÐ°
ĠÐŀÑĤ Ð¿Ñĥ
ĠÐĸ ÐµÐ½Ñĭ
ĠÐĳÐ¾Ð¶Ð¸ ÐµÑİ
ĠÐ²Ð´ ÑĢÑĥ
ĠÐ³ÑĢÐµ ÐºÐ¸
ĠÐ½Ð°ÑĢÐµ ÑĩÐµÐ½
ĠÐ³ÑĢÑ£Ñħ êĻĳ
ĠÐ½Ð°ÑĢÑı Ð´
ÑĢÐ°Ð· êĻĭÐ¼Ñ£
ĠÐ¿ÑĢÐ¸Ð¼Ñ£ ÑĤÑĥ
ĠÑģÑĢÐµÐ´ Ñĭ
ĠÐ¿Ð¾Ð³Ð¸Ð± ÐµÐ»ÑĮ
ĠÐ¿ÑĢÐµÐ±Ñĭ ÑģÑĤÑĮ
ĠÐ¡Ð²Ñ£ Ð¹
ĠÐ·Ð³ Ð¾Ð¶Ð°
ĠÐ¢Ð¸Ð¼Ð¾ ÑĦÑ£
Ðµ ÑĪÐµ
Ð» ÑĸÑİ
Ð² Ð¾Ð¼êĻĭ
Ð´ ÑĢÑĥ
ÑģÑĤ ÑĢÐ¸
Ð¾Ð² Ð°Ð²ÑĬ
Ð¾Ð² Ð°Ð½ÑĸÐµ
Ð· Ð²
ĠÐ¾ ÑģÐºÐ¾ÑĢ
Ñ§ ÑĤÐ°
ÑĢÐ° Ðº
ĠÑĢ Ð¶
ĠÑĢ Ð¾ÑĤÑĥ
ĠÑĢ Ð¾Ð¶Ð´ÑĮ
ĠÐ» Ð¸ÑģÐ¸
ÑģÐº Ñ£Ð¸
ĠÐ²ÑĬ ÑĤÐ¾ÑĢ
ĠÐ¶Ðµ ÑģÐ»Ñģ
ĠÑģÑĤ ÑĸÐ¸
ĠÐ¿ÑĢÐ¸ ÑģÑĤÑĢÐ°
ĠÐ·Ð° ÑģÑĤÐ°Ð²
Ð´Ð¸ Ð½Ð°Ð³Ð¾
ĠÐ¼Ð¾ Ð¸Ð¼Ð°
ÑĢÑĮ Ð´Ð¸
ĠÑĨÐ°ÑĢ ÑģÑĤÐ²Ð¾Ð²Ð°ÑĤÐ¸
ĠÐ¿ÑĢÑ£ Ñģ
ĠÑģÑĤÑĢÐ° ÑģÑĤ
ĠÐ³Ð¾ÑĢÐ¾Ð´ Ð¸Ñī
ĠÑĨÑĢ ÑģÑĤÐ²
Ð¿Ð° Ð´Ðµ
Ð¿Ð¸ ÑĪÐ°
ĠÐ³ÑĢÐ°Ð¼Ð¾ÑĤ ÐºÑĥ
ĠÑĢÐ¾Ð´ Ð¾Ð¼ÑĬ
ĠÐĳÐ¾Ð³ ÑĮ
ĠÐ»ÑİÐ± Ð¾Ð´Ñ£
ĠÐ»Ñ£ÑĤ Ð¾Ð¼ÑĬ
ĠÐºÑĥÐ¿ ÑĩÐ¸Ñħ
ĠÑģÐ¾ÑĤÐ²Ð¾ÑĢ Ð¸Ð»
ĠÐ±Ð¾ÑıÑĢ Ð¸Ð½ÑĬ
ĠÑł Ð½ÑĬ
ĠÑ£ ÑħÐ°
ĠÐ½Ð°ÐºÐ°Ð· Ð°ÑĤÐ¸
ÑģÑĤÑĢÐ¾ Ñİ
ĠÐ¿ÑĢÐ¾ÑĤÐ¸Ð² Ñ«
ĠÐ´ÑĮÑı Ð²Ð¾Ð»
ĠÐ¿Ð¾Ð´Ð° Ð¸
ĠÐ½ÐµÐ²Ñ£ ÑĢÑĮ
ĠÐ²Ð¾ÑĤÑĩÐ¸Ð½Ð° Ð¼
ĠÐ¾ÑģÐ¸ Ð¿
ĠÐ·Ð¼Ð¸ Ð¸
ĠÑģÑĢÐµÐ´ Ñ£
ĠÑģÑĢÑ£ ÑĤÐµ
ĠÑ¿ÑĤ Ð¾Ð»Ñ£
Ð»ÑĤ Ð°ÑĢÑĮ
ĠÐ½Ñ£Ð¼ ÐµÑĨ
ĠÐ¸Ð½Ð´Ð¸ ÐºÑĤÐ°
ĠÐ¾Ð±ÑĬÑı Ð²Ð¸
ĠÑģÐºÐ¾Ð±Ðµ ÐµÐ²
ĠÐ¿ÑĢÐ¾Ð¸Ð· Ð²Ð¾Ð»
ĠÐ´ÑĬÐ¼Ð¸ÑĤ ÑĢÐ°
ÑĤ ÐµÑģÑ§
ĠÑģ Ð½ÑĮ
ĠÐ¿ Ð°Ð»ÑĬ
Ð´ ÑĸÐµ
ĠÐ² Ð¾Ð¶Ðµ
ĠÐ½ Ð¾Ð²Ð¾Ðµ
ĠÐ± ÐµÐ»Ð¾
ÑĪ ÐµÐ½Ðµ
Ð»Ð¸ ÑĨÑĭ
ĠÐ· Ð²Ð°ÑĤÑĮ
ĠÑĩ ÐµÐ¼ÑĮ
ĠÐ¾ÑĤ ÑĩÐ¸Ð½Ðµ
êĻĹ Ð¸
ĠÑģÐµ ÑĢÐ°
ĠÑģÑĬ Ð±ÑĮÑĢÐ°
Ð¾Ð²Ð° Ð»Ð°
ĠÐ²Ð¾ Ð¸Ð½Ñĥ
ĠÐŁ Ð¾Ð±Ñ£
ĠÐĿ ÐµÐ¼
ĠÐ¿ÑĢÐ¾ ÐµÐµ
ĠÑĢÐ°Ð· Ð³Ð¾ÑĢ
ĠÐ¿ÐµÑĢ ÐµÐ¼Ð¸
ĠÑĤÑ£ Ð»Ð¾Ð¼ÑĬ
Ð´ÑĮ Ðµ
ÐµÐ½Ð¸ ÐµÐ¼ÑĮ
Ð»ÐµÐ½ ÑĹÐµ
ĠÐºÑĢÐ° Ð´ÐµÑĤÑĮ
ĠÑģÑ£ Ð¼ÐµÐ½Ðµ
ĠÐºÑĥ ÑĢÑĮ
ĠÐ¸Ð²Ð°Ð½ Ð¾Ð¼
ÐµÐ»Ñ£ Ð¶Ðµ
ĠÐ½Ð°ÑĪ Ð»Ð¸
ĠÐ³ÑĢÐ¸Ð² Ð½ÑĬ
ĠÑģÐ»Ð° Ð´Ð¾ÑģÑĤÑĮ
ĠÑĦÐµÐ´Ð¾ÑĢ ÑĬ
ĠÐ½Ð°ÐºÐ°Ð· Ð°Ð½ÑĮÐµ
ĠÑģÑĤÐµ ÑĦÐ°Ð½
Ð²Ð¾Ðµ Ð³Ð¾
ĠÐ±ÑĢÐ°ÑĤÐ¸ ÐµÑİ
Ð´Ñ¹ ÑĤÑĬ
ĠÑģÐ¾Ðº ÑĢÐ¾Ð²
ĠÐ¿ÑĢÐµÐ¶ Ð½Ð¸Ð¼
ĠÐ½ÐµÐ½Ð° Ð²Ð¸Ð´Ð¸
ĠÐºÐ½Ð¸Ð³ Ñ£
ĠÑĮ ÑģÑĤÑĮ
ĠÑģÐ¸Ð´ Ð¸ÑĤÑĬ
ĠÑĤÐ°ÑĤÐ°ÑĢ Ð¸Ð½ÑĬ
ÑģÐºêĻĳ Ñ§
ĠÐ¶Ð¸ÑĤÑĮ Ñı
ĠÐºÑĢÐ¾Ð² Ð¾Ð¿
ĠÐĴÐ¸Ð´ Ñı
ĠÐºÐ¾ÑģÑĤÑĢÐ¾Ð¼ ÑģÐºÐ¾Ð¼
ĠÑģÑĬÐ¼ÑĢÑĮ ÑĤÑĮ
ĠÐºÑĢÐ¾ÑĤÑĬ ÐºÑĬ
ĠÐ·ÐµÐ»ÑĮ Ñı
ĠÑĤÑĢÑ¹Ð´ Ð¾Ð²ÑĬ
ĠÐ§ÑĤ Ð¾Ð±Ñĭ
ÑĢ Ð½Ð¾
Ð» ÐµÑĤÐ°
Ð´ Ð¾Ð½
Ð¾Ð² Ð½ÑĭÑħ
Ñĩ ÐºÐµ
Ñĩ Ð½ÑĭÐ¹
Ð¾Ð» ÐµÑĤ
Ð¾Ñģ Ð»Ñĥ
Ð¼Ð¸ Ð½ÑĮ
Ð´Ð° Ð¼
ÐµÐ´ Ð½Ð¾
ĠÐ¾Ñĥ ÑģÑĤÐ°
ÑĢÑĮ Ñĸ
ĠÑĢÐ°Ð· ÑģÑ£
Ð¼Ð° Ð¼ÑĬ
Ð¶Ð° Ñ§
ĠêĻģ ÐµÐ¼ÑĮ
ĠÐ¸Ñħ êĻ¿Ð¶Ðµ
ĠÑģÑĤÑĢÐ° Ð¶
ĠÐ´ÑĢ Ð¾Ð²
ÑģÐºÑĭ ÑħÑĬ
ĠÐ±Ð»Ð°Ð³ Ñĭ
ĠÐ½Ð°ÑĪÐµ Ñİ
Ð½êĻĳ Ð¸ÑħÑĬ
ĠÐ¼Ñ¹ Ð¶ÐµÐ¼ÑĬ
ĠÐ¿Ð¾Ð· Ð¾Ð²
ĠÐ²Ð¾Ð¸Ð½ ÑģÐºÐ¸Ðµ
ĠÑģÐ²Ñı ÑĤÑĬ
ĠÑĢÐ°Ð´ Ð¾Ñĥ
ĠÐ´Ð¾Ð½ ÑģÐºÐ¸Ðµ
ĠÐ¾ÑĤÐ¿Ñĥ ÑģÑĤÐ¸ÑĤÑĮ
ĠÐ²ÐµÐ´ Ð¾Ð¼
ĠÐĶÐ¾Ð± ÑĢ
ĠÑģÑĤÑĢÐ¾ ÐµÐ½Ð¸Ðµ
ĠÑģÐ¾Ð²ÐµÑĢ ÑĪÐ¸ÑĤÐ¸
ĠÑģÐ¸ÑĢ Ð¾ÑĤÑĬ
ĠÑģÐ¸ÑĢ Ð¾ÑĤÑ£
ĠÐºÐ½Ð¸Ð³Ð° Ð¼Ð¸
ĠÑĥÐ¼Ð¸ Ð»Ð¸ÑģÑı
ĠÐ¼ÑĬÐ½Ð¾Ð³ Ñĭ
Ñģ ÐµÐ²
ĠÐ½ Ð¾Ð²ÑĭÑħ
ĠÐ± Ð»Ð¾
ĠÐ± Ð¸ÑĪÐ°
ÑĤÐ¸ ÑĪÐ°
Ñī Ð°Ð»ÑĬ
Ñī ÐµÐ½ÑĮÐµ
ĠÐĺ ÑģÐ°
Ð¾ÑĤ Ð¾Ñĥ
Ð¸Ð½ Ð¾Ð¹
ĠÑģÑĬ Ð±Ñ¡
ĠÑ¿ Ð²
ÑģÑĤÐ¸ Ð½Ð°
ĠÑģÐ» Ð¾
ĠÐ¿Ð¾Ð» ÐºÐ¾Ð²Ð°
ĠÐ¿Ð¾Ð» Ð°ÑĤÐµ
ĠÐ¡ ÐµÐ¹
ÑģÐºÐ° Ð¼Ð¸
ĠÐ´Ðµ Ðº
ĠÐ¿Ð¾ÑĢ Ð¾Ñİ
ÑģÑ£ Ð¼ÑĮ
ĠÑĩÐµÑĢ Ð½ÐµÑĨ
ĠÐ¸Ð½ Ð¾Ðº
ĠÑģÑĭÐ½ êĻĭ
ĠÐ»ÑİÐ± Ñ§
ĠÐ±Ð»Ð°Ð³ ÑĬ
ĠÐ¿Ð» Ñ¡
ĠÐ¿Ð» ÐµÑģ
ĠÐ²Ð¾Ñģ ÑħÐ¾Ð´
ĠÐ´Ð² ÐµÐ¼Ñı
ĠÐ²ÑĭÑģ Ð¾ÐºÐ°
ÑģÑĤÑĢ ÑĸÐ¹
ĠÐ²Ð½Ð¸ Ð·
ĠÐ¿Ð¾Ð´Ð° Ð²Ð°ÑĤÐ¸
ĠÐ¿ÑĢÐ¸ÑģÑĤÑĥÐ¿ Ð¸
ĠÐ³Ð¾ÑĤ Ð¾Ð²Ð¸
ĠÑģÐ½Ð°ÑĢÑı Ð´Ð¾Ð¼ÑĬ
ĠÐ¿ÑĥÑĪÐºÐ°ÑĢ ÐµÐ¼ÑĬ
ĠÑģÑĤÐ°ÑĢÐ¾ÑģÑĤÐ¸ ÑĪÐºÐ¸
ĠÐ´Ð¼Ð¸ÑĤÑĢÐµ Ð¸
ĠÐ·Ð°Ð¼ ÐºÐ½Ñ¹
ĠÐ²ÐµÑĢÑħ Ð¾Ð²ÑĭÐ¼ÑĬ
Ð¿Ð» Ð¾Ð´
ĠÐ½Ð°Ð´Ðµ Ð¶Ð´Ñĥ
ĠÐ¿Ð¾Ð´ÑĮÑı ÑĩÐ¸Ð¼
ĠÐ±ÑĢÐ¾Ñģ Ð°Ð½ÑĸÑİ
ĠÑģÑĤÐ¾ÑĢÐ¾Ð¶Ðµ Ð²Ð¾Ð¹
ĠÐ¿Ñ§ ÑĤÐ°
ĠÐĴÐ¾ÐµÐ² Ð¾Ð´Ñ£
ĠÐ»ÐµÐ¾Ð½ Ð¸Ð´Ðµ
ĠÐ¾ÑĤÐ¿ÑĥÑģÐº Ð½ÑĭÐµ
Ð½ÑĥÑĤÑĮ ÐµÐ¼
ĠÐ°ÑĢÑħÐ¸Ð¼Ð°Ð½Ð´ÑĢ Ð¸ÑĤÑĥ
ĠÐ¿Ð¾ÑģÑĢÑ£ Ð´Ñ£
ĠÐ¿Ð¾Ð¿ÑĢÐ°Ð² ÐµÐ½Ð¾
ĠÑģÐ»Ð°Ð²Ð¾ ÑģÐ»Ð¾Ð²
Ġv ini
ĠÑģÑĤÑ£Ð½Ð¾Ð± Ð¸ÑĤ
Ð½ ÐºÐ¸
ĠÐ¸ Ð´Ñ£
Ð³ ÑĢ
Ð· ÐµÐ¼ÑĬ
ÐµÐ½ ÐºÐµ
Ð²Ð° ÑħÑĥ
ÐºÐ° Ð»Ð¸
ĠÐ´Ð° Ð´Ð¸ÑĤÐµ
ĠÑ¿ Ð²ÑĢÑĬ
ĠÑ¿ Ð¸Ð´Ð¾ÑĪÐ°
ĠÐ²Ñ£ Ð½ÐµÑĨÑĬ
ĠÑĸ Ð·ÑĬ
ĠÑĢÐ°Ð· Ñ¹Ð¼Ñ£
ÑīÐ¸ Ð¸Ð¼ÑĬ
ĠÐ¿ÐµÑĢ Ñģ
ĠÐ²Ð¸ Ð´ÐµÑĤÑĮ
ĠÑģÐº Ð°ÑĢ
Ñ³ ÐµÐ¸
ĠÑĢÐ¾Ð´ Ð¸ÑĤÐ¸
ĠÐ¾Ð½ Ð´ÑĢÑİ
ĠÑĢÑ£ ÐºÑ£
ĠÐ¿Ð¾Ð± Ð¸ÑĤÐ¸
ĠÐ¿Ð¾Ð¶ Ð°ÑĢ
ĠÑģÐ¸Ð» Ð½Ð°Ð³Ð¾
ĠÐºÐ°Ð· Ð½Ñ£
ĠÐ¶Ð¸Ð²Ð¾ ÑĤÑĥ
ĠÐ±ÑĢÐ°ÑĤ ÑĸÑİ
ĠÐ¼Ð°ÑĤ ÑĦÐµ
ĠÐ¡ÑĤ Ð°Ð»ÑĬ
ĠÐ¿Ð°Ð¼ ÑıÑĤ
ĠÐ´Ð°ÑĢ Ð¾Ð¼ÑĬ
ĠÑģÐ½Ð° Ð±
ĠÐ½Ð°Ð¿Ð¸ÑģÐ° ÑħÑĬ
ĠÐ³ÑĢÐµ ÑĩÑĮ
ÑģÐ² ÑıÑĤ
ĠÑģÐ¾Ð½ Ð¼ÑĬ
ĠÐ²Ð¾Ð»ÑĮ Ð½Ð¾
ĠÐ±Ð»Ð°Ð³Ð¾Ð´Ñ£ ÑĤÐ¸
ĠÐ¿ÑĢÐµÐ´Ñ£ Ð»ÑĬ
ĠÐ½Ð¸ÐºÐ¾ÑĤÐ¾ÑĢ ÑĭÐ¼Ð¸
ĠÐ³ÐµÑĢÐ° ÑģÐ¸Ð¼Ð°
ĠÐ¿Ð¾Ð¼Ð¸Ð»Ñĥ Ð¹
ĠÑĢÐ°Ð³ Ð¾Ð·
ĠÐºÑ¡Ð½ÑģÑĤÐ°Ð½ ÑĤÑĸ
ĠÑģêĻĭÐ± Ð±Ñ¡
Ð´Ñ¡Ð½Ð° Ñĸ
Ðµ Ñĸ
ĠÐ´ Ð½Ð¸Ð¸
Ð³ Ð°ÑĤÑĥ
ĠÐ± Ð¾ÑĢÐ¾Ð´
ĠÐ¼ Ð¾Ð²
ĠÐ½Ð° ÑĩÐµ
ÐµÐ½ êĻĭ
ĠÑģÑĤ Ñı
ĠÑģÑĤ ÑĢêĻĭ
Ð´Ð° Ð½Ð¸Ñı
ĠÐ¶ Ð¾
ĠÑĤÐ¾ ÑĩÑĸÑİ
Ð²Ñ£ ÑĤÑĮ
Ð´Ñ£ Ð»Ð¸
ĠêĻĹ ÐºÑ¡
ÑĩÐ° Ð¼Ð¸
ÑĩÐ° ÑĪÐ°
ĠÑĨÐ°ÑĢ ÐµÐ¼
ĠÐ³ÑĢÐ° Ð´ÑĮ
Ð¼Ñ£ Ð¸
ĠêĻģ Ð°Ð²Ð¸
ÑıÑĤ ÑĨÐ°
ĠÐºÐ¾ÑĢ ÐµÐ½Ðµ
ĠÐ·Ð°Ð¿ ÑĢÑ£
ĠÐ·Ð°Ð¿ Ð°Ð»Ð¸
ĠÐ²ÐµÐ»Ð¸Ðº Ð¾Ð¼êĻĭ
ĠÐ¿Ð¾Ð² Ð¾ÑĢÐ¾ÑĤ
ĠÐ¿Ð¾Ð³ Ð¾Ð²Ð¾ÑĢ
ĠÑķ Ð»Ð°Ñ§
ĠÐ¿Ð»Ð° ÑĤÑ§
Ð±ÑĢÐ° Ð½Ð¾
ĠÐ¸Ð¼Ñ£ Ð»Ð¸
Ð¸ÑĤÐ° ÑĤÑĮ
ÑģÐºÑĭ Ð¼ÑĮ
ÑģÐºÑĭ Ð¸ÑħÑĬ
ĠÐ³Ð» êĻĭ
ĠÐ¿ÑĢÐ¸ÑĪ Ð»Ð¾
ĠÐ§ ÐµÐ»
ĠÑĢÑĭ Ð±Ñĥ
ĠÐ¿Ð» Ð¾ÑĤÐ¾
ĠÐ¿Ð¾Ð· Ð°Ð´Ð¸
ĠÑĩÑĮ ÑĢÑĮ
ĠÐ¶Ð¸Ð² ÑıÑĪÐµ
ĠÑĤÐ¾Ð» Ð¼Ð°
ĠÐ½Ð± ÑģÑĮ
ĠÐ´ÐµÐ² Ð»ÐµÑĤ
ĠÐ¼Ð°Ð½Ð°ÑģÑĤÑĭ ÑĢÑ§
ĠÐ½ÐµÐ´ÑĢÑĥ Ð³ÑĬ
ĠÐŁÐµÑĤ ÑĢÑĥ
ĠÑ¡Ð±ÑĢÐ° ÑĤÐ¸
ĠÑĤêĻĭ ÐºÐ°
ĠÐ¾Ð±Ñ£ Ð¸ÑħÑĬ
ĠÐ¿Ð¾Ð³Ð° Ð½ÑĭÑı
ĠÐ±Ñ§ ÑħÑ¹
ĠÐ¿ÑĢÐ¾ÑĪ Ð»Ð¾Ð¼
ĠÐ¸Ðº Ð¾Ð½Ñĭ
ĠÐ¼Ð¸ÐºÑĥ Ð»Ð¸
ĠÑĤÑĢÑ¹ Ð´Ñĭ
ĠÐ¿ÑĢÐ°Ð²ÑĮÐ´ÑĮ Ð½Ð°Ð°Ð³Ð¾
Ð³Ð½Ñĥ ÑĤÐ¸
ĠÐºÐ½ÑıÐ³Ð¸Ð½ Ñİ
ĠÐ¿ÑĢÐ¾ÑģÐ²Ñ£ ÑĤÐ¸
Ðµ ÑĩÐ°Ð»Ð¸
ÑĢ Ð¾Ð²Ð¾
Ñģ Ð¼Ñĭ
ÑĬ Ð¼ÑĮ
ĠÑģ Ð½Ñ§
Ðº ÑĪÐµ
Ð´ ÑĸÐ¸
ĠÐ´ Ð¾Ð¶Ð´ÑĮ
ĠÐ¿Ð¾ Ñ¹
ÑģÐº Ñĸ
ĠÐ²ÑĬ ÑģÑĬ
ĠÐ´Ð° Ðµ
ĠÐ´Ð° ÑģÑĤÐµ
ÑĥÐ´ Ðµ
ÑģÑĤÑĮ Ð²
êĻĹ Ð½
ĠÐ½Ð¸ ÐºÐ¸ÑĦ
Ñ¡ ÐºÑĬ
ĠÐ±Ñĭ ÑģÑĤÐ°
ĠÐ²Ð¾ Ñı
ĠÐ»Ñİ ÑĤÐ¾
ĠÐ¾Ñĥ Ð±Ð¸ÑĪÐ°
ÑģÐ¸ Ð¼ÑĬ
ĠÐŀ Ðº
ĠÐ²ÑģÐµ Ð²Ð¾
ĠÑĢÐ°Ð· Ñ¹
ĠÐ¿Ð¾Ð¼ ÐµÑĤ
ĠÐºÐ¾ÑĢ Ð¼Ñĥ
ĠÑİ ÑĢÐºÐ°
ĠÐ¼Ð° Ñ¯
ĠÐ¸Ð½Ð¾ Ð¸
ĠÐºÐ°Ð¼ ÐµÐ½Ð¸Ðµ
ĠÐºÐ½Ñ§ Ð¶Ð¸
ĠÐºÐ½Ñ§ Ð¶Ð°
ĠÐ²Ð°ÑģÐ¸Ð»ÑĮ ÐµÐ²ÑĬ
ÑĪÐµÐ½ ÑĸÐµÐ¼ÑĬ
ĠÑ£ Ð´ÐµÑĤÑĬ
ĠÐ±êĻĭÐ´ ÐµÑĤÐµ
ĠÐ²Ð°ÑĢ Ð¸ÑĤ
ĠÐ´êĻĭ ÑħÑĬ
ÐµÐ»Ð° Ñı
ĠÐ»Ñ¹ ÐºÐ°Ð²
ĠÐ²Ñ£Ð´ Ð¾Ð¼Ð°
ĠÑħÐ²Ð° Ð»Ñĥ
ĠÐ¸Ð²Ð°Ð½Ð¾Ð²Ð¸Ñĩ Ñĥ
ĠÑĤÑĢÐ¾Ð¸ ÑĨÐµ
ĠÑĢÐ°Ð·êĻĭ Ð¼
ÑĤÑĢÐ¾ Ðµ
ĠÐ´Ð»Ð¸ Ð½Ð¾Ñİ
ĠÑĩÑİÐ¶Ðµ Ð·ÐµÐ¼
ĠÐ¼Ð¾Ð¶ Ð°ÑĪÐµ
ÑĪ Ð½ÑıÐ³Ð¾
Ð¾Ð² ÑĥÑİ
ÑĤÐ¸ Ñı
Ð¾Ð» Ð½Ðµ
ĠÐ° ÑĩÐµ
ÐµÐ½ Ð¾Ð²
Ñī Ð°ÑĤ
Ð²Ð° Ð¸ÑĤÐµ
ĠÐĲ Ð»Ð¸
ĠÑĢÐ° Ð±Ðµ
Ð¸Ð¼ êĻ¿
Ð½Ñ£ Ð¼
ĠêĻĹ Ð·Ð¸
ÑĩÐ° Ñħ
ĠÐ¿Ð¾Ð´ Ðº
ĠÐ¿Ð¾Ð´ Ð´Ð°Ð½
ĠÑĨÐ°ÑĢ ÐµÐ²Ð¾
ĠÐ¢ Ð¾Ð¶Ðµ
Ð¼Ñ£ ÑħÑĬ
ÑīÐ° ÑİÑĤ
ĠÑĤÐ° Ð¸Ð½Ð°
Ð¼Ð° ÑĪÐ¸
ĠÐ±Ñ£ Ð³Ð°ÑĤÐ¸
Ð»ÐµÐ½ Ð¾Ðµ
ĠÐ²ÐµÐ»Ð¸Ðº ÑĭÑħ
ĠÐºÑĢÐ° Ð»Ñı
ĠÑ§ ÑĢ
ĠÑģÑ£ Ð¼ÑĬ
Ð¼ÐµÐ½ ÐµÐ¼ÑĬ
Ð¸Ð½Ðµ Ð¸
ĠÐ½ÐµÐ¿ Ð¾Ð²Ð°
ĠÐ¿Ð¾Ð²ÐµÐ»Ñ£ Ð»ÑĬ
Ð¶Ð´Ðµ Ð½Ð¸
ĠÑĤÐ¾ÑĢ Ð¶Ðµ
ĠÐ´Ð² Ð´ÑĬ
ĠÑģÑ« ÑīÐ°
ĠÑĢÐ°Ð± Ð¾Ñĥ
ĠÐ½Ð°Ð¿Ð¸ÑģÐ° Ð½Ð°
ĠÑģÑĤÐ°ÑĤÑĮ ÑıÐ¼ÑĬ
ĠÐ¿ÑĢÐ¸ÑģÐ»Ð° ÑĤÑĮ
ĠÐ¼ÑĮÑģÑĤÐ¸ ÑģÐ»Ð°Ð²Ð°
ĠÐ²ÑĬÑģÐµ Ð¸
ĠÐ¿Ñ¡ Ð±
ĠÑģÐºÐ°Ð·Ð° ÑĪÐ°
ĠÐ²Ð¾ÑģÑĤ Ð¾ÐºÑĬ
ĠÐ²Ð¾Ð·Ð»ÑİÐ±Ð»ÐµÐ½ Ð½Ð°Ñı
ĠÐ´Ð°Ð²Ñĭ Ð´
ĠÑĸÐ²Ð° Ð½Ñĥ
ĠÐ³ÑĢÐ¸Ð²ÐµÐ½ ÐºÐ¸
ÑħÐ¾Ð¶Ð´Ð° ÑĪÐµ
ĠÐ²ÑĬÐ¿ÑĢÐ¾Ñģ Ð¸
ÑĪ Ð»Ð¾
Ñħ Ð¾Ð²Ð¾
ĠÐ¼ Ð½Ñı
ĠÑĥ Ð»ÑĮ
ĠÐ´Ð° Ð½Ñĸ
ĠÐĺ Ð³Ð½Ð°
ÐµÐ² ÑģÐºÑĸÐ¹
Ð´Ð° Ñı
ÐµÐ»Ð¸ ÑĤÐ¸
ĠÐ¡ ÐµÐ¼ÐµÐ½
ĠÐ¿Ð¾Ð´ Ð¾
ĠÐ²Ñ£ Ðº
ĠÑĸ Ð¾
ĠÐ²Ð¸ Ð½Ð¸ÑĤÐ¸
ĠÑģÐ¾ ÑĨ
ĠÐĵ Ð¾Ð¹
ĠÐºÐ¾ÑĢ Ð¾Ð¼
ĠÑģÐº Ð¾Ð»
ĠÐ¿Ð¾ÑĢ ÑĤÑĭ
ĠÐ¿Ð¸Ñģ ÑĨÐ¾Ð²
ĠÑ» ÑĤÐ¸
ĠÐ¼Ð° Ñı
ĠÑģÑĥÐ´ Ð½ÑĭÑħ
ĠÐ³Ð¾ÑģÐ¿Ð¾Ð´ Ð¸Ð½êĻĭ
ĠÑģÑĤÐ¾ Ñ§ÑĤÐ¸
ĠÐĿÐ° ÐºÐ°Ð·
ĠÐºÑĥÐ¿ Ð¸ÑĤ
Ð³Ð¾Ð´ ÑĮ
ĠÐ¸ÑģÑĤ ÐµÑĢ
ĠÐ¾Ð¿ ÑĬ
ĠÐ±êĻĳ Ð»Ðµ
ĠÐ¿Ñ£ ÑĪ
ĠÑĤÐ°Ð¼ Ð¾Ð¶
ĠÑĢÐ¾Ñģ Ð¿Ð¸ÑģÑĮ
ĠÑĢÐ°êĻģ Ñ«
ĠÐ¿Ð¾ÑģÐ»Ñĥ ÑĪÐ°ÑĤÐ¸
ĠÐ½ÐµÐ±ÐµÑģ Ð½ÑĭÑħ
ĠÐ¿Ð¾ÑģÐ°Ð´ Ð½Ð¸ÐºÐ¸
ĠÐ¶Ð¸ÑĤ ÐµÐ¹
ĠÐ·Ð°Ð¿Ð¸Ñģ ÐµÐ¹
ĠÐ¿ÑĢÐ¸ÑģÑĤÐ°Ð² Ð½Ð¾Ð¹
ĠÑģÐµÐ¼ÐµÐ½ Ñĥ
ĠÐºÑĢÐµÐ¿ ÐºÐ¾Ð¹
ĠÐ¼Ð¾Ð»Ð¾Ð´ ÐµÑĨÑĮ
Ð»ÐµÐ½Ð¸ ÐµÐ¼
ĠÑĨÑĮ ÑĤÐ¾
ĠÐ³ÑĥÐ± Ð½ÑĭÑħ
ĠÐ²Ð¾ÑĢÐ¾Ð² ÑģÑĤÐ²Ð¾Ð¼
ĠÐ¿ÑĢÐ¾ÑĢÐ¾ ÑĨÐ¸
ĠÐ¾Ð±Ð¾ Ð¸ÑħÑĬ
ĠÐ¿Ð°ÑĪÐµÐ½ Ð½Ð¾Ñİ
ĠÐºÐ»ÐµÐ²ÐµÑĤ Ñĭ
ĠÑĥÐ±Ð¾Ð¹ ÑĨÐ°
ĠÑĨÐ¾Ð» Ð¾Ð¼ÑĬ
ĠÐ¤Ð¸Ð» Ð¾Ð½
ĠÐŀÐ»Ðµ ÑĪÐ°
ĠÑģÑĬÐ¼ÑĢÑĮ ÑĤÐ¸
Ð´ÑĮÑĢ Ð¶
ĠÐŁÐ¾Ð»ÐºÐ° Ð½ÑĬ
ĠÐ²Ð°Ð²ÑµÐ»Ñ¡ Ð½
ĠÑĢÑĥÐ· ÑģÐºÐ¾Ð¼
ĠÐŁÐ¾Ð¼ÐµÑģÑĤ Ð½Ð¾Ð¼
ĠÐļÐ¸ÐµÐ² Ð»Ñı
ĠÐ²ÑĤÐµ Ð¿Ð¾ÑĢÑĭ
ĠÐĲÐ¿ÑĢÐ° ÐºÑģ
ĠÐ½ÐµÐ¿Ð¾Ð²Ð° Ð´Ð½Ð¾
Ð¸ Ð°
ÑĤ ÐµÐ»Ðµ
Ñģ Ð¸Ð»
ĠÐ¸ Ñ¡
ÑĮ ÐºÐ°
Ð¾Ð² Ð½Ð°Ð³Ð¾
ĠÑĩ Ð¾ÑĥÐ´
ĠÐ²Ñģ Ð¸Ñħ
ÑĪÐ¸ ÑĪÐ°
ĠÑı Ðº
êĻĳ Ð¸ÑħÑĬ
Ð´Ñ£ Ð»
ĠÐ²ÐµÐ»Ð¸ ÑĤÑĮ
Ñ¥ Ð¶Ðµ
ĠÑģÐ¸ Ð»Ð¸
ĠÐļ Ð¾ÑĢ
ĠÐ¿ÐµÑĢ ÐµÑħ
ĠÐ²Ð¾Ð· Ð¾Ð¿
ĠÐ±Ñ£ Ð¶Ð¸ÑĤÑĮ
ĠÐ¿ÑĢÑ£ Ð³ÑĢÑ£
ĠÐ²Ð°Ñģ Ð¸
Ð¶ÑĮ Ñı
ĠÑ§ Ð²Ð»Ñ§
ÑĤÑĭ Ñ§
ĠÐ±Ð¾Ð» ÑĬ
ĠÐ¼Ñĭ ÑĤÐ°
ĠÐ¿Ð¾Ð± Ð¾ÑĢ
ÑĢÐ¾Ðº Ð¸
ĠÐ¿ÑĢÐ¸ÐºÐ°Ð· ÑīÐ¸Ðº
ĠÐ¶Ð¸Ð²Ð¾ ÑĤÐ¸Ð½Ñĭ
ĠÐ±Ð¾ÑıÑĢ ÑģÐºÐ¸Ð¼Ð¸
Ð¾Ð²Ð¸Ñĩ Ñı
ÑĤÐ² Ñ«
ĠÐºÐ¸ ÑĢÐ¸Ð»Ð°
ĠÑĤÐ¾Ð» Ð¾Ðº
ĠÐ¦ Ñ£
ĠÐ²Ð¾Ð¸ Ð²Ð¾Ð´Ð°
ĠÐºÐ»Ð° Ð´Ñ§
ĠÐ¡Ñĭ Ð½ÑĬ
ĠÑģÑĬÐ± Ð»Ð°Ð·
ĠÑĤÐ²ÐµÑĢ Ð´ÑĮ
ĠÐ±ÑĭÐ² ÑĪÐ°
ĠÑ¿ÑĤ êĻĭÐ´êĻĭ
ĠÐ±Ð¾Ð± ÑĢ
Ð½Ð¾Ñģ Ð¸ÑĤÑĬ
ĠÐ²Ð´Ð¾Ð²Ð° Ð¼
ĠÐ½Ð°ÑģÐ¸Ð»ÑĮ ÑģÑĤÐ²Ð¾
ĠÐ¿Ð¾ÑīÐ° Ð´Ñĭ
ĠÑħÐ¾ÑīÐµ ÑĪÑĮ
ĠÐ»Ð¸Ð¿ÑģÐ²Ð° ÑģÐ»Ñģ
ĠÐĵÑĢÐ¸ Ð³Ð¾ÑĢ
ĠÑģÐ¾ÑģêĻĭ Ð´Ñĭ
ĠÐ²Ð¾ÑģÑĤÐ¾Ðº Ñĥ
ĠÑģ ÑģÑ¹
Ð¼ â¸¯
ÑĪ Ð½ÑĭÑħ
Ð· Ð°Ð½ÑĮ
ĠÑĢ Ð¸Ð¼ÑĬ
ĠÑĢ Ð¶Ð°Ð½
Ð²Ð° Ð½Ðµ
ĠÐ²ÑĬ ÑģÐºÐ¾ÑĢ
ĠÐĺ Ð´Ð¸
Ð¶Ðµ Ð½Ñĥ
ĠÐ·Ð° Ð¼ÑĬ
ĠÐ·Ð° Ð±Ð»
ÑĢÐµ Ñı
ĠÐŁ Ð°ÑĤ
ĠÐŁ Ð¾ÑģÑĤ
ĠÐ¡ ÑĸÑ§
ĠÐ¿ÑĢÐ¾ ÑĪêĻĭ
ĠÑĨÐ°ÑĢ ÑģÑĤÐ²Ðµ
ĠÑĶ ÑģÐ¸
ĠÐ²Ñĭ ÑĢÑĥ
ĠÐ²Ñĭ Ð±ÑĢÐ°
ĠÐ³Ð¾ÑģÑĥÐ´Ð°ÑĢ ÐµÐ²ÑĬ
ÑĦ ÐµÑİ
ÑĨÐ¸ Ð½Ð¸
Ð½Ñ§ Ð½ÑĬ
Ð²ÑĮ Ð½Ð¾
ĠÐ¿Ð° ÑģÑĤÑĥ
ÑĶ Ñģ
ĠÑģÐ¾Ð± ÑĢÐ°Ð½
ĠÑģÑĤÐ¾ ÑıÑĪÐµ
ĠÐ±ÐµÑģ ÑĩÐ¸Ð½
ÑĪÑĤ êĻĻ
ĠÐ²Ð¾Ð´ Ðµ
ĠÑī Ð¾ÑĤÐ¾
ÑİÑī Ñĸ
ĠÐ¾Ð´ Ð½Ñĥ
ĠÑĥÐ± Ð¸Ð»
ĠÐ²ÑĭÑģ Ð¾ÐºÑĬ
ĠÐ¿Ð°ÑĤÑĢÐ¸Ð°ÑĢ ÑĪÐ°
ĠÑģÑĤÑ£ Ð½Ñĥ
ĠÑİÑĢÑĮ ÐµÐ²Ð°
ĠÑĥÐ· ÑĢÑ£
ĠÐ¢Ð°Ðº Ð¾Ð²Ð°
ĠÐ¾Ð±ÑĢÐ°Ð· Ð¾Ð¼
ĠÐ´Ð¾Ðº Ð¾Ð½
Ġ9 0
ĠÑĪÐ¸ÑĢÐ¾Ðº Ð¸
ĠÐ²ÐµÐ½ ÑĸÐ°Ð¼
ĠÑģÐ¿Ð° ÑģÐºÐ¾Ð³Ð¾
ĠÐ±ÐµÑĢÐµÐ¶Ðµ Ð½ÑĮÑı
ĠÐĿÐ¾Ð² Ð³Ð¾ÑĢÐ¾Ð´
ĠÐ±ÐµÑģÐµÑĢ Ð¼ÐµÐ½ÑĮ
ĠÐ²Ð¸ÑĤÐµÐ· ÑĮ
ĠÑģÐ²Ð¸Ð½ÑĮ Ð¸
? âĢĿ
ÑĢ êĻ¿
Ð² ÐµÐ½Ð°
ĠÐ¸ Ð´Ð¾Ñĥ
ĠÐ² ÑĪÐµÐ´ÑĬ
ĠÐ¼ ÐµÑĢÐµ
Ð· êĻĳ
ĠÐ¾ Ð¿Ð°
ĠÐ½Ðµ ÑĦ
ĠÐ° ÑģÐ°
ĠÐ° ÑĦÐ°Ð½Ð°
ĠÐ· Ñĭ
ĠÐ· ÑıÑĤÑĮ
ĠÐµ Ð½
ĠÐµ ÑĤÑĭ
Ð¾Ð³ ÑĮ
ĠÐ¶Ðµ Ð½Ð¾Ñĥ
ĠÐ´Ð° ÑĩÐ¸
Ð½Ð¾ ÑģÑı
êĻģ ÐµÐ¼
ÑĩÐ¸ ÑĪÐ°
ĠÐ¶ Ð¸Ð»ÑĬ
ĠÐ¿Ð¾Ð» Ð½Ð¾
ĠÐ¼Ð¾ ÑĪÑĤÐ¸
ĠÐ¸Ð· Ð¸
ĠÐ¾Ð± ÑĢÑĥ
ĠÐºÑĬ ÑĢ
ĠÐ´Ñ£ Ð»Ð¾Ð¼
ĠÐļ Ð»Ñİ
ĠÑ¹ Ð²Ñ£
ĠÐķ Ð´
ĠÐ·Ð°Ð¿ ÑĢ
ÑģÑ£ Ð¸
ĠÑģÑĥÐ´ Ñĭ
ÑĨÑĮ ÐºÐ°
ĠÐ³Ð¾ÑģÐ¿Ð¾Ð´ Ð°ÑĢ
ĠÐ¼Ð°Ð» Ð¾Ð¼
ĠÐ¿ÑĢÐ¸ÐºÐ°Ð· Ð°ÑĤÐ¸
ĠÐ±êĻĳ Ð»Ð°
ĠÑģÐ¼ÐµÑĢ Ð´ÑĬ
Ð¸ÑĤÐµÐ» ÐµÐ¼ÑĬ
ĠÐ¿Ð¸ÑģÐ° Ð½Ð¸Ñİ
ĠÑĪÐµ ÑģÑĤÑĭ
ĠÐ¿Ð¾Ñħ Ð¾ÑĤÑ£
ĠÐ²ÑĢÐµÐ¼Ñı Ð½Ð¸
Ð¾Ð»Ð¾ ÑĪ
ĠÐŀÑĤ ÑĨÑĥ
ĠÐ²ÐµÐ´ Ñĥ
ĠÐ¾ÑģÑĤÐ°Ð² Ð¸ÑĤÐ¸
ĠÐ¼ÐµÐ´ Ð²ÐµÐ´
ĠÑĤÐ¾Ð»Ð¸ ÑĨÑ£
ĠÑĢÑı Ð´Ð¾Ð²
ÑģÑĤÑ« Ð¿Ð¸
ĠÐ¿Ð¾Ð¸Ð¼Ð° ÑİÑĤÑģÑı
ĠÐ°Ð»ÐµÑ¯ Ñ£
ĠÑģÐ¾Ð´ÐµÑĢ Ð¶Ð°ÑĤÐ¸
ĠÐ²Ð½ Ð¾Ð²ÑĮ
ĠÐļÐ½Ñ§ Ð·ÑĮ
ĠÐ¶Ð°Ð»Ð¾ÑģÑĤ Ð½Ð¾
ĠÑģ Ð°Ð½ÑĬ
Ðº Ð¾Ð²Ñĭ
Ñı ÑĤÐ°
ĠÑĤ êĻĹ
Ð³ Ð´Ðµ
ĠÐ± Ð¾Ð»Ð¸
ĠÐ½Ðµ ÑģÐ¸
ĠÐµ Ñ³Ð¸Ð¼
ĠÐµ ÑħÐ°Ð»
ÐµÐ½ Ð½Ð°Ð³Ð¾
Ð½Ð° Ñ³
ĠÐ´Ð° Ð»Ñ£
ĠÐ´Ð° ÑĩÑĮ
ĠÐ¾ÑĤ ÑģÑĤÑĥÐ¿
ÑģÑĤÐ¸ Ð²ÑĬ
Ð»Ðµ ÑĨ
ĠÐºÐ° ÐºÐ°Ñ§
ĠÐºÐ¾ ÑĤÑĮ
ĠÐ»Ð¸ ÑģÑĤÑĭ
ĠÑĪ êĻĭ
ĠÑĢÐ°Ð· ÑĢÑĭ
ĠÐľ ÐµÐ½Ðµ
Ð³Ð° Ð»Ð°
ÑģÑĤÐ² ÑĸÐ°
ĠÑĦ Ð¸Ð»Ð¾
ĠÑ¹ Ðº
ĠÐ½Ð¾ ÑĩÑĮÑİ
ĠÑģÑĤÐ°ÑĢ ÑĮ
ĠÐ²Ð· Ð¸ÑĢÐ°
ĠÐ³ÑĢÐ°Ð¼Ð¾ÑĤ êĻĭ
ĠÐ¿Ð¾Ð¿ Ð¾Ð»
ĠÑĩÐµÑĢ ÑĤÐ¾Ñİ
ĠÑģÐµÐ¼ ÐµÐ¸
ĠÐ½Ð°ÑĪ ÐµÐ¼
ĠÐ½Ð°ÑĪ ÐµÐ¼ÑĮ
ĠÑħÐ¾Ð´ Ð¸ÑĤÑĬ
ĠÐ¶Ð¸Ð²Ð¾ ÑĤÐ¸Ð½Ðµ
ĠÑĤÑı Ð³Ð»Ð¾
ÑĢÑ£Ð¿ ÐºÐ¾
ĠÑģÐ²ÑıÑĤ ÑĭÐ¼
ĠÑģÑĤÐµ ÑĦÐ°Ð½Ð°
ĠÐ¿ÑĢÐ¸ÑħÐ¾Ð´ Ð¸ÑĤÑĬ
ĠÐ¼Ð¾ÑģÐºÐ¾Ð² ÑģÐºÐ¸Ðµ
ĠÐ´ÑĮÑı ÐºÐ¾Ð½
ĠÐ½Ð¾Ñģ ÑĬ
ĠÑĸÑ¡ Ð°Ð½ÑĬ
ĠÐºÐ°ÑĢÐ° Ð±
ĠÑħÐ»ÐµÐ± Ð¾Ð¼
ĠÐ¿Ð°ÑĪ Ð½ÐµÑİ
ĠÐ»Ð¾ ÑĪÐµÐ´
ĠÐ½ÐµÐ²Ð¸Ð´Ð¸ Ð¼Ñĭ
ĠÐºÐ¾Ð±Ñĭ Ð»
ĠÐĲÐ´Ð° Ð¼
ĠÐľÐ½Ð¾Ð³ Ñĭ
ĠÐ²Ð½ÑĥÑĤ ÑĢÐ¸
ĠÐ½Ð¸Ð³ Ð´Ñ£
ÑĢ ÑĤÐ°
Ñģ Ð½ÑĬ
ĠÐ¸ Ð¸
ĠÐ¸ Ð²Ð¾Ð»
Ð´ Ð²
ĠÐº Ð»ÐµÐ¿
Ð³ Ð»Ð°Ð²
ĠÐ± ÐµÐ»Ñı
ÑĪ ÑĶ
Ñİ Ñİ
Ñĩ Ð½Ð¾Ð¼Ñĥ
Ð± Ð»Ð°Ð³
Ð¾Ð¼ êĻĳ
ÐµÐ½ Ð½Ð¸ÑĩÐµ
Ð½Ð¾ ÑģÑĤ
Ð¾Ñģ Ñ§
ĠÐ¿ÑĢÐ¸ Ð´Ð¸
ĠÐ¿ÑĢÐ¸ Ð¼Ð¾Ð»
Ð¼Ð¸ Ñı
ĠÐ¾ÑĤ Ð¿Ð¸ÑģÐ°ÑĤÑĮ
Ð¸Ð» êĻĭ
ĠÑģÑĬ Ð½ÑĬ
ĠÐ¾Ð± Ð»Ð¾Ð¶Ðµ
ĠÐĶ Ð°Ð²Ñĭ
ÑīÐ° êĻĹ
ĠÐ¿ÑĢÐµ Ð¸Ð´Ðµ
ĠêĻģ Ð¾Ð²
ĠÐ±Ð¾Ð³ Ð¸
ĠÐ¿Ð¸Ñģ ÑĨÐ¾Ð²ÑĭÐ¼
ĠÑģÐ¾Ð± Ð°ÐºÐ¸
ĠÐ¿Ð»Ð° ÑĩÐµÐ¼ÑĬ
ĠÐ±Ð¾Ð» Ð¾ÑĤÐ°
ĠÑħÐ¾ ÑĨÑĮ
ĠÐ¸ÑģÐ¿ Ð»ÑĮ
ĠÐ»ÑİÐ± Ð¾Ð²ÑĬ
ĠÐ»Ñĥ ÐºÑĥ
ĠÑħÐ¾Ð»Ð¾Ð¿ ÑģÑĤÐ²Ð°
ĠÑī ÐµÑĤ
ĠÑī ÐµÐ´ÑĢ
ĠÐ°ÑĢ ÑĤÐµÐ¼
ĠÑģÐ»ÑĥÐ¶ Ð±Ñ£
ĠÐ½Ð°Ñĩ Ñ§
ĠÐ¼Ð¸Ð»Ð¾ÑģÑĤÐ¸ Ð²Ð°Ñı
ĠÑĤêĻĳ ÑģÑ§
ĠÐ³Ñĥ Ð»Ñı
ĠêĻģÐµÐ¼ Ñ§
ĠÐ±Ð¾Ð³Ð°ÑĤ ÑģÑĤÐ²Ð¾
Ġâģ ĸ
ĠÐ²Ð¾Ð»Ð¾ÑģÑĤ ÐµÐ¹
ĠÑĤÑİÑĢ Ð¼Ðµ
ĠÑĨÐµÑĢÐºÐ¾Ð² Ð½ÑĭÐµ
ĠÐ¿Ð¾Ð¸Ð¼Ð° Ð»Ð¸
ĠÑĨÑģ ÑĢ
ĠÑħÐ°ÑĢ Ð¸ÑĤ
ĠÐ·Ð°Ð¼Ñĥ Ð¶
ĠÐ¿ÑĤÐµÐ½ ÑĨÐ°
ĠÐŁÐ°Ð² ÐµÐ»ÑĬ
ĠÐ»Ñ« ÐºÐ°
ĠÐ¶ÑĶ Ð½Ñĭ
Ð¾Ð»ÑİÐ±ÑĮ ÑĨÑĮ
ĠÐºÑĭÑ¥ Ð²Ñĥ
ĠÑģÐ¾ÐºÑĢÐ¾Ð²Ð¸ ÑīÐµ
Ð³Ð¾Ð²Ñ£ÑĢ Ð½ÑĭÐ¸
ĠÑħÑĢÐ°Ð±ÑĢÐ° Ð³Ð¾
ĠÐ¸ Ð½ÑĭÑ§
Ð¼ ÑĢÐµÑĤÑĬ
ĠÐ± Ñķ
ĠÐ± ÑĢÐ¾Ð´
Ð· Ð´Ñĥ
ĠÐ¾ ÐºÐ¸
ĠÐ¿ÑĢ Ñ¹
ĠÐ¿ÑĢ Ð¾Ð»Ð¾Ð¼
ĠÐ» Ð¸ÑħÐ°
Ð½Ð° Ð´ÑĨÐ°ÑĤÐ¸
ĠÐ¿ÑĢÐ¸ Ñ§ÑĤ
ĠÑģÐ²Ð¾ ÑŃ
ĠÐ·Ð° Ð´Ð¸
ĠÐ¡ Ð°Ð´
ĠÐ¸Ð¼ Ñĭ
ĠÐ²ÐµÐ»Ð¸ ÑĩÐ°
ĠÐ²Ñĭ Ð¿Ð¸
ĠÐ³Ð¾ÑģÑĥÐ´Ð°ÑĢ ÑĭÐ½Ð¸
ĠÑĸ ÑģÐ°
ĠÐ¶Ð¸ Ð·
ĠÑĦ Ð¾Ð¼Ð¸
ĠÐ±ÐµÐ· ÑĩÐµÑģÑĤÐ¸
ĠÐ²ÐµÐ» ÐµÐ»Ð¸
Ð»Ñ§ Ð´Ð°
ĠÑģÐ¼ Ð¾Ðº
Ð»Ñĭ Ð¼ÑĬ
Ñ³ Ñĸ
ĠÐ¸Ð¼Ñ£ Ð½Ð¸Ñı
ĠÑĨÐ°ÑĢÑĮ ÑģÐºÐ¾Ð³Ð¾
ĠÐ¿ÑĢÐ¸ÑĪ Ð¾Ð»
Ð²ÐµÐ´ Ð¾ÑĪÐ°
ĠÐ³Ð»Ð° Ð²ÑĬ
ÑİÑīÐµ Ðµ
ÑĪÑĥ ÑģÑı
ĠÑ£ Ð·Ð´
ĠÑģÐ»ÑĥÐ¶ Ð¸ÑĤ
ĠÑĨÑ£ Ð½Ñĭ
ĠÐºÑĢÑĥ Ð³Ð»Ð°
ĠÐ¼Ð¾Ð»Ð¸ÑĤ ÑĨÐ°
ĠÑģÐ¾Ð² ÐµÑĤ
ĠÐ¸êĻģ ÑĮ
ĠÐ¿Ð°ÑĤÑĢÐ¸Ð°ÑĢ ÑĪÐ¸
ĠÐ¼Ð¸Ð» êĻĭ
ĠÐ¿Ð¾Ñĥ ÑĩÐµÐ½Ð¸Ðµ
ĠÐ¿ÑĢÐµÐ´Ð° ÑģÑĤÑĮ
Ð¿Ð¸ÑģÐ° Ð½Ð°
ĠÐ½Ð°Ð¿ÐµÑĢ ÐµÐ´
ĠÐ¸ÑģÑħÐ¾Ð´ Ñı
ĠÐ½Ð°Ð¼ÐµÑģÑĤ Ð½Ð¸Ðº
ĠÐ±ÑĭÐ² ÑĪÑİ
ĠÐ²ÐºÑĥ Ð¿Ðµ
ĠÐ¿Ð¾Ð»Ð¾ÑĨ ÐºÑĥ
ĠÐĺÐ¾ Ð°Ð½Ð½Ð°
ĠÑģÐ²Ð¾Ð± Ð¾Ð´Ð°
ĠÐ¾ÑĥÐ· Ñ§ÑĤÐ¸
ĠÐ¾Ð»ÑĮ Ðº
ĠÐ½Ð¸ÐºÐ¾Ðµ ÑıÐ¶Ðµ
) .
Ðµ ÑĨÐ°
Ñģ Ð°ÑĤÐ¸
ĠÑģ ÑĢÑĬ
ĠÑģ Ð²Ð°Ð»Ð¸
ĠÐº Ð½Ð°
Ð³ ÑĢÑĬ
Ñĩ ÑĶ
ĠÐ¾ Ð²Ð¸
Ñ§ Ñ§
ĠÑĢ Ð¾ÑĤÑĬ
ĠÐ½Ðµ Ð¼Ð°
ĠÐ´Ð° Ð»Ñ£Ðµ
ĠÐ¿ÑĢÐ¸ Ð°
Ð´Ð° Ð»ÑĮ
ĠÐĲ êĻģÑĬ
ĠÑ¡ Ðµ
ĠÐ¶ Ð´Ð°
ÑĢÐ¾ ÑĩÐµ
ÐµÐ· Ðµ
Ð¾Ð²Ð¸ ÑĨÑİ
ĠÐľ Ð½Ñ¡
ÑĪÑĮ Ð½Ð¾
ĠÑĦ Ð°ÑĢÐ¸
ÑĨÑĭ Ð½
ÑĶ Ð²Ð¸
ĠÑģÑĥ Ð³Ñĥ
ĠÑĥÑĩ Ð°Ð»ÑĬ
ĠÐ¼Ñĭ ÑĪÑĮ
ÑģÐºÑĭ Ð¼ÑĬ
ĠÐ²Ð¾Ð´ ÑĬ
ĠÐ¿Ð¾Ð´Ð¾Ð± ÑĮÐ½Ð¾
ĠÐ¿Ð¾ÑģÑĤÐ°Ð² ÑĮ
ĠÑģÑĤÐ¾Ð» Ðµ
ĠÐ½Ð± ÑģÐ°
ĠÑģÑĢÐ¾Ðº Ð¸
Ð²Ð°Ð» ÑģÑı
ĠÐ²Ð¾Ð¿ ÑĢÐ¾
ĠÐºÐ¾Ð¼ Ð¾Ñĥ
ĠÐ³ÑģÐ´ÑĢ Ð½Ðµ
ĠÑħÐ²Ð° Ð»Ñ§
ĠÐ¿Ð°Ð½ Ð¾Ð¼
ĠÐ´ÑĥÑħÐ¾Ð² Ð½ÑĥÑİ
ĠÐ¼Ð½Ð¾Ð³Ð° Ð¶Ð´Ñĭ
ĠÑĤÐ¾Ð¼ÑĮ Ð¶
ĠÐ¼Ð¾Ñĥ Ð¶Ðµ
ĠÐ¤Ð¸Ð»Ð¸ Ð¿ÑĬ
ĠÐ²Ð¾Ð»Ð¾Ð´Ð¸Ð¼Ð¸ ÑĢÑĬ
ĠÐ¼Ð½Ð¾Ð³Ð¾Ð»Ñ£ ÑĤÐ½Ð¾
ĠÐ¿ÐµÑĢÐµÑģÐ»Ð°Ð² ÑģÐºÐ¾Ð¼
ĠÑĤêĻĭÑĢ ÑĨÐ¸
ĠÐ³ÐµÐ½ÐµÑĢÐ° Ð»Ñĭ
ĠÐµÐ³Ð¸Ð¿ ÐµÑĤ
ĠÑ µ
Ð³ ÑĥÐ¿
Ñħ Ð¼Ð¾
Ñħ â¸¯
ĠÐ¾ Ð´Ð¸
Ð¾Ð³ Ð¾Ð²Ñ£
Ð½Ð° ÑĤ
ÑĤÑĮ Ð¸
Ð²Ð° Ðµ
Ð²Ð° Ð½ÑĮ
ĠÐĲ ÐºÐ¾
êĻģ ÑĢÐ°
ĠÐ²Ð¾ Ð¸ÑĤ
ÐºÑĥ Ð¿Ð¸
ĠÐ²Ñĭ ÑĪÐ¸Ð½Ð°
Ð»Ñı ÐµÑĤÑĮ
ĠÑĢÐ°Ð· Ð½Ð¾
ĠÐ¿ÑĢÐµ ÐºÐ»Ð¾Ð½
ĠÐ¸Ñģ Ð¿Ð¾Ð´
ÑĢÑĭ ÑħÑĬ
ĠÐ¶Ð¸ Ð²ÑĭÐ¸
ĠÐ±Ñ£ ÑģÐ¾Ð¼ÑĬ
ĠÐ»Ñ£ ÑĤÑĮ
ĠÐ±ÐµÐ· ÑĩÐµÑģÑĤ
ĠÐºÑĢÐµ ÑģÑĤÑĥ
ÑĮÑı Ð½Ð°
ĠÐ³ÑģÐ´ ÑĢÑĭ
ĠÐ´Ð¸ Ð°Ð²
ĠÐ¿ÑĢÐ¾Ð´Ð° Ð¶Ð°
ĠÐ´ÑĬ Ñī
Ð¿ÑĢÐ° Ð²Ð¾
ÑĥÐ´Ð¸ ÑģÑı
Ð¾ÑĢÐ¸ Ñİ
ĠÑĥÑģÑĤÑĢÐ¾ ÐµÐ½Ð¾
ĠÑģÐ¿Ð°Ñģ ÐµÐ½Ð¸Ñı
Ð´Ð¸ÑĤÐ¸ ÑģÑı
ĠÐ¿ÑĢÐ°Ð²ÐµÐ´ Ð½ÑĭÐ¼ÑĬ
ĠÐ´Ð²Ñ£ Ð½Ð°Ð´ÑĨÐ°ÑĤÑĮ
ĠÐ´Ð¾Ñĥ ÑħÐ°
ĠÑģÐ¾Ð³ ÑĢÐµ
ĠÑģÑĬÐ± ÑĢÐ°Ð²
Ġ5 00
ĠÐ¿Ð¾ÑĩÐ¸Ð½ ÐºÐ°
ĠÑıÐ²Ð»Ñı ÑİÑĤ
ĠÐ¿Ð¸ÑĤ ÑĹÐµ
ĠÐ³Ð»Ðµ ÑĪÐ¸
ĠÐ´Ð¸Ñı Ðº
ĠÐ´Ð¾Ð±ÑĢÐ¾Ð´Ñ£ ÑĤÑ£
ĠÐ¿ÑĢÐ¸Ð³ Ð¾Ð¶
ĠÐ¾ÑģÐº Ð²ÐµÑĢ
ĠÐ¾Ð±ÑĬÑı Ð²Ð¸ÑĤÑĮ
Ñ£ÑħÐ° ÑĪÐ°
Ð½Ð¾ÑĢÐ¸ Ð·ÑĮ
ĠÐ¿Ð¾ÑĩÐ¸Ð½Ð¸ ÑĤÑĮ
ĠÐ¸Ð¼ÐµÐ½Ñĥ ÐµÑĤÑģÑı
Î ¸
Ðµ Ðº
ÑĤ ÐµÐ½ÑĬ
ÑĤ ÐµÐ»Ñ£
Ñģ h
Ð» Ð¾Ðº
Ðº ÑĸÑı
ĠÐº Ð¾Ð¶Ð°
ĠÐ± Ð´Ñ£
Ñĩ ÐºÐ¾Ð²
Ñĩ Ð°Ð»Ð¾
ĠÐ¾ Ðµ
ĠÐ³ ÑĢÐµÐ±
Ð¿ ÐµÑħ
ĠÐ½Ðµ Ð³Ð»Ð¸
ĠÐ¿Ð¾ ÑĥÑĤ
Ð³Ð¾ ÑģÑĤÐ¸
Ð¶ Ð½ÑĭÐµ
ĠÑĥ ÑģÐ¿Ñ£
Ð½Ð¾ ÑģÑĤÐ¾
êĻĹ Ð¶Ðµ
Ð¾Ðº Ð°Ð½
ĠÑ¿ Ð²ÑĢÐ°ÑĤÐ¸
ĠÐ¿Ð¾Ð» Ð°ÑĤÑĬ
ĠÐ¾Ð± ÑĢÐµ
ĠÐľ Ð»
Ð³Ð° ÑĢÐ°
ÑĨÐ¸ ÑģÑı
ĠêĻģ Ð°Ð²Ñ£
ĠÐ¿Ð° Ñĥ
Ð½Ð¸Ðº Ð¾Ð²Ð¾
ĠÐ¿Ð¾ÑĤ Ð¾Ð¼Ñ¹
ĠÐ¿Ð¸ ÑĪÐ°
ÑĪÐºÐ° Ð¼Ð¸
ĠÑĤÑĢ ÑĸÐµ
ÐµÐ½Ñĭ Ð¸
ĠÎ ±
ĠÐ±Ð¶ ÑĸÐµ
ĠÑģÐ»Ñĭ ÑħÐ°Ð»ÑĬ
ĠÐ´Ð²Ð° ÑĤÑĨ
ĠÐ¾Ð³ Ð½Ð¸
ĠÐ¾Ð³ Ð½Ñİ
ĠÐ¶ÐµÐ½Ð° Ñħ
ĠÐ´Ð¾Ð» Ð³Ð¾ÑĤ
ĠÑģÐ²ÑıÑĤ ÑĭÐ¸
ĠÐ¿Ð¸ÑģÐ° Ð½Ñĭ
ĠÑĢÐ°êĻģ Ð²Ñ£
ĠÑıÐ´ ÑĢÑĭ
ĠÐ¿Ð¾ÑģÐ»Ñĥ ÑģÐ¸
ĠÐ²Ð¾Ð¸Ð½ ÑģÐºÐ°Ð³Ð¾
ĠÑģÑĢ ÑĨÐ°
ÑĤÑĢ Ð¾Ð±
Ð³Ð»Ð° ÑģÐ¸
ĠÐ²Ð·Ñ§ Ð»
ĠÑģÐ¸Ð»ÑĮ Ð½ÑĭÑħÑĬ
ĠÑĪÐ°ÑĤ ÐµÑĢ
ĠÐĺÐ»Ð¸ Ñı
ĠÐ¾ÑĥÐ± Ð¸ÑĤÐ¸
ĠÐ½ÐµÐ´Ð¾ ÑģÑĤÐ¾Ð¹
ĠÐ¿Ð¾Ð³Ð° Ð½ÑĭÑħ
ĠÐ¼ÐµÑģÑı ÑĨ
ÑĢÐµÑĤÑĮ Ñı
ĠÐ°ÑĢÑħÐ¸Ð¼Ð°ÑĢ Ð¸ÑĤ
ĠÐ¿Ð¾Ð»Ð¾Ð½ Ñı
ĠÐºÐ°Ð·Ð° ÐºÐ°
ĠÐĺÐ½ Ð´Ñ£
ĠÐ¥Ð¾ ÑīÑĥ
ĠÐ½ÐµÐ¿Ð¾Ðº Ð¾ÑĢ
ĠÐ¼Ð½ÑģÑĤ ÑĢÑĮ
ĠÐĲÐ²ÑĢÐ° Ð°Ð¼
Ð¸ ÑĪÐµ
ÑĢ ÐºÑĬ
Ð½ ÑĹÐµ
Ñģ Ð°Ðº
ĠÐ¿ Ð¾Ð²Ð¾Ð¸
ĠÐ² Òį
ÑĪ ÑĪÐ¾
Ñĩ Ð½Ð¸
ĠÐ½Ð° Ð²Ð°
ÐµÐ½ ÑģÐºÐ¸Ðµ
Ñĸ ÐµÐ¼
ĠÐ²ÑĬ ÑģÑĤÐ°Ð²
ĠÐ·Ð° Ð´ÐµÑĢ
ĠÑĢÐ° Ð¼Ð°Ð½Ð¾Ð²
ĠÐ²Ð¾ Ð¸Ð½Ð°
ĠÐĳ ÐµÑĢÐ´
ĠÐºÐ° Ð±Ñĭ
ĠÑĩÐµÐ» Ð¾
ĠÑĤÐ²Ð¾ Ñĸ
Òĩ :
ĠÑĸ Ð²Ð°Ð½ÑĬ
ĠÑĢÐ°Ð· Ñ¹Ð¼
ĠÐ¼Ð¸ ÑĪÐµÐ½ÑĮ
ĠÐ¼Ñ£ ÑĢÑĬ
ĠÐ¼Ñ£ ÑĢÐ¸ÑĤÐ¸
ĠÑ¹ ÑģÑĤ
ĠÑ¹ ÑĤÑ£
ĠÐĵ Ð´
ĠÐ²Ð· Ð°
ĠÐ½Ñ£ ÐºÐ°Ð°
ĠÑĢÐµÑĩÐµ Ð¹
ĠÑģÑĥÐ´ Ð½ÑĭÐµ
ĠÐ²Ðµ Ñ³
ĠÑĩÐµÑĢ ÑĤ
Ð»ÐµÐºÑģ Ð°Ð½
ĠÐ¸Ð½ Ð½ÑĭÑı
ĠÐ»Ñĥ Ð½Ñ£
ĠÐ¿ÑĢÐ¾Ñģ Ð¸ÑĤÑĬ
êĻĻ ÑĪÑĤÐµ
ĠÐ¿ÑĢÐ¸ÑĪ Ð»Ðµ
ĠÑħÑĢÐ° Ð¼Ñĭ
ĠÎ¹ Ð½Ð¾
ĠÑģÑĤÐ°Ð½ Ñ£ÑħÑĬ
ĠÐ±Ð° ÑĪÐ½Ð¸
ÑĪÑĬ ÐºÐ°
ĠÑĢÐ¾Ñģ Ð¾Ð»ÑĬ
ĠÐ²Ð¾ÑĢ Ð¾ÑĤÑĭ
ĠÐ¶Ð¸Ð² ÐµÑĤÑĮ
ĠÑıÐ´ ÑĢÑ£
ĠÑģÐºÐ¾ÑĢ Ð¾Ð¼
ĠÐ¿ÑĢÑĸ êĻĹ
Ð¶ÐµÐ½ ÑĸÐ¸
ĠÑģÐµÐ´ ÑĮ
ĠÐ¼Ð°Ð½Ð°ÑģÑĤÑĭ ÑĢÐ¸
ĠÐ¾ÑĤÐ²ÐµÑĤÑĩÐ¸ ÐºÐ¾Ð²
ĠÐ¿ÑĢÐ¸Ð² Ñı
Ð¾Ð¿Ð¾Ð» ÐºÑĥ
ĠÑĤÑĭÑģÑı ÑĩÐµÐ¹
ĠÐ¿ÑĢÐ¸ÑĤ Ð²Ð¾ÑĢ
ĠÑģÐ½Ð°ÑĢÑı Ð´Ð°
Ð¿ÑĮ ÐµÐ²
ÑĪÐµÐ½ÑĮ ÐºÑĥ
ĠÐ·Ð¸Ð¼ Ñĥ
ĠÑħÐ²Ð° Ð»Ñĭ
ĠÐ·Ð°Ð¼ ÑıÑĤ
ĠÐ¼Ð½Ð¸ ÑĪÐµ
ĠÐ¾ÑĥÐ± ÑĢÑ¹
ĠÐŁÐ¾Ð´ ÑģÐ¾Ðº
ĠÑİÐ½Ð¾ ÑĪÐµÐ¹
ĠÐĲÐ· Ð¾Ð½
ĠÑĢÐ¾Ð¶Ðµ ÑģÑĤÐ²Ð°
ĠÐ¿ÐµÑĩÐ°ÑĤ Ð½ÑĭÐµ
ĠÐ¿ÐµÑĩÐ°ÑĤ Ð½Ð¸ÐºÑĥ
ĠÐ±Ð¾Ð¶Ðµ ÑģÑĤÐ²ÐµÐ½Ñĭ
Ð´Ð°Ð² Ð½Ð°
ĠÐ¿Ð¾Ð¿ÐµÑĢÐµ ÑĩÐ½Ð¾Ð¹
ĠÐ´Ð¾Ð±ÑĢÐ¾Ð´Ñ£ ÑĤÐµÐ»Ð¸
ĠÐ¿Ð¾Ð¹ Ð´ÐµÑĤÑĬ
ĠÑ¡Ð±Ð¸Ñħ Ð¾Ð´Ñ£
ĠÑ¡Ð±Ð¸Ñħ Ð¾Ð´Ðµ
ĠÑ¡Ð±Ð¸Ñħ Ð¾Ð´Ñ¹
ĠÐ²ÐµÑĢÑĮ ÑħÐ¾Ð²
ĠÑģÑĤÐ¾ÑĢÐ¾Ð¶Ðµ Ð¼ÑĬ
ĠÐ¸ÑģÑĨ Ð¾Ð²Ñĭ
ĠÐ°Ð²ÑĢÐ° Ð¼
ĠÐ²Ð¾Ð·Ð»ÑİÐ±Ð»ÐµÐ½ Ð½Ð°Ð³Ð¾
ĠÐ¾ÐºÐ¾Ð»Ð½Ð¸ ÑĩÐ¸Ñħ
ĠÐĴÑģÐµ Ð³Ð´Ð°
ĠÐ³ÑİÑĢÐ³ Ñ§
ĠÐ¶ÐµÐ» Ð²Ð°
ĠÐ¿ÑĢÐ¾Ð¼Ðµ Ð¶ÑĮ
ĠÐ²ÐµÐ»ÑĮÐ¼ Ð¾Ð¶
ĠÐ¿Ð¾Ð»ÐºÐ¾Ð² Ð¾Ð¼Ñĥ
ĠÐĿÐ¸ÐºÐ¸ÑĤÐ¸ ÑĩÑĮ
ĠÐ¸ÑīÐµ Ð°
ĠÐ´Ð¾Ð¼Ð¾ÑĩÐ°Ð´ ÑĨÐ¾Ð²ÑĬ
ĠÐ»Ñ¹Ñĩ ÑĪÐµÐµ
ĠÐºÐ¾ÐµÐ¼Ñĥ Ð¶ÑĬ
ĠÐ¿Ð¾Ð¿Ð¾ÑĢÑĤÐ¸ Ð»Ð¾
ĠÑĢÑ¹ÐºÐ¾Ð´ ÐµÐ»
ĠÐ¿Ð¾ÑĩÐµÑĢ ÐºÐ¾Ð¼
ĠÐ·Ð°ÑģÐ²Ð¸ ÑģÑĤÐ°Ð»ÑĬ
ĠÐĲÐ´Ð°ÑĢ Ð¾Ð²Ð¸ÑĩÑĮ
ĠÐľÐ¸Ð»Ð¸ÑĤÑĢÐ¸ ÑģÐ°
ĠÐ·Ð°ÑĤÑħ Ð»Ð¾
ĠÐ¿Ð¾Ð»ÐºÐ¾Ð²Ð° Ð³Ð¾
ĠÐŁÐ¾Ð´ÑģÐ¾Ðº Ð¾Ð»ÑĮ
Î ´
ÑĤ ÐºÐ¸
ÑĢ ÐµÑĤÐ°
ĠÐ¿ Ð»Ñİ
ĠÐ¿ ÐµÑĨ
ĠÐ¿ Ð°Ð»Ðµ
ĠÐ¿ Ñ«ÑĤÑĮ
Ð³ Ð°Ñģ
ĠÐ¼ ÑĢÑĤ
Ð¾Ð¼ Ñ«
ĠÐ³ Ð¿
Ð»Ð¸ Ð½Ñĥ
Ñī ÐµÐ½ÑĮÑı
ĠÐ²ÑĬ Ð¿Ð¸
Ð¼Ð¸ ÑĤÑĮ
Ð´Ð° Ð³Ð¾
ÑĪÐ° Ð»Ð¸
ĠÐ·Ð° êĻĭ
ÑĢÐ¸ ÑĨÐ°
ĠÐ±Ñĭ ÑħÐ¾Ð¼ÑĬ
ÑīÐµ Ð½Ð¸ÐµÐ¼ÑĬ
ĠÐ¶ ÑĢÑĮ
Ð¸ÑĤÐ¸ Ð½Ð°
ĠÐ¼Ð¾ ÑīÑĮ
ĠÐºÐ° ÑĪÐ°
ĠÐĶ Ð²
ÑĦ Ñĸ
ĠÐºÐ°Ðº Ð¸Ñı
Ð´ÑĬ ÑĪÐµ
ĠÐ¿Ð° Ð½Ñĭ
ĠÑģÐ¿ ÐµÑĢÐ²Ð°
ĠÐ¿Ð¾ÑĢ ÑĤÑĬ
ĠÑ» ÑĤ
ĠÐ´ÑĢÑĥ Ð·Ñ£
Ð±Ð° Ðµ
ĠÐ¿Ð¾ÑģÐ»Ð° Ð»Ð°
ĠÐ´Ð¾Ð¼ Ð¾Ñĥ
ĠÑĢÐ¾Ð´ Ñ£
ĠÐ±ÑĭÑĤÐ¸ Ðµ
ĠÐ»Ñĥ ÑĩÑĮ
ĠÐ£ Ð²Ñĭ
ĠÑĢÐ¾Ñģ ÑĸÐ¸
Ð½Ð¾Ð² ÐµÐ½ÑĸÐµ
ĠÑĢÐ°Ð± Ð¾ÑĤÑĥ
ĠÑĩÐµÐ»Ð¾Ð±Ð¸ÑĤ Ð½ÑĭÐµ
ĠÑĩÐµÑĤÑĭÑĢÐµ ÑģÑĤÐ°
ĠÐ¿ÐµÑĢÐ² Ð¾Ð¼
ĠÑģÐ²Ð¸ Ð´ÐµÑĤ
ĠÐ¨ ÐµÑĢÐµÐ¼ÐµÑĤ
ĠÑģêĻĳ Ð½Ð°
ĠÐ²Ð¾Ð·Ð²ÑĢÐ°ÑĤÐ¸ ÑģÑ§
ĠÐ¿Ð¾Ð³ÑĥÐ± Ð¸Ð»ÑĬ
ĠÐĽÑİ Ð±Ð¸
Ñ§ÑīÐ° Ñ§
ĠÑģÐ²ÐµÑĤ Ñĭ
ÑµÑĢ ÑĸÐ¸
ĠÐ¾ÑĢÑĥÐ¶Ð¸ Ñı
ĠÐ¢ÑĢÐ¾Ð¸ ÑĨÑĭ
ĠÐ¿Ñĩ ÐµÐ»Ñĭ
Ġ Òħ
Ð½ â¸¯
ĠÐ² Ð¼
ÑĪ Ð½ÑĭÐ¼ÑĬ
Ñĩ ÐºÐ°Ð¼Ð¸
ĠÐ¾ ÑĨÑĮ
ĠÐ½Ðµ ÐºÐ¾
ĠÐ½Ðµ Ð»Ñ£
ÐµÐ½ Ð´Ð¸
ĠÐĺ Ð´Ñĥ
ĠÐĲ Ð¿Ð¾ÑģÑĤ
ĠÐ¾ÑĤ Ð¿êĻĭ
ĠÐ¾ÑĤ ÑĩÐ¸Ð½Ñĭ
Ñ¡ Ð°
êĻģ â¸¯
Ð½Ñı Ð¼ÑĬ
ĠÐ¾Ð± Ð½Ð°
ĠÐ²Ñĭ Ð¹
ĠÐ»Ð¸ Ð³Ð°ÑĤÑĥ
ĠÑģÐ¸ Ð½Ð°
ĠÐ´Ð¾Ð± ÑĢÐ¸Ð¼
ĠÑĤÑĭ ÑħÑĬ
Ð½Ð¸Ðº Ñ¡Ð¼ÑĬ
ĠÑģÐ¼ ÑĢÑĤ
Ð±Ð° Ð¼ÑĬ
ĠÐ³ÑĢ Ð¾Ð¼ÑĬ
ĠÐ²Ðµ Ðº
ĠÑħÐ¾ÑĤ ÐµÐ»ÑĬ
ĠÐ¿ÑĢÐµÐ´ ÑģÑĤÐ°Ð²
ĠÐ¿ÑĢÐµÐ´ ÑģÑĤÐ¾Ñı
ĠÐ¸ÑģÐ¿ ÑĥÑģÑĤÐ¸
ĠÐ³Ð» Ñ¹
ĠÐ²Ð¾Ð´ Ñ§
ĠÐ·Ð°Ðº ÑĢÐ¸
ĠÐ¾Ðº ÑĢÑĥ
ĠÐ¾Ðº Ð»Ð°Ð´Ñĭ
ĠÑģÑĤÐ¾Ð» Ð¿Ð°
ĠÐŁÑĢÐ¸ Ð´Ðµ
ĠÑĤÐ² ÑĢÑĮ
ĠÐ¿ÑĢÐ¸ÑħÐ¾Ð´ Ðµ
ĠÑģÑĤÑ£ Ð½Ð°
ĠÐ¾ÑģÑĤÐ°Ð² Ð¸ÑĤÑĮ
ĠÐ¿Ð»ÐµÐ¼ Ñ§
ĠÐ´ÑĢÐ¾Ñĥ Ð³Ð¾
ĠÑĤÐ¾ÑĢÐ³ Ð¾Ð²ÑĭÑħ
ĠÐŁÑĢÐµ Ð¶Ðµ
Ð¿ÑĢ Ð¾Ð´Ð°
ĠÐµÐ· Ð´Ð¸ÑĤÐ¸
ĠÑģÑĢÐµÐ± ÑĢ
ĠÑĢÑĥÑģÑĮ ÑģÐºÑĥÑİ
ĠÐ³ÑĢÑı Ð·
ĠÑģÑĬÐ±Ð»Ñİ Ð´Ð¸
ĠÑģÐ°ÑĢ Ð¶Ð°Ð½
ĠÑĥÐ±Ð¸Ð¹ ÑģÑĤÐ²Ð¾
ĠÐĴÑĤÐ¾ÑĢ Ð¾Ðµ
ĠÐ¿Ð»Ð¾ÑīÐ° Ð´
ĠÐ»Ð¾Ð²Ð¸ ÑīÐ°
ĠÐ¿ÑĢÐµÐ¾Ð´ Ð¾Ð»Ñ£
Ð½ Ð¾Ð¶Ð¸
Ñģ ÐµÑĢ
Ð» Ð¾Ð³Ð¾
ĠÑģ ÐµÐ½Ð¾
Ð´ Ð¾ÑĢÐ°
ÑĪ ÐµÐ½ÑĮÐµ
Ñİ Ð¶Ðµ
Ð¾ÑĢ Ð¾Ð¼
ĠÐ³ Ð¾Ð½Ñĭ
Ð¿ Ð°Ðº
ĠÐ½Ðµ ÑĩÐµÑģÑĤ
ĠÐ· Ð¼
Ð²Ð¾ ÑĤÐ¾
ĠÐ» Ñ¡
ÑģÐº Ð°ÐºÐ¸
ĠÐ²ÑĬ Ð»
ĠÐ¶Ðµ Ð½Ñ«
ĠÐ·Ð° Ñ¹
ĠÐ·Ð° ÑģÑ£
ĠÑ¡ ÑĨÐ¸
ÑĢÐµ ÑīÐ¸
ĠÑĨ ÐµÐ½Ðµ
ĠÑı Ð²Ñ£
ÐµÑģ Ñ§ÑĤÑĮ
ĠÐ¶ Ð´
ĠÐ¡ Ñ¹
ĠÐ¡ Ð¸Ð¸
ĠÐ¿Ð¾Ñģ Ð¿Ðµ
Ð½ÑĮ ÑģÑĤÐ²Ð°
ÑĢÑĬ Ð¶
Ð´Ð¾ ÑħÐ°
ĠÑ¥ Ð³Ñ¡
ĠÑĤÑ£ Ñģ
Ð´ÑĮ ÑĨÐµ
ÑģÑĤÑĬ Ð²
ĠÑĩÐ° ÑİÑīÐµ
ĠÐ¶Ð°Ð» Ð¾ÑģÑĤÐ¸
Ð½Ñĸ ÑĶ
ĠÐ¿ÑĢÐ¾ÑĤÐ¸Ð² Ñ¹
Ð¶ÐµÐ½ ÑĸÐ°
ĠÐ¡ÑĬ ÑĤÐ²Ð¾ÑĢ
ĠÐ¿Ð¾Ð¼Ð¾ ÑĪÑĤÑĮ
ĠÐ¿Ð°Ð² Ð»Ðµ
ĠÐ¶Ð¸ÑĤ ÑĸÐ¸
ĠÐ°Ð½Ð´ÑĢÑ£ Ñı
ĠÑĥÐ´ Ð¾Ð±
ĠÐłÐ° Ð´Ð¸
ĠÐ·Ð¸Ð¼ Ð¾Ñİ
ĠÐ¶Ð¸Ð²Ð¾ÑĤ Ð¾Ð¼ÑĬ
ĠÐ²ÑĬÑģÐº ÑĢÑ£
ĠÐ¿Ð¾Ð³ÑĢÐµ Ð±Ð¾ÑĪÐ°
Ð¹ÑĤÐµ ÑģÑı
ĠÑĢÐ¾Ð¶Ðµ ÑģÑĤÐ²ÐµÐ½
ĠÑģÑĤÑĢÐ°Ð½Ð° Ñħ
ĠÐ³ÑİÑĢÐ³ Ñİ
ĠÐ¿Ð¾Ð±Ñ£Ð´Ð¸ ÑĪÐ°
ĠÐ½ÐµÐ´ÐµÐ»ÑīÐ¸ ÐºÐ°
ĠÐ¼ÑĢÑĮ ÑĤÐ²ÑĮ
ĠÐ²Ð°ÑĢÐ»Ð° Ð¼Ð°
ĠÐ´Ð¾Ð±ÑĢÐ¾Ð¼ Ñ¹
ĠÐ³ÐµÑĢÐ° ÑģÐ¸Ð¼
Ðµ ÑģÑĤÐ¸
Ñģ Ð¾Ð±
Ñģ Ð½Ð¾Ð²
ĠÑģ Ð¼Ñĥ
Ð¼ Ð¾Ð´
ĠÐº ÐµÐ´
Ð¾Ð² ÑģÐºÐ¾Ð³Ð¾
ĠÐ¾ Ð³Ð°
Ð¿ Ð»Ð°
ÐµÐ» Ñ§
Ð¶Ðµ Ð½Ðµ
ĠÐ¿ÑĢÐ¸ ÑģÑĤêĻĭÐ¿Ð¸
Ð¼Ð¸ Ðµ
ÑĪÐ° ÑİÑīÐµ
Ñ¡ Ð²ÑĮ
Ð¾Ðº Ñ£
êĻģ êĻ¿
Ð¸Ñģ Ð»Ð°
ĠÐ¡ Ð¿
ÑĤÐ° ÐºÐ¾
Ð½Ñĥ Ð²ÑĬ
ĠÐ¿Ð¾Ð´ Ñģ
ĠÑĨÐ°ÑĢ ÐµÐ¸
ĠÐĶ Ð°Ð»
ĠÑģÐ¾ ÑģÑĤÐ°Ð²ÑĬ
ĠÐ¶Ð¸ ÑĢÐ¾
ĠÐĵ Ñĥ
Ð½Ñ§ Ð½Ðµ
ĠÑģÐ° Ð¶Ð°ÑĤÐ¸
Ð²Ñĭ Ð¸ÑħÑĬ
ÑģÐµ Ð½Ð¸Ðµ
ĠÐ½Ñ£ ÐºÐ¾Ð¸
ĠÐ±Ð» ÑĥÐ´ÑĬ
ĠÐ±Ð» Ð³Ð¾ÑģÐ»Ð¾Ð²
ĠÐ¼Ð° Ð»Ð¸
ĠÑĤÐµÐ¼ Ð½Ð¸ÑĨÑĭ
ĠÐ½Ð°ÑĪ ÑĭÐ¼ÑĬ
ÑģÑĤÑ£ Ð¼ÑĮ
ĠÑģÑ¹ Ð¶Ð´Ð°
ÑħÐ¸ Ð½Ð°
ÑģÑĭ Ð¿
ĠÐ¼ÑĮ Ð·Ð´Ð°
Ð´Ð°ÑĤÐ¸ ÑģÑı
ĠÐ²Ð¾ÐµÐ² Ð¾Ð´ÑĬ
ĠÐ¾ÑĤÐ´Ð° Ð»
ĠÐ´ÑĢêĻĭ Ð³Ð¾
ĠÐ¾Ð±ÑĬÑıÐ² Ð¸ÑĤÐ¸
ĠÑĥÑĤ ÑĢÐ°
ĠÐ¼Ð¾Ð³Ñĥ ÑĤÑĬ
ĠÑģÑĬÐ¼Ñ£ ÑĢÐµÐ½ÑĬ
ĠÐ¨ ÑĤÐ¾
ĠÐ¾Ð½Ð´ÑĢÐµ ÐµÐ²
ÑģÐ² Ñ§
ĠÐºÑĥÐ· Ð¼Ð°
ĠÑĪÐµÐ» Ðº
ĠÐ¼Ð¸ÑĤÑĢÐ¾Ð¿ Ð¾Ð»ÑĮ
ĠÑħÐ¸ÑĤÑĢÐ¾ÑģÑĤÐ¸ Ñİ
ĠÐ´Ð¾Ð±ÑĢÐ¾Ð´Ñ£ ÑĤÐµÐ»ÑĮ
ĠÑģÐ¼Ñĭ ÑĪ
ĠÑ¡Ð±Ð¸Ñħ Ð¾Ð´
ĠÐµÑİ Ð¿
ĠÑĢÐ¾ÑĥÑģÐ¸ Ð½Ð°
ĠÐ½ÐµÐ¿ÑĢÐ°Ð²ÐµÐ´ Ð½Ð°Ð³Ð¾
ĠÑĨÐµÐ»Ð¾Ð² Ð°Ð½ÑĮÑİ
ĠÐĳÐ¾Ð³Ð¾ÑĢÐ¾Ð´Ð¸ ÑĨÑĭ
ĠÑģÐ¾Ð²Ñ£ÑĤ Ð¾Ð²Ð°ÑĤÐ¸
ĠÐµÑģÑĮ Ð¼ÑĮ
ĠÐ¸ÑģÐ¿ÑĢÐ°Ð²Ð¸ ÑĤÑĮ
ĠÑĤÐ°Ð² Ð°ÑĢÑĭ
ĠÐ¼Ð°Ð½Ð°ÑģÑĤêĻĳ ÑĢÐ¸
ĠÐ½ÐµÐ»Ð¸ ÑĨÐµÐ¼Ñ£
ĠÑ¹Ð´Ð°ÑĢ Ð¸ÑĤÑĮ
ĠÑģÐºÐ¾Ð² Ð¾ÑĢÐ¾Ð´
ĠÑĤÐ°Ð»Ð°Ð½ ÑĤÑĬ
Ñģ Ð°Ð»
ĠÐ½ Ð¾Ð¶Ðµ
ĠÐ± Ð·
Ð¾ÑĢ Ð¾Ð¼ÑĬ
ĠÐ³ ÐµÑĤ
ĠÐ° ÑĤÐ¸
Ñī ÐµÐ¼êĻĭ
Ð°ÑĢ ÐµÐ¹
Ð¾ÑĤ Ð¾Ð²
ĠÐ¿ÑĢÐ¸ Ð»ÑĥÑĩÐ¸
ĠÐ²Ñģ Ð°Ð´
ĠÐ¾ÑĤ ÑģÑĤÐ°Ð²
Ð¸Ð½ Ñı
ĠÐ·Ð° ÑģÐµ
ĠÑ¡ Ð´Ð¸Ð½ÑĬ
Ñ¡ ÑĢÑĬ
ÑĢÐ¸ Ð½Ð¸
Ð¾Ð²Ð° Ð½Ð¸Ðµ
ĠÐ¿Ð¾Ð» ÑĤÐµ
ĠÐ²ÐµÐ»Ð¸ ÑĪÐ¸
Ð²Ð¸ Ð´
ĠÐ±ÑĥÐ´ ÐµÐ¼ÑĬ
ÐºÑĬ Ð²Ð¸
ĠÐĶ Ð°Ð»Ðµ
ĠÐ»Ð¸ ÑĨÑĥ
ÑĩÑĮ Ð¸
ĠÐ²Ð¾Ð· Ð»
ĠÐ¶Ð¸ ÑĢÑĬ
ÑĹ Ð¸Ð¼ÑĬ
ĠÐ²ÐµÐ» ÑıÑĤ
ĠÐ½Ñ£ Ð¶ÑĮ
ÑħÐ¾Ð´ Ð¸Ð»ÑĬ
ĠÐ²ÑĬÐ· Ð²ÐµÑģÐµÐ»Ð¸
ĠÐ³ÑĢ Ñ§Ð´
ĠÐ±Ð³ êĻĭ
ĠÐ¸Ð¼Ñ£ ÐµÑĪÑĮ
ĠÐ´Ñ£Ð»Ð° ÑİÑĤÑĬ
ĠÑģÐµÑĢ Ð³Ðµ
ĠÐ³Ð¾Ð´ Ð¾Ð²
ĠÐ£ Ð½Ðµ
ĠÐŁÐ¾ ÑģÑĤÐ°Ð²
ĠÐ´Ð¾Ð±ÑĢ Ð¾Ð²Ð¾Ð»Ð½Ð¾
Ð²ÑĢÐ° ÑīÐµÐ½
ĠÐºÑĢÑĥ ÑĩÐ¸Ð½Ñĭ
ÑıÐ² ÑģÑı
ĠÐ¿Ð¾Ð±Ñ£ Ð´Ð°
Ð´Ñı ÑĪÐµ
ĠÐ¿ÑĢÐ¸ÑħÐ¾Ð´ Ð¸Ð»Ð¸
ĠÑĤÑĢÐµÑĤÑĮ ÐµÐ³Ð¾
ÑİÑīÐ° Ñı
ĠÑģÑĤÐµÐ¿ Ð°Ð½ÑĬ
ĠÐ¿ÑĢÐ¾Ð¼Ñĭ ÑģÐ»Ñĭ
ĠÐºÑĢÐµÐ¿ ÐºÐ¾
ĠÑĢÐ°Ð·Ð´Ñ£ Ð»ÐµÐ½ÑĸÐµ
ĠÐ¿Ð¾Ð²Ñ£ Ð´Ð°ÑĤÐ¸
ĠÐ½Ð°Ðº ÑĢÑ£Ð¿ÐºÐ¾
ĠÑħÑĢÐ°Ð± ÑĢÐ¾ÑģÑĤÐ¸
ĠÑĤÐ¾ÑĢÐ³ Ð¾Ð²ÑĭÐµ
ĠÐ¿ÑĢÐ¸Ð½Ð¾ ÑģÑ§
ĠÐ±Ñ£Ð» ÑĥÑİ
ĠÑģÐµÑĢÐµÐ´ ÐºÑ£
ĠÐ¿ÑģÐº Ð¾Ð²ÑĬ
ĠÐ¿Ð¸ÑĪ ÑĥÑĤ
ĠÐ¾Ñĩ Ð½Ð¾Ð¹
ĠÐºÐ¾Ð½ÑĨÐ° Ð¼ÑĬ
ĠÑĤÐµÐ¿ ÐµÑĢÑĮ
ĠÐ¸Ð³Ð¾ÑĢ Ñ§
ĠÐ²Ð¾Ð·Ð¼Ñĥ ÑĤ
ĠÐ¾ÑĤÐµÑĩÐµ ÑģÑĤÐ²Ñĥ
ĠÐ¿Ð¸ÑĪÐµ ÑĪÑĮ
ĠÑħÐ¾ÑĨÐµ ÑĪÐ¸
ĠÐ½ÐµÐ¼Ð¸ Ð»Ð¾ÑģÑĤÐ¸
ĠÑĢÐº Ð¿
ĠÐ´ÑĸÑı Ðº
ÑĢ ÐµÐ½Ðµ
Ð³ Ð½ÐµÐ½
ÑĪ ÐµÐ²ÑĬ
ĠÐ¼ Ð½ÑĬ
ĠÐ¿Ð¾ ÑĪÑĮ
ĠÐ° Ð¶
ĠÐ· Ð°ÑĢÑĥ
ÐµÐ½ ÑĹÑ§
Ð¶ ÑĥÑİ
ĠÐĺ Ð¸ÑģÑĥ
Ð¾Ðº ÑĢÐ°
ĠÑı ÑĢÐ¾ÑģÐ»Ð°Ð²Ð°
Ð»ÑĮ Ñı
ĠÐĳ Ð¾Ð¶ÑĮ
ĠÑĨÐ°ÑĢ ÑģÑĤÐ²Ð¾Ð¼ÑĬ
ĠÐ¿ÑĢÐµ Ñĩ
ĠÐºÐ°Ðº Ð¸Ð¼
Ð¶Ð° ÑİÑĤ
ĠÐĵ Ð¸
ĠÐ½Ñ£ ÑģÐ¼ÑĮ
ĠÑģÑĭÐ½ Ð¾Ð²
ĠÐ±Ðµ ÑģÐºÐ°
Ð½Ð¸ÐºÐ° Ð¼ÑĬ
ĠÐ½ÐµÐ´ êĻĭ
ĠÐºÐ¾Ð» ÐµÑģÐ°
ĠÐ¥ ÑĢÐ°Ð½Ð¸
Ð´Ñ§ ÑħÑĥ
ĠÐ´Ð¾Ð±ÑĢÐ¾ ÑħÐ¾ÑĤ
ĠÐ¿Ð¾ÑģÐ»Ñ£ Ð¶Ðµ
ÑģÑĤÐ²Ñĥ Ñı
ĠÐĿÐ¸ Ð¶Ðµ
ĠÐ²Ð°ÑĢ Ð½Ð¸ÑĨÑĭ
ĠÑĤÐ°ÑĤ Ñ§
ĠÑģÐ¼Ñ£ ÑĢÐµÐ½
ĠÐ²Ñ£ÑĢ ÐµÐ½ÑĬ
ĠÐ²Ð¾Ð¹ ÑģÐºÐ¾Ð¼
Ð½Ð¸ÑĤ ÑģÑ§
ĠÐ²ÑĭÑĪ ÐµÐ»ÑĬ
ĠÐ¾ÑģÑĤ Ð°Ð»
ĠÐ½ÐµÑĤ Ð»Ñ£Ð½
ĠÐ°Ð³Ð³ Ð»
ĠÐ±Ð¾Ð»ÑĮÑĪ Ð¾Ðµ
ĠÐ¾Ð±ÑĢÑı ÑīÐµÑĤÑĮ
ĠÐ¾Ð±Ðµ Ñī
ĠÐĽÑİ Ð±Ð¾
ĠÐ°Ð¼Ð¸ Ð½ÑĬ
ĠÑģÑĤÑĥÐ¿ Ð°
ĠÐ²Ð¸ÑĤ ÑıÐ·Ð¸
ĠÐ²Ð¾ÑģÑĤÐ° ÑĪÐ°
ĠÑĦÐµÐ¾Ð´ Ð¾ÑĢÐ°
ĠÐ¶ÐµÑĢ ÑĤÐ²êĻĭ
ĠÐ²Ð¾Ð·Ð´Ð²Ð¸ Ð¶Ðµ
ĠÐ¿ÑĢÐ¸Ð³Ð¾Ð²Ð¾ÑĢ Ñĥ
ĠÐ½Ð°ÑģÐ»Ñ£Ð´ ÑĸÐµ
ĠÐĴÐ°ÑģÐ¸Ð»Ð¸ Ñı
ĠÐ·Ð°ÑħÐ°ÑĢÑĮ Ð¸
ĠÐ¿Ð¾Ð»ÐµÐ· Ð½Ð¾
ĠÐ²Ñ£Ð½ÑĮ ÑĨÑĮ
ĠÐ¾Ð±Ð²Ð¸ Ð½Ð¸ÑĤÐ¸
ĠÐºÐ¾ÑĢÑĭ ÑģÑĤÐ¸
ĠÑĩÐµÑĢÐ½Ð¾ÑĢÐ¸ Ð·
ĠÐºÑĢÐ¾Ð²Ð¾Ð¿ ÑĢÐ¾Ð»
ÑĤ Ð½Ñĭ
ÑĤ Ð²Ðµ
ÑĤ êĻĳÐ¸
ÑĢ Ð½Ð°
Ð½ Ð¾Ð²Ñ£
Ð² ÑĨÑĭ
ĠÑģ Ð°Ðº
ĠÐ¸ ÑģÑĤÐµ
ĠÐ² Ð¸ÑĤÐµ
ĠÐ² ÑĤÑĢÐ¾Ðµ
ĠÐ´ ÑıÑĤ
ÑģÑĤ Ð°Ð½ÑĮ
Ð· Ð°Ð½ÑĬ
ĠÐ¾ ÑĢÑĤ
ĠÐ½Ð° Ð²ÐµÐ´Ðµ
ÑĢÐ° Ð´Ð¸
ĠÑĢ Ð¸Ð¼Ð°
ĠÐ½Ðµ Ð¿Ð°
ĠÐ¿Ð¾ ÑģÑĤÑĥÐ¿
ĠÐ¿Ð¾ Ð¸Ð´ÐµÑĤ
ĠÐ· Ð¾Ð²Ðµ
ĠÐ· Ð±Ð¸ÑĢÐ°
ĠÐ²ÑĬ ÑģÑĤÐ°Ð½
ĠÐ¶Ðµ Ð½êĻĳ
ĠÐ´Ð° ÐµÑĤÑĮ
ĠÐĺ ÑģÐº
ĠÐĺ Ð¼Ðµ
ĠÐ¿ÑĢÐ¸ ÐºÑĢÑĭ
Ð¸Ð» Ð½Ð¾
ĠÑĨ Ð²ÐµÑĤ
Ð½Ðµ Ð½Ð¸Ñı
ĠÑģÐ» Ð¾Ð½Ð¾Ð²ÑĬ
ÑĤÐµ ÑģÑı
ĠÐĶ ÑĢÑ¹
ĠÐºÐ¾ Ð¸Ð¼ÑĬ
ĠÐľ Ñ¹
ĠÐ¿ÑĢÐµ ÐºÐ¾
ĠÐ²Ð¾Ð· Ð¸ÑĤÐ¸
ĠÐºÐ¾ÑĢ Ð¼Ñĭ
ĠÐ¿ÑĢÑ£ ÑģÐ»Ð°Ð²
ĠÐ¿ÑĢÑ£ Ð¿Ð¾
ĠÐķ ÑĦ
ĠÐ·Ð°Ð¿ Ð»Ð°ÐºÐ°
ĠÐ²ÑĬÐ· Ð´Ð°ÑĤÐ¸
ĠÐ¼Ñĥ Ð¶Ñİ
ĠÐºÑĥ ÑĩÑİ
ĠÑĩÐµÑĢ Ð½Ðµ
ĠÑĩÐµÑĢ ÐµÑģÑĬ
ĠÐĵÐ¾ÑģÐ¿Ð¾Ð´ Ð½Ñİ
ĠÑģÑĤÑĢÑ£ Ð»Ð°Ð¼Ð¸
ĠÐĹ Ð°Ð²
ĠÐ¶Ð¸Ð²Ð¾ ÑĤÐµ
ĠÑ¡ÑĤ ÑĢÐ¾Ðº
ĠÐ¼Ð¾ÑĢ ÑĬ
ĠÐ¯ Ð·ÑĬ
ĠÐ¼Ñ¹ Ð¶ÐµÐ¸
Ð¿Ð¸Ñģ Ð°ÑĤÐ¸
ĠÐ¼êĻĭ Ð¶
ĠÑģÐ¼Ñ£ ÑĤÑĭ
ĠÐ²Ñ£ÑĢ Ð½Ð¾
ĠÐ²Ñ£ÑĢ êĻĳ
ĠÑ¡Ñģ Ñ¹
ĠÑĥÐ³Ð¾Ð´ Ð½Ð¾
Ð³Ð»Ð° ÑģÐ½Ð¾
ĠÑĤÐµÑĢ Ð¿Ð¸
ĠÐ´Ð²Ñĥ Ð¼ÑĬ
ĠÐ²Ð¾Ð¿ Ð¸
ÑĪÐµÐ½ÑĮ Ñı
ĠÐ¶ÐµÐ»Ñ£Ð· Ð½ÑĭÐ¼Ð¸
ĠÑĥÑĢÑı Ð´Ð½Ð¾
ĠÐ²Ñ§ ÑĩÐµÑģ
ĠÐĿÐ¸Ðº Ð¾Ð»Ð¸
ĠÐ¿ÑĢÐ°Ð·Ð´ Ð½Ð¸ÐºÑĬ
ĠÑĨÐµÐ»Ð¾Ð²Ð°Ð» Ð½Ð¸ÐºÐ¾Ð¼
ĠÑģÐ²Ñ£ÑĤÐ¸ Ð»
ĠÐ·Ð°Ð¿Ð° Ð´Ð°
ĠÐ´Ð°Ð²êĻĳ Ð´Ð°
ĠÐ²ÑģÑ§ÐºÐ° Ð³Ñ¡
ĠÐ°Ð»ÐµÑ¯Ð°Ð½Ð´ ÑĢÑĬ
ĠÐºÑĢÐ¾ÑĤÑĬ ÐºÐ¾
ĠÑĦÑĢÐ¾Ð» Ð¾Ð²
Ïī Î½
ĠÐ¼Ð¸Ð»Ð¾ÑģÑĤÑĭ Ð½ÐµÑİ
ĠÐ°Ð¿ÑĢÐ¸Ð» Ñ§
ĠÐ½Ð¸ÐºÐ¾Ð¼Ð¾Ñĥ Ð¶Ðµ
Ð° ÑħêĻĭ
Ð¼ Ð¾Ðµ
ĠÐ¼ Ð»Ðµ
Ñĩ ÑıÑĤÐ¸
Ñ§ ÑħÑĥ
ĠÐ¿Ð¾ ÑģÑĤÑ£
ĠÑĥ Ð¿ÑĢÐ°Ð²Ð¸
ĠÐ²ÑĬ ÑģÑı
ÐµÐ» ÑģÑı
ĠÐ·Ð° Ð²Ñ£
ĠÐ·Ð° Ð»Ð¾Ð¶Ð¸ÑĤ
ĠÑĢÐ° ÑĤÑĮÑİ
ĠÑģÑĬ Ð¼ÑĬ
ĠÑģÑĬ ÐµÐ·
ÑĩÐ¸ ÐºÑĥ
ĠÐ¿Ð¾Ð¼ êĻĳÑĪ
ĠÐ¸Ñģ Ñĥ
ĠÑ¹ ÑĩÐ¸Ð½Ð¸
ĠÑ¹ Ð±Ð¸ÑĪÐ°
ĠÑģÐ° Ð±Ð»Ñı
ĠÐ½Ñ£ ÐºÐ°Ñı
ĠÐ¿ÑĢÐ°Ð² Ð¾Ð²Ñ£
ĠÑķ Ð¸
ĠÐ´ÑĢ Ð¾Ð·
ĠÐĴÑĬ Ñģ
ĠÐ¸Ð¼Ñ£ Ð½ÑĮÐµ
ĠÑģÐ¸Ð» Ð½ÑĭÑı
ĠÐ±Ðµ Ð»Ð°
ĠÐºÐ°Ð· Ð°ÐºÐ¾Ð²ÑĬ
ĠÑħÐ¾Ð´ Ñĥ
ĠÐ¾Ñģ Ð¼Ð¾ÑĤ
ĠÐ¿ÑĢÐ¸ÑĪ Ð»Ñİ
Ð½Ð¾Ð¼ Ð¾
ĠÐ¼Ð°ÑĤ Ð²Ñ£
ĠÑĩÐµÑĤÐ²ÐµÑĢ Ð¾Ð½
ĠÐ¼Ð°ÑĢ ÑĬ
ĠÐ¼Ð¾Ð³ êĻĭ
ĠÐ°Ð¿ Ð»
ĠÐĺÐ»ÑĮ Ð¸
ĠÑģÐ¸ÑĨÐµ Ð²Ð¾
ĠÐ½Ð°ÑĢ Ð¾Ð´Ð¸
ĠÐ¿ÑĢÐ¾Ð¼Ñĭ ÑģÐ»Ð°
ĠÐ´Ð¾Ð±ÑĢÑ£ Ðµ
ĠÐ²ÑĤÐ¾ÑĢ ÑĭÐ¸
ĠÐ²ÑģÑ§Ðº ÑĹÑ§
ĠÑģÐ¾ÑĤ Ð½Ð¸
ĠÐ²Ð°ÑĪ ÐµÐ¼êĻĭ
ĠÐ¿ÑĢÐ¸Ð²Ð¾Ð´ Ð½ÑĭÑħ
ĠÑĢÐ°Ð·Ñģ Ð¼Ð¾ÑĤ
ĠÐĴÐ¸ Ð´Ð¸ÑĪÐ¸
ÑıÑīÐµ ÑģÑı
ĠÐ³Ðµ Ð¾ÑĢÐ³Ð¸
ĠÐ·Ð´Ñ£Ð»Ð° ÑĤÑĮ
ĠÐ¿Ð¾Ð²ÐµÐ» ÐµÐ²Ð°
ĠÐ¿Ð¾ÐºÐ°Ð¼ ÐµÑģÑĤÐ°
ĠÑĥÐ´Ð°ÑĢ Ð¸Ð»
ĠÑĦÐ¸Ð»Ð¾Ñģ Ð¾
ĠÑģÐ²ÑıÑĤÑĭ Ð°
ĠÐ°Ð½ÑĤÐ¾Ð½ Ð¸Ð¸
ĠÐ¿ÑĢÑ£Ð»ÑĮ ÑģÑĤÐ¸
ĠÐ½Ð¸ÐºÐ¸ ÑĤÐ¸Ð½
ĠÑĢÑĥÑħ Ð»ÑıÐ´Ð¸
ĠÐľÐ°Ð¼Ð° Ð¹
Ð¸ÑģêĻĭ ÑģÑĬ
ĠÐ Ń
ÑĤ Ð¾Ð²Ð°Ð½
Ð½ ÑĹÑ§
Ñģ Ð°Ð²
Ðº Ð²Ðµ
ĠÐ´ Ð¾ÑĢÐ¾Ð´
ÑģÑĤ Ð¸Ð½Ñ£
Ð· Ð±ÑĢÐ°
ÑĤÐ¸ Ð½Ñ£
ĠÐ½Ðµ Ð·Ð°
ÑĨ ÐºÐ¾Ð¼ÑĬ
ÐµÐ½ Ð½ÑĭÐ¼ÑĬ
ĠÐ¶Ðµ Ð»Ðµ
ÑĪÐ° Ð°ÑĪÐµ
ÑģÑĤÐ¸ Ñı
Ð¸Ð¼ Ð°Ð³Ð¾
ĠÐ¡ Ð»Ð°Ð²
ĠêĻĹ êĻģ
ĠÐ²Ñ£ Ð½ÐµÑĨÑĮ
ĠÑĸ Ð²Ð°Ð½Ð°
ĠÐºÐ°Ðº ÑĸÐµ
ĠÑĤÐ° ÑĩÐµ
Ð¿Ð¾Ð´ Ð¾Ð±ÑĮ
ĠÐ²Ð¾Ð· Ð´ÑĭÑħÐ°
ĠÐĵ Ðµ
Ð½Ñ§ Ð½Ð¸Ðµ
ĠÐķ Ñĥ
ĠÐ¿Ð¸ ÑĦÐ¸
ĠÐºÑĢ Ñ¹
ĠÐĳÐ¾Ð³ Ð¾Ð¼ÑĬ
ÑģÐ¿ Ð¾Ð»Ð½Ð¸
ĠÐ¼Ð°Ð» ÑĭÐµ
ĠÐ½ÐµÐ¼ Ð°Ð»
ĠÑģÐ»Ð°Ð² Ñ§
ĠÐºÐ¾Ð» ÑĬ
ĠÐ±êĻĳ ÑģÑĤÑĮ
ĠÐ¼Ð¸ÑħÐ° Ð¸Ð»ÑĬ
ÐºÑĢÐ° ÑĤ
Ñ¹Ð´ Ñ¹
ÐµÑĢÑĮ Ñİ
ÑģÑĤÐ°Ð½ ÐµÑĤ
ĠÑĤÑĮ ÐºÐ¼Ð¾
ĠÑĢÐµÑĩ ÐµÐ½Ð¾
ĠÐ³Ð½Ñ£ Ð²Ð°ÑĤÐ¸
ĠÐ¼Ð°Ð½Ð° ÑģÑģ
ĠÐ¿Ð°Ð² Ð»
ĠÐ±Ð¾Ð³Ð¾ÑĢÐ¾Ð´Ð¸ ÑĨÐµ
ĠÐ¿ÑĢÐ°Ð²ÐµÐ´ ÐµÐ½ÑĬ
ĠÐ¢Ð°Ðº Ð¾Ð¶Ð´Ðµ
ĠÐ³ÑĢÐ¾Ð± Ñĥ
ĠÐ²Ð¾ÐµÐ²Ð¾Ð´Ð° Ð¼ÑĬ
ĠÑĢÐ¾Ð± Ñĥ
ĠÐ°Ð½Ð³ ÐµÐ»Ð¾Ð¼ÑĬ
ĠÐ²Ð°Ð² Ð¸Ð»
ĠÑĥÐ±ÑĭÑĤ ÐºÐ°
ĠÐ¿ÑĢÐ¸Ð¸ Ð´ÑĥÑĤ
ĠÐ±Ð¾Ð»ÐµÐ· Ð½Ð¸
ĠÐ³Ð»Ñİ ÑĤÑĮ
ĠÐ±ÑĮÑĸ ÑĤÐ¸
ĠÐ¾ÑĤÑĤ Ð¾Ð»Ðµ
ĠÐ¿ÑĢÐ¿Ð´Ð± Ð½Ð°Ð³Ð¾
ĠÑĤÑĢÐµÐ¿ ÐµÑĤ
ĠÐ»Ð¾Ð²Ðµ ÑĨÑĮ
Ð» ÐµÑĤÑģÑı
ĠÐ² Ð½Ñ¹
Ñı Ð´ÐµÑĨÑĮ
ÑĪ Ð½Ð¸Ð¸
ĠÐ¼ Ð¾Ð½Ðµ
ÑĤÐ¸ Ð»Ð¸
Ð»Ð° Ð½Ð°
Ð³Ð¾ ÑģÐ¿Ð¾Ð´
ĠÑĥ Ð³Ð»Ð°
ĠÑģÑĤ Ð°Ð²ÑĬ
Ð½Ð¾ Ñī
Ð¾ÑĤ Ð½Ñı
ĠÑģÑĬ Ð·ÑĬ
ĠÑı Ð¼Ñĥ
ĠÐ±Ð¾ Ð°ÑĢÑĮ
ĠÐ¿Ð¾Ð» ÐºÑĭ
ĠÐ¿Ð¾Ð» ÐºÑ£ÑħÑĬ
ĠÐŁ Ð¾ÑĢÑĬ
ĠÐĴ Ð´Ñ£
ÑĢÑĥ ÑĩÐ¸Ð½Ð¸
ĠÐ¿Ð¾Ðº Ð»Ð¾
ÑĪÑĮ ÐºÐµ
ĠÑ¹ Ñĩ
ĠÐ¿ÑĢÑ£ ÑĢÑ£
Ð¼Ð¾ÑĤ Ð°
ÑĹ ÐµÐ¼
ĠÐķ ÑĢÐºÑĥ
ĠÐ¿Ð¸Ñģ Ð¼Ñ£
ĠÐ´Ð²Ð¾ÑĢ Ð½Ð¸ÐºÐ¾Ð²
Ð¼Ð¾ ÑĪÐºÐ°
ĠÐ²ÐµÑĢ ÑģÑĤ
ĠÐ²Ðµ ÐºÐ°
ĠÐ¿Ð¾Ð¿ Ð¾Ð¼
ĠÑĩÐµÑĢ ÐµÐ½
ĠÐ²Ð¸Ð´Ñ£ Ð²ÑĪÐ¸
Ñµ Ñģ
ĠÑī Ð¸ÑģÐ»Ð°
ĠÑģÐ»Ð° ÑĤÐ¸ÑģÑı
ĠÐ´ÑĮ Ð°ÐºÑĥ
ĠÐ¼Ð¸ÑħÐ° Ð¸Ð»Ð¸
ĠÑģÐ²ÑıÑĤ ÑĭÐµ
ĠÐ²Ð¾Ñģ Ð¾Ð»Ð¸
Ð¸ÑĤÐµÐ» êĻĹ
ĠÐ¼Ð¾Ð³ Ð»ÑĬ
ĠÐ²Ð¿ ÑĢÐ°Ð²
Ð°Ñħ Ñ¹
ĠÐĺÐ»ÑĮ Ñ£
ĠÑıÐ·Ñĭ ÑĨÑĭ
ĠÐ½Ð°Ð´Ð¾Ð± ÐµÑĤ
ĠÐ³Ð¾ÑĤ Ð¾Ð²Ð¸ÑĤÑĮ
ĠÐ¶ÐµÐ»Ð° Ð½Ð¸Ðµ
ĠÐĳÑ£ Ð»ÑĥÑİ
ĠÐ¿Ð¸ÑĤÐ¸ Ñı
ĠÐ¿ÑĢÐ¸ÑĪÐµÐ´ ÑĪÐ¸
ĠÐ±ÑĢÐ°ÑĤÐµ ÑĨÑĬ
ĠÑģÐ¾Ð±ÑĢÐ° Ð²ÑĬ
ĠÐ±Ñ£Ð» Ð¾ÐºÐ°Ð¼ÐµÐ½
ĠÐ¿Ð¾Ð´ÑĮÑı ÑĩÐ¸Ñħ
ĠÐ»ÐµÐ² ÐºÐµ
ĠÐ²Ð¾Ð·Ð²ÑĢÐ°ÑĤÐ¸ ÑģÑı
ĠÐ¿Ð¾Ð¼ÑĭÑģÐ»Ð¸ ÑĤÐ¸
ĠÑĥÐ²Ð¸ Ð´ÐµÐ»Ð°
ĠÐ´Ð°Ð²Ñĸ Ð´êĻĭ
ĠÑĢÐ¾Ð·Ð±Ð¾Ð¹ Ð½Ð¸ÐºÐ¾Ð²
ĠÐºÑĢÐ¾ÑĤ Ð¾ÑģÑĤÐ¸
ĠÐ¿Ð¾ÑģÑĤÐ¸ Ð¶Ðµ
ĠÐ¿Ñģ Ð°Ð»
ĠÐ´ÑĢÑ£ Ð²Ð°
ĠÑģÐºÐ²ÐµÑĢ Ð½Ð¾
ĠÑĩÐµÑģ Ð½Ð°Ð³Ð¾
ĠÐ½ÐµÐ´ÐµÐ»ÑīÐ¸ Ðº
ĠÐĽÐµ Ð±Ñ£
ĠÐ¿Ð°Ð»Ð° ÑĤÑĥ
ÐºÐ»Ð°Ð´ ÐµÐ½ÐµÑĨÑĬ
ĠÐ·Ñĥ Ð±Ñĭ
ĠÐ´Ð¾ÑģÑĤÐ¾Ð¹ Ð½Ð¾
ĠÐ¾ÑĤÐºÐ°Ð· ÑĭÐ²Ð°ÑĤÐ¸
ĠÐ´ÑıÐ´ Ñİ
ĠÐļÐ°Ð· Ð½Ð°
ĠÐºÐ¾Ð´ ÑĮ
ĠÐļÐ°ÑĢÑĤÐ° ÑĥÑģ
ĠÐĴÑģÐµÑģÐ»Ð°Ð²ÑĮ ÐµÐ²Ð¸ÑĩÑĮ
ĠÐ±ÑĥÐ¹ Ð½Ñĥ
ĠÐ¿Ð¾Ð¼ÐµÑĢ Ð»Ð¸
ĠÑģÐ»ÑĥÐ¶Ð¸ Ð»Ð¸
ĠÑģÐ°ÑħÐ°ÑĢ Ð½ÑĭÑı
ĠÐ¡Ð°Ð²Ð° Ð¾ÑĦÐ°
ĠÐŁÑĢÐ¾Ð³Ð¾Ð²Ð¾ÑĢ Ð¸ÑĤÑĬ
ĠÐ·Ð¼Ñ£Ð¸ÑĪ ÑĪÐ¾
ĠÐºÐ»ÐµÐ²ÐµÑĤÑĮ Ð½Ð¸ÐºÐ°
ĠÑħÐ¾ÑĨÑĮ ÑĪÐ¸
Ð» Ð½ÑĸÐµ
Ð² Ð¾Ð¼ÑĬ
ĠÑĤ êĻĻ
ĠÑĤ ÐµÐ»Ð¾
Ð± Ð¸Ð»
ĠÐ¾ Ð»ÐµÐºÑģÑ£
ĠÐ½Ð° ÑĩÐ¸
Ð¾ÑĢ ÐºÐ°
Ð»Ð¸ ÑħÑĬ
Ñĸ êĻĭ
Ð½Ð° Ð²
ĠÑĥ Ð²Ð¸Ð´Ð¸
ĠÑĥ ÑĩÐ¸ÑĤÑĮ
ĠÑĢÐ° Ð½Ð°
Ð°Ð½ ÑĮÑı
ĠÑģÑĬ Ð¼Ð¾ÑĤÑĢÐ¸
êĻĳ ÑĤ
ĠÑģÐ» Ð¾Ð²Ðµ
ĠÐ²Ñ£ ÑĢÐ¾
ĠÑĢÑĥ Ð±ÐµÐ¶
Ð¶Ð¸ Ð²Ð¾
ĠÐ²Ð¾Ð· Ð´ÐµÑĢÐ¶Ð°
ÑĥÑİ ÑīÐµ
ĠÑģÐ¿ ÑĢÐ¾ÑģÐ¸
ĠÐ¼Ðµ Ð´Ð°
Ð³Ð¸ Ð¸
ĠÑģÑĤÑĢÐ° Ð¶Ð°
ĠÑģÑĮ Ð¼
ĠÑģÐ²Ñ£ Ð´Ñ£
ĠÐ±Ð¶ ÑĸÐ°
Ð²ÐµÐ´ ÑĬ
ĠÑī Ð¸ÑĤÑĬ
ÑģÐºÐ¾Ð¼ ÑĮ
ÑĤÐ¾ÑĢ Ð¸
Ð¶Ð´ Ñİ
ĠÐ¿Ð¾Ð¸ ÑģÑĤÐ¸Ð½Ð½Ñ£
ĠÐŁÐ¾Ñģ Ð»Ðµ
ĠÐ¿ÑĢÐ¸ÑģÑĤÑĥÐ¿ Ð°
ĠÐ¿ÑıÑĤÐ¸ Ð´ÐµÑģÑıÑĤÐ¸
Î¹ Î±
ĠÐ¿Ð¾ÑĤÑĢÐµÐ± Ñ¹
ĠÑģÐ»Ñ£ Ð´
ĠÐ¿ÑĢÐ¾Ð² Ð¾Ð¶
ĠÑĢÐ¾Ð´Ð¸ÑĤÐµÐ» ÐµÐ¹
ĠÑĤÐ°ÑĤÑĮ Ð±Ð°
ĠÐ·Ð»Ñĭ Ñħ
ĠÐ²Ð½ÑĥÑĤ ÑĢÐµÐ½
ĠÐºÐ¾Ð½Ðµ ÑĩÐ½Ð¾
Ð² Ð»Ð°
ĠÐ² Ð½Ð¾Ð²
ĠÐ´ ÑħÑĮ
Ð³ Ð½Ðµ
ĠÐ» Ð¾Ð¶Ð¸
ÐµÐ» ÐµÐ²Ð°
Ð½Ð¾ Ñ«
ÐµÐ´ Ñĥ
ĠÑĢÐ° Ð±Ñ£ÑħÑĬ
ĠÑ¡ ÑģÐº
ĠÑĨ ÑĢÑ£
ĠÑģÐ» ÑĮÑĸ
ĠÐ¡ ÐµÐ¼
ĠÐ²Ñ£ Ð´ÑĭÐ¸
ĠÑĨÐ°ÑĢ Ðµ
ĠÑĨÐ°ÑĢ ÑģÑĤÐ²ÑĥÑİ
ĠÑģÐ¸ Ð½Ð¾
ĠÐ±ÑĢÐ° Ð½ÑĬ
ÑīÐ° Ð¸
ĠÐ¼Ñ£ ÑīÐ°Ð½
ĠÑĦ Ð»
ĠÐºÐ¾ÑĢ ÑĬ
ĠÑģÐ°Ð¼ êĻĭ
ĠÑģÑĥÐ´ Ð¸ÑĤ
ĠÐºÑĢ Ñİ
ĠÐ²ÐµÑĢ ÑģÑĤÐ°
ĠÐ¿ÑĢÐ¾ÑĤÐ¸ Ð²Ð¾Ñĥ
ĠÐ»ÑİÐ± Ð¸ÑĤÑĬ
ÐºÑ¡ Ð²
ĠÑĢÐ¾Ð· Ð´
ĠÐ·Ð½Ð° Ð¼ÐµÐ½ÑĮ
ĠÐ´ÑĮ Ð¼ÑĮ
ÑĪÐº Ñ¹
ĠÐ´Ð¾Ð±ÑĢ Ñ¹
ĠÐ¿Ð¾ÐºÐ»Ð¾Ð½ Ð¸ÑģÑı
ĠÐ¿Ñ£ ÑĪÐ¸Ðµ
ĠÐ±Ð¾Ð»ÑĮ ÑĪÐ¸Ð¼ÑĬ
ĠÑĥÐ± Ð¾Ð³ÑĬ
ĠÐ´Ð°ÑĢ Ð¾Ð²Ð°Ð½
ĠÐ³Ð»Ð°Ð² Ñ«
ĠÐ´Ð¼Ð¸ÑĤ ÑĢÑ£
ĠÐ·ÑĬ Ð»ÑĬ
ĠÐ°ÑĢÑħ Ñĸ
ĠÐ·Ð°Ð¿Ð¸Ñģ Ð°ÑĤÐ¸
ĠÐ·Ð´Ð¾ÑĢ Ð¾Ð²Ð°
ĠÑģÐ¾Ðº ÑĢÑĥ
ĠÑĤÐ¸Ð¼Ð¾ ÑĦÑ£
ĠÐ¿ÑĢÐ°Ð· Ð½Ð¸ÐºÑĬ
ĠÐ³ÑģÐ´ÑĢ ÐµÐ¼ÑĬ
ĠÑģÐ¸Ð´ Ð¾ÑĢÑĥ
ĠÐ½Ñ£Ðº Ð¾Ð»Ð¸ÐºÐ¾
ĠÐ²Ð°Ð² Ð¸Ð»Ð°
ĠÐ½ÐµÐ½Ð°Ð²Ð¸ ÑģÑĤÑĮ
ĠÐ¿ÑĢÐµÑģÑĤ Ð¾Ð»Ð°
ĠÐºÑĸ ÐµÐ²
ĠÑģÐ¿Ð¾Ð´Ð¾Ð± Ð¸
ĠÐ»ÐµÐ¾Ð½ ÑĤÑĮ
ĠÐ¿ÑĢÐ¾Ð¼ÑĭÑģÐ» Ð¾Ð¼ÑĬ
ĠÐ·Ð°Ñī Ð¸ÑĤ
ĠÐ½Ð¸ÑĦÐ¾Ð½ ÑĤÑĥ
ĠÐºÐ¾Ð»Ð° ÑĩÐ¸
ĠÐ¼Ð½Ð¾Ð¶ÑĮ ÑģÑĤÐ²Ð°
ĠÑģÐ¼ÐµÐ½ Ð¾Ð²Ð°
ĠÐ²ÑĮÑĢÑĮ ÑĪÑĮ
ĠÐĶÐ°Ð²Ð¸ Ð´ÑĬ
ÑĢ Ð¸Ð»ÑĬ
Ñĥ Ð¹
ĠÐ¿ ÐµÐ½Ðµ
ĠÑĤ Ð¾Ð¶Ð´Ðµ
ĠÐ¾ Ð¼Ñĭ
ĠÐ¿ÑĢ Ð¾ÐºÑĬ
ÑĢÐ° Ñħ
ĠÐ° Ð´ÑĬ
Ñī ÑĥÑİ
ĠÐ» ÐºÑĬ
ĠÐ²ÑĬ ÑħÐ¾Ð´
Ð°Ðº Ñ£
Ð¸Ð» Ð¾Ð¼ÑĬ
Ñ¡ ÑĢÐ°
ÑĢÐ¸ Ð¼ÑĬ
Ð¾Ð· Ð°
ĠÐŁ ÑģÐ°Ð½
ĠÐ¿Ð¾Ñģ ÐµÐ»ÑĮ
ÑĤÐµ ÑĢÐ°
ĠÑģÐ¸ â¸¯
ĠÑĢÐ°Ð· Ð³Ð½Ñ£
ĠÐľ êĻĭ
ĠÐ¿Ð¾Ðº Ð¾Ñı
Ð¶Ð° ÑİÑīÐµ
ĠÐ²Ð¾Ð» Ð¾Ð³Ð¾
ÑıÑĤ Ð½Ð¾
ĠêĻĭ ÐºÐ°Ð·
ĠÑĥÑĩ ÐµÐ½ÑĸÑı
Ð¼Ðµ Ð¶Ðµ
ĠÐ¿ÑĢÐ¸ÐºÐ°Ð· ÑīÐ¸ÐºÐ°
ĠÑģÑĤÑĢÑ£ Ð»ÑĬ
ĠÐ½ÐµÐ¼ Ð°Ð»Ð¾
ĠÐºÐ°Ð¼ ÐµÐ½ÑĸÐµ
ĠÑģÐ»Ð°Ð² Ñ¹
Ð½Ð¾Ñĥ Ð¾ÑĥÐ¼Ð¾Ñĥ
ĠÑĢÐ°êĻģ Ð¾ÑĢ
ĠÐ³ÑĢÐ°Ð´ Ð¾Ð¼
ÑģÑĤÐ²Ñĥ ÐµÑĤ
ĠÑĢêĻĭ Ð±Ð»Ñ§
ĠÐ¿ÑĢÑĸ Ñ£ÑħÐ°Ð»ÑĬ
ĠÐºÐ¾Ð¿ ÑĮÐµÐ¼ÑĬ
ĠÐ²êĻĳ ÑĪÑĮ
ĠÐŁÑĢ ÑĸÐ¸
ĠÐ´ÑĮÑı ÐºÐ¾Ð²
ÑģÑĤÐ²Ð¸ Ñİ
ĠÐ¿ÑĢÐ¸ÑģÑĤÑĥÐ¿ Ð¸Ð²ÑĬ
Ð³Ð¾ÑĤ Ð¾Ð²Ð°Ð½
ĠÐ¾Ð² ÑģÑı
ĠÐ¿ÑĢÐµÐ¶ Ð½Ð¸Ðµ
ĠÐ³Ð¾ÑĤ Ð¾Ð²Ñĭ
ĠÐ¼Ð¸ÑĢ Ð½Ð¾
ÑģÑĤÐ²ÐµÐ½ Ð½Ð¾
ĠÐ¿ÑĢÐ¾Ð³ Ð¾Ð½
Ð»ÐµÐ½Ð¸ ÐµÐ¼ÑĮ
ĠÐ²ÐµÑĤ ÑĩÐ°
ĠÐ¸Ð·Ð±Ð°Ð² Ð»Ñ§
ĠÐ»ÐµÐ² ÐºÐ°
ĠÐ»ÐµÐ¶ Ð¸ÑĤ
Ð»Ð¾Ñģ ÐµÑĢ
ĠÐ´ÑĥÐ¼ Ð°ÑĤÐ¸
ĠÐ¾Ð· ÐµÑĢÐ¾
ĠÐ¿ÑĢÐµÑģÑĤÑĥÐ¿ Ð°ÑĤÐ¸
ĠÑĩÑĮÑĢ Ð½Ð¾ÑĢÐ¸Ð·ÑĮ
ĠÐ´Ð¾Ð·Ð¸ ÑĢÐ°ÑĤÐ¸
Ðµ Ð°
ÑĢ â¸¯
ĠÑģ Ð¸Ð½Ðµ
Ñĥ Ð¶Ð¸
Ð´ Ð¾Ð±ÑĮ
Ñĭ Ð¿Ð°
ĠÐ½ Ð¼ÑĬ
ĠÐ´ ÐµÐ²Ð¸ÑĩÑĮ
ĠÐ± Ñĸ
Ñħ Ð²Ð°Ð»
ĠÐ¾ ÐºÑĥ
Ñ§ Ð¼ÑĬ
ĠÐ½Ð° Ð½ÐµÑģ
ĠÐ½Ð° Ð²êĻĭ
Ð½Ð¸ ÑĨÑ£ÑħÑĬ
ÑĢÐ° Ð½Ð¾
ĠÑĥ ÑģÐ°Ð´Ð¸
ÐµÐ» ÑıÑĤÑĮ
ĠÐ¿ÑĢÐ¸ Ð¿Ñĥ
ĠÐ¿ÑĢÐ¸ Ð»Ð¾Ð¶Ðµ
ĠÑħ ÑģÐ°
ĠÑħ Ð¾Ð¶Ð´Ð°
Ð¸Ð½ Ð¾Ð¼Ñĥ
Ð¾Ð³Ð¾ ÑĪÐ°
Ñ¡ Ð³Ð¾
êĻģ Ð°ÑĤÐ¸
ĠÐ¾Ñĥ Ð¼Ð°
ĠÐ¿Ð¾Ñģ Ð¿Ð¾Ð»ÑĮ
ÑĢÐ¾ ÑĦ
ĠÐĳ ÐµÐ·ÑĬ
Ð»Ñı ÐµÑĤ
Ð¼Ñ£ Ð½
ĠÑĢÑĥ Ðº
ÑĩÑĮ Ð½Ð¾
ĠÐļ Ð¾Ð»Ð¸ÐºÐ¾
ĠÑģÐ¾ ÑħÐ¸
Ð¶Ð° Ð½Ð¸Ðµ
ĠêĻģ Ð»Ñĭ
ĠêĻģ Ð»Ð°ÑĤ
ĠÐ¿ÑĢÐ°Ð² Ð´Ðµ
Ð³ÑĬ Ð½Ð°
ĠÐ¿ÑĢÐµÐ´ Ð¸
ĠÐ¼Ð°Ð» ÑĭÑħÑĬ
ĠÑĩÐ¸ ÑģÑĤÐµ
ĠÐ²Ð¸Ð´Ñ£ Ð½Ð¸Ðµ
ĠÐ¿ÑĢÐ¸ÐºÐ°Ð· Ð°Ð»
ĠÐ¾Ðº Ð¾Ð½
ĠÐ½Ð°Ð´ Ð²Ð¾Ðµ
ĠÐ±Ð¾Ð»ÑĮ ÑĪÐ°Ñı
ĠÑĥÐ¼ Ð¾Ð¼
ĠÐ´Ð¾ÑģÑĤÐ¾ Ð¸
ĠÐ¶Ð¸ÑĤ ÑĸÐ°
ĠÐ¼ÐµÑĢ Ð·
ĠÐ¿Ð¾Ð¼Ñ£ ÑĤÐ°
ĠÑģÑĤÑĢÐ¾ Ð¸ÑĤÐµÐ»ÑĮ
ĠÑģÐºÐ¾ ÑĤÑĭ
ĠÐ¸ÑģÑĤÐ¸Ð½ Ð½Ð°Ð³Ð¾
ĠÐ¿ÑĢÐµÐ±ÑĭÐ²Ð° ÑĪÐµ
ĠÑģÐµÐ»Ð¸ ÑīÐ°
ÑĭÐ²Ð° ÐµÑĤÑĬ
Ð»Ð¾Ñĥ Ñİ
ĠÐ¿Ð¾Ð³Ð¾ ÑģÑĤÑĬ
ĠÑĢÐ°Ð·ÑĥÐ¼ Ð¾Ð¼
ĠÐ¼ÐµÑģÑı ÑĨÑĬ
ĠÑģÐ¾Ð»Ð¾Ð¼ Ñ¡Ð½ÑĬ
ĠÑ¡Ð±Ñĭ ÑĩÐ°
ĠÐ¼Ð°ÑģÑĤÐµÑĢ Ñĭ
ĠÑ¤ Ð³Ð´Ð°
ĠÐ¼Ð¸Ðº Ð¸ÑĤÐ°
ĠÐ¾Ð±Ð¾ Ð¸Ñħ
ĠÑģÐºÐ°Ð·Ñĭ Ð²Ð°ÑĤÑĮ
ĠÐ¿Ð¾Ð½Ð¾Ð¼ Ð°ÑĢÑĮ
ĠÐ´ÐµÐ²Ñı Ð½Ð¾ÑģÑĤÐ¾
ĠÐĳÑĢÐ°ÑĤÐ¸ Ñı
Ð ļ
Ð¸ ÑĨÐµ
Ð´ ÑĢÐ¾
Ð´ Ð¸Ð½Ñĥ
Ð³ ÐµÑĢ
Ð³ Ð²Ð¸
ĠÐ¼ ÐµÑĤÐ°
ĠÐ¼ ÑĩÐ½
Ð· Ð¾Ñĥ
ĠÐ¾ ÑĦ
ĠÐ¿ÑĢ Ð¾Ð²Ð°
Ð¾ÑĢ Ð¾Ð¶
ĠÑĩ ÑĢÑĬ
ĠÐ´Ð° Ð´ÑĥÑĤÑĬ
Ð½Ð¾ ÑģÐ¸ÑĤÑĮ
ĠÑħ Ñĸ
ÐµÐ´ Ñĭ
ĠÐ·Ð° ÑģÑĤÐ°Ð½
ĠÐ¼Ð¾ ÑĥÐ´
ĠêĻĹ ÐºÑ¹
Ð¼ÑĮ Ñĸ
ĠÑĶ Ð³Ð´Ð°
ĠÐ±ÑĢÐ° Ð³Ð°
ĠÑĤÐ° Ð´
ÑģÐºÐ° ÑħÑĬ
ÑĥÐ¿ Ñĥ
ÑĥÑİ ÑĤÑĬ
ĠÐ¼Ð¾Ð» Ð¸ÑĤÐ¸ÑģÑı
ĠÐ´Ñĥ Ð»Ð°
ĠÑģÑ£ Ð¹
ĠÑģÑ£ Ð´Ð°Ð»Ð¸
Ð´Ð¸Ð½ êĻĭ
Ð·Ñĭ Ð´Ð¾ÑĪÐ°
ĠÐ±ÐµÑģ Ð¾Ð²
ĠÐ¿Ð¾Ð± Ð°ÐµÑĤÑĮ
ĠÐ´Ñ£Ð»Ð° ÑĪÐ¸
ĠÐ´Ð¸ Ð²Ð¸Ð¸
ÑĤÐ² Ð¾Ð²Ð°Ð»ÑĬ
ĠÑģÑĤÐ¾Ð» Ð¿
ĠÐ¼Ð¾Ð¶Ðµ Ð¼
ĠÑĥÐ¼ ÑĢÐµÑĤÑĮ
ĠÐ¼êĻĭ Ð¶ÑĮ
ĠÐ¦ ÑĢÑĮ
ĠÐ¿Ð¾ÑģÐ°Ð´ ÑĨÐºÐ¾Ð¹
ĠÐ´Ð¼Ð¸ÑĤ ÑĢÐµÐ²
ĠÐ¾ÑĤÐ¿Ñĥ ÑģÑĤÐ¸ÑĤÐ¸
ĠÐ²Ð¾Ð¹ ÑģÐºÐ¾Ð¼ÑĬ
ĠÑĩÐ¸ÑģÐ»Ð° Ð¼ÑĬ
ĠÐ¾Ð³Ð½ÐµÐ½ Ð½ÑĭÐ¼Ð¸
ĠÐ²Ð¸Ð´Ð¸ Ð¼ÑĬ
Ġ10 6
ĠÐ´Ñ£ÑĤ ÐµÐ¼
ĠÑĢÐ°Ð² Ð½ÑĭÑı
ĠÐ¿ÑĢÐ¸ÑĪÐµÐ´ ÑĪÑİ
ĠÐ¿Ð¾Ð¼ÑĭÑĪ Ð»Ñ§
ĠÐ±Ð¾Ð»ÑĮÑĪ Ð¾Ð³Ð¾
ĠÐ±ÑĢÐ°ÑĤÐµ ÑĨ
ĠÐ¨ Ðµ
ĠÐĺÐ²Ð°Ð½ Ð¾Ð²Ð¸ÑĩÐ°
ĠÐ½Ð°Ð¿ÑĢÐ°Ð² Ð»ÐµÐ½ÑĸÐµ
ĠÐ¿Ð¾Ð´ÑĮÑı ÑĩÐµÐ¹
Î± ÏĦ
Ð½Ð¸Ð¼ Ð°ÑĤÐ¸
Ð³Ð°ÑĤÐ¸ ÑģÑı
ĠÐ¿ÑĢÐ¾Ð¼ÐµÐ¶ Ñİ
ĠÐºÑĢÐµÑģÑĤÑĮÑıÐ½Ð¸ ÑĪÐºÐ¸
ĠÐ¼ÐµÐ½ÑĮ ÑĪÐ¸
ĠÐ¸Ð·Ð²Ð¾Ð»Ð¸ ÑĪÑĮ
ĠÐ¸Ð½Ð¾Ð·ÐµÐ¼ ÑĨÐ¾Ð²
ĠÐ²ÐµÑĢÐµ ÑĪÑĮ
ĠÐ¿Ð¸ÑīÐ°Ð» ÑıÐ¼ÑĬ
ĠÐ¾ÐºÐ»Ð°Ð´ Ð¾Ð²
ĠÑĢÐ°Ð·Ð¼Ñ£ÑĢ Ð½Ð¾Ð¹
ĠÐ½Ð°Ð¿ÑĢÐ°Ð²Ð»ÐµÐ½ ÑĸÑı
ĠÐ¿ÑĢÐ¾Ð¼Ðµ Ð¶Ð¸
ÑģÑĤÐ¾Ñĥ Ð¿
ĠÐµÑģÑĮ Ð¼ÑĬ
ĠÐ´Ð°ÑĤ ÑĨÐºÐ¾Ð¼Ñĥ
ĠÑĤÑĢÐµÐ³ÑĢÐ° Ð½ÑĨÐ°
ĠÐ¿Ð¾Ð»ÐºÐ¾Ð² Ð¾Ð¹
ĠÐ¾ÑĢÑĥÐ¶ÐµÐ¹ Ð½Ð¸ÑĩÐµÐ¼Ñĥ
ĠÐ¼Ð¾Ð»ÐµÐ± Ð½Ð°Ñ§
ĠÐºÐµÑģ Ð°ÑĢ
ĠÐ¿ÑĢÐµÐ»ÑĮ ÑģÑĤÐ¸
ĠÐ¾Ð±ÑģÑĤÐ¾ Ð¸ÑĤÑĬ
ĠÐ¿ÑĢÐ°Ð¿Ð¾ÑĢ Ð¾Ð²ÑĬ
ĠÑģÑĭÑģÐº Ð°Ð²
ĠÑģÐ²Ð¸Ð½ÑĩÐ°ÑĤ Ð°Ð³Ð¾
ĠÐĲÑĦÐ°Ð½Ð° ÑģÐ¸Ñİ
ĠÐ´ÑĢÑ¹Ð¶ Ð±Ð°
ĠÑħÐ¸ÑĤÑĢÐ¾ÑģÑĤ ÑıÐ¼ÑĬ
ĠÐĺÐµÑĢ Ð¾ÑģÐ°Ð»Ð¸
ĠÑīÐµÑĢÐ±Ð° ÑĩÐ¾Ð²
ĠÐ¾Ð½ÑĤÐ¸ Ð¿ÑĮÐµÐ²
ĠÐŀÑĤÐ¿Ñĥ ÑīÐµÐ½Ñĭ
ĠÐ¿Ð¾Ð³Ð¾Ð²Ð¾ÑĢ Ñı
: :
ÑĤ Ñİ
Ð² ÑĥÑĤ
Ñı Ñı
ĠÐ¼ ÑĤÑĢ
ĠÐ¾ ÐºÑĥÐ¿
ĠÐ½Ð° ÑĢÐ¾Ñĩ
ĠÐ³ Ð½Ñĥ
ĠÐ· ÐµÐ»Ð¸
ĠÑĥ ÑģÑĤÑĢÐ¾Ð¹
ĠÐ´Ð° ÑİÑĤ
ĠÑģÑĤ Ð»ÑĬ
ĠÐ¿ÑĢÐ¸ Ð¸ÑĤÐ¸
ĠÐ¡ ÑĥÐ´Ð¸
ĠÐĿ Ð°ÑĢ
ĠÐ»Ð¸ ÑģÑĤÐ¾Ð¼
Ð¼Ñ£ ÑĤÐ¸
ĠÑĢÐ°Ð· Ð½ÑĭÑħÑĬ
ĠÐ¶Ð¸ êĻģÐ½Ð¸
ÑģÑĤÐ² Ñ«
ĠÐ¾ÑĤÑĬ Ð²ÑĮÑĢ
ÑıÑĤ ÐµÐ»Ñİ
ĠÐ½Ñ£ ÑĨÑĸÐ¸
ĠÐ²ÑĬÐ· Ð»Ñ£
ĠÐºÑĢÐ° Ð»Ñ£
ĠÐ²Ðµ ÑģÑĤÑĮ
ÑģÐ»Ð° Ð²Ð¾Ñĥ
Ð»Ð¾Ð½ Ð¸
ĠÐ½Ð¸Ðº Ð¾Ð½Ð°
ĠÐºÑĥÐ¿ ÑĨÐ°
ĠÐ²Ð¾Ð´ Ð¸
ĠÐ¿Ð¾Ð²ÐµÐ»Ñ£ Ð½ÑĸÐµ
ĠÐ±ÑĭÐ²Ð° ÑĪÐµ
Ð½ÐµÑģ Ð¸
ĠÐ´Ð¾Ð» Ð¾Ð¶
ĠÑĨÐµÑĢ ÐºÐ¾Ð²ÑĬ
Ð¸ÑĪÐ° Ð³Ð¾
ĠÐ¿Ð¾Ñĩ Ð¸ÑĤÐ°ÑĤÐ¸
ĠÐ¿ÐµÑĩ ÐµÑĢ
ĠÐ´Ð² ÐµÐ½
ĠÑĨÐµÐ» Ð¾Ð²Ð°ÑĤÑĮ
ĠÐ·Ð°Ð¿Ð°Ñģ Ð¾Ð²
Ð¿Ð¾ ÑģÑĤÐ°Ð²
ĠÐľÐ¸ÑħÐ° Ð¸Ð»Ñĥ
ĠÐ¼ÑĥÐ´ ÑĢÐ°
ĠÐ¸Ð¼Ñı ÑĪÐµ
ĠÐ´ÐµÐ² ÑıÑĤÐ¸
ĠÐ¿Ð¾Ð´Ð° Ð¹
ĠÑĢÐ°ÑĤ Ð½Ð¾Ðµ
ĠÐ±êĻĭ ÑĢÐ¼Ð¸
ÑĩÑı Ñı
ĠÐ¾ÑĢ Ñ«
ĠÐ¿ÑĢÐ°Ð· Ð½Ð¸ÐºÐ¸
ĠÐ¿Ð°ÑĢ ÑĦ
ĠÐºÑĭ ÐµÐ²ÑĬ
ĠÐ¿Ð¾ÐºÑĢÑĭ ÑĤÐ¸
ĠÐŁÐ¾Ð¼ Ð¸Ð»Ñĥ
ĠÐ´Ñī ÑĶÑĢÐ¸
ĠÐºÑĥÐ· Ð¼Ñĥ
Ð½Ð¸ÑĨ Ð¾Ñĥ
ĠÑĤÐ¾ÑĢÐ³Ð¾Ð² Ð»Ðµ
ĠÐ´ÑĥÑĪÐµ Ð³ÑĥÐ±
ĠÐ¿Ð¾Ð²ÐµÑĢ ÑģÑĤ
Ð´ÑĢÐ°Ð² ÑģÑĤÐ²Ñĥ
ĠÐ¿Ð¾ÑĤÑĢÑ£ Ð±ÑĮ
ĠÐ¿ÑĢÐ¾Ð³Ð½Ñ£ Ð²Ð°
ĠÐµÐ´Ñĥ ÑĩÐ¸
ĠÐ³Ð½Ñ£Ð² Ð¾Ð¼ÑĬ
ĠÐ²Ð¾Ð½ÑĮ Ð¶Ðµ
ĠÐ»Ð¸Ð³Ð°ÑĤÑĥ ÑĢÐ°
ĠÐ±ÐµÑģÐºÐ° Ð±Ð°Ð»
ÑĢ Ð¾Ð´Ð¸
Ñģ ÐµÐ»Ð¸
Ñģ Ð°Ð»ÑĬ
Ð¼ Ð¾Ð¼
Ðº ÑĸÑ§
ĠÐº Ð¸Ð»
ÑĪ ÑĥÑİ
Ñĩ Ð¸ÑĤÐ°
ÑĤÐ¸ Ð½ÑĮ
ĠÐ½Ðµ ÐºÐ¾Ðµ
ĠÐ½Ðµ Ð´ÐµÐ»Ð¸
ÑĨ Ð¸Ð½ÑĬ
ÐµÐ¼ Ð»Ð¸
Ð°ÑĢ ÐµÐ¼ÑĬ
ĠÑĥ Ð²Ñı
ĠÐ²ÑĬ Ð¸
ĠÐĺ Ð´Ð¾Ð»Ð¸
ĠÐ½Ð¸ ÑīÐ¾
êĻĳ Ð²Ð°
ĠÐ¾Ñĥ ÑĩÐ°
ĠÐ¾Ñĥ ÐºÐ°Ð·
ĠÐ¿Ð¾Ð» Ñ§
Ð²ÑĬ Ð¼ÑĮ
ÑĤÐ° Ð¼Ð¸
ĠÐ¾Ð± ÑĢÑ§
Ð°Ñģ Ðµ
ĠÐ¢ Ð¾Ðº
ĠÑģÐ²Ð¾Ðµ Ðµ
ĠÐ¸Ñģ Ð»Ñ£
ĠÐ²Ð¾Ð· Ð²Ñĭ
ĠÑĦ Ð¸Ð»Ð°
ĠÑ¹ ÑģÐ¿Ñ£
ĠÐ¿Ð° Ñħ
ĠÐ½Ð¾ ÑīÑĬ
ĠÐ¼Ð¾Ð» Ñı
Ð»Ñĥ Ð¶
Ð¿Ð° Ð½Ð¾Ñĥ
ĠÑĤÑĢ êĻĭÐ´
ÑĢÑ§ Ð´
ĠÐ¼Ð°Ð» Ð¾Ð¼ÑĬ
ĠÐ¿Ð¾Ð± ÑĮ
ĠÐ±Ðµ ÑīÐ¸Ñģ
ĠÐ³Ð¾Ð» Ð¾Ð²Ð¸
ĠÐ³Ð»Ð° ÑĤÐ¸
ĠÐ¿Ð» ÐµÑĤ
ĠÐ¿Ð¾ÐºÐ»Ð¾Ð½ Ð¸ÑĪÐ°
ĠÐ¿Ñ£ Ð½Ñ§
ĠÐ¿ÐµÑĢÐµ Ðº
ĠÑĨÐµÑĢ ÐºÐ²Ð°
ĠÐ¡ÑĤ ÑĢÐ¾ÐºÐ°
ĠÑĩÐ»Ð¾Ð²Ñ£ ÐºÑĭ
ĠÐ±Ñĥ Ðº
ĠÐºÐ¾Ð¿ Ð¸Ðµ
ĠÐ¾ÑĤÐ¿Ñĥ ÑģÑĤÐ¸Ð»ÑĬ
ĠÐ³ÑĢÐµ ÐºÑĬ
ĠÑĩÐµÑģÑĤ ÐµÐ½ÑĬ
ĠÑģÐ¼Ð¸ Ð½Ð°
ĠÐ´Ð¾Ñĥ ÑĪÐ¸
ĠÐ¿ÑĢÐµÐ±ÑĭÐ²Ð° Ð½Ð¸Ðµ
ĠÑģÐ²ÐµÑĢ Ñ£
ĠÐ¶ÑĮ ÑĢÑĤ
ĠÑĤÑĭÑģÑ§ ÑīÑĭ
ĠÐ²Ð¾ÑģÐº ÑĢ
ĠÑģÐ»ÑĥÐ¶Ð¸Ð» ÑĭÐ¼
Ð´Ð¸Ð½Ð° Ð³Ñ¡
ĠÑĥÑĩÐ¸Ð½ ÐµÐ½Ñĭ
ĠÐ¾ÑģÑĤÑĢ Ð¾Ð²Ð°
ĠÐ¢Ðµ Ð±Ðµ
ĠÐ¸Ð·Ð²Ð¾Ð»Ð¸ ÑĪÑĬ
ĠÐ¾ÑĢÑĥÐ¶Ð¸ ÐµÐ¼
ĠÐ¡ÐºÐ° Ð¶Ð¸
ĠÐ»Ð°ÑĤÑĭ Ð½
ĠÐ´Ð¾Ð¿ÑĢÐ°Ð² Ñı
ĠÐ´Ð²ÐµÐ½ Ð°ÑĤ
Ð° Ð´Ð°
ÑĤ Ð²Ð¸
ĠÑģ ÑĨÐµ
Ñĥ Ð¼Ð¾Ñĥ
Ð´ Ð¾Ð»
ĠÐ² Ð°Ð½
ĠÐº Ð»Ñĥ
ĠÐ¼ Ð°Ð·
Ð· Ð±ÑĢÐ°Ð½
Ñĩ ÑĸÐµ
Ñĩ ÐµÑģÐ»Ð°Ð²
Ð¾ÑĢ Ð¼
ĠÐ³ Ð¶
ĠÐ° Ð½Ð¸
ĠÑĩ ÐµÑĤÑĬ
ÑģÐº Ð¾ÑĢÐ¾
ĠÑĥ ÑıÐ·
ĠÐ¿ÑĢÐ¸ ÑģÐ»
ĠÑħ Ð°ÑĢÑ£
ĠÑģÑĬ Ð´Ð°
ÑģÑĤÐ¸ ÑģÐ»Ð°Ð²
ÑīÐµ Ñİ
ĠÐ¾Ñĥ ÑĩÐµÐ½
ĠÐ¾Ð± Ð½Ð¾Ð²
Ð°Ñģ ÑĮ
ĠÐ²Ñ£ ÑĢÐµ
ĠÐĳ Ð°ÑĤÑĭ
ĠÐ¢ Ð¾Ñĥ
ĠÐ¢ êĻĳ
ĠÐ»Ð¸ ÑĪÐµÐ½
ĠÐ±ÑĢÐ° ÑĤÑ£
ĠÑĢÐ°Ð· Ð¾ÑĥÐ¼Ñ£
ÑĦ ÐµÑĢ
ĠÐ¼Ð¸ ÑĢêĻĭ
ĠÐ²Ð¾Ð» Ðµ
ĠÑģÑı Ð´ÐµÑĤ
ÑĨÑ£ Ñħ
ĠÑģÑĤÑĢÐ° Ð¶Ñĥ
ĠÑ» Ð½Ð°
ĠÐ¿Ð»Ð° Ð¼ÐµÐ½ÑĮ
ĠÑģÑĥÐ´ ÑĮÑİ
ĠÐºÑĢ ÑģÑĤ
ĠÑĥÑĩ ÑĢÐµ
Ð·Ð° Ð½Ð¸
ĠÑĩÐ° Ð´Ð¾Ð¼ÑĬ
ĠÐ±Ð¾ÑĢ Ð¾Ð½
Ð½Ð¸ÐºÐ° Ñħ
ĠÑĤÑĬ ÑĪÑĤÐ°
ĠÐ¼Ñ¹ ÐºÐ°
ĠÐ¼Ð°ÑĢ ÐºÐ¾
ĠÑĤÐ¾ÑĢ Ð³ÑĬ
ĠÐ´ÐµÑģ Ð½Ð¸ÑĨÐ°
ĠÐ¸Ð´Ðµ ÑĪÑĮ
ĠÐ¿Ð¾ÑģÐ°Ð´ Ð½Ð¸ÐºÐ¾Ð¼ÑĬ
ĠÐ¿Ð¾Ð¼Ð¾ ÑīÑĬ
ĠÐºÐ°Ð±Ð°Ð» Ð½ÑĭÑħ
ĠÐ¿ÑĢÐ¾Ð¼Ñĭ ÑģÐ»Ñĥ
ĠÐ½Ð¾Ð²Ð³Ð¾ÑĢÐ¾Ð´ ÑĬ
ĠÐºÐ»Ñİ ÑĩÑĮ
ĠÐ¿Ð¾Ð·Ð½Ð° ÑħÑĬ
ĠÐ±Ð»Ñİ Ð´
ĠÐ³Ð¾ÑģÑĤ ÐµÐ¼
ĠÐ»Ð¾Ñĥ Ð±Ð¾
ĠÐ·Ð°ÐºÐ¾Ð½ Ñ¹
ĠÐ¿Ð¾ÑģÑ£ ÑĤÐ¸
ĠÐ¿ÑĢÐ¿Ð± Ð½Ñĭ
ĠÐ¾ÑĥÑĩ Ð¸ÑĤÑĬ
ĠÐ¿Ð°ÑĪ Ð½Ñı
Ð¼Ð¾ÑĤÑĢÐ¸ ÑĤÑĮ
ĠÑģÐ°Ð´ Ð¾Ð²Ðµ
ĠÑĩÑİÐ´Ðµ ÑģÐ¸
ĠÑģÐ¿ÑĢÐ°Ð² ÐµÐ´
ĠÐ¿ÐµÑĢÐµêĻĹÑģÐ»Ð°Ð² Ð»Ñİ
ĠÐ½ÐµÐ¿ÑĢÐµ ÑģÑĤÐ°Ð½Ð½Ð¾
ĠÑ¡ÑģÑĤÑĢ Ð¾Ð²Ðµ
ĠÑģÑĥÐ± Ð¾ÑĤÑĥ
ĠÐĽÐ°Ð· Ð°ÑĢÑĮ
ĠÑģÐ»Ð¾Ð± Ð¾Ð´Ð°
i r
Ġ I
Ð¸ Ð´Ñĥ
Ñģ êĻĻ
ĠÑģ Ð¼ÑĬ
ĠÑģ Ð¼ÑĮÑĢ
Ðº Ð»
ĠÐ² ÑģÑĤÐ°Ð²ÑĬ
Ñı Ð½Ð¸Ð¸
Ñĩ Ð¾
Ñĩ Ð½Ð¾Ð³Ð¾
Ñ§ ÑĪÐ°
ĠÐ° ÑĨ
ÐµÐ½ ÐºÐ°
ÐµÐ½ Ð¾Ð¼Ñĥ
Ð½Ñĭ Ð¸ÑħÑĮ
ĠÑ¡ Ð´Ðµ
ĠÑģÑĬ Ð¿Ð°
ĠÑ¿ Ð²Ðµ
ĠÐ¡ Ð»Ð¾Ð²
ĠÐ¾Ð± Ð¶Ð¸
ĠÐ¿Ð¾Ð´ Ð²
ĠÐºÐ° Ñı
ĠÐĶ ÑĢÐ°
ĠÑĢÑĥ ÑģÐºÐ¸Ñħ
ĠÑģÐ² Ñĭ
ĠÐ¿ÐµÑĢ Ð²Ð°Ñı
ÑĨÐ¸ ÐµÑİ
ĠÐ±Ñ£ Ð¶Ð¸ÑĤÑĬ
ĠÐķ ÑĢÐ¼
Ð½Ð¸Ðº ÑģÑĬ
ĠÐ´Ð²Ð¾ÑĢ Ð¾
ĠÐ³Ð¾ÑĢ Ð¾Ñİ
ĠÑĤÐ°ÐºÐ¾ Ð¸
Ð´Ð¸Ð½ Ñ£
â¸¯ ÑĪÐµ
ĠÐ¿Ð¾Ð± Ð¾Ð»
ĠÐ¿Ð¾Ð± Ð¸Ð»Ð¸
ĠÑĩÐ¸ ÑģÑĤÑĥ
ĠÐ³Ð¾Ð» ÑĥÐ±
ĠÐ²ÑĢÐ° Ð³
Ð¾Ð´Ñ£ Ð¹
ĠÐ¼ÑĮ Ñĸ
ĠÑĦÐµÐ´Ð¾ÑĢ Ð¾Ð¼
ĠÐ²ÑĬêĻģ Ð¼Ð¾Ð¶Ðµ
ĠÐ¿Ð¸ÑģÐ° Ð½Ð¸Ñı
ĠÐ³ÑĢÐ°Ð´ Ð¾Ð²ÑĬ
ĠÐ²Ð°ÑģÐ¸Ð» Ñ§
ĠÐ¦ Ð°ÑĢÐ¸
ĠÐ¿Ð¾Ð±Ñ£ Ð´Ñĥ
ĠÑĢÐµÐº ÑĪÐ¸
ĠÐºêĻĭ Ð¿Ð¸
ĠÐ½êĻĳ Ð½êĻĹ
ĠÐ¿ÑĢÐµÐ´Ð° Ð´Ðµ
ĠÑģÑĬÐ³ÑĢÑ£ ÑĪÐ¸
ĠÐ²Ð¾Ð¿ ÑĢÐ¾ÑģÐ¸
ĠÐ´ÑĢÑ¹ Ð³ÑĬ
ĠÑĤÑ¹ ÑĤÐ¾
ĠÐ´Ð¾Ðº Ð¾Ð»Ðµ
ĠÐłÑĥ ÑģÑĮ
ĠÐ°Ð»Ðµ ÑĪÐºÐ°
ĠÐ±Ð¾Ð¶Ðµ ÑģÑĤÐ²
ĠÑĢÑ« ÐºÑ«
ĠÐ¿Ð¾Ð»Ñİ Ð±Ð¸
ĠÑ¹Ð¼ ÑĢÐµÑĤÑĮ
ĠÐ½Ð°Ð· Ð²Ð°
ĠÐ¿ÑĢÐµÐ· ÑĢÑ£
ĠÑĤÑĢÐµÑĤÑĮÑı Ðº
ĠÐºÐ°Ð¿ Ð»Ñı
ĠÑģÐ¿ÑĢÐ¾Ñģ Ð¸ÑĤÑĮ
ĠÐ¿ÑĢÐ¸ÐµÐ¼Ð»Ñİ ÑīÐµ
ĠÐŁÐ¾Ð´Ð¾Ð±Ð° ÐµÑĤ
ĠÐ±Ð»Ð°Ð³Ð¾Ð² ÐµÑĢ
ĠÐ°ÑĢÑħÑĸÐµ Ð¿Ð¸ÑģÐºÐ¾Ð¿
ĠÐ»Ð¾ÑĪ ÐµÐ´Ð¸
m us
t Ðµ
â ĪĻ
ĭ ®
ÑĢ ÑģÐºÐ¾Ð³Ð¾
ĠÐ¿ Ð°Ð»ÑĮ
Ðº Ð³
Ðº Ð¾Ð²Ð¸Ñĩ
Ñı Ð½Ñı
Ñı ÑģÑĮ
ĠÐ´ Ð»Ñ§
ĠÐ´ Ð»Ð¸Ð½
ĠÑĤ Ð½Ð°
Ñħ Ð¾Ñİ
ĠÐ¼ Ð¾Ð½Ð¸
Ð± Ð½Ð°
Ñ§ Ð¼Ð¸
ĠÐ½Ðµ Ð¾Ñĥ
ĠÐ¿Ð¾ Óı
ĠÐ¿Ð¾ ÐµÐ´Ð¸
Òĥ âĢĲ
ĠÑĥ Ð¿Ð°
ĠÑĥ Ð½Ð¾ÑģÑĤÐ¸
ĠÐ´Ð° Ð¼ÑĮ
ĠÐĺ Ð¾Ð²Ð°Ð½
êĻĹ Ð½ÑĮ
Ð´Ðµ Ñİ
Ð¸ÑĤÐ¸ ÑģÑ§
ĠÐ¾Ð± Ð½Ð¸
Ġ: Â·
ĠÐ²ÐµÐ»Ð¸ Ñİ
ĠÑĢÐµ Ð·Ð°Ð½Ð°
ĠÑĢÐµ Ð·Ð°Ð½Ð¾
Ð»Ð¾ ÑģÑĤÑĮ
Ð»Ñ£ ÑĤ
ĠÐĳ Ð°Ñħ
ĠÐĳ Ð¾Ð²Ð¾Ñİ
ĠÐ¢ Ð¾Ð³Ð°
ĠÐŀ ÑĤÐµÑĨÑĬ
ĠÐ²Ñĭ Ð±Ð¸ÑĢÐ°
ĠÐ²Ñĭ Ð¼ÑĥÑĤ
ĠÑģÐ²Ð¾Ðµ Ð³
ĠÑģÐ¸ Ð³Ð¾Ð²Ð¾
ĠÑĪ Ð¿Ð°Ð½
ĠÐ¼Ð¸ ÐºÐ¾Ñĥ
ĠÐ²Ð¾Ð· Ñ§ÑĤÐ¸
ĠÐ²Ð¾Ð· ÐµÐ¼Ð¸
Ð¶Ð° ÑħÑĬ
ĠÐºÐ½ÑıÐ· ÐµÐ¸
ĠÑĦ ÑĢÐµÐ´
ĠÐ±Ñ£ Ñİ
ĠÐ±Ñ£ Ð»Ð¾Ð½
ĠÐ»Ñ£ ÑģÐ°
ĠÐ±ÐµÐ· Ð¾Ð±ÑĢÐ°Ð·
ĠÐ²ÐµÐ» ÐµÐ»Ð°
ĠÐ´Ðµ Ð¶Ñ§
ĠÐ¿Ð¸Ñģ Ð¼ÐµÐ½Ðµ
ĠÐ´Ð²Ð¾ÑĢ ÑĨ
ĠÐ²ÑģÑı ÐºÐ°Ñı
ĠÐ³Ð¾ÑĢ Ñ§
ĠÑĤÐ²Ð¾ÑĢ ÑĨÐ°
ĠÑĤÐ²Ð¾ÑĢ Ð¸ÑĤÐ°
ÐºÑĭ Ñħ
ĠÐ±ÑĮ Ð»ÑĬ
ĠÐ±ÑĮ Ð»Ð¾
ĠÑĤÑĥ Ð³Ð¾Ð¹
ĠÐ²Ðµ ÑĢÐ°
ĠÐ²Ðµ ÑģÑĤÐµ
ĠÐºÑĥ Ð¾Ð½ÑĮ
ĠÐºÑĥ Ð½Ð°Ð¼Ð¸
ĠÑĩÐµÑĢ Ð½ÑĭÐµ
ĠÑĩÐ° ÑģÑĤ
Ð±Ñı Ð´ÑĮ
ĠÐ±Ð¶ Ñĸ
ĠÑħÐ¾Ð»Ð¾Ð¿ Ðµ
ĠÐ¾Ñģ ÐµÐ´
ĠÐ¶Ð¸Ð²Ð¾ ÑĤÐ¸
ĠÐ³ÑĢÐ¸Ð² Ð½Ð¾
ĠÑģÐ¾ÑĤÐ²Ð¾ÑĢ Ð¸Ñħ
ĠÐ·Ð½Ð° ÐµÑĤÐµ
ÑĤÐ² ÐµÐ½
ĠÐºÐ¾Ñĥ Ð½êĻĳ
ĠÑģÑĤÐ¾Ð» Ð½Ð¸ÐºÐ°
ĠÐ½ÑĮ Ð¶
ĠÑĩÑĮ ÑĤÐµ
ĠÑĤÑĮ Ð±ÑĮ
Ð¾Ð¶ÑĮ ÑģÑĤÐ²Ñ£
ĠÑĢÐ¾Ñģ ÑĩÐµÑĤÑĥ
ĠÐ´Ð² ÐµÐ½Ð°
ĠÐ²Ð¿ ÑĢÑı
ÑĪÑĤÐ° ÑĤÐ¸
ĠÐ±ÑĬ ÑĢÑĬ
ĠÐ¤ ÑĢÐ°Ð³Ð¼ÐµÐ½
ĠÐ¸Ð»ÑĮ Ðµ
ĠÐ¿Ð¾ÑģÐ°Ð´ ÑģÐºÐ¸Ðµ
Ñ§Ñī Ñ¹
ĠÑĤÑĢÐ¾ ÑĥÐ´
ĠÐ¿êĻĭ ÑĤ
ĠÐ¿Ð°ÑĤÑĢÐ¸Ð°ÑĢ ÑĪÐ¸Ñħ
ĠÐ½êĻĳ Ð½ÑĮ
ĠÐ¸Ð³ÑĥÐ¼ÐµÐ½ Ð¾Ð¼
ĠÐ¥ÑĢÐ¸ ÑģÑĤÑ£
ĠÐ²Ð¾Ð´Ð° Ð¸
ĠÑĢÐ°Ð·Ð¼Ñ£ ÑĢÐ¸ÑĤÐ¸
ĠÐ´ÐµÐ½ Ð³Ð°
ĠÑ³ÐµÐ´Ð¾ÑĢ Ñĥ
ĠÐķÑĢÑĥÑģÐ» Ð¾Ð½Ð°
Ð¾Ð¿Ð¾Ð» Ð¾ÑĤÐ½Ñı
ĠÑ¥ÑģÐ¸ ÑĦÑĥ
ĠÐ¼ÐµÐ¶ Ð°Ð¼
ĠÑĢÐ¾Ñĥ Ð±Ð»Ñ§
Ġ10 2
ĠÐºÐ»Ñİ ÑĨ
ĠÐ³ÑĢÐ² Ð½Ð¾
ĠÐ¿ÑĢÐ¾Ð´ Ð°Ð»Ðµ
ĠÐ¿Ð¾Ð·Ð½Ð° ÐµÑĤÑĮ
ĠÑĭ ÑģÑĨ
ĠÐ²Ð¾ÑģÐ¿ ÑĢÐ¸Ñı
ĠÐĺÐ· Ð½ÐµÑģÐ¾ÑĪÐ°
ĠÑģÐ»Ðµ Ð·
ĠÐĳÑ£ Ð»Ð°Ñı
ĠÑģÑĤÑĮ Ð¿Ð°Ð½Ð°
ĠÐ³Ð°Ð² ÑĢÐ°Ð½
ĠÐ²ÐµÐ´Ð° ÐµÑĤ
ĠÐ±Ñ£Ð» Ð¾Ð¿Ð¾Ð»Ð¾ÑĤÐ½Ñı
ĠÐ²ÑĭÑģÐ¾Ðº Ð¾Ñİ
ĠÐĶÐ°ÑĢÐ¸ Ñı
ĠÐºÑĢÑĮ Ð½Ð¸
ĠÑĪÐ¸ÑĢÐ¾Ðº Ñĥ
ĠÐĲÐ¼Ð¸ ÑĢÑĥ
ĠÐ¿ÐµÑĢÐµÑģ ÑĥÐ´
ĠÐ²Ñĸ Ð½Ð¾Ð³ÑĢÐ°
ĠÑ¿Ð´Ð° ÑģÑĤÑĬ
ĠÐµÐ» Ð»Ð¸
ĠÐĽÐ¸ ÑĦÐ»ÑıÐ½
ĠÐ³Ñİ ÑĢÐµ
ĠÐ²Ñ§ ÑĨÑĮ
ĠÐ¸ÑģÑĨ Ð¾Ð²Ð°
[...]
