#version: 0.2
Ġ Ð
Ð ¾
Ð °
Ð µ
Ð ¸
Ġ Ñ
Ñ Ĥ
Ð¾ Ð
Ñ Ģ
Ð ½
Ñ ģ
Ñ Ĭ
Ð »
Ð ²
ĠÑ ģ
Ñ Į
ĠÐ ¸
Ð ¼
ĠÐ ¿
Ð º
ĠÐ ²
Ð ´
Ñ ĥ
Ñ £
C T
č Ċ
CT X
ĠÐ ½
Ñ ĭ
ê Ļ
ĠÐ ´
ĠÑ Ĥ
Ñ §
Ñģ ÑĤ
Ð ³
ĠÐ ±
ĠÐ º
Ñ Ī
Ñ ħ
Ñ İ
ĠÐ ¼
C H
Ò Ĩ
Ñ ı
Ð ±
Ð¾Ð ²
¶ Ðµ
Ð ·
ĠÐ ¾
Ñ ĩ
ĠÐ½ Ð°
ĠÐ¿ ÑĢ
ĠÐ ³
Ð ¿
ÑĤ Ð¸
Ð¾ ÑĢ
Ð¾Ð »
Ð¾Ð ¼
ĠÐ½ Ðµ
Ð½ Ð¸
ÑĢ Ð°
Ð» Ð°
ĠÑ Ģ
Ð» Ð¸
Ò ĥ
Ñ Ĩ
êĻ ĭ
Ñ ĸ
ĠÐ °
Ñ ī
Ð¾Ð ´
ĠÐ¿ Ð¾
Ðµ Ð¼
Ñ ¹
Ðµ ÑĤ
ĠÐ ·
R CH
U RCH
CH URCH
Ðµ Ð½
ĠÐ µ
ĠÐ »
Ð² Ð¾
Ð ¶
Ð³ Ð¾
Ð¾Ð ³
I T
L IT
Ð½ Ð°
Ðµ ÑĢ
A I
D AI
L Y
DAI LY
ĠÐ ¶Ðµ
ÑĤ ÑĮ
Ð² Ð°
Ðº Ð°
Ðº Ð¾
ĠÑ ĩ
ĠÐ² ÑĬ
ĠÐ´ Ð°
E P
I C
EP IC
Ð´ Ð°
Ð¼ ÑĬ
Ð½ Ð¾
ĠÐ ĺ
Ð ¶Ðµ
Ðµ Ð»
Â ·
Ð¾Ð ±
Ð½ Ñĭ
ĠÑģ ÑĤ
Ñħ ÑĬ
Ð¾Ð ½
êĻ Ĺ
ĠÐ Ĳ
Ñ ¡
Ð¸ ÑĤ
Ð¾ ÑĤ
Ð¾ Ñĥ
ĠÑ ¡
Ġ [
N K
U NK
Ð¾ Ñģ
ĠÐ² Ñģ
ÑĢ Ð¸
ĠÐ¿ÑĢ Ð¸
ÑĪ Ð°
ĠÑ ĥ
ĠÑ ¿
Ġ Â·
Ð´ Ð¸
Ð¼ Ð¸
ÑĢ Ðµ
Ðº Ð¸
êĻ ĳ
ÑĪ Ðµ
ĠÑ ħ
ĠÐ· Ð°
Ð´ Ðµ
êĻ ģ
ÑĤ Ð¾
ĠÑģ Ð²Ð¾
Ñ «
Ð² Ð¸
Ð¾Ð º
Ð½ Ðµ
ÑģÑĤ ÑĮ
ĠÑ Ĩ
ĠÐ½ Ð¸
Ð° ÑĢ
ĠÐ¾ Ñĥ
ĠÑĢ Ð°
Ð» Ðµ
ĠÑģ Ðµ
ÑĪ Ð¸
Ð ¹
ÑĤ ÑĬ
Ð¾Ð³ Ð¾
ÑģÑĤ Ð¸
A L
E G
L EG
LEG AL
ĠÑģ ÑĬ
Ð° Ðº
ÑģÑĤ Ð°
Ñī Ðµ
ĠÐ± Ñĭ
Ñģ Ðº
Ġ :
Ð» ÑĬ
Ñĩ Ð¸
Ð² ÑĬ
ÑĢ Ñ£
Ð¾Ð² Ð°
Ñĩ Ðµ
ĠÑģ Ñ§
Ð¾Ð¼ ÑĬ
Ð¾Ð ¶
Ñģ Ð°
Ð» Ð¾
Ð¼ Ð°
Ð½ Ñ£
Ð¾Ð ·
ĠÐ² Ð¾
Ñģ Ð¸
ĠÐ ¶
Ð½ ÑĬ
ĠÐ² Ðµ
Ġ êĻĹ
Ð² Ñ£
Ñģ Ñı
Ð² Ð¾ÑĢ
ĠÐ¾ ÑĤ
ĠÑ Ķ
ĠÐ Ł
Ð½ ÑĮ
ÑĤ Ð°
Ð¾Ð ¿
ÐµÐ¼ ÑĬ
ĠÐ ¡
ĠÐ» Ñİ
ĠÐ Ĵ
Ò ħ
ĠÐ Ŀ
Ð´ Ñ£
ĠÑĤ Ð¾
ĠÐ± Ð¾
Ò ĩ
ĠÑģ Ð»
ĠÐ¿ Ð¾Ð»
ĠÑģ Ð¸
Ð¼ ÑĮ
Ñĩ Ð°
Ð» ÑĮ
ĠÐ¸ Ð»Ð¸
Ð¾Ð ¶Ðµ
Ñģ Ñ§
ÑĨ Ð°
ÑĢ ÑĮ
Ðµ Ð´
ĠÐº Ð°
ĠÑĢ Ðµ
ĠÐ¼ Ð¸
Ñĸ Ðµ
Ñ ¥
ÑĤ Ðµ
Ñĸ Ð¸
ĠÐ Ķ
Ð½ Ñĥ
ĠÐ¿Ð¾ Ñģ
ĠÑ ı
Ñĥ Ð´
ĠÑĤ Ð°
ĠÐ¼ Ð¾
Ð¾Ð ¹
ĠÑĤ Ðµ
ÑĢ Ð¾
ÐµÑĤ ÑĮ
ĠÐº ÑĬ
Ðº ÑĬ
ÑĢ ÑĬ
Ð» Ñ£
Ð¾Ð´ Ð¸
ĠÐ± Ðµ
ĠÑģ Ð°
ĠÐ¸ Ð·
Ð¶ Ð°
Ð¿ Ð¸
ĠÐ ¢
ĠÐ² Ñ£
ĠÐ² Ð°
Ñī Ð°
ĠÐ» Ð¸
ĠÐµ Ð³Ð¾
Ð¶ Ð¸
ĠÑ ¥
ĠÐº Ð¾
ĠÐ¿ Ð°
ÐµÑĤ ÑĬ
Ñħ Ð°
Ð± Ð¸
â Ģ
Ð¾Ð² Ñ£
Ð¼ Ñ£
Ð² Ðµ
Ñī Ð¸
ĠÐ¿ÑĢ Ð¾
ÑĢ Ñĥ
ĠÐ¼ Ð°
ĠÐ² Ð¸
ĠÑ ĸ
Ð¿ Ð°
Ð³ Ð°
Ð· Ð°
ĠÐ´ Ð¾
Ð» Ñİ
ĠÐ²Ðµ Ð»Ð¸
Ñģ Ðµ
Ð´ Ð¾
ĠÐ¼ Ð½
ĠÑĤ Ð²Ð¾
Ð¾Ð² Ðµ
ĠÐ± ÑĢÐ°
Ð¾Ð² Ð¸
ÐµÑĢ Ðµ
Ð± Ðµ
ĠÐ¿ Ð¾Ð´
ĠÐ²Ñģ Ñ§
Ð² Ñĭ
ĠÑĤ Ð¸
Ð¾Ð¼ Ñĥ
ĠÐ¿ÑĢ Ðµ
ĠÐ ĳ
Ð± Ð¾
Ð¼ Ñĥ
Ð² ÑĮ
ĠÐ¿ Ð¾Ðº
ĠÐ³ Ð¾Ñģ
ĠÐ¶ Ð¸
ĠÐ ļ
Ðº Ñĥ
Ñģ Ð¿
ĠÐ²Ñģ Ðµ
ĠÐ´ Ñ£
Ð½ Ñ§
ĠÐ² Ñĭ
ĠÐ³ ÑĢÐ°
Ġ êĻ
Ñģ ÑĬ
ĠÐ´ Ð¾Ð±
ĠÐ ŀ
ĠÑģÐ²Ð¾ Ð¸
Ð± Ñ£
ĠÑģÐ²Ð¾ Ðµ
Ñ Ĺ
ĠÐ² Ð¾Ð·
Ð½ Ñı
Ñģ Ð»
ĠÐĶ Ð°
ĠÑ ¹
ĠÑ Ī
ĠÑĩ ÑĤÐ¾
Ġ êĻģ
ÑĨ Ð¸
ÑĨ Ðµ
Ñģ ÐºÐ¸
ĠÐ· ÐµÐ¼
ÐµÐ½ ÑĮ
ĠÐ¿ Ð¸
Ð¾Ð´ Ð°
Ð¼ Ð¾
â ¸
Ð´ ÑĬ
Ð» Ñ§
ĠÐ³ Ð¾ÑĢ
Ñ Ķ
ÑģÑĤ Ð¾
ÑĢ Ñĭ
ĠÐ¾ Ð±
Ð¼ Ðµ
ĠÐ ľ
ĠÐ¿ Ð¾Ð¼
Ð´ ÑĮ
êĻ ¿
ĠÐ² ÑĮ
Ð³ Ñ¡
Ñ Ħ
ĠÐ³ Ð»Ð°
ĠÐ± Ñ£
ĠÑģ Ñĭ
Ð¾Ð» Ð¸
ĠÑĤ Ñĭ
Ġ .
ĠÑĢ Ñĥ
ĠÐ´ Ðµ
Ð¾Ð³ Ð°
Ñģ ÑĮ
Ñģ ÐºÐ°
ĠÑĩ ÐµÐ»
ÑĪ ÑĮ
ĠÐ± ÑĥÐ´
Ñĩ ÑĮ
ĠÑģ Ð¾
ĠÑģ Ð²
Ð¾Ð² Ð¾
ĠÑ »
Ð¾Ð² ÑĬ
Ð¸ÑĤ Ðµ
ĠÑĨ Ð°ÑĢ
Ò Ħ
Ñĸ Ð°
Ð± Ð°
Ñģ Ð»Ð°
ĠÐ¿ÑĢ Ð°
ĠÐ¿ÑĢ Ñ£
ĠÑĢÐ° Ð·
Ð²Ð¾ÑĢ Ð¸
ĠÑģÑĤ Ð°
ÑĤ Ñĭ
Ñĥ Ð´Ð°
Ñģ Ñ£
ĠÐ³ ÑĢÐ¸
Ñĸ Ñ§
ĠÐ» Ñ£
ĠÑ §
Ð´ Ñĭ
ÑģÑĤ Ð²
Ð¾Ð¶ Ð¸
ĠÐº Ð¾ÑĢ
ĠÐº Ð°Ðº
Ñĥ ÑĤ
ĠÐº Ð¾Ð½
Ġ âĢ
Ð½Ð¸ Ðµ
ĠÐ½ Ð¾
Ġ êĻĭ
Ð¼ ÐµÐ½
ĠÑĤ Ð¾Ð³Ð¾
Ð· ÑĬ
² Ĥ
á ²Ĥ
á²Ĥ Ñĥ
ĠÐ ĵ
ÑĨ Ñĭ
Ġ á²ĤÑĥ
ÑģÑĤ Ð²Ð¾
ĠÐ± Ð»
C E
C I
E N
S CI
EN CE
SCI ENCE
Ð± Ñĭ
ĠÑģ Ðº
Ð² ÐµÑĢ
Ð» Ñı
ĠÐº Ð¾ÑĤ
ĠÑĤ Ð°Ðº
ĠÐ½ Ñ£
ĠÐµ ÑģÑĤÑĮ
ÑģÑĤ Ðµ
ĠÐ² Ð¾Ð»
ĠÐ¼ Ð¾Ð»
ĠÑĤ Ñ£
Ð¼ Ð¾ÑĤ
ĠÐĿ Ðµ
Ð» ÐµÐ½
Ð» Ñĭ
ĠÐ¼ Ñ£
ĠÐ±Ðµ Ð·
ĠÐ³Ð¾Ñģ ÑĥÐ´Ð°
ÑģÑĤ ÑĬ
ĠÐ± Ð³
ÑĨ Ñ£
ĠÑĢÐµ ÑĩÐµ
Ð¾Ð» ÑĮ
ÑĢ Ñ§
Ð½Ð¸ Ðº
ĠÐºÐ¾ÑĤ Ð¾ÑĢ
ĠÐº Ñĥ
ĠÐ¸ Ñħ
Ð³ Ð¸
Ð· Ñĭ
ĠÑģÑĤ ÑĢÐ°
Ð¶ ÑĮ
ÑĨ ÑĮ
Ð½Ñĭ Ñħ
Ð¾ÑĢ Ð¸
ĠÑĩ Ð¸
Ó ı
Ð¾Ð² Ñĭ
ĠÐ¼ Ðµ
Ð» Ñĥ
ÑģÑĤ Ñĭ
ÐµÐ½ Ðµ
ĠÑ ķ
Ġ ÒĨ
Ð³ Ð´Ð°
ÐµÐ» ÑĮ
ĠÐ ķ
Ð½Ð¾ Ðµ
ĠÑĨ ÑĢ
Ð² Ñĥ
ĠÑ Ħ
ÐµÐ¼ ÑĮ
ĠÐ¿ ÐµÑĢ
Ðº Ð¾Ð¶Ðµ
Ñģ ÐºÐ¾
Ð¾Ð¼ Ñ¹
Ð³ Ð¾Ð»
Ð´ Ñĥ
Ð± ÑĢÐ°
Ð³ Ð¾ÑĢ
ĠÑģ Ñ£
Ð¸ÑĤ ÑĬ
ĠÐº ÑĤÐ¾
ĠÑģ Ð¾Ð±
ĠÐ¸ Ð¼
ĠÐ²Ñģ Ñ£
Ð· ÑĮ
ĠÑģ Ð»Ð°
ĠÑı ÐºÐ¾
ĠÐ± Ð»Ð°
ĠêĻĹ ÐºÐ¾
Ð½Ñĭ Ðµ
ĠÐº Ð½Ñı
êĻ Ļ
ĠÑ İ
ÐµÐ½ ÑĬ
ĠÐ¿ Ð¾ÑĢ
ĠÐ¾ ÑĤÑĬ
ĠÐµ Ð¼Ñĥ
ÐµÑĤ Ðµ
ĠÐ³ Ð´
ĠÑĩ Ð°
Ñ ³
ĠÐ² Ð·
ĠÐ² ÐµÐ»
Ð²Ð° ÑĤÐ¸
Ñĸ Ñİ
ÑĢ Ñı
ĠÐ¿ Ðµ
â¸ ±
ĠÐ¾ Ð½
Ð» Ð¾Ð½
Ðº Ñ¡
ĠÑĤÐ° ÐºÐ¾
ĠÑģ ÑĮ
ĠÐ¿ Ð»Ð°
Ġ ,
Ð½Ñĭ Ð¸
ĠÐ¿ Ð¾Ð³
Ðº Ð¾Ð²
ĠÐ± Ð¾Ð»
ĠÐ²ÑĬ Ð·
ĠÑģ Ñĥ
Ðº Ñĭ
Ð¾Ð½ Ð°
Ð½ Ñ¹
ĠÐº ÑĢ
Ð¿ ÑĢÐ°
ĠÐ¿ Ð¾Ð²
Ñħ Ð¾Ð´
ĠÑģ Ð¼
Ðµ Ð²
Ġ Î
Ð½ êĻĭ
Ð¾ Ñİ
Ð¸ ÑĤÐ¸
Ð¼ êĻĭ
â¸ ¯
ĠÐ¸ Ñģ
ĠÐ´ Ð²Ð¾ÑĢ
ĠÐ ł
ÑģÑĤÐ° Ð²
ĠÐ±ÑĥÐ´ ÐµÑĤ
Ð¿ Ð¾Ð´
Ð½Ð° Ð³Ð¾
ĠÐ´ Ð¾Ð¼
ĠÐº ÑĢÐ°
ÑĤ Ñ£
ĠÐ¼ Ñĥ
ĠÐ³Ð»Ð° Ð³Ð¾Ð»
ĠÐ³ ÑĢ
ĠÐ° ÑīÐµ
ÐµÐ½ Ð°
Ñİ ÑĤ
Ð³ ÑĬ
ĠÐ¿Ð¾ ÑĤ
Ñ Ń
ĠÐ³ Ð»
ÐµÐ½ Ð¾
êĻĭ Ð´
Ð¼ Ñĭ
ĠÐ± Ð¶
Ð½ ÑĸÐµ
ÑģÑĤÐ° Ð²Ð¸
ĠÑĩ Ðµ
ĠÐ³ ÑĢÑ£
ĠâĢ Ķ
ÑģÑĤ Ð²Ð°
Ð¾Ð¼ ÑĮ
Ñ µ
ĠÑĢÐ° Ð´Ð¸
ĠÐ»Ñİ Ð´Ðµ
ĠÐ¿Ð¾Ñģ Ð»Ð°
Ð½ Ð´
ĠÑģ Ð¾ÑĤ
ÐµÐ» Ðµ
ĠÐ¸ Ð¼Ð°
ĠÐ´ ÑĢÑĥ
ĠÑģÑĤ Ð°ÑĢ
ĠÐµ ÑģÐ¸
Ñı ÑĤ
Ñĥ Ñİ
ĠÐĿ Ð°
ĠÐ´ ÑĢ
ĠÑĤ ÑĢ
ĠÐ¿ Ð¾Ð¿
ĠÐ¸ Ð½Ð¾
ĠÐ Ľ
ÐºÐ° Ð·Ð°
Ð¿ Ð¾
ĠÑģ Ñ¹
Ð½ Ñİ
ĠÐ± êĻĳ
Òĥ Â·
ĠÐ¼ Ñ§
ÐµÐ¼ Ñĥ
ĠÐ»Ñİ Ð´
ĠÑģ Ð²Ñ£
ĠÐ´ ÑĮ
Ð¸ Ð¼
Ð¸ÑĤ Ð°
ĠÑħ Ð¾ÑĤ
ĠÑĤ Ð¾Ð±
ĠÑģ Ð¿
ĠÐ» Ðµ
ĠÐ³ÑĢÐ¸ Ð²
Ð½ êĻĳ
ĠÐº ÑĢÐµ
Ñ ĳ
ĠÐ³ÑĢÐ° Ð¼Ð¾ÑĤ
Ð½Ð¾ Ñİ
ÑĢ ÐµÐ¼
ĠÑħ Ð¾
ĠÑĢ Ñ£
ÐºÐ° Ð·
ĠÐ¿ÑĢ ÐµÐ´
ĠÐµ Ñģ
ĠÐ¼Ð¾ Ðµ
ĠÑĤÐ²Ð¾ Ðµ
ĠÎ ¹
ĠÑģÐ²Ð¾Ðµ Ð³Ð¾
ĠêĻ ĩ
Ð´ Ñ§
ĠÐ¼Ð¾ Ð¸
Ð· Ð¸
Ð½ Ð¾Ð³Ð¾
Ñĭ Ðµ
Ð¾Ð´ Ñ£
Ð¾ÑĢ Ð¾
Ñ ķ
ĠÐºÐ° ÐºÐ¾
ĠÑģÑĤ Ð¾
ĠÐĴ ÑĬ
ĠÑĩ Ð»
ĠÐ²ÑģÑ§ Ðº
ÐµÐ» Ñ£
ĠÐ·ÐµÐ¼ Ð»Ð¸
ĠÑ ³
ĠÐ¸ ÑģÐ¿
Ð² ÐµÐ´
ĠÐ»Ñİ Ð´Ð¸
Ð½ Ð¾Ð¼
ĠÑģ Ñı
Ñģ Ñĭ
Ð¾Ð³ Ð¸
ĠÐ¸ Ð¶Ðµ
ĠÐµ Ð´Ð¸
Ð¾Ð½ Ðµ
ĠÐ±ÑĢÐ° ÑĤ
Ð± ÑĮ
Ð¾Ñģ Ð»Ð°
ĠÐ²Ð¸ Ð´Ñ£
ÑĢ Ð¾Ðº
ĠÐ¼ Ñĭ
ĠÐ» Ð°
ĠÐ¿ ÐµÑĢÐµ
Ðº Ðµ
ĠÑĤÐ²Ð¾ Ð¸
Ð¾Ð³ Ð´Ð°
ĠÐ³Ð¾ÑĢ Ð¾Ð´
Ð½Ð¸ Ð¸
Ð² ÑĢÐ°
ĠÐ¿ Ð¾Ð±
ĠÑĤ Ñĥ
ĠÐ¸ ÑħÑĬ
Ð¼ Ð¾Ñĥ
Ð¾Ð¶ Ð°
ĠÑĤ ÑĢÐ¸
ĠÐ²ÐµÐ»Ð¸ Ðº
Ð° Ð½
ĠÐ²Ñģ Ñı
ĠÑ ī
Ð»Ðµ Ðº
Òĥ :
ĠÐ± ÑĮ
ĠÑĤ ÑĬ
ĠÐ² Ð»Ð°
ÑĨ ÑĬ
ĠÐº Ð¾Ñĥ
Ð½Ð¾ Ñĥ
ĠÐ½Ðµ Ð³Ð¾
ĠÐ´ Ñĥ
ĠÐ¿Ð¾ Ð¸
ĠÐ³ Ð¾
ĠÐ¿Ð¸ ÑģÐ°
ÑģÐº Ñĭ
ĠÑĤÐµ Ð±Ñ£
ĠÑĤ Ñ§
ÐµÐ½ ÑĸÐµ
Ñħ Ð¾
Ð¾Ð² ÑĮ
ĠÑģÐ° Ð¼
Ñħ ÑĮ
ĠÐ¸ Ð¼ÑĬ
ĠÐŁ Ð¾
ĠÐ¿Ð¾Ðº Ð»Ð¾Ð½
ĠÐ¼Ð½ Ð¾Ð³Ð¾
ĠÐ´ Ð½
ĠÐ² ÑĢÐ°
ĠÑĤ Ð²Ð¾ÑĢ
ĠÐ± Ð¸
Ġ -
ĠÐ»Ñ£ ÑĤ
Ñİ ÑīÐµ
Ð´ êĻĭ
ĠÐĲ ÑīÐµ
Ð¾Ñģ Ð¸
ĠÑĤ Ð¾Ð¼
ĠÑģÐµ Ð³Ð¾
ĠÐ¼ Ð½Ñ£
Ñ§ ÑĤ
ĠÑ¡ ÑĤ
ĠÐ¼ Ñ¹
Ð¼ Ñ¹
Ð³ Ñĥ
Ð² Ð¾Ð»
ĠÐ·Ð° Ð¿
Ð²Ð° Ð½
Ñħ Ð¸
ĠÐ³ Ñģ
Ñī ÑĮ
Ð° Ð³Ð¾
ĠÐ Ĺ
ĠÐ½Ð° Ð¼ÑĬ
ĠÐ´ ÐµÐ½ÑĮ
ĠÐ± Ð°
ĠÐ¼ Ð»
ĠÑģ ÐµÑĢ
ĠÑģÐ²Ð¾ Ñİ
ÑĢÐµ Ð±
Ñ§ ÑĤÑĮ
ĠÐ½Ð¸ Ðº
Ð½Ð¸ ÐºÐ°
ĠÑ¡ Ð±
Ð½ Ð¾Ð¹
ĠÐ½Ð¸ Ñħ
ĠÑĨ Ð°
Ġ Óı
ĠÐº Ð½Ñ§
ĠÑģÐµ Ð±Ðµ
ĠÐ¶Ð¸ Ð²Ð¾
ĠÑģ ÐµÐ¼
ĠÐ² ÐµÑĢ
ĠÑĢÑĥ Ð±
Ð½Ñĭ Ð¼
Ð» Ð¾Ð²Ð°
ĠÑĩ Ñİ
Ñħ Ñĥ
Ð² ÑĪÐµ
ĠÐ´Ð¾Ð± ÑĢ
ĠÐ½Ð° ÑĪ
Ñĭ ÑĪÐ°
ĠÐ¿ Ñĥ
ĠÐ² Ð¾Ñģ
ĠÐ± Ð¾Ð³Ð°
ĠÐ¾ Ð½Ð¸
ĠÐ»Ñİ Ð±
ĠÑģÐµ Ð±Ñ£
Ð½ Ñĸ
ĠÐ¿ÑĢ Ð¾Ð´Ð°
Ðº Ñ¹
ĠÐ± Ð¾Ð³
Ð¿Ð¸ ÑģÐ°
Ñı ÑĤÐ¸
ĠÐµ Ð¶Ðµ
ĠÑĤÐµ Ñħ
ĠÑģÐ» Ñĥ
ĠÐ± Ñĥ
ĠÑĨÐ°ÑĢ ÑĮ
ÑģÑĤ Ñ£
ĠÐº Ð¾Ð³Ð¾
ĠÐ·ÐµÐ¼ Ð»Ñİ
ĠÐ± Ñ¹
ĠÑĢ Ð¾Ð´
ĠÑ ł
ÑĪ Ð»Ð¸
ĠÐ±Ð¾ Ñı
Ð½Ñĭ ÑħÑĬ
ĠÐ½Ð° Ñģ
ĠÑĤ ÐµÐ¼
ĠÑĤÐµ Ð±Ðµ
ĠÐ² ÑĢÐµÐ¼
ĠÐ½ Ñĭ
ĠÐ¼Ð¸ Ð»Ð¾
ĠÐºÐ°Ðº ÑĬ
ĠÑģ Ð½
ĠÐ¼ ÐµÐ½
ĠÐ §
Ð¾ÑĢ Ð°
Ð½Ð¸ ÐºÑĬ
Ð´Ð¾ ÑĪÐ°
ĠÐ±Ñĭ ÑģÑĤÑĮ
ĠêĻ ĸ
ĠÐ¿ Ð»
ĠÑģÑĭ Ð½
Ñı Ð½
ĠÐ´ Ð²Ð°
ĠÐ £
ĠÐºÐ½Ñı Ð·
ĠÐ½ ÑĮ
ĠÐ¼ êĻĭ
ĠÐ´ ÐµÑĢ
Ð¼ ÐµÑĢ
ĠÑģ êĻĭ
Ð¿ Ñ£
Ð½Ð¸ Ñı
Ðº Ð¾Ð½
Ð¾ÑĢ Ðµ
ĠÐ· Ð»Ð°
ĠÐ¡ Ðµ
ĠÐ¿ Ð°Ðº
ĠÐ±Ñĭ ÑĤÐ¸
Ð´ Ñ¹
ÐµÐ½ Ñĭ
ĠÐº Ð¾Ð»
ĠÐ²ÑĬ êĻģ
ĠÐ¼ ÑĮ
ĠÐ¿ÑĢÐ¾ ÑĤÐ¸
ĠÑħ ÑĢÐ°
ĠÐ³Ð¾Ñģ Ð¿
ÐµÐ» ÑĬ
ĠÐ· Ð½Ð°
ĠÑģÑĬ ÑĤ
ĠÐ±Ñĭ Ð»Ð¾
ĠÐ¼ ÐµÐ½Ðµ
ĠÑĢ Ð¾Ð·
Ðµ Ð·
Ðµ Ð²Ð¸
Ð³Ð¾ÑĢ Ð¾Ð´
ÑĢ Ñİ
Ð» êĻĭ
Ð»ÐµÐº ÑģÐ°
ÑĤ Ð²
ĠÐ²Ñģ Ð¸
Ð½Ð¸ ÑĤÐ¸
ĠÐ´ Ð¸
ĠÐ² Ð¾Ð´
ĠÐ³ Ð°
ĠêĻģ Ð°
ĠÐ± êĻĭÐ´
Ð½ Ñ«
ÑĹ Ðµ
ĠÐ½Ð° ÑĪÐµ
ĠÑĩÐµÐ» Ð¾Ð²Ðµ
Ð° ÑĪÐµ
ĠÐ³Ñģ Ð´
Ð¾Ð½ Ð¸
ĠÐ½Ð° ÑĩÐ°
ĠÐ² Ð¾ÑĤ
ĠÐ¼ ÑĬ
ĠÑĤ Ð¾Ð¼Ñĥ
ĠÑģÐ¾ÑĤ Ð²Ð¾ÑĢÐ¸
ÐµÑĤ ÑģÑı
Ñİ ÑĤÑĮ
ĠÐ½Ð° Ð´
ÑĤ ÐµÑĢ
ĠÐ¿Ð¾Ð² ÐµÐ»Ñ£
ĠÑģ Ð¾Ð»
ÑģÑĤ Ñĥ
ĠÐ¶ Ð°
ĠÑĩÐµÐ» Ð¾Ð²Ñ£
ÑĤ Ñĥ
ÑĪ ÐºÐ°
Ð² ÐµÑĤ
ĠÐ¿Ð¾Ðº Ð°
Ñħ êĻĭ
ĠÐ¸ Ð¼Ñ£
ĠÐ ¥
Ð¾Ðº ÑĬ
êĻĳ Ð¸
ÑĪ ÑĤÐµ
ĠÑĤ ÑĥÑĤ
ĠÑģÐ» Ð¾Ð²Ð¾
ÑĨ Ñĥ
Ñħ Ð¾Ð¼ÑĬ
Ð½Ð° Ñ§
ĠÐ²Ð¾ÑĤ ÑĩÐ¸
Ð»ÐµÐºÑģÐ° Ð½Ð´
Ð½Ð° Ñı
ĠÑ¥ Ð³Ð¾
ĠÐ¶Ðµ Ð½Ð°
Ñ§ ÑĤÐ¸
ĠÐ³Ð¾ÑģÑĥÐ´Ð° ÑĢÐµ
Ð¾Ð± Ð¸
Ð± Ñı
ĠÑģÐ° Ð¼ÑĬ
êĻģ Ð°
ĠÑ £
Ð½ ÑĸÐ¸
ĠÑģÐ» Ð¾Ð²Ðµ
Ñī ÐµÐ½
Ò į
ĠÑĥ Ñĩ
Ð½Ð¾ Ð¸
ÐµÐ» Ð¾
ĠÐ³ Ð¾Ð»
ÑĢ êĻĭ
ĠÐ»ÑİÐ´Ðµ Ð¹
ĠÑĢÐ° êĻģ
ÑģÐ»Ð° Ð²
ĠÑģ ÑĥÐ´
ĠÐ´Ñ£ Ð»Ð°
ĠÑĩ ÑĤ
ĠÐ½Ð° ÑĪÐ¸
ĠÐ¿Ð¾Ð» Ð¾
ĠÐ²Ð¾ Ð¸
Ð¾Ð¶ ÑĮ
ĠÑĢ Ð¸
Ðµ ÑħÐ°
ĠêĻ ©
Ðº ÑĢÐ°
ĠÑĢ Ñ¹
Ð³ Ð¾Ð´
Ñģ Ñĥ
Ð± ÑĬ
Ð¾Ð²Ñ£ Ð´Ð°
ĠÑĢ Ñĭ
ĠÐ¿Ð¾ ÑģÐ°
ĠÐ½ ÑĬ
Ð³ ÑĢÐ°
ĠÐĵ Ð¾Ñģ
Ñģ Ð»Ð¸
ÑģÐ» Ñģ
Ð´ ÐµÑĤÑĮ
ĠÐ¿ÑĢ Ð¾Ñģ
Ð´ Ð¾Ñĥ
ĠÐ¿ÑĢ ÑĸÐ¸
ĠÐ¿ÑĢÐ° Ð²
Ðº êĻĭ
ĠÑģÑĤ Ð¾Ð»
ĠÑĤ êĻĳ
ĠÐ» Ñĥ
ĠÐ±Ðµ Ñģ
Ð½Ñĥ Ñİ
ĠÑĤ ÑĮ
ĠÑģÐ¼ ÐµÑĢ
ĠÑĩ ÐµÑĢ
ĠÑĩ ÐµÑĤ
Ðº Ð¾Ð¼
ĠÑĤ Ð¾ÑĤ
Ð½ Ð¾Ð²Ð°
ÑĢÐ° Ð²
ĠÐ° ÑĢ
ĠÐ½Ðµ Ð¿
Ð³ Ð¾Ð²
ĠÑģÐ²Ð¾ Ñ¥
Ð¾Ð½ ÑĮ
ÐºÐ¾ Ðµ
ÑĤ ÑĢ
ĠÐºÐ¾ÑĤÐ¾ÑĢ ÑĭÐµ
ĠÐ³ Ð¾Ð´
ĠÑģ ÐºÐ°
ĠÐ²Ð° Ð¼ÑĬ
Ð´ ÐµÑĤ
ĠÐŁ ÑĢÐ¸
ĠÐ ¯
ĠÐ¿ Ð¾Ð·
Ñĩ Ñİ
Ð½Ñĭ Ñı
ÐºÐ¾ Ñĥ
ĠÐ³ Ð¾Ð²
ĠÑħ Ð¾Ð»
Ð°ÑĢ ÑĮ
ĠÐ²ÐµÐ»Ð¸ ÐºÐ¸
Ð¼ Ñ§
ĠÐ¿ Ñ£
ÑģÐº Ñĥ
ĠÐ¢ Ð°
Ð¿ Ñĥ
ĠÑĤ Ð²Ð¾ÑĢÐ¸
Ð¾Ð± Ñĭ
ĠÑĢ êĻĭ
Ð¾ Ð¸
Ñİ ÑĤÑĬ
ĠÑĤ Ð¾ÑĢ
Ð¾ÑĤ Ð°
Ð½ Ð¾Ð²
Ð» Ð¾Ð¶Ð¸
ĠÐ³ÑĢÐ¸ Ð²ÑĮ
ĠÐ½ Ð¾Ð²
ĠÑģÐ» ÑĭÑĪÐ°
ĠÐļ Ð°
Ð½Ð¸ ÑĨÐ¸
Ðº Ð»Ð°
Ðº ÑĮ
ĠÑģÐ² Ñı
ĠÑģ Ñ«
Ñİ Ñī
ĠÐ¼Ð½ Ð¾Ð³
ĠÐ´Ð¾Ð± ÑĢÑĭ
ĠÐ³Ð¾Ñģ Ð¿Ð¾Ð´
ĠÑħ ÑĢ
ĠÐ² êĻĳ
ĠÑģÐ» Ñ¹
ĠÐ¿Ðµ ÑĩÐ°
ĠÐºÐ° Ð·
Ð¸ Ð¼ÑĬ
Ð¾Ð½ ÑĬ
ĠÑģ Ð¾Ñĥ
ĠÐº Ð½Ð¸
ĠÐĿ Ð¾
ĠÐ¿Ð¾Ð¼ Ðµ
âĢ Ĳ
Ð»Ðµ Ð²
Ñģ Ð½Ð¾
ĠÐĲ Ð»ÐµÐºÑģÐ°Ð½Ð´
ĠÐ½Ð° ÑģÑĬ
ÑģÐºÐ¾ Ðµ
ĠÐ ¹
ĠÐ½ êĻĳ
ĠÐ´ Ð²
Ð» Ñ¹
Ð¾ ÑĪÐ°
Ð´ ÐµÑĤÑĬ
Ðµ ÑĪÐ¸
ÑģÑĤ ÑĢÐ°
Ðº Ð¾Ð»
ÑĪ ÑĤ
ĠÐĿ Ð¸
Ñĩ ÐµÐ½
ĠÑ ¾
Ð½Ñĭ Ð¼ÑĬ
Ñħ Ð¾Ð´Ð¸
ĠÐ²Ð° ÑģÐ¸
Ð²Ð¸ ÑĤÐ¸
ĠÐ¿ ÐµÑĤ
Ð³Ð¾ ÑģÐ»
Ð½ ÑĸÑ§
Ð¾Ð¿ Ð¾Ð»
Ð³ Ñĭ
Ð½Ð¸ Ñ¥
Ð½Ð¸ ÑĨÐ°
ĠÐ³Ð¾ÑģÐ¿ Ð¾Ð´Ð¸
Ð½ Ð¾Ð¼ÑĬ
ĠÐº Ñ¹
ÐºÐ¾ Ñİ
ĠÐ´ ÑĬ
Ðº Ñ£
ĠÑĨ Ñ£
ÑĪ ÑĬ
Ð²Ð° ÑĤÑĮ
Ð½ ÐµÑĤ
ÑĨ Ñ§
ĠÐ¼ Ð½Ðµ
Ð¾Ð¼ Ð°
Ð½Ñĥ ÑĤ
ÑĪ ÐµÐ½
Ð¿ ÑĢ
Ð¾Ðº Ð°
Ġ â
Ð½Ñĭ Ð¼Ð¸
ĠÑħ ÑĢÐ¸
ĠÑĤÐ¾ Ð¸
ÐºÐ¸ Ñħ
ĠÐ¼Ð¸ ÑħÐ°
Ð²Ð° Ð»Ð¸
ĠÐ¼ Ð¾ÑĢ
ĠâĢ Ĳ
ÑĨ Ñİ
Ð¾Ð± Ð°
ÑĢ Ñ¹
ĠÐ´Ð¾Ð± ÑĢÐ¾
Ð³ Ð¾Ð¶Ðµ
Ñģ Ñ¹
Ð½Ð¸ ÐºÐ¸
ĠÐĳ Ð¾Ð³
ĠÑĤ Ñı
ĠÐ³Ð¾ÑģÑĥÐ´Ð° ÑĢÑĮ
ÑģÐº Ð¾Ð³Ð¾
ÐµÐ¼ êĻĭ
Ð»Ð° Ð½Ñ§
Ð½Ð¸ Ñİ
Ð² ÑĪ
ĠÐĹ Ð°
ĠÐ½ Ð±
Ð´Ð° ÑĤÐ¸
ÐºÐ¾ Ð¸
ÑĤÐ¸ ÑĤÐ¸
Ñİ ÑīÐ¸
ĠÑģ êĻĻ
Ð¿ Ðµ
ÑĤ Ð¾ÑĢ
ĠÐ¸ Ð½
ĠÐ´ Ð¾Ð»
ĠÐ¾ Ñģ
Ð½Ð¸ ÑĤ
ĠÐ¼ Ð¾Ð½Ð°
Ð¾Ð± ÑĮ
Ð¶ Ð´Ðµ
Ðº Ð¾Ð¼ÑĬ
ĠÐ± Ð¾Ñĥ
ĠÐ¼ÐµÐ½ Ñı
ĠÐ¶Ð¸ Ð²
ĠÑģÐ²Ð¾Ð¸ ÑħÑĬ
ÑĹ Ð¸
ĠÐ¿ êĻĭ
ĠÐ´ êĻĭ
ÐµÑĤ Ð°
Ñ§ ÑĪÐµ
Ñı ÑĤÑĮ
. ,
ĠÐ¿ ÑĮ
ĠÐ½Ð¸ Ð¼ÑĬ
ĠÐ¾Ñĥ Ð±Ð¾
Ð» Ð¾Ñĥ
ÑĦ Ð°
ĠÑģÐº Ð¾ÑĢ
ĠÑģÐ»Ð° Ð²
Ð¾Ð² Ñĥ
ĠÑ «
ĠÐ¿Ð¾ Ñħ
ĠÑĤ Ð¾Ð»
ĠÐº Ð¸
ĠÐº Ð¾Ð»Ð¸
âĢ Ķ
ĠêĻĹ ÐºÐ¾Ð¶Ðµ
ÑĹ Ñ§
ĠÐ¼ Ð¾Ð¶Ðµ
Ð³ Ñ¹
Ð¾Ð²Ð° ÑĤÐ¸
ĠÑħ Ð»Ñ£
ÑģÐºÐ° Ð³Ð¾
ĠÐ· Ð´
ÐµÐ¼ Ð°
ĠÐ¼Ñ£ ÑģÑĤÐ¾
ĠÐ¸ ÑģÑĤÐ¸
Ð½Ð¸ ÑĨÑĭ
Ñ¡ Ð²ÑĬ
ĠÐ± ÐµÑĢÐµ
Ð» ÑģÑı
ÑģÑĤÑĮ Ñı
, âĢĶ
ĠÐ¿Ð¾Ð» ÑĬ
ĠÑħÐ¾Ð» Ð¾Ð¿
ÐµÑĤ Ð¾
ĠÑĤ Ð¾Ð³Ð´Ð°
ĠÐ¼ Ð¾Ñģ
ĠÑĢÐµ Ñĩ
ĠÑĪ Ðµ
Ñĭ ÑĪ
ĠÑĤ Ð¾Ð¼ÑĬ
Ð¾Ð¼ êĻĭ
ĠÐ½Ðµ Ð¼
Ð½Ð° Ð°
ĠÐ·Ð° Ð¿Ð°
ĠÐºÐ¾ÑĢ Ð¾Ð»
ĠÑģÑĤ Ð¾ÑĢ
ĠÐ²Ð¾Ð» Ð¾Ð´Ð¸
ĠÐ´ÐµÑĢ Ð¶Ð°
ĠÐ´ Ñħ
ĠÑĨ ÐµÑĢ
ĠÐ¿Ð¾ Ñĩ
ĠÐ½Ðµ Ð´
ÑģÐºÐ¸ Ðµ
ĠÐº êĻĭ
ĠÐºÐ½Ñı Ð·ÑĮ
Ð¾Ð²Ð¸ Ñĩ
ĠÐº Ð½
Ð¾Ð¼ Ð¸
Ġ Ò
ĠÐ± Ð¸ÑĤÐ¸
ĠÐ³ Ð½
ĠÑģÐµÑĢ Ð´
ĠÐ¿ÑĢÐ¸ ÐºÐ°Ð·
Ñĭ Ð¸
ĠÐ¿Ð¾Ð´ Ð°
Ð½ Ð¾Ð¼Ñĥ
ĠÐ´ ÑĪ
ĠÑĩ ÑĮ
Ð» Ð¾Ñģ
ÑĤ ÐµÐ»
ĠÑģÑĤ Ðµ
ĠÑħ Ð¾Ð´Ð¸
ĠÐ¿ Ð¾Ð½Ðµ
ÑĤÑĮ Ðµ
ĠÐ¡ Ð°
Ð¸ Ð´Ðµ
ĠÑģÐ¸ ÑĨÐµ
êĻģ ÑĬ
ĠÑģÐ²Ð¾Ð¸ Ñħ
ĠÑĢ Ð¾Ñģ
ĠÑĢ Ð¶Ð¸
ĠÐ²ÐµÐ»Ð¸ ÐºÐ°
ĠÐ¼Ð½ Ð¾Ð³Ð¸
Ð¶ Ð´Ð°
Ð¸ÑĤ ÐµÐ»
ÑģÑĤ ÑĢÐ¾
ĠÐ½Ðµ Ð¸
ĠÐľ Ð¸
ÐµÑĢ ÑĮ
ĠÐ² Ð¾Ð´Ð°
ĠÒ Ĥ
ĠÐ¸ Ð²Ð°Ð½
ĠÑĢÐ° Ð±
â ±
Ð· Ðµ
ĠÐ° Ð½
â± ķ
ĠÐ¿ÑĢ Ð¾Ð¼
ĠÑĢ Ð¾
ĠÐ¸ Ð´Ðµ
ĠÐ¼ Ð¾Ð³
Ð³ Ð³
ĠÐ½Ð° ÐºÐ°Ð·Ð°
ĠÑģ ÐµÑĢÐµ
ĠÐĶ Ð¾Ð±
ĠÐ¸ Ð²Ð°
ĠÐ¿ÑĢÐ¾ÑĤÐ¸ Ð²
Ðµ Ñħ
ÑĪ ÑĤÐ¸
ĠÐ¿Ð° ÑĩÐµ
ĠÐ²ÑĬ Ñģ
Ðµ Ð½Ð¸
ĠÐµ Ð³Ð´Ð°
Ð½ ÑĸÐ°
ĠÐ´Ð¾Ð± ÑĢÐ°
ĠÐ¼Ð¾Ð½Ð° ÑģÑĤÑĭ
Ñ§ Ñī
ÑģÐºÐ¾ Ð¸
ĠÐł Ð°
Ð¾Ð¼ Ð¾
Ð¿ ÑĬ
Ñ£ Ð¸
ĠÐ²Ñ£ ÑĢ
ĠêĻģ ÐµÐ¼
ĠÐ¿Ð¾Ñģ Ð»Ðµ
Ð½Ñĭ Ñ§
ĠÐ´ Ð½Ð¸
ĠÐ ĸ
ĠÐº ÑĢÑ£
ĠÑģÐ²Ð¾Ð¸ Ð¼ÑĬ
Ð¶ ÑĬ
ĠÐ²ÑĬ Ð´Ð°
Ð¾Ð· Ð¸
Ð²Ñ£ ÑīÐ°
ĠÑĢ Ð¾Ð´Ð¸
ĠÑĥ ÑĩÐ¸
ĠÐ² Ð¾ÑĢ
ĠÐ° Ð·ÑĬ
ĠÐ±Ñĭ Ð²Ð°
Ðº êĻĳ
Ð¾Ð» Ñ£
ÑģÑĤÐ¾ Ð¸
ĠÐŀ ÑĤ
ĠÑĨÐ°ÑĢ Ñİ
ĠÐ²ÑģÑ£ ÑħÑĬ
ĠÑģ Ð¿Ð°
ĠÑģ ÑĢ
ĠÐ³ Ð½Ñ£
ĠÑģÑĬÑĤ Ð²Ð¾ÑĢÐ¸
ĠÐŁ ÑĢ
ĠÐ±ÑĢÐ° ÑĤÐ°
ĠÐ½Ð¸ ÑħÑĬ
ĠÐ¡ Ð¸
ĠÐ¿Ð¾Ð± Ñ£
Ð½Ñĭ Ð¹
ĠÑĥ Ð±Ð¾
Ð²Ð¾ Ðµ
ĠÐ± Ð»Ð¸
ĠÐ¿Ð°Ðº Ñĭ
Ð¾ Ðµ
ĠÐ´Ð° ÑĤÐ¸
ĠÐĴ Ð°
Ð½ÑĮ Ðµ
ĠÐ± ÑĬ
ĠÐ¼ Ð°ÑĢ
- -
ÑģÐ¿ Ð¾Ð´Ð¸
Ê ¼
ĠÑĢÐ° Ð´Ð¾
Ñħ Ñ«
ĠÐ¸ êĻģ
Ðº Ð²Ð¸
ĠÐºÑĥ Ð¿
ĠÐ±êĻĭÐ´ ÐµÑĤÑĬ
ĠÐ»ÑİÐ´ ÐµÐ¼
ĠÐ¿Ð¾Ð» Ð¾Ð¶Ð¸
ĠÐ½Ð° Ð¿Ð¸ÑģÐ°
ĠÐ³ÑĢÐ° Ð´
ĠÐ»Ñİ Ð±Ð¾
ÑģÐºÐ¸ Ñħ
ĠÐ¿Ð¾ ÑģÑĤÐ°Ð²Ð¸
ÑģÐº Ð¾Ð¼Ñĥ
ĠÐºÐ½ÑıÐ· Ñı
Ð± Ñ¡
Ð²Ð° Ð»
ĠÐºÐ¾Ð½ ÑĮ
Ð³ Ð½Ð°
Ð² ÑĪÐ¸
Ð· Ð¾
ÑĪÐµ Ð´
ĠÐ¾Ð± ÑĢÐ°
ĠÐ¢ Ð¾
Ñĭ Ñħ
Ð¼Ðµ Ð½Ð¸
ĠÑĤ Ð¾Ð²
ĠÐºÑĢÐ° Ñģ
ĠÐ³Ð¾Ð² Ð¾ÑĢÐ¸
Ð´Ðµ ÑģÑ§
ĠÐ² Ð°ÑĢ
ĠÐ¼Ð¾Ð» Ð¾Ð´
ĠÐ´ Ð¾Ð¼ÑĬ
ĠÑĤ ÑĢÐµ
ĠÐ¶Ðµ Ð½Ñĭ
Ð¼Ð¸ ÑĢ
ĠÐ¿ Ð¾Ð½
ÑĪ ÑĤÐ°
Ð± Ð¾ÑĢ
Ð¸ ÑħÑĬ
ĠÐ¾ Ð¿
ĠÐ´Ð¾Ð¼ Ð°
ĠÐ± Ð¾ÑĢ
ĠÐ¼Ð½ Ñ¡
ĠÐ´ÑĢ êĻĭ
ÑĦ Ð¸
ĠÐ¾Ð± Ñĭ
ĠÐ± ÐµÐ»
ĠÐ²Ñģ ÐµÐ¼
ĠÐĿ ÑĬ
Ð» Ñ¡
Ð½Ðµ Ñģ
ĠÐ³ÑĢ Ð²
Ð¾Ð´ ÑĬ
Ð´Ð¸ ÑĤÐ¸
ĠÐ¶Ð¸ ÑĤÐ¸
ĠÐ²Ð° ÑģÑĬ
Ð¾ÑĤ Ñ£
ĠÐ±Ð»Ð° Ð³
Ð· Ð´
ĠÑģÐ²Ð¾Ð¸ Ð¼Ð¸
ĠÑĨ ÐµÐ»
ĠÐ¿Ð° Ð¼
Ð¶Ðµ Ð½
ÑģÑĤÐ° Ð½
Ð¾Ð¿ Ð°
ĠÐ¿Ð¾Ð¼ Ð¾
ĠÐ±Ð¾Ñı ÑĢ
ĠÑ¥ ÑģÐ¸
Ð³ Ð»Ð°
ĠÐ¾ Ð´
Ñħ Ñ¹
ĠÑĩÐµÐ» Ð¾Ð¼
ĠÐ¸Ð¼Ð° ÑĤÐ¸
ĠÐ½Ð° Ð¿
ĠÑĤ Ð¾Ñĥ
Ð¿ÑĢÐ° Ð²
ÑĪ Ñ«
Ðµ Ð»Ð¸
ĠÑĤ ÐµÑĢ
ĠÐ½Ð° Ð¼
ĠÐ¿Ð¾ ÑĪÐ»Ð¸
- .
ĠÑ¥ Ñģ
Ð´ Ñ«
ĠÐŀ Ð½
ĠÐľ Ð°
Ð¾Ð¿ Ð¸
ĠÐ¶ Ð¸ÑĤ
ÑĤ ÑĢÐ°
ĠÑĥ ÐºÐ°Ð·
ĠÐ±ÑĥÐ´ ÐµÑĤÑĮ
ÑĤ ÑĢÐ¸
Ð· Ñ£
ĠÐ·Ð° ÐºÐ¾Ð½
ĠÑĪ Ð¸
ĠÐ¼ Ñ«
ĠÐ¿ÑĢÐ¸ ÑĪ
Ðµ ÑĨ
Ðµ Ð¸
ÑĢ Ð¾ÑģÐ»Ð°
ĠÐºÐ° Ð±Ð°
ĠÑģ Ð¼Ñ£
Ð¸ Ð»Ð¸
ĠÐ·Ð° Ð¿Ð¸
Ñ§ ÑĤÑĬ
ĠÐ¼Ð¾Ð» Ð¸ÑĤ
ĠÐ±Ð» Ð³
Ñİ ÑīÐ°
ÑĤ Ð¾Ð¶Ðµ
ĠÐ± Ð¾ÑĢÐ¸
ĠÑģÐµ Ð¸
ÑģÑĤ ÑĢ
Ð± Ñĥ
ĠÑ¥ Ð¼Ñĥ
ĠÐ³ÑĢÐ° Ð´Ð°
ĠÑģÑĭ Ð½Ð°
ĠÑħÐ¾ Ñī
ĠÑģÐ¾Ð± Ð¾Ñİ
ĠÐĴ Ð»Ð°
ĠÑĤÐ¾Ð² Ð°ÑĢ
ĠÐ´ Ð¾ÑĢ
ĠÑħ Ð°
Ðº Ð¾Ð²Ð°
ĠÑĤÐ¾Ð± Ñ£
ĠÐ¼Ð¸Ð»Ð¾ ÑģÑĤÐ¸
ĠÐ¿ÐµÑĢ ÐµÐ´
ĠÐ³Ð»Ð°Ð³Ð¾Ð» Ð°
ÑģÐº Ð¾Ð¹
Ð¼ Ð¸ÑĤ
ĠÑģÐµ Ð´
ĠÐ²Ñĭ Ñģ
ĠÐ´ ÑĢÐµ
ĠÐ¿Ð¾Ñģ Ð»Ñ£
ĠÐ¾ Ð½Ð°
Ð¼ÐµÐ½ Ð°
ÑĢ ÑĤ
Ð¼ Ñ¡
ĠÑģ Ð¾Ð²
Ð² Ð¾Ð´
Ñ¹ Ñİ
ĠÐļ Ð°Ðº
ĠÑĨÑĢ Ðº
ĠÐ´Ðµ ÑģÑ§
ÑĮ Ñĸ
ĠÐº Ð¾Ð¼Ñĥ
ĠÐ²Ðµ Ð´ÑĮ
ĠÐ¼ Ð¾Ð»Ð¸
ĠÐ¿Ð¾Ñģ Ð»Ñĥ
ĠÐ¡ ÑĬ
ÑĢ Ð¾Ñĥ
ĠÐ¢ Ñĭ
ĠÐ±Ñĭ Ð»Ð¸
ĠÐ½Ð¸ Ð¼Ð¸
ĠÐ½ Ð¾Ð³Ð°
ĠÐ²Ð¾Ð»Ð¾Ð´Ð¸ Ð¼ÐµÑĢ
Ð²Ð¾ Ñİ
ĠÑģÐ²Ð¾ Ñ§
ÑģÐº ÑĥÑİ
Ð½ Ñ¡
Ñĭ Ð¼ÑĬ
ÑĪ ÐºÐ¸
ĠÐ ¦
ĠÑĤÐ¾Ð± Ð¾Ñİ
Ð» Ð¾Ð²
ÑĤÐ¸ ÑģÑı
ĠÐ²ÑģÑ£ Ð¼ÑĬ
Ð³Ð¾ÑģÐ» Ð¾Ð²
ĠÐ¿Ð¾Ð¼ Ð¸
Ð¼ ÐµÐ½ÑĮ
ÑģÐ»Ð° Ð²ÑĬ
ĠÐ· Ð´Ñ£
ĠÑĪ ÑĤÐ¾
ĠÐ´Ð° Ð²
ĠÐ²Ð¾ ÐµÐ²
ÑģÑĤÐ² Ñĥ
ĠÐ½Ð° ÑĢ
Ð²Ñĭ Ð¸
ĠÑ¡ Ð±Ð¸
ĠÑĨ ÐµÑĤ
ÑĤ Ð°ÑĢ
ĠÐ´ ÐµÑĢÐµ
ĠÑı ÐºÐ¾Ð¶Ðµ
ĠÐĲ Ð¶Ðµ
ĠÐ² Ð½Ð¸
Ð¸ Ð¼Ð°
ĠÐ´ Ð¾Ñĥ
ĠÑ¡ Ð±ÑĢÐ°
ĠÐ» Ñ¹
Ð¾Ð¼ Ñ£
ĠÐ± Ð¾Ð»ÑĮ
Ð»Ð° Ð´
ĠÐ²ÑĬ ÑģÑ£
ĠÐ¼ Ñı
ĠÐ½Ðµ Ð±Ðµ
ĠÐĶÐ¾Ð± ÑĢÑĭ
Ð´ Ð¾Ð²Ð°
Ð¾Ð¼ Ð¾Ñĥ
ĠÐ± Ñ«
ĠÑĥÑĩ Ð½ÑĥÑĤ
ĠÐ½Ð°ÑĪÐµ Ð³Ð¾
ĠÑĤ Ð¾Ð¹
ĠÐ¾ ÑĩÐ¸
ĠÐ´ Ð¾Ñģ
ĠÐ¿ÑĢÐ° Ð²ÐµÐ´
Ñ§ Ð¸
Ð² Ð¾Ð·
Ð´ Ð¸ÑĤÐµ
Ñħ Ð¾Ð¼
ĠÐ ¤
Ð½Ð¸ êĻĹ
Ð¾Ðº Ð¾
ĠÐ½Ðµ Ð¼ÑĬ
ĠÐ²ÑģÑ§ ÐºÐ°
ĠÐ´ Ð»Ñı
ĠÐ²Ð· Ñı
Ðµ Ð¹
ÑĪ Ñ§
ÐµÐ¼ Ñ¹
ĠêĻĸ ÐºÐ¾
Ñĸ ÐµÐ¼ÑĬ
ĠÐµ ÑīÐµ
ĠÐ¼Ð° Ð»Ð¾
ÑĪ Ñĥ
ÑģÐµ Ð»Ð¸
ĠÐĵÐ¾Ñģ Ð¿Ð¾Ð´
ÐµÑĢ Ð¸
Ñ§ ÑīÐµ
Ð½ êĻĹ
ĠÐ±Ðµ êĻģ
Ð± Ð»Ð¸
ĠÐ»ÑİÐ´Ðµ Ð¸
ĠÐ¿Ð¾Ð½Ðµ Ð¶Ðµ
ĠÐ² Ð¿
âĢ Ŀ
ĠÐ²ÑģÐµ Ð³Ð´Ð°
Ðµ Ð²Ð°
ĠÐ¾ Ð½ÑĬ
ĠÑĢÐ°Ð· Ñĥ
ÑģÑĤ êĻĭ
Ð»Ð° ÑĤÐ¸
ĠÐ¿Ð¾ Ñĥ
Ð½Ñ£ Ð¸
ĠÐ±Ð¾Ð³Ð° ÑĤÑĭ
ĠÐ¿Ð¾ÑĢ Ñĥ
ĠÐ¿Ð¾ÑģÐ° Ð´
ĠÐ±ÑĢÐ° ÑĤÐ¸
ĠÑģ ÐºÐ°Ð·Ð°
Ġ 1
ĠÐ¼Ð° ÑĤÐµÑĢ
ĠÐ²Ð¾Ð· Ð¼
ĠÐ²Ð¾Ð» Ð¾
ĠÐ²Ð· Ñ§
ĠÐ´ Ð¾Ð½
ĠÐµ Ñı
ĠÑĤ Ð¾Ð¼Ñ¹
ÑģÑĤ Ñ§
Ð²ÑĢÐ° ÑĤÐ¸
Ð² ÑĢÑĬ
ĠÐ¿ÑĢ Ð¿
ĠÑĪ Ð°
ĠÐ¼ ÐµÐ´
ĠÐ» ÑĮ
ĠÑ¹ Ð±Ð¾
Ðº Ð¾Ð³Ð¾
Ð´Ðµ ÑĪÐ¸
Ð´ ÐµÑĢ
ÑĨ êĻĭ
ĠÐ²Ñģ ÐµÐ¼ÑĬ
ĠÐ´ Ð¾Ð¿
ĠÑģÐ²Ð¾ ÐµÐ¼Ñĥ
ĠÐ¿Ð¾Ðº Ð»Ð°Ð½Ñ§
Ð³ Ð°ÑĢ
Ð³ êĻĭ
ĠÑĤÐ¾Ð» ÐºÐ¾
ĠÐ´ Ð½Ðµ
Ñģ Ð¾
ĠÑĨÐ°ÑĢ Ñı
ĠÐ´ Ð¾Ð²
ĠÐ¾ Ð³
Ð´ Ð½Ð¾
ĠÐ¢ Ñ£
ĠÐ´Ñ£ Ð»Ð¾
ĠÐ¿ Ð¾Ð¶Ð°
ĠÐ»Ñİ Ð±Ð¸
ĠÑģÐ° Ð¼Ð¸
ĠÐ¿ Ñ¹
ĠÐµ Ð¼Ñ¹
ĠÐ¸ ÑģÐº
ĠÑĤÐ° Ð¼Ð¾
ÑĮ Ñı
ĠÑģ Ð¾Ðº
ĠÐ¼ Ð¾Ð¹
ÑģÑĤ Ð¾Ð»
ĠÐ·Ð° Ð½Ðµ
ÑĤ ÐµÐ»ÑĮ
Ð¶ Ñĥ
Ð¾ÑĤ ÑĬ
ĠÐ² ÑĢÑ£
Ñı ÑĪÐµ
ĠÐ³ Ñİ
Ð¾Ð± Ñ£
ĠÐ´ÑĢ Ñ¹
Ñĩ ÐµÑĤ
ĠÐ´ÑĢÑĥ Ð¶Ð¸
ĠÐ²ÐµÐ»Ð¸Ðº Ð¾Ð³Ð¾
ĠÐµÑģ Ð¼ÑĮ
ĠÐ¾ Ð¶Ðµ
Ð´ Ð¸ÑĤ
Ð³ ÑĢÑ£
Ñģ êĻĹ
ĠÑģ Ð¼Ð¾ÑĤ
ĠÑĢÐµ Ðº
ĠÐ¿Ð¾Ð´ ÑĬ
ĠÑĨÐ° ÑĢÐµ
ÑĨ ÐµÐ¼ÑĬ
ĠÑħ Ð¾Ð´
ĠÐ¿Ð¾ ÑĪ
ĠÑģ Ð»Ðµ
ĠÐ¿ÑĢ Ñĸ
ÑĤ ÑĨÐ°
ĠÐ½Ð¾Ð² Ð³Ð¾ÑĢÐ¾Ð´
ĠÐ½Ð¸ ÐºÐ°
ÐºÐ¾Ð² ÑĮ
ĠÑģ Ð²Ð¸
Ñ¥ ÑĤÑĮ
ĠÐ¿Ð¸ Ñģ
Ð±Ñĭ Ð²Ð°
Ð± êĻĳ
ĠÐ» Ð¾Ñĥ
ĠÐĴÐ»Ð° Ð´Ð¸
Ð¾Ð± Ð¸ÑĤ
ĠÑģÐµ Ð±Ñı
Ð¾Ð²Ñĭ Ñħ
ĠÑģ ÐºÐ¾
ĠÐ¾ÑĤ Ð´Ð°
ĠÐ±ÑĥÐ´ ÑĥÑĤ
Â ¦
Ð½Ñ¹ Ñİ
ĠÑĤ êĻĭ
ĠÐ²Ñģ Ñİ
ĠÐ¿ÑĢÐµ Ð´Ð°
ĠÐ¿Ð¾ ÑģÑĤ
ĠÐ¢ Ð°Ðº
Ð¶ Ð´
Ñ¡ Ð¼ÑĬ
ÑģÑĤÐ¸ Ñİ
ĠÐ³ÑĢÐ°Ð¼Ð¾ÑĤ Ð°
Ġ (
ĠÐ¿Ð° ÐºÐ¸
ĠÐ½Ð° ÑĢÐµ
ÐµÐ¼ Ð¸
ĠÑĤÐµ Ð±Ñı
ÑĪ Ñİ
ĠÐ´ÐµÑĢÐµ Ð²
ĠâĢ ĵ
ĠÐ´ÑĢ Ð¾Ñĥ
ÑĤ Ñ§
ĠÑģÑĤ ÑĢ
ĠÐ¿Ð¾Ð» Ðµ
ĠÐº Ð»Ñİ
ĠÐ¼Ð¾Ðµ Ð³Ð¾
Ð´Ð¸ Ð½ÑĬ
ĠÑģÑĤÐ°ÑĢ Ð¾
ĠÐ´Ðµ Ð²
ĠÐ¢Ð° ÐºÐ¾
ĠÑģ Ð¾Ð³
ÑģÑĤ Ð²Ð¸
ĠÐ· Ð¾Ð»
Ðµ Ñİ
ĠÑģÐ¾ÑĤ Ð²Ð¾ÑĢ
ĠÑ Ĭ
ĠêĻ Ģ
ĠÑģ Ð¾ÑĢ
ĠÑģÑĤ Ð²Ð¾ÑĢÐ¸
ĠÐ¼Ð¸ÑħÐ° Ð¸
ĠÐ¿ÑĢ Ð¾Ðº
ĠÐºÐ½Ñ§ Ð·
ĠÐ³ Ð´Ðµ
ĠÐ± êĻĭ
ĠÑģ ÐµÐ¼ÑĬ
Ð» êĻĹ
ĠÑģ ÐµÐ¼ÑĮ
ĠÑĢ Ð¾Ñĥ
ĠÐµ Ð»Ð¸
ĠÐ»Ñİ Ð´ÑĮ
Ðµ Ñ¡
ĠÐ¿ Ð¾Ð¶
ĠÑģÐµ Ð»Ð°
ĠÑģÑĭ Ð½ÑĬ
ÑĤ Ð²Ð¾ÑĢ
ĠÐ³ Ñĥ
ĠÐ½Ð¸ Ñĩ
ĠÐ²Ð° ÑĪÐµ
ĠÐĴÐ° ÑģÐ¸
ĠÐł Ðµ
ĠÑģÐ²Ð¾Ðµ Ñİ
Ð½ Ð¾Ð³
Ð² êĻĭ
ĠÑ¡ Ñģ
ĠÐĴ Ð¸
Ñħ Ð¾Ð²
ÑĤ Ð¾Ð²Ð°
ĠÑĤ Ñ¹
ĠÑĥ Ð¾
Ð¿ ÑĮ
ĠÐ¼Ð° Ð½Ð°
ÑĢÐ¸ ÑĤÐ¸
ĠÐŁ Ð°
Ñĩ Ð¸ÑĤ
ĠÑĢÐ° Ð´
ĠÐ²ÑģÐµ Ð³Ð¾
ÑģÑĤÐ² êĻĭ
ĠÑı Ð·Ñĭ
Ð¾ÑĤ Ð¾
Ðµ Ñģ
ÑĤ Ð²Ð°
Ñī êĻĭ
ÐµÐ¼ Ð¾Ñĥ
ĠÑģ ÑĤÑĮ
Ð» Ð¾Ð±
ĠÐ² Ð»
ĠÐµ Ð²Ð¾
ÑĩÐµ ÑģÑĤÐ¸
ĠÑĩÐµÑĤ Ð²ÐµÑĢ
ĠÐ¿ÑĢÐ¸ Ð²Ðµ
ĠÐ¿ÑĢÐ¸ Ð´Ðµ
Ð´Ðµ Ð¶Ðµ
Ð· Ñĥ
ÑĨ Ð¾Ð²
ĠÐ¿ Ð»Ð¾
ĠÑģÐ¸ ÑħÑĬ
ĠÑģÐ² Ð¾Ð±
Ñħ ÑĢÐ°
Ð¾ÑĤ Ñĭ
ĠÐ±Ñĭ Ð»Ð°
ĠÑĩÐ» Ð¾Ð²Ñ£
ĠÑĩÑĤ Ð¾Ð±
ĠÑģÐ²Ð¾Ðµ Ð¹
ÑĪÐ° ÑģÑ§
Ð´ ÑĢÐ°
ĠÐ¼ Ð°Ðº
ĠÐ±ÑĢÐ° ÑĤÑĮ
ĠÐ³ÑĢÐ° Ð´ÑĬ
Ð²ÑĬ ÑĪÐµ
ÑģÑĤ Ñ¹
ĠÑĨ ÑĤÐ¾
ĠÑĤ ÑĢÐ¾
Ð¸ Ñħ
Ñ ¿
Ð» Ð¾Ð¼ÑĬ
ĠÐ¾ÑĤ Ð²ÐµÑĤ
ĠÐ° Ð¿
ĠÑģÑĥ ÑĤÑĮ
ĠÐŁ Ð¾Ñģ
ĠÐ² Ð´
Ñģ êĻĭ
ĠÐ¸Ð· ÑĬ
ÑĪÐ° Ð³Ð¾
ĠÐ´ÑĢÑĥ Ð³
ĠÐºÐ¾Ð½ Ñı
Ð½ êĻ¿
Ð¾ÑĢ Ð¸ÑĤ
ĠÐ´Ñ£ ÑĤÐ¸
ĠÐµ Ð¼Ð¾Ñĥ
Ñ§ Ð´
ĠÐ¼ Ñ¡
ĠÐ¼ Ð½Ð¾Ñİ
ÑĤÐ¸ Ð½Ð°
ĠÐ½Ðµ Ð²Ñ£
ĠÐ³ ÑĢÐµ
ÑĪÐ° ÑĤÐ¸
ĠÑĥ Ð±Ð¸
ĠÐ¿Ð¾Ð³ Ð¸
ĠÑ Į
Ð± Ð»Ð°
Ñ ¯
Ð¶Ð° ÑĤÐ¸
ĠÐ¿Ð¾ÐºÐ»Ð¾Ð½ ÑĬ
ĠÑĤÑĢ ÐµÑĤÑĮ
ÑĢ Ð¾Ð²Ð°
ÑĪ êĻĭ
ĠÐ½Ð° Ñĩ
ĠÐ½Ðµ Ð¼Ñĥ
ĠÑĥ Ð¼
ĠÐ¿Ð° Ð²
ĠÐ¿ÑĢÐ¸ Ð¸
ĠÐ²ÑĢÐµÐ¼ Ñı
ĠÐ²Ðµ Ñģ
ĠÑĩÐµ Ð²Ð¾
ĠÐ³Ð¾ÑģÑĥÐ´Ð° ÑĢÑİ
ĠÑĩÐµÐ» Ð¾Ð±Ð¸ÑĤ
Ñ£ Ð»Ð¾
ĠÑģÐ²Ñı ÑĤÑĭ
ĠÐº Ð»Ð°
ĠÐĴ Ñĭ
Ñ »
Ð¾Ð²Ð¸ ÑĩÐ°
ĠÑĩÐ¸ ÑģÑĤÐ¾
ĠÑĤÐ²Ð¾Ðµ Ð³Ð¾
ÑĢ Ð¾Ð²
ĠÐ¿ÑĢ ÐµÐ¼
ĠÑ¥ ÑģÑĤÑĮ
ĠÑĸ Ñ¡
Ð² Ñı
ĠÑĩÐµÐ»Ð¾Ð²Ðµ ÐºÐ°
ĠÑħ Ð¾ÑĢ
ĠÐ´Ðµ Ð»Ð°
ĠÑħÐ¾ÑĤ Ñ£
Ð»Ð¸ Ñĩ
ĠÐ³ Ð´Ñ£
ĠÑģÐ° Ð¼Ð°
ĠÐ»Ñ£ ÑĤÐ°
Ñĭ Ð¼
Ñī Ð¾
Ð°Ðº Ð¾Ð½
êĻģ ÑĮ
ÑģÐ¸ Ð¸
ĠÑĤÐ²Ð¾ÑĢÐ¸ ÑĤÐ¸
ĠÐ¼Ð¾ Ñ§
ĠÐ²Ðµ ÑģÑĮ
Ð½êĻĳ Ð¸
ÑĢÐ¸ ÑĨÐ°
Ġâ ģ
Ð± ÑĢÑ£
ĠÐµ ÑģÑĤÐµ
ÑĢ Ð¾Ð¼
êĻģ Ð¸
ĠÑģÐ²Ð¾Ðµ Ð¸
ÑĪ ÐµÐ½ÑĮ
ĠÑī Ð¾
ĠÐĴ Ð¾
Ð² Ð»Ñ§
ÐµÐ²Ð¸ Ñĩ
ĠÑĦ ÐµÐ´
ĠÑĩÐµÑĤ Ñĭ
ĠÐ¸ Ð¼ÐµÐ½
ĠÐ¼ ÑĤ
Ð½Ð¸Ðº Ð¾Ð²
ĠÐ³ÑĢÑ£ Ñħ
Ñĩ ÐºÐ¸
Ðº Ð¾Ð²ÑĬ
ĠÐ²ÐµÐ» Ð¼Ð¸
Ð± Ð»ÐµÐ½
Ðº ÑĢÐµ
ĠÐ¾ÑĤ Ð¿Ñĥ
ĠÑģÐ¼ÐµÑĢ ÑĤÐ¸
ĠÐ¼Ð¾ Ñı
ĠÑħÐ¾ÑĤ Ñ§
ĠÑģ ÑĸÑ§
ĠÐ³ Ð¸
ĠÐ½ Ð¾Ñģ
Ð¶ Ð¸ÑĤ
ÑĢÐ¾ ÑĤÐ¸
ĠÐµ Ð¼êĻĭ
ĠÐ±Ñĭ Ñģ
ĠÐ¿Ð¾ÐºÐ»Ð¾Ð½ Ð¾
Î ¹
ĠÐ´Ð° Ð»ÑĬ
ÐµÐ¼ Ð¾
ĠÐĺ Ð·
ĠÑĢ ÑĮ
ĠÐ¿ÑĢ Ð¾Ð¿
ĠÑģÐ» êĻĭ
ÑĢÐ¸ Ð½
ĠÐ¼Ð¾ Ñ¥
ĠÐ²Ð° ÑĪÐ¸
Ñĩ ÐµÑĢ
ĠÐ±Ð»Ð° Ð³Ð¾
ÑĢ Ð¾Ð¿Ð¾Ð»
ĠÑħ Ð²Ð°
ĠÐĴ ÑĮ
ÑģÐºÐ¸ ÑħÑĬ
Ñĸ Ñı
Ðº Ð²Ðµ
Ð¾Ð½ Ñĥ
ÐºÐ¸ Ðµ
ĠÐ¿Ð¾Ð´ Ð¾Ð±
ĠÐ½Ðµ ÑĤ
ĠÐ· Ð»Ð¾
Ð¾Ðº Ð¸
ĠÐ¶Ð° Ð»Ð¾Ð²Ð°
ĠÐµ ÑģÑĤ
ÐµÑħÐ° Ð»
Ð³ Ð½
ĠÐº Ð¾Ð¿
ĠÐļÐ° ÐºÐ¾
ĠÐºÑĢÐµ ÑģÑĤÑĮÑı
ĠÐ¿ÑĢÐ¸ ÑĪÐ»Ð¸
ÑĢÐ° ÑĤÐ¸
Ð»Ð¸ ÑģÑı
ĠÐ³Ð¾ÑģÑĥÐ´Ð°ÑĢÐµ Ð²Ñĭ
ĠÐ´ ÑĢÑĬ
Ð½Ð° Ð°Ð³Ð¾
ĠÐ´Ð¾Ð± ÑĢÑ£
Ðº Ð¾ÑĢ
ĠÐ¼Ð¾ Ñİ
ĠÐ±ÑĥÐ´ Ñĥ
ĠÑģÐ² Ñ§
Ð¶Ðµ ÑĤ
ĠÐļ Ð¸
ĠÐ½Ð° ÐºÐ°
ĠÐ¾ÑĤÐ²ÐµÑĤ ÑĩÐ¸
ĠÐ±Ñĭ Ð»ÑĬ
ĠÐ¿Ð¾ ÑģÑĤÐ°Ð²
ÑĪÐµ Ð´ÑĬ
Ñĭ ÑĤÐ°
Ðº Ð»Ð¾Ð½
ĠÐ¿ÑĢÐ¸ ÑħÐ¾Ð´
Ð· Ð½Ð¸
ÑĢÐ¾ ÑģÑĤÐ¸
ĠÐ´ÑĮ Ñı
ĠÐ¾ÑĤ ÑĢÐ¾Ðº
ÑĶ Ð¼ÑĬ
ĠÑĢÑ¹ Ðº
ĠÐ¶ ÑĮ
ÑĤÐµ Ð¸
ĠÐº ÑĢÐ¸
ĠÐ»Ñ£ ÑĤÐ¾
Ð¾Ð»ÑĮ ÐºÐ¾
ĠÐ¾ ÑģÑĤÐ°
ĠÐ²ÑĮ ÑģÑ£
Ð± Ñ§
ĠÑĢÐ° ÑĤ
ĠÐ¼Ñ£ ÑģÑĤÐ°
ÑģÑĤ ÐµÑĢ
ĠÐ²ÑĬ ÑģÐ¿
ĠÐ¿Ð» ÐµÐ¼
ĠÐ¿ Ð¾Ð³Ð°
ÑĪ ÐºÐ¾
ĠÐ±Ñĭ ÑĪÐ°
Ðº Ð¾Ð¹
Ð± ÑĢ
Ñī Ñİ
ĠÑĤÑ£ ÑħÑĬ
ĠÐ²Ð¸ Ð´Ð¸
Ð½ Ð¾Ð¼Ñ¹
ĠÐ± Ð»Ñİ
ĠÐ¸ Ð¼Ðµ
ĠÐºÐ° Ð¼ÐµÐ½
ĠÐ° Ð³Ð³
Ð½Ðµ Ð¸
ĠÑĩÑĤ Ð¾Ð±Ñĭ
ĠÐ¼ ÐµÑĢ
ĠÑģÐ²Ð¾ Ñı
ĠÐ½Ñ£ ÑģÑĤÑĮ
ĠÐ½Ñĭ Ð½Ðµ
ĠÐĲÐ»ÐµÐºÑģÐ°Ð½Ð´ ÑĢÑĬ
ĠÐ²ÑĬ ÑģÐº
ĠÑģÐ» Ð¾Ð²
ĠÑĤÐ²Ð¾ Ñ§
ĠÑħÑĢÐ¸ ÑģÑĤ
ĠÐ¿Ð¸ ÑĤÐ¸
ĠÐ·ÐµÐ¼ Ð»Ñ§
ĠÐ¿ Ñ§ÑĤÑĮ
ĠÐ²ÑģÑ§ ÐºÐ¾Ð¸
ĠÐºÑĢÐ° Ð»ÐµÐ²
Ð½Ð¸ Ð½Ð°
ĠÑģÑĬÑĤ Ð²Ð¾ÑĢ
ĠÑĤ Ð¾Ð»Ð¸
ĠÐ±Ð¾Ð» Ñ£
ĠÐ§ ÑĤÐ¾
ĠÐ¼Ñ¹ Ð¶
ĠÑĥ Ð´Ð°
ĠÑģ Ð¾Ð·
ĠÐĺ Ð½Ð¾
ÑĤ ÐºÐ¸
Ð´ Ñı
ĠÑģÑĤ ÑĢÐ¾
ĠÐĽ Ð°
ĠÐ½Ð¸ Ð¶Ðµ
Ð¾Ð²Ñĭ Ðµ
ĠÑĤÐ° Ð¸
ĠÑĤ ÑĢÑĮ
ÑĤ ÑģÑ§
Ð¾ÑĤ Ð²Ð¾ÑĢ
ĠÑĤÐ²Ð¾ Ñİ
ĠÐ¿Ð¾Ð» Ð°
ĠÐºÑĢÑ£ Ð¿
ĠÐ¼Ð¸ ÑĢÑĬ
ĠÐĳ Ð¾Ð¶Ð¸
ÑĤÑĮ Ñİ
ĠÑĢÐµ ÐºÐ¾
ĠÐ¾Ñĥ Ð¼
0 0
ĠÑ¡ ÑĨ
ĠÐ²Ð°ÑģÐ¸ Ð»ÑĮ
ĠÐ´Ð¾ ÑģÑĤÐ¾Ð¸
ĠÑģÐ» Ð¾Ð²Ð°
ĠÐ¿Ð¾Ð´ Ð¾Ð±Ð°
ĠÐ½Ðµ Ð½Ð°
ĠÐ¿Ð¾Ð· Ð½Ð°
Ð² Ñ§
ĠÑģÐ¾Ð± Ñ£
ĠÑģÐ²Ñ£ ÑĤ
ĠÑ§ Ð·ÑĬ
ĠÐ²Ð¾ÑĤÑĩÐ¸ Ð½
ĠÐ½ Ð½
ĠÐ±Ðµ ÑģÑ£
Ð¶ Ñİ
ĠÐµ Ð´
ĠÐ¿ÑĢÐ¸ ÐºÐ°
ĠÐºÑĥ Ð½ÑĬ
ĠÐ¿ÑĢ ÑĬ
ĠÑģ Ð½Ð°
ĠÐ²Ñ£ Ñĩ
ÑĪ êĻĻ
ĠÑĩÐµÐ»Ð¾Ð²Ñ£ ÐºÑĬ
ĠÑģÑĤ Ñĭ
ĠÐľ Ð¾Ñģ
Ñī Ñĥ
ĠÐ´Ñ£ ÑĤ
ĠÑģ ÑĢÐµ
ĠÑĥÑĩ Ð½ÐµÑĤ
ĠÑĤ ÑĢÐ°
ĠÐ¼ Ð¾Ñĥ
ĠÐĳ Ð¾Ð³Ð°
ÑģÐºÐ¸ Ð¼
Ð²Ð¸ ÑĤÑĮ
Ð·Ñĭ Ð²Ð°
ĠÐ¿ Ð¾Ð²Ðµ
Ñİ Ð±Ð¸
ĠÐ¿ÑĢÐ° Ð²Ð¾
ĠÐ³ÑĢÑ£ ÑĪ
ĠÐ¿ Ð¾Ð²Ð¸
ĠÑģÐ²Ð¾ ÐµÐ¼ÑĬ
ĠÐ¾ Ð±Ð¸
ĠÑĦ Ð°
ÑģÑĤ Ð²Ñ£
ĠÑģ Ð¾Ð²Ñ£
ĠÐºÐ½ÑıÐ· Ñİ
ĠÐ³ÑĢÐ°Ð¼Ð¾ÑĤ Ñĥ
ĠÐ¾ÑĤ ÑĨÐ°
ĠÐ·ÐµÐ¼ Ð»Ñı
ĠÐ¿ Ð¾Ð²Ñ£
ĠÑģÐ²Ð¾Ð¸ Ð¼
ĠÐºÐ¾ÑĢ Ð°
ĠÐ» Ð²
ĠÑĩÑİ Ð´
ĠÐ¿ Ð¾Ð²Ñ£Ð´Ð°
Ð²Ñ£ ÑĤ
ĠÑĤÐ°Ðº ÑĬ
ĠÐ± Ñ¡
ĠÐ¿ÑĢÐµ Ð¶Ðµ
ĠÐ¼Ð¸Ð»Ð¾ ÑģÑĤÑĮ
ĠÑģÐ»Ð¾Ð²Ðµ ÑģÐ°
ĠÐ¼ Ð¾ÑĢÐµ
ÑģÐºÑĭ Ð¸
ĠÐ¸ ÑģÐºÐ°
Ð³ ÑĮ
ĠÐ¾Ð± ÑĢÑ£
ÑģÐ»Ð° Ð²Ð°
Ð· Ð½Ð°
ĠÐ¼Ð½ Ð¾Ð³Ð°
ĠÑģÑĭÐ½ Ð¾Ð²Ðµ
ĠÐ´ ÐµÐ½Ðµ
Ð¾Ð¶ Ð´Ðµ
ĠÑĤÑĭ ÑģÑ§
ĠÐ¿Ð¾Ð¸ Ð´Ðµ
ĠÑĤ Ð¾Ðº
ĠÐ³ ÑĮ
ĠÐ¼Ð¸ ÑĢ
ÑģÐ» ÑĭÑĪÐ°
Ñ¹ Ð´
ĠÐ²ÑģÑ§ ÐºÐ¾Ðµ
Ðº ÑĢ
ĠÐ¿ÑĢÐ¸ Ð½Ð¾
ĠÐºÐ¾Ð½ Ð¸
ĠÑĤÑ£ Ð»Ð¾
ĠÐ´ ÑĢÐ°
Ð¼Ð¸ ÑĢÐ°
ĠÐ³Ð¾ÑģÑĥÐ´Ð° ÑĢÑı
ĠÐ´ ÐµÐ½
Ð· Ð´Ð°
ÑĤ Ñĸ
ĠÑ¿ ÑĨ
ĠÐ¿Ð¾ÑĢ Ð°
Ð½Ðµ Ðµ
ĠÑĥÐºÐ°Ð· Ñĥ
ĠÑĢÑĥ ÐºÑĥ
Ðº ÑĢÑĭ
ĠÐ²Ð· ÑıÑĤÐ¸
ÑģÑĤÑĮ ÑıÐ½
ÑģÐºÐ° Ñı
ĠÑĢÐµ Ðµ
ĠÐ²Ð¾Ñģ Ð¿
ÑģÑĤÐ² Ð¾Ð²Ð°
ĠÐ² ÐµÑĤ
ĠÐĴ Ñ£
ĠÐ¸Ð¼ Ñı
ĠÐ¼Ñĥ Ð¶Ð°
ÐµÑĢ ÐµÐ´
ĠÐ·Ð°Ð¿ Ð¾Ð²Ñ£
ĠÐ½Ð° Ð¼Ð¸
ĠÑĤÐ°Ðº Ð¾Ð²Ð¾
ĠÑĢÐ° ÑģÐ¿
ÑĢÐ¾ ÑģÑĤÑĮ
ÑĪÐµ Ð½Ð¸
ĠÐŁ ÐµÑĤ
Ð½ ÐµÐ¼
Ð¼ Ð¾Ð»
ĠÐµ Ð¼
ĠÐŀ Ñĥ
ĠÐ³ÑĢÐ°Ð¼Ð¾ÑĤ Ñĭ
ĠÑģÐ»Ñĥ Ð¶
Ð¿Ð¾Ð´ Ð¾Ð±
ĠÐ¶Ðµ Ð»Ð°
ĠÐ²Ð¾Ð· Ð¼Ð¸
ĠÑģ Ð²Ðµ
ĠÐ¸ Ð³Ñĥ
Ð» Ñĸ
Ð³ Ðµ
ĠÐ¿Ð¾Ð» Ñĥ
ĠÐ¿Ð¾Ñģ Ñĭ
ĠÑģ êĻĹ
ĠÐ±Ñĥ Ð´Ð¸
ĠÑĢÑĥÐ± Ð»ÐµÐ²
ĠÑģÐº Ð¾ÑĢÐ¾
Ð» Ð¾Ð¼
ĠÐ² Ð¾Ð¿
ĠÐ» Ð¾ÑĪÐ°
ÑīÐ° Ð³Ð¾
Ð½Ð¸ ÑĤÑĮ
ĠÑģÐ»Ñĥ Ð¶Ð¸
Ī Ļ
Ð· Ð²Ð°
Ð½Ð¾Ð¼ êĻĭ
Ð² ÑĢÑĮ
Ð½Ð¸ ÐºÑĥ
ĠÐ´Ð° Ð²Ð°ÑĤÐ¸
ĠÐ²ÑĮ ÑģÐµ
ĠÐŁ ÑĢÐµ
ĠÑģÐ¸ Ð»
ÑģÐºÐ¸ Ð¸
ĠÑģÐ»Ð° Ð²Ð°
ĠÑĤÐ°Ðº Ð¾Ð²Ð°
ĠÐ¸Ð¼ Ñ§
ĠÐ½Ð¸ Ð¼
ĠÐ¿Ð¾Ð´ Ð²Ð¸
ĠÑ Ĺ
ĠÐ½Ð° Ð¿Ð°
Ñ ©
ĠÐ± ÑĨ
ĠÐ´Ð° Ð¸
ĠÑģ ÑĢÐ°
ĠÑģ ÐµÐ»
ĠÐ²ÑģÑ§Ðº Ð¾Ð¼Ñ¹
ĠÑģÑĤ Ñ£
ĠÐĵ Ð¾Ð²
ĠÐ³ Ð¾ÑĤ
Ð¿ Ð¾Ð»
ĠÐ¥ ÑĢÐ¸
ĠÐľÐ¸ ÑħÐ°
ÑģÐº êĻĭ
ĠÐ´Ð° Ð»Ðµ
ĠÐ¸ÑģÑĤÐ¸ Ð½
ĠÐ±Ñ£ Ñģ
ÑĤ Ð²Ð¾ÑĢÐ¸
Ð¾Ð½ Ð¾Ñģ
Ñ³ Ð°
Ð´Ð¸ Ð½
ĠÑģ ÑĢÐ¾Ðº
ĠÐ¼ êĻĳ
Ð»Ñĭ Ñħ
ĠÑĩÐµ ÑģÑĤ
Ðµ ÑĪÑĮ
ĠÐĳÐ¾Ð³ ÑĬ
ĠÐ´Ð° Ð¶Ðµ
ĠÑĤÐ°Ðº Ð¾Ð¶Ðµ
ĠÐ¿ÑĢÐ¿ Ð±
ÑģÑĤÐ² Ñ¹
Ð½ ÐµÑĤÑĮ
Ð½Ð° êĻĹ
ĠÑĩÐ¸ ÑģÑĤ
Ð²Ð¾ Ñĥ
Ð± Ð»
ĠÐ²Ð¾ ÑģÑĤÐ°
ĠÐ¼ Ð¸ÑĤ
ĠÐ½Ð° ÑĪÐ°
ĠÐ¿Ð»Ð° ÑĤÐ¸ÑĤÐ¸
ĠÐ± Ñ§ÑĪÐµ
ÑģÐº Ð¾Ð¼
ĠÑģÐ² ÐµÑĤ
ĠÐ£ Ð¶
Ð° ÑħÑ«
ÑģÐ¿Ð¾Ð´Ð¸ Ð½Ðµ
ĠÐºÐ¾Ñĥ Ð½Ð¾
ĠÑĨÐµÑĤ Ð²ÐµÑĢ
ÑĩÐ° ÑĤ
ĠÐ¼ Ñģ
ÐµÐ» Ñİ
ĠÑĤÐ°Ðº Ð¾Ð²Ñĭ
Ð³ Ð´Ñĭ
Ð¾ÑĢ Ñĥ
ĠÐ½Ñĭ Ð½Ñ£
ĠÑĩ ÐµÐ¼ÑĬ
ÐºÐ¸ Ð¼
ĠÐ±Ñĭ Ð»
Ñģ Ð¾Ñĥ
ÑīÐµ ÑĪÐ¸
ĠÐ²ÑĢÐµÐ¼ Ñ§
ĠÑģ êĻĳ
êĻ ½
ĠÐ±Ð¾Ð³ ÑĬ
ĠÐ´ Ð²Ñ£
ÑģÐ¿ Ñ£
ÑĢ ÐµÐ½
ĠÐ¶Ðµ Ð½
ĠÐ´Ð° Ð½Ð¸
ĠÐ¿ÑĢÐ¸ Ð²ÐµÐ´
ĠÐºÐ¾Ð½ Ðµ
ĠÑģÐ¾Ð± ÑĢÐ°
Ð¶ Ð½Ð¾
ĠÑģ ÑĸÐµ
Ð²ÑĮ ÑĢ
Ð½Ð¸ ÑĨ
ÑģÑĤÑĥ Ð¿Ð¸
Ð³ Ð»Ð¸
ĠÐº Ð»Ðµ
ĠÐ³ ÑĢÑ§
Ð¾ÑĤ Ðµ
ÑĩÐ¸ ÑĤÐ¸
ĠÑĥ Ð±
ĠÑĨ ÑĢÑĮ
ĠÐ±êĻĭÐ´ êĻĭ
Ñī ÑĸÐ¸
ĠÐ¡ Ñĭ
ĠÐ»Ð¸ ÑĨÐ°
Ð´ Ð²Ð¸
ÑĩÐ¸ Ð½
ĠÐ´ ÐµÐ»Ð¾
ĠÐ´ ÐµÐ»
Ð² êĻĳ
ĠÑĪÐµ ÑģÑĤÑĮ
ĠÐĴ Ð¾Ð»
Ð²Ñĭ ÑħÑĬ
ĠÐ¿Ð¾Ñħ Ð²Ð°
ĠÐ¸ Ñİ
ĠÐ¸Ð· Ñ§
ÐºÑĥ Ñİ
Ð¿ êĻĭ
Ð± Ð»Ñİ
Ñĩ Ð½Ð¾
ĠÐ³Ð¾ÑĢ Ð°
ĠÐ¼Ñ£ ÑģÑĤÑ£
Ð¾Ð½ Ñ£
ĠÐ¿Ð¾Ñģ Ð»êĻĭ
Ð»Ð¾ Ñİ
ĠÐ²ÐµÐ» Ðµ
Ð½Ñĸ ÐµÐ¼ÑĬ
ĠÐ¿ Ð°ÑĢ
ĠÐ¿Ð¾ÑĤ ÑĢÐµÐ±
ÑģÐµ Ð¸
ĠÐ¸ ÑģÑĤ
ÑĪ ÐºÑĥ
Ð¾Ð´ Ñĥ
ĠÑģÑĤ ÑĢÑ£
ÐºÐ° Ð¼Ð¸
ĠÐŁ Ð¾ÑĤ
ĠÐ²Ñ£ Ð´Ð°
ĠÐĵÐ¾Ñģ Ð¿
Ð´Ðµ Ð¸
ĠÐº ÑĢÑĮ
ĠÐ²ÑģÐµ Ð°
ĠÐ´Ðµ ÑĤÐ¸
ĠÐ¼Ð°ÑĤÐµÑĢ Ð¸
ÑĩÐµ ÑģÑĤ
Ð¼ÑĮ Ð¶Ðµ
ĠÐ¼Ð° ÑĤ
ĠÐ¿ÑĢ Ð¾ÑģÐ»Ð°
ĠêĻĹ Ð¶Ðµ
Ð² Ð¸ÑĤ
ĠÑĤ Ð¾Ð¿
Ð¾Ð³ ÑĬ
Ñ¡ Ð½Ð°
âĢĿ .
Ð² Ñ¹
ĠÐ± Ð¾Ð¶Ð¸
ĠÑģ Ñĸ
ĠÐ¿ Ð»ÑĬ
Ð¿ Ð»
Ð¶ Ð´ÑĮ
ĠÑĤÑ£ Ð¼ÑĬ
Ð¿ Ð¾Ð²Ð°
Ð¾Ñģ ÑĬ
Ðµ Ð³Ð¾
ĠÐº Ð»Ð¸
ĠÐ° Ð»
Ð¾Ð´ Ñĭ
ĠÐ· ÑĬ
Ð»Ðµ Ð½Ð¸
ÐºÐ»Ð° Ð´
êĻģ Ñ£
ÑģÑĤÐ¸ ÑĤÐ¸
ĠÑģÐ» Ñ£
ĠÐ¿ Ð»Ñ£
ĠÑĢÐ° Ñģ
ĠÐº ÑĮ
ĠÐ¶Ðµ Ð½Ðµ
ĠÐ·Ð° Ð¼
ĠÑģÐ²Ð¾Ñ¥ Ð³Ð¾
Ð² Ð»ÐµÐ½
ĠÐ¶Ðµ ÑĢÐµ
ÑĢÐ¸ Ð½Ð°
ÑĢÐ¾ Ñİ
Ð· êĻĭ
ĠÐº Ð¾Ð·
ĠÐ¿ÑĢÐµ Ð¶
Ð» Ð¾Ð¶
ĠÐ´ Ñī
Ñĭ ÑģÐ»
ĠÐ´ ÐµÑĤ
ÑģÐº ÑĬ
ĠÑģÑĤÑĢÐ° ÑĪ
ĠÐ´Ð° ÑģÑĤÑĮ
ĠÐ¾ÑĤ Ðµ
ĠÐ² ÐµÐ»ÑĮ
ĠÑĨÐ° ÑĢÐ¸
Ð²Ð¾ Ð¸
ÐºÑĢÐ° Ñģ
êĻģ Ñĭ
Ð¿Ð¸ ÑģÐº
Ġ 3
Ð½ ÑĸÑİ
Ð¾Ð½ Ñĭ
ĠÐ¿ÑĢÐµ Ð±ÑĭÐ²Ð°
ÑģÐºÐ¸ Ð¼ÑĬ
ĠÐ²ÑģÑ§Ðº Ð¾Ð¼ÑĬ
ĠÐ¾Ñĥ Ð±
ĠÐ¿ ÑĤÐ¸
ĠÐ¿ Ð¸ÑĤ
ĠÐº ÑĢÑĬ
ĠÐºÑĥ Ð¿Ð¸
Ð¾Ð» Ðµ
ÑĢÐµ ÑĤÐ¸
ĠÐ¿ÑĢ Ð¾ÑģÐ¸
ĠÑĩÐµÑĤÑĭ ÑĢÐµ
Ñģ ÐµÐ½
Ð²Ñ£ ÑĤÑĬ
ĠÐ²ÑģÑ§ ÐºÐ¸
ĠÑģÐ² Ð¾Ð¹
ĠÐ°ÑĢ Ñħ
ĠÑģ ÑĥÐ´Ð°
ĠÐ½Ðµ Ð¼Ð¾
Ð»Ð° ÑĤ
ÑĪ Ñ£
ĠÐ¿Ð¾ÐºÐ»Ð°Ð½Ñ§ Ð½Ð¸Ðµ
ĠÑĤÐ¾ÑĢ Ð³
ĠÐ³Ð¾ÑģÐ¿Ð¾Ð´Ð¸ Ð½Ðµ
ĠÐµ Ð¹
Ð²Ð¸ Ð´Ð¸
Ð¼ÐµÐ½ Ðµ
Ð¸ Ð¸
ĠÐ¿ÑĢ ÑĮ
ĠÑĨ ÑĮ
Ð¼ Ñı
Ð½ÑĮ Ñİ
ĠÐ¼Ð°Ð½Ð° ÑģÑĤÑĭ
ĠÐ² Ð·Ñĭ
ĠÐº Ð¾Ñģ
ĠÑ£ ÐºÐ¾
ÑĨ ÐµÐ¼
ĠÑģÐµÑĢÐ´ ÑĨÐµ
ĠÐ²ÑģÐµ Ð³Ð´Ñĭ
ĠÐ»ÑİÐ´ ÐµÐ¼ÑĬ
ĠÐ´ ÐµÑĤÐµ
ÑģÑĤ Ð²Ðµ
ÑĹ Ñİ
Ġâ ĪĻ
Ð½ Ð¾Ð²Ð¾
ĠÐ½Ð° ÑĪÑĮ
Ð¾ÑĢ ÑĬ
Ð½Ð¸ ÑĩÐµ
ĠÑģÐ² ÐµÑĢ
ĠÑħÑĢÐ¸ ÑģÑĤÐ¸
ĠÐ¼Ð¾Ñģ ÐºÐ¾Ð²
Ð¶ Ñ§
Ð½Ð¸Ðº Ð¾Ð¼
ĠÑģÐ¾Ð³ ÑĢÑ£
ĠÐ¼ Ð»Ð°Ð´
ĠÐºÐ¾Ð½ Ñİ
ÑĪ Ð½Ð¸
ĠÐºÑĢÐµ ÑģÑĤÑĮÑıÐ½
Ð»Ðµ Ð²ÑĬ
ĠÐ½ Ñ«
ĠÐ¾ Ð²
ĠÐ¾ ÑĤÑĮ
ĠÑĤ Ð¾Ð²Ð°
Ðº Ñ«
ĠÐķ ÑĢÑĥ
ĠÐ¿Ð¾Ð¼Ðµ ÑģÑĤÑĮÑı
Ð¿ Ñ¹
Ð¶ Ñ£
Ñģ Ð¼ÑĮ
Ð³ Ñµ
ÑĤ Ñı
ĠÐ ¨
Ð»Ð° Ð³Ð°
ĠÑĤ ÑĢÑĥ
Ð¿ ÑĢÑ£
Ð¾Ð´ ÑĮ
ĠÑģÑĤÐ¾ Ñı
Ð¾Ð± Ðµ
ĠÑ į
ĠÑ¡ ÑģÑĤÐ°
ĠÐĳ Ñ£
ĠÐ´Ð°Ð² Ñĸ
ĠÐ¼Ð° Ð»
ĠÐķ ÑīÐµ
ĠÑģÐ¾Ð² ÐµÑĢ
ĠÑģ Ð¾Ñģ
ĠÐ¿ÑĢÐ¸ ÑģÐ»Ð°
Ð½ÑĮ Ñĸ
ĠÐ¸Ð· Ð±Ð°
ĠÐ»ÑİÐ´ ÑĸÐµ
ĠÐ° Ð»Ð¸
ĠÐĺ Ð»ÑĮ
ĠÐ¿Ð¾Ðº ÑĢÑĭ
ĠÐ¿ÑĢÐ¸ ÑĪÐµÐ´
ĠÑĨÐµÐ» Ð¾Ð²Ð°
ĠÐ¼ Ð½Ð¸
ĠÐ¿Ð¾Ð³ ÑĢÐµ
ĠÐºÐ½Ñ§ Ð·ÑĮ
ĠÐºÐ»Ñİ Ñĩ
ĠÐ¾ ÑģÑĤÐ°Ð²Ð¸
ĠÐ²Ð¾Ð· Ð»Ñİ
ĠÑ¿ Ð´Ð°
ĠÐ´Ð²Ð¾ÑĢ ÑĬ
ĠÐ¿ÑĢ Ð¾ÑĢ
ĠÑĤÑĭ ÑģÑı
ĠÐºÑĢÐµ ÑģÑĤ
Ð² Ð½Ð¾
ĠÐ²ÐµÐ»Ð¸ ÑĩÐµ
ĠÐµ Ð¸
Ð½Ð° Ð³Ñ¡
ĠÐ¡ ÑĤÐ°
ĠÐ»Ð¸ ÑĨÐµ
ĠÐ²ÑģÐµ Ð²Ð¾Ð»
ĠÐ±Ðµ Ð·ÑĬ
Ñī ÑĬ
ĠÐķ Ð³Ð´Ð°
ĠÑģÑĤ Ð¾Ð»ÑĮ
ĠÐ³ Ñ¹
ĠÐ¿Ð¾Ñģ ÑĬ
Ð°ÑĢ ÑĬ
ĠÑ¡Ð±Ð¸ ÑħÐ¾Ð´
ÑĤ Ð²Ð¾
Ð´ êĻĳ
ĠÐ¿ÑĢ Ð¾Ð³
ĠÐ² Ð´Ð°
Ð½ÑĮ Ñı
Ñģ Ð»ÑĮ
Ð¶ Ð´Ð¾
Ð¶Ðµ Ð½ÑĬ
ĠÐ²Ð¸ Ð½Ð¾Ð²Ð°
ÐµÑĤ ÑģÑ§
ĠÑĩÐµ Ð³Ð¾
ĠÐķÑĢÑĥ ÑģÐ»
ÑĢ Ñĸ
ÑĢ Ñ¡
ĠÑĤ Ð¾Ð¼ÑĮ
ĠÐ» Ð¸ÑĤ
ĠÑħ Ð»Ðµ
ÑĨÐµ Ñİ
ĠÑĩÐ° Ð´Ð¾
ÑĢ Ð¾ÑģÐ¸
ĠÐº Ð»Ð°Ð½Ñ§
Ð¾Ð¶ Ð´Ð°
ĠÑĤ ÐµÐ»Ðµ
ĠÑģÐ° Ð¼Ð¾
ĠÐ²Ð° Ñģ
ĠÐ»Ñ£ ÑĤÑĬ
ĠÐ´Ð¾Ð¼ êĻĭ
ĠÑĢ Ñ«
ĠÐ´Ð° ÑģÑĤÑĬ
Ð±Ð¸ ÑĤÐ¸
Ð´ÐµÑģÑ§ ÑĤÑĮ
Ð¼ Ð¶Ðµ
ĠÐĺ Ð»Ð¸
ĠÑĤ Ð¾Ð³
Ð¸ÑĤ ÐµÐ»ÑĮ
Ð¿ ÑĢÐ¸
ĠÐ¿ÑĢÑ£ Ð´Ð°
ĠÐ²ÐµÐ»Ð¸ÐºÐ° Ð³Ð¾
Ñĩ ÐºÐ°
ÑĤÐ¸ Ð½
ĠÐ³ÑĢÐ° Ð´Ñ£
Ð¸ ÑĤÑĮ
Ð¾ÑĤ Ñĥ
ĠÐ·Ð° Ðº
Ð½Ðµ Ð²
Ð²Ðµ Ð´Ðµ
ĠÑĢÐ°Ð· êĻĭ
Ð² ÐºÐ°
ĠÐ·Ð´ Ð¾ÑĢ
ĠÐ¸Ð²Ð° Ð½Ð°
ĠÐĴ ÑģÐµ
ĠÐ½Ð°Ñģ Ð»Ñ£
ĠÐ¼Ñ¡ Ñµ
Ð½Ð¸ ÐµÐ¼ÑĬ
ĠÐºÐ° Ð·Ð°
ĠÐ¿ ÑĬ
ĠÐ¶ Ð¸ÑĤÐ°
ĠÐº Ð¾Ð¼Ñ¹
Ð²ÐµÑĢ Ð¸
ĠÐµÐ´Ð¸ Ð½ÑĬ
Ñģ Ð½Ð¸
Ð½Ð¸ ÐµÐ¼
ĠÐ¿ÑĢÑĸÐ¸ Ð´Ðµ
Ð¾ÑĢ Ñ£
Ð³Ð¾ ÑĪÐ°
ĠÑħÐ¾ÑĤ Ñı
ĠÐ° Ð·
ĠÐ¿Ð¾Ð¼ Ð°
ĠÐº êĻĳ
ĠÐ¿ÑĢ Ð¸ÑĤ
ĠÐ° Ð¶Ðµ
ĠÐ²Ð¾ÑĤÑĩÐ¸ Ð½Ñĭ
ÑīÐ¸ ÑħÑĬ
ĠÐ³ÑģÐ´ ÑĢ
ĠÑģÐµÑĢÐµ Ð±ÑĢÐ°
ĠÐ¾ Ð±Ñ£
ÑģÑĤ Ñ«
ĠÑĢÑ¹Ðº Ð¾Ð´Ñ£
Ġ Â¦
ĠÂ· :
ĠÐ¸ÑģÐ¿ Ð¾Ð»
êĻ ħ
Ð¾ÑĢ Ð¾Ð´Ð¸
ÑģÐºÐ¸ Ð¹
Ð³Ñµ Ð¿
Ð»Ð¸ ÑģÑĮ
Ð²Ð° Ð³Ð¾
ĠÐĵÐ¾ÑģÐ¿Ð¾Ð´ ÑĮ
Ñĸ Ñģ
Ð¾Ð½ Ð¾
ĠÐºÐ¾ Ð¸
ĠÐ¿ÑĢÐ¾ÑĤÐ¸ Ð²Ñĥ
ĠÑħÑĢ ÑģÑĤ
ĠÐ° ÐºÑĭ
ĠÐ½Ð° ÐºÐ°Ð·
Ðµ Ð²ÑĬ
Ñģ Ð»Ð¾
Ð² ÐµÐ½
Ð½Ñ£ Ð¼ÑĬ
ĠÑģÐ¸ Ð»Ð°
ĠÑı Ð¶Ðµ
ĠÐ¾Ð± Ð°
ĠÐ¶Ð¸Ð²Ð¾ ÑĤ
ĠÑĩÐµÐ»Ð¾Ð²Ðµ Ðº
ÑĢÐ° Ð²Ð¸
Ð½ ÐµÐ¼ÑĬ
Ñī ÐµÑĤ
ĠÐ¿ÑĢÐ° Ð²Ð¸
ÐºÑĭ Ð¸
ĠÐ¿Ð¸ÑģÐ° Ð½Ð¾
ĠÐ Ħ
ĠÐ¾Ñĥ Ñĩ
ĠÐ²Ñĭ ÑĪÐµ
ĠÐ¿Ð¾Ð³ Ñĥ
ÒĨ .
ĠÐ¿ÑĢ Ð¾ÑĤ
ĠÐ·Ð° Ð²Ð¸
ĠÐ´Ð° Ð»
Ð» ÐµÑĤ
ĠÑ³ ÐµÐ´
Ð¼ ÐµÑĤ
ĠÐ½Ðµ Ð´Ð¾
ĠÐĴÐ°ÑģÐ¸ Ð»Ð¸
Ð¾Ð± ÑĢÐ°
Ð¼ êĻ¿
ĠÐ¿ Ñ§
ĠÐ¾ Ðº
ĠÐ¼ÑĮ ÑģÑĤÐ¸
-- --
ĠÐµ Ðµ
ĠÐ¿Ð¾Ð» Ð¸
ĠÐ³Ð¾Ð´ Ñĥ
ĠÑī Ðµ
ĠÐ½Ðµ Ð¿ÑĢÐ°
ÐµÐ· Ð¶Ð°
ĠÑĩÐµÐ» Ð¾Ð¼ÑĬ
Ð³ÑĢÐ° Ð´
ÑĪ Ð¾Ñĥ
ĠÐ¿Ð° ÑĤÑĢÐ¸
Ñĩ ÐµÐ½Ð¾
Ð´ÐµÑĢ Ð¶Ð°
ĠÐ½Ðµ Ð¼ÑĮ
ĠÐ²Ð° ÑĪÐ°
ĠÐ±Ñĥ Ð´Ðµ
ÑĪ Ñı
Ð´Ð¸ ÑĤÑĮ
ĠÑħ Ð¾ÑĢÐ¾
ÑģÐº ÑĸÐ¸
Ð½Ð´ ÑĢÑ£
ĠÐ¿Ð¾Ð» Ð¾Ð²
ÑīÐ¸ Ñħ
ĠÐ¡ ÑĤ
ĠÐ¿Ð¾ÑĢ Ñ§Ð´
ĠÐ¸Ð¼Ð° ÑĤÑĮ
Ð» Ð¾Ð¶Ðµ
ĠÐ´ Ð¼Ð¸ÑĤ
ĠÑ¡ Ð²
ĠÐ¿Ð¾Ð¿ Ðµ
Ð»Ð¸ ÐºÐ°
ĠÑģÑĬ Ð¼
Ġâģ ŀ
ĠÂ·: Â·
ĠÑģ Ð²Ð°
ĠÐ¿ÑĢÐ¸ ÑģÑĤÐ°Ð²
ÑĪÐ¸ Ñħ
ĠÐŁ Ð¾Ð»
ĠÑĢÐµ ÐºÑĬ
ĠÑİ ÑĢÑĮ
ĠÐŁ Ð¾Ð´
ĠÐĳ Ð¾Ð²Ð°
ĠÐ² Ð¾Ð¹
ĠÐ¿ÑĢÐ¸ Ð»Ð¾Ð¶Ð¸
ĠÐ°ÑĢ ÑħÐ¸
ÑĨ Ð¾Ð¼
ĠÐ²ÐµÐ» Ñ£
ĠÑģÑĤÐµ Ð¿Ð°
ĠÐ´ Ð½ÑĮ
ĠÐ²ÑĬ ÑģÑĤÐ°
ĠÐ¿ÑĢÑ£ Ð´ÑĬ
ĠÐ¿Ð»Ð° ÐºÐ°
ĠÐ¿ÑĢÐµ ÐºÑĢÐ°Ñģ
ĠÐ¿Ð¾Ð¶Ð° Ð»Ð¾Ð²Ð°
ĠÑĩ ÐµÐ¼
ĠÐ¿Ð¾ÐºÐ° Ð·Ð°
Ð± Ð»ÑĮ
ĠÑħ ÑĤÐ¾
Ð´ ÑĨÐ°
ĠÐ´Ð° Ð²Ð°
ĠÑĤÐ¾ Ðµ
ĠÐ²Ð¸ Ð´Ðµ
ĠÐ½Ð¾ ÑīÑĮ
Ð¸ Ð»ÑĬ
Ð½Ðµ Ñİ
ĠÐĶÐ¾Ð±ÑĢÑĭ Ð½Ñİ
ĠÑģ Ð¿Ð¸
Ñĭ Ñ§
Ð· Ð½ÑĮ
ÑĢÐµ Ð¸
ĠÑ³ ÐµÑ¡
ĠÐŁ Ð¸
ĠÐ²ÑģÐµ Ñħ
ĠÐ¿Ð¾Ð¿ Ð°
ĠÐ½Ð° Ð´Ñ£
ÑģÐº êĻĳ
ĠÐ½Ðµ Ð¶Ðµ
ÑĤ Ð²ÐµÑĢ
Ñĭ Ð¼Ð¸
ĠÐ´ ÐµÐ»Ðµ
ĠÐ± ÐµÑĢ
ĠÐ¿ÑĢÐ¸ Ð½Ðµ
ĠÐ± ÑĢÐµ
Ð¾Ð¼ Ðµ
Ð±Ð¾ Ð¸
Ð·Ð° Ð¼Ð¸
ĠÑĤÐ²Ð¾Ð¸ ÑħÑĬ
Ð» Ð¾Ð²Ð¸
Ð² Ð¾Ð»Ð¸
ĠÐ¿ÑĢÐ¸ ÑģÑĬ
ĠÑģêĻĭ ÑĤÑĮ
Ð¾Ð· Ñ£
ĠÐ³Ð¾ÑĢ Ð¾Ð´Ð°
Î ±
ĠÐ½ Ñ¹
ĠÐ¶Ðµ Ð»Ñ£
ĠÐĳ Ð»Ð°
ĠÑģÐµ ÑģÑĤ
ĠÐµ ÑģÑĤÑĬ
ĠÐ³Ð¾ÑĢ Ñ£
ĠÐ´Ð²Ð¾ÑĢ Ð°
ĠÐ²Ð¾Ð´ Ñĭ
Ñī Ñ¹
ĠÑģÑĬ Ñģ
ĠÐ±ÑĢÐ° ÑĤÐµ
ĠÑģÐ¾Ð· Ð´Ð°
Ðº Ð¾Ð¼Ñĥ
ĠÑĤÐ° ÐºÐ¸Ñħ
ĠÐ²ÐµÐ»Ð¸Ðº Ð¾Ð¼Ñĥ
ÑĤ êĻĳ
Ð´ ÑĢÑĬ
êĻ ¯
ĠÐ½Ð° Ð¿ÑĢÐ°
ĠÑ¡Ð± ÑĢÑ£
ĠÐµÐ»Ð¸ ÐºÐ¾
ĠÐ²Ð¾ÐµÐ² Ð¾Ð´Ð°
ĠÐł Ñĥ
ĠÑĢÑĥÐ± Ð»ÑĮ
Ñ§ Ð½Ð¸
ÑĪ ÐµÑĤ
Ð¾Ð½ ÑĩÐ°
ĠÑģÑĬ Ð³ÑĢÑ£
ÑĢÑ£ Ð±
ĠÐļ Ð¾
ÑģÑĤÐ² ÐµÐ½
ĠÐ¾ ÐºÐ¾Ð»
ÐµÐ½ÑĮ Ðµ
ĠÐºÐ¾ÑĤÐ¾ÑĢ ÑĭÑħ
ĠÐ½êĻĳ Ð½Ðµ
ĠÐ¿ÑĢÐ¸ ÑģÑĤÐ°
ÑĢÐµ Ð²Ð¸
ÑĪÐ¸ ÑĤÐ¸
ĠÐ¼Ð½ Ð¾Ð¶Ðµ
ĠÐ¼Ñĥ Ð¶Ð¸
ĠÐ¿Ð¾Ð¸ Ð¼Ð°
ĠÑ ĭ
Ñ¡ Ð½ÑĬ
ĠÐ¾Ñĥ ÑģÑĤÑĢÐ¾
Ð½ Ð¾Ð²Ð¸
Ñģ Ð¾Ð¼ÑĬ
ĠÐ´ÐµÑĢÐ¶Ð° ÑĤÐ¸
Ð²Ñĭ Ñħ
ĠÐ³Ð¾ ÑģÑĤÑĮ
ĠÐ¾ ÑģÑĤÐ°Ð²
ĠÐ³ Ðµ
ĠÐ¿ÑĢÐ¸ Ñģ
ÑĪÐ° ÑģÑı
ĠÑĤÐ° ÑĤÐ°ÑĢ
ĠÐ³ÑģÐ´ ÑĢÑĮ
ĠÐºÐ¾ÑĢÐ¾Ð» ÐµÐ²
Ð´Ñ£ ÑĤÐ¸
ĠÐĴÐ»Ð°Ð´Ð¸ Ð¼Ð¸ÑĢ
ĠÐ²Ñģ Ñĳ
ĠÑģÐ¸ Ð´
ĠÑĩÐµ ÑģÑĤÑĮ
ĠÐ» Ð¾Ñģ
ĠÐ¿Ð¾Ð¼ ÑĭÑĪ
ĠÑĢÑ£ Ð·Ð°
ÑģÑĤ Ñı
ĠÐ¸ Ð´
ĠÑ¡ Ð½ÑĬ
ÑĤÐ¾ Ðµ
ĠÐºÐ¾ÑĢ Ð¾Ð±ÑĮ
ĠÐ´Ð¾Ð½ Ð´ÐµÐ¶Ðµ
ĠÐ½Ðµ Ð¹
ÐµÐ» ÐµÐ½
ĠêĻģ ÑĬ
ÑģÑĤÐµ Ð¹
ĠÐºÐ½Ð¸ Ð³Ð°
ĠÐ° ÑĪÑĤÐµ
ĠÐ· Ð¸
ĠÐĳÐ¾Ð³ Ñĥ
ĠÐ¼ ÑĥÐ´
ÑĢ Ð¾Ð²Ð¸
ĠÐ¿ Ð»Ðµ
ĠÑĤÐ°Ðº Ñ¡
ĠÑĩÑİÐ´ Ð¾ÑĤÐ²Ð¾ÑĢ
ĠÐ½Ð° Ð¿Ð¸
ĠÐ±ÑĢÐ° ÑĪ
ĠÑ º
ĠÐ´ Ð¾Ðº
Ð³Ð¾ Ñĥ
ĠÑĪ ÐµÐ»
ÐºÐ¸ Ñı
ĠÐ¼Ð¾Ð³ Ñĥ
ĠÐ¿ Ñ¡
ĠÐ½Ñ£ Ðº
ĠÐºÐ¾ÑĤÐ¾ÑĢ Ð¾Ð¹
ĠÐ¿Ð»Ð° ÑĤÐ¸
ĠÐ»Ðµ Ð¶Ð°
ĠÑģ ÑĢÐµÐ±
ĠÐ±ÑĢÐ° ÑĤÑĬ
ĠÑģÐ²Ñ£ ÑĤÑĬ
ĠÐľ Ñĥ
ÑģÑĤ êĻĳ
Ð± ÑĸÐµ
ĠÐĳ Ð»
ĠÑĨÐµÑĢ ÐºÐ²Ð¸
ĠÐ¿ÑĢÐ¸ ÑħÐ¾Ð´Ð¸
ĠÐ±Ñ£ ÑĪÐµ
Ð± Ð»Ñ§
ĠÐ¾ ÑĨ
Ð½Ð¸ ÑħÑĬ
ĠÑĪ ÑĮ
Î ¿
Ð½Ð¸ Ð¼Ð°
Ð»Ð¸ Ð½
ĠÐ¿Ð¾Ðº Ð»Ð°
ÑģÐ¿ Ð¾Ð´
ĠÐ´Ðµ Ñģ
ĠÐ¿ÑĢÐ° Ð·
ĠÐ¿Ð°Ðº êĻĳ
ÑĹ ÐµÐ¼ÑĬ
Ð» ÐµÐ¼
ÑĤ ÐºÐ°
Ð»Ð¸ Ð²Ð°
ĠÐ¿ÑĢÐ¸ ÐºÐ°Ð·Ð°
ÑĩÐ¸ Ñħ
ĠÐ¿Ð¸ ÑĢ
ĠÐ¾Ð± Ð»Ð°
ĠÑģÐ¸ Ð»Ñĭ
ĠÐ¢ Ð¾Ð³Ð´Ð°
Ð½Ð¸Ðº Ð¾Ð¼ÑĬ
ÑĤ êĻĭ
ĠÑģ ÑĢÑ£
Ð±Ð¸ ÑĪÐ°
ĠÐ²ÐµÐ» ÐµÑĤÑĮ
ĠÐ´ÑĢÑĥ Ð³Ð°
ĠÐ»ÑİÐ± Ð¾Ð²ÑĮ
Ð· Ñ¹
Ñ§ Ð»ÑĬ
ĠÑĩ ÑĢÐµ
ĠÑĪ ÐµÐ´
ÑģÑĤÑĭ Ð½Ð¸
ĠÐ¿ÐµÑĤ ÑĢÐ°
Ð» ÐºÐ°
ĠÐ¶Ðµ Ð½Ñ£
ĠÐ²ÑĬ ÑģÐµ
Ð»ÐµÐ½ ÑĸÐµ
ĠÐºÐ¾ÑĢ Ð¼Ð¸
ĠÑģ Ð¼Ð¸
Ñ§ ÑīÐ°
ÑĤÐ¸ Ð½Ñĥ
Ñī ÐµÑĤÑģÑı
Ð»Ðµ Ð¸
ĠÐ¼Ðµ ÑģÑĤÐ¾
ĠÑĢÐ° Ð±ÑĬ
ĠÐ¼Ð° ÑĤÐ¸
ĠÐĺ Ð²Ð°Ð½
ĠÐ²ÑģÑ£ Ñħ
ĠÑģÑĭÐ½ Ñ¡Ð²ÑĬ
Ð¼ Ñ«
ĠÐ» ÐµÑĤ
ĠÐ´ÐµÐ½ Ð³Ð¸
ÑĤ ÑĢÐ¾
ĠÐ· Ð²Ñ£
ĠÐ¸Ð¼Ñ£ ÑĤÐ¸
ĠÐº ÑĢÑĭ
ĠÐŁ ÑĢÑ£
ĠÑģ â±ķ
ĠÐ¾ ÑĢ
ĠÑĤÐ¸ Ð¼Ð¾
Ðµ Ð»Ð°
Ð³ Ð»
ĠÑħ Ñ¹
ĠÐ²Ðµ ÑģÐµÐ»Ð¸
Ð¹ ÑĤÐµ
ÑĤÐ° Ð³Ð¾
ĠÐŀ Ð½Ð°
ĠÐ¼Ñĥ ÑĢ
ĠÐ¸ ÑģÐºÑĥ
ĠÐ» êĻĭ
Ð¿Ð¸ ÑĤÐ¸
Ñģ Ð»ÑĬ
ĠÐ² ÑĤÐ¾ÑĢ
Ð´Ðµ ÑģÑı
ĠÑģÐ¸ Ð¼ÑĬ
ĠÐ²Ð¸ Ð´
ĠÑĩÐ° Ð´Ð°
Ð¾Ð» Ð¾
ĠÐ²Ñĭ ÑĪ
ĠÑĢ Ð¾Ð¶
ĠÐ¿Ð¾Ñģ Ð»Ñ¹
ĠÐ½Ðµ Ð±
ĠÐ¼Ðµ Ð¶
ÑĤ ÑĢÑĮ
ĠÐ² Ñĸ
ĠÑ¿ Ð²Ñ£ÑīÐ°
ĠÐ¾Ð± ÑĬ
ĠÐ¿Ð°ÑĤÑĢÐ¸ Ð°ÑĢ
Ð² ÑĪÐ°
ĠÐ² Ð¼Ðµ
ĠÐ° Ð²
ĠÐ° Ð¿Ð¾
ĠÐºÐ° Ð¼ÐµÐ½ÑĮ
ĠÑģÐ²Ð¾Ðµ Ð³Ñ¡
ĠÐ° Ð¼Ð¸
ÐµÐ¼ Ðµ
ĠÐ» ÑĬ
Ñ¥ Ð¼ÑĬ
ĠÐ·ÐµÐ¼ Ð»Ðµ
ĠÑģÐ²Ð¾Ð± Ð¾Ð´
ĠÑģ Ð½Ñ£
ĠÐ± Ñ§
Ñİ ÑĢ
ĠÑ¡ Ð´
ĠÑģÐ¸ Ð»Ð¾Ñİ
ĠÑĤÐ¾Ð²Ð°ÑĢ Ñĭ
Ñ£ ÑħÐ°
ĠÐ¼ ÑĨ
ÑĤÑĮ Ñ§
ĠÐºÑĢ Ð¾Ð¼Ñ£
ÑĢ Ð¾Ñģ
ĠÑĤ Ð²
Ð»Ðµ Ð½Ð¸Ðµ
ÑģÐº Ð¾Ð¼ÑĬ
ÑİÑĤ ÑģÑı
¾ ¿
á ¾¿
ĠÑ§ Ð·Ð¾
ĠÐ»ÑİÐ´Ðµ Ñħ
Ð¸ Ð»Ð°
ĠÐµ Ð¿
Ð¾Ð¶ Ð½Ð¾
ÐµÑħÐ° Ð»Ð¸
Ð½Ð¸ Ñĩ
ĠÐ²Ñ£ ÑĢÑĥ
ÑģÐºÐ¸ Ñı
ĠÐ²Ð»Ð° Ð´Ñĭ
ĠÑģ Ð¿ÑĢÐ°
ĠÐ¿ÑĢÐ¸ Ð½ÐµÑģ
ĠÐ° ÐºÐ¸
ĠÐ¿Ð¾Ñģ Ñ£
ĠÑĶ Ð³Ð¾
ĠÐº Ð¾Ð¶
ĠÑĤÐ²Ð¾ Ñı
ĠÑĢÑĥ ÑģÐ¸Ð¸
ĠÐºÑĢÐµ Ð¿Ð¾
Ð¾Ð» Ð°
ÑĢÐ¸ Ð¸
ÑģÑĤÐ² Ð¾Ð¼
ĠÑĢÑ£ ÑĪÐ°
ÑĢÐ° Ð³
Ñī ÐµÐ½ÑĸÐµ
ĠÐ Ĩ
Ð¾Ð» ÑĬ
Ð¾Ð» ÐºÐ¾
ĠÐ±Ð»Ð° Ð¶Ðµ
ĠÑģÐµÑĢÐµ Ð±
ĠÑĤÐ¾Ðº Ð¼Ð¾
ĠÐ½ Ñĥ
ĠÐ° Ð´Ð°
ÑģÐ» Ñĥ
ĠÐ¼Ñĥ Ð¶Ðµ
ĠÑģ ÐµÐ»Ð¾
ĠÐĿ Ñ£
ĠÐ¼Ð½ Ð¾Ð·Ð¸
ĠÑ¡ Ð½Ð¸
ĠÐ²Ð¸ Ð½Ð°
ĠÐ¾ ÑĤÐ¾
ĠÐ³Ð¾ÑģÐ¿Ð¾Ð´ ÑĮ
ĠÐ·Ð´ ÑĢÐ°Ð²
ĠÐ¸Ð³Ñĥ Ð¼ÐµÐ½
ĠÑģ Ð¾Ð»Ð¸
ĠÐº Ð¾Ð¼
ÑĥÐ´ ÑĮ
ĠÐ¿Ð° ÐºÐ¾
ĠÐ³ÑĢÑ£ ÑħÑĬ
ÑĩÐ¸ Ð½Ð°
ÑīÐ¸ Ð¼ÑĬ
ĠÐ´Ðµ ÑģÑı
Ð½Ð¸Ðº Ð¾Ð²ÑĬ
ĠÐ½Ð° Ð´Ðµ
ĠÐ¢ ÑĥÑĤ
ĠÑİ Ð½Ð¾
ĠÐµÑģ Ð¼Ð¸
ĠÐ¿Ð¾Ð»Ð¾ ÑĨ
ĠÐº Ñ«
ĠÐ¸Ð· Ñĭ
Ð¶Ð¸ ÑĤÑĮ
ÑĨ Ð¾
Ñĭ ÑħÑĬ
ĠÐ¾ Ð»
ĠÑħÑĢÐ° Ð±
ĠÐ½Ð¸Ñĩ ÑĤÐ¾Ð¶Ðµ
Ð» ÑĶ
Ð´ ÐµÐ½
ÑģÑĤ Ð¾Ðº
ĠÐ±ÑĢÐ° Ð½ÑĮ
Ð¸ÑĤ Ð¾
Ð°Ðº Ñ¡
ÑģÐº Ðµ
ĠÑģÐ» Ñĭ
ĠÐ³ÑĢ Ð¾Ð±
Ġ 2
Ð½ ÑĤÐ¸
ĠÐ² Ð¼Ñ£
Ð¿Ð° ÑĤÐ¸
Ð³Ð¾ÑĢ ÑĮ
Ð½ Ð¾Ð²Ðµ
ĠÑĤÐ¾Ð± Ðµ
ĠÑ¡ Ð±Ñĭ
ĠÑĤÐ²Ð¾ Ñ¥
ĠÐ¿Ð¾ÑĤ Ð¾Ð¼Ñĥ
Ð½Ð¸ ÑĤÐµ
ĠÑģÑĤ Ð²Ð¾ÑĢ
ÑīÐµ Ð¸
ĠÐ²Ð° ÑĪ
ĠÐ´Ð¾Ð±ÑĢ Ð¾Ð´Ñ£
ĠÐ²ÐµÐ»Ð¸ÐºÐ¸ Ð¹
ĠÐ²ÑĭÑģ Ð¾Ðº
ĠÐ³Ð¾ÑģÑĥÐ´Ð°ÑĢÐµ Ð²Ñĥ
ĠÐ»Ñĥ ÐºÐ°
ĠÑħÐ»Ñ£ Ð±
Ñħ Ñ¡
ĠÐ¼Ñ¹Ð¶ Ñ¹
ĠÐµ ÑģÑĤÐ²Ð°
Ð´Ñ£ ÑĤÐµ
ĠÐ½Ð° Ð¸
ÑģÑĤÐ²Ð¾ Ñĥ
ĠÐ²ÐµÐ»Ð¸ ÐºÑĬ
ĠÐ¿ÑĢ Ð¾Ð²
ÑĤÑĮ Ñı
ĠÐµÐ´Ð¸ Ð½Ð¾
ĠÐ¿ÑĢÐ¸ ÑģÐ½Ð¾
ÑĩÐµ Ð³Ð¾
ĠÐ¡ Ð»Ñĭ
ÑģÑĤÐ² Ð¾Ð¼ÑĬ
ĠÑĩÐµÐ»Ð¾Ð±Ð¸ÑĤ ÑĩÐ¸
Ñħ Ñĸ
ĠÐ· Ð»
ÑĪÐµ Ðµ
ĠÑĩÐµÐ» Ð¾Ð±Ð¸
Ð»ÐµÐ½ ÑĬ
ĠÐ²ÑĬ Ð·ÑĮ
Ð»Ðµ Ñ¯
ĠÐ²Ñ£ ÐºÐ°
Ð³Ð° ÑĢÐ¸
ĠÐ½Ð¸Ðº Ð¾Ð¼Ñĥ
ĠÐµ Ð³Ñ¡
ĠÐ´Ð¾Ð¼ Ð¾
ĠÐ²ÑģÑı ÐºÐ¸Ñħ
ĠÑĤ ÑĢÐµÐ±
Ð¶Ðµ Ð¸
ĠÐŁ ÑĢÐ¾
ĠÐĵ Ð»Ð°
ĠÐ³Ð¾ÑĢÐ¾Ð´ ÑĬ
ĠÐ³Ð¾ ÑģÑĤÐ¸
ĠÐ½Ð°ÑĪ ÑĬ
Ñĭ Ñı
ĠÐºÐ¾ Ðµ
ĠÐ¿ÑĢÐµ Ð¶Ð´Ðµ
Ð·Ñĭ Ð²Ð°ÑĤÐ¸
Ð¼ Ñĸ
ĠÐ½Ðµ ÑĢÐ°
Ð¾Ñĥ Ð¼Ñ£
ÑģÐ¸ ÑĤÐ¸
ĠÐ¿ Ð¾Ð¶Ð¸
ĠÐº Ñ¡
ĠÐ¶Ð¸Ð²Ð¾ ÑĤÐ°
ĠÑĢÐ° Ð±Ð°
ÑĢÐ° Ð²Ð¸ÑĤÐ¸
ĠÐ´Ð° Ð½ÑĮ
ĠÐ¿ÑĢÐ¸ ÐµÐ¼
Ñ« Ñī
ĠÑģ ÑĸÐ°
Ñĩ Ñĥ
ĠÑģÐ¸ Ñı
ĠÐ´ÐµÑĤÐµ Ð¹
ĠÐ¸ Ð½Ð¾Ð³Ð¾
ĠÐ³Ñİ ÑĢ
ĠÐ¿ ÑģÐº
ĠÐ¼Ð° ÑĤÑĥ
Ð½êĻĭ Ñİ
ĠÐ³ÑģÐ´ ÑĢÑİ
ĠÐ²ÑģÑ£ Ð¼Ð¸
Ð´ ÐµÐ¼ÑĬ
ÑĪ ÐµÐ½ÑĸÐµ
ĠÐ²Ðµ Ð´Ð°
Ð¼ÑĮ ÑĢ
ÑīÐ° ÑĤÐ¸
ĠÐ¿Ð¾Ð² Ð°ÑĢ
Ð´ ÑĥÑĤ
Ñħ Ð¾Ñĥ
ÑĢÐ¸ ÑĤÑĮ
ĠÐ¼Ð¸ ÑĢÐ°
ĠÑģÐº Ð¾Ð½ÑĩÐ°
Ð½ ÑĨÐµ
Ð¼ êĻĳ
Ð± Ð¾Ð¹
Ð¸ÑĤ ÑģÑı
ÑĩÐµ Ð¹
ĠÐ²Ð° Ð¼
ĠÐ±Ð¾Ð» Ð³Ð°ÑĢ
Ðµ Ð´Ð¸
ÑģÑĤ ÑĸÑİ
ĠÐ¿ÑĢ ÑĢ
ĠÐ²ÐµÐ»Ð¸ÐºÐ¸ Ð¸
ĠÑģÐ¸ Ðµ
ĠÐ¼Ñ¹ Ð¶ÑĮ
ĠÐ¯ ÐºÐ¾
ÑĤÐ¸ Ð½Ðµ
ĠÐ¿Ð¾ÑģÑĭ Ð»Ð°
ĠÐ¿Ð¾ÑģÐ»êĻĭ ÑĪÐ°
ĠÐ½Ð¾ ÑīÐ¸
ĠÑĩÐ» Ð²
ĠÐ½Ðµ Ð¼êĻĭ
Ð½Ð¸ Ð°
ĠÐ´Ñĥ ÑħÐ¾Ð²
ĠÐ»ÑİÐ´ Ð¼Ð¸
ĠÐ²ÐµÐ»Ðµ ÑĤÐ¸
ĠÐ¿Ð¾ÑĢ Ñ¹
ÑĤ Ñ¹
ĠÐ¿Ð¾ ÑĩÐ°
ĠÑħ ÑĬ
ĠÑĤÑĢÐµ ÑĤÐ¸
ĠÐ²ÑģÑ§ÐºÐ° Ñ§
ĠÑģ Ð¾Ð½
Ð³ Ð¾Ð²Ð°
Ð²Ð° Ñı
ĠÐ¼Ðµ Ñĩ
Ð²ÑĢÐ° Ð°
ĠÐ³ÑĢÐ¸Ð²ÑĮ Ð½ÑĬ
ĠÐ³Ð¾Ð²Ð¾ÑĢÐ¸ ÑĤÑĮ
ĠÐ½Ðµ Ñģ
ĠÑ¥Ñģ Ð¼ÑĮ
ĠÐ±Ð¾Ð» Ðµ
ĠÐ¿ÐµÑĩÐ° Ð»Ð¸
ÑĢÐ¸ Ð½Ñĥ
ÑĨÑ£ ÑħÑĬ
ÑģÑĤÑĮ Ðµ
ĠÐº Ð»Ñ§
Ð½Ñ£ ÑħÑĬ
Ð½ÑĮ Ð¸
Òĩ .
ĠÑĤÐ° Ð¼
ĠÑĤÑĢ êĻĭ
ĠÐ²ÑģÑ§Ðº Ð¾Ð³Ð¾
ĠÐºÑĢÑ£ Ð¿Ð¾
Ġ êĻĳ
ÑĢ êĻĳ
ĠÐ½Ð° Ð¾Ñĥ
ÑģÑĤÐ¸ ÑĤÑĮ
ĠÐĶ ÑĢÑĥ
ĠÐ¿ÐµÑĢ Ð²
ĠÐ±ÑĢÐ°ÑĤ Ñĥ
ĠÐ¡Ðµ Ð³Ð¾
Ðº Ð¾Ð²Ðµ
Ð³ Ð½Ñ£
ĠÐ±Ñĭ ÑĤÑĮ
ĠÑĨÐ°ÑĢ Ñ§
ĠÑģÐ¼ÐµÑĢ ÑĤ
ĠÐº ÑĢÑĥ
ĠÑ¡ Ð½
ĠÐ¿Ð¾Ñģ ÑĢÐµ
ĠÐ³ÑĢÐ¸Ð² Ð½Ð°
ĠÐ²Ð¸Ð´Ñ£ ÑĤÐ¸
ÑĮ Ðµ
ĠÐ¶Ð¸Ð²Ð¾ ÑĤÑĬ
ĠÐ² Ñ§
ÑģÑĤ Ð¾Ð²
ÑģÑĤ Ð½Ð¾
Ñħ Ñĭ
ĠÐ¼ Ð»Ð°
Ð½Ð¸ Ñħ
ĠÐ±Ð»Ð° Ð³Ð¾ÑģÐ»Ð¾Ð²
ĠÐ³ÑĢÐ°Ð¼Ð¾ÑĤ Ðµ
ÑĦÐ° Ð½Ð°
ĠÐ¿Ð¾ÑģÐ»Ñĥ ÑĪÐ°
ĠÐ¾ Ð±Ðµ
Ð²Ð° Ð¸
ĠÐ²Ð¾Ð» Ñİ
ĠÐ½Ð° Ð¼Ðµ
ĠÑı ÑĢÐ¾ÑģÐ»Ð°
ĠÑĤÐµ Ð¿
ĠÐ±Ð° ÑĤ
ĠÐ´ Ð²Ðµ
Ð¿Ð¸ÑģÐº Ð¾Ð¿
ĠÐ½ Ð¾Ð²ÑĬ
ÑĪ Ð¾
ĠÐ²Ñ£ ÐºÑĬ
ĠÐ´Ð° Ð´Ðµ
ĠÑ ¤
ĠÑĥ Ð·
ĠÐ´Ð¾Ð±ÑĢÑĭ Ñħ
ĠÐ¼Ð¸ÑĤ ÑĢÐ¾Ð¿Ð¾Ð»
ĠÑĤ Ð²ÐµÑĢ
ĠÐ¶Ðµ Ð½Ñĥ
ĠÐºÐ° ÑĢÐ°
ĠÑĢÑĥ ÑģÑĮ
ĠÑĨÐ°ÑĢ ÑģÑĤÐ²Ð¾
ĠÑĤÑ£ Ð»Ðµ
ĠÐ» Ñ§
ĠÐ²ÑĬ ÑģÐ°
ĠÐ¢ ÑĬ
ÑĦ Ðµ
ÑĢÐ°Ð³ Ð¼ÐµÐ½
Ð³ êĻĳ
ĠÐ¼Ð° Ð»Ñĭ
ĠÑ¡ Ð¿
ĠÐ¿Ð¾Ð¼ Ñĭ
ĠÐ´ÑĮ ÑģÑ§
ĠÐºÐ¾Ñĥ Ð½ÑĬ
Ð± êĻĭ
ĠÐµ ÑħÐ°
ĠÑģÐ²Ñ£ ÑĤÐ°
ĠÐ¿Ð¾ÑģÐ»Ñ£ Ð´
Ð³ Ð½ÑĮ
ĠÐ± Ð»ÑĬ
ĠÐ¿Ð¾ÑģÐ° Ð´Ð¸
Ð³Ð¾ ÑĤ
ĠÐĲ Ð·
ÑĤÐ° Ð¸
ÑĢÑı Ð¼Ð°
Ð½ ÑĹÐµ
ĠÐ½Ðµ ÑĩÐ¸
ĠÑģÐ¾ ÑħÑĢÐ°
ĠÐ»Ð° Ð²
Ð²Ð° Ð½Ð°
ĠÑĤÑ£ Ñħ
ĠÐºÐ¾Ð» Ñ£
ĠÑģÐ²Ð¾Ñ¥ Ð¼Ñĥ
ĠÑģÑĤÐ°ÑĢ Ñ£Ð¸
ĠÐ³Ð¾ÑĢÐ¾Ð´ ÐµÑħ
ĠÐ²Ð¾Ð»Ð¾Ð´Ð¸Ð¼ÐµÑĢ ÑĬ
ĠÑģ Ð¼Ðµ
Ñħ Ð¾ÑĤÑ£
ĠÐ±Ð»Ð° Ð³Ð¾ÑģÐ»
ĠÐĽ Ð¸
ĠÐ± Ð¾Ð¶Ðµ
ÑĪ ÑĸÐ¸
ĠÐ³ ÑĢÑĬ
Ñ« ÑīÐµ
ÑĤÐµ Ð¹
ĠÑģÐ»Ð° Ð²Ñĭ
ĠÐ¼Ñĥ Ð¶ÑĮ
Ð½ ÐµÐ½
ĠÑ¡ Ð»
ĠÐ´Ð¾Ð¿ ÑĢÑıÐ¼Ð°
Ð´ Ð¾Ð¼Ð¾
ÑĨ Ð¾Ð²ÑĬ
Ð´Ñ£ Ð¶Ðµ
ĠÑĤÐ²Ð¾ÑĢ Ñ§
Ð¸ ÑĨÐ°
ĠÐ¸ ÑĤÐ¸
ĠÐ¾ ÑĤÐ¸
Ð°ÑĢ Ñ£
ÑģÐºÐ¾ Ñĥ
ĠÑĤÐ²Ð¾Ð¸ Ð¼ÑĬ
ĠÐ¼êĻĭ Ð¶
È ¥
ĠÐ± Ð³Ð°
ĠÐ³ Ð»Ðµ
ÐºÐ° Ñħ
ÑĢÐ¸ Ð»Ð°
Ð¼Ð° ÑĤÐ¸
ĠÐ¼Ñĥ Ð¶
ÑĤ Ð¾Ð¼
Ñ« ÑĤÑĬ
ĠÐ³Ð¾Ð» Ð¾Ð²Ñĥ
ĠÐºÑ¹ Ð¿
ĠÑ¡ Ð±Ñ£
ĠÑĢÐ° ÑĤÑĮ
Ð¸ÑĤÐµ Ð»Ð¸
ĠÐ»ÑİÐ´ÑĮ Ð¼Ð¸
Ð´ Ð¾Ð¼ÑĬ
ĠÐ½Ð° ÑģÐ¸
ÑģÐºÐ¸ Ð¼Ð¸
ĠÐ¼Ð¾Ðµ Ð¸
ĠÑ ¸
Ð´Ð¸ Ð½Ð°
ĠÐľ Ñĭ
Ð¸ Ð¼Ð¸
Ð²Ðµ Ð»Ð¸
ĠÑĥ ÐºÑĢÐ°
ÑĢÐ¾ Ñĩ
ĠÐ¿ÐµÑĤ ÑĢÑĬ
ĠÐ²Ñģ êĻĹ
ĠÑģÑĭ ÑīÐµÑĤÑģÑı
ĠÐ¿Ñĥ ÑģÑĤÐ¾
Ñİ Ð±
ĠÐµ Ð³Ð¾Ð¶Ðµ
Ð²Ð° Ð»ÑĬ
ĠÐĲ Ð¹
Ð¾Ð²Ñĭ Ð¼
ĠÑģÐ°Ð¼ Ð¾Ð³Ð¾
ĠêĻĸ ÐºÐ¾Ð¶Ðµ
Ð³Ð¾Ð´ Ð°ÑĢ
Ð³Ð¾Ð² Ð¾ÑĢ
ĠÐĺ Ð¶Ðµ
ĠÐĴ ÐµÐ»Ð¸
ĠÐ²ÑģÑ§Ðº ÑĸÐµ
ĠÐ½Ð¾Ð²Ð³Ð¾ÑĢÐ¾Ð´ ÑĮ
Ð² Ñĸ
Ñİ ÑĩÐ¸
ĠÐ¾ Ð¿Ð°
ĠÐ¶ ÑĬ
Ð²Ñ£ Ð´Ñ£
ĠÐ²Ð° Ð¼Ð¸
ĠÐ± Ð¾Ð¶ÑĮ
ĠÐ¿ÑĢÐ¸ Ñı
ĠÑħ Ð¸ÑĤ
ĠÑģÐ¸ ÑĢ
ĠÐ½Ð° ÑĢÐ¸ÑĨÐ°
Ð»ÐµÐ½ Ð°
ĠÐ½êĻĳ Ð½Ñ£
Ð² Ñ«
ĠÑģÑĭ ÑģÐºÑĥ
ĠÐ´ Ð²ÑĮ
Ð½Ð¸ Ð½
Ð²Ð° ÑĤ
ĠÐ¿Ð° Ðµ
ĠÐ½Ð°ÑĪÐ¸ ÑħÑĬ
Ð½ ÐµÑĤÑĬ
Ð½ Ñĳ
Ñĭ Ð¹
ĠÐ¼Ð° Ð»Ð°
ĠÐĳ Ñĭ
Ð½Ñı Ð·ÑĮ
Ð¸ Ð½Ð°
ÐºÐ¸ ÑĤÐ¸
ĠÑĢÐ°Ð´Ð¾ ÑģÑĤÑĮ
ĠÐ³ Ð»Ñ§
ĠÐ¼ Ð½Ð¾
ĠÐºÐ° Ð´
ĠÐ³Ð¾ÑĢ Ðµ
ĠÑģÐ¾ÑĤÐ²Ð¾ÑĢÐ¸ ÑĤÐ¸
ĠÐ¿ Ð»ÑĮ
ĠÐ´ Ð²Ð¸
ÑģÑĤÐ¸ Ð½
Ð´Ð¾ Ñİ
ĠÑ¹ Ð¼
ĠÑģÑ£ Ð´Ñ§
Ð´ ÑĢ
ĠÐ´ Ð²Ñĥ
ĠÑĤÑĢ Ñ¹
ĠÐ¿ÑĢÐ¾Ð¼ Ðµ
ĠÐ² Ð¾Ð»Ð¸
ĠÐ¿ÑĢ Ð¾Ð·
ÑĤÐ¸ ÑģÑ§
ĠÑ¿ Ð½Ñİ
ĠÐ±Ñ£ Ð»
ĠÑĦÐµÐ´ Ð¾ÑĢ
ĠÑĤ Ð¾Ð²Ð¾
ÑĩÐ° Ð»
ÑģÐ¿Ð¾Ð´Ð¸ Ð½Ñĥ
ĠÐ½Ð¸ Ð¼ÑĮ
ĠÐ¿Ð¾ÐºÐ»Ð¾Ð½ Ð¸
Ð± Ñ¹
ĠÑģÐ» êĻĳ
ĠÐ¼Ð¸ Ð¼Ð¾
ĠÐ²Ñ£ ÑĢÐ¾Ñİ
ĠÐ²Ð¾Ð· ÑĢÐ°
ĠÐ²ÑģÑ§Ðº ÑĹÐµ
ĠÐĽÐ° Ð·Ð°
ĠÐ³ ÑĬ
ĠÐµ ÑģÑĮ
Ð²Ð¸ Ð´Ñ£
ĠÐĶ Ñĥ
ĠÐ³Ð¾ÑĢ Ñĭ
ĠÑĩÐ° ÑģÑĤÑĮ
ĠÑĤÐ²Ð¾Ðµ Ð¸
ĠÐ´ÑĢÐµ Ð²
Ñī ÐµÐ¼ÑĬ
ĠÑĢÑĥ Ñģ
ĠÐ·Ð¾Ð» Ð¾ÑĤ
ÑĤ Ð½Ð¾
ĠÐ¿Ð¾Ð» Ð¾Ñĥ
Ġ 4
ÑĢ ÐºÐ¾Ð²ÑĮ
Ð²Ð° ÐµÑĤ
ĠÑģÐ»Ñ¹ Ð¶
ĠÐ½Ð° Ñĥ
ĠÑģÐµ Ð±Ñ§
ĠÐ½Ð°ÑĩÐ° ÑĪÐ°
ĠÐºÐ°Ð· Ð°Ðº
Ð½ ÐºÐ°
ĠÐ½ Ð¾Ð³Ð¸
ĠÑģ ÑĤÐ¸
ĠÐºÐ¾ÑĢ Ð¾Ð»ÑĮ
ĠÐ²Ð¾ÑĤÑĩÐ¸ Ð½Ð°
ĠÐ½Ðµ Ð¿ÑĢÐ°Ð²
ĠÑģÐ»ÑĭÑĪÐ° Ð²ÑĬ
ĠÑĨ Ð¸
ĠÐ¿ÑĢÐ¾ Ñĩ
ÑĤ ÑģÑı
ĠÑģÐ»Ðµ Ð·Ð°Ð¼Ð¸
ĠÐ¿ÑĢ Ñ§
ĠÐ¶Ðµ Ð½Ñ¹
Ġ â¸±
ĠÑĤÐ° Ð¼Ñ¡
ĠÐ´Ðµ Ð²Ð¸
Ð´ ÑĢÑ£
ĠÐ¿ÑĢÐ¸ Ð³Ð¾Ð¶Ðµ
Ð±Ð¾ Ñİ
ĠÑģÐ¾Ð» Ð¾Ð¼
ĠÑĢÐ°Ð·Ñĥ Ð¼Ñ£
Ð¸ Ð·
ĠÑĢÐ° ÑģÑĤ
ĠÐ¼Ð¾ ÐµÐ¼Ñĥ
ĠÐ¿ÑĢÐ¾ ÑģÑĤ
ĠÑĤÐ²Ð¾Ðµ Ð³Ñ¡
ĠÐ´Ð¾ÑĢ Ð¾Ð³
ÑĤ Ð¾ÑĢÐ°
ĠÑĤ Ð¾Ð»ÑĮÐºÐ¾
êĻĹ ÑĤÐ¸
ĠÐĽÐ°Ð·Ð° ÑĢÐµÐ²Ð¸
ĠÐ¸ Ð¼Ð¸
Ðº ÑĢÑ£
ĠÑģÑĤ Ñĥ
ĠÑĢ ÑĬ
ĠÑĪ Ñĥ
ĠÑģ ÐºÐ¸
ĠÑĨ ÑĢÑĬ
ĠÐ³Ð»Ð°Ð³Ð¾Ð» Ñ§
ĠÐľÑĥ ÑĢÐ¾Ð¼
ÑĤ Ð¾Ð¼ÑĬ
ĠÐºÐ° ÑĤÐ¾
Ð²Ñĭ Ð¼ÑĬ
ÑģÐºÐ¾ Ñİ
ĠÐ²Ð» Ð´
Ð´ Ñ¡
Ñĩ ÐºÑĥ
ÑĪÐ¸ Ð¼ÑĬ
ÑĩÐ° ÑĤÐ¸
ĠÑģÐ²Ð¾Ðµ Ñı
Ð° ÑĤÐ¸
ĠÐĴÐ°ÑģÐ¸Ð»Ð¸ Ð¹
Ð½Ð¸ Ð¼ÑĬ
ÐºÐ¸ Ð¼Ð¸
ÑĦ ÑĬ
Ð¸ÑĤ Ñĥ
ĠêĻĹ ÑĢÐ¾ÑģÐ»Ð°
Ð´Ð¾ Ñħ
ĠÐ¿Ð¾Ð¼Ðµ ÑīÐ¸
Ð³ Ð¾ÑĢÐ¸
ĠÐ² Ð½Ðµ
Ñĩ ÑĸÑİ
ÑģÑ£ ÑħÑĬ
ĠÐºÐ¾ÑĤÐ¾ÑĢ Ð¾Ð¸
ĠÐ±êĻĳ ÑģÑĤÑĬ
ĠÐ´ Ð¾Ð¼Ñĥ
ĠÐ¶Ðµ Ð½Ð¾Ñİ
ĠÑĤÑĬ Ð³Ð´Ð°
ĠÐ¿Ð¾Ñĩ Ð¸ÑĤÐ°
ĠÐ±Ð¾Ð³Ð°ÑĤÑĭ ÑĢ
Ð² Ð»Ñı
ĠÑĤ Ð²Ð°
ĠÑģÑĤ ÑĬ
Ð±Ð¸ Ð»Ð¸
ĠÑĪ Ð»Ð¾
ĠÐ¿ÑĢÐ° Ð²ÑĮ
Ð¸ ÑĢÐ°
ĠÐļ ÑĤÐ¾
ÐµÐ½ÑĮ Ñİ
ĠÐºÐ¾Ð» ÐºÐ¾
ĠÐ³ Ð»Ñ£
Ð¶ Ð´Ñĭ
ĠÐ²Ðµ ÑĩÐµÑĢ
ĠÐ¢ Ð¾Ð³Ð¾
ĠÐ³ÑĢÑ£ ÑħÐ°
ĠÐ²Ð¸Ð´Ñ£ Ð²ÑĬ
ĠÑĥ Ð¶Ðµ
ĠÐ¿ÑĢÐ¾ ÑģÑĤÐ¸
ĠÐ¿Ð¾Ð³Ð¸ Ð±
ĠÐ´Ð¾ ÑģÑĤÐ¾
ĠÐ³Ð»Ð° Ð²Ñĭ
ĠÐ¿ÐµÑĢÐµ Ñģ
ĠÐ¡ Ñĥ
ĠÑģÐ¸ Ð»Ñĥ
ĠÐ¿Ð¾Ð³ êĻĭ
ĠÐºÑĢ Ð¾Ð²ÑĮ
ĠÐ³Ð½Ñ£ Ð²ÑĬ
ĠÐ²ÑģÑ§ÐºÐ° Ð³Ð¾
ĠÐ¿ÑĢÐ¸ Ð±Ð»Ð¸
ĠÐ¡ ÑĤÑĢÐ°
ĠÐ¢ Ðµ
ÐµÑĢÐµ Ð¸
ĠÑģÑĥÐ´ Ñĥ
ĠÐ¼Ð¾Ñģ Ðº
ĠÐµ Ð·
ĠÑģÐ»Ð¾Ð²Ðµ Ñģ
ĠÑĢÐ¾ ÑģÑĤÐ¸
ÑĤ ÑĸÐ°
ĠÐ¿ ÑıÑĤÐ¸
ĠÐ´ ÑĢÑ£
ĠÐ´Ð° ÑĢÑĥ
ĠÐĳ Ð°
ÑģÑĤÑĭ Ð½Ñİ
ĠÐĴÐ¸ Ð´Ñ£
ĠÐ³Ð¾ÑģÑĥÐ´Ð°ÑĢÐµ Ð²Ð°
ĠÐĶÐ¾Ð±ÑĢÑĭ Ð½Ñı
ĠÑģ ÑĸÐ¸
ĠÑĩ Ð°ÑĢ
ĠÐŁ Ð¾Ðº
ĠÑħÐ¾Ð´Ð¸ ÑĤÐ¸
Ð² Ð¾Ð´Ð¸
ĠÑ¡ ÑģÑĤÐ°Ð²
ĠÑģÐ¸ Ð»ÑĮ
ĠÑĢÐµ ÑīÐ¸
Ð±Ð¸ ÑĢÐ°
ĠÑĤ Ð¾Ð¶Ðµ
ĠÐ²Ð¾Ð· Ð²ÑĢÐ°ÑĤÐ¸
ĠÑĢÑĥ ÐºÐ¸
ĠÐ²Ð»Ð° ÑģÑĤÑĮ
ĠÐ¸ Ð¼Ñĥ
ĠÐºÐ»Ð°Ð½Ñ§ Ñİ
ĠÑķ Ñ£
ĠÐľÐ¾Ñģ ÐºÐ²Ðµ
ĠÐ°Ð» ÑĤÑĭ
Ð½ Ð½Ð°
Ð½ ÐµÐ½Ð°
Ð¶Ðµ Ð½Ð¸
Ð½Ð¾Ð¼ Ð¾Ñĥ
Ñı Ð½Ðµ
ĠÑ¥ Ð¶Ðµ
Ð½Ð¸Ðº Ñ¹
ÑģÑĤÑ£ Ð¸
ÑĨ Ð¾Ñĥ
ÑĩÐ¸ Ð½Ð¸
ÑĩÐ° Ð¸
ĠÐºÐ¾ÑĢ Ð¼
ĠÑĤÑ£ Ð¼ÑĮ
ĠÐ±Ð³ ÑĬ
Ðº Ð»Ð¸
Ð²Ð° ÑĪÐµ
Ð´ Ð¾Ð¼
ĠÐ³ Ð»Ñĥ
ĠÐ·Ð»Ð° ÑĤÐ°
Ð³ Ð¾Ð¼ÑĬ
Ð¶Ðµ Ð½ÑĸÐµ
ĠêĻģ Ð½Ð°
ĠÐ½Ñ£ ÐºÐ¾Ðµ
ĠÐ¿ÑĢÐ¸ ÑĪÐµÐ´ÑĬ
Ð½ Ð¾Ð¿
ĠÐ» Ð¾Ð²
ĠÑĩÐ° Ñģ
ĠÑ ¯
Ð· Ð½Ð¾
Ð½Ð¸ ÑĩÐ¸
ĠÑħ Ð²Ð°Ð»Ð¸
ĠÐĿ Ñ«
ĠÐ¿Ð¾Ñģ Ð»Ð¾Ñĥ
ĠÐ±êĻĭÐ´êĻĭ ÑĤÑĬ
ĠÐĲ Ð·ÑĬ
ÑģÑĤÐ° Ð²ÑĬ
ĠÐĴ Ð¾Ð·
ĠÐ²ÑĮ Ñģ
ĠÐ´ÐµÑģÑ§ ÑĤÑĮ
Ð° Ñ§
ĠÐľÐ¸ÑħÐ° Ð¹
Ð² Ñ¡
Ñ§ Ð»Ðµ
Ñĩ ÑĤÐ¾
ĠÐ³ ÑĢÑĮ
Ð¶Ðµ ÑĤÑĮ
ĠÐĲ Ð¼Ð¸
Ð½Ñ£ Ð¼ÑĮ
ĠÑĦ Ð¸Ð»Ð¸
ĠÐ±ÐµÑĢÐµ ÑĩÐ¸
ĠÐ²Ð¼Ðµ ÑģÑĤÐ¾
Ð¿ ÑĢÐ¾ÑĤÐ¸
ÐµÐ½ Ñ£
ĠÐ¾Ð³ Ð½ÑĮ
Î ½
ĠÐº ÑĤ
ÐµÐ½ Ñĥ
ÑģÑĤÐ¸ Ð¸
ĠÐ²Ðµ Ð·
ÑĤÑĭ Ð¸
ĠÐºÐ½Ñı Ð³Ð¸
ĠÑģÐµÑĢÐ´ ÑĨÐ°
Ðº Ð²Ð°
ĠÐ´ Ð¾Ð¼Ñ¹
Ð¾Ñģ ÑĮ
ÑĢÐµ Ð¹
ĠÑģÐ» Ð¾Ñĥ
êĻĳ ÑħÑĬ
ĠÐ²Ð¿ ÐµÑĢÐµÐ´
ĠÐ½Ð° Ð¼Ñ£
ĠÑģÑĤ Ñ§
ĠÐ» Ð¾
ÐºÐ¸ Ð¸
ĠÐ¿Ð¾Ð» Ð¾Ð²Ð¸
ĠÐºÑĬ Ð½Ñ§
ĠÑģÑĤÑĢÐ° Ð½Ñĭ
ĠÑĩÐ¸ Ð½Ð¸ÑĤÐ¸
ĠÑģÐ¾ÑĢ Ð¾Ðº
Ð¿ Ñĭ
êĻģ Ð½Ð°
ĠÐ·Ð°Ð¿ Ð¾Ð²Ñ£Ð´Ð°
ĠÑĢÐ°Ð± Ð¾ÑĤÐ°
Ð´Ð° Ð»Ð¸
ĠÑ¿ ÑĤ
Ð°Ðº Ñĥ
ĠÐ¿Ð¾Ð» ÑĮ
ĠÐ´Ñ£ Ð»Ñ§
ĠÐ¿ÑĢÑ£ Ð´
Ð½Ð¸Ðº Ñĭ
ĠÐ´Ð¾ Ð¸
ĠÐķ Ð¶Ðµ
ĠÑĨÑ£ Ð»Ð¾Ð²Ð°
ĠÐ¼Ð¾Ð»Ð¸ ÑĤÐ¸
ĠÐºÐ½Ñ§Ð· Ñİ
ÑĥÐ´ Ñĭ
ÑĪÑĤ Ñı
ĠÐ±Ð¾ÑĢÐ¸ ÑģÐ°
Ð´ ÐµÑĤÐµ
ÑĪ Ð¸ÑĤ
Ð¿ Ñģ
ĠÐ²Ñ£ ÑģÑĤÑĮ
Ð¿ÑĢ Ð¾Ñģ
ĠÐ²ÐµÑģ ÐµÐ»
ĠÐ¿ Ñ§ÑĤ
ĠÐ± Ð¾Ð¶
ĠÐ¿ÑĢ ÐµÐ»
ĠêĻĹ Ð²
ĠÑģÐ¸ Ñħ
ĠÐ²ÐµÐ»Ð¸ ÐºÐ¾
ĠÐ¿ ÑĭÑĤÐ°
Ð¿ ÑĢÐ¾
ĠÐ· Ð¼Ð¸
ĠÐ¶Ðµ ÑĢ
ĠÑħ Ð¾Ñĥ
ĠÑĢÑĭ ÑĨ
ĠÎ Ļ
ĠÐ´Ð¾Ð¼ Ð¾Ð²
ĠÐµÐ´Ð¸ Ð½
ĠÐ°Ð½ Ð³
ĠÐ¼Ð¾Ð½Ð°ÑģÑĤÑĭ ÑĢÑĮ
ĠÐ¿Ð¾ÑĪÐ»Ð¸ Ð½Ñĭ
ĠÐ¥ÑĢÐ¸ ÑģÑĤ
ĠÑĤ ÑİÑĢ
ĠÑı Ð·
ĠÐ¿Ð¾Ð´ ÑĮÑı
Ð´Ð¸ Ð½Ð¾
ĠÐ´Ñ£ Ð»ÑĬ
ĠÐ¼Ð¾Ð½Ð°ÑģÑĤÑĭ ÑĢÑı
Ð»Ð° ÑģÑı
Ð»Ð¾ ÑģÑĤÐ¸
ĠÑĢÐ¾Ð´ Ñĥ
ĠÑĢÐµÐºÐ¾ ÑĪÐ°
Ð¼ Ð½
Ð³Ð¾ ÑĤÐ¾Ð²Ð°
ĠÐĳ ÑĢÐ°
ĠÑģÐ¼ÐµÑĢ ÑĤÑĮ
ĠÐ³ÑĢÐ¸Ð²ÑĮ Ð½Ñ£
Ð» ÑĸÐ°
ĠÑĢ Ñı
ÑĥÐ´ Ñĥ
Ð±Ð¾ÑĢ Ð¾ÑĤ
ĠÑģ Ð½Ð¸
ĠÐ´ ÑĢÑĮ
Ð»Ðµ Ð·
ĠÐ²Ð¾Ð· Ð´Ð°
ĠÑģÐº Ð²ÐµÑĢ
Ð´Ñ§ ÑĤÑĬ
ĠÐºÐ¾Ñĥ Ð½Ñ£
ĠÐ´Ð¾Ð² ÐµÐ´
ĠÑģ Ð¼Ð¸ÑĢ
Ð¿ Ð¾Ñĥ
ĠÐ²ÑģÑ§ ÐºÐ¾
ĠÐ±ÐµÐ· Ð·
Ð² Ð½Ð°
ÑĤÑĮ ÑģÑı
ĠÐļ ÑĬ
ĠÐ¼Ðµ Ð¶Ð¸
Ñķ Ñ£
ĠÐĺÐ»ÑĮ Ñı
ĠÐ½Ð°Ð¼Ðµ ÑģÑĤ
Ð»Ð¸ ÑĤÐ¸
ĠÐ¾Ñĥ Ð¼Ñ£
ÑīÐ¸ Ð¼
ĠÐ±ÐµÐ· Ð¾
ÐµÐ²Ð¸ ÑĩÐ°
ĠÐ½ÐµÐ½Ð° Ð²Ð¸
Ñħ Ð¾ÑĤ
ÐºÐ¾ ÑĪÐ°
ĠÑ¡ ÑĩÐ¸
ĠÐ¿ÐµÑĢÐµÐ´ ÑĬ
ÑģÑĤ Ð¾Ñĥ
Ð³ Ð¾Ð²Ñ£
ĠÐµ Ð²
ĠÐ¡ Ð²Ñı
Ð´Ñ£ Ð¸
ĠÐ¿ÑĢÐ° Ð·Ð´
ĠÑħÐ¾ ÑīÐµÑĪÐ¸
ĠÐ½Ðµ Ð±Ð¾
ĠÑĤÐ° ÑĤÑĮ
ĠÑĦ Ð¸
ĠÐ²ÐµÐ»ÑĮ Ð¼Ð¸
ĠÐ¸ Ð½ÑĭÑħ
ĠÐ± Ð¶Ð¸
ĠÐº ÑĭÐµ
ÑĪ ÐµÐ½Ð°
Ð· Ñı
Ñ¹ Ð±
Ð°ÑĢ Ñ§
ĠêĻģ Ð°Ðº
ĠÐ¼Ñ¹ Ð¶Ð°
ĠÑĤÐ¾Ð»Ð¸ ÐºÐ¾
ÑĤ ÑĢÑĬ
Ð½ ÑĤ
ĠÐ¾ Ð´Ðµ
Ð½Ð¸ ÑĨÑİ
ĠÐ¾ÑĤ Ð´Ð°ÑĤÐ¸
ĠÐľ Ð¾Ð»
ĠÐºÐ°Ð· Ð½Ð¸ÑĤÐ¸
ĠÐ¿ÑĢÐ¸ÐºÐ°Ð· Ðµ
ÑĮ Ñİ
ĠÑĥ Ð¶
ĠÐ±Ð¾Ð» ÑĪÐ¸
ĠÑģ Ð½ÑĬ
ĠÐ· Ð´Ðµ
ĠÐ±Ñĭ Ð²ÑĪ
Ð»ÑĮ Ñİ
ĠÐ¿ÑĢÐµ Ð±Ñĭ
ĠÑģÑĢ Ð´
ĠÐºÐ½Ñ§Ð· Ñ§
ĠÐº Ð²Ð°
ĠÑĢ Ð¾Ð¶Ðµ
ÑģÑĤÐ¾ Ñĩ
ĠÑģÑĭ Ð½Ðµ
ÑĢ Ñ«
Ð± Ð¾Ñĥ
ĠÐ³ Ð¾Ð½
ĠÑ¥ Ð¼Ñ¹
Ð¾Ð²Ð¾ Ð¸
Ð¸ÑĤÐµ ÑģÑ§
Ñĸ ÐµÐ¼ÑĮ
Ð²Ñĥ Ñİ
ĠÑģÑ¹ Ð´Ñĭ
ĠÐ±Ñ¹ Ð´Ð¸
Ñģ Ñģ
ĠÐ¸ Ð´Ð¸
ĠÐº Ð¾Ð³Ð´Ð°
ĠÐ¼ ÑģÑĤÐ¸
Ð½Ð¸ ÑĨÐµ
ĠÑĨ Ð¾Ð»
ĠÑģÐµ Ð³Ñ¡
ÑģÐ»Ð° Ð²Ð¸
ĠÑķ ÑĸÑģ
ĠÐ½ Ð¾Ð³
Ð´ Ð¾Ð²
ÐµÐ½ ÑĸÐ°
ĠÑħÐ¾ Ñĩ
ĠÐĵÐ¾Ñģ ÑĥÐ´Ð°
ĠÑģÐµÐ´ Ð¼ÑĮ
ĠÑģÐ¼Ð¾ÑĤ ÑĢÑ§
ĠÑĢ Ð¾Ð±
ĠÑ ±
Ð»ÐµÐ½ Ð¾
Ñ³ Ð¸
ĠÐ½ Ñĸ
ĠÐ¸ÑģÐ¿ ÑĢÐ°Ð²
ĠÐ¼Ð°Ðº ÐµÐ´
i Ðµ
Ðº Ð¼Ð¾
ĠÐ¿ÑĢÐ¸ Ð³
ÑĪÐµ Ñİ
ĠÑģÐ²Ð¾ ÐµÐ¼êĻĭ
ĠÐ¢ Ð¸
ĠêĻģ Ð»Ð°
ĠÐ¿Ð¾Ð¼ Ð¾Ð»Ð¸
ÑģÐºÐ° Ð°
ÑģÑĤÐ² Ð¾Ð²Ð°ÑĤÐ¸
Ð´êĻĭ ÑĤÑĬ
ĠÑħÐ»Ñ£ Ð±ÑĬ
ĠÐ½ÐµÐ±Ðµ Ñģ
ĠÐ³ Ð½Ðµ
Ð½Ñĭ Ð°
Ñ¡ Ð°
ĠÐŀ Ð½Ð¸
ĠÐ³Ð¾ÑģÐ¿Ð¾Ð´ ÑģÑĤÐ²Ð¾
ĠÑħÐ»Ðµ Ð±
Ð· ÑĢÑ£
Ð¶ ÑĥÑĤ
ÑĤ ÑĢÐµ
Ñģ Ð²
Ð² ÑĢÐ¸
Ð² ÑģÑı
ĠÐ¿ÑĢÐ¸ Ð·Ð²Ð°
Ð½Ð¸Ðº ÑĮ
ĠÐ¿ÑĢÐ°Ð²Ð¾ ÑģÐ»Ð°Ð²
Ð» êĻĳ
ĠÑĤ Ð¾Ð¶
Ð½Ð¸ ÑĨÑĥ
ĠÐ¾Ñĥ Ð¶Ðµ
ĠÑģÐ² ÑıÑĤ
Ñı ÑģÑı
ĠÐ¼Ð° Ð¸
ÑģÐºÐ° Ñ§
ĠÐ±êĻĳ Ð»Ð¾
Ð¾ÑĢÐ¾ ÑĤÐ¸
ĠÐ±Ð»Ð¸ Ð¶
ĠÑĤÐ¾Ð²Ð°ÑĢ ÑĬ
ĠÑ³ÐµÑ¡ Ð´
ĠÐ¸ Ð³Ð½Ð°
ĠÐ· Ñ£Ð»Ð¾
Ð¾Ð²Ð¸ Ñİ
ĠÐ¼Ð½Ð¾Ð³ Ñĭ
ĠÐ±Ð»Ð°Ð³ Ð¾Ð´Ð°
ĠÐ¸ Ð½ÑĭÐµ
ĠÑĢêĻĭ ÐºêĻĭ
ĠÐ¸ Ð¼ÑĮ
Ð»Ð° ÑģÑĮ
ĠÑĥ ÐºÐ°Ð·Ð°
ĠÑģÑĬ Ð±ÑĢÐ°
Ð³Ð¾ÑĢ Ð¾Ð´Ñ£
ĠÐ²Ð¿ ÑĢÐµ
ĠÐºÑĢÐµÑģÑĤÑĮÑı Ð½Ðµ
Ð¸ ÑģÑ§
Ñĩ ÐµÐ½ÑĬ
ĠÑĩ Ð¾Ð»
Ð¾Ð²Ð¾ Ñİ
Ð± ÑĶ
Ð¾Ñģ Ð°
ĠÐ¿Ð¾Ð» Ð¾Ð¶
Ð´Ñĭ Ð¸
ĠÑĪÐ¸ ÑĢÐ¾Ðº
ĠÐ°Ð¿Ð¾ ÑģÑĤÐ¾Ð»
Ð»Ñĭ Ðµ
ĠÑģÑĤÑĢ ÐµÐ»
ĠÐº Ñ£
ÑĤÑĮ Ð¸
ÑĢÐ¸ Ñİ
ĠÐ¾Ñĥ Ð±Ñ¡
ĠÐ±Ñĭ Ð²ÑĬ
Ð¼Ð° Ð½
ÐµÐ½Ð¾ Ðµ
ĠÑģ ÐµÐ½
ĠÐ± ÐµÐ´
ĠÐ´Ð° ÑĢ
ĠÐ´Ð° ÑĤÑĮ
ĠÐŁ Ð¾Ð½Ðµ
ĠÐ¡ Ð¾Ð»
ĠÐ±Ñ¹ Ð´ÐµÑĤÑĬ
ĠÐ¼Ð½Ñ¡ Ð³Ð¾
ĠÐ¿ Ð¾Ð³Ð¾
Ð³ Ð¾Ð½
ĠÑģÑĤ ÑĢÐµ
ÑĢÐµ ÑĨÑĬ
Ð»Ðµ Ð¶Ð°
ĠÑģÑĤÑĢÐ° Ð½Ð°
Ð¼Ñĭ ÑĪ
ĠÐ´ÑĮ Ð½ÑĮ
Ð¾ÑģÐ»Ð° Ð²
ĠÐ³ÑģÐ´ ÑĢÑ§
ĠÐµ Ñİ
ĠÐ¿Ð¾Ð³ Ñĭ
ÑĤ Ð²Ñĭ
ĠÐ½ Ñ§
Ñı ÑħÑĥ
ĠÐ¿ÑĢÐ¸ ÑıÑĤ
ĠÐľ Ðµ
ĠÑĦ ÑĢÐ°Ð³Ð¼ÐµÐ½
ĠÐ²Ð¾Ð¸ Ð½
ĠÐ¸Ð´Ðµ Ð¶Ðµ
ĠÑĤÐµÐ»Ðµ Ñģ
ĠÐ¿ Ñ§ÑĤÐ¸
ĠÑĥ Ð¼ÐµÑĢ
Ð½Ðµ Ð¹
Ð¿ÑĢÐ° Ð²Ð¸
ĠÐ¸ÑģÐºÐ° ÑĤÐ¸
Ð» ÑĤÐ°
ĠÐ² â¸¯
ĠÐŀ Ð±Ð¾ÑĢÐ¾ÑĤ
ĠÐ±ÑĥÐ´ ÐµÑĤÑĬ
Ñ³ ÑĬ
ĠÐ¼Ð¾Ð¸ ÑħÑĬ
ĠÐ±ÑĮ Ñĸ
ĠÐ±ÑĮ ÑĢÐºÐ¾Ð²ÑĮ
ĠÐĸ Ðµ
Ġ {
ĠÐ±Ð¶ ÑĤÐ²
ĠÑĤÐ¾Ð¼ Ð¾Ñĥ
ĠÐ½Ð± Ñģ
Ð´ Ð¾Ð±
ĠÐ¼ Ñĸ
ÒĨ ,
ĠÐ¿Ð¾ ÑħÐ¾
ĠêĻ Ĩ
ĠÐ¼Ðµ ÑĩÑĮ
ĠÐ½Ð¸Ðº ÑĤÐ¾Ð¶Ðµ
Ñħ Ð²Ð°
Ð´Ð° Ð»
ĠÑĶ Ð¶Ðµ
ĠÑĢ Ð¾Ð¶Ð¸
Ð»Ð¸ Ð¼ÑĬ
Ñĸ êĻĹ
ĠÐ³Ð»Ð°Ð³Ð¾Ð»Ð° ÑĤÐ¸
ÐºÐ° ÐºÐ¾
ĠÑĢÐµ ÑĩÐ¸
Ð² êĻ¿
Ð¿ ÑĢÐµ
Ð´Ðµ Ñģ
Ð½Ðµ ÑĪÐ¸
ĠÑĢÐµ Ð·Ð°
ĠÐ±Ð» Ð³Ð¾
ĠÐ¼Ð¾Ð¸ Ð¼ÑĬ
ĠÐ¸ Ð½Ð°
Ðº Ð¾Ð¼ÑĮ
ÑĪÐµ Ð¸
êĻģ Ð½ÑĮ
ĠÐ¡Ð° Ð¼
Ð»Ðµ Ð¹
ÑĪÐ¸ ÑħÑĬ
ĠÑĢÐµ ÐºÑĥ
Ð¿Ð¸ Ñģ
êĻĹ ÑĪÐµ
ĠÐ¼Ð¾Ð» Ðµ
ĠÐ¿Ð»Ð° Ñĩ
ĠÐ±Ð¾Ð³Ð° ÑĤ
ĠÐ½Ð° Ð¼Ð¾
ĠÐ½Ðµ Ð²Ð¸Ð´Ð¸
ÐºÐ¾ ÑĤÐ¾ÑĢ
ĠÐ³Ð»Ð°Ð³Ð¾Ð» ÑİÑīÐµ
ĠÑĢÐ¾ ÑģÑĤ
ĠÑĥÑĩÐ¸ Ð½Ð¸
ĠêĻĢ Ð°
ĠÑĢ êĻĳ
ĠÐ¡ Ð¾
Ð¼ÐµÐ½ ÑĬ
ĠÐºÐ½Ð¸ Ð³Ð¸
ĠÐ³ Ð»Ñİ
Ð´Ðµ ÑģÐ°
Ñĥ Ð¼
ÑĤÐµ Ð»Ð¸
ĠÐ½Ð¸Ðº Ð¾Ð»Ð¸
ĠÑģÐ²Ð¸ Ð´Ñ£
ĠÑģÑĬ Ð²ÑĢÑĬ
ÑģÐº ÑĸÑ§
ĠÐ¢ Ñĥ
ĠÐĵÐ¾Ð² Ð¾ÑĢÐ¸ÑĤ
Ñģ Ñ«
ÑĪ ÐµÐ½ÑĬ
ĠÑĢ Ñ§
ĠÐ±ÑĢÐ° ÑĤÑĮÐµ
ĠÐ²ÑĢÐµÐ¼ ÐµÐ½Ð¸
ĠÐ¿Ð¾ ÑģÑĤÐ¸
ĠÐ¿Ð¾Ð» Ñı
ĠÑģÑĤÐ¾Ð» ÑĬ
ĠÐ´Ð¾Ð» Ð³Ð¾
Ð» Ñ«
ĠÐ½Ð° Ð´ÑĬ
Ñģ ÑĨÑ£
ĠÐ¿Ð¾ ÑģÑĤÑĢÐ°
Ð¸ÑĤ ÑģÑ§
ĠÐ¿ÑĢÐµ ÑģÑĤÐ°Ð²Ð¸
ĠÑĢÐµÐº Ð»ÑĬ
ĠÐ½Ð°ÐºÐ°Ð· Ñ¹
Ð¾ÑĢ Ñĭ
ĠÐ·Ð° Ñħ
ÑģÑĤÑĮ Ñİ
ĠÑĢÐ° ÑĤÐ¸
ÑĩÐµ ÑĢÐ°
Ñ¥ Ð²Ð°
ĠÐ³Ð¾Ð² Ð¾ÑĢ
ĠÑħÐ¾ÑĢÐ¾ ÑĪÐ¾
ĠÐ¶Ðµ Ð½ÑĬ
ÑģÐº Ð¾Ð¼Ñ¹
ÑŃ ÑĤÑĬ
ĠÑĢÐ°Ð´Ð¾ ÑģÑĤÐ¸
Ï Ħ
ĠÐ² Ð¾Ð½
ĠÑĩÐ¸ ÑģÐ»Ð°
ĠÐ³Ð¾ÑĢÐ¾Ð´ Ðµ
ĠÐ¿Ð¾Ð¼Ð¾ ÑīÐ¸
ĠÐ½Ð°ÐºÐ°Ð·Ð° Ð½Ð¸Ðµ
ÑĢ ÐµÑĤ
ĠÑ¿ Ð²ÐµÑĢ
ÑĪÐ¸ Ð¸
ĠÐ·Ð°Ð¿Ð¾Ð²Ñ£ Ð´Ð¸
ĠÐ¾Ð±ÑĬ Ñı
ĠÐ¸ ÑģÑĤÐµ
ÑĪ ÐºÐµ
ÑĢÐ° Ð¼
ĠÑĥ Ð³Ð¾Ð´
ĠÐĳ Ðµ
ĠÐĳ Ñĥ
ĠÐ³Ð»Ð° ÑģÑĬ
ĠÐĽÐ°Ð·Ð°ÑĢÐµÐ²Ð¸ ÑĩÑĮ
êĻ ĩ
Ð¾ÑĢ ÑĮ
Ð¾ÑĢ ÑĤÐ¸
ĠÐ» Ð¾Ðº
Ð²Ñĭ Ð¹
ĠÑģÑĤÐ° Ð»Ð¸
ĠÐºÑĢ Ð¾Ð²
ĠÐ´Ð² Ð´
ÑĢ Ð¼
ĠÐ¼ ÐµÐ»
Ð½Ð¸ Ñ§
Ð¾Ð´ ÐµÑĢ
ĠÐ¿Ð¾ ÑĩÐµ
ĠÐ¿ÑĢÐ¸ Ð´Ð¾ÑĪÐ°
ĠÑĢÐ°Ð· Ð»Ð¸Ñĩ
ĠÐºÐ¾Ð½ ÑĨÐ°
ĠÑĤÐ¾ÑĤ ÑĬ
ĠÐ¡Ð° Ð´
ĠÐ½ Ñİ
Ð²Ñ£ ÑĪÑĤÐ°
Ð½Ñĥ ÑĤÐ¸
ĠÑĤÐ° ÑĤ
Ð¶Ð¸ ÑĤÐ¸
ĠÑģÑĥ Ð´Ðµ
ĠÐ²Ð¾Ð»Ð¾ ÑģÑĤÐ¸
ĠÐ¿Ð¾Ð»Ð¾Ð² ÑĨÐ¸
Ð¼Ð° ÑĤÑĮ
ĠÑģÐ¸ Ð¼
ĠÐ¿Ð°Ð¼ ÑıÑĤÐ¸
ĠÐ·Ð°ÐºÐ¾Ð½ ÑĬ
ĠÐ¿ ÑĪÐµÐ½Ð¸
Ñ§ Ð½Ð°
ĠÐ¾Ñĥ Ð´Ð°
ĠÐ²ÑģÑ§ ÐºÐ¸Ñħ
ĠÐ²Ð¾Ð· Ð´Ð²Ð¸
ĠÐ¿Ð¾ÑĤ Ð¾Ð¼
ĠÐ´Ð¾Ð¿ ÑĢÐ°Ð²Ð¸ÑĤÐ¸
ĠÑĦÐ° ÑĢÐ°
ĠÐ¿ ÑıÑĤÑĮ
ĠÐ¿ÑĢÐ¸ Ð¸Ð´Ðµ
Ð²Ñ£ ÑĤÐ°
Ð¸ÑĤÐµÐ» Ñİ
ĠÐ² Ð´Ñ£
ĠÐ³Ð¾ÑģÑĥÐ´Ð° ÑĢ
ĠÑĢÑĥÐ± Ð»Ñı
ĠÐ¿Ð¾Ð» Ð¾ÑĤ
ÑģÑĤÑĭ Ðµ
ĠÐ±Ñ¹ Ð´Ñ¹
Ð¾Ð¼Ð¸ Ð½Ð°
ĠÐ´Ñ£ÑĤ ÐµÐ¼ÑĬ
ĠÑģÐ¿ÑĢÐ° ÑĪÐ¸
ÑĢ ÐµÑĤÑĮ
ÑĪ ÑĤÑĮ
ÐºÐ° Ñ§
Ð¶Ðµ ÑĤÑĬ
Ð¾Ð¿ ÑĬ
ĠÐ²Ð· Ñ§ÑĤÐ¸
ĠÑĩÐµÐ»Ð¾Ð²Ñ£ ÐºÐ°
ĠÐ²Ð¾ÑĤÑĩÐ¸ Ð½Ñĥ
ÑĢ ÑĸÐ¸
ĠÐ¿ÑĢÐ¸ Ð¸Ð¼
ĠÐ²Ð¾ ÑģÑĤ
ĠÐ±Ñ¹ Ð´ÐµÑĤ
ĠÑģÑ£ Ð´Ðµ
ĠÑĤÑı Ð³
ĠÐ´Ð¾Ð¼Ð° ÑĪ
ĠÐ¿ Ñĭ
ĠÐ» ÐµÐ´
ĠÐ¶Ð¸ Ð²Ñĥ
Ð»Ñ§ ÑĤÐ¸
ĠÐºÑĢÐ°Ð»ÐµÐ² Ð½Ð°
ĠÐº Ð¾Ð²
Ð½Ð¸ ÑĨÑ£
Ñ¡ Ð±ÑĢÐ°
Ð²Ñ£ ÑģÑĤÐ¸
ĠÑĤÑĢÐ¾ Ð¸
ĠÐŁÐµÑĤ ÑĢÑĬ
Ð²Ð° ÑİÑĤ
ĠÐ¿ÑĢÐ¸ ÑģÐ»Ð¸
ĠÐ²ÑģÑ§ ÐºÑĬ
ĠêĻģ Ð²Ñ£
ĠÐ¿Ñĥ ÑĤÑĮ
ĠÐ¿ÐµÑĩÐ° ÑĤ
ĠÐĵÐ¾Ð² Ð¾ÑĢÐ¸
Ð´ Ð±
Ð´ Ñĸ
Ð½Ð° Ð¼Ð¸
ĠÐºÐ° Ð¼ÐµÐ½Ð¸
ĠÐ²ÐµÐ»Ð¸ ÐºÑĥÑİ
ĠÐ³ÑĢÐ° Ð´Ñĭ
ĠÐĵ Ð°
ĠÐ¿ÐµÑĢ ÐµÐ¼
ĠÑģÑ¹ ÑĤÑĮ
ĠÐ¿Ñĥ ÑĤÐ¸
Ð¾Ð¿Ð¾Ð» ÐºÑĬ
ĠÑģ Ð»Ð¸
ÑĪÐµ Ð²
ĠÐķ ÑģÑĤÑĮ
ĠÐ´Ð¸ Ð²
ĠÐ·Ð°Ð¿Ð° ÑģÑĬ
ÑĤ Ð¾Ñĥ
ÑĤ Ð¾ÑĢÐ¾
ĠÐ² ÐµÑĢÐµ
Ð¶ Ñ«
Ð³Ð° ÑĤÐ¸
ĠÐ³ÑĢÐ° Ð´Ñĥ
ĠÐłÐµ ÑĩÐµ
ĠÑģÑĬÑģ â¸¯
ĠÑĢÐ° Ð±Ñĭ
ĠÑģÑĬ Ð¼Ñ£
ĠÐ¡ ÑĮ
Ð¿Ð¸ ÑĤÑĮ
ĠÐ±êĻĳ ÑĤÐ¸
ĠÐ½ÐµÐ¿ÑĢÐ° Ð²ÐµÐ´
ĠÐ½ Ð¾Ð²Ð°
Ð· Ð´Ð¾
Ñī ÐµÑĢ
Ð¾Ð³ Ð¾Ð²
ĠÐ¶Ð¸Ð² êĻĭ
ĠÐ¼Ð½Ð¾Ð¶Ðµ ÑģÑĤÐ²Ð¾
ĠÐ¿ÑĢÐµ ÑĩÐ¸
ĠÐ¿Ð¾Ð² ÐµÐ»Ðµ
ĠÑģÐ¾Ñĥ ÑĤÑĮ
ĠÐ½Ð° Ð¼ÑĮ
ĠÐ»ÑİÐ´ ÑĸÐ¸
ĠÐ¼Ð°Ðº ÑģÐ¸
ĠÑĤ ÑĢÑĬ
ĠÐº Ð½ÑĥÑĤ
ĠÐĴ ÑģÑ§
ĠÑ§ ÐºÐ¾
ĠÐ¿Ð¾Ð±Ñ£ Ð´Ð¸
ĠÐ¿Ð¾Ð» Ð¾Ð¶Ðµ
ĠÐ±Ñ£ Ð¶Ð°
ĠÐ´Ð¾Ð±ÑĢ Ð¾Ð³Ð¾
ĠÐ½Ð°ÑĪÐ¸ Ñħ
ĠÐºÐ¾Ð»Ð¸ ÐºÐ¾
ĠÐ¿Ð¾ÑģÑĢÐµ Ð´Ñ£
ĠÐ½Ð¾Ð²ÑĬ Ð³Ð¾ÑĢÐ¾Ð´
Ð° Ð½Ð´
ĠÑĢÐ° Ð¸
ĠÐ¿Ð¾Ð» Ñ¹
ĠÑ¡ ÑģÑĤÐ°Ð²Ð¸
ÑĢÐµ ÑĩÐµÐ½
ĠÑģÐ²Ð¾ ÐµÐ¼
Ð²Ðµ ÑģÑĤÐ¸
ĠÐ½ Ð¾Ð½ÑĮ
ĠÐ¾ Ð¹
ĠÑĢ Ð¾Ð¶ÑĮ
ĠÑģÐ» Ð¾Ð²Ñ£
ĠÐ±ÑĢÐ° Ð½Ð¸
ĠÑģÐ°Ð¼ Ð¾Ð¼Ñ¹
ĠÑķÑ£ Ð»Ñ¡
Ñĩ Ñ§
ĠÐ²Ñ£ ÐºÑĭ
ĠÑģÑĤÐ° Ð»
ĠÑĥÑĩÐ¸ Ð½Ð¸ÑĤÐ¸
ĠÐ³Ð¾Ð²Ð¾ÑĢÐ¸ Ð»
Ñħ Ðµ
ÑĢÐ¸ Ð»
ĠÐ¿ÑĢÐ¸ ÑģÐ¿Ñ£
ĠÑķ Ð²Ñ£
Ð½ÑĭÐ¸ ÑħÑĬ
ĠÐ±Ð¸ Ð»Ð¸
ĠÐĵÐ¾ÑģÐ¿ Ð¾Ð´Ð°
ĠÑĢÐ°Ð· Ñ¹
ĠÐµÑģ Ð¼Ð¾
ÑĢ Ð¾Ð´
ÑĨ Ñ«
ĠÐ¿Ð° Ð´Ðµ
ĠÐ²ÐµÐ»Ð¸ ÐºÐ¾Ñİ
ĠÐ²ÑģÐµ Ñı
Ð½Ñİ Ñİ
ĠÐ¿Ð¸ÑģÐ° ÑĤÐ¸
ĠÑĢÑĭ Ð±Ð°
ĠÐ½ÐµÐ´ ÐµÐ»
ĠÐ´Ð¾Ñģ Ð°
ĠÐ¾ÑĤÐ²ÐµÑĤÑĩÐ¸ Ðº
ĠÐ´ Ñĸ
Ð¶Ðµ Ð¼ÑĬ
ÑĢÐ¸ Ñı
Ð±ÑĢÐ° Ð½
ÑģÑĭ Ð¿Ð°
ĠÐ·Ð»Ð° ÑĤÐ¾
ÑĤ êĻ¿
ĠÐµ Ñµ
ÑĢÑ£ ÑĤÐ¸
ĠÐ¼Ð° ÑĤÑĮ
ĠÑĨÐ°ÑĢ ÑģÑĤÐ²Ð°
ĠÐ¿ÑĢÑ£ Ð¶Ð´Ðµ
ĠÑģÐº Ð¾Ð»ÐºÐ¾
ĠÑĢêĻĭ ÑĨÑ£
ĠÐ¸ Ð³ÑĢÐ°
Ð»Ð¸ Ð¸
êĻĹ ÐºÐ¾
ĠÑģÐ¸ Ð¸
Ð²Ñĭ Ðµ
ĠÐ´Ð°Ð² êĻĳ
ĠÑĢÐ°Ð·êĻĭ Ð¼Ñ£
Ð± ÑĢÑı
ÑīÐµ Ðµ
ÐºÐ»Ð¾Ð½ Ð¸
ĠÐ´ Ñ¹
ĠÐĲ Ð´Ð°
Ð¸ÑĤ Ñĭ
ĠÑĤÐ° ÑĤÐ°
Ð¿Ð¾Ð´ Ð¾Ð±Ð¸
ĠÐ´ÐµÑĤ ÐµÐ¼
ĠÐºÐ½ÑĥÑĤ Ð¾Ð¼
ĠÐº Ñĭ
ĠÐº Ð¾Ð±Ñĭ
Ð± ÑĢÑ§
ĠÑĤÑĢ ÐµÑĤ
ĠÑĤÐ¾ÑĢ Ð³Ð¾Ð²
ĠÐ±Ð»Ð¸ Ð·
ĠÐ´ÑĢÑĥÐ¶Ð¸ Ð½Ñĥ
ĠÐ¸ Ð½ÑĬ
Ð· Ñ§
ÐµÐ½ ÑĸÐ¸
ÑģÐº Ñ¹
ĠÐ²Ñ£ ÑĢêĻĭ
ĠÐºÐ¾ÑĤÐ¾ÑĢ Ð¾Ðµ
ĠÐ¼Ð¾Ðµ Ð³Ñ¡
ÑģÑĤÑĥ Ð¿Ð°
ĠÐ¼Ð¾Ð»Ð¾Ð´ ÐµÑĨ
Ð² Ð»Ð°
ÑģÑĤ Ñĸ
ĠÐ¿ÑĢÐ¸ ÑĪÑĮ
ĠÐ¾Ñĥ Ð³
ÑģÐº Ð²ÐµÑĢ
ĠÑģÐ»Ð° Ð´
ĠÐ¼Ñĭ ÑģÐ»Ð¸
ĠÐĲÐ»ÐµÐºÑģÐ°Ð½Ð´ ÑĢÑĥ
ĠÐºÐ»Ðµ Ð²ÐµÑĤ
Ð» Ð½Ð¾
ĠÐ¶Ðµ Ð½ÑĮ
Ð½Ðµ ÑģÐµ
ĠÑģ Ð¾Ð»ÑĮ
Ð²Ð° Ð°
Ð²Ð° Ñ§
ĠÐ´Ð° ÑĢÑĬ
Ð¾Ñĥ Ð¼Ð¾Ñĥ
ĠÑħ êĻĭ
ÑĩÐ¸ ÑĤÑĮ
ĠÐ²Ð¸ Ð´Ñ§
Ð½ÑĭÐ¸ Ñħ
Ð¼ Ð¾Ð¶Ðµ
ĠÐ´ Ð»ÑĬ
ĠÐ¿ÑĢ Ð¾ÑĢÐ¾
ĠÐ· ÐµÐ»
ĠÐ¶Ðµ Ð½Ð¸
ĠÐ³Ð»Ð° Ð²Ñĥ
ĠÐ±Ð¾Ð» ÐµÐ·
ĠÐ°ÑĢÑħÐ¸ Ðµ
ĠÐ¸ Ð³Ñ¹
ĠÐ¿Ð¾ÑģÐ»Ð° Ð»ÑĬ
ĠÐ¥ Ð¾
ĠÐ¿Ð¾ÑĪÐ»Ð¸ Ð½
ĠÐ´Ð¾Ð± ÑĢÐµ
ĠÐ¿Ð» Ð¾Ð´
Ñı Ð¹
ĠÐ¿Ð¾ ÑĩÐ¸
ĠÐ· Ð¾Ð²
Ð½Ð¾ Ñ¥
ĠÐ¼Ð¾ Ñī
ĠÐ¿ÑĢÐ¾ ÑĪ
ĠÐ²ÐµÐ»Ð¸ ÐºÑĭ
ĠÑģÑ« ÑĤÑĬ
ĠÐ°Ð½ ÑĤ
ĠÐĺ Ð²Ð°
ÑģÑĤêĻĭ Ð¿Ð¸
Ñĩ ÑĬ
ÑĨ ÐµÐ¼ÑĮ
ÑĪÐ° Ð¸
Ð½Ð¸Ðº Ðµ
ĠÐ¼Ð¾ÑĢ Ñİ
ĠÐ»ÑİÐ´ÑĮ Ðµ
ĠÐ¿Ð¾ Ð¸ÑĤÐ¸
ĠÑĥ ÐºÐ°
ĠÐ¿ÑĢÐ¾ Ñħ
êĻĭÐ´ êĻĭ
ĠÐ±Ð¾Ð»ÑĮ ÑĪÐ¸
ĠÐķÑĢÑĥÑģÐ» Ð¾Ð½
ĠÑģ Ð¾Ð¿
ĠÐ´ ÑĪÐ°
ÐºÐ¸ Ð¹
ĠÐ²ÑĢÐ° ÑĤÐ°
ÑĢ Ð¸ÑĤ
Ð² ÑıÑĤ
ĠÐ¿ Ñ«
ĠÐ´Ð° ÑĢÐ¾Ð²Ð°
ÑĢÐ¸ ÑĩÑĮ
Ð¾Ðº Ñĥ
Ð¾Ð²Ð¸ ÑĩÑĮ
ĠÑĢÑĥÐ± Ð»Ñ§
ĠÐ²Ð¾Ð·Ð»Ñİ Ð±Ð»ÐµÐ½
Ð¸ Ð½Ñĥ
Ñ§ Ð½
ĠÑ¡ Ð²Ð¾
ÐµÐ´ ÑĮ
Ð³Ð¾ÑĢ Ð¾Ð´Ð°
ĠÑĤÐ¾Ð± Ð¸
ĠÐ¢Ð°Ðº Ð¾Ð¶Ðµ
ĠÐ±Ðµ ÑģÐ¿
ĠÑĢÐ¾Ð´ Ð¸ÑĤ
ĠÐ½Ð°Ð¿Ð¸ÑģÐ° Ð½Ð¾
Î µ
ĠÐ½Ð° ÑģÑĤÐ°Ð²
ÑģÑĤÐµ Ð¸
ĠÑ³ Ðµ
ĠÑĤÐµÐ¼ Ð¸
ĠÑģÐ²Ñı ÑīÐµÐ½
ÑĢ Ð¾Ð²ÑĬ
ÑĪ â±ķ
ĠÐ¿Ð¾ ÐµÑħÐ°Ð»
ÐºÐ° Ñı
ĠÐŁ ÐµÑĢ
ĠÑģÐ¸ Ñĩ
Ð½ ÐµÐ¼Ñĥ
Ð» ÐºÐ¸
Ð¶ êĻĭ
ĠÐ´Ð° Ð²Ð°ÑĤÑĮ
ÑĩÐµ Ðµ
ĠÐ¿Ð¾Ñģ Ð»Ð¸
ÑĶ Ð½
ĠÐ²Ð¾Ð´ Ð¾Ñİ
ĠÐ¶ÐµÑĢÐµ Ð±ÑĮ
ĠÐ¸ ÐºÐ¾Ð½
ĠÐ¸ Ð¼ÐµÐ½Ð¸
ĠÐ¾ Ð½Ð¾
ÑĤÐ¸ Ñİ
ĠÑĩ ÐµÑĢÐµ
ĠÐĿ Ñĭ
ĠÐ¿Ð¾Ð» Ñİ
ÑĩÐ° Ñİ
Ð³Ð¾ÑĢ Ð°
ĠÑģÑ£ Ð¼Ð¾
ĠÑĢÐ¾Ð· Ð±Ð¾Ð¹
ĠÑĢÐ¸ Ð·Ñĭ
ĠÐ³ÑĢÐ¸Ð²ÑĮ Ð½Ð¾
Ðµ Ð²Ðµ
Ð´Ð¾ ÑģÑĤÑĮ
ĠÑģÑĤÐ° Ð»ÑĬ
Ð±Ñĭ ÑĤ
ĠÐ¿Ð» Ð¾ÑĤ
Ð» ÑŃ
ĠÐ½Ð° Ð·Ð°
ĠÐ¼Ð¾Ð» Ñİ
ĠÑģÐ¾Ð± Ñ§
ĠÑĩÐµÑĢ Ð½Ð¸
Ð´ÑĨÐ° ÑĤÑĮ
ÑĤ Ð¾Ð»
Ð± ÐµÑĢ
Ð¾Ð³Ð¸ Ð²Ð°
ĠÐ¼ÑĬ Ð½
ÑĦ Ñ£
Ð» ÑĸÐµ
ĠÐ²ÑĮ êĻģ
ĠÐ³ÑĢÑ£ ÑĪÑĮ
Ð¸ Ð´Ð¾ÑĪÐ°
ĠÐ¿Ð¾ ÑĤÐµ
ĠÐ´Ð¾ ÑĩÑĮ
ĠÐ³ÑĢÐ¸ Ð³Ð¾ÑĢÐ¸
ĠÐ»Ð° Ð·
ĠÑħÑĢÐ¸ÑģÑĤ Ð¾ÑģÑĬ
Î¿ Ï
Ðµ Ð½Ð¸Ðµ
ĠÐ½Ðµ Ñİ
Ð»Ð¸ Ð½Ð°
ÑĢÐ¸ Ñ§
ĠÐ¾Ñĥ Ð¿
ĠÑĤÐ²Ð¾ ÐµÐ¼Ñĥ
ĠÐ²ÑĮ ÑģÑ§
ĠÑģÐ²Ñ£ Ð¸
ĠÐ´ÑĢÑĥÐ³ Ð¾Ð¹
ĠÑģ Ñī
Ð¾Ð¼ Ð¾Ð»
Ñ§ÑĤ ÑģÑ§
ĠÐ¿êĻĭ ÑĤÐ¸
ĠÐ´Ð¾Ð² Ð¾Ð»
ĠÐļÐ¸ ÐµÐ²
ÑĪ ÐµÐ½Ð¾
ĠÐ²ÑģÐµ Ð¸
ĠÑĩÐ¸ Ð½Ð¾Ð²
ĠÑģÐºÐ¾ÑĢ Ð±
Ð» Ñĳ
Ñı Ð½Ð¸
ĠÐºÐ°ÐºÐ¾ Ðµ
ĠÐºÐ°Ð±Ð° Ð»Ñĭ
ĠÐ²ÑĬÐ·ÑĮ Ð¼Ð¸
ÑĨ Ñı
ĠÐ´Ð° Ð½Ñĭ
ĠÐ¼Ñ£ ÑģÑĤÐµ
ĠÐ¿Ð¾Ð¼Ð¾ ÑīÑĮ
ĠÐĴÐ¾Ð» Ð¾Ð´Ð¸
ĠÐ¾ Ð·
ĠÐ¶Ðµ ÑĢÐµÐ±
ĠÑ¡ Ð»Ðµ
Ð²Ð¸ Ð¸
ĠÑĨ Ñģ
ĠÐ¿Ð»Ð° ÑĤÑĮÐµ
ĠÐ²Ð»Ð° ÑģÑĤÐ¸
ĠÐ¼Ð» ÑģÑĤÑĮ
ĠÑģÐºÐ° Ð¶ÑĥÑĤ
ĠÐ¼Ð¾Ð»Ð¸ÑĤ Ð²Ð°
ÑĪÐµ Ð½Ð¸Ðµ
Ð»Ñ£ Ð½
ĠÐ²Ð¸ Ð½Ñĭ
ĠÑĥÑĩÐ¸ Ð½Ð¸ÑĤ
ĠÐ¼Ð¸ÑħÐ°Ð¸ Ð»Ð°
Ñģ Ð½Ð°
Ð´ Ð½Ð°
Ð´ ÑĢÑĮ
ĠÐ¾ ÑģÑĤÑĢ
ĠÐ½Ðµ Ð³Ñ¡
Ð»Ð¸ Ð¼
ĠÐ¿ÑĢÐ¸ êĻĹ
ĠÐ¿ÑĢÐ¸ Ð¿Ð°
ĠÑħÐ¾Ð»Ð¾Ð¿ Ð°
ĠÐ¿Ð¾Ð²Ðµ Ð»Ð¸
Ð´ Ð¸ÑĤÑĬ
ĠÐ½ Ð¾Ð²Ñ£
Ð³ Ð¾Ð´Ð°
ÑģÐµ Ñİ
ĠÐļ Ð¾ÑĤ
ĠÐ´Ñ£ Ð»Ð¾Ð¼ÑĬ
ĠÐºÐ¾Ð½ Ñ§
Ð± Ð»Ðµ
ĠÑģÑĬ Ðº
ĠÑĤÐ¾ Ñİ
ĠÐ´Ñ£ ÑĤÑĮ
ĠÑģÐ²Ð¾Ð¸ Ð¼Ð°
ÑģÑĤÑĥ Ð¿
ÐºÑĮ Ñĸ
ĠÐ¿ÐµÑĩÐ° Ð»ÑĮ
ÑĪÑĤ Ð¾Ñĥ
ĠÐ¿ ÑĪÐµ
ÑģÑĤ Ð²ÑĬ
Ñı Ñħ
ĠÐ½Ð° Ð¿Ð¾
ĠÐ·Ð° ÐºÐ»Ð°Ð´
ÑĤÐ° Ñı
ĠÐ¡ Ð»
ĠÑģÑĤÐ° Ð²Ð¸ÑĤÐ¸
ÑħÐ¾Ð´ Ñ§
ĠÐ¸Ñģ ÑĨÑ£
ĠÑĢÑĭ Ð±
ĠÐ¼Ð°Ð½Ð°ÑģÑĤÑĭ ÑĢÑĮ
Ð³ Ð½Ð¸
ĠÐ¾ ÐºÐ°
Ð²Ñ£ Ðµ
ĠÑĸ Ñģ
ĠÐķ Ð³Ð¾
ĠÐ²ÑģÑ§Ðº Ñ¹Ñİ
ĠÐ¿ÑĢÐ¾Ð¼ ÑĭÑģÐ»
Ñĥ ÑģÑĤÐ¸
Ñı Ð¼
ĠÐ½Ð° ÑĢÑ§
Ð²Ð° ÐµÑĤÑĮ
ĠÐ¾ÑĤ Ð²Ðµ
ÑīÐ¸ Ð¸
ĠÐĳ Ð¾Ð»
ĠÐ¾Ð± ÑĢÑı
ĠÐ¸Ñģ ÑĨ
ĠÐ´Ð¸ Ñı
ĠÐ´Ð¾ ÑģÑĤÐ°
ĠÐºÐ½Ñı Ð¶Ðµ
ĠÐ³ÑĢÐ¸Ð² Ð½Ð¸
Ñĳ ÑĤ
ĠÑģÐµÑĢ Ð³
ĠÐ¿ Ð¾Ð¹
Ð¾Ð´ Ðµ
ĠÐ¿Ð¸ ÑĤÑĮÐµ
ĠÐ±Ð¾Ð³ Ð¾ÑĢÐ¾Ð´Ð¸
ĠÐ½Ð°Ð´ Ð¾Ð±
ĠÐ·Ð°Ð¿Ð° Ñģ
Ð»Ð¾Ñģ Ñı
ĠÐ±Ð»Ð°Ð³ Ð¾Ð´Ñ£
ĠÐ¿Ð¾Ð¼Ñĭ ÑģÐ»Ð¸
ĠÑģ êĻĭÐ´
ĠÑģÑĥ Ð´Ð¸
ĠÐ·Ð°Ð¿ Ð»Ð°ÑĤÐ¸
Ð» Ð¼Ð°
ÑĨ Ñ¹
ĠÐ° Ð»ÐµÑ¯
ĠÐ¶Ð¸ Ð»Ð¸
ĠÑĤÐ¾Ð¼ êĻĭ
ĠÐºÐ½Ñ§ Ð·Ð¸
Ð½ ÑĨÐ°
ĠÐ½Ðµ ÑĩÐµÑģÑĤÐ¸
ÑģÐ» Ñĭ
Ð¾Ð²Ñĭ Ð¼ÑĬ
ĠÐ¸Ð¼Ð° ÑĪÐ¸
ĠÑģÑĤÐ¾ Ñ§
ĠÑģ ÐµÐ»Ðµ
Ð½Ð¸ Ð¼
ĠÑģÐ¸ Ñİ
ĠÑģÐ²Ñ£ ÑĤÐ¸
ĠÐĵÐ¾ÑģÐ¿ Ð¾Ð´Ð¸
ĠÐ° Ð±ÑĸÐµ
ÑģÐº êĻĳÐ¸
Ð¼Ñ£ ÑħÑĬ
ĠÐ¶Ð¸ Ð·Ð½ÑĮ
Ð±Ð° Ð²
ĠÐ´Ð²Ð¾ÑĢ Ðµ
ĠÑĩÑĤÐ¾Ð± ÑĬ
ĠÐ ®
Ð½ ÐµÐ½ÑĬ
ÑģÑĤ Ð¾Ð¼ÑĬ
ĠÐ½Ðµ Ð´Ñ£
Ð²Ðµ ÑģÐµÐ»Ð¸
ĠÐ¿Ð¾Ð´ Ð»Ð¸Ð½
ÐµÐ»Ðµ Ð¸
ĠÐ´Ð°Ð²Ñĸ Ð´ÑĬ
ĠÐŁÐ¸ ÑģÐ°
ĠÐ¿ ÑıÑĤ
Ñĩ Ñı
Ð½Ð¸ ÑĤÑĬ
ÐºÐ° Ð²
ĠÐ²ÐµÐ»Ð¸ ÐºÐ¾Ðµ
ĠÑģÑĭ Ð½Ñĥ
ĠÐ±êĻĳ Ñģ
ĠÑģÐµÑĢÐµÐ± ÑĢÐ¾
ĠÑģÑĤ Ð¾ÑĢÐ¸
ĠÑ¡ Ðº
ĠÑĤÐ¾ Ñı
ĠÐ¿Ð¾Ð¼ Ñ£
ĠÑģÐ¾Ð± Ð°
ĠÑĤÐ² Ð¾Ð¹
Ñģ Ð»Ñ£
ĠÑĤ Ñ¡
ÑĪ Ñ¹
Ñħ Ð¶Ðµ
ĠÐ²Ñģ ÐµÐ´
ÐºÐ¸ ÐµÐ²
ĠÐ´Ð¾Ð¼ Ñĭ
ĠÐ»ÑİÐ± Ð¾Ð²Ð¸Ñİ
ÑĪÐµÐ½ÑĮ ÐºÐ¾
ĠÐĶÐ¾Ð±ÑĢÑĭÐ½Ñİ ÑĪÐºÐ°
ÑĪ ÐµÑĤÑĮ
ĠÐ²ÑĮ ÑģÐ¸
ĠÐ±ÑĢÐ°ÑĤ ÑĸÐµ
ĠÐ¼Ð¾Ð¶Ðµ ÑĤÑĮ
ĠÐ¿Ð¾Ð¼Ð¸ Ð»Ð¾Ð²Ð°
Ðº Ð¾Ð²Ð¾
Ñĩ Ð½Ð¾Ðµ
ĠÐ¿ÑĢ ÑĸÑ§
ÑĩÐ¸ Ð¼
ÑĩÐ° Ð´
ĠÐĵ Ð¾
ĠÐ¿ ÑģÐ°
ĠÐ¿ Ð¾Ð²Ñĭ
ÑĪÐ¸ ÑĤÑĮ
ĠÐĶ Ð¾
ĠÑģÑĤÐ° Ð²
ĠÐ¿ÑĢÐ¿ Ð´Ð±
ĠÑģ Ñİ
ĠÐ¸Ñģ ÑĨÑĥ
ĠÐ³ÑĢÐ¸Ð² ÐµÐ½ÑĬ
ĠÐ¿Ð¾Ð± Ð¸
ĠÐ³Ð¾Ð´ ÑĬ
ĠÐºêĻĭ Ð¿
ĠÐ¾ÑĤÐ¿Ñĥ ÑģÑĤÐ¸
ĠÐŁ Ð¾Ð¼
Ð±Ð¸ Ðµ
Ð¾Ð²Ð¸ ÑĩÑİ
ĠÐ²ÑĮ ÑģÑĮ
ĠÑİ Ð¶Ðµ
Ð¾ÑģÐ»Ð° Ð²ÑĬ
ĠÐ²Ñ£ÑĢ Ð¾Ð²Ð°
ÑĢÐ° Ð¼Ð¸
êĻĭ Ñİ
ĠÐ¿ÑĢÐµ ÑģÑĤÐ°
ĠÑĩÐ¸ ÑģÐ»Ð¾
ĠÐĽ Ñĥ
Ñģ Ð°ÑĢ
ĠÐ¸ Ð³
êĻĭ Ð´Ð¸
Ñī Ð¾Ñĥ
ÐºÐ° ÑĤÐ¸
ĠÐ¾Ð± Ð¾ÑĢ
Ð»ÐµÐ½ Ñĭ
Ð´Ñ§ ÑĤÑĮ
ĠÐ´Ñĥ Ð±
ĠÐ¼ÐµÑĢ ÑĤ
ÑĢ ÑĤÐ¸
ÑĢ ÐµÐ¼ÑĬ
ĠÐ´ Ð²ÐµÑĢ
ĠÐ¾Ñĥ ÑĩÐµ
ÑĪÐ¸ ÑģÑı
Ð¾Ð· ÐµÐ¼
ĠÑģÐ» ÑĭÑĪ
ĠÐ²Ñ£ ÑĢÑĭ
ĠÐ¼Ð¾Ð» ÑĩÐ°
ĠÐ¼ÑĮ Ð½ÑĮ
ĠÐ³Ð½Ñ£ Ð²Ð°
ĠÐ±Ð°ÑĤ Ñİ
ĠÑ¡ Ð¶Ðµ
ĠÐ²Ð¾ Ðµ
ĠÐ¾ÑĤ Ð¿Ð¸
ĠÐ±Ð»Ð° Ð¶ÐµÐ½
ĠÐ¿Ð¾ÑģÐ»Ð° ÑĪÐ°
ĠÑģÐµÐ¼ ÐµÐ½
Ðº Ð¾Ð²Ð¸
ÑĩÐ¸ Ðµ
ĠÑĤÐ°ÐºÐ¾ Ðµ
ĠÐ½Ð°Ð´ Ð¾Ð±Ðµ
ĠÐ¿Ð¾Ð¼Ð¸ Ð½Ð°
ĠÐ± ÑıÑĪÐµ
ÐºÑĥ Ð¿
ĠÑģÐ²Ð¾Ðµ Ñ§
Ð¿ÑĢ Ð¾ÑģÐ¸
ĠÐ±Ñ« Ð´ÐµÑĤÑĬ
Ð³ Ð¾Ð¼
Ñī Ñ«
êĻģ Ð´Ð°
Ð²Ð¾Ð» ÑĬ
ĠÐ§ Ñĥ
ĠÑĤÐ¾ÑĢ Ð³Ñ¹
ĠÑģ Ñµ
Ð¿ Ð¾Ð²Ñ£
ĠÐ¿Ð¾ ÑĨ
ĠÐ¿ÑĢÐµ Ð´Ñ£
ĠÐ³ÑĢÐ¸Ð² ÐµÐ½Ðµ
ĠÐ¾Ð±Ñĭ ÑģÐº
ĠÐ²Ð½Ð¸ Ð´Ðµ
Ð² ÑĪÐ°Ð³Ð¾
ĠÐ² Ð¾ÑĢÐ¾ÑĤÐ¸
ĠÐ¿ÑĢ Ñĩ
ĠÐ¼Ðµ ÑģÑı
ĠÐ±Ð»Ð° Ð³Ð°
ĠÐ±Ð¾ÑĢÐ¸ Ñģ
ĠÐ½Ð¸ÐºÐ° ÐºÐ¾Ð¶Ðµ
ĠÐ²Ð°ÑĪÐ¸ ÑħÑĬ
Ñ¡ ÑĤ
ĠÐ²Ð¸ Ð½Ð¾
Ð¼Ðµ ÑĪÐ¸
ĠÐ¸Ñħ ÑĮ
ĠÐ³Ñİ ÑĢÑĮ
ĠÐŁÐ¾Ð½Ðµ Ð¶Ðµ
Ð´Ð¸ Ð»
ÑĤÐ² êĻĭ
ĠÐ¼Ð¾Ð¶Ðµ ÑĤ
ĠÑģÐ¿Ð° ÑģÐµ
ÑģÑĤÑ¹ Ð¿
Ð· Ñİ
Ñĩ ÐµÐ¼
Ð²Ð¾ Ñ¥
Ð¶ Ñ¹
ĠÐ¿ÑĢÐ¸ ÑĪÐµ
Ð´Ð¸ Ð»Ð¸
ĠÐ¶ Ñ§
ĠÐ¿ÑĢÐµ Ð¿Ð¾Ð´Ð¾Ð±
ĠÐ±Ð¾Ð» Ð³Ð°ÑĢÐ¸
ĠÐºÑĢ Ð¾Ð²Ð¸
Ð²ÑĢÐ° ÑīÐ°
ĠÐ¿Ð¾Ð± Ðµ
ÐºÐ¾Ð½ ÑĮ
ĠÐ²Ð¾ÑĢ Ð¾Ð²
ĠÐ²Ð°ÑĪÐµ Ð³Ð¾
ĠÐ¿ÑĢÐ¾Ð¿ Ð¾Ð²Ñ£Ð´Ð°
Ñ§ ÑģÑ§
ĠÐ¿Ð¾ Ð¾Ñĥ
ĠÐ» Ð¶Ð¸
ĠÐ¿Ð¾Ð» ÑĤÐ¸Ð½Ð°
ÑĤÑĭ Ñħ
ĠÐ¸ÑģÐ¿ Ð¾Ð²Ñ£Ð´Ð°
Ð»Ð¾Ñģ ÑĮ
ĠÐ²Ð·Ñı Ð»
ĠÐ¿ÑĢÐ¸ÐºÐ° Ð·ÑĬ
ĠÐ½Ð°Ð¿ÑĢÐ° ÑģÐ½Ð¾
ÑĤ Ð¾Ðº
êĻ ĥ
ĠÐ¾ Ð±Ð¾
êĻģ êĻĳ
ĠÑģÐ»Ñ¹ Ð³ÑĬ
ĠÐ³ÑİÑĢ Ð³
ĠÐ ħ
Ñı ÑīÐµ
Ð¾Ð² Ñ¹
ÑĪÐ¸ Ð½Ð°
Ð²Ñ£ ÑģÑĤ
ĠÐ²ÑģÑ£ Ð¼
ĠÑģÑĤÐ¾ Ð¸
ĠÐ³Ð¾ÑĢÐ¾Ð´ Ð¾Ð²
ĠÐ·Ð°Ð¿ Ð¾Ð²Ðµ
ĠÑĢÐ¾Ñĥ ÑģÐ¸
Ð» ÐµÑĤÑĬ
ÐºÐ° Ð³Ð¾
Ð¼Ð¸ ÑĢÐ¸
Ð»Ðµ Ð²Ð°
Ð»Ñİ Ð±Ð¸
ĠÐ¿Ð¾Ðº Ð¾
ĠÐ±Ð¾Ð» Ñ§
ÐµÐ½Ñĭ Ñħ
ĠÐ½Ð°ÑĪÐ¸ Ð¼
ĠÑħÑĢÐ¸ÑģÑĤÐ¸ ÑıÐ½
Ñĸ ÑĶ
ĠÑģÐ» ÑĮ
ÑģÐ¿ Ð¾Ð»
ĠÐ½Ñ£ ÑĤÑĬ
ĠÑģÑ£ Ð¼Ñ§
ĠÐ½Ð°ÑĪÐ¸ Ð¼ÑĬ
ĠÐ² Ð½Ñĥ
ĠÐŁ Ð¾Ð¿
Ð½Ñĥ Ð»
ÑĢÐ¾ ÑĪÐ°
ĠÐ¿Ð¾Ðº Ð¾ÑĢ
ĠÐ¿Ð¾ÑĤ ÑĢÐµ
ĠÑĢÑĥÐ± Ð»ÐµÐ²ÑĬ
ĠÑĩÐµÐ»Ð¾Ð²Ðµ ÐºÑĥ
ĠÐ¿Ð¾ÐºÐ° êĻģÐ°
ĠÑģÐ»Ð¾Ð²Ðµ ÑģÑĬ
ĠÑģÑĤÐ° Ð½ÐµÑĤ
ĠÐ¿Ð¾ÑĤ Ð¾Ð¼ÑĬ
ĠÑĤÑĢ Ð¾Ñĥ
ĠÐ¿Ð¾ÑĪ ÐµÐ»
ĠÐ¿Ð¾ÑģÑĬ Ð»Ð°
Ð» êĻ¿
êĻģ Ðµ
Ð°Ðº ÑĬ
ĠÐ²Ñ£ ÑĢÐ°
ĠÐ¿Ð¸ Ð²
ĠÐĽ Ñİ
ĠÐ´ÐµÑģÑ§ ÑĤÐµ
Ðµ Ð²Ñĥ
ÐºÐ¸ Ð¼ÑĬ
ĠÑģÐ° Ð¼ÑĮ
ĠÐ²Ð° Ð²
Ð·Ð° Ð½
ĠêĻ ħ
ĠÐĶÐ° Ð½Ð¸
ÑĤÑĭ Ðµ
ĠÐ½Ð¸Ñħ Ð¶Ðµ
ĠÑĢÐ¾Ð´ ÑĬ
ĠÑĸÑ¡ Ð°
ĠÐ¿Ð°ÐºÐ¾ ÑģÑĤÐ¸
Ï ģ
ĠÐ¿ Ð¾Ð²Ð°
Ð¾ÑĢ Ð¾Ð´
ĠÐ¼Ð¸ ÐºÐ¸
ĠÐ¸Ð· Ð¾
ĠÐ²ÐµÐ» ÐµÐ½Ð¾
ĠÐ²ÑģÐµÐ¼ Ð¸
Ð´ÐµÑģÑı ÑĤ
ÐµÐ» Ñĭ
ĠÐ¿ÑĢÐ¸ Ð·
ĠÐĿ ÑĮ
Ð»Ñĥ Ð¸
ĠÐ±Ð¸ Ð»ÑĬ
ĠÐ¿ÑĢÑĸ ÐµÐ¼
ĠÐºÑĢÑ£Ð¿ ÐºÐ¾
ĠÐ´ÐµÐ½Ðµ Ð³ÑĬ
Ñģ Ñĸ
ĠÐº Ð°ÑĢ
Ð°ÑĢ Ñİ
ĠÐ²Ðµ Ñĩ
Ð»ÑĮ Ðº
ĠÑģÐ° Ð¿
ÑħÐ¾Ð´ Ð¸ÑĤ
Ñģ Ñİ
Ð³Ð¾ Ðµ
ĠÐ·Ð° Ð±
Ð´Ðµ Ð»Ð¸
ÑĪÐ¸ Ð¼
ÑģÐº Ñ«
Ð¾Ð´Ð¸ ÑĤÐ¸
ĠÐ¼Ð½ Ð¾Ð¶ÑĮ
ĠÐ¶Ð¸ Ð²ÑĬ
ĠÑģÐ¾Ð± Ð»Ñİ
ĠÐ½Ð°ÑĪ ÐµÐ¼Ñĥ
ĠÐ¼ÑĬ Ð½Ñ£
ÑİÑī ÑĸÐ¸
ĠÑħÐ¾Ñī ÐµÑĤÑĮ
ÑģÑĤÐ²Ð¸ Ðµ
ĠÐ¾ÑĤÐµ ÑĨÑĬ
ĠÐ½ÐµÐ¶Ðµ Ð»Ð¸
ĠÐĵÐ»Ð° Ð³Ð¾Ð»
ĠÐ´ ÑĸÐ°
ĠÐ± Ð¾Ð±Ñĭ
ĠÑģÐ¸ Ð»Ðµ
ĠÑģÐ° Ð¶Ðµ
ĠÑģÑĤÑĢÐ° Ð´
ĠÐ¿Ð¾Ð³Ñĥ Ð±Ð¸
ĠÐ± Ð¾Ð±
Ð¾Ð³ Ð´Ñĭ
ĠÐ´Ð° ÑĢÑĭ
ĠÑģÑĤ Ð³Ð¾
ĠÐ¿ÑĢÐ¸ ÐµÑħÐ°
ÑĸÐ¸ Ð¼ÑĬ
ĠÐ²Ñ£ ÐºÐ¸
Ð±ÑĢÐ° ÑĤÐ¸
ĠÑĩÐ° ÑģÑĤÐ¸
Ñģ ÐµÑĢ
ĠÐ¿ÑĢ Ð¾Ð»Ð¸
ĠêĻĭ Ð±Ð¾
ĠÐ³Ð¾Ð² Ð¾ÑĢÐ¸ÑĤ
ĠÐľÑĥÑĢÐ¾Ð¼ ÐµÑĨ
ĠÑģ Ð¼ÑĮ
ÑĢÐ° Ð²ÑĬ
ĠÑĥ ÑģÑĤÐ°
ÑĹ Ð°
ĠÐ²ÑĮ ÑģÑı
ÑģÐ»Ð° Ð²Ñĥ
ĠÐ¼êĻĭ Ð¶ÑĬ
ĠÐ¾ÑĤÑĢÐ¾Ðº ÑĬ
ĠÐ¸ Ð´Ñĥ
ĠÐ¿ÑĢÐ¸ ÑĩÐ°
Ð´Ð¸ Ðµ
ĠÐ·Ð° Ð´
ĠÐ¿Ð¾Ñħ Ð²Ð°Ð»Ð¸
ĠÑģÐ¿Ð° Ñģ
ĠÐ½Ð°Ð¿ Ð¾Ð»
ĠÐ±ÑĢÐ°ÑĤÑĮÐµ Ñİ
ÑĤ Ð¾Ð³Ð¾
Ñģ Ð¾Ð¶Ðµ
Ð¼ Ð»Ñ§
ĠÐ³ êĻĭ
ĠÐ¾Ñĥ ÑĩÐ¸
ĠÑģÐ» Ð¾Ð±
ĠÑ¥ Ð¼Ð¾Ñĥ
Ð²Ðµ Ñģ
Ð±Ðµ Ð¶Ð°
ĠÑģÑĤÑĢÐ° ÑħÑĬ
ĠÐ´Ñ£Ð»Ð° ÑĤÐ¸
ĠÐ¿Ñ£ Ñģ
ĠÑħÐ¾Ñī ÐµÑĤ
ĠÐ¸Ð·Ñ§ ÑģÐ»Ð°Ð²ÑĬ
Ð» ÐµÑĤÐµ
ĠÐ· Ð¼Ðµ
Ð²Ð° Ð¹
ÑĦ ÑĮ
Ð·Ð¸ ÑĢÐ°
ĠÑĩÐµÐ»Ð¾Ð²Ñ£ ÑĩÐµ
ĠÐºÐ°Ð±Ð° Ð»
ĠÐ¿ÑĢÐ¾ÑģÐ»Ð° Ð²Ð¸
ĠÐ¼Ð¾Ð»Ðµ Ð±
ĠÐ¼ ÑĢÐ°
Ð½Ñ£ Ðµ
ĠÐ¾Ð± ÑĮ
ĠÑĢÑĥ ÑģÐ¸
ĠÑĢÐ°Ð· Ð´Ñ£
ĠÐ³ÑĢÑ£ ÑħÐ¸
ĠÐ³Ð¾Ð» Ð¾Ð²Ð°
ĠÐ³Ð¾ÑģÐ¿Ð¾Ð´ ÑģÑĤÐ²Ð°
ĠÐ¼Ð½Ð¾Ð³Ð¸ Ñħ
Ð² êĻĳÐ¸
ĠÐ´Ð° ÑĪÐ°
ĠÐ²Ð¾Ð· ÑĮ
ĠÑĩÑİ Ð´Ð¾
ĠÐ¼Ð½Ð¾Ð³Ð¸ Ð¼Ð¸
ĠÐ ©
ÑĤ ÑĸÐµ
ĠÐ¼ ÑĢ
Ð²Ð¸ ÑĨÐ°
ĠÑģÐµ Ð»Ð¸
ÑĶ Ð½ÑĸÑ§
ÑĪÑĤÐ¸ Ð¸
Ġ1 2
ĠÐ´ÐµÑĢÐµÐ² Ð½Ð¸
ĠÐ²ÐµÐ»Ñ£ Ð»ÑĬ
ĠÐ¿ Ð¸ÑĤÐ°
Ñħ Ð¾Ð¶Ð´Ð°
Ð¾Ð½ Ñ§
ĠÐ²Ñģ ÐµÐ»ÐµÐ½
ĠÐºÐ° Ð»Ð¸
ĠÑģÑĤÐ° Ð»Ð¾
ĠÐ´ÑĢÑĥ Ð³Ð¸
ĠÑĤÐ²Ð¾Ðµ Ñ§
ÑĢÐ¾Ðº Ð°
ĠÐ¼Ð» ÑĤ
ĠÑ¡Ð± Ð»Ð°
ĠÐ¾Ð±ÑĢÐ° Ð·
Ð» ÐºÐ¾
ĠÐ¿ÑĢÐ¸ Ð»Ñ£
ĠÑĥ Ð»Ð¸
ĠÑĥ ÑĩÐµ
ĠÐ±Ð¾ Ð¸
ĠÐ¶Ð¸ Ð´
ĠÑĤÐ°Ðº Ð¾Ð¶Ð´Ðµ
ĠÑĤÑ£ Ð¼
ĠÐºÐ¾ÑĤÐ¾ÑĢ Ð¾Ð³Ð¾
ĠÐ¿Ñĥ ÑģÑĤÐ¸
ĠÐ½ÐµÐ¼ Ð¶Ðµ
Ð° ÑīÐµ
ĠÐ· Ñĥ
ĠÑģÐ¸ Ð»Ñ£
ĠÐºÐ° Ð¼
ĠÐ¿Ð° ÑĤÑĢ
ĠÐ¼Ð° Ð»Ñ£
ĠÐºÑĥ Ð·
Ð² ÑĢ
ĠÑģ Ð»ÑĬ
ĠÐº Ð½Ñ£
Ð± Ñ«
Ð½Ð¸ ÐµÐ¼ÑĮ
Ð¶ Ð¸ÑĤÑĬ
ÑĦ Ð°Ð½
ĠÑģÐ²Ñ£ ÑĤÑĮ
ĠÐ¾ÑĩÐ¸ Ð¼Ð°
ÑģÑĤ Ð²ÑĮ
ĠÐºÑĢÐµ Ð¿
ĠÑģÐ»Ñĥ ÑĪÐ°
ĠÐ·Ð´Ñ£ Ð»Ð°
ÑĢ Ð¾Ð¿
ĠÐ¾ Ð´Ð¸
ÐµÐ¼ ÐµÐ½
ĠÑ¡ Ð±ÑĮ
ĠÐ½Ð¸ Ð·
ĠÐ¼Ð¾Ð¶Ðµ ÑĤÑĬ
Ð½ Ð¾Ð²ÑĬ
ĠÑĨ Ð¾
Ð´Ð¾ ÑģÑĤÐ°
ĠÑĪ Ñİ
ĠÑģÑĤÐ°ÑĢ ÑĨÐ°
ĠÐ´Ð¾Ð±ÑĢÑĭ Ðµ
ĠÑĨÐµÑĢ ÐºÐ¾Ð²ÑĮ
Ðµ ÑĪ
Ð» ÐµÑĤÑĮ
ĠÑģ Ð¼ÐµÐ½
ĠÐº Ð´ÑĮ
Ñī ÐµÑĤÑĮ
ĠÐµ ÑĢÐµ
Ð¶ Ð¾
ÐºÐ¸ ÑħÑĬ
Ð´Ñ£ Ð»Ð°
ĠÑı Ð²Ð¸
ĠÐ²ÑģÐµ ÑħÑĬ
ĠÑģÐµÐ¼ Ð¾Ñĥ
ĠêĻ© Ð²
ĠÐ¿Ð¾Ð¼Ðµ ÑģÑĤ
ĠÐ³ÑĢÐ² Ð½Ð°
ĠÐ´ÑĮÑģÑ§ ÑĤÑĮ
Ð¼Ð¾ Ðµ
Ð¸Ð¼ Ð°ÑĢ
ĠÑħÐ»Ñ£ Ð±Ñĭ
ĠÐ´ÑĢêĻĭ Ð³
ÑģÑĤêĻĭ Ð¿
ĠÐ´ÑĢÑĥÐ¶Ð¸ Ð½Ð°
ĠÐ¿Ð°Ð² Ð»Ð°
ĠÐ¶ÐµÑĢÐµ Ð±Ðµ
ĠÐ½ Ð¾ÑģÐ¸
Ñĩ ÐµÑĤÑĬ
Ð½Ð¸ ÑĩÑĮ
ĠÐ´Ð° Ð»Ð¸
ĠÐ½Ð¸ Ð¶
ĠÐ¾Ñĥ Ð±Ð¸
ĠÐĴ Ð¾Ð»ÑĮ
ĠÑģÑĤÑĢÐ° Ð½
ĠÐĽ Ñ£
Ð¾ ÑĤÐ¸
Ð½ Ð´Ñĥ
Ðº Ð¾ÑĢÐ¸
ĠÐ» ÐµÑĤÐ°
ĠÐ´Ð° ÑģÑĤ
Ð´Ð¸ ÑĪÐ¸
ĠÑĩÐ° ÑģÑĤÐ¾
ĠÑģÐ¼ Ð¾Ð»ÑĮ
ĠÑģÑĤÐ¾ Ð¸ÑĤ
ĠÐ´Ð°Ð»Ðµ ÑĩÐµ
ĠÑģÑĤÑ§ Ð¶Ð°
ĠÐ¼Ð°ÐºÐµÐ´ Ð¾Ð½
ĠÑģ ÐµÐ¼Ñĥ
ÑĪÐ° Ð²ÑĬ
ĠÐ¿Ð¾Ñģ Ñĥ
ĠÐ¿Ð° Ñģ
ĠÐ¿Ð¾Ðº Ð¾Ð¸
ĠÐ³Ð»Ð° Ñģ
ĠÑģÐ² Ñ§ÑĤ
ĠÐ¿Ð¾Ð³ ÑĢÐµÐ±
ĠÐ¾Ð¿ ÑĢÐ¸ÑĩÑĮ
ĠÐµÑģÑĤ Ð²Ñĭ
Ð´ ÐµÐ»
ÑģÑĤ ÑĸÐ¸
Ð½Ñ§ ÑĤÐ¸
ÑģÐ» Ð¾Ð²
ÐµÐ½ÑĮ Ñı
ĠÐ²ÑĮ Ð·
ĠÐ¿ÑĢÐ° Ð²Ð¸ÑĤÐ¸
ĠÑĤÐ¾Ð¼ Ð¾
ĠÐ¼Ð¾Ñģ ÐºÐ²Ðµ
ĠÐºÐ»ÑİÑĩ Ð½Ð¸ÐºÑ¹
ĠÐ±ÐµÐ·Ð· Ð°ÐºÐ¾Ð½
ÑĤ ÐºÐ¾
ĠÐ¾ ÑĢÑĥ
ĠÐ¿ÑĢ Ð²
ĠÐ° Ð½Ð´ÑĢÑ£
ĠÐµ ÑģÑĤÐ²Ñ¹
ĠÐ¾Ñĥ Ñģ
Ð¶Ð° ÑĪÐµ
Ð¾Ð»Ð¸ ÐºÐ¾
ĠÑĩÐµ ÑĤÐ¸
ĠÐ´ÑĢÑĥ Ð³ÑĬ
ÑĪ ÐµÐ»
ÐµÐ½ ÑĸÑ§
ĠÐ´Ð° Ð¼ÑĬ
ĠÐ¯ ÐºÐ¾Ð¶Ðµ
ĠÑĢêĻĭ ÐºÐ¸
ĠÐ¸ Ð»ÑĮ
Ñ¡ Ð¼
ĠÐ±Ñĭ Ð²ÑĪÐµ
ÑĩÐ¸ Ð½Ñĭ
ĠÑģÐ° êĻĭ
ĠÐ³Ð¾ÑĢÐ¾Ð´ Ñĥ
ĠÐ±Ñĥ Ð¹
ĠÑģÐ¾ÑĤÐ²Ð¾ÑĢÐ¸ ÑĪÐ°
Ð½Ð¾Ð³ ÑĢÐ°
ĠÐ¼Ñ¡Ñµ ÑģÐµÐ¸
Ñ£ ÑħÑĬ
Ñī Ñĭ
ĠÐ²ÑĬ Ð¿
Ð´Ð¸ Ð¼ÑĬ
êĻĳ ÑĪ
ĠêĻĹ Ð²Ð¸
Ð¶Ð¸ Ðµ
ÑģÐºÐ° ÑĤÐ¸
ĠÑģÑĤÐ° Ð½Ð¸
ĠÐºÐ¾ÑĤÐ¾ÑĢ ÑĭÐ¼
ĠÐ²ÑģÐµÐ²Ð¾Ð» Ð¾Ð´ÑĬ
ĠÐ´Ð¾Ð¼Ð¾ ÑĩÐ°Ð´
ĠÑ ĳ
Ñĩ Ð½
Ð»Ð° Ð°
Ð½Ðµ ÑĨÑĮ
ĠÑģÑĬ Ð²Ñ£
ĠÐ±Ð¾ Ñ§
Ð´Ð¾ ÑħÑĬ
ĠÐ¿Ð¸ ÑīÐ°
Ð½Ð¸ Ð½ÑĬ
ĠÐµ ÑģÑĤÐ¸
ÑĢÐµ Ð´
ĠÐ¡ Ð»Ð°
ĠÐ³Ð»Ð°Ð³Ð¾Ð» Ñı
Ð¼Ñĭ Ð¸
ÑĢÐ¾Ðº ÑĬ
ĠÑĢÐ°êĻģ Ð¾ÑĥÐ¼Ñ£
ĠÐ²ÑĬÐ´Ð° Ð»Ðµ
ĠÐ¿Ð°Ð¼ Ñ§ÑĤÑĮ
ĠÑĤÐ¾Ð¿ ÐµÑĢÑĮ
ĠÐ½Ðµ Ð²
ĠÐ²Ñģ ÐµÐ¼Ñĥ
ÑīÐµ Ð½Ð¸Ðµ
ÑħÐ° Ð½
ĠÐ¼Ð° ÑģÑĤÐµÑĢ
ÑģÐ»Ð° Ð²ÑĮ
Ð¾Ð²Ñĭ ÑħÑĬ
ĠÐ²ÑĬÐ· Ð´Ð°
ĠÑģÑĤÐ¾ êĻĹ
ĠÐ²ÑĢÐ° Ð³ÑĬ
ĠÑĸÑ¡ Ð°Ð½
ĠÐ¡Ñĭ Ð½Ñĥ
ĠÐ´ Ð¾Ð¶
ĠÐ´Ñ£ Ð¸
ĠÐ»Ñ£ Ð¿Ð¾
ĠÑģÐµÐ¼ Ð¾
ĠÐ´ ÑħÐ°
ĠÐ½Ð° ÑģÑĤÐ¾
ĠÑģÐ²Ð¾ ÐµÐ¼ÑĮ
ĠÐ¿Ð¾ÑģÐ»Ð° Ð½
ĠÑģÐ»Ð¾Ð²Ðµ ÑģÐ¸
ĠÐ³Ð¾Ð» Ñĥ
Ð»Ð¾Ñģ ÐµÑĢ
ĠÑĢÑĭÑĨ ÐµÑĢ
ĠÐ²Ð¿ÑĢÐµ Ð´ÑĮ
ĠÐ½ÐµÐ´ÐµÐ» ÑīÐ¸
ĠÐ·Ð° Ð¿Ð¸ÑģÐ°
ÑģÐº Ð¾Ð¼êĻĭ
ĠÑģÐ° Ð¼Ðµ
Ñĳ Ð¼
ĠÐ»ÑİÐ± Ð¾Ð²
ĠÐ³Ð¾Ð´ Ñĭ
ĠÐ³Ð¾ÑģÐ¿Ð¾Ð´Ð¸ Ð½ÑĬ
ĠÐ²Ð¾Ð»Ð¾ ÑģÑĤ
00 0
ĠÐ½ÐµÐ´Ð¾ ÑģÑĤÐ¾Ð¸
ĠÑģ ÑģÑĭ
ĠÐ¾ ÐºÐ¾
Ð¾Ð» Ñĭ
Ð¾Ð» ÑİÐ±Ð¸
ĠÐµ Ñĥ
ĠÐ¶Ðµ Ð»ÐµÐ·
ĠÑı ÑĢÐ¾Ð¿Ð¾Ð»
ĠÐĳ ÐµÑĢ
ĠÐ³Ð» ÐµÑĤÑĮ
ĠÐ·Ð°Ð¿Ð¸ ÑģÑĮ
ĠÐ²ÑĮÑģÑ£ ÑħÑĬ
ĠÐ¿Ð¾ÑģÐ»Ñ¹ ÑĪÐ°
ÑģÑĤ ÑĢÐ¸
ĠÐ½Ðµ Ñı
Ñ¡ ÑģÐ¸
êĻģ Ð¾Ñĥ
ĠÐ¿Ð¾ÑģÐ»Ð° ÑĤÐ¸
ĠÐ¿ÑĢÐµÐ´ ÑĬ
ĠÐ²ÑĢÐµÐ¼ Ðµ
ĠÐ·Ð½Ð° Ð¼ÐµÐ½
ĠÐ´Ð¸ êĻĹ
ĠÑģÐ»Ð¾Ð² Ð¾Ð¼ÑĬ
ĠÐ²ÐµÐ»Ð¸ÑĩÐµ ÑģÑĤÐ²Ð¾
ÐºÐ° Ð¼Ð°
ĠÐ²Ðµ ÑīÐ¸
ĠÑĢÑĥ ÐºÐ°Ð¼Ð¸
ÑģÑĤÐµ Ð»Ð¸
ĠÐ³ÑĢ Ð¾Ð·
ĠÐ¾ Ð²Ð¾
êĻģ Ð½Ð¸
ĠÐ±Ñĭ ÑĤ
Ð²Ñĭ Ð¼
ĠÐļ Ñĥ
ĠÐ²ÑĬÐ· Ð²ÑĢÐ°ÑĤÐ¸
ĠÑĤÑ§ Ð¶
ĠÑĤÐ²Ð¾ÑĢÐ¸ ÑĪÐ¸
ÑİÑīÐ¸ ÑħÑĬ
ĠÐºÐ¾ÑĢÐ¾Ð» Ñı
---- ----
ÑģÑĤ ÑĢÐµ
ĠÑĢ Ð¾Ð´Ð°
ĠÐ· Ð»Ð¾Ð±
Ð¼Ð¸ ÑĢÑĥ
ĠÐ²ÑģÐµ Ñ§
ĠÑģÑĥ Ðº
ÑĤÐ² Ñ¹
ĠÐ»Ñ¹ ÑĩÐ¸ÑĤ
ĠÐ¿Ð¾ÑĢÑ§Ð´ Ð½Ñ§
Ð² Ð»Ðµ
Ð»Ðµ Ð²ÑĭÑħÑĬ
ĠÐ¿Ð¾Ñĩ ÑĤÐ¾
ĠÑģÐ²Ð¾ ÑĶ
ÑĪÐ¸ Ð½
ĠêĻĹ Ð·ÑĬ
ĠÐ½Ñ£ ÐºÐ¾
ĠÐµÐ´Ð¸ Ð½Ð¾Ð³Ð¾
ĠÑĨÐµÑĢ ÐºÐ¾Ð²
Ð½Ñĭ êĻĹ
ĠÐ¼Ð¾ ÐµÐ¼êĻĭ
ĠÐ¼Ðµ ÑģÑĤÐ°
ĠÐ»ÑİÐ´Ðµ ÑħÑĬ
ĠÐºÐ½Ñ§ Ð¶Ðµ
ĠÑħÑĢÐ° Ð½Ð¸ÑĤÐ¸
ĠÐĲÐ»ÐµÐºÑģÐ°Ð½Ð´ ÑĢÐµ
ĠÐ¼Ð°ÑĤÐµÑĢ ÑĮ
ĠÐ°ÑĢÑħ Ð¸Ð¼Ð°ÑĢ
Ð¿ Ð¾ÑĤ
ĠÐ¿ÑĢÐ¸ ÐµÑħÐ°Ð»
ĠÐ¼Ð¾ êĻĹ
ĠêĻģ Ñ£Ð»Ð¾
ĠÐ±ÑĮ Ñİ
ÑģÑĤÑĢÐ¾ Ð¸
ĠÐ±Ð¾Ð»ÑĮ ÑĪ
ĠÐ¤ Ð¸Ð»Ð¸
ĠÐ´ÐµÐ»Ðµ Ñħ
Ð³Ð¾Ð²Ð° ÑĢÐ¸
Ð½Ð¾Ð¿ Ð»ÐµÐ¼
ĠÐ½Ð° ÑģÑĭ
ĠÐ¿ÑĢ ÐµÑĤ
Ð½Ð¸ ÑĨÑĮ
Ð¹ ÑģÑı
ĠÐ²Ñ£ Ð´Ñ£
ĠÑĩÐ° ÑģÑĬ
ĠÐ³ÑĢÐ¸Ð² ÐµÐ½Ð¾
ĠÐ¿Ð¾Ð¸ Ð´Ð¸
ĠÑģÑĤÐ¾ÑĢ Ð¾Ð½
ĠÐ´ÑĢÐµ Ð²Ð¾
ĠÐºÐ¾Ð½Ñİ ÑĪ
ĠÑĤÑİÑĢ Ð¼Ñĥ
i Ð°
Ð¼ ÑĢÑĮ
ĠÐ¶Ðµ Ð»
ĠÐ¿ÑĢÐ¸ Ð²Ð¾Ð´
Ð°Ðº Ð¾Ð½Ð¸
ÑĩÐµ Ñİ
ĠÐ³Ð¾ÑĢ Ð¾Ð´Ð¸
ĠÑıÐ·Ñĭ ÐºÑĬ
ĠÐ¿ÑĤÐ¸ ÑĨÐ°
ĠÐ¸ Ð³Ð¾ÑĢ
ĠÐ¿ Ð¾Ð¶Ðµ
ĠÐ³Ð¾ÑĢ Ð¾
ĠÐ³Ð»Ð° Ð²Ð°
ĠÐ±ÑĢÐ°ÑĤ ÑĸÐ¸
ĠÐ¾Ñģ Ð¼Ð¸
ĠÐ¿ÑĢÐ¸Ð²Ðµ Ð·
ĠÐĶÑĢÑĥ Ð¶
ÑĢ Ð¾Ð¼ÑĬ
ĠÐ¼ Ð¾Ð³Ð¸
Ð¿ ÐµÑĤ
Ñ¥ Ð¼
ĠÐ¸Ð· Ð²Ð¾Ð»Ð¸
ĠÐ´Ð²Ð¾ÑĢ Ñı
ĠÐ¿Ð¾Ð´Ð¾Ð±Ð° ÐµÑĤÑĬ
ĠÐ²ÑģÑ§ÐºÐ¸ Ð¼ÑĬ
ĠÑĪÐµÐ´ ÑĬ
ĠÐº ÑĢÐ¾
Ð²Ð° ÐµÑĤÑĬ
ĠÑģÐ²Ð¾ êĻĹ
ĠÑĨ Ðµ
Ð»Ðµ ÑĪÐ¸
ĠÐ²Ñ£ ÑĢÑ¹
ĠÑģÑĥ Ð´Ð¸ÑĤÐ¸
ÑİÑĤ ÑģÑ§
ĠÐ²ÑģÑ§ÐºÐ¸ ÑħÑĬ
Ð¼ ÑĢÐµ
Ñ§ Ð»Ð¸
ÑĪ Ñĭ
Ð± Ð¾Ð¶
Ð¶ Ð»Ð¸
Ð´Ð¸ Ð»ÑĬ
ĠÐŁ Ð¾Ð²
ĠÐ±Ð¾ êĻĹ
ĠÐ²Ð¸ Ð´Ñı
ĠÐ¶Ð¸ Ð²ÐµÑĤ
ÑģÑĭ Ð²Ð°ÑĤÐ¸
ĠÐ¼ÐµÐ½ ÑĶ
Ð»êĻĭ Ð¸
ĠÐ±Ð»Ð°Ð³ Ð¾Ð²Ñ£
Ð° Ð°
Ð° Ð¸
ĠÑģ ÑĸÑİ
ĠÐ¸ ÑĤ
ÑģÑĤ Ð¸ÑĤ
ĠÐ½Ð° ÑģÐ»Ð°
Ñ¥ Ð¼ÑĮ
ĠÑ¹ Ð¶Ðµ
ĠÐľ Ð½
Ð±Ð° Ð¼Ð¸
ĠÑķ Ð»Ð°
ĠÐ¿Ð¸ÑģÐ° Ð»
ĠÐ½Ð¸Ðº ÑĤÐ¾
ÐºÐ¾Ð» Ð¾
ĠÐĿÐ¸ ÐºÐ¸ÑĤÐ¸
Ð² Ð¾Ð²Ð°
ĠÑĤ ÐµÐ¼ÑĬ
ĠÐ¾ Ð´Ð¸Ð½
Ñĩ Ð½ÑĭÐµ
ĠÐ½Ðµ Ð¼Ñ¹
ĠÐ´Ð° Ð»Ð°
ĠÑħ ÑĢÐµ
ÑģÑĤÐ° ÑģÑĮ
ĠÐ¼Ð¸ ÑĢÑĮ
ÑĤÑ£ Ð¸
ĠÐ±Ñ¹ Ð´ÐµÑĤÑĮ
ÑİÑīÐ° Ð³Ð¾
ĠÐ½Ð°ÑģÐ»Ñ£ Ð´
ĠÐĶÑĢÑĥÐ¶ Ð½ÐµÐ²
Ð¸ Ð½
Ð´Ð° Ð½Ð°
ÑĩÐ° ÑĤÐ°
ÑīÐ¸ ÐºÐ¸
ĠÐĸ Ð¸
ÐºÑĢÐµ ÑģÑĤÑĬ
ĠÐ´ÑĢÑĬ Ð¶Ð°
Ð´ ÑĢÐµ
ÑĪ ÐµÐ¼ÑĬ
ĠÑĩ êĻĭ
Ð´Ð° Ð¸
ĠÑħ Ñĥ
Ð»Ñ£ Ð´ÑĬ
ĠÐ²Ñ£ ÑĢÑ£
ĠÐ¿ÑĢÐ¾ ÑĩÑĮ
ĠÐ´Ð¾ Ñĩ
Ñ³ Ðµ
ÑħÐ¾Ð´ Ñı
ĠÐ³Ð¾Ð» Ð¾Ð²Ñĭ
ĠÑĤÐ²Ð¾ÑĢÐ¸ ÑĤÑĮ
ĠÐ¿êĻĭ ÑĤÑĮ
ĠÐ»Ð¾ÑĪÐ° Ð´Ð¸
ĠÐº Ñĸ
Ð»Ð¸ Ð¼Ñ£
Ñĸ Ð¼ÑĬ
ÐºÐ° êĻģÐ°
ĠÐ¿ÑĢÐ¸ Ð±Ñĭ
ĠÐļ Ð½ÑıÐ·ÑĮ
êĻ¿ Ð¶Ðµ
ĠÐ¿ÐµÑĢ Ð²Ð¾Ðµ
ĠÐºÑĢÐµ ÑģÑĤÐ¸
Ð¾ÑģÐ»Ð° Ð²Ð°
ĠÐ¼êĻĭ Ð¶Ð°
Ð½Ð¸ Ð¹
ĠÐ° Ð³
ĠÐĲ ÑĢ
ĠÑĥ ÑĤÐµ
êĻģ Ñ¹
ĠÐ¿ÑĢÐ¾ ÑĩÐ¸
ĠÐºÐ½Ñı Ð·Ð¸
ĠÐ²Ð· ÐµÐ¼
Ð´ÐµÑģÑ§ ÑĤÑĬ
ĠÐ³Ñĥ Ð±
ĠÐķÑĢÑĥÑģÐ» Ð¾Ð½ÑĬ
Ñ§ Ð»Ð¾
ĠÐ¼ ÑĢÑĮ
ĠÑ¿ Ð¸Ð´Ðµ
ĠÑ¿ Ð¿êĻĭ
ĠÑģÑĤÐ° ÑĤÐ¸
Ð¼Ð¾ÑĤ ÑĢÐ¸
ĠÑģÑĤÑĢÐ° ÑħÐ¾Ð¼ÑĬ
ÐµÐ½Ð° Ð³Ð¾
Ð²Ð°Ð½ Ð³
ĠÐ¸Ð½ Ð¾Ð·ÐµÐ¼
Ñĸ Ð°ÑĢ
ĠÐŁ Ð°Ðº
ĠÐĶ ÐµÐ²
ĠÐ³ÑĢÐ¸Ð² Ð½Ñ£
ĠÐ´Ð²Ð° ÑĤÑĨÐ°
Ð³Ð»Ð° Ð³Ð¾Ð»
ĠÐ¿Ð¾Ð´Ð¾Ð± Ð½Ð¾
Â Ń
Ð° Ñı
êĻĳ ÑģÐ»Ð¸
ĠÐ¾ÑĤ ÑĨÑĥ
ĠÐ¿Ð° Ð»Ð°
ĠÐ´Ð¾Ð± ÑĢÑĬ
ĠÑĢÐ°Ð· ÑģÑ¹
ĠÐ»Ñ£ ÑĤÐµ
ĠÑģÐºÐ° Ð¶ÐµÑĤ
ĠÐĳÐ¾Ð³ Ð¾ÑĢÐ¾Ð´Ð¸
Ð³ÑµÐ¿ ÐµÑĤ
ĠÑħÑĢÑģÑĤ ÑĹÑ§
ĠÑĦÑĢÐ°Ð³Ð¼ÐµÐ½ ÑĤ
ĠÐ² Ð¿Ð°
ĠÐ´ ÐµÑĤÐ¾
ĠÐ´Ð° Ð¹
ĠÐ¶ Ð¾Ð½
ĠÐ¿Ð¾Ð» ÑĤÐ¸Ð½
ÑĩÐ° Ð»Ð¸
ĠÑ» ÑģÐ¿Ð¾Ð´Ð¸Ð½Ðµ
ĠÐ¼Ð¾Ð» Ð¾Ð²Ð¸
Ð¼Ð¾ÑĤ ÑĢ
ĠÐºÐ¾Ñĥ Ð½Ðµ
ĠÐ¿ÑĢÑĸÐ¸ Ð´Ð¾ÑĪÐ°
ĠÐ³ÑĢÐ¸Ð²ÑĮ Ð½Ð¾Ñĥ
ĠÐłÐ° Ð·
Ġ Òĩ
Ð½ Ð½Ð¾
Ð¾Ð² Ð¾Ð¹
Ñĩ ÐµÐ½ÑĸÐµ
Ð´Ð° ÑĤÑĮ
Ñ¥ ÑĪÐ¸
ÑĥÐ´ ÑĬ
ĠÐ±Ðµ Ð³
ĠÐ²Ð¾Ð· Ð²ÑĢÐ°
ĠÐ²ÐµÐ» ÐµÐ»
ĠÐ´ÐµÐ½ÑĮ Ð³Ð¸
ĠÐ¿ÑĢÐ¾Ð¼ Ñĭ
ĠÐ²Ð°Ð² Ñµ
Ð² Ð¾Ð½
Ð»Ð¸ ÐºÐ¾
Ð½Ñĭ Ñ«
ĠÐºÐ¾Ð½ ÐµÐ¹
ĠÐ¸Ð¼Ð° Ð¼ÑĬ
ĠÐ»ÑİÐ´Ð¸ Ðµ
ĠÐ²ÐµÑĢ Ñħ
ĠÑģÐ²Ñ§ ÑīÐµÐ½
ĠÑħÑĢÑģÑĤ ÑĸÑ§
Ð² ÑģÑ§
Ðº Ð¾Ð¿
ĠÐº Ñİ
ĠÐĺ ÑģÐ¿
ĠÐ¿Ð¾Ñģ Ð¿Ñ£
ĠÐ¸Ð· Ð¼Ñ£
ÑħÐ¾Ð´ Ñ§Ñī
ĠÑģÐ¼ ÑĢ
ĠÐ¿ÐµÑĢÐµ êĻĹ
ĠÑĤÐ²Ð¾ÑĢ Ð¸ÑĤÑĬ
ĠÐ´ÐµÐ½Ðµ Ð³
ĠÐ° Ð½Ð´
ĠÐ° êĻģÑĬ
ĠÐµ Ð·Ð´
Ð»Ñĭ Ð¼
Ð»Ñĥ Ñİ
ĠÐ±Ð»Ð° Ð³Ð¾Ð²
ĠÐ½Ð°ÑĪÐµ Ð¸
ĠÐ±ÐµÑģ ÑĩÐµ
ĠêĻģÐµÐ¼ Ð»
ĠÑĤÑĢÐµ Ñħ
Ð³Ð½Ñ£ Ð²Ð°
ÑĤÐ¾ÑĢÐ¾ Ðµ
ĠÐ¿ÑĢ Ð¾Ð¶
Ð½Ð¾ Ñģ
ĠÐĺ Ð½
ĠÑĥ Ð²Ð¸
ĠÐ·ÐµÐ¼ Ð»Ñ£
ĠÐ´Ð½ ÑĸÐ¸
ĠÐ¿Ð¾Ð»Ð¾ ÑĤÑĮ
ĠÐ¼Ñģ ÑĨÐ°
Ñĩ ÐµÑĤÐµ
ĠÐ° Ð²ÑĢÐ°
ÐµÑĤ ÑĨÐ°
ĠÐ²Ðµ ÑīÑĮ
Ð½Ñ§ Ñ§
ĠÐ¿ÑĢÐ¾Ð¼ ÑĭÑĪ
ĠÐ¿ÑĢÐ¸ÑĪ ÐµÐ»ÑĬ
ĠÐ´ÑĢÑĥÐ³ ÑĥÑİ
ĠÑģÐ¾Ð²Ñ£ ÑĤ
ĠÐ¿Ð¾ÑģÑĬ Ð»Ð¸
ÑĤ ÑĢÑ£
ĠÐ± Ð¶ÑĮ
ĠÐº Ð»Ñ£
Ð½Ð¸ Ð»Ð¸
ĠÐµ Ð´Ð°
Ð¶ Ð´Ð¸
ĠÐ¿ÑĢÐ¸ Ð³Ð¾Ð´
ĠÑĶ ÑģÑĤÑĮ
ĠÑĢÐµ Ð·
ĠÑģÑĭ ÑģÐºÐ¸
ĠÑĤÑ£ Ð»Ð°
ĠÑģÐ¾Ð± Ðµ
ĠÐ¿Ð¾Ð³ ÑĢÑ£
ĠÐ¿Ð¾Ð¸ Ð´Ð¾ÑĪÐ°
ĠÐ±Ð¸ Ñİ
ĠÐ³Ð° Ð²ÑĢÐ¸
ÑĩÐµÐ½ Ñ£
Ð»Ð¾Ñģ Ð¾
ĠÐ¼Ð½Ð¾Ð³Ð¸ Ðµ
ĠÐ´ÐµÑĢÐµÐ² Ð½Ñı
ĠÑģÐ¼ÐµÑĢÑĤÐ¸ Ñİ
ÑĢ Ð»
ĠÐ° ÐºÐ¾
ĠÐ¿Ð¾ Ñı
ÐµÑĢ Ð²Ð°
ĠÐ¿ÑĢÐ¸ Ð·ÑĭÐ²Ð°
ĠÑģÐ²Ð¾ Ñ«
ĠÐ¶ ÑĶ
ĠÑĤÐµ Ð±ÑĶ
ĠÐľ Ð½Ð¾Ð³Ð¾
ĠÐ´Ð²Ð¾ÑĢ ÑıÐ½
ĠÐ±Ð¾Ð³ Ð¾Ñĥ
ĠÐ²Ð¾Ð´ Ñĥ
ĠÐ¿ÑĢÐ¸Ð²Ðµ Ð´Ðµ
ĠÐ³ÑĢÑ£Ñħ Ð¾Ð²ÑĬ
Ð»ÑĶ Ð²Ñĭ
ĠÐ½Ð¸ÐºÐ¾Ð»Ð¸ Ð¶Ðµ
Ð² ÐµÐ»
ĠÑģ Ð¾ÑĢÐ¾
Ðº Ð¾ÑĢÐµ
Ð½Ð¸ ÑĨêĻĭ
ĠÐ¿ÑĢÐ¸ Ð±Ñ£
ÑģÐº Ð¾ÑĢ
ĠÐ²ÑģÐµ Ñİ
ĠÐ²ÐµÐ» ÐµÐ½ÑĮÑİ
ĠÐ¸ÑģÐ¿ ÑĢÐ°
ĠÐµÐ´Ð¸ Ð½Ð°
ĠÑģÐµÑĢ ÑĮ
Ñģ Ð²Ð¾
Ð¿ Ð¾Ð¼
ĠÐ½Ðµ ÑģÑĬ
ÐµÑĢ ÐµÐ¼
ĠÑĥ Ð±Ñĭ
ĠÐ¡ ÐµÑĢ
ĠÐ»Ð¸ ÑĨÐµÐ¼ÑĬ
ĠêĻģ Ð°ÐºÐ¾Ð½
ĠÐľ Ð°ÑĢ
ĠÐ±êĻĳ Ð²ÑĬ
ĠÐ²Ð»Ð° ÑģÑĤ
ĠÐºÐ°Ð±Ð° Ð»Ð°
ĠÐ¿Ð¾Ð»Ð° Ð³Ð°
ĠÐ²Ð¾Ð·Ð»Ñİ Ð±Ð¸
ĠÐºÑĤ Ð¾Ð¼êĻĭ
ĠÐ¸ÑģÑĤÐµ ÑĨ
ÐºÐ¸ÐµÐ² ÑģÐºÐ¾Ð¹
ĠÑĤ ÑĢÑ£Ð±
ÑĤÐ¸ Ñ§
ĠÐ¿ÑĢÐ¸ Ð¸Ð¼Ð°
Ð´Ðµ Ð»Ð°
ĠÑĤÐ¸ Ñĥ
ĠÐ¼Ñ§ Ñģ
Ð½Ñ« ÑŃ
ĠÐľÐ° Ð³Ð¸
ĠÐ¸Ð¼ÐµÐ½ ÐµÐ¼ÑĬ
Ð´ Ð¾ÑĢ
ĠÐ²Ñģ Ð°
ĠÐ³Ð¾ÑĢ ÑĮ
Ð±Ð° Ð²Ð¸
ĠÐ¼Ðµ ÑģÑĤÐµ
ĠÐ³ÑĢ Ñ¹
ĠÐ³Ð¾ÑĢÐ¾Ð´ Ñĭ
ĠÐ½Ð¸Ðº Ð¾Ð³Ð¾
ĠÑģÐµÐ¼ Ð¸
ĠÐ§ Ð°
ĠÐ¸ ÑģÐ°
ÑĪ ÐµÐ»ÑĬ
ĠÐ¾ Ñĩ
ÑĩÐ¸ Ð»
ĠÐ¿Ðµ ÑīÐµÑĢ
ĠÐ¿Ð¾Ð¼Ð¾ Ñī
Ð» Ð¾Ð²Ð¸Ñĩ
Ð² Ð»Ñ£
ÐµÐ½ ÑĸÐµÐ¼ÑĬ
ĠÐ¿Ð° Ð½
ĠÐ²ÐµÐ»Ð¸ ÐºÑĥ
ĠÐ¾Ð± Ð»Ð¸
ÑģÑ£ Ð¸
ĠÐ¿Ð¾Ð¿ ÑĬ
ĠÐ¶Ð¸Ð²Ð¾ ÑĤÑ£
ĠÑĢÐ¾Ð´ Ð¸ÑĤÐµÐ»
ĠÐ´ÐµÑĢÐ¶Ð° ÑĤÑĮ
ĠÐ·Ð°Ð¿Ð¸ ÑģÐ¸
ĠÐ´Ð½Ðµ ÑģÑĮ
ĠÐ¸ Ð½Ð¸
ÐµÐ½ ÑĹÐµ
ĠÐ¿Ðµ Ñĩ
ĠÐ½Ð°Ð¿ ÐµÑĢÐµÐ´
ĠÐ¿ÑĢÐ¸ÑģÑĬ Ð»Ð¸
ĠÐ¼Ð¾Ñī Ð½Ð¾
ĠÐ²ÑĬ Ð½Ð¸
ĠÑĥ ÐµÐ·
ĠÐ¼Ð¸ ÐºÑĥ
ÑĤÐµ ÑĨÑĬ
ĠÐ¿Ð¾Ð´ Ð¿Ð¸
ĠêĻģ Ð»
ÐµÐ½Ðµ ÑĢÐ°
ĠÐ¼Ñ§ ÑģÐ¾
Ð²Ð¾Ð» Ð¾
ĠÐ¶Ð¸Ð²Ð¾ ÑĤÑĭ
ĠÑģÐ½ Ð¾Ð²Ð¸
ĠÐ³Ð¾ÑģÐ¿Ð¾Ð´Ð¸ Ð½Ð°
ĠÐ·Ð´Ñ£ ÑģÐµ
ĠÐ¿Ð¾Ð´Ð¾Ð±Ð° ÐµÑĤ
ĠÑģÑĬÐ¼ ÑĢÑĮ
ĠÑģ Ñ¡
Ðº ÑĸÐ¸
ĠÐ² Ð½Ñ£
ĠÐ·Ð° Ð¼Ñĥ
ĠÑĤÐ°Ðº Ð¾Ð²
Ð³Ð¾ÑĢ Ñ£
Ð¸Ð¼ Ð¸ÑĤ
ĠÐĲÐ»ÐµÐºÑģÐ°Ð½Ð´ ÑĢÐ°
ĠÑĩÑİÐ´Ð¾ÑĤÐ²Ð¾ÑĢ ÑĨÐ°
Ð² Ð¾Ð´Ð°
Ð´Ð° Ð»Ðµ
Ð¶Ðµ Ð½Ð¾
ĠÑ¡ Ð½Ð°
ÑĢÐ¸ ÑĪÐ¸
Ð»Ð¾ Ðµ
ĠÑĤÐ²Ð¾ ÐµÐ¼ÑĬ
ĠÐ¶Ð¸ ÑĤÑĮ
ĠÐĶÐ° ÑĢÐ¸
ĠÐ¿Ð¾ÑģÐ»Ð° Ð»
ĠÐ´ÑĢÑĥ Ð³Ñĥ
ĠÐ³Ð¾ ÑģÑĤ
ĠÐ½Ð°ÑĢÐµ ÑĩÐµ
Ð² Ð»ÑĮ
ĠÐ¿ÑĢ Ñı
Ð½Ð¾ ÑģÑĤÐ¸
ĠÑĥ Ð³
ĠÐ·Ð° ÑĤ
ĠÐ¾Ñĥ Ð³Ð¾Ð´
ĠÑģÐ° Ð´Ð¸
Ð¾Ð²Ð¾ Ðµ
Ð¾Ð´Ñ£ Ð¸
ĠÐ»Ð° ÑĤÐ¸Ð½Ðµ
ĠÐ½Ð°ÑĢ Ð¾Ð´Ð°
Ð» Ð²
ĠÐ½ Ð¾Ñĥ
Ð³ Ð¾Ð²Ð¸
ĠÐ° Ð·ÑĮ
Ð²Ð° Ð»Ð°
Ð´Ð¸ Ð²ÑĬ
ĠÐļ Ð°ÑĢ
ĠÐ³Ð¾Ð²Ð¾ÑĢÐ¸ ÑĤÐ¸
ĠÐ´Ð¾Ñģ Ð¿Ñ£
ĠÐ¼êĻĭÐ¶ ÑĸÐµ
ĠÐ¡Ð°Ð´ ÐºÐµ
ĠÐ½Ð¸ ÑĩÐµÐ³Ð¾
ĠÐ±Ñĭ Ñħ
ĠÐ¿Ð¾Ð» ÑĥÑĤ
ĠÐ¿ÑĢÐ¾ Ð¸
ĠÑ¹ Ð±
ĠÐ¾Ð½ Ð¾Ð³Ð¾
ĠÐĴÑĬ êĻģ
ĠÐ·Ð°Ð¿ Ð»Ð°
ĠÐ¼Ð¾Ñ¥ Ð³Ð¾
ĠÐ¼ÐµÐ¶ Ð´êĻĭ
Ð» Ð¾Ð²ÑĬ
ĠÐ¿Ð¾ ÐµÐ´
Ð³Ð¾ Ñİ
ĠÐ¿Ð¾Ð» êĻĭ
ĠÐ±Ðµ Ð»Ð°
ĠÐ´Ðµ ÑĪÐµ
ĠÐ³ÑĢÐ¸ Ð³Ð¾ÑĢ
ĠÑĤÐ²Ð¾Ð¸ Ñħ
ĠÑģÑĢÐµÐ± ÑĢÐ¾
ĠÐ½Ð¾Ð²Ñ£ Ð³Ð¾ÑĢÐ¾Ð´Ñ£
Ð´ Ð¾Ð²ÑĬ
Ñī ÐµÑĤÑĬ
Ð¶ Ð´êĻĭ
ĠÐ´Ð° Ð»ÑĮ
ĠÐ¡ ÑĤÑĢ
ĠÐ±Ð¾Ð» ÑĪ
ĠÐ²ÑĢÐ° Ð³Ð¸
ĠÑĢÑĭ Ð±Ñĭ
ĠÐºÐ½Ð¸ Ð¶
ĠÐ¸ÑģÑĤÐ¸ Ð½Ñ£
ĠÐ±Ð¾ÑıÑĢ ÑģÐºÐ¸Ñħ
ÐºÑĢÐµ Ð¿
ĠÐ´Ð¾Ð²ÐµÐ´ ÐµÑĤÑģÑı
Ġ 6
ĠÐ² Ð»ÑĬ
Ñĩ Ð½ÑĭÐ¼
ÑĨ ÐºÐ¾Ð³Ð¾
ĠÐ¿Ð¾ Ñ§
ÐºÐ° Ð¼
ÑģÐ° ÑĤÐ¸
ĠÐĶ Ñ£
ĠÐ¿ÑĢÐ¾ Ðµ
ĠÐ¿ÐµÑĢ ÑĮ
ĠÐ±Ñĥ Ð´ÐµÑĪÐ¸
ĠÐ¼êĻĭ Ð¶ÐµÐ¸
ĠÐ¿Ñ£ ÑĤÐ¸
ĠÐ²Ð½Ð¸ Ð¼Ð°
ĠÐ¸ Ð½Ñĭ
Ñħ ÑģÑ§
ĠÐ³ Ð¾Ð´Ð¸
ÑĤÐ¸ ÑĤ
ĠÐ´Ð° Ð½
ĠÑ¡ ÑĤÑĬ
ĠÑģÐ²Ð¾ ÐµÐ¼Ñ¹
ĠÐĿ Ð¾Ð²
ĠÐºÐ° Ð¿Ñ¹
ĠÐ¿ÑĢÐµ ÑģÑĤÐ¾Ð»
ĠÑģÑĭ Ð½Ñĭ
ĠÐ´Ñĥ ÑĪÐ°
ĠÐ³Ð¾ÑģÑĥÐ´Ð°ÑĢÐµ Ð²Ðµ
ĠÑ¿Ð½Ñİ Ð´
ĠÐ³ ÐµÐ½ÐµÑĢÐ°
êĻĭ Ð´Ðµ
ĠÑĦ Ðµ
ÑħÐ¾Ð´ Ðµ
Ð½êĻĳ Ñ§
ĠÐ¿ÑĢÐ¸ÐºÐ°Ð· Ñĥ
ÑĪÑĤÐ° Ð°Ð³Ð¾
ĠÑģ Ð¼ÐµÐ½Ð°
ĠÐ½ Ñ¥
ÐºÐ° ÑħÑĬ
ĠÐ¿Ð¾Ð» Ð¾Ð½
ĠÐ²ÐµÐ»Ð¸ ÑĨÑ£
ĠÐĳ Ð¾Ð¶Ðµ
ĠÑģÑĤÑĢÐ° ÑħÐ°
ĠÑĢÑ£ ÑĩÐ¸
Ð¾ÑģÐ¸ Ð¸
ĠÑģÐ¾ÑĤÐ²Ð¾ÑĢÐ¸ ÑĪÐ¸
ĠÑģÐ¾Ð» Ð½ÑĨÐµ
ĠÑģÐµÑĢÐµ Ð±ÑĢ
ĠÐ¶Ð¸ÑĤ ÑĸÐµ
ĠÐ²ÑĢÑ£ Ð¼Ñ§
Ðº Ð»Ñİ
Ñĭ ÑĤ
ÑģÑĤ Ñ¡
ĠÐµ Ð»
ĠÑħ Ð°ÑĢ
ĠÑĢÐ° Ð´ÑĬ
ÑģÐ¸ Ñİ
ĠÐ¼Ð¾ ÐµÐ¼ÑĬ
Ð¶Ð° Ð»Ð¸
ĠÐ¿ÑĢÐ¾ ÑĩÐ°
ĠÐ²Ð¾Ð· Ð»Ð¾Ð¶Ð¸
ĠÑģÐ¼ Ð¾Ð»
ĠÐ²Ð°ÑĢ Ñ§
ĠÐ±Ð»Ñİ ÑģÑĤÐ¸
ÑĤ ÐµÐ½
ĠÐº Ð¾Ð³Ð°
Ð¿ ÐµÐ·
ĠÑĢ Ð¾Ð¼Ð°
ÑĩÐ¸ Ð¼Ð°
ÑĦ Ð¾Ð½
ĠÑģÐ² ÑıÑĤÐ¸
Ð´Ñĭ ÑħÐ°
Ð¿ÑĢÐ° ÑĪÐ°
ĠÑħÐ¾ ÑĩÐµ
ĠÐ¼Ð» ÑģÑĤÐ¸
ĠÐ½Ð°ÑĩÐ° ÑĤÑĬ
ĠÑĢÐ°Ð·Ñĥ Ð¼
ĠÑĤ ÑĢÑ£
ĠÐ½Ðµ ÑĤÑĥ
Ð²Ð° Ñİ
ÑĩÐµ ÑģÐºÐ¸
ĠÑĤÑĭ Ð¸
ĠÑģÐ»Ð° Ð²Ñĥ
ĠÐ²ÐµÐ»Ð¸ÐºÐ¸ Ð¼ÑĬ
ĠÑģÑĤÐ¾ÑĢ Ð¾Ð½Ñĥ
ĠÐ¼Ð¾Ð½Ð°ÑģÑĤÑĭ ÑĢ
ĠÑģÑĤÐ¾Ð»ÑĮ Ð½Ðµ
ĠÐ±Ð»Ð°Ð³Ð¾ÑģÐ» Ð¾Ð²Ð¸
Ð½ ÑĹÑ§
ĠÐº Ðµ
Ð±Ðµ Ð·
Ð±Ð° ÑĩÐµ
ĠÑģÑĤÑĢÐ° Ð½Ñ£
Ñ³ Ñ£
ĠÑ¡Ð± ÑĢÑ§
ĠÐ³Ð¾ÑģÐ¿ Ð¾Ð´Ð°
ĠÐ¿ÑĢÐ¾Ñģ Ð²Ñ£
ĠÐ¸Ð²Ð°Ð½ Ð¾Ð²Ð¸Ñĩ
ĠÐ¢Ñ£ Ð¼ÑĮÐ¶Ðµ
ĠÐ¾ÑĤÐ´Ð° Ð²Ð°ÑĤÐ¸
ĠÐ¾ÐºÐ¾Ð» Ð¾
êĻĳ ÑĢÐ¸
ĠÐ±Ð¾ Ñİ
ĠÐºÐ° Ð¼Ðµ
ĠÐ¢ ÑĢÐ¾
ĠÐ»Ð¸ ÑħÐ¾
ĠÐ²ÑĬÐ· Ñ§
ĠÐ±Ð¾Ñĥ Ð´ÐµÑĤÑĮ
ÑĤÐ¸ Ðµ
Ð½Ð¸ ÐºÐ¾Ñĥ
êĻĭ Ð¼
ĠÑĥ Ð¼ÑĬ
ĠÐ¼Ð½ Ð¾Ð¶Ð°
ĠÐ³ÑĢÐ° Ð´Ðµ
ĠÐ¿Ð¸ ÑĢÑĥ
Ð³Ñĭ Ð¸
ĠÐ¿ÑĮ ÑĢ
ĠÐ¿Ð¾Ð»Ð¾Ð¶Ð¸ ÑĤÐ¸
ÑĪ Ð½Ð¾
Ñı Ð´
ĠÑĢ Ð¸Ð¼
ĠÐ» Ñ«
Ð²Ð° ÑĢ
Ð¾Ð± Ð¾
ĠÑģÑĬ Ð¼ÑĮÑĢ
ÑĩÐµ Ð½Ð¸Ðµ
ĠÐ²Ð· ÑıÑĤÑĮ
ĠÐ¿Ðµ ÑĩÐ¸
ĠÑģÑĤÐ¾ÑĢ Ð¾Ð½Ñĭ
ĠÑĤÐ¾Ñĥ ÑĢ
ĠÐ³Ð¾ÑģÑĥÐ´Ð°ÑĢÐµÐ²Ñĭ Ñħ
ĠÐ¿ÑĢÐ¸Ð½Ðµ ÑģÐµ
Ð½ ÑĹÐ¸
ĠÐ¸ Ð´ÐµÑĤ
ĠÐ´ Ñĭ
ĠÑĤ Ñ«
ĠÑģÑĬ Ð±Ð¾ÑĢ
ĠÑģÐ¸ Ð¼ÑĮ
ĠÐ¿ÑĢÐµ Ð·
Ð¼Ð¾ÑĤ ÑĢÐ¸ÑĤÐ¸
ĠÐ»Ðµ Ñģ
ĠÐ»Ðµ Ñµ
ĠÑĤÑĬ ÐºÐ¼Ð¾
ĠÑģÐµÐ¼ Ñ¹
Ð´Ñ¹ ÑĤÑĬ
ĠÐ´êĻĭ Ð¼Ð°
ĠÐ¼Ð»Ð°Ð´ ÐµÐ½
ĠÐłÑĥ ÑģÐ¸Ð¸
ĠÑģ Ð¾Ð´
ĠÐ² ÐºÑĥ
Ð´ êĻ¿
Ð± Ð»Ñı
ĠÐ¾ Ð¶Ð¸
ĠÐ³ ÐµÑĢ
Ð¾Ð» Ñİ
ÑģÐº ÑĮ
ĠÐ¿Ð¾Ñģ Ð»Ñĭ
ĠÑģÑĤÐ° ÑĢÐ¸
ĠÑĩÐ¸ Ð¼ÑĬ
ĠÑģÑ¹ Ð´Ð°
ĠÑħÑĢÐ° Ð¼ÑĬ
ĠÐ½ÐµÐ¿ ÑĢÑ£
ĠÐ¡Ð¸ ÑĨÐµ
ĠÐ¿Ð¾ÑĢÑĥ ÐºÐ¸
ĠÑģÑĤÐ°ÑĢÐ¾ ÑģÑĤÑĮ
ĠÑģÑĢÐµ Ð±ÑĢÐ°
ĠÐ³ Ð¾Ð´Ð°
Ð¿ Ð¾Ñģ
ĠÐ·ÐµÐ¼ ÐµÐ»ÑĮ
ĠÐ¼Ðµ ÑģÑĤ
ĠÑģÐ¾Ð± Ð¾ÑĢ
ĠÑģÑĮ Ð¼ÑĮ
Ð»ÐµÐº ÑģÐµ
ĠÐºêĻĭ Ð½Ð¸ÑĨÐ¸
ĠÐ½Ð¾Ð²Ð³Ð¾ÑĢÐ¾Ð´ÑĮ ÑĨÐ¸
ÐºÑĢÑ£ Ð¿
, .
ĠÐº ÐµÐ¼
ĠÐº Ð¾Ð»ÑĮ
Ñī Ñ£
Ñī ÐµÐ½Ð¾
ĠÐ´Ð° Ð½Ð°
ĠÐ½Ð¸ ÐºÐ¾ÑĤÐ¾ÑĢ
ĠÐºÐ°Ðº Ð¾Ð²Ð°
ĠÐ½Ð°ÑĪ Ñĥ
ĠÐ²Ð¾Ð¸ ÑģÐºÐ°
ĠÐ²Ð°ÑĢ ÑĪÐ°
ĠÐĴÐ°ÑģÐ¸ Ð»ÑĮ
Ġâģ ĺ
ĠÐ¿ÑĢÐ¿Ð± Ð½Ð°Ð³Ð¾
ĠÐ²Ð¿ÐµÑĢÐµÐ´ ÑĮ
Ġ 5
Ñģ ÐµÐ´
ĠÐ² ÑĢÑĬ
ĠÐ· ÐµÑĢ
ĠÑģÑĤ ÑĭÐ¸
ĠêĻĹ Ð²Ñ£
ĠÑ§ ÐºÐ¸
Ð·Ñĭ Ð´Ðµ
ĠÐ¼Ð½Ð¾Ð³Ð¸ ÑħÑĬ
ĠÐ½ÐµÐ¸ Ð·
ĠÐ²Ð°Ð²Ñµ Ð»Ñ¡
Ñħ Ð¾Ð¶
Ñĩ ÐµÐ½Ð°
ĠÐ´Ð° Ð½Ð¾
Ð¶Ðµ Ð½Ð¸Ðµ
ĠÑģÐ»Ð° Ð²Ñ£
ĠÐ²ÑĬÐ· Ð¼
ĠÐ³ÑĢÐ¸Ð² Ð½Ðµ
ĠÐ³ÑĢÐ¸Ð² Ð½ÑĮ
ĠÐ³ÑĢÐ¸Ð² ÐµÐ½Ð°
ĠÐ±Ð¾Ð³Ð° ÑĤÑĮ
ĠêĻ© ÑģÐ¿Ð¾Ð´Ð¸Ð½Ðµ
ĠÐ¿Ð¾Ð· ÐµÐ¼Ð°
ÑħÐ¾Ð´Ð¸ ÑĤÐ¸
ĠÐºêĻĭ Ð½Ðµ
ĠÐ¿ÑĢÐ¾ÑĤÐ¸Ð² êĻĭ
ĠÐļÐ°Ðº ÑĬ
ĠÑĢÑ¹Ðº Ð¾Ð´
ĠÑĨÐµÑĤÐ²ÐµÑĢ ÑĤÐµ
Ð° Ð»
Ð¸ Ð´Ð¸
Ñģ Ð½
ĠÐ¿ Ð¾Ð´Ð¸
ĠÐ½ ÑĶ
Ñī ÑĭÐ¼ÑĬ
ÐºÐ° Ð¼ÑĬ
ĠÑ¡ ÐºÐ°
ĠÑĢÐ° Ð½Ð¾
ĠÐ·ÐµÐ¼ Ð»ÑĮ
Ð´Ñ§ ÑĪÐµ
ĠÐ»ÑİÐ± ÑĬ
Ñģ ÑĸÐ¸
Ð¼ ÐµÑĤÑĬ
Ð¶Ð° Ð¸
ĠÐ´Ñ£ Ð»Ñ£
ĠÑģÑĭ Ð¸
ĠÐ½Ð¾ Ñī
ĠÐĵ Ñĥ
ĠÐĵ ÑĢÐ°
â¸± .
ĠÐ¼Ñĥ Ð¶Ñĥ
ĠÐ³ÑĢÐ¸Ð² ÐµÐ½
ĠÐ²Ð¸Ð´Ñ£ ÑħÑĬ
ĠÐ²ÐµÐ»Ð¸Ðº ÑĸÐ¸
ĠÐ»ÑİÐ± Ð²Ð¸
ĠÐ±êĻĭ Ð´Ð¸
ĠÐºÑĢÐµÐ¿Ð¾ ÑģÑĤÐ¸
Ð° Ð¼
ĠÐ¸ Ð´Ñ£Ð¶Ðµ
Ð³ Ð¾Ð»Ð¸
Ñħ Ð¾Ð²ÑĬ
ĠÐ½Ð° Ð´Ð¾
ĠÐ¿ÑĢÐ¸ Ð»Ðµ
ĠÑĥ ÑģÐ»ÑĭÑĪÐ°
ĠêĻĹ Ðº
ĠÐ¿Ð¾Ðº Ð»Ðµ
ĠÐļ ÑĢÐ°
ÐºÐ¾Ð² Ñĥ
ĠÑĩÐµÐ»Ð¾Ð²Ðµ ÐºÑĬ
ĠÐ¿ÑĢÐ°Ð² Ð´Ð°
ĠÐĴÐ»Ð°Ð´Ð¸ Ð¼Ð¸ÑĢÑĥ
ĠÐ¿Ð¾Ð¶Ð°Ð»Ð¾Ð²Ð° Ð»
ĠÑ¡Ð¿ Ñ§ÑĤÑĮ
ĠÐ·Ð° ÑĤÐ²Ð¾ÑĢÐ¸
êĻģ Ð¾
ĠÑģÐºÐ¾ÑĢ Ð±ÑĮ
ĠÑģÑĤÐµÐ¿Ð° Ð½Ð°
ĠÐ´ Ð¾Ð²Ð°
Ñ§ Ð½Ðµ
ĠÐ½Ð° Ð·
ĠÐ½Ð° Ð¼Ð°
ĠÐ½Ð¸ ÑĩÐµ
ĠÐ¾Ñĥ Ð·
ÑĨÐµ Ð²Ð¸
ĠÐºÐ¾Ð½ Ñ£
ĠÑł Ð½
ÑħÐ¾Ð´Ð¸ Ð»
ĠÑģÐ¾ÑħÑĢÐ° Ð½Ð¸
ĠÐ³Ð»Ñĥ Ð±
Ð° Ð½Ð°
ĠÐ¼ ÑĢÑĬ
ĠÐ¼ Ð¾ÑĢÐ¸
ĠÐ¼ Ð¾Ð¶Ð°
ĠÑ¡ ÑĨÐ°
ĠÑģÑĬ ÑħÑĢÐ°
ĠÐ´Ðµ Ð¸
Ð´Ñ§ ÑĤ
ĠÑĤÐ²Ð¾ÑĢ Ð¸ÑĤ
ĠÑĨÐ° ÑĢÐ¸ÑĨÐ°
ĠÑģÐ²ÑıÑĤÑĭ Ñħ
ĠÐ¿Ð»ÐµÐ¼ ÑıÐ½
ĠÐ¼ÑĮÑģÑĤÐ¸ ÑģÐ»Ð°Ð²ÑĬ
ĠÐ¿ÑĢÐ¸ÐºÐ°Ð·Ð° Ð½Ð¾
ĠÐ² Ð´Ð¾Ð²Ð°
Ð¾Ð¼ Ñĭ
ĠÐ½Ðµ Ð´Ñ¹
ÑĨ Ð¾Ð²ÑĭÑħ
Ñ« ÑĤ
ÑĪÐ¸ ÑģÑ§
Ð·Ð° ÑĤÐ¸
ĠÐ¿Ð¾Ð´ ÑĢÐ°
ĠÐ±Ð» Ñ¹Ð´
ĠÐ¼Ñ£ Ð´Ñ§
ĠÐ¿ÑĢÐ¾ÑĢ Ð¾ÐºÑĬ
ĠÐľÐ¸ÑħÐ°Ð¹ Ð»Ð¾
. âĢ
â ģ
Ð» ÑĤ
ĠÐ± ÑĢ
ĠÐ½Ðµ Ð¼Ð°
ÐµÐ½ Ñ§
Ð¶ Ð´Ñ«
Ð¾Ñģ Ð»Ð¾Ð²
ĠÐ¿ÑĢÐµ Ñģ
Ð½Ñı ÑĤ
ĠÐ³Ð»Ð° ÑģÐ°
Ð·Ñĭ ÐºÑĬ
ĠÐ´Ñĥ ÑĪÐ¸
ĠÑģÐµÐ¼ êĻĭ
ĠÐ¿Ð¾ÑģÑĤÐ°Ð²Ð¸ ÑĪÐ°
ĠÐ²Ð¾Ð·Ð¼ ÐµÑĤ
ĠÐºÐ¾ÑĢÐ° Ð±Ð»ÑĮ
ĠÐ½ÐµÐ¼Ð¾ Ñī
ĠÐ¶ÐµÐ»Ñ£ Ð·
ĠÐ¡Ð»Ñĭ ÑĪÐ°
ĠÑĤ Ð¾Ð³Ð¸Ð²Ð°
Ñħ Ñ£
ĠÐ½Ð° êĻĭ
ĠÐ¿Ð¾ ÑĤÐ°
ĠÐ· Ð»Ñĭ
ÑĤÐ¾ Ð¸
ĠÑĢÐµ ÐºÐ»Ð°
ĠÐ¼Ð¸ ÑĢÑ£
ĠÑģÐº ÑĢÑĭ
ĠÐ¸ÑģÐ¿ ÑĢÐ°Ð²Ð¸
ĠÑħÑĢÐ° Ð¼Ð¸
ĠÐĵÐ¾Ð²Ð¾ÑĢÐ¸ Ð»
ĠÐº ÑĸÐ¸
Ñı Ð½ÑĬ
Ð»Ð° Ð¼Ð¸
Ð½Ð° ÑħÑĬ
ĠÑĨÑĢ ÑĤ
ĠÐºÑĢ ÑĤ
Ð¸Ð¼ Ñ¹
ĠÐµÑģ Ð¼Ñı
ĠÑģÑĭÐ½ Ñ¡Ð¼ÑĬ
ĠÐ¿Ð¾Ð¼Ðµ ÑģÑĤÐµÐ¹
ÑİÑīÐ¸ Ð¼ÑĬ
ĠÐ³ÑİÑĢÑĮ Ð³
Ð´Ð° Ð»Ð°
Ð½Ðµ Ñħ
ĠÑģÐµ ÑģÑĤÑĢÐ°
ÑĪÐ¸ Ð²Ð°ÑĤÐ¸
ĠÐ¿Ð¾Ð» ÑĤÐ¸
ĠÐ»Ð¸ Ñħ
ĠÐ¿Ð° Ð´
ĠÑĢÑĥ ÑĨÑ£
ĠÐºÐ¾Ñĥ Ð¿
ĠÐ·Ð°Ð¿ Ðµ
ĠÑħÑĢÐ° Ð½Ð¸
ÐµÐ²Ð¸ ÑĩÑĮ
ĠÐ½ÐµÐ¿ Ð¾Ðº
Ð³Ð¾Ð² Ð¾ÑĢÐ¸
ĠÑĩÐµÐ»Ð¾Ð±Ð¸ ÑĤÑĮÑİ
Ð² ÑĸÐ¸
Ñĸ Ñ«
ĠÐ· Ð¾Ð±
Ð½Ð¾ ÑģÐ¸
ÑĤÐ¾ Ñİ
Ð½Ðµ Ð³Ð¾
ÑīÐ° Ð°
Ð±Ð¸ Ð»
Ð³Ð° Ð¼Ð¸
ĠÑĢÑ£ ÑħÑĬ
ĠÐ¿ÐµÑĤ ÑĢ
ĠÐ¼ÑĨ ÑģÐ°
Ġ Ï
ĠÐ¿ ÑĥÑĤ
Ñ§ ÑĤÐµ
ÑģÑĤ ÑĢÑ£
ĠÑĥ Ð¼Ñĭ
ĠÑģÑĬ Ð±Ð»Ñİ
Ð¼Ð° Ð³Ð¾
ĠÐŁ Ð¾ÑģÐ»Ð°
ÑīÐ° Ñı
ĠÐ³ÑĢÐ¸ Ð³Ð¾ÑĢÑĮ
ĠÐ¿ÐµÑĢ ÑģÑĤ
ĠÐ´Ð²Ð¾ÑĢ Ñĭ
ĠÐ±Ð¾Ñı ÑĢÐ¸Ð½Ñĥ
ĠÐ¸Ð½ Ð¾Ð³Ð´Ñĭ
ĠÐ½ÐµÐ²Ñ£ ÑĢ
Ð»Ð° Ð½
Ð³Ð¾ Ð¸
ĠÑħ ÐµÑĢ
ĠÐ¾Ñĥ Ð²Ñ£
ĠÐ²ÐµÐ»Ð¸ ÐºÑĭÐ¸
ĠÐ´Ñ£ Ð»Ñĭ
ĠÑģÑĬÑĤÐ²Ð¾ÑĢÐ¸ ÑĤÐ¸
ĠÐ¿Ð°Ð¼ Ñ§ÑĤ
ĠÐ¿Ð¾ÑģÑĤ ÑĢÐ¸
Ð» ÑĸÑ§
Ð² Ð»Ð¸
ĠÐ½Ð° ÑģÑĤÐ°
ĠÐ´Ð° Ðº
ÑĪÐ° Ñı
ÑĪÐµ ÑģÑı
ĠÑģÐ²Ð¾ Ð°
ĠÑĢÐ° Ð½Ñĭ
ÑģÐº ÑĸÐµ
ĠÑģÐ¸ Ð´Ð¸ÑĤ
ĠÐ²Ñ£ ÑģÐ¸
ĠÑģÐ²Ð¾Ð¸ Ð¼ÑĮ
ĠÑ» Ð½
ĠÐ³ÑĢ Ð¾Ð±Ð°
ĠÐ¿Ð¾Ð¿ Ð¾ÑĢÑĤÐ¸
ĠÐ¼Ñĭ ÑģÐ»ÑĮ
ĠÐ¿ÑĢÐ¾ÑĤÐ¸ Ð²ÑĬ
ĠÐ½Ð°ÑĩÐ° Ð»
ĠÐ´ÑĬ Ð²Ñ£
ĠÐĹÐ° ÑīÐ¾
ĠÐ´Ñī ÐµÑĢÑĮ
ĠÐ³ÑģÐ´ÑĢ Ð½Ñ§
ĠÐ±Ñ§ ÑħêĻĭ
Ð¼ ÑĢ
Ñħ Ð²Ð°ÑĤÐ¸
ĠÐ¼ êĻĭÐ´
Ð¸ÑĤ Ð¾Ð²
ĠÑħ Ð¼
Ð»Ðµ Ð²Ð¸
ĠÐĴ Ðµ
ĠÐ¿Ð¾Ð» ÐµÐ·
ĠÑĤÐ° Ð¹
ĠÐĳ Ð¾
ĠÐ±Ð¾Ñĥ Ð´Ð¾Ñĥ
ĠÐ¾Ð±Ñĭ ÑĩÐ°
ĠÐ»Ñ¹ Ñĩ
ÑĢ Ð³Ð¸
Ðº Ð¾Ð½Ð°
Ð¾Ð²Ñ£ Ð¸
ĠÑĢÐ°êĻģ Ñ¹
Ð½ ÐºÑĥ
ĠÐ¸ Ð½ÑĭÐ¼
ĠÑĩ Ñı
ĠÑģÐµ Ð¹
ĠÐ¿Ð° ÑĪ
ĠÑĤÐ²Ð¾ ÐµÐ¼êĻĭ
ĠÐ¿ÑĢÐµ ÑģÑĤÐ°Ð²
ĠÑĩÐ¸ ÑģÑĤÐ°
ĠÐ¿Ðµ ÑĩÐµÐ½Ñ£
Ð¿ÑĢÐ° Ðº
ĠÐ¸Ñģ ÑĨÐ¾Ð¼
ĠÑĤÐ²Ð¾Ðµ Ð¹
ÐºÐ»Ð° Ð´Ñĭ
ĠÐ¿ÑĢÐ¸ÑĪ ÐµÐ»
ĠÐ°Ð¼Ð¸ Ð½ÑĮ
Ð² â¸¯
Ð· Ð½
ĠÐ¾ Ð¶ÑĮ
ĠÑĢÐµ Ð²
ĠÐ²Ñĭ ÑģÐ»Ñĥ
ĠÐ¿Ð¾ÑĢ Ð¾Ñĥ
Ð¼ÐµÑĢ ÑĬ
ĠÐ¾Ð±ÑĢÑ£ ÑĤÐµ
ĠÐºÐ¾ÑĢÐ¼Ð¸ ÑĤÐ¸
Ð¾ Ð°Ð½
ĠÐ¼ ÐµÑĤ
ĠÐ¿ÑĢÐ¸ ÐµÑħÐ°Ð»Ð¸
ĠÐ·Ð° Ñģ
Ð½Ðµ ÑģÑĤÐ¸
ÑģÐº Ñ£
Ð½ÑĮ ÑģÑĤÐ²Ð¾
ĠÑĤÐ° ÐºÐ¸Ð¼
ĠÐ¶Ð¸ Ð·Ð½Ð¸
ÑĦ Ð¾ÑĢ
ĠÐ±Ð»Ð°Ð³Ð¾ ÑĩÐµÑģÑĤÐ¸
ÑĤ Ð¾Ð²
Ñģ Ð»Ðµ
ĠÐ³ Ñĭ
Ñī ÐµÐ½Ñĭ
ÑĪÐ° Ð°
ÑĪÐµ Ð³Ð¾
ĠÐ¡ Ñ£
Ð¿Ð¾ ÑģÑĤÐ°
ĠÑħÐ¾ÑĤ Ðµ
ĠÐ²ÐµÐ»Ð¸Ðº Ð¾Ð¼
ĠÐłÐ° êĻģ
ĠÐ²ÑĢÑ£ Ð¼Ðµ
ĠÐ°Ð² Ð³Ñĥ
ĠÐ·ÐµÐ¼Ð»Ðµ Ñİ
ĠÑ ©
Ð½ ÑĨ
Ð² ÐºÐ¸
ÐµÑĢ ÑĬ
Ð¶Ðµ Ð½Ð°
ĠÐĲ ÑĪÑĤÐµ
ĠÑģÑĬ Ð¿Ð°
ĠÐ¿Ð¸ ÑĤÑĮ
ĠÐ±Ñ£ Ð³Ð°
ĠÐ´Ð²Ð¾ÑĢ Ñ£
Ð¿Ñ£ ÑĤÐ¸
ĠÑģÐ»Ð¾Ð²Ðµ ÑģÑĭ
ĠÑħÐ»Ñ£ Ð±Ð°
ĠÐ±ÑĢÐ°ÑĪ Ð½Ð°
ĠÐ² Ð»Ð¾Ð¶Ð¸
Ð»Ð¸ ÑĤÑĮ
ĠÐºÐ¾ ÑģÑĤÑ§
ĠÐ¶Ð¸ Ð²Ð°
ĠÐŀ ÑĤÑĬ
ĠÐ´Ð²Ð¾ÑĢ Ð¾Ð²
ĠÑĩÑİ Ð¶Ðµ
ĠÐ³Ð¾Ð» Ð¾Ð²
ĠÑĢÑĭ Ð´Ð°
ÑİÑī êĻĭ
ĠÑĨÐ°ÑĢÐµ Ð²Ð¸
ÑģÑĤÑ« Ð¿
ĠÐ¿ÑĢÐµÐºÑĢÐ°Ñģ Ð½Ð°Ñı
Ð» Ð¾Ð±Ð¸
Ð´ ÑĢÐ¸
ĠÐ¿Ð¾ Ñ£
ÐµÐ¼ Ñĭ
ĠÐ´Ð° Ð¶Ð´ÑĮ
ĠÑ¿ Ð²Ñ£
ÑīÐ° Ñ§
ÑħÐ° ÑĤÐ¸
ÑģÐ» êĻĳ
ÑĩÑĮ Ñİ
ĠÑģÐº Ð²Ð¾Ð·
ĠÑĩÐ¸ Ð½ÑĬ
ĠÐ³Ð»Ð°Ð³Ð¾Ð» Ñİ
ĠÐ¥ Ð¾ÑĤ
ĠÑģÑĤÐ°ÑĢÐ¾ ÑģÑĤÐ°
ĠÐ°ÑĢÑħÐ¸Ðµ Ð¿Ð¸ÑģÐºÐ¾Ð¿
ĠÐ¿Ð°ÑĤÑĢ ÑĸÐ°ÑĢ
Ñħ Ð¾Ð¶Ð°
ĠÑĢ Ð¾Ð³
Ð½Ñ£ Ð¹
ĠÐ²Ðµ ÑģÑĤÐ¸
ĠÑģÐ¸ Ð½Ñĳ
ĠÐĶ Ñİ
ÑģÐ» Ð¾Ð²Ðµ
ĠÑģÐ¿ Ñģ
ĠÑħÐ¾ ÑĨÐµ
ĠÐ²ÑģÑı ÐºÐ¾Ð³Ð¾
ĠÐ¿ÑĢÐ¾Ñģ Ñ§
ĠÑĢÑ£Ð·Ð° Ð½Ñ£
ĠÐºÑĢÑ£Ð¿Ð¾ ÑģÑĤÑĮ
ĠÑıÑĢÐ¾ÑģÐ»Ð° Ð²ÑĬ
Ġ ÒĦ
ĠÐ´ Ð½Ñ£
Ñĩ ÐµÑĤÑĮ
ÐµÐ½ Ñİ
ĠÐ» Ð¾Ð¶
ĠÑ¡ ÑģÑĤÑĢ
ÑĢÐµ Ðµ
êĻĳ ÑĤÐ°
ĠÐ¿ÑĢÑ£ Ð»ÑĮ
ĠÐ¿Ð¾ÑģÐ»Ð° Ð»Ð¸
ĠÐ¿ÑĢÐ°Ð² Ð´Ñĥ
ĠÐºÑ¹ Ð¿Ð¸
ĠÐ¼Ð¾Ð¶Ðµ ÑĪÐ¸
ĠÑ¡Ð»Ðµ Ð³ÑĬ
Ñĥ ÑģÐ°
Ñı ÑĤÑĬ
Ñ¡ Ð¼ÑĮ
ĠÐŁ ÑĢÐ°
ĠÑĨÐ°ÑĢ ÐµÐ¼ÑĬ
ĠÐ±Ð» Ñ¹
ĠÐ±ÐµÐ· ÑĥÐ¼
ĠÑģÐ°Ð¼ Ð¾Ð´ÐµÑĢ
ĠÐ¿ÑĢÐ¾Ð´Ð° Ð¸
ĠÐ¦ Ð°ÑĢÑĮ
ĠÐ±êĻĭ Ð´Ðµ
ĠÐ± Ð¾Ð¹
ĠÐ¿ÑĢ ÐµÐ»ÑĮ
ÑĤÐ¸ Ð½Ñĭ
Ñ¡ Ð±
ĠÑĥ Ñģ
ĠÑħ ÑĥÐ´
ÑģÐ» ÑĭÑĪ
ĠÐľ Ð°Ðº
ĠÐ¿ÑĢÑ£ ÑģÑĤÐ°
ĠÐ¼Ð¾Ð» Ñ§
ĠÑģÐ°Ð¼ Ð¾Ð¼Ñĥ
ĠÐ·Ð´ ÑĢÐ°Ð²Ð¸
ĠÐ¿Ð¾Ð»Ð¾Ð¶Ð¸ ÑĪÐ°
ĠÐ²Ð¾Ð·Ð¼ Ð¾Ð¶Ðµ
ĠÐ½Ñ¹ Ð¶
ĠÑģÐ¸Ñĩ ÐºÑĭ
Î ·
Ñ ±
Ð½ ÑĹ
ĠÐ² Ñ¡
Ñ§ Ð½ÑĬ
Ñĩ Ñ£
ĠÐ» Ð¾Ð´Ð¸
ĠÑ¡ Ð³
ĠÑĥ Ð±ÑĮ
ĠÐ¼Ð¸ Ð»
ĠÑĤÐ° ÑĤÐ¸
ĠÐ²Ð° ÑĪÑĬ
ĠÐ´Ð¾ ÑģÑĤÐ¸
ĠÑĪ ÑĤÐ¸
ĠÐ¿Ð¾Ð² ÐµÐ»
ĠÑģÑĤÐ¾Ð» Ð°
ĠÐ´Ð¾Ð±ÑĢÑĭ Ð¼ÑĬ
ĠÐ¿Ð¾Ð¼Ðµ ÑģÑĤÑĮÐµ
ĠÐ¿Ð¾Ñħ Ð¾ÑĤ
ĠÐ½Ð¾Ð³Ð° ÑĤÑ£
ĠÑħÐ¸ÑĤ ÑĢÐ¾ÑģÑĤÐ¸
ĠÐ´ Ð¾Ð²Ðµ
ĠÐ» Ð¾Ð½ÑĮ
ĠÑ¡ Ð³Ð½ÑĮ
ĠÐ±Ñ£ ÑĪÐ°
ĠÑĢÐ°Ð· Ð±Ð¾Ð¸
ÑĨÑ£ Ð¼ÑĬ
ĠÐ³Ð»Ð°Ð³Ð¾Ð» ÐµÑĤÑĬ
ĠÐ¾Ñģ Ð¼ÑĮ
ĠÐ¶Ð¸Ð² ÐµÑĤÑĬ
ĠÐ²ÐµÑĤ ÑĪÐ°
ĠÐ¿Ð°ÑĢ Ð¾Ð±
ĠÑ¡Ð±Ð¸ÑħÐ¾Ð´ ÑĬ
ĠÐ¿Ð»Ð°ÑĤÐ¸ ÑĤÑĮ
ĠÐ¼ÑĥÑĢ Ð·Ð°
ĠÐ¸ ÑīÐµ
ĠÐ½Ð° ÑģÐ°
ĠÐ´Ð° ÑģÐ¸
ĠÑ¹ Ð±Ñ¡
ĠÐ¿Ð¾ÑĢ Ñĭ
ĠÐ±ÑĢÐ°ÑĤ ÑĸÑ§
ĠÐ¿ÑĢÐ¾Ðº Ð»Ñ§
ĠÐ¿ÑĢÐµÐ¼ êĻĭÐ´
ĠÐ·Ð°Ðº Ð¾Ð½Ð°
ĠÐ¼Ð°ÑĤÑĥ ÑĪÐºÐ°
ĠÐļÐ¾ÑĤ Ð¾ÑĢ
ĠÐ¿ Ð¾Ð½Ð°
Ñħ Ð°ÑĢ
ĠÐ¾ Ð»Ð¸
ÐµÐ» Ñı
Ð¶Ð¸ Ð¼ÑĬ
Ð±Ð¸ Ñ¥
ĠÐ²Ð¾Ð» Ñ§
Ð»Ñĥ ÑĩÐ¸
êĻĻ ÑĤÑĬ
ĠÐ²Ð°ÑģÐ¸ Ð»Ð¸
ĠÐ»Ð¸ÑĤ Ð¾Ð²
Ðº ÑĤÐ¾
Ð´ ÑĢÐ¾
Ð»Ð¸ Ð¼Ð°
Ð´Ð¸ ÑĪÐ°
ĠÐ²Ðµ ÑĩÐµÑĢÐ°
ĠÐ²Ð¸ Ð½Ñ£
ĠÐ²Ð¾Ð» Ñħ
Ð½Ð¸Ñ¥ Ð¼ÑĮ
ÑİÑīÐ¸ Ð¼
ÑĤÐ²Ð° Ð¼Ð¸
ĠÑģÐ»ÑĥÐ¶ Ð±Ñĭ
ĠÐ¸ Ð±Ð¾
ĠÐ¸ Ð½ÑĭÑħÑĬ
Ñħ êĻĳ
ĠÐ½Ð° ÑĩÐ¸Ð½Ð°
ĠÐ²Ñģ ÐºÐ¾ÑĢÐµ
ÑĪÐµ ÑģÑ§
ĠÑĤÐ¾ ÑĩÐ¸
ĠÐºÐ° Ð¶Ðµ
Ð³Ð° Ñ§
ĠÑĢÑĥ ÐºÐ¾Ñİ
ÑĢÐ¾Ðº Ð¸
ĠÐ¿ÐµÑĢÐµ Ð²Ð¾Ð·
ĠÑĢÐ°Ð± Ð¾ÑĤ
ĠÐ¾ÑĤÐ´Ð° ÑĤÑĮ
ĠÐ¾ÑĤÐµ ÑĩÐµ
ĠÐ¿ÑĢÐ¸Ð±Ð»Ð¸ Ð¶Ð¸
ĠÐ¿ÑĪÐµ Ð½Ð¸ÑĨÐ¸
ĠÐ´ ÐµÑĤÑĮ
Ñı Ð½Ð¸Ðµ
ÐºÐ¾ Ñģ
ĠÑħ ÑĢÑĮ
ĠÑģÑĬ Ð¿
Ð»Ñİ ÑĤ
ÑĨÐ¸ Ð½Ð°
ĠÐºÐ¾ÑĤÐ¾ÑĢ Ð°Ñ§
ĠÑģÑĮ ÑĢ
ÐµÐ»Ðµ Ð¹
ĠÐ»Ðµ ÑģÑĥ
ĠÐ²ÑĢÐ° Ð³Ð°
ÑİÑīÐ¸ Ñħ
ĠÑģÐºÐ¾ÑĢ Ð±Ð¸
ĠÑ¥Ñģ Ð¼Ðµ
ĠÐ½Ð¸ÐºÐ° ÐºÐ¾
ĠÑģÑĤÐ°ÑĢÐ¾ ÑģÑĤÐ¸
Ð° Ð½ÑĬ
Ñģ ÑĸÐ°
Ñ§ Ð½ÑĮ
Ð³ Ð½êĻĭ
ÑĤÐ¸ ÑĤÑĮ
ĠÑĢ Ð¾Ð²
ĠÐ° êĻģÑĮ
ÑĤÑĮ Ñ¥
Ð²Ð° Ð»Ðµ
ÑĪÐ° Ñ§
ÑĤÐµ ÑħÑĬ
ĠÐ´Ðµ Ð¶Ðµ
ĠÐ¿Ð»Ð° ÑĤÐµ
ÑģÑĤÐ°Ð²Ð¸ ÑĤÐ¸
ĠÐ´Ñĥ Ð¼
ĠÐ³Ð¾ ÑģÑĤÑ§
ĠÐ´Ð² ÐµÐ½Ð°
ĠÐ´Ð¾ÑĢ Ð¾Ð³Ð¾
ĠÐ½Ð°ÑĢ Ð¾Ð´
ĠÐ½Ð¸Ñĩ ÑĤÐ¾
ĠÐ¥ÑĢÐ¸ ÑģÑĤÐ°
ĠÐ²ÐµÐ»Ð¸ÑĩÐµ ÑģÑĤÐ²Ð°
Ð² ÐµÐ½ÑĬ
ĠÑģ ÐµÐ»Ñ£
ĠÐ± Ð¾Ð³Ð¾
ÐµÑĢ Ð¾
ĠÐ·Ð° ÑīÐ¾
Ñ« ÑĤÑĮ
ĠÑģÐ¸ êĻĹ
ĠÐĶ Ðµ
Ð²ÑĮ Ñĸ
ĠÐ´Ñ£ ÑĤÐµÐ¸
ÑĶ ÑĤÑĮ
êĻ¿ Ð½Ð¾
ÑĦ Ð¾Ð½Ð¾Ñģ
ÑĢÑ§ ÑĤÐ°
ĠÐ¿Ð°Ð² Ð»Ð¾Ð²
ĠÐ¿ÑĢÐµÐ¼ ÑĥÐ´
ÑĮ Ð¸
Ðº Ð½Ñĥ
ĠÐº Ð½Ð¾
Ñı Ð½Ð°
ĠÐ· ÑĮ
ĠÐ· Ð²Ð°
ĠÐ¾Ñĥ ÐºÑĢÐ°
ÑģÐº Ð¾Ð²Ð°
ĠÑĢÐµ ÐºÐ°
ĠÐ´Ð²Ð¾ÑĢ ÐµÑĨ
ĠÐ¿Ð¾Ð½ Ð¾
ĠÑĦÐ° ÑĢÐ¸
ĠÐ¿Ð»ÑĬ ÑĤÑĮ
ĠÐºÐ»Ð°Ð½Ñ§Ñİ ÑģÑ§
ĠÐ»Ð¾Ðº ÑĤÐ¸
ĠÐ² Ð¾Ð´Ð¸
ĠÐ½ Ð±Ð¾
ĠÐ° Ð½Ð°
ĠÐ¡ Ð²ÑıÑĤ
ĠÐºÑĬ ÑĤÐ¾
ÐµÐ½Ðµ ÑĨÑĬ
ĠÐĽ Ðµ
ĠÐºÐ¾Ñĥ Ð½
ĠÐ²Ñ£ÑĢ Ð¾Ñĥ
ĠÑģÐ¾Ð²ÐµÑĢ ÑĪÐ¸
ÑģÐ¿Ð¾Ð´ Ð¾
ĠÐ¡Ð»Ñĭ ÑĪÐ¸
Ġ +
Ð¾Ð³ Ñ¡
ĠÐ²ÑĬ Ð¿Ð°
êĻģ êĻĭ
ĠÐºÐ¾ ÑģÑĤÐ¸
ĠÐŀ Ð»Ñĳ
ĠÐ´Ðµ Ð¶Ð¸
Ñķ Ð¸
ĠÐ³Ð¾ÑĢÐ¾Ð´ Ð¾
ĠÐ´Ð¾Ð±ÑĢÐ¾ Ðµ
ĠÑħÐ¾Ð´Ð¸ Ð»ÑĬ
ĠÑĨÐµÐ» Ð¾Ð¼ÑĬ
Ð¿ÑĢÐ°Ð² Ð´Ð°
ĠÐ»ÑİÐ±Ð¸ ÑĤÐ¸
ĠÑģÑĤÑĮ Ð¿Ð°
ĠÑĩÐµÐ»Ð¾Ð±Ð¸ÑĤÑĩÐ¸ ÐºÐ¸
ĠÐ±ÑĮÑĢÐºÐ¾Ð²ÑĮ ÑģÐºÐµ
ĠêĻ©Ð² ÑģÐ°
ĠÑ Ń
ĠÑģ Ð½Ðµ
ĠÑģ Ð¾Ð´Ñ£
ĠÑĤ Ð¾Ð³Ð°
ĠÐ» ÐµÐ²
ĠÐ²ÑĬ Ð¼Ñ£
ÑĪÐ° Ð°Ð³Ð¾
ĠÐ¡ Ð¿Ð°
âĢ Ļ
ĠÑģÑĤÐ° ÑĪÐ°
ÐºÑ¡ Ð²ÑĬ
ĠÐ±Ð¾ÑıÑĢ ÑģÐºÐ¸Ðµ
ĠÐĴÐ»Ð°Ð´Ð¸ Ð¼Ð¸ÑĢÐ°
ĠÐ±Ð»Ð°Ð³Ð¾ÑģÐ» Ð¾Ð²Ðµ
Ð¸ Ñİ
Ñģ Ð¾Ð²
Ð³ Ð¾Ð²Ð¾
Ñħ êĻ¿
ĠÐ¼ ÐµÐ½ÑĮ
Ñĩ ÐºÐ¾
ĠÑĢ Ñ¡
ĠÐ¿Ð¾ ÑģÑĤÑĬ
Ñ« ÑīÐ¸
ĠÐºÐ° Ð¿
ĠÑ» ÑģÑĤÐ°
ĠÑģÑĤÐ° Ð´Ð¾
ĠÐºÐ°Ðº Ñ¡
ĠÑģÑĤÑĢÐ° ÑħÑ¹
ĠÐ»ÑİÐ´Ð¸ Ð¸
ĠÐ¶Ð° Ð»Ð¾
ĠÑĩÑĮ ÑĤÐ¾
ĠÐ·Ð°Ð½Ðµ Ð¶Ðµ
ĠÐµÐ´ Ð²Ð°
ÑĢÐ° Ð¸
ĠÐ¶Ðµ Ð½êĻĭ
ÑĢÐµ ÑĩÐµ
Ð½Ðµ ÑħÑĬ
ĠÑĶ Ð´Ð¸
ĠÐºÐ° ÑĤ
ĠÐ²ÑĮ ÑĢÑĮ
ĠÑģÑĥ Ð½Ð´Ñĥ
ĠÐ¿ÐµÑĢÐµ Ñı
ĠÐ¼Ð¸Ð»Ð¾ ÑģÑĤÑĭÐ½Ñİ
ĠÐºÐ°Ð· Ð½Ð°
ĠÐ´êĻĭ ÑĪêĻĭ
ĠÐ²Ð¾ÐµÐ² Ð¾Ð´Ñĭ
ĠÑģÐ¾ÑĤÐ²Ð¾ÑĢ Ñİ
ĠÐºÐ»Ð° ÑģÑĤÐ¸
ĠÑĤÑĭÑģÑ§ ÑīÑĬ
Ġ 7
ÑĢ Ð¸ÑĤÐµ
ĠÐ¶Ðµ ÑģÑĤÐ¾Ðº
ĠÐ¾Ñĥ ÑģÑĤÐ°
Ð»Ðµ Ð½Ð¸Ñı
Ġ: -
ĠÐºÐ° Ð´ÑĮ
ĠÐ¸Ñħ Ð¶Ðµ
ĠÐ²Ð· ÐµÐ¼ÑĬ
ĠÑĤÐ¾Ð³ Ñ¡
Ñģ êĻĳ
Ð² Ð»Ñİ
ÑĪ Ð»Ð°
ĠÐĺ Ð±Ð¾
ÑĤÐ¾ ÑĪÐ°
ĠÐ»Ð¸ ÑģÑĤÑĬ
ĠÐ¿ÑĢÐ¾ ÑģÑĤÐ¾
ĠÐ´Ð¾ Ð¸Ð´Ðµ
ÐºÑ¡ Ð¼ÑĬ
ĠÐ±Ð¾Ñı ÑĢÐµ
ĠÐ´Ð¾Ð±ÑĢÐ¾ Ð¸
ĠÐ´êĻĭ ÑĪÐ°
ĠÐ²Ð¾ÑĢ Ð¾Ð½
ĠÐ¿Ð¾Ð¿Ðµ ÑĨÐ°
ĠÐ²Ð½Ðµ Ð³Ð´Ð°
Ð½ Ð½Ð¾Ðµ
Ð´ Ð¾Ð±ÑĮ
ĠÐº Ð¾Ð±
Ñħ Ð¾Ð¼ÑĮ
Ð¾Ð² Ð¾Ð»
Ð»Ð¸ Ð²Ð°ÑĤÐ¸
ĠÐ²ÑĬ Ð·ÑĬ
ÐºÐ¸ Ð½Ð°
Ð½Ðµ ÑĪ
ĠÐ½Ð¸ Ð±
ĠÐŀ Ð½ÑĬ
ĠÑģÑĤÐ° ÑĢÐµÑĨÑĬ
ÑĤÐ² ÑĢÑĬ
ĠÐ´Ð¾Ð±ÑĢÐ° Ð³Ð¾
ĠÐľÐ¸ÑħÐ° Ð¸Ð»Ð°
ĠÐ³Ð¾ÑĢÐ° Ð·Ð´Ð¾
ĠÐ¾ÑĥÑģÑĤÑĢÐ¾ Ð¸ÑĤÐ¸
ĠÐ»êĻĭ ÐºÐ°
ĠÑĤÐ²Ð¾Ñ¥ Ð³Ð¾
Ð» ÑĸÐ¸
Ð² Ð½Ñ£
Ñ£ ÑĪÐµ
ĠÐ´ Ð²Ð¾Ñİ
Ñĩ êĻĭ
ĠÐ½Ðµ Ð²Ðµ
Ð¶ Ð¸ÑĤÐµ
ĠÐ¿ÑĢÐ¸ Ñ£ÑħÐ°
ĠÐ·Ð° Ð±Ñĭ
ÑĩÐ¸ Ð²ÑĬ
ÑĩÐµ Ð¸
ĠÐ¾ÑĤ ÑĤ
ĠÐĴ Ð¾Ñģ
ÑĨÐ° Ð¼Ð¸
ĠÐ²Ñ£ Ð²ÐµÑĢÐ¸
ÑģÐµ Ñħ
ĠÐ²ÑģÐµ Ð»Ð¸
ĠÐ³Ð¾ÑĢ Ñĥ
ÑĶ Ð²ÑĬ
Ð¾Ð²Ñĭ Ð¼Ð¸
ĠÑģÐµÑĢ ÐµÐ´
ĠÐ¿ÑĢÐ¾Ð´Ð° Ð¶Ð¸
Ð½Ñ« Ñ§
ĠÑĢÐ¸ Ð·Ñ£
ĠÐ¿ÑĢÐ°Ð² Ð´Ñ£
ĠÐ²Ð¾ÐµÐ² Ð¾Ð´
ĠÐ´ÑĢÑĥÐ¶Ð¸ Ð½Ð¾Ñİ
ĠÐ¿ÑĢÐ¸Ð³Ð¾Ð´ Ð¸ÑĤ
ĠÐ² ÐºÑ¹
ĠÐ¿ÑĢ ÐµÐ»Ñİ
ÑĤÐ¸ Ð½ÑĬ
Ñĸ Ñĸ
ĠÐ· êĻĭ
ÑĢÐµ ÑĨ
ĠÐ·Ð° Ð»Ð¾Ð¶Ð¸
Ð´Ðµ Ð¹
ĠÐ¾Ñĥ ÑĩÐ¸ÑĤÐ¸
ĠÐ¼Ð¾ Ð°
Ð²Ðµ Ð´Ð¸
ĠÐ´Ñ£ Ð»Ðµ
ÑģÐºÐ° êĻĹ
ĠÑĩÐ° ÑģÐ°
ÑıÑĤ ÑģÑı
ĠÐ³ÑĢÐ¸Ð² Ð½Ñĭ
ĠÐ·Ð»Ð° ÑĤÑĭ
ĠÐ¿Ð°Ð¼ ÑıÑĤÑĮ
ĠÐ½Ð°ÑĢ Ð¾Ð´ÑĬ
ĠÐĳÐ¾Ð¶Ð¸ Ñı
ĠÐ¿Ð»ÑĮ ÑģÐº
ĠÐ¼Ð¾ÑģÐº Ð²Ñ£
ĠÑģ ÑĢÑĮ
ÑĮ Ð½Ð¾
Ð¼ Ð½Ð¾
ĠÑĤ ÑĸÐ¸
ĠÐ¾ ÑĨÐ°
Ð»Ð¸ Ð²ÑĬ
ĠÑĥ Ð²Ðµ
Ð»Ñİ Ð±
Ð²ÑĮ ÑĢÑĮ
ÑģÐ¿ Ðµ
Ñ³ Ð¸Ð¼
ĠÐ²ÑĬÐ· Ð¼Ð¸
ĠÐºÑĢ Ð¾ÑĤ
ĠÐºÑĢ Ð¾Ð²Ð°
ĠÐ¼Ð¾Ðµ Ð¹
Ð²Ð¾Ð» Ð°
ĠÐ½Ð°ÑĩÐ° Ð»ÑĮ
ĠÐ½Ð°Ð´ Ð¾Ð±Ñ£
ĠÐ¶ÐµÐ½Ð° Ð¼
ÑĢêĻĭ Ð¶
ĠÑģÑĤÐ¾Ð» Ñ£
ĠÐ½Ð°ÐºÐ° Ð·ÑĭÐ²Ð°ÑĤÐ¸
ĠÐ²Ð¸Ð´Ð¸ ÑĪÐ¸
ĠÑģÐ»ÑĥÐ¶ Ð±Ñĥ
ĠÐ¿ÑĢÐ¸Ð²ÐµÐ´ Ð¾ÑĪÐ°
ĠÐ±Ð¾Ð³Ð¾ÑĢÐ¾Ð´Ð¸ ÑĨÑĭ
Ð° ÑĤÑĬ
Ñģ Ð¸ÑĤ
Ñģ Ð¾Ðº
Ðº ÑĤÐ°
Ðº Ð½Ñ¹
ĠÐº Ñµ
ĠÐ½Ðµ ÑĤÑĬ
Ð½Ð° ÑĤÑĨÐ°
Ð°ÑĢ Ñı
Ð¼Ð° ÑĤ
ĠÐ²Ñ£ Ð´Ð¾Ð¼Ð¾
ĠÐ´Ñ£ Ð²Ð¸
Ð¼Ðµ ÑĢÐ°
Ð½ÑĭÑħ ÑĮ
ĠÐ³ÑĢÑ£ ÑħÐ¾Ð¼ÑĬ
Ð·Ð¸ Ð¸
ĠêĻģÐ° Ð¿Ð¾Ð²Ñ£
ĠÐ½ÐµÐ±Ðµ ÑģÑĮ
ĠÐ¿Ð¾Ñĥ ÑģÑĤÐ¸
ĠÑĤêĻĭ ÑĢ
ĠÐ³ÑģÐ´ÑĢ Ð½Ð¸
ĠÐ½ÐµÐ± ÑĢÐµ
ĠÑģÐ»êĻĳ ÑĪÐ°
ĠÐ¿Ñĭ ÑĤÐºÐ¸
Ð¼ ÐµÑĤÑĮ
ĠÐ° Ð»ÐµÐºÑģÐ°Ð½Ð´
ĠÑĩ Ñĥ
Ð´Ð° Ð½ÑĬ
ĠÑ¡ Ð´Ñ£
ĠÑħ Ñģ
ĠÐ¿Ð¾Ñģ Ð¾Ð»
ĠÑ¥ Ð´Ð¸
ÑĨÐµ Ñħ
ĠÐ¿Ð¸ Ð²Ð¾
ĠÐ¿Ð¾Ð³ Ð¾Ñĥ
Ð²ÑĪ Ñİ
ĠÐ±ÑĥÐ´Ñĥ ÑĤÑĮ
ĠÐľÐ¾Ñģ ÐºÐ¾Ð²
ĠÐ°Ð»ÑĤÑĭ Ð½
Ð´ Ð¾Ð²Ð¸
ĠÐ¾ Ð²ÑĮ
ĠÐ¿Ð¾ ÑģÑĤÐ°
Ð¾Ð³ Ñĥ
ĠÐ¿ÑĢÐ¸ ÐµÐ´
ĠÑģÐµ Ð´Ðµ
ĠÑģÑĬ Ð²
ĠÐ²ÑģÐµ Ñģ
ĠÑģÑĭ ÑĢÑĥ
ĠÐ¼Ñĥ Ð¶ÑĬ
ĠÐ±Ð¾Ñı ÑĢÐ¸Ð½Ð°
ĠÐ¶ÐµÐ½Ð° Ð¼Ð¸
ĠÑģÐ»Ð°Ð² êĻĭ
ĠÑģÐ¾ÑĤÐ²Ð¾ÑĢ Ð¸ÑĤÑĬ
ĠÐ½Ñ£ÐºÐ¾Ðµ Ð³Ð¾
Ġ È¥
ĠÐ» Ð¾Ð´ÑĮ
Ñ« ÑīÐ°
Ð½Ñĥ ÑĤÑĮ
ÑīÐ¸ ÐºÐ¾Ð¼
ĠÐ¶Ð¸ Ð²Ð¸
ĠÐºÑĥ Ð½Ñĭ
ĠÑĩÐ¸ ÑģÑĤÑĭ
ĠÑģÑĤÐ°ÑĢ Ñ£
ĠÑī Ð°
ĠÐ´Ð¾Ð±ÑĢ Ð¾Ð¹
Ð³Ð¾ÑĢÐ¾Ð´ Ñĥ
ĠÐ½ÐµÐ¿ ÑĢÐ¸
ĠÑħÐ¾Ð»Ð¾Ð¿ Ð¸
ĠÑĤÐ¾Ð²Ð°ÑĢÑĭ ÑīÐ¸
ĠÐ¿ÐµÑĢÐµêĻĹ ÑģÐ»Ð°Ð²
Ð² Ð¾Ð»ÑĮ
ĠÑĤ ÑĥÑİ
Ð· Ð´Ñĭ
ĠÐ° Ð¼
Ð½Ð° Ð¼ÑĬ
Ð²Ð° ÑĢÐ¸
ĠÐ²ÑĬ ÑģÐ¸
Ñ« Ñ§
ĠÐ±Ñĭ Ð²ÑĪÐ¸
ÑģÐº ÑĮÑĸ
ÑģÐµ ÑħÑĬ
ĠÑĨÑĢ Ñİ
ĠÐ¿Ð¾Ð² ÐµÑĢ
ĠÐ´ÑĮ ÑĢ
ĠÐ±ÑĮ ÐµÑĤ
ĠÐ½Ð°ÑĪÐµ Ð³Ñ¡
ÑĪÑĤ Ñİ
ĠÐ±Ð¾Ð»Ñ£ Ð·Ð½Ð¸
Ñĩ Ð¸ÑĤÑĬ
ĠÐ° Ð¶ÑĮ
Ð¾Ð³ Ð¾Ð¶Ðµ
ĠÐ¶Ðµ Ð¼
ĠÑ¡ ÑĢ
ĠÐ·Ð° ÐºÐ»Ð°
Ð´Ñ£ ÑħÑĬ
ĠÑĤÐ° ÐºÐ°
Ð´Ð¾ ÑģÑĤÐ¸
ĠÐ²ÑģÑ£ Ð²Ð¾Ð»
ÑģÐºÑĭ Ñı
ĠÑĢÑĥÐ± Ð»Ð¸
ÑİÑī Ñ¹
ĠÐ¤ Ð¸
ĠÐ¼Ð°ÑĤ ÐµÑĢÐµ
Ð´Ð° Ñİ
ĠÐ½Ð¸ ÑĩÑĮ
ĠÐ¿Ð° Ð³Ñĥ
Ð¿Ð° ÑĩÐµ
ĠÐ½Ñ£ ÑĤÑĥ
ĠÐ¸Ð¼ ÑıÐ½
ĠÑĨÑĢÐº Ð²
ĠÑģÐ¾Ðº ÑĢêĻĭ
ĠÑħÐ¾ÑĢ Ð¾Ð±
ĠÑģÐ¾Ñģ êĻĭ
ÑĤ Ð²Ñ£
Ð³ Ð¾Ð½Ð¸
ÑĪ ÐµÐ½Ñĭ
ĠÐ» Ð°Ðº
ĠÑĥ Ð¼Ð¸
êĻĳ êĻĹ
Ð½Ðµ ÑĨ
ÑĸÐ¸ ÑħÑĬ
ĠÑĤÐµ Ðº
ĠÑģÐ¿ Ð¾ÑĢ
ĠÐµÑģ Ð¼ÑĬ
ĠÑģÐ¼Ð¾ÑĤ ÑĢÑı
ÑĨÐµÐ¼ Ñ£
ĠÐ¸ Ð½Ñ£ÑħÑĬ
Ð´ Ð½Ð¸
Ñĩ Ð½Ð°
Ñĩ ÐµÐ½Ñĭ
ĠÐ½Ðµ Ð²Ð¾Ð»
ĠÑĢ ÑĨÑĭ
ĠÐĺ ÑģÑĥ
ÑĢÐµ Ð½Ð¸
ĠÐĳ ÐµÐ·
ĠÐ¸Ð¼Ð° ÑĤÑĬ
Ð½Ñĸ ÐµÐ¼ÑĮ
ĠÐ·Ð°Ð¿Ð° ÑģÐµ
ĠÑĢÐ¾Ñģ Ð¿ÑĢÐ¾Ñģ
ĠÐ¿Ð¾ÑģÑĤÐ°Ð²Ð¸ ÑĤÐ¸
ĠÐ²Ð·Ñ§ Ð»ÑĬ
Ġ i
Ð´ ÐµÐ¼
Ð´ Ð¾Ð²Ð°ÑĤÐ¸
Ñĩ ÐµÐ¼ÑĬ
ĠÐµ Ð²Ð°Ð½Ð³
Ñ¡ Ð½êĻĭ
ĠÑħ Ñ£
Ñ¥ Ð²Ð¸
ĠÑģÐ° Ð²Ð°
ĠÐ¸Ð· Ð²Ð°
Ð¿Ð° Ð»Ð¸
ĠÑģÐ² êĻĻ
ĠÑģÑĤÐ° Ð»Ð°
ĠÐ²Ð¾Ð» Ð¾Ðº
ĠÑģÑ£ Ð²ÐµÑĢ
ĠÑĤÑĥ ÑĢ
ĠÑĢÑ¹ Ð±Ð°
ĠÑģÐ»Ñ¹ Ð³Ð¸
ĠÐ¸Ð²Ð° Ð½ÑĬ
ĠÐŁÐ° ÐºÐ¸
ĠÑĩÐ»Ð¾Ð²Ñ£ ÐºÑĬ
ĠÑ¿Ð½Ñİ Ð´ÑĬ
ÑĤ Ð¾Ð±Ñĭ
Ð½ ÐºÑĬ
ĠÐ¸ Ð´Ð¾ÑĪÐ°
Ðº Ð½ÑıÐ·ÑĮ
ĠÐ² Ð¾Ð¶
ĠÐ½ Ð¾Ð¶
ĠÑĢÐ° Ð±Ð¸
ĠÐ¡ Ðº
ĠÐ²Ñ£ Ð¶Ð»Ð¸
Ð±Ð¸ ÑĤÑĮ
ĠÐ¿Ð¾Ðº Ð¾ÑĢÐ¸
ĠÐ²Ñĭ ÐºÑĥ
ĠÐ²Ð¾Ð· Ð°
ĠêĻģ Ð´Ðµ
ĠÐ¿ÑĢÐ° êĻģ
ĠÐ¼Ñ¹ Ð¶Ðµ
ÑħÐ¾Ð´Ð¸ ÑĤÑĮ
ĠÐ´ÑĬ Ð¼Ð¸ÑĤ
ĠÐ½ÐµÐ´ Ð¾Ð±
ĠêĻģÐµÐ¼ Ð»Ñİ
ĠÐ´Ð¾ÑĢ Ð¾Ð³Ð¸
ĠÑĨÐµÑĤ êĻĳÑĢÐ¸
ĠÐµÐ¼ Ð»Ð¸
ÑģÐºêĻĭ Ñİ
ĠÑģÐ°Ð¼Ð¾ Ð¸
ĠÑĢÑ¹ÐºÐ¾Ð´Ñ£ Ð»ÑĮ
Ð» ÐµÐ¼ÑĬ
ĠÑħ Ð²Ð¾
ĠÑĢÐµ ÐºêĻĭ
ĠÐ³Ð»Ð° ÑģÐ¾Ð¼ÑĬ
ĠÑģÑĮ Ð´Ðµ
ĠÐ²Ð¸Ð´Ñ£ Ð²ÑĪÐµ
ĠÑĢÐ¸ Ð·
ĠÑģÐ»ÑĭÑĪÐ° Ð²ÑĪÐµ
ĠÐ¸Ð´Ðµ ÑĪÐ¸
ĠÐ¢Ñ£ Ð¼Ð¶Ðµ
ĠÐ½ÐµÐ¼Ð¾ ÑīÐ¸
ĠÐ·Ð°Ñħ Ð°ÑĢÑĮ
ÑĤ ÐµÐ¼ÑĬ
Ð¼ ÑĸÐ°
Ðº Ð²Ñĭ
ĠÐ² Ð¾Ð´Ñ£
Ð± Ð¸ÑĤÐ°
Ð· Ð»Ð¸
ĠÐ¿ÑĢ ÑĹ
ĠÐ¿ÑĢ Ð¾Ð¿Ð°
ÑĢÐ° Ð½
ĠÐ° Ð±Ð¸Ðµ
Ñ¡ Ð°Ð½
ĠÐ¿ÑĢÐ¾ ÑģÑĤÐ°
ÑĢÑĥ Ñİ
ÑģÐµ Ð¹
ĠÐ¿Ð¸ ÑĪÐµÑĤ
ĠÑģÐ¾ Ñĩ
ĠÑĤÐ²Ð¾Ðµ Ñİ
ĠÐ²ÑģÑı ÐºÐ¸Ðµ
ĠÐ·Ð»Ð° Ñı
ÑĤÐµÐ» Ñİ
ĠÑĢÐ°Ð´Ð¾ ÑģÑĤ
ĠÐ¼Ð¸ÑħÐ°Ð¸ Ð»Ñĥ
ĠÐ¿ÑĢÐ¸Ð²Ðµ ÑģÑĤÐ¸
ĠÐ²Ð´ Ð²Ð¾Ðµ
Ð±ÑĢÑ£ ÑĤÐµ
ĠÐ¸Ñİ Ð»Ñı
ĠÐ²ÑģÐµÐ´ ÐµÑĢ
ĠÐ¸ÑĤ ÑĤÐ¸
ÑĢ ÑĸÐµ
ĠÑģ ÑĢÑĬ
ĠÐ¸ Ð½Ð¾Ðµ
Ð¼ Ð¾Ð¼ÑĬ
Ð³ Ð¾Ð²ÑĬ
Ð¾Ð¼ Ð°Ð½
Ð´Ð¸ Ð¼
Ð²ÑĬ Ð·
ÑĤÐ° ÑĤÐ¸
ĠÑ¹ ÐºÑĢÐ°
ĠÑģÐ¿ ÑĢÐ¾ÑģÐ¸
ÑģÐºÑĭ Ñħ
ĠÐ¼Ð½Ñ¡ Ð³Ð°
ĠÐ¿Ð»Ð¾ ÑĤÑĮ
ÐºÐ¾ÑĢ Ð¼Ð¸
ĠÑģÑĢÐ¾Ðº Ñĥ
ĠÐ¿ÑĭÑĤÐ° ÑĤÐ¸
ĠÐºÑĸÐ¸ Ð¶Ð´Ð¾
ĠÐ² Ð¸ÑĤÐµ
Ñ§ Ð½ÑĸÐµ
ÑģÑĤ Ð¾Ð»ÑĮ
Ð³ Ð»ÑĮ
Ð¾Ð² êĻĭ
ĠÐ¿ÑĢ Ð¾Ð´
Ð¿ Ð¾Ðº
ĠÐ½Ðµ Ð¼Ðµ
ĠÐ½Ðµ Ð¼Ð¾Ñĥ
ÑĢÐ° Ð²Ð°
êĻĹ ÐºÐ¾Ð¶Ðµ
êĻĳ Ð¼ÑĬ
Ð´Ðµ Ñħ
ĠÐ²Ñ£ ÑģÑĤÐ¸
Ð½Ñı Ñı
ĠÐľ Ð½Ð¾Ð³
ĠÐ½Ñ£ ÐºÑĭ
ĠÑĤÑ£ Ð¼Ð¸
ĠÐ²ÐµÐ»Ð¸Ðº Ð¾Ð¹
ĠÐ¼ÑĬ Ð½Ð¾Ð³
ĠÐ¿êĻĭ ÑģÑĤÑĭÐ½Ð¸
ĠÐ´ÑĢÐ° Ð³Ð¸
ÑĪ Ð¸ÑĤÐµ
ÑĤÐ¸ Ð¸
ĠÑ¡ Ð¿Ð°
ĠÑĥ Ð¼Ðµ
ĠÑ¿ Ð¸
ĠÐ¶ Ð²Ð¾
Ð½ÑĮ êĻĹ
ÑĩÐ° Ð»ÑĬ
ĠÐ¸Ð· Ð±Ñĭ
ĠÐ¿Ð»Ð° ÑĩÑĮ
ĠÑĩÐµ ÑģÑĤÐ¸
ĠÑī ÑĮ
ĠÐ³ÑĢÐ¸Ð²ÑĮ Ð½ÑĮ
ĠêĻģÐµÐ¼ Ð»Ð¸
ÑĪÐµÐ´ ÑĪÐµ
ĠÐ¼Ð¾Ð»Ð¾Ð´ ÑĨÐ°
ĠÑħÐ²Ð° ÑģÑĤÐ°
ÑĤ ÑĶ
ÑĤ ÑĸÑİ
Ð² ÐµÐ»ÑĬ
ĠÐ¿ÑĢ ÐµÐ»Ðµ
ĠÐ¿Ð¾ ÑĩÐ¸Ð½
Ð¶ Ð´Ñĥ
ĠÐ¡ ÑĤÐ°ÑĢ
ĠÐļ ÑĢ
ÑĦ Ñĥ
ĠÑģÑĤÐ° Ð³Ð¾
ÑģÑĤÐ² ÑĸÐµ
ÐµÐ½Ð° Ñ§
ĠÐ¸Ð¼Ð° ÑĤ
Ð°Ð½ Ð´Ð°
ĠÐ´ÐµÑĢ Ð·
ĠÐºÐ¾Ð» Ðµ
ÑħêĻĭ ÑģÑ§
êĻĳÐ¸ ÑħÑĬ
ĠÐ¿ÑĢÑĸÐ¸ Ð´ÐµÑĤÑĬ
ĠÐ´Ñ£ÑĤ Ð¼Ð¸
ĠÐ¾Ð±Ñ£ ÑīÐ°
ĠÐĳÐ° ÑĤÑĭ
ĠÐ°Ð»ÐµÑ¯ Ð°Ð½Ð´
Ð¾ Ñħ
ÑĢ Ð¼Ð¸
ÑĤÐ¸ ÑĢÐ°
ÐµÐ½ Ñı
ĠÐ²ÑĬ ÑģÑĤ
ĠÐ²Ñģ Ð»Ñ£Ð´ÑĬ
Ð²ÑĬ êĻģ
Ð²ÑĬ ÑĪÐ¸
ĠÑģÐº ÑĢÑĬ
ĠÐ±ÐµÐ· Ð±Ð¾Ð¶
Ð½Ð¸Ðº Ñ£
ĠÐĿÐ° ÑģÑĤÐ°ÑģÑĮ
ĠÑĤÑĢ Ñ¹Ð´
ĠÐ²Ð¾Ñģ ÐºÑĢÐµ
ĠÐ£ Ð¶Ðµ
ĠÑĢÐ¾Ð· Ð±Ð¾
Ð¿Ñĥ ÑģÑĤÐ¸
ĠÐºÐ°Ð±Ð° Ð»Ñĥ
ĠÐ¸ Ð´ÐµÑĤÑĮ
ĠÐ¿ Ð¾Ð¶ÑĮ
ĠÑĤ ÑīÐ°
Ð³ ÑĢÑ§
ĠÐ½Ðµ Ðµ
ĠÐ¿Ð¾ ÑĩÑĮ
ĠÑ¡ ÐºÐ¾Ð»Ð¾
ĠÐ¾Ñĥ ÐºÐ°
ĠÐ²Ð° Ð²Ð¸
ĠÐ¿ÑĢÐµ Ð¸
ÑģÐ» Ð¾Ð²Ð¸
ĠÐ³Ð¾ÑĢ Ð´Ñĭ
ÑĪÑĮ Ð´ÑĬ
ĠÑĩÐ¸ Ð½Ñ¹
ĠÐ³Ð» Ñģ
ĠÐĴÑĬ Ð·
ĠÐŁÐ¾ ÑĩÑĤÐ¾
ĠÑĤÐ²Ð¾ÑĢ Ð¸ÑĤÐµ
ĠÑģÐºÐ° Ð·ÑĭÐ²Ð°
ĠÐ²ÑģÐµÐ¼ Ñ¹
ĠÐ²Ð·Ñ§ ÑĪÐ°
ĠÐ²Ñ£Ð´Ð° Ñİ
ĠÑĤÐ²Ð° ÑĢÑĮ
Ñģ Ð°ÑĢÑĮ
ĠÐ½Ðµ Ð·
ĠÑģÑĤ ÑĢÑı
ĠÐ²Ð¸ Ð½Ðµ
ĠÑĢÑ£ ÑĨÑ£
ĠÐ²Ð¾ÑĢ Ð¾ÑĤÐ°
ĠÐ¿Ð»Ð¾ ÑĤÐ¸
Ñ¿ Ð²Ñ£
ĠÐ²ÑĮÑģÑ£ Ð¼ÑĬ
ĠÑģÑĤÑ£ Ð½Ñĭ
Ð³Ð¾ÑĤ Ð¾Ð²
Ð² Ð¾Ð¼ÑĬ
ĠÑĥ ÑĤ
ĠÐ²Ñ£ Ð½
ĠÐ²Ñ£ ÑĩÑĮ
ĠÐ¼Ð° ÑĢÐ¸
ĠÐ¿ÑĢÑ£ Ð¶Ðµ
ĠÑĤÑĢ ÐµÑĤÐµ
ĠÑģÑ¹ Ð´
ĠÐ´ÑĮ Ð½Ð¸
ĠÐµÑģ ÐµÐ¼Ð¾
Ð°Ð½ ÑĨÑĭ
ĠÐ´Ñĥ ÑĪÐµ
ĠÑĩÑİ Ð´ÐµÑģÐ°
ĠÐ±Ð¾Ð³ Ñĥ
ĠÑģêĻĭ Ð´ÑĬ
ĠÑĪÐ° ÑĤÐµÑĢ
ĠÑģÑĤÐ°ÑĢÑ£Ð¸ ÑĪÐ¸
ĠÑĦÐ¸ Ð»Ð¾ÑģÐ¾
ĠÐ¸ Ð¼ÐµÐ½Ð°
ĠÐ² ÐºêĻĭ
Ð³ Ð»Ð¾
ĠÐ¶Ðµ ÑĢÑĤ
Ð¶Ðµ Ñİ
ĠÑ¡ Ð±Ð°
Ð¼Ð° Ð½ÑĬ
ĠÐ¶ ÑĢÑĬ
Ð½Ñı Ð³Ð¾
ĠÐ³Ð¾ÑĢ Ð¾Ð´Ñ£
ÑĢÑĭ Ð½Ð¸
ĠÑĩÐ° ÑģÑĭ
ĠÐºÑĢ Ð¾ÑĤÐ¾
Ð½Ð¾Ð¼ Ð¾
ĠÑĤÑĬ ÑĢ
ĠÐ±Ð¸ ÑĤÑĮ
ĠÐ¼Ð°Ð½Ð° ÑģÑĤêĻĳ
ĠÑģ Ð°ÑĢ
ÑģÑĤ Ð¾Ð¹
ĠÐ³ Ð¾Ð½Ð¸
Ð½Ð¸ ÑĨÑ§
Ð´Ð° Ð»ÑĬ
ĠÐ±Ñĭ ÑħÑĬ
ÑĩÐ¸ ÑģÐ»
ĠÑĤÐ° ÐºÐ¸Ðµ
ĠÐ±Ñ£ ÑģÐ¸
ĠÐ§ Ðµ
ĠÐ¼ÑĮ Ð½Ñ£
ĠÑģÑĥÐ´ ÑĬ
ĠÑģÑĤÐ¾Ð» Ð±
ĠÑģÐ¾Ð² ÐµÑĤ
Ð¶Ð´ ÐµÐ½
Ñģ Ð²Ð¸
Ð· Ð´ÑĬ
ĠÐ³ ÑĢÐ¾
ĠÐĲ ÑĦÐ°Ð½Ð°
ĠÑģÐ²Ð¾ ÐµÐ¼Ð¾Ñĥ
ĠÐ¾Ñĥ Ð²
ĠÐ¾Ñĥ Ð¿ÑĢÐ°
ÑĩÐ° ÑĤÑĮ
ĠÑı Ð·ÑĬ
ĠÐ±Ðµ êĻģÑĬ
ĠÐ»Ð¸ ÑĪ
Ð¼Ð¾ Ñİ
ĠÑģÑĤÐ° ÑĢÐ¸Ð½
Ð´Ñĥ Ð¼Ð°
ĠÐ³ÑĢÐ°Ð¼Ð¾ÑĤ Ð¾Ñĥ
ĠÐ¿ÑĢÐ°Ð² Ð´Ñĭ
ĠÑ¡Ð±ÑĢÐ° Ð·
ĠÑģÐºÐ°Ð·Ð° ÑĤÐ¸
ĠÐ½Ð°ÑģÐ¸ Ð»ÑĮ
ĠÑ¡ Ð»ÑĮ
ÑģÐº Ð¾Ð²Ð¾
Ð¼Ð° Ð½Ð°
ĠÑĤÐ¾ Ñ§
ĠÐ¸Ð· Ð¼ÐµÐ½
Ð¶Ð° ÑĤÑĮ
ĠÐ¿ÑĢÐµ ÑģÐ»Ð°Ð²
ĠÐºÐ¾ÑĢ Ð¾Ð±Ð¸
ĠÐ¼Ñ£ ÑģÑĤÑĬ
ĠÑĨÑĢ ÑģÑĤÐ²Ð¾
ĠÑģÑĤÐ°ÑĢ Ð¾Ð¹
ĠÐ±êĻĳ Ð²Ð°
ĠÐ¿Ð» Ð¾Ð´ÑĬ
ĠÑħÐ¾Ð» Ñ¡
Ð²ÑĪ êĻĭ
Ð´ÐµÑģÑ§ ÑĤ
ĠÐ´ÑĢêĻĭ Ð³Ð°
ĠÑħÐ¾Ñī ÐµÑĤÑĬ
ĠÐ¢ÑĬ Ð³Ð´Ð°
ĠÐ¿ Ñĸ
ĠÐ² êĻ¿
ĠÐ¾ ÑģÑĤÐ°Ð½
ĠÐ½Ð° Ð»Ñ£
ĠÐ¿ÑĢ Ð¾ÐºÐ°
ĠÐ¿Ð¾ êĻģÐ½Ð°
ĠÐ¶ Ñĭ
ĠÐ¾ÑĤ ÑĨÐ¾Ð²
ĠÑģÐ¸ Ð¼Ð¸
ĠÑģÐ¸ ÑĢÑ£
Ð¶Ð° ÑĤ
ĠÐºÐ¾ ÑģÑĤ
Ð³Ð° Ñħ
ÑĶ ÑĤ
Ð»ÐµÐ½ ÑĸÐ¸
ĠÐ¿Ð¾ÑģÐ»Ð° Ð»Ðµ
ĠÑħÐ¾ ÑīÐµ
ĠÎ¹ Ð»Ð¸
ĠÐ¿ÑĢÐ¾Ð¿ Ð¾Ð²Ñ£
ĠÑĨÐµÐ»Ð¾Ð²Ð° Ð»
ĠÐ¿Ð¾Ð¼ÑĭÑĪ Ð»Ñı
Ðº ÑĪÐ¸
ÑģÑĤ Ð¾Ð¼
ÑģÑĤ Ð¾ÑĤ
Ñħ â¸¯
ĠÐ· ÐµÐ»Ð¾
Ð¾Ñĥ ÑĤÑĮ
Ð´Ð¸ Ð»Ð°
ÑĩÐ° ÑĪÐµ
ĠÐĶ Ð¸
ĠÐĳ ÑĥÐ´
ĠÐ²Ñĭ Ð¼Ñĭ
ĠÐ³Ð»Ð°Ð³Ð¾Ð» Ð°ÑĪÐµ
Ð»ÐµÐº ÑģÑ£
ĠÐ±Ð¸ Ð»Ð¾
ÑīÐµÐ½ ÑĸÐ°
ĠÐ³Ð¾Ð» Ñ£
ĠÐĿÐ¸ Ðº
ĠÐ¸Ð²Ð°Ð½ Ð¾Ð²Ð¸ÑĩÐ°
ĠÐ²ÑĬÐ´Ð° Ð¸
ĠÐ¿Ð¾Ð¶Ð°Ð»Ð¾Ð²Ð° ÑĤÐ¸
ĠÑĥÐºÐ° Ð¶ÐµÑĤ
ÑĤ Ð¾Ð¹
Ð½ Ð¾Ð²Ñ£
Ðº Ð²ÑĮ
Ñħ ÑĢÐ¸
ĠÐ½Ðµ Ð¿Ð¾Ð´Ð¾Ð±
ĠÐ¿ÑĢÐ¸ Ð¸Ð¼ÑĬ
ĠÑ¿ Ð¿Ð°
Ð½Ðµ ÑĪÑĮ
ÑīÐµ Ð¹
ĠÐ¡ ÑĤÐµ
Òĩ ,
ĠÐ´Ð¾Ð± ÑĢÐ¸
ĠÐŀ Ð¶Ðµ
ĠÐ»Ðµ Ð³
ĠÐ³Ð° Ð»Ð¸
ĠÐ±ÑĭÐ²Ð° ÐµÑĤ
ĠÐ´ÑĢÐµ Ð²Ð°
ĠÐ³ÑĢÑ£Ñħ Ñĭ
ĠÐ´Ñī ÐµÑĢÐ¸
ĠÐ¸Ð·Ð±Ð° Ð²Ð¸
ĠÐ¿ÑĢÐ¾ÑĢ Ð¾Ðº
Ð¿Ñģ Ð²Ð°
Ñģ ÑħÐ¾Ð´
Ñ§ Ð½Ð¾
Ð¶ Ð½Ð¸
ÐµÐ» Ñ§
Ð´Ð¸ Ð¸
Ð°Ðº Ð¾Ð½ÑĮ
ĠÐ¾ÑĤ ÑĢÐ¾
ĠÐ¼Ð¸ Ð»Ð¾ÑģÐµÑĢ
ĠÐ²Ñ£ ÑĤ
ĠÐ²Ð° ÑĢÐ¸ÑĤÐ¸
ÑĶ Ð¸
ĠÐ¿Ð¾Ð¼ Ð¾Ð¶Ðµ
ĠÐ¿Ð¾ÑĢ êĻĭ
Ñ³ Ð¾Ð½
ĠÐ²ÑĬÐ· Ð´Ð²Ð¸
ĠÐ²ÑĢÐµÐ¼ ÐµÐ½Ð°
ĠÐ±Ñ« Ð´Ñ«
ĠÐ±ÑĢÐ°ÑĤÑĮ Ð¸
ĠÑĪÑĮ ÑģÑĤÑĮ
ÑĤ Ñ«
ÑĢ Ð¾Ð´Ð¸
Ð³ Ð´Ðµ
ĠÐ¿ÑĢ Ð¾Ð»
âĢ ĵ
ĠÐ¿Ð¸ Ð²Ð°
ĠÐ¿Ð¾Ð³ Ñ¹Ð±
Ñķ Ð°
ĠÐ±ÐµÑĢÐµ Ð¶Ðµ
ĠÑĢÐ°Ð± Ð¾ÑĤÑĭ
ĠÐ¤ ÐµÐ´
ĠÐ²Ð¾ÑģÐ¿ Ð¸ÑĤÐ°
ĠÐ½Ð¸Ð± ÑĥÐ´ÑĮ
ĠÐ²ÑģÐµÑģ Ð¾Ð¶
u s
â Ł
Ł ¦
ĠÐ² ÑģÑĤÐ°
ĠÑĤ Ð²ÑĮÑĢ
ĠÐ· Ð²ÐµÑĢ
ĠÐµ Ð²Ð°Ð½Ð°
Ð½Ð° Ð¸
ĠÑģÑĤ ÐµÑĢ
ĠÑ¡ ÑģÐ¿Ð¾Ð´Ð¸Ð½Ðµ
ĠÑģÑĬ ÐºÐ¾Ð½ÑĮ
ÑĨÐ° Ð¼ÑĬ
ĠÐ¿ÑĢÐ¾ êĻģ
ÑģÑĤÐ² ÐµÐ½Ñĭ
ĠÐ³ÑĢÐ¸Ð² Ð½êĻĳ
Ð½Ð¸ÑĨÐ° ÑħÑĬ
ĠÐºÑ¹ Ð´Ñĭ
Ġâ Ł¦
ĠÐ¼Ð¾Ð¶Ðµ Ð¼ÑĬ
ĠÐ´ÑĢÐ¾Ñĥ Ð³Ð°
ĠÐ´Ð¾ÑģÑĤÐ¾Ð¸ Ð½ÑĬ
ĠÐ»Ð¾Ñģ Ð¾ÑģÐ¸
ĠÑħÑĢÐ°Ð± ÑĢÑĭ
ĠÐ½Ð¾Ð²ÑĬÐ³Ð¾ÑĢÐ¾Ð´ ÑĬ
ĠÐ¾Ð±Ð¾ÑĢ Ð¾ÑĤ
ĠÑģÑĤÑĢÑı Ð¿
âŁ §
Ñģ ÑĢ
ĠÐ¸ Ð½Ð¾Ð¹
ĠÐ² ÑĤÐ¾ÑĢÐ¾Ðµ
Ð± ÐµÐ»ÑĮ
ĠÐ· Ðµ
ĠÑĥ Ð²Ñ£
ĠÑĢÐ° Ñĥ
Ð¿Ð° Ð½
ĠÐ±Ñ£ Ð»ÑĬ
ÑĥÑĤ ÑĩÐ¸
ĠÑģÐ¼ Ñĭ
ÑģÑĭ Ð»Ð°
ĠÐ»Ð° Ð´
ĠÐ²ÑģÑı ÐºÐ¸Ð¼Ð¸
ĠÐ¼êĻĭ Ð¶Ðµ
ĠÐ¿Ð°Ðº ÑĮ
ĠÑģÐ»ÑĥÐ¶ Ð±Ðµ
ĠÐ²Ð¾Ð¹ ÑģÐºÐ°
ĠÐ°Ð²Ð³Ñĥ ÑģÑĤÐ°
ĠÑĤÐ¾ÑĩÐ¸ Ñİ
) ,
ĠÐ² Ð¾Ð½ÑĮ
Ñħ Ð½Ð¸
ĠÐµ Ñ§
ĠÑģÑĤ Ð¾Ñĥ
ÑģÑĤÐ¸ êĻĹ
ĠÐ¼Ð¸ Ðº
ĠÐ²Ð¾Ð» ÐµÑİ
ĠÑģÑĤÑĢÐ° Ñħ
ÑĤÑ£ ÑħÑĬ
ĠÐ±ÑĭÐ²Ð° ÐµÑĤÑĬ
ĠÐ¼Ñ« Ð¶ÑĮ
ĠÑģÑĤÐ²Ð¾ÑĢÐ¸ ÑĤÐ¸
ĠÐ¿ÑĢÐ¾Ð¼Ðµ Ð¶
ĠÐ¿ÑĢÐ°Ð²ÑĮ Ð´ÑĮ
ĠÐ»ÐµÑµ Ñĸ
ÑĢ Ð¾Ð»
Ð² Ð½Ð¸
Ð³ Ñ«
ĠÐ³ Ð¾Ð²Ñ£
Ð»Ð° ÐºÐ°
ĠÐ» ÐµÑĤÐ¾
ĠÐ·Ð° ÑģÑĤÐ°
ĠÑĨ ÑĢÑ§
ÑĩÐ¸ Ð»Ð¸
ÑĩÐ¸ Ð½Ñĥ
ÑħÐ° Ð»Ð¸
ÑģÑĤÐ¾ Ñı
ĠÐ±Ð» Ð¶
ĠÐ¿Ð¾ÑĤ Ð¾Ð¿
ĠÐ¿Ð¾ÑĤ ÑĢÑ£Ð±
Ð½êĻĳ êĻĹ
ĠÐºÐ¾Ð» Ð°
ĠÐ¼Ð¾ÑĢ Ñı
ĠÐ¼Ð½Ñ¡ Ð³Ð¸
Ð¾Ð¿Ð¸ ÑģÐ°
ĠÐ¿Ð¸Ñģ Ð¼Ð°
Ð¸ Ð¼ÑĮ
ĠÑ ¦
ĠÐ¸ Ð³êĻĭ
ÑģÑĤ Ð¸ÑĤÐµ
ĠÐ¿Ð¾ ÑīÐ°
ĠÐ» Ð¾Ð½Ð¸
ÑĪÐ° ÐµÑĤ
Ð½Ðµ ÑĨÑĬ
ĠÐ²Ð¾Ð· Ð´ÐµÑĢÐ¶Ð°
ĠÐ¶Ð° Ð»Ð¾Ð±
ĠÐ¼Ð½Ð¾Ð³ ÑĬ
ĠÐ´Ð¾Ð±ÑĢÑĭ Ð¹
ĠÐ¿ÐµÑĩÐ° ÑĤÐ¸
ĠÐ¾Ð¿ ÑıÑĤÑĮ
ĠÐ¡ÑĤÑĢÐ° ÑĤÐ¸
.âĢ ł
Ñĩ ÐµÐ¼Ñĥ
ĠÐµ Ð¿Ð¸ÑģÐºÐ¾Ð¿
ĠÑĩ ÑĤÐ¸
ĠÐĲ Ñħ
Ð¼Ð° ÑĤÑĢÐ¸
ĠÐ¿ÑĢÐ¾ Ð¸Ð·
ÐºÑĥ Ð»Ð¸Ñĩ
ĠÐ³ÑĢÐ¸ Ð²ÑĬ
ĠÐ¸ÑģÐ¿ ÑĭÑĤÐ°
ĠÐ¶Ð¸Ð² ÑĥÑĤ
ĠÐ´Ð¾Ð¼Ð° Ð¶Ð¸
ĠÐ¾Ð±Ð¸ Ð´Ñĥ
Ð½Ð¸ÑĨ Ñ«
ĠÐ¿Ð¾Ð³ÑĢÐµ Ð±Ðµ
ĠÐ·Ð´ÑĢÐ°Ð² ÑģÑĤÐ²Ñĥ
ĠÐ² êĻģ
Ð´ Ð¾ÑĢÐ°
ĠÐ¿ÑĢ Ð¾Ð±
Ð¾ÑĢ Ñ§
ĠÐ¿Ð¾ ÐµÑħÐ°
ĠÐ¶Ðµ Ð·
ĠÑģÑĤ ÑĢÑĥ
ĠÑ¡ Ð³Ñ¹
Ð±Ð¸ Ð»ÑĬ
ÑĶ ÑĢÐ¸
ĠâĢ Ļ
Ð»ÐµÐ½ Ðµ
ĠÐ²ÑĬÐ· Ñ§ÑĤÐ¸
ĠÐ³Ð» ÑĤÑĮ
ÑģÐºÑĭ Ð¼
ĠÐ¶Ð¸ÑĤÐ¸ Ðµ
ĠÑģÐºÐ°Ð·Ð° Ð»ÑĬ
ĠÐ²Ð¾Ð·Ð¼ Ð¾Ð¶Ð½Ð¾
ĠÐ¼ÑĮÑģÑĤÐ¸ ÑģÐ»Ð°Ð²
Ï ĥ
ÑĤ Ð½Ð°
ÑĤ Ð²Ð¾Ñİ
Ð»Ðµ Ð²ÐµÑĤ
Ð½ÑĮ ÑĸÐ¸
ĠÑĤÐµ Ð±Ñ§
ĠÑ¥ Ð³Ð¾Ð¶Ðµ
ĠÑģÐ»Ð° Ð²Ð¾
ĠÐ¿Ð¾ÑĤ ÑĢÑ£
ĠÐ±Ð¶ ÑĸÐ¸
ĠÑģÑĤÐ¾ Ð¸ÑĤÑĬ
Ð³Ð¾Ð´ Ð½Ð¾
ĠÑģÐºÐ° Ð¶Ð¸
ĠÑģÐºÐ¾ÑĢ Ñ£
ĠÑĢÐµÑĩ ÐµÑĤÑĬ
ĠÑĪÐ° ÑĤ
ĠÐŁÐ¾Ñģ Ð»Ñĥ
ĠÐ·Ð¸ Ð¼Ñ£
ĠÐºÑ¡ Ð½
Ð¸ Ð»
ĠÑģ ÐºÐ°Ð·
ĠÐ²ÑĬ Ð¿ÑĢÐ°ÑĪÐ°
Ð´Ð° Ð½
Ð´Ðµ ÑħÑĬ
ÑĩÐ¸ Ð»ÑĬ
ĠÐ²Ðµ Ñī
ĠÐ¼Ð¸ ÑĢÐ¾
ĠÐ¼Ð¾ ÑīÐ¸
ĠÐ¿Ð¸ ÑģÑĮ
Ð·Ñĭ Ð²Ð°ÑĤÑĮ
ĠÐ¸Ð¼ Ñ¹
ĠÐ²ÑĬÐ· Ð»Ð¾Ð¶Ð¸
ĠÑģÐ¿ Ñĥ
ĠÐ±ÑĢÐ°ÑĤ Ð¾Ð¼
ĠÐ¼Ð½Ð¾Ð³Ð¾ ÑĨÑ£
ĠÐ¶Ð° Ð»Ñĥ
ĠÑĨÑ£ Ð»Ð¾
ĠÐ´êĻĭ ÑĪÐ¸
Ñ§Ñī ÑĸÐ¸
ĠÐ½Ð°Ð¿Ð¸ÑģÐ° Ð½Ñĭ
ĠÐ¿Ð¾ÑĢÑĥ ÐºÑĥ
ĠÐ¢Ñ£ Ð¼
Ð¶Ð¸ÑĤ ÐµÐ»ÑĮ
ĠÑĥÐ´Ð° ÑĢÐ¸
ĠÐ´Ð¾ÑģÑĤÐ¾Ð¸ ÑĤÑĮ
ĠÐ²ÑĮÑģÐµ Ð³Ð¾
ĠÐ·Ð´Ð¾ÑĢ Ð¾Ð²ÑĮ
ĠÐ»Ð°Ð² ÐºÐ¸
ÑĢ ÑĸÐ°
ÑĢ Ð¸ÑĤÑĬ
Ñģ Ð¾ÑĤ
ĠÑĥ Ð²
ĠÑĨ Ñİ
Ð»Ðµ Ðµ
ĠÑĢÐµ ÐºÐ¸
ĠÐ¶Ð¸ Ð»
ĠÐĵ Ð¾ÑĢÐµ
ĠÐ¿Ð¾ÑģÐ»Ð° Ð½Ð¾
ĠÑģÑ¹ ÑĪÐ¸
ĠÐ±êĻĳ Ð»ÑĬ
ĠÐºÐ¾Ð» ÐµÑģ
ĠÐ¿Ñ£ ÑģÐ½Ð¸
ĠÐ¶Ð¸Ð² Ñ¹
ĠÐ²ÐµÑĤ ÑĩÐ°
ĠÐ·Ð°Ð¿Ð¾Ð²Ñ£ Ð´ÑĮ
ĠÑĥÐ± Ð¾Ð¹
ĠÑģ ÑĩÐµÑĤÐµ
ĠÐ¿ ÐµÐ½ÑĮ
ĠÐ´ ÑĪÐµ
ĠÐ´ Òį
ÐµÑĤ Ñ£
ĠÐ» Ð¾Ð²Ñ£
Ð¾Ð³ Ñ¹
ÑĩÐ¸ Ð¼ÑĬ
ĠÐ²Ð¾ Ñ¥
ĠÐ²Ñ£ ÑĤÑĢÑĬ
Ð±Ð¾ ÑĪÐ°
ÑģÐ¿ Ð¾Ð²Ñ£Ð´Ð°
ĠÐ¿Ð¾Ð¼ ÑĭÑģÐ»
ĠÑģÑĭ ÑĢ
ĠÐ²ÑĬÐ· Ñ§Ð»Ðµ
ĠÑĤÐ¾Ð± Òį
ĠÐ²ÐµÑĢ ÑħÑĬ
ĠÑĢÐ°êĻģ Ð¾Ñĥ
ĠÐ´Ð¾Ð±ÑĢÑĭ Ð¼
ĠÐ¼Ð¾ÑĢ Ñ§
ĠÑħÐ¾Ð»Ð¾Ð¿ ÑĬ
Ð·Ðµ ÑĢÐ°
ĠÐ´Ð¾Ð±ÑĢÐ° Ñ§
ĠÐ²Ð´ Ð¾Ð²Ð¸
ĠÐºÐ½Ð¸Ð³Ð° Ñħ
ĠÐ´Ð¾Ð¼Ð¾ ÑĩÐ°ÑĤ
Ð¼ ÐµÑĤÐ°
Ðº ÑĢÑĮ
ĠÐ´ Ð¾ÑĢÐ¾
ĠÐ½Ð° Ð¹
ĠÐ¿ÑĢ ÑĹÐ¸
ĠÐ· ÑĢÑ§
ĠÑģÐ¸ Ð±Ð¸
ĠÐ¼Ð° ÑģÐ»Ð¾
Ð·Ð° Ð½Ð¾
ĠÑĤÑĭ Ñħ
ĠÐ¿ÑĢÐ¾Ñģ Ð¸ÑĤÐ¸
ĠÐ¼Ð¸Ð»Ð¾ÑģÑĤÐ¸ Ñİ
ĠÐ²ÐµÐ· Ð´Ñ£
Ð¸ ÑģêĻĭ
Ð½ Ð¾Ð¼ÑĮ
ĠÐ¾ Ð½Ñĭ
Ð¶ Ð´ÑĬ
ĠÐ¿ÑĢÐ¸ Ð»
ÑģÐ¸ Ð¼
ĠÑĶ Ñģ
ĠÐ²Ñ£ ÑģÑĤÐµ
ÑģÐ» Ñ¹
ĠêĻģ ÑĮ
ĠÑĩÐµÐ» Ñ§
ĠÑī ÐµÐ´
ĠÐ²ÐµÑĢ Ñĥ
ĠÐ±Ð¾Ð³ Ð¾Ð¼Ð¾Ð»
ĠÐ±Ñ¹ Ð´ÐµÑĪÐ¸
ĠÐ±Ð¾Ñı ÑĢÐ¸Ð½
ĠÑģÐ»ÑĭÑĪÐ° ÑĤÐ¸
ĠÐ±ÐµÐ» Ð¾ÐºÐ°
ĠÐºÑĢÑ£Ð¿Ð¾ ÑģÑĤÐ¸
Ð° êĻĹ
ĠÐ¼ Ð¾Ðº
ĠÐ´Ð° Ñİ
ĠÑģÑĬ Ð²ÑĢÑĮ
ĠÐ¿Ð¾Ñģ ÑĢÑ£
ĠÑı Ñģ
Ð¼Ñ£ ÑĢ
Ð¾Ð²Ð¸ ÑĤÐ¸
ĠÑ¡Ð± ÑĢÐµ
ĠÐ§ ÐµÑĢ
ĠÑģÑĥÐ´ ÑĮÑı
ĠÐ¶Ð¸Ð² Ð¾Ð½Ð°
ĠÐºÐ¾ÑĢÐ¾Ð» Ñİ
ĠÐ¼Ð°ÑĢ ÑĤÐ°
ĠÐ¼ÐµÐ´ ÑĬ
ĠÑĢÐµÐº ÑĪÐµ
ĠÐµÐ»Ð¸ ÐºÐ°
ĠÐ¾ÑĤÑĢÐ¾Ðº Ð°
ĠÐ¿Ð¾Ð»Ð¾Ð²Ð¸ Ð½Ð°
ĠÐºÑĸ Ð²Ñ¡
ĠÐ±ÐµÐ»Ð¾ÐºÐ° Ð¼ÐµÐ½
ÑĢÐµ Ð½Ð¸Ðµ
ĠÑħ Ðµ
Ð½ÑĮ ÑģÑĤÐ²Ð°
Ð¾Ð¶Ðµ Ð½
Ð½Ñ§ Ñħ
ĠÑĢÐ°Ð· Ð²Ñ£
ĠÐºÑĥ ÑĢ
ĠÑģÑ£ Ð´
ĠÐ²ÑģÑ§Ðº ÑĸÑ§
ĠÑĤÑĥ ÑĢÐ°
ĠÐ²Ð¾Ñģ ÑħÐ¾ÑĤÑ£
ĠÐ¿Ð¾Ð»Ð¾ ÑĩÐ°
ÐºÐ¾Ð» Ñİ
ĠÑģÐµÐ´ Ð»Ð°
ĠÐ»Ð² ÐºÑĬ
ĠÑĩÐ¸ÑģÑĤ Ð¾Ð¼
ĠÐ¿Ð¾ÑħÐ²Ð° Ð»Ð°
Ð¿ÑĢÐ¾ÑĤÐ¸ Ð²
ĠÐ²ÐµÑĩ ÐµÑĢÐµ
ĠÐ¼Ð½Ð¾Ð¶ÑĮ ÑģÑĤÐ²Ð¾
Ï ī
Ñģ Ñ¡
Ð¼ ÑĢÐ°
ĠÐ´ Ð¸Ð¼Ð¸ÑĤ
ÑģÑĤ Ð¾ÑĢ
ÑģÑĤ ÑĢÑĬ
Ð± Ð¸ÑĤ
ĠÐ½Ð° Ñ¹
ĠÐ» Ñĸ
ÑģÑĤÐ° Ð½Ð¸
ĠÐºÐ¾ ÑģÑĤÐ°Ð½
ĠÐļ Ð°Ð½Ð´Ð°
Ð½Ñ§ Ð³Ð¾
ÑģÐ»Ð° Ð±Ð»ÐµÐ½
ĠÐ¿ÑĢÑ£ ÑģÑĤÐ°Ð²Ð¸
ĠÑĤÐ°Ðº Ð¾Ð²ÑĭÑħ
Ð³Ð¾ÑĢÐ¾Ð´ Ðµ
ĠÐ½ÐµÐ¿ ÑĢÐµ
ĠÐ¾Ð±Ñĭ ÑģÐºÑĥ
ĠÐ±ÐµÐ» Ñĭ
ÑģÑĤÐ²Ð¸ Ñı
ĠÐ¸Ð¼ÐµÐ½ ÐµÐ¼
Ġ3 0
Ñĥ Ð±Ð¾
ĠÐ· Ð´Ð°
Ð½Ð° Ð´ÐµÑģÑ§ÑĤÑĮ
ĠÐĲ Ð½ÑĤÐ¸
ĠÐ¾ÑĤ ÐºÑĥÐ¿
ĠÐ¿Ð¾Ðº Ñĥ
ĠÐºÐ¾ÑĢ Ð¾Ð±
ĠÐ´Ð²Ð° Ð´ÐµÑģÑ§ÑĤÑĮ
ĠÑģÐ¾Ð» Ð½Ñĭ
ĠÐ±Ð¾Ñĥ Ð´Ðµ
Ð´ÐµÑģÑ§ ÑĤÐ¸
ĠÑĤÐµÑĢ Ð¿
ĠÐ¿ÑĢÐ¸ÑĪ Ð»Ð°
ĠÐ¼Ð¾Ð»Ð¸ÑĤ Ð²Ñĥ
ĠÐ±Ð¾Ð³Ð°ÑĤÑĭ ÑĢÑı
ĠÐ±ÑĢÐ°ÑĤÐ¸ Ð¸
ĠÑģÑĢÐ° Ð¼
ĠÐ³ÑĢÐ¾Ð± ÑĬ
ĠÐĶÑĢÑĥÐ¶Ð½ÐµÐ² Ð½Ð°
ĠÐ± ÐµÐ»Ðµ
ĠÐ¼ Ð¾Ð³Ð¾
Ð¶ Ð¾Ñĥ
ĠÐ¿Ð¾Ð» Ñ£
ĠÑı ÑģÑĤÐ¸
ĠÑ¹ Ð´Ð°
Ð»Ñ§ ÑĤ
ÑģÑĤÐ² ÑĥÑİ
ĠÑģÑĤÑĢÐ° ÑģÑĤÐ¸
Ð½Ð¾Ð²Ð° ÑĤÐ¸
ĠÐ¸Ð²Ð°Ð½ ÐºÐ°
ĠÐ¾ÑĤÑĮ ÑĨÑĮ
ÑĮ ÑĨÑĮ
ĠÐ´ ÑħÑĬ
ĠÐº Ð»ÐµÐ½
Ð¿ Ð¾Ð²
Ð½Ð¸ ÑĪÐ°
ÐµÐ¼ Ð»Ñİ
ĠÑħ Ð²
ĠÑĨ ÑĢÐ°
Ð½ÑĮ ÑģÐºÑĥ
ÑĤÐ° Ð°
ÐµÑĤÑĮ ÑģÑı
ĠÐ¸Ð· Ð²Ð¾Ð»
ĠÐŀ Ð»Ðµ
ĠÐ¿Ð¾Ð¼ Ñ§
êĻ¿ ÑĤÐ¾
Ð´Ñĥ ÑĤÑĮ
ĠÐºÐ¾Ñĥ Ð¿Ð¸
ÑģÐºÑĭ Ñ§
ĠÐ»ÑİÐ± Ð²Ðµ
ĠÐ¼ÑĬ Ð½Ð¾Ñİ
ĠÐ¸Ð½ Ð´Ð¸
ĠÐ¿êĻĭ ÑģÑĤÐ¸
ĠÑİÐ½Ð¾ ÑģÑĤÐ¸
ĠÐĵÐ¾ÑģÑĥÐ´Ð° ÑĢÑĮ
ĠÑĥÐ±Ñĭ ÑĤÐºÐ¸
Ð½ ÑĹÐµÐ¼ÑĬ
ĠÐ¸ ÑģÑĤÐ¾
Ð´ Ð²Ð°
Ð½Ð¸ Ð¼Ð¸
ĠÐ° ÑģÑ£
ÐºÐ° Ð°
Ñ¡ Ð´
Ð¾Ñģ Ðµ
ĠÑĥ Ð¶Ð°
ĠÑģÑĬ ÑģÑĤÐ°Ð²
Ð¾Ð· Ð°
ÑĶ ÑĢ
Ġ. .
ĠÐ¼Ñ§ ÑģÐ°
ĠÐ¸Ð½ Ð¾Ð¼Ñĥ
ĠÐ¿Ð¾ÑĢÑĥ Ñĩ
ĠÑĤÐ°ÐºÐ¾Ð²Ð° Ð³Ð¾
ĠÐ¿Ð»Ñ£ Ð½
ĠÐ² ÑĢÐµ
ĠÐ² ÑĢÑĮ
ĠÐ± ÐµÐ»Ð¾
ĠÐ½Ð° ÑĢÑı
Ð»Ð° Ñı
Ñ¹ Ð´Ð°
ĠÐ· Ð»Ñ£
ĠÑħ Ð¸
ĠÑģÐµ Ð³Ð°
ÑģÐº Ñ¹Ñİ
ÑģÐ¸ Ñı
ÑĩÐ° ÑħÑĬ
ĠÐ²Ð¸ Ð½
Ð´Ð¾ ÑħÐ¾Ð¼ÑĬ
ĠÐĳ Ð¾Ð²Ñĥ
ĠêĻģ Ð»Ð¾
ĠÐ¾Ð± ÑĢ
ĠÑĢÐ°Ð· Ð¾ÑĢÐ¸
ĠÐºÑĥ Ð½êĻĳ
Ð½ÑĭÐ¸ Ð¼ÑĬ
Ð¼êĻĭ ÑĤÑĬ
ĠÑģÑĤÐ°ÑĢ Ð¾Ð³Ð¾
ĠÐ¼Ñĭ ÑĪ
ĠÐ²Ð»Ð° Ð´êĻĳ
ĠÑģÐµÑĢ Ð´Ðµ
ĠÐ¿ÐµÑĩÐ° ÑĤÑĮ
ĠÑĢÐ°Ð´Ð¾ ÑģÑĤÐ¸Ñİ
ĠÐºÑĥÐ¿ Ð»ÐµÐ½
ĠÐ¾ÑĤÐ²ÐµÑĤÑĩÐ¸ ÐºÐ°
ĠÐŁÐ¾ÑĤ Ð°Ð½ÑĨÑĭ
ĠÑĤÐ²Ð° ÑĢÐ¸
Ð¾ ÑŃ
ĠÐ½ êĻĭ
Ð¾Ð² Ð½ÑĭÑħ
Ñī ÐµÑĤÐµ
ÐµÐ» ÐµÐ¼
ĠÐ¸Ð· Ð²Ðµ
ÑīÐ¸ ÐºÐ¾Ð²
ÑĤÐ² ÑĢÑĮ
ĠÑĢêĻĭ ÐºÐ¾Ñİ
ĠÐ²Ð¾Ð»Ð¾Ð´Ð¸ Ð¼Ð¸
ĠÐ¿ÑĢÐ¾Ðº Ð»Ñı
ĠÐ²Ð¾ÐµÐ²Ð¾Ð´Ð° Ð¼
Ð± Ð¾Ð»
ĠÐ½Ð° Ð¸Ð¼
ĠÐ¡ ÑĤÐ¾
ĠÐĶ Ð¼Ð¸ÑĤ
ĠÐ¿Ð¾Ñģ Ðµ
Ð¿Ð¸ ÑģÑĮ
ĠÐ²Ñ£ Ð½ÑĮ
ĠÐ²Ñĭ ÑĤÐ¸
ÑĶ Ñİ
ĠÐ³Ð»Ð° Ð²Ñ£
ĠÐ²Ð· Ð¸Ð¼Ð°
ĠÐ·Ð½Ð° Ð¼Ðµ
ĠÐ¿ÑĢÐ°Ð² Ð´Ð¾Ñİ
ĠÐ±Ð»Ð¸ Ð·ÑĬ
ĠÑĩÐ»Ð¾Ð²Ñ£ ÐºÐ°
ĠÐ½Ð°Ð¿Ð¸ ÑĪÐµÑĤ
ĠÐĿÑ£ ÑģÑĤÑĮ
ĠÐ¿Ð¾ÑģÐ»Ð¾Ñĥ ÑĪÐ°
Ï Ĥ
ĠÑĤ Ð¾Ð½
Ñ§ ÑħÑĬ
Ð³ ÑĢÐ¸
Ð³ ÑĢÐµ
êĻĭ Ð´Ð°
ĠÐ¿Ð¾ ÑĤÑĬ
ĠÐ¿Ð¾ Ð¸Ð¼
ĠÑģÑĤ ÑĢÑ§
ĠÐ¿Ð¸ ÑĢÑĬ
ĠÐ±Ñ£ Ð°
ĠÑģÑĤÐ° ÑĢÐ°
ĠÑģÑĮ ÑĤÐ²Ð¾ÑĢÐ¸
ĠÑł ÑĤ
ĠÑħÑĢÐ¸ ÑģÑĤÐ°
ĠÐºÐ¾ÑĢÐ¾Ð» ÐµÐ²Ð¸Ñĩ
ĠÑĮ ÑĤÐ¾
ĠÐ²ÑĬÑģÐº ÑĢ
ĠÐ¿Ð¾ÑģÑĭ Ð»Ð°ÑĤÐ¸
ĠÐŁÐ¾ÑĤ Ð¾Ð¼ÑĬ
ĠÐ´Ð¼Ð¸ÑĤ ÑĢÐµ
Ð½Ð¾Ð¿Ð»ÐµÐ¼ ÐµÐ½
ĠÐ´Ð¾Ñĩ ÐµÑĢÐ¸
ĠÐ¸ Ð»
ÑģÑĤ ÑĢÐµÐ¼
ÑĪ Ð»Ð¾
ĠÐ° Ð²ÑĢÐ°Ð°
ĠÐµ ÑĢ
Ð¾Ð³ Ð»Ð°
ĠÐ·Ð° ÐµÐ¼
êĻģ Ñ«
ĠÐºÐ° Ð¿Ð¸
ĠÑı Ð²Ð»Ñı
ĠÐ¸Ð· ÑĮ
ĠÐ¸Ð· Ð²Ñ£
ĠÐ¸Ð· Ð³Ð½Ð°
ĠÐ¢ Ð²Ð¾ÑĢ
ĠÑĤÐ¸ ÑħÐ¾
ÑĶ Ð¼
ĠÐ±ÐµÐ· Ñģ
ĠÐ²ÐµÐ» Ð¼
ĠÐµÐ´Ð¸ Ð½Ñĥ
ĠÐ¼Ð½Ð¾Ð³Ð¾ Ðµ
ĠÐ¸Ð²Ð° Ð½Ðµ
ĠÐ¶Ð¸ÑĤ ÐµÐ»ÑĮ
ĠÐ½Ð¾Ð³Ð° Ð¼Ð°
ĠÐ½ÐµÐ±Ðµ ÑģÐ¸
ĠÑĪÐ° ÑĤÑĢÐ°
ĠÑĩÐµÑĤÐ²ÐµÑĢ ÑĤÐ¸
ĠÐµÑħÐ° ÑĤÑĮ
Ð» Ð¾Ð¼ÑĮ
Ðº Ñĸ
ĠÐ² Ð²ÐµÑĢ
Ð³ Ñ£
Ñĩ ÐµÐ½ÑĮ
ĠÐ³ Ð²Ð¾Ð·
ÐºÐ° ÑĤÑĮ
ĠÑĥ ÑĤÐ²ÐµÑĢ
ÑīÐ° ÐµÑĤ
Ð²Ðµ Ð½Ð¸
ĠÐ½Ñ£ ÑĩÑĤÐ¾
ĠÑķ Ñ£Ð»Ð¾
ĠÐ¿Ð»Ð° ÑĤÑĮÑ§
ĠÐ¸Ñģ ÑĨÐ¾Ð²
ĠÐ´ÑĢ Ð¾Ð²Ð°
ĠÑģÐ°Ð¼ Ð¾Ð²
ĠÐ±ÐµÑģ ÐµÑĢ
ÑĪÐµÐ½ ÑĸÐ¸
ĠÑģÐµÐ´ Ð¼Ð¸
Ð·Ñĥ Ð¼Ñ£
ÑĪÐµÐ½ÑĮ ÐºÐ°
ĠÐ¿ÑĢÐ¾Ð³ Ð½Ñ£
ĠÐ¾ÑĥÑģÑĤÑĢÐ¾ Ð¸
ĠÐ¼Ð°Ð¸ Ñı
ĠÐľÐ°Ðº ÐµÐ´
ĠÐ¿ ÑĥÐ´
ÑĪ ÐºÐ¾Ð²
Ñħ ÑģÑı
ĠÐ½Ð° ÑĢÐ¸
ĠÑĢ Ð¶Ð°
ĠÐ° Ñģ
Ð´Ð° Ð¹
ÑĩÐ¸ Ð»Ð°
ÑĩÐµ Ðº
ĠÐ¿Ð¾Ð» Ð¾Ð²Ðµ
Ð»Ñĭ Ñı
ĠÐł Ñ£
ĠÐºÑĢÐ° ÑģÐ½Ð¾
ĠÑĤÑĢÐ¸ ÑģÑĤÐ°
ĠÐ³Ð¾ Ñĩ
ĠÐºÑĢÐ°Ñģ Ð½Ð°
ĠÐ¸ÑģÐº Ñ¹
ĠÐ±Ð¾Ð¶ÑĮ ÑģÑĤÐ²
ĠÐ´ÐµÑĤÑĮ Ð¼Ð¸
Ã ·
ĠÐ¸ Ð½Ñ£
Ð³ ÐµÐ½Ð¸
Ð¸ÑĤ ÑĨÐ°
ĠÐ¾Ñĥ ÑĤÑ£
ĠÑģÑĬ Ð±Ð»Ð°
Ð¾Ð²Ð¸ ÑĤÑĮ
ĠÐ²Ñĭ Ð±Ð¾ÑĢ
ĠêĻ Ĭ
ĠÐ¿Ð¾Ð¼ Ð¾Ð»
ĠÑĢÑĥ ÐºÐ°
ĠÐ½Ð¾ ÑĩÐ¸
ĠÐĵ Ð»
ĠÐ½Ñ£ ÑģÑĤÑĬ
ĠÐºÐ¾ÑĤÐ¾ÑĢ ÑĭÐ¸
ĠÐ³ÑĢÐ°Ð¼Ð¾ÑĤ Ñ£
ĠÐ²Ð»Ð° Ð´Ðµ
ĠÐ¿ÑĢÐ¾Ð´Ð° ÑģÑĤÑĬ
Ð¿Ð¸ÑģÐ° ÑĤÐ¸
ĠÑģÐ»Ð¾Ð²Ðµ ÑģÐµ
ĠÐ½ÐµÐ±Ðµ ÑģÐµ
ĠÐ½Ð¾Ð²Ð³Ð¾ÑĢÐ¾Ð´ ÑĨÐ¸
ĠÐ¼ êĻĻ
Ñĩ ÑĪÐµ
ĠÐ¼Ð¸ ÑĢÑĥ
ĠÐ¿Ð° ÑģÑĤÑĭ
ĠêĻĭ ÑĩÐ¸
ĠÐ¼Ñ£ ÑģÑı
ĠÐ¿Ðµ Ð°
ĠÑģÐ¿ Ð¾Ð»
ĠÐ¿Ð°Ðº ÑĮÑĸ
ĠÑĢÐ¾Ñģ ÑħÐ¾Ð´
Ġ1 0
ĠÑģÐ¼Ð¾ÑĤ ÑĢÐ¸ÑĤÐ¸
ĠÑĤÑĢÐ° Ð¿ÐµÐ·
ĠÐ±Ð»Ð°Ð³Ð¾Ð´Ð° ÑĤÑĮ
ĠÐ·Ð°Ð¿Ð¾Ð²Ðµ Ð´Ð¸
ĠÐ½Ð°Ð¿ÐµÑĢÐµÐ´ ÑĮ
ĠÑģ Ð¾Ð¶
Ð¼ Ð¾ÑĢ
ĠÐ² Ð»ÑĮ
ĠÑĩ Ð¾Ñĥ
ĠÑĤÐ° Ð¼ÑĬ
ĠÐºÑĬ Ð½Ð¸
ĠÐ¢ ÑĢÐ¸
ĠÐ³Ð»Ð° Ð²êĻĭ
ĠÐ³Ð»Ð° Ð³Ð¾Ð»Ð¸
ĠÑģÑĤÐ¾ Ð¸ÑĤÑĮ
ĠÐ½Ð¸Ðº Ð¾Ð³Ð´Ð°
ĠÐ±Ð¾ÑıÑĢ ÑģÐºÐ¸Ð¼
ĠÐºÐ¾Ð½Ðµ ÑĨÑĬ
ĠÐ¼Ñ¡Ñµ ÑģÐµ
ĠÐŁÐ°Ðº Ñĭ
Ð° ÑĢÐ¸
Ð¾Ð¼ êĻĳ
ÐµÑĢ Ñ£
ĠÐ²ÑĬ Ð»ÑĬ
ĠÐ¿ÑĢÐ¸ Ð¿
ĠÐºÑĬ Ð´Ðµ
ĠÐ¿ÑĢÐ¾ ÑĩÐµÐµ
Ð¾Ð»Ð¸ ÑĤÐ¸
ÑģÑ£ Ð¼ÑĬ
ĠÑĢÐµÑĩÐµ ÑĪÐ¸
â¸¯ ÐºÐ¾
Ð½êĻĳ ÑħÑĬ
Ð²ÑĢÐ° ÑĤ
ĠÑģÐ»Ñĥ Ð³Ð°
ÑİÑī Ñİ
ÑģÑ¹ Ð´
ĠÑģÑĢ ÑĨ
ĠÑĥÐ±Ð¸ Ð¹
Ð³Ð½ ÐµÐ¼ÑĬ
ĠÐºÐ¾ÑĢÐ° Ð±Ð»Ð¸
Ð·êĻĭ Ð¼Ñ£
ĠÐºÐ»ÑİÑĩ Ð½Ð¸ÐºÐ°
ĠÐ·Ð°Ð²Ð¸ Ð´Ð°
ĠÑĩÐµÐ»Ð¾Ð±Ð¸ÑĤÑĩÐ¸ ÐºÐ¾Ð¼
ÑĢ ÑĨÑĭ
ÑĮ ÑĢ
ĠÐ¿ Ð¾Ð½Ð¸
ĠÐº ÑĥÐ´
ĠÐ³ ÑģÑĮ
ĠÐ¿ÑĢÐ¸ ÑĪÑĬ
ĠÑı Ð±
ĠÐ¸Ð· Ð¼Ð°
ĠÑĤÐ¸ ÑħÐ°
ĠÐ¼Ð¾Ð» Ð¾Ð´Ð°
ĠÐ¿Ð»Ð° ÑĤÐ½Ð¾
ĠÐ¼ÑĬ Ð»ÑĬ
ĠÑĩÑĮ ÑģÑĤÑĮ
ĠÑĨÑĢÐº Ð²Ð°
ĠÐ¦ ÑĢ
ĠÐ±ÑĢÐ°ÑĤÐ¸ Ñı
ĠÑģÐ¾Ðº ÑĢÐ¾Ð²Ð¸
ĠÐ½Ð¾Ñģ Ð¸ÑĤÐ¸
ĠÑģÐºÐ²Ð¾Ð· Ñ£
Ð¶ Ð±Ð°
ĠÐ²Ñģ ÐµÐ¼êĻĭ
ÑĢÑĥ Ð¶ÑĮ
ÐºÑĥ Ð¿Ð¸
ÑģÐ» Ð¾Ñĥ
ĠÐ±ÐµÐ· Ñĥ
ÑģÑĤÑĭ Ð½Ñ§
ĠÐ¸Ð½Ð¾ ÑĩÐµ
ĠÐ´Ñĥ ÑĪÑĥ
ĠÑĤÐ²Ð¾ÑĢ Ñ§ÑīÐµ
ĠÐ²ÑĬÑģ ÑħÐ¾ÑĤÑ£
Ð¾ÐºÐ¸ Ðµ
ĠÐ½Ð¾Ð²Ð° Ð³Ð¾ÑĢÐ¾Ð´Ð°
ĠÐ´ Ñ¡
ĠÐº Ð¾Ð¿Ð°
Ñī ÐµÐ½Ð°
ĠÑģÑĤ Ñ¹Ð´
ĠÐ·Ð° ÑĢÐ°
Ñ¥ ÑĤÐµ
ĠÐ¸Ð· Ð¸
ĠÐ²Ð¸ Ð´Ð¸ÑĤÐµ
ĠÐ¼Ð½ Ñı
ĠÐ²Ñĭ Ð¸
ĠÑĤÐ°Ðº Ð¾Ð¶
ĠÑģÑĥ ÑīÐ°
ĠÑħÐ¾ÑĤ Ñ§Ñī
ĠÑĤÐ²Ð¾ÑĢ Ñ§ÑĤÑĮ
ĠÑł Ð½Ð¸
ĠÑģÐ¿Ð° ÑģÐ°
ĠÐ¼Ð¾Ñ¥ Ð¸
ĠÐ²Ñ£Ñĩ Ð½Ñ¹Ñİ
ĠÐ·ÐµÐ¼Ð»Ñı Ñħ
ĠÐ³Ðµ ÑĢÐ°
ĠÐ¡Ð» Ð¾Ð²Ð¾
ÑĤ ÑĸÐ¸
Ð² Ð½
ĠÑģ Ð¾Ð·Ð¸
ĠÐ½ Ð¾Ð½Ñ£
ÑĪ Ñĸ
Ñİ ÑģÑ§
ĠÐ½Ð° Ð²Ñĭ
êĻĭ ÑĤÑĬ
Ð½Ð¾ ÑĥÑİ
Ð¾Ð± ÑĬ
Ð»Ðµ Ñİ
ÑĢÑĭ Ð¸
ĠÐ¾Ð± Ð»Ðµ
ĠÑĢÐ°Ð· Ð´
Ð³Ð¸ Ð¿
ĠÑģÑ£ Ð½Ð¾
ĠÐ¶Ð¸Ð²Ð¾ ÑĤÐ²Ð¾ÑĢ
ĠÐ·Ð½Ð° Ñİ
ĠêĻģÐµÐ¼ Ð»Ñ§
ĠÐ·Ð¾Ð» Ð¾
ĠÐ²ÑĬÑģÐº Ð¾ÑĢÑ£
Ġ4 0
Î »
ÑĤ ÑĨ
ĠÐ¸ Ð½Ñ¹Ñİ
ÑģÑĤ ÐµÐ½ÑĬ
ÑĨ ÑĸÐ¸
ÐµÑĤ ÑģÐµ
ĠÐ· Ð²
ĠÐµ ÑģÑĤÐ°
ĠÐ¿ÑĢÐ¸ ÑģÑĤÑĥÐ¿Ð¸
ĠÐ²Ð¾ ÑħÐ¾
ĠÐ¼Ð¾ Ð¸Ð¼
ĠÐºÐ¾ ÑģÑĤÑĮ
Ð±Ð¸ Ð¸
ĠÐ¿ÑĢÐ¾ ÑģÑĤÑĢÐ°
ÑģÐµ Ð³Ð¾
ĠÐŀ Ð¿ÑĢÐ°Ðº
ĠÐ²ÑĮ ÑģÐ°
ĠÐµÑģ Ð¼Ñĭ
ĠÐ±Ð¸ Ð»
ĠÐ³ÑĢÐ¸Ð²ÑĮ Ð½Ð°
ĠÐ±ÐµÑĢÐµ Ð¶Ð½Ð¾
ĠÑĩÐµÑĤÐ²ÐµÑĢ ÑĤÐµÐ¹
ĠÐ±Ñ£Ñģ Ð¾Ð²
ĠÐ¸Ð·Ñ§ ÑģÐ»Ð°Ð²
ĠÐ¿Ð¾ÑĤÑĢÐµÐ± Ñĥ
ĠÑĤÑĭÑģÑı Ñĩ
ĠÐºÑĭ Ñ¥
ĠÐ´Ð²ÐµÐ½Ð° Ð´ÑĨÐ°ÑĤÑĮ
ĠÐ¿ÑĢÐµÐ»Ñİ Ð±
ÑĢ Ð¾Ð´Ð°
ĠÐ² Ð½êĻĭ
Ð¶ Ð¸ÑĤÐµÐ»
Ð¾Ð³ Ñĭ
ÑĢÐµ Ð²ÑĬ
ÑģÐº Ð¾Ð¼Ð¾Ñĥ
Ð¾Ð²Ñ£ ÑĢ
Ð²Ñĭ Ñı
ĠÐ¿Ð¾Ð¼ Ð¾Ð³Ð°
ĠÐ²Ð¾Ð» ÑĬ
ĠÑĩÐ¸ ÑģÑĤÑĥ
ĠÑģÐ¼ ÑĢÐ°
ĠÐ¸Ñģ ÑħÐ¾Ð´
ĠÑģÐ¿ Ð¾Ð´Ð¸
ĠÑħÐ¾ ÑĤÐ¸
ĠÐµÐ´Ð¸ Ð½Ð¾Ð¼Ñĥ
ĠÐ°ÑĢ ÑĪÐ¸Ð½
ĠÐ´Ð¾Ñĥ ÑĪÐµ
ĠÐ´ÑĢÑ¹ Ð³Ð°
ĠÐ¿Ð¾Ð»Ð° ÑĤÑĭ
ĠÐ¿Ð¾Ð´Ð¾Ð±Ð° ÐµÑĤÑĮ
ĠÐ´ÐµÑĤÐµ Ð¸
ÑĤÑı Ð±ÑĢÑı
ĠÐ¿ÑĢÐ¾Ð³ Ð½Ð°
ĠÐ¿ÑĢÐ¸Ð»Ð¾Ð¶Ð¸ Ð»
ÐºÑĢÑ£ Ð¿Ð¸
ĠÐ´Ð¾Ð¼Ð¾Ð² Ð¸ÑĤ
ĠÑĩÐ¾Ð» Ð¾Ð²Ðµ
ÑĤ Ð°Ðº
ĠÑģ ÑīÐµÐ½
Ð¼ êĻĻ
Ð± Ð¾Ð³Ð°
ĠÑĢ Ð¾ÑĤ
ĠÑĢ Ð¾ÑĤÑ£
Ð»Ð¸ Ñİ
ÐµÑĤ êĻ¿
êĻģ Ð°Ð½
Ð»ÑĮ Ñĸ
ĠÑĤÐ° Ð¶Ðµ
ĠÐ²Ñ£ ÐºÐ¾Ð¼ÑĬ
ĠÐ´Ñ£ Ð»Ñı
ĠÐ²Ð¾Ð· Ð²Ñ£ÑģÑĤÐ¸
ĠÐºÑĢÐ° Ð»Ð¸
ĠÐ»Ðµ Ð±
ĠÐ²Ð¸Ð´Ñ£ ÑĪÐ°
ĠÐ²ÑģÑı ÐºÐ¸Ñı
ĠÑģÐ²Ð¾Ñ¥ Ð¸
ÑĪÐµÐ½ ÑĸÐ°
ĠÐ¸ÑģÑĤÐ¸ Ð½ÑĮ
ĠÐ¼Ñ« ÑĩÐµ
ĠÐ¼ÐµÐ´ Ñĥ
ĠÑĢÑ« ÑĨÑ£
ĠÐ²Ð½Ðµ Ð·Ð°
ĠÐ³Ð¾Ð²Ð¾ÑĢ Ð¸ÑĤÑĬ
ĠÑģÑĮÑĢ Ð´ÑĮ
Î ¼
Ð¾ ÑħÑĬ
ĠÑģ ÐºÑĬ
Ð¿ ÐºÐ°
Ð¾ÑĢ Ð¾Ð½
ÑĨ ÐºÐ¸Ñħ
êĻĭ Ð´ÐµÐ¸
ĠÐ¶Ðµ ÑģÑĤ
Ð¸ÑĤ Ñ£
Ð¸ÑĤ Ð¾Ðº
Ð´Ð¸ Ð²Ð¸
ĠÐ¿Ð° Ð´Ð¾ÑĪÐ°
ĠÐ¿Ð¾Ðº Ñ¹
ĠÐ½Ð¾ ÑĩÑĮ
Ð¼Ð¾ÑĤ Ð°
ĠÐºÑĢ Ð¾Ð²Ðµ
ĠÑģÑ¹ ÑīÐ°
Ð±ÑĮ Ñĸ
ĠÑĩÑİ Ð¶Ð¸
ĠÑģÐ»Ñ¹ ÑĪÐ°ÑĤÐ¸
ĠÐ¿ÑĮ Ñ§
ÑģÐ¿Ð¾Ð´Ð¸ Ð½ÑĮ
ÑĦÐ¸ Ð¸
ĠÐ¼Ð¾Ñ¥ Ð¼Ñĥ
ĠÐ¿ÑĢÐµÑĩÐ¸ ÑģÑĤÑĭÐµ
ĠÑ³Ðµ Ð¾Ð´
ĠÐ¿ÑĢÐ¾Ð¼ÑĭÑģÐ» Ñ¹
ÑĤ Ð¾ÐºÑĬ
Ðº Ð¾Ð±
Ðº ÑĸÐ°
ĠÐ² ÑħÐ¾Ð´
ĠÐº Ð¾Ð¼êĻĭ
ĠÐ¶ ÑĢÐµÑĨÑĬ
ÑĢÐ¾ ÑģÑĤÐ¸Ñİ
ĠÐ¿Ð° Ð½Ð°
ĠÐ¶Ð¸ Ð²Ðµ
ĠêĻģ Ñĭ
ĠÐ´ÑĮ Ð½Ðµ
ÑĪÑĤÐµ ÑĪÐ¸
Ð³Ð¾Ð² Ð¾ÑĢÐ¸ÑĤ
Ð½Ð¾Ð² ÐµÐ½
ĠÐ´Ð¾Ð» Ð¶
ĠÐ¡Ð¸ Ñı
ĠÐ¾Ð±ÑĢÐ° Ð·ÑĬ
ĠÐ±Ð¾ÑıÑĢ Ð¾Ð¼
ĠÑģÐºÐ¾ ÑĤÐ°
Ñ» ÑĢ
ĠÐ²Ð¾Ð¹ ÑģÐºÐ¾
ĠÐ·Ð´ÑĢÐ°Ð² ÑĸÐµ
ĠÐ´Ð¾ÑĢÐ¾Ð³ Ðµ
ĠÑĢÐ°Ð·Ð´Ñ£ Ð»Ð¸
ĠÐ±ÐµÑģÑĩÐµ ÑģÑĤÑĮÐµ
Ġ V
Ðµ Ð²Ñ£
Ð½ Òį
Ð¼ Ð¾Ð½
Ð³ Ð¾Ð´Ð¸
Ñħ Ð¾Ð²ÑĮ
ĠÐ¾ Ð½ÑĮ
ĠÐ´Ð° Óı
Â· âĢĲ
ĠÑĥ Ð¿Ð¾Ð²Ð°
ÑĢÑ£ Ð²ÑĬ
ĠÑģÐ¸ ÑħÐ°
ĠÑĸ ÐµÑĢ
ĠÐ±Ñ£ Ð»Ð¾
ĠÐ±ÑĥÐ´ ÑĮ
ĠÑ§ Ð±
ĠÑ§ ÐºÑĬ
Ð·Ñĭ Ð²Ð°Ð»Ð¸
ĠÐ²ÑĬÐ· ÐµÐ¼Ð¸
ĠÐ´Ð¾Ð¼ Ð¸ÑĤ
ĠÐ´ÑĢÑĥ Ð³Ñĭ
ĠÑĤÐ¾Ð± ÑĮ
ĠÑģÐµÐ¼ Ñ£
ĠÑĢÐ¾Ð· Ð¼Ð¸ÑĢÐ¸
Ð½Ñ« Ñ«
ĠÐ²ÐµÐ»Ð¸ÐºÐ¸ ÑħÑĬ
ÑİÑī Ñĥ
ÑĪÑĤ Ñ«
ĠÐ¿Ð¾Ñĩ ÐµÑĢ
ĠÐ±ÑĭÐ²Ð° ÐµÑĤÑĮ
ĠÐºÐ°Ð±Ð° Ð»Ðµ
ĠÐ½Ð¾Ð³Ð° ÑĤÑĮ
ĠÐ»Ð¾Ñĥ ÐºÑ£
ĠÐ´ÑĢÐ¾Ñĥ Ð¶Ð¸
ÑģÑĤÐ²Ð¸ Ð¸
ĠÑģÐ¾ÑĢ Ð¾ÐºÐ°
ĠÐ»Ð¾Ñģ Ð¾ÑģÑĮ
ĠÐºÐ¾ÑĢÐ¾Ð±ÑĮ Ð¸
ĠÐ¿ÑĢÐ¸ÑħÐ¾Ð´Ð¸ ÑĤÐ¸
ĠÐ¿Ð¸ÑĢ Ð¾Ð³Ð¸
ĠÐºÑ« Ð½Ñ£
ĠÑĤÑ£Ð»Ðµ Ñģ
ĠÐ½Ð°Ð´Ð¾Ð± Ð½Ð¾
ĠÑ¡Ð³Ñ¹ ÑĢÑĨÑĭ
Ð½ Ð¾ÑĢ
ĠÐ½ Ñ¡
ĠÐº Ð´Ñ£
ĠÐº Ð¾Ð¼Ð¸
Ñĩ Ð¸ÑĤÐ°
ĠÐ³ ÑĢÑı
Ð¾Ñĥ Ñİ
ÑĪÐ° ÑĪÐµ
ĠÑħ Ñĭ
ĠÐ¾Ñĥ Ð»Ð¸
ĠÐ²Ð¾ Ñİ
ĠÑĤÐ²Ð¾ êĻĹ
ĠÐ³Ð»Ð° Ð²
ÑģÑĤÐ² Ð¾Ð¼ÑĮ
ĠÑģÑĤÑĢÐ° Ð½Ñĥ
ĠÑķ Ð»Ð¾
ĠÐ¿Ð¸ÑģÐ° Ð½ÑĸÐµ
ĠÐ¿Ð» Ð¾Ð´Ð°
Ð²ÑĪ Ñĥ
ĠÐ±Ð¾Ñĥ Ð´Ð¸
ĠÐºÐ½Ð¸Ð³Ð° Ð¼
ÑĤ Ð¾ÑĢÐ¸
Ð½ ÑĶ
Ð» Ð¾Ð²Ñ£
ĠÑģ ÐµÐ»ÑĮ
ĠÐ² Ð¾Ð½ÑĬ
ÑģÑĤ Ð½Ð¾Ðµ
ĠÐº Ð»ÐµÐ²
Ð± Ð¾ÑĤÐ°
ĠÐ½Ð° Ð°
Ñī ÐµÐ½ÑĬ
ĠÐ¿Ð¾ ÐµÑħÐ°Ð»Ð¸
ĠÐµ ÑģÑĤÐ²Ð¾
Ð²Ð° Ð½ÑĬ
Ñ¡ Ð½ÑĮ
ĠÐ¿ÑĢÐ¸ ÐµÐ·
ĠÐ·Ð° Ð¾Ñĥ
ĠÑĨ Ð²ÐµÑĤ
ĠÐºÐ° Ð¼Ð¾
ĠÐ²Ð¸ Ð´Ð¸ÑĤ
Ð»Ñİ Ð±Ð»ÐµÐ½
ĠÐ´Ð¾Ð± Ñĭ
ĠÐľ ÑĬ
ĠÐ±Ñ£ Ð»Ñ£
ĠÐ±Ñ£ ÑģÑĬ
ĠÐ´Ðµ Ð»Ð°ÑĤÐ¸
ĠÐ¿ÑĢÑ£ Ð±êĻĳ
ĠÐ¼Ð¾Ðµ Ñİ
ĠêĻĩ Ð»Ð¸
ĠÑģÐ²Ð¾Ñ¥ Ð¼ÑĮ
ÐºÐ¾Ð» ÑİÐ±Ð¸
ĠÐ¤ Ðµ
ĠÐ¿Ð»ÐµÐ¼ ÐµÐ½Ðµ
ĠÐ¼Ð¾ÑģÐº Ð²Ñĭ
ĠÐ°Ð¿Ð¾ÑģÑĤÐ¾Ð» ÑĬ
Ð¾Ð³Ð¾Ð² Ð¾ÑĢ
ÑĢ ÑħÑĸ
ĠÑģ Ð½Ð¾
ĠÑģ Ð¿Ð¾Ð´Ð¾Ð±Ð¸
ĠÐ² Ð»Ñ£
ĠÐ½ Ð¾Ð²Ðµ
ĠÐ½Ð° ÑĢÐ¾
ĠÐ³ ÐµÐ½
ĠÐĲ Ð»Ð¸
Ð¾ÑĤ Ð¾Ñİ
ĠÐ²Ñģ ÐºÐ¾ÑĢ
ĠÑ¿ Ð²Ñ£ÑĤÑĬ
Ð¾Ðº Ð¾Ñĥ
ĠÐŁ Ðµ
ĠÐ²Ð° Ð¼Ð¾
ĠÑ¥ Ð³Ð´Ð°
ĠÐ´Ð¾ ÑħÐ¾Ð´
ĠÐļ Ð¾Ð»
ĠÑģÑĤÐ° Ð´Ð°
ĠÐºÐ¾ÑĤÐ¾ÑĢ Ð°Ñı
Ð»Ñĥ Ð¹
Ð½Ð¸ÑĤÐ¸ ÑģÑı
ĠÐ±ÑĢÐ°ÑĤÑĮ Ñı
ĠÐ³Ð¾ÑĤ Ð¾Ð²Ð¾
ĠÐ¿Ð¸ÑĤ ÑĸÐµ
ĠÐ¿ÑĢÐ¸ÑģÑĤÐ° Ð½Ð¸
ĠÑģÐ²Ð¸Ð´Ñ£ ÑĤÐµÐ»ÑĮ
ĠÐ¼ Ð½Ð¸ÑĤ
ĠÐ¿ÑĢ Ñ¡
ÑĤÐ¸ Ð²ÑĬ
ÑĨ ÐºÐ¾Ð¸
ĠÐ» Ð¾Ð¶Ð°
ĠÑĥ ÑĪÐ¸
ĠÑģÑĬ Ð´Ñ£
Ð¼Ð° Ð»Ð¸
ĠÑ¥ Ð´Ð¸Ð½ÑĬ
ĠÐ±Ñ£ Ð´
ĠÐ¿ÑĢÑ£ Ð±ÑĭÐ²Ð°
ÑĤÑĭ Ð¹
ĠÑģÐº Ð¾Ð±Ðµ
ĠÑĦ ÐµÑ¡
Ð±ÑĮ Ñ¥
ĠÐ²ÑĢÐµÐ¼ ÐµÐ½
ĠÐ¼Ð½Ð¾Ð³Ð¸ Ñı
ÑĪÑĤÐ¸ Ð¸Ð¼ÑĬ
ĠÐľÐ° ÑĢÐ¸Ð½
ĠÑģÐ¼Ñ£ ÑĢ
ĠÑ¡Ð±ÑĢÐ° Ð·Ñĭ
ĠÑĤÐ¾Ðº Ð¼Ñ¡
ĠÐ¿Ð¾Ð´Ð²Ð¸ Ð·Ð°
ĠÐŁÐ¾ÑĤ Ð¾Ð¼
ĠÐ¿Ð¾Ð¼Ð° Ð³Ð°
Ð´ÑĢÑĬ Ð¶Ð°
ĠÐĶÑĥ Ð½Ð°
Ð³Ð¾Ð²Ñ£ ÑĢ
ĠÐĵÐ¾ÑģÑĥÐ´Ð° ÑĢÑİ
ĠÑĩÐ¾Ð» Ð¾Ð¼ÑĬ
ĠÐĶÐµÐ² Ð³ÐµÐ½Ð¸
âģ ĺ
Ð¸ Ð»Ðµ
ĠÐ¸ ÑģÐºÐ¾Ñĥ
ÑģÑĤ Ð½Ñ£
ĠÐ° Ð´
ĠÑ¿ ÑĨÑĮ
Ð¼Ð¸ Ð½Ð°
ĠÑħ Ð¾Ð¶Ðµ
ĠÑĢÐ° ÑģÐº
ĠÐ±Ð¾ ÑĩÐºÐ°
ĠÑĤÐ° ÐºÐ¸Ñı
ĠÐ²Ð° ÑĪÑĮ
ĠÐ¿ÑĢÐ° Ð²ÑĬ
ĠÑĤÐ°Ðº Ð¾Ð¹
Ð»ÐµÐ½ ÑĸÑ§
ĠÑĦ Ñĸ
ĠÑĢÑ£ ÐºÐ¸
ĠÐ½Ð°ÑĪ Ð¾Ð³Ð¾
ĠÐ±Ð¾Ð³ ÑĮ
ĠÐ±Ñ¹ Ð´Ðµ
ĠÑģÐ¾Ð» Ð¾Ð´Ñĥ
ĠÐ¢Ð° Ð¶Ðµ
Ð½Ð¸ÑĨÐ° Ñħ
ĠÐ½Ð°Ð¿Ð¸ÑģÐ° ÑĤÐ¸
ĠÐ¾Ð¿ Ñ§ÑĤÑĮ
ĠÐ±ÐµÐ» ÑĭÐµ
ĠÐĵÐ¾ÑģÐ¿Ð¾Ð´ Ñĥ
ĠÐ¿Ñ¹ ÑĤÐ¸
ĠÐ¾ÑĤÐ¿Ñĥ ÑģÐº
ĠÐ´ÐµÐ» Ñĥ
ĠÐ¿ÑĢÐ¾ÑģÑĤÐ¸ ÑĢÐ°
ĠÐ´ÑĢÑ£ Ð²Ð¾
Ð² ÐºÑĬ
Ð´ ÑĸÐ°
Ð· Ð¾ÑĪÐ°
ĠÐ¾ ÑĢÐ°
ĠÐ½Ð° Ð½ÑĮ
ĠÐ¿ÑĢ ÑĪÐµ
Ð½Ð¸ Ð²ÑĬ
Ð¾Ð´ Ñ¹
Ð¾Ð´ ÑĢÑĬ
Ñ¹ Ð¼
ĠÐµ Ð³
ĠÑ¡ Ð±Ðµ
ĠÐ¿ÑĢÐ¸ Ð´ÐµÑĤÑĮ
Ð´Ñ£ ÑĤÑĮ
ĠÐ»Ð¸ Ð¿ÑģÐ²Ð°
ĠÑ¥ ÑģÑĤÐµ
ĠÐ¼Ð° ÑģÐ»Ð°
ĠÑĢÐ°Ð· Ñģ
ĠÐł Ð¾
ĠÐºÑĢÐ° Ð»ÑĮ
ĠÐ¿Ð¾Ð¿ Ñĥ
ĠÐ¼Ð¾Ðµ Ñ§
ĠÐ¼ÑĬ Ð½Ðµ
ĠÑĩÐµÑĢ Ð½ÑĭÑħ
ĠÑħÐ¾Ð»Ð¾Ð¿ ÐµÐ¹
ĠÑĤÑĢÐµ Ð¿Ðµ
ĠÐ²Ð¾Ð»Ð¾Ð´Ð¸Ð¼ÐµÑĢ Ð¸
ĠÐ¿Ð¾Ð¶ Ð½Ð¸
ĠÐ¶Ð°Ð»Ð¾Ð²Ð° Ð»
ĠÑģÑĤÑĢÐ°ÑĪ Ð½Ð°Ð³Ð¾
ĠÑģÐ¾Ð³ÑĢÑ£ ÑĪÐ¸
ĠÐ³ÑİÑĢ Ð³Ð¸
ĠÐ³Ð»Ñ£ Ð±Ð°
ĠêĻģÐ»Ð° ÑĤÐ¾
ĠÐ¿Ð¾ÑģÑĤÑĢÐ° Ð´Ð°
ĠÑģÐ»Ð¾Ð± Ð¾Ð´
Ð½ Ð¾ÑĢÐ¸
ĠÑģ Ð±Ð¾ÑĢ
Ð¼ Ð¾Ð¶Ð½Ð¾
Ñ£ Ð¼ÑĬ
ĠÐ½ Ð½Ñ£
ĠÐº Ð¾Ð¿Ð¸
Ð± Ð»Ñ£
ĠÐ¿ÑĢ ÑĸÐ°
ĠÐ¿Ð¾ ÑĤÐ¾
Ð¶ Ñĭ
Ð²Ð° ÑİÑĤÑĮ
êĻĹ ÑĤÑĮ
Ð»Ðµ Ñģ
Ð¼Ð° Ñı
ĠÐ¿Ð° Ð»Ð¸
Ð¾Ð²Ð¸ ÑĩÐ¸
ĠÐļ Ð¾Ð½
ĠÐ±Ð³ Ñ¹
ĠÑģÑĤÑĢÐ° Ð½ÑĬ
ĠÐ¼Ñĭ ÑģÐ»
ĠÐĸ ÐµÐ½Ð°
Ð·Ð¾ ÑģÑĤÑĮ
ĠÐ´ÐµÑģÑ§ ÑĤÐ¸
ÑģÑĤÐ¾Ð» ÑİÐ±Ð¸
ĠÐ½Ð°Ñĩ Ð½ÐµÑĤÑĮ
ĠÐ´Ð¾ÑģÑĤÐ¾Ð¸ Ð½Ð¾
ĠÐ¿ÑĢÐµÐ» ÑģÑĤÐ¸
ĠÐºÑĭÐµ Ð²Ñ£
Ð° Ðµ
Ð² ÑĢÑ£
Ð¼ Ð¾Ð³Ð¾
Ð¼ Ð»Ñİ
ĠÐ½Ð° ÑģÑĮ
ĠÐ³ ÐµÑ¡
Ð¿ Ð»ÑĮ
ÑĨ ÐºÐ¸Ðµ
ĠÐ¿Ð¾ Ñ¥
ÑĪÐµ Ð½Ð¸Ñı
ÑģÑĤÐ¾ Ðµ
Ð´ÑĮ ÑĢ
Ð»Ñı Ð´Ð¸
Ð³Ð¾Ð» Ñ£
ĠÑģÑ£ Ð´Ð¸
ĠÑģÑ¹ ÑīÐµ
ĠÑĢÑ£ ÐºÐ°
ĠÐ¡Ðµ Ð³Ñ¡
ĠÐ±ÐµÑģ ÑĩÐµÑģÑĤÐ¸
ĠÑ¾ Ð²Ñ£ÑīÐ°
ĠÑģÐµÑĢÐ´ ÑĨÑĭ
ĠÑģÑĤÐµ ÑĦÐ°
ĠÐ½Ð°ÐºÐ°Ð·Ð° Ð½ÑĸÐµ
ĠÑħÐ¾Ñī ÐµÑĤÐµ
ĠÐ¿Ð¾Ð³Ð¸ Ð±Ðµ
ĠÑĤÑĢÐ° Ð¿Ðµ
ÑĤ ÐµÐ»Ðµ
ĠÑĤ ÐµÐ»
Ð± ÑĢÐ¾
Ð· Ð°ÑĢ
Ð½Ð¸ ÑģÑ§
ÑĨ ÐºÐ¾Ð¹
ĠÐ° Ð½Ð¾
ĠÐ° Ð»ÑĮ
ĠÐ° ÐºêĻĳ
ĠÑĩ ÐµÐ¼Ñ¹
ĠÐĺ Ð³Ð½Ð°
ĠÐ¿ÑĢÐ¸ ÑģÑĤÐ°Ð²Ð¸
ĠÐ¿ÑĢÐ¸ Ð»ÐµÐ¶Ð°
ĠÐ·Ð° Ð²Ñ£ÑĤÑĬ
ĠÑĶ ÑģÐ¼ÑĮ
ĠÐ¿Ð¾Ð» ÐºÑĬ
Ð¿Ð¸ ÑģÐ¸
âĢ ¦
ĠÐ²Ñĭ Ð´Ð°
ĠÑĢÐ°Ð· Ð³Ð½Ñ£Ð²Ð°
Ð½êĻĭ ÑĤÑĬ
Ð¼Ñĭ ÑģÐ»Ð¸
ĠÐ½Ð¸Ðº Ð¾Ð¼Ð¾Ñĥ
ĠÐºÐ½Ð¸ Ð³Ñĭ
ĠÑħÐ¾Ð´Ð¸ ÑĤÑĮ
ĠÐ²ÐµÐ»Ð¸ÐºÐ° Ñı
ĠÑģÑĢ Ð¾Ð´
ĠÐ¼Ð¸ÑħÐ°Ð¸ Ð»Ð¾
ĠÐ¿ÑĢÐ¿Ð± Ð½ÑĭÐ¸
ĠÐºÐ¾ÑĢÐ¾Ð»ÐµÐ² ÑģÐºÐ¾Ðµ
ĠÐ¼ÑĥÐ´ ÑĢÑĭ
ĠÐ´Ð¾Ðº Ð»Ð°
ĠÑ¡Ð±Ñ£ ÑīÐ°
Ð½ â¸¯
ĠÑģ ÑħÐ¾Ð´
ÑĮ ÑĨÐ¸
ĠÑĤ Ñī
ĠÐ¾ ÑģÐ°
Ñĩ ÐºÐµ
ĠÐ½Ðµ Ðº
ĠÐ½Ðµ Ð¿Ð¾
ĠÐ¿ÑĢÐ¸ Ð²
ĠÑĥ ÑĤÑĢ
ÑģÐ¸ Ð¼Ð°
ĠÐŁ ÐµÑĢÐµ
ĠÐĴ ÑģÑı
Ð½Ñı ÑĤÑĮ
ĠÑĪ Ð»Ð¸
Ð»ÐµÐ½ ÑĸÐ°
Ð¾Ð½Ð¸ Ð¸
ĠÐĲÐ»ÐµÐºÑģÐ°Ð½Ð´ ÑĢ
ĠÐ¾Ð´ Ð½Ð°
ĠÐ²Ð·Ñı Ð»ÑĬ
ĠÑħÐ¾Ð´ Ð¸ÑĤ
ĠÐ¿Ð¸ÑĤÐ¸ Ðµ
ĠÑģÑĤÑĢÐ°ÑĪ Ð½Ð¾
Ð¾Ð¼Ðµ ÑģÑĤ
ĠÐ½Ð°Ð¸ Ð¿Ð°ÑĩÐµ
ĠÐ²Ð·ÐµÐ¼ ÑĪÐµ
ĠÐ² Ð½Ð¸ÑĤÐ¸
Ð´ Ð¾Ð¹
ĠÐ´ Ð²Ð¾Ð¸
ÑĨ ÑĢ
ĠÐ° Ð±
ĠÐĺ ÐµÑĢ
Ð¶Ðµ Ð½ÑĮ
ÑĢÐµ ÑħÑĬ
ĠÐĴ ÑģÐ¸
ĠÑģÐ» Ð½
ĠÐ¢ Ð¾Ð»ÑĮÐºÐ¾
ĠÐ²Ð° ÑĪÑ§
ÑģÐºÐ° Ð³Ñ¡
ĠÑģÑ¹ ÑģÑ£
ĠÐµÐ´Ð¸ Ð½ÑĮ
ĠÐ²ÑĢÐ° Ð¶
ĠÑģÐµÑĢÐ´ ÑĨÐµÐ¼ÑĬ
ĠÐºÑĥÐ¿ Ð»Ñİ
ĠÐ¼Ð¾Ð»Ð¾Ð´ Ð¾Ð¹
ĠÐ¿Ð¾Ð½ Ð¾Ñģ
ĠÐ²ÑĬÑģÑ£ ÑħÑĮ
ĠÐ¿ÑĢÐ¸Ð¸ Ð´Ð¾ÑĪÐ°
ĠÐ¸Ñİ Ð½Ñı
ĠÐ¿Ð°ÑĤÑĢÐ¸Ð°ÑĢ ÑħÐ°
ĠÐ´ Ð²Ð¾Ðµ
ĠÑĤ Ñĸ
Ñ§ ÑĤÑ£
ĠÐ± ÑĢÑ£
ĠÐ± Ð»Ñ§
Ñİ ÑģÑı
Ñĩ Ð½ÑĭÑħ
ĠÑĥ Ð¼ÑĭÑĪ
ĠÑĤÐ° ÑĤÑı
ÑħÐ° Ð»ÑĬ
ĠÑĢÐ°Ð· Ð¾ÑĢ
ĠÐºÑĥ Ð¿Ðµ
ĠÐ¿Ðµ ÑĩÐµÑĢ
ÑŃ ÑĪÑĤÐµ
ÑħÐ¸ Ðµ
ĠÐ´ÑĬ Ð²Ð°
ĠÐ¿Ð¾Ð´Ð° ÑĤÐ¸
ĠÐ»ÑĮ ÑģÑĤÐ¸
ĠÐĺÐ· Ñ§
ĠÑģÐ²Ñ§ ÑĤÑĭ
ĠÐ²Ð°ÑģÐ¸Ð»ÑĮ Ñİ
ĠÑģÑĤÑĢÑ£ Ð»
ĠÐ²Ð¸Ð´Ðµ ÑĤÐ¸
ĠÐ³ÑĢÐ¸Ð³Ð¾ÑĢÐ¸ Ð¸
Î¿Ï Ĥ
ĠÑĥÑĩÐ¸Ð½Ð¸ÑĤ ÑģÑı
ÑĤ Ð²Ðµ
ĠÐ½ Ð¾Ð½
ĠÐ½ Ð¾Ð³Ð¾
Ð· Ð½Ñ£
ĠÐ» Ð¾Ð´
ĠÑĩ Ñ§
ĠÐ´Ð° Ð±Ñĭ
Ð´Ð° ÑĪÐµ
ĠÑħ Ð²Ð°Ð»
ÑģÑĤÑĮ Ð¸
ĠÑĢÐ° Ð¶Ð°
ÑģÐ¸ Ð»
ÑĩÐ° Ð»ÑĮ
ĠÐºÐ° Ð½
ĠÐºÐ° ÐºÐ¸Ñħ
ĠÐ¿Ð¾Ñģ Ð¼Ñ£ÑħÑĬ
ĠÐ²Ð¾Ð· Ð½ÐµÐ½Ð°
ĠÑĢÑĥ Ðº
Ð½Ð¸Ðº êĻĳ
ĠÑģÑĥ Ð¶Ð´Ð°
ĠÐ¿Ð¾Ð¶Ð° Ð»êĻĭÐ¸
ĠÑĢÐ°Ð´ Ð¾Ð²Ð°ÑĤÐ¸
ĠÐ¸Ð³Ñĥ Ð¼ÐµÐ½Ð°
ĠÐ´ÐµÑģÑı ÑĤÑĮ
ĠÐ¿ÑĥÑģÑĤÐ¾ ÑĪÐ¸
ĠÑĢÐ°êĻģÑ¹ Ð¼Ñ£
ÑĢ Ð³
ĠÑĤ ÑĸÐ°
ĠÐ¿Ð¾Ñģ Ð¼Ñ£
ĠÐ²Ñ£ Ð´
ĠÐ»Ð¸ ÑĪÐµ
ĠÑĪ ÑĬ
ĠÑĨÐ°ÑĢ ÑģÑĤÐ²Ñĥ
ĠêĻĭ Ð±Ñ¡
ĠÐ¿Ð¾ÑĢ ÑĥÑĤÑĩÐ¸
ĠÐ¼Ð» ÑģÑĤ
ĠÐ¿ÑĢÐ¾Ð´Ð° Ð¶Ñ£
ĠÐ½Ð°Ñģ Ð»Ðµ
ĠÐ·Ð½Ð° Ð»Ð°
ÑīÐµÐ½ ÑĸÑ§
ÑĪÑĤ ÐµÐ¼ÑĬ
ĠÐ¿ÑĮ Ñı
ĠÐ¸Ð²Ð°Ð½ Ð¾Ð²Ð¸ÑĩÑİ
ĠÐ±Ð¾Ð¶Ð¸ Ñİ
ĠÐºÐ¾Ð¶ Ñİ
ĠÐ°Ð½ÑĤ Ð¾Ð½
ĠÐĿÐ¾Ð² Ð³Ð¾ÑĢÐ¾Ð´
Ð» ÐµÐ½ÑĮ
ĠÑģ Ð¾Ð½ÑĬ
ÑĮ ÑĤÐ¾
ĠÐ½ Ð¾Ð²Ð¾
ĠÐ´ Ð»ÑĮ
ĠÐ´ Ð²ÐµÑĢÐ¸
ĠÐ´ Ð²Ð¾Ñ¥
ÒĨ :
ĠÐ¿ÑĢÐ¸ Ñ§
Ð½Ñ£ ÑĤÐµ
ĠÑĢÐµ Ð´Ð°
ĠÑĤÐµ ÑħÑĬ
ĠÐ²Ñ£ Ð¼ÑĬ
ĠÐ²Ñ£ ÑĤÑĢ
ĠÐ²Ð¾Ð· Ð²ÐµÑģÐµÐ»Ð¸
ĠÐ¿ÑĢÐ° Ð²ÑĥÑİ
ĠÑħÐ¾ÑĤ Ñ§ÑīÐµ
Ñĳ ÑĢ
ĠÐ²Ð¾Ð»Ð¾Ð´Ð¸Ð¼ÐµÑĢ Ñĥ
ĠÑģÐ¾ÑĤÐ²Ð¾ÑĢ Ð¸ÑĤ
ĠÑģÐ»ÑĥÐ¶Ð¸ Ð»ÑĭÑħ
ĠÑģÑĢÐ¾Ðº ÑĬ
Ñ¡Ð½Ð° Ñ³Ð°
ĠÐ±Ð¾Ð¶Ð¸ Ñı
ĠÐ¿Ð¾Ð»Ð¾Ð¶ Ð¸ÑĤ
ĠÐ§Ð° Ð´Ð¾
ÑĢ Ð¿Ð¸
ĠÐ¸ ÑģÑĤÑĮ
ĠÐ¸ ÑģÑĤÐµÑĢ
Ð´ ÑĨÐµ
ÑģÑĤ Ð°ÑĢ
ÑģÑĤ êĻ¿
Ð± Ñĸ
Ð²Ð° ÑħÑĬ
ÑĩÐ¸ ÑĪÐ¸
ĠÐ¾ÑĤ Ð²Ñ£ÑīÐ°
ĠÐ¸Ð· Ð±Ð¸
ĠÑĤÐ²Ð¾ Ð°
Ð´ÑĮ Ñĸ
Ð¸ÑĤÐµ ÑģÑı
ĠÑģÑĤÐ° Ð½Ñĥ
ĠÑĨÑĢ ÐºÐ²Ð¸
ĠÐ³Ð¾ÑģÐ¿ Ð¾Ð¶Ðµ
Ð²ÑĪÐ¸ Ð¼
ĠÐ¾Ð´ Ð½Ð¾Ð³Ð¾
ĠÐ²Ð·Ñı Ð»Ð¸
ĠÑģÐ²Ð¾Ð± Ð¾Ð´Ð¸
ĠÐ¿ÑĢÐ¸Ð¸ Ð¼Ð¸
ĠÐ¿ÑĢÐ¸Ð½Ðµ ÑģÑĤÐ¸
ĠÐĺÐ²Ð°Ð½ Ð¾Ð²Ð¸Ñĩ
Ġ2 0
Ð±ÑĭÑĤ Ð¾ÐºÑĬ
ĠÐ² ÑĢ
ÑĪ ÑĤÑĬ
ĠÐµ Ð¿Ð¸
ÑĤÑĮ Ñĸ
ÐºÐ¾ ÑĪÐµ
ĠÑģÑĤ êĻĳ
ĠÑ¡ Ð»Ð¾Ð²
ÑģÑĤÐ° Ð³Ð¾
Ð¾Ð²Ð° ÑĤÑĮ
ĠÑģÐ° Ð¼Ñ£
ĠÐ¢ Ð¾Ð»ÐºÐ¾
ĠÐ¼Ð° Ð³
ĠÐļ Ð½Ñ§
ĠÐŀ Ð±
ĠÐ¼Ð¾Ð» Ð²Ð¸
Ð½ÑĭÐ¸ Ð¼ÑĮ
ĠÐ¸ÑģÐ¿ Ð»ÑĬ
ĠÐ´ÑĬ Ð»
ĠÐ¸Ð½ Ð´Ñ£
Ð»Ñ¡ Ð¼ÑĬ
Ð½ÐµÑģ Ð¾ÑĪÐ°
Ð¼êĻ¿ Ð¶Ðµ
ĠÐ½Ð°Ð¼Ñ£ ÑģÑĤ
ĠÐ¢Ð¸ Ð¼Ð¾
ĠÐ´Ð²Ð°ÑĤÑĨÐ° ÑĤÑĮ
ĠÐ±ÐµÐ³ Ð»ÑĭÑħ
Ð° Ð²ÑĬ
ÑĤ ÑĨÑĭ
Ñģ ÐµÐ¼ÑĬ
ÑģÑĤ Ð¸ÑĤÑĬ
Ð· ÐµÐ¼
ĠÐ¾ Ð´Ñ£
Ñī ÐµÐ¼
Ð¾Ð± Ð¾ÑĢ
ÑĩÐ¸ ÑīÐ°
Ð²Ñ£ ÑĢ
ĠÐ¾ÑĤ Ð²ÐµÑĢ
ĠÐ¾ÑĤ ÐµÑĨ
ĠÐ²Ð° ÑĢÐ¸
ÑģÐ¿ Ð¾Ð²Ñ£
ĠÐ²Ð¾Ð· Ð¼Ñĥ
ĠÑ¹ Ð¼ÑĬ
ĠÐºÐ¾ÑĢ ÐµÐ½ÑĮ
Ð·Ñĭ ÐºÐ¸
ĠÐ¸Ñģ ÑĨÐ°
ĠÑ³ Ð¸Ð»Ð¸
ĠÐ¿Ð» Ð¾Ð´Ñĭ
ĠÐ¶ÐµÐ½Ð° Ð¼ÑĬ
ĠÐĴÐ°ÑģÐ¸ Ð»ÑĮÑİ
ĠÐ¿Ð°Ð² ÐµÐ»ÑĬ
ĠÑĤÑĢÐ° Ð²Ð°
ĠÐ¼Ñ¡Ñµ ÑģÐµÑİ
ĠÐ¿ÑĢÐ¸ÑģÑĤÐ° Ð²Ð°
ĠÐ½Ñ£Ðº ÑĤÐ¾
ĠÑħÑ¹ Ð´Ð¾
ĠÐ¸Ð³ÑĥÐ¼ÐµÐ½ Ñĥ
ĠÐ´Ð¾Ð±ÑĢÐ¾Ð´Ñ£ ÑĤÐµÐ»
ĠÐ´ÐµÐ²Ð¸ ÑĨÐ°
ĠÐŁÐ¾Ðº Ð»Ð¾Ð½
ĠÐ¿ÑĢÑı Ð¼Ð¾
Ð° ÑħÑĬ
Ð¼ ÑĥÐ´
ĠÑĤ ÐµÐ»ÑĮ
ÑģÑĤ ÑĢÑĮ
ĠÐº Ð¾Ð´
ĠÐ» Ñĭ
Ð²Ð° ÑĪÐ°
ĠÐĺ Ñģ
Ð¸ÑĤ Ñı
ĠÐ¿ÑĢÐ¸ ÑĤÐ¸
ĠÐ¿ÑĢÐ¸ Ð¼Ñ£
ÑģÐ° Ð½
ĠÐ¡ Ð²Ñ£
ĠÑģÐ»Ð° Ð²Ð¸
ĠÐ¾ÑĤÑĬ Ð²Ñ£ÑĪÑĤÐ°
ĠÐ²ÑģÑı ÐºÐ¾Ð¼Ñĥ
ĠÐºÐ°Ð· Ð½ÑĮÑİ
ĠÐ´Ñħ Ð¾Ð²
ĠÐ´ÑĪ Ñ«
ĠÐ¼Ð¾Ð½Ð°ÑģÑĤÑĭ ÑĢÐ¸
ĠÐ²Ñ£ÑĢ Ñ«
ĠÑ¥Ñģ Ð¼Ð¸
ĠÐ´Ð¾Ñĥ ÑĪÐ°
ĠÐ»Ñ¹ ÐºÐ°
ĠÐ³ÑĢÐµ ÑĩÐµ
ĠÐ²Ð°ÑĪÐ¸ Ð¼ÑĬ
ĠÑģÐ²Ñ£ÑĤ Ð»Ð¾
ĠÑį ÑĤÐ¾
ĠÐ¼Ð»Ð° Ð´Ð°
ĠÑģÐ²Ð¸Ð´Ñ£ Ð½ÑĸÑ§
ÑĤ Ñ¡
Ð» Ð¾Ð¹
Ð» ÐºÑĥ
ĠÑģ ÐµÐ½Ð°
ĠÐº ÐµÑģ
Ð¾Ð» Ð¾Ð¿
ĠÑĨ ÐµÑĤÐ¾
ĠÑĢÐ° Ð´Ñĥ
ĠÐ¿Ð¾Ð» Ñĳ
Ð²Ñĭ Ñ§
ĠÐ²Ð¾Ð· Ð¾Ð¿Ð¸
ÑĨÐµ Ð²ÑĬ
ÑĶ Ð³Ð¾
ĠÐ±Ñ£ Ð´Ð°
ĠÐºÐ°Ðº ÑĮ
ĠêĻĭ Ð¼
Ð½Ð¸Ðº êĻĭ
ĠÐ¼Ñ§ ÑĤÑĮ
Ñĳ Ð½
Ð´Ñ§ ÑīÐµ
ĠÐ»Ð° Ð²ÐºÐ°
ĠÐ²ÑĢÐ° Ð¶Ð´Ð°
ĠÑģÐµÐ¼ ÐµÐ½Ð°
ÑĤÐµÑĢ Ð¸
ĠÑģÑĢ ÑĨÐµ
ĠÑĩÐ»Ð¾Ð²Ñ£ ÑĩÑĮ
ĠÐ¿Ð¾Ð³Ð¸ Ð±Ð»Ð¸
ĠÐ²Ð¾ÑģÐ¿ Ð¾Ð¼
ĠÐ»Ð¾ÑĪÐ° Ð´ÑĮ
ĠÑİÑĢÑĮ Ñİ
ĠÑĩÐµÐ»Ð¾Ð±Ð¸ ÑĤÑĮÑı
ĠÐ¢Ðµ Ð±Ðµ
ĠÐľÐ°ÑĢ ÐºÐ¾Ð±
ĠÐĶÐ°ÑĢÐ¸ Ð¹
ĠÐĶÑİ Ðº
Ð» Ð½Ð°
ĠÐ¸ ÑģÑĤÐ¾Ñĩ
Ðº Ð¾Ð¶
Ñı Ð½Ð¸Ñı
ĠÐ½Ð° Ð³Ð°
ĠÐ³ Ð½Ð°
Ð¿ Ð¾Ð¼ÑĬ
ÑĢÐ° Ð´Ð¸
ĠÐ´Ð° Ðµ
ĠÐ½Ð¸ Ð·ÑĬ
ĠÐ¡ ÐºÐ°
Ð¼ÑĮ Ñĸ
ĠÐ¢ Ð¾Ð¼ÑĮ
ĠÐ¼Ð½ Ð¾Ð·Ñ£
ĠÐ³ÑĢÐ° Ð¶Ð°
ĠÑ§ ÐºÐ¾Ð²Ð°
ĠÑĤÑ£ ÑħÑĮ
Ð»Ñĭ ÑħÑĬ
ÑģÑĤÑĭ Ð½
ĠÐķ Ð´Ð°
ĠÐ¿ÑĢÑĸÐ¸ ÑĤÐ¸
ĠÐ´Ð¾Ð±ÑĢÑĭ Ð¼Ð¸
ÑħÐ¾Ð´Ð¸ Ð»Ð¸
Ð»Ð¾Ñģ Ñ§
ĠÐºÑĢÐ°Ñģ Ð¾ÑĤÑĥ
ĠÑıÐ·Ñĭ ÐºÐ¸
ĠÐ¿Ð¾ÑĢÐ° Ð·Ð¸
ĠÑģÐ»ÑĥÐ¶Ð¸ ÑĤÐ¸
ĠÐ½ÐµÐ´Ð¾ ÑģÑĤÐ°
ĠÑĩÐ°ÑĢ Ñĥ
ĠÑĩÐµÑĢÐ½Ð¸ Ð³Ð¾Ð²
ĠÐ´ÐµÑĪÐµ Ð²Ð¾
Ð´ ÐµÐ½Ð°
ĠÐ± Ð¾ÑĢÐ°
ĠÐ¼ ÐµÑĤÐ°
ĠÐ» ÑĥÑĤ
ĠÑĩ Ð¾
ĠÑģÑĬ ÐºÑĢÑĭ
ĠÐ¼Ð° ÑİÑĤÑĮ
Ð³Ð° Ð»Ð¸
ĠêĻĭ ÑĩÐ¸Ð½Ð¸
ĠÑĩÐ¸ ÑģÑĤÑĬ
ĠÑĦ Ð»Ð°
ĠÐ¿ÑĢÐµÐ´ Ð¾
ĠÑĤÑĮ ÑĩÑĸÑİ
ÑĤÐµÐ» Ñ§
ĠÐ²Ð¾Ð·Ð¼ ÐµÑĤÑĬ
ĠÐ²Ð°ÑĪÐµ Ð¸
ĠÐ¾ÑĤÐ¸ Ð´Ðµ
ĠÑģÐ½Ð¸ Ð´Ðµ
ĠÐ»ÐµÐ´ Ñ¹
ĠÐ¼Ð¾Ð»Ð¸ÑĤÐ²Ð° Ð¼Ð¸
Ð° Ð¼ÑĬ
ÑĢ ÐºÐ°
ĠÑģ Ñģ
ĠÐº Ð½Ð°
ĠÐº Ð»Ñı
Ñħ Ð¼Ð°
Ð± ÐµÑĢÐµ
Ð²Ð¸ Ðµ
Ð°ÑĢ Ñĭ
ÑģÐ¸ ÑĤÑĮ
ĠÐ¿Ð° Ð½ÑĬ
ÑīÐ¸ Ð¼Ð¸
ĠÐ¼Ð° Ð»ÑĬ
Ð³Ð° Ð¼ÑĬ
ĠÐ¶Ð¸ Ð²Ñĭ
ĠÐ¾Ð± Ñı
ĠÐ´Ð²Ð¾ÑĢ Ñ§Ð½Ð¸
ĠÐ³ÑĢ Ð¾Ð±Ñ£
ĠÐ±êĻĳ ÑĪÐ°
ĠÐ²Ð»Ð° ÑģÑĭ
ĠÐ³Ð¾ ÑģÑĤÑı
ĠÑģÐ¾ÑĤÐ²Ð¾ÑĢÐ¸ Ð»ÑĬ
ĠÑĢÑ¹ ÑģÑĮ
ĠÐ¼Ð½Ñ¡ Ð³Ñĭ
ĠÑģÐ¾Ð² Ð¾ÐºÑĥ
ĠÐ±Ñ« Ð´Ðµ
Ġ1 00
ĠÐ¿ÐµÑĢÐµÑı ÑģÐ»Ð°Ð²
Ð² ÑĸÐ°
Ñĥ Ñģ
ĠÐ´ Ð²Ð¾
ĠÑĤ ÑĢÑı
ÑģÑĤ ÑĸÐµ
Ð³ Ð½Ñĥ
Ñĩ Ð¾
Ð»Ð° ÑĤÐ°
ĠÑĩ ÐµÐ¼Ñĥ
ĠÐĺ ÑħÐ½Ð¸
ĠÑģÑĤ ÐµÐ½Ð°
Ð»Ðµ Ð½Ð¸Ð¸
ĠÐĴ Ð¾Ð¸
ÑĸÐµ Ñİ
Ð³Ð° Ð»ÑĬ
ĠÐ¼Ð½ Ð¾Ð¶
Ð²Ñĭ ÑĪÐµ
ĠÐºÐ¾ÑĢ Ð¾Ð²Ð°
ĠÑģÑ£ Ð½
ĠÐ²ÐµÐ» ÐµÐ»ÑĬ
ÑħÑĥ ÑĤÑĮ
ĠÐ½Ð°ÑĪ ÐµÐ¼Ñ¹
ĠÐ±Ñĥ Ð»Ð°ÑĤ
ĠÐ¿ÑĢÐ¾Ñģ ÑĦÐ¸
ĠÐ²ÐµÐ»Ð¸ÐºÐ¸ Ðµ
ĠÐ½ÐµÐ´ ÐµÐ»ÑĮ
ĠÐ¿Ð¾ÑģÐ°Ð´ Ð½Ð¸ÐºÐ°
ĠÑĢÐ°ÑĤ Ð¼Ð°
ĠÐ²ÑĬÑģÐ¿ ÑĢÐ¸
ĠÐ»Ð² ÐºÐ°
ĠÐŁÐµÑĤ ÑĢÐ°
ĠÐ¼ÐµÑĩ ÐµÐ¼ÑĬ
ĠÐĳÐ¾Ð» Ð³Ð°ÑĢ
ÑģÐ»Ñĭ ÑĪÐ¸
ĠÑģÑĥÐº Ð½Ð°
ĠÑģÑ¡ ÑĤÑĬ
ĠÐľÐ°ÑĢÐºÐ¾Ð± ÑĢÑĥ
ĠÐ ¬
Ð¸ Ð¶Ðµ
ĠÑģ ÑģÑ¹
Ð¿ ÐµÑĢ
ĠÐ½Ðµ Ð·Ð½Ð°
ĠÐ° Ð»Ðµ
ĠÐ° Ð±Ñĭ
ĠÐ¿Ð¾ êĻĹ
ĠÑģÑĬ Ð²ÑĬ
ÑģÐ° ÑĢÐ°
ÑģÐ° Ð½Ð°
ÑģÐ¸ Ð»Ð°
ĠÐŁ Ð¾ÑĢ
ĠÐ»Ñİ ÑĤÐ°
ĠÑģÐ¸ Ð°
ĠÐ¿Ð¾Ñģ Ð¼Ð¾ÑĤ
Ð¿Ð¸ ÑĪÐ¸
ĠÐ²Ñ£ ÐºêĻĳ
ĠÐ²Ð° Ñİ
ĠÐ»Ð¸ ÑģÐ¸
ÑĢÑĥ Ð´Ð¸
ĠÐºÐ°Ðº Ð¾Ð¹
ĠÐºÑĢÐµ ÑģÑĤÐ°
ĠÐ½Ð¸Ñħ ÑĤÐ¾
ĠÐ¿Ð¾Ð´Ð»Ð¸Ð½ Ð½Ð¾
ĠÐ¼ Ð»ÑĬ
ÑĢÐ° êĻģ
Ð¾Ð´ Ð¾
Ð¼ÑĬ ÐºÐ°
ĠÑ¿ Ð¿Ñ¹
Ð»Ðµ Ñħ
ÑīÐµ Ð½Ð¸
ÑģÐº ÑĹÐ¸
Ñ¥ Ð³Ð¾
ÑĤÐµ ÑģÑ§
ĠÑĤÑ£ Ð¼Ð¶Ðµ
ĠÐ¼Ñ£ ÑģÑ§
ĠÑģÑĮ ÑĤÐ²Ð¾ÑĢ
ĠÐ¿Ð¾ÑĤ ÑĢÐ¾
ĠÑģÑ¹ Ð´Ð½Ð¾
ĠÐ¸ÑģÐ¿ Ðµ
ĠÐ¸ÑģÐ¿ Ð¾ÑĢÑĤÐ¸
ĠÑĤÑĥ ÑĤÑĬ
ĠÐ±Ð¾Ð³ Ð¾Ð¼
ĠÐ¿Ð¾ÐºÐ° Ñ§
ĠÑĨÑ£ ÑģÐ°ÑĢÑĮ
ĠÐ²Ð·Ñ§ Ð»Ð¸
ĠÐ²Ð´ Ð¾Ð²Ñĭ
ĠÐ¿Ð¾Ð²Ñ£ Ð¶ÑĮ
ĠÑĨÐ°ÑĢÐ¸ ÑĨÑĭ
ĠÑĩÐ»Ð² ÐºÑĬ
Ð¼ Ð¾Ð²Ð°
ĠÐ´ Ð¾Ð·Ð¸
Ð³ Ð»ÑĬ
ĠÐ½Ð° ÐºÐ¾ÑĢÐ¼Ð¸
ĠÐ½Ðµ Ð»Ð¸
ĠÐ· ÑĢÑı
ĠÐ¶Ðµ Ð½Ð¾
ĠÐ´Ð° Ð²Ñĭ
Ð¾Ñģ Ñĭ
ÑĢÐµ Ñħ
ĠÑħ Ð¾Ð´Ð°
ĠÐ¾ÑĤ ÑĩÐµ
Ñ¥ Ñİ
ĠÐ»Ð¸ ÑĪÑĮ
ĠÐ¿Ð° Ñµ
ÑĦ Ð¾ÑĢÐ°
Ð½Ð¸Ðº Ñ¡Ð²ÑĬ
ĠÐ±Ð¾Ð» Ñı
ĠÐºÑĢ Ð¾ÑĤÑĬ
ĠÐºÑĢÐ° Ð´
ĠÐ´ÑĢÑĥ Ð·Ð¸Ð¸
Ð±ÑĮ Ðµ
ĠÐ»Ð° ÑĢÐ¸
ÐºÑ¹ ÑĤÑĬ
ĠÐ³Ð¾ÑģÑĥÐ´Ð°ÑĢÑĮ ÑģÑĤÐ²Ð°
ĠÐ¿Ð¾ÑĪ Ð»Ð°
ĠÑģÑĤÐ²Ð¾ÑĢÐ¸ ÑĪÐ°
ĠÐ±êĻĭ Ð´ÐµÑĪÐ¸
ĠÐºÑĢÐµÑģÑĤÑĮÑı Ð½Ð¸Ð½Ð°
ĠÐ²Ð·Ñĭ Ð´Ðµ
ĠÐ±ÑĢÐ°ÑĪ Ð½Ð¾
ĠÑĪÐ¸ÑĢÐ¾Ðº Ð¸
Ðµ ÑĨÑĮ
Ñ§ Ð½Ñĥ
Ð½Ð¸ Ð´Ðµ
ĠÐĺ Ð¼Ñ£
êĻĹ Ð¸
Ð¾ÑĤ êĻĭ
ĠÑ¿ Ðº
ĠÐ±Ðµ ÑģÐº
ĠÐ²Ð¸ Ð½Ñĥ
ĠÐ²ÐµÐ»Ð¸ ÑĤ
ĠÐ¾Ð± Ð¸ÑĤÐµÐ»Ð¸
ĠÐ¿Ð¾ÑĢ Ð¾Ð·
ĠÐ¸Ñģ Ð°Ðº
ÑĤÐ² Ð¾Ð²Ð°
ĠÐ½Ð¾Ð² Ñĥ
ĠÑģÐ¼Ñ£ ÑĤÐ¸ÑĤÐ¸
ĠÐ¼Ð¾Ð»Ð¸ÑĤ Ð²Ñĭ
ĠÑħÐ° Ð½Ð°
ĠÐ±ÐµÑģÑ£ Ð´Ð¾Ð²Ð°ÑĤÐ¸
ĠÐ¾Ð±ÑĢÑ£ ÑĤÐ°
Ð²Ð¸ÑĤ ÑģÑı
ĠÑģÐ»Ñ£ Ð´ÑĬ
ĠÑĢÑ¹ÐºÐ¾Ð´Ñ£ Ð»
ĠÑģÑĤÐ²Ð¾ÑĢ Ñ§
ĠÐ·Ð°Ð¿Ðµ ÑĩÐ°ÑĤÐ°
ĠÐ²ÐºêĻĭ Ð¿Ñ£
Ð½ ÐµÐ¼ÑĮ
ÑĮ ÑģÑĤÐ¸
ĠÐ¸ Ð¼ÑĮÐ¶Ðµ
Ð³ ÑĢ
Ñı Ð½Ñĥ
Ð¾Ð² Ð¾ÑĢ
Ñī ÑĭÑ§
ĠÐ· Ð²Ð°ÑĤÐ¸
Ð¾Ð½ Ð¾Ð¼ÑĬ
êĻĹ Ð½Ð°
ĠÑ¡ Ð³Ð½
ÑĢÐµ Ðº
Ð¼Ð° Ð»
ĠÐ¼Ð¾ ÐµÐ¼
Ð¶Ð¸ ÑĪÐ¸
ĠÐ²ÐµÐ»Ð¸ ÑĩÐ°
ÑĶ ÑĤÑĬ
ĠÐ±Ñ£ Ð°ÑĪÐµ
ĠÐ´Ðµ Ð±
Ð¾Ð²Ñĭ Ñı
ĠÐ¼Ðµ ÑīÐ°
ĠÐ·Ð°Ð¿ Ð¾Ð²
ĠÑĢÑ¹ ÑĨÑ£
ĠÐ½ÐµÐ¿ Ð¾Ð²Ð¸
ĠÑĢêĻĭ ÐºÐ°
Ð¿ÑĢ Ð¾Ð²
ĠÐ¼Ð¸ÑħÐ° Ð»Ñ§
ĠÐºêĻĭ Ð¿Ð¸
ĠÐ°Ð½ ÑĤÐ¸
ĠÐ¿Ð¾Ð½ Ð¾Ð¼
ĠÐ¶Ð¸ÑĤÐ¸ Ð¸
ÑģÑĤêĻĭ Ð¿Ð°
ĠÐŁÐµÑĤ ÑĢ
ĠÐ²Ð¾ÑģÑĤÐ° Ð²ÑĬ
ĠÐ·Ð´Ð¾ÑĢ Ð¾Ð²Ð¾
ĠÐ¸Ð´ Ð¾Ð»
ĠÐĳÑĥ Ð´Ð¸
ĠÐ¿Ñ£Ñģ Ð½ÑĮ
ÑĢ ÐºÑĬ
Ð» Òį
Ð² Ð½Ð°Ð³Ð¾
Ñħ Ð¾Ð´Ð°
Ð± Ð°Ðº
ĠÐ¾ Ð»ÑĮ
Ñĩ ÐºÐ¾Ð²
ĠÐ½Ðµ Ð²Ð¾Ð·
ĠÐ¿Ð¾ ÑĩÐµÑģÑĤ
ĠÐ´Ð° ÐµÑĤÑĬ
ĠÐ´Ð° Ð¸ÑĤÐµ
ĠÑģÑĤ ÐµÐ½Ñĭ
ÑĢÐ¸ Ð»Ð¸
ĠÑĥ Ð¿ÑĢÐ°
ÑĢÐµ Ð²Ð°
ĠÐ²Ðµ ÑģÑĥ
ĠêĻĹ Ð²Ð»Ñ§
ĠÐ³Ð¾Ñģ Ñ¹Ð´Ð°
ĠÐ¶Ð¸ ÑĢÐ¾
ĠÐ²Ñĭ ÑĤÐµÑĢ
ĠÐ²Ñĭ ÑģÑ¹
ĠÐ¼Ðµ Ð¶Ñİ
ĠÐ¿Ð¾ÑĤ Ð¾Ð¼ÑĮ
ĠÐµÑģ Ð²Ñ£
ĠÐ¿Ð¸ÑģÐ° Ð½
ĠÐ½ÐµÐ¿ Ð¾ÑĢÐ¾
ĠÐļÐ° Ð±Ñĭ
ĠÑħÐ¾Ð»Ð¾Ð¿ ÑģÑĤÐ²Ð¾
ĠÐ·Ð°Ð¿Ð° ÑģÑ¹
ĠÐ¿Ð°Ð¼ Ñ§ÑĤÐ¸
âĢĿ ,
ĠÐ¢Ñ£ Ð¼ÑĮ
ĠÑĥÐ¼ ÑĢÐµÑĤ
ĠÐ¿ÑĢÐµÐ¼ Ñ£
ĠÐļÐ¸ ÐµÐ²Ðµ
ĠÐºÑĢÑĬ Ð²ÑĮ
ĠÑĤÐ¾Ð²Ð° ÑĢÐ¸
ĠÑ¡ÑģÑĤÐ° ÑĤÐºÐ¸
ĠÐºêĻĳ Ñ¥
ĠÐ¿Ð¾ÑĢÑ§Ð´ Ð½Ð¸
ĠÑ¡Ð±ÑĢÑ£ ÑĤÐ°
ĠÐºÐ¾ÑĢÐ¾Ð±ÑĮ Ñ§
ĠÐ¿ÑģÐº Ð¾Ð²
ĠÐ¿Ð¾ÑħÐ¾ ÑĩÐµÑĤ
Î¿Ï ħ
ĠÑģÐ²Ñ£Ð¸ ÑģÐºÐ¸Ðµ
ĠÐºÐ°Ð±Ð°Ð»Ð° Ð¼
ĠÐ·Ð°ÑĤ Ñħ
ĠÐºÐ°Ð¿Ñ¹ ÑģÑĤÐ°
ĠÐ²Ð°ÑĢÑĪÐ° Ð²Ñĭ
ĠÑĢÑ¹ÐºÐ¾Ð´ ÐµÐ»
ĠÑ¡Ð»Ð¾Ð² Ñ§
Ðº Ð¾Ð²Ñ£
ĠÑĤ Ð¼Ð°
ĠÐ± ÑıÑħÑĥ
Ñİ Ñİ
ĠÐ¼ êĻĹ
ĠÐ³ Ð»ÑĮ
ÐµÐ¼ Ð¾Ðµ
Ð²Ð° Ð°ÑĪÐµ
ĠÑĩ ÑģÑĤ
Ð½Ð¾ Ñī
Ñ¡ Ð²Ñ£
ĠÑĥ ÑħÐ¾
ĠÐ¡ Ð¾Ðº
ĠÑĢÐµ ÑĩÐµÐ½
ÑĢÐ¾ ÑĨÐ¸
ĠÑ¥ ÑģÑĤÑĬ
ĠÐ¿Ð¾Ð´ Ð»Ðµ
ĠÐ¿Ð¾Ð´ Ð²Ð¾ÑĢ
ĠÐ¿Ð¾Ðº ÑĢÐ°
ĠÐ²Ð¾Ð· ÑĬ
ÑģÐºÐ¸ Ð¸Ñħ
ĠÐ¿Ð¾Ð¼ Ð¾Ð·Ð¸
ĠÐ±Ð» ÑĥÐ´
Ð»Ñı Ñħ
ĠÐ´Ð¾Ð±ÑĢ Ð¾Ð¼
ĠÐºÑ¹ Ð¿Ð¸ÑĤÐ¸
ĠÐ±Ð»Ð³ ÑĤÑĮ
ĠÐ´ÑĢÑ¹ Ð³Ñ¹
ĠÑģÐ¾ÑĤÐ²Ð¾ÑĢ Ð¸ÑĤÐµ
ĠÐ±ÐµÑģÑ£ Ð´Ð¾Ð²Ð°
ĠÐ¼Ð»Ð° Ð´Ñĭ
ĠÑģÐºÐ¸ Ð½ÑĸÐ¸
ĠÐ±ÑĥÐ¹ Ð½Ñĥ
Ð½ Ð¾Ð¶Ð¸
Ñģ Ð¼ÑĬ
Ð´ Ð¾Ð²Ñĥ
ĠÐ´ Ð¾Ð·
ÑģÑĤ Ð¾Ð»Ñ£
ĠÐº Ð¾Ð¶Ð¸
ĠÐ» Ñı
ĠÐĺ Ð¾Ð°Ð½
ĠÐ¿ÑĢÐ¸ Ð²Ð¾Ð´Ð¸
Ð»Ðµ Ð°
ĠÐ¼Ð° ÑģÑĤ
ĠÐ²Ð¸ ÑĪ
ÐµÑĢÐµ Ð¹
ĠêĻģ Ð»Ñ£
ĠÑģÐº Ð¾Ð»ÑĮÐºÐ¾
ĠÐ½Ñ£ ÐºÐ°ÐºÐ¾
ĠÐ¼Ð¾Ð» Ð¾ÑĤÐ¸
ĠÑĦ Ð¾Ð¼Ñ£
ĠÐ±Ð»Ð° Ð³Ñĭ
ĠÑģÐ¼ Ð¾Ðº
ĠÐ´ÑĮ Ð¶ÑĮ
Ð½êĻĳ Ð¸ÑħÑĬ
ĠÑĤÐ²Ð¾Ðµ Ñı
ĠÐ¼Ð¾Ð¸ Ð¼Ð¸
ĠÐµÐ´Ð¸ Ð½Ð°Ð³Ð¾
ĠÐ²Ð¾Ð»Ð¾Ð´Ð¸Ð¼ÐµÑĢ ÑĮ
ĠÐ´ÐµÐ» Ð¾Ð¼
ĠÐ¿ÑĢÐ¸Ð½ÐµÑģ Ð¾ÑĪÐ°
ĠÐºÐ¾Ð¶ Ð´Ð¾
ĠÐ²Ð¼Ñ£ ÑģÑĤÑ¡
ĠÐ¼ÐµÑģÑı ÑĨÐ°
ĠÑĤÐ¸ÑħÐ° Ð½Ð¾Ð²Ð¸
Ð¾ Ñ«
ÑĤ Ñİ
ĠÑģ Ð²ÑĬ
Ð´ ÑĸÐ¸
Ð´ Ñ¡Ð½Ð°
ĠÐ½ Ð¾Ð·Ñ£
ĠÐ½Ðµ ÑīÐ°
ĠÐ° ÑĤÐ°
ĠÐ²ÑĬ ÐºÐ¾Ñĥ
ĠÐ¿ÑĢÐ¸ Ð±Ð°
Ð¼Ð¸ ÑĢÐ¾
ĠÐ¼Ð¾ ÑĩÐ½Ð¾
Ð¿Ð¸ Ñı
ĠÐ´Ñ£ Ð»
ĠÐ½Ñ£ Ð¼
ĠÑĩÐ¸ ÑģÐ»
ĠÑĩÐ» ÐºÑĮ
ĠÐ±ÑĢÐ°ÑĤ ÑĸÐ°
ĠÐ³Ð¾ÑĢÐ¾Ð´ Ð¾Ð¼
ĠÐºÐ½ÑıÐ· ÐµÐ¹
ĠÐ¿Ð°Ðº ÑĬ
ĠÑģÐ²Ñı ÑĤÐ°Ð³Ð¾
ĠÐºÐ½ Ð·
ĠÐ´ÑĢêĻĭ Ð³ÑĬ
ĠÐ²ÑĬÑģÑ£ Ð¼ÑĮ
ĠÐ´ÐµÐ½Ðµ Ð¶
ĠÑħÐ»Ðµ Ð±Ð°
ĠÐ½Ñ£Ðº Ð¾Ð³Ð´Ð°
ĠÐºÑĢÑĭ Ð»ÑĮ
ĠÐ¿ÑĢÑ§ Ð¼Ð¾
ĠÐ¿Ð¾Ð³Ð¸Ð± Ð»Ð¾
ĠÑģÐ°êĻĭ Ð»ÑĬ
8 0
Ðµ Ðµ
Ð² Ð½Ñĭ
ĠÐ¿ Ð»Ð¸
ĠÐ² Ð·Ð°
ĠÐ´ Ð¾Ð³Ð¾Ð²Ð¾ÑĢ
ĠÐº ÐµÐ»Ð°
ĠÐ° ÑĤ
ÐµÐ½ Ñĸ
ĠÐµ Ð³Ð°
Ð½Ð¾ ÑģÑ§
ĠÑĨ ÑĢÐ¸
ĠÑģÐµ Ð¶Ðµ
ĠÐ¶ Ð¾Ð»
ĠÐĴ Ð°ÑĢ
ĠÐ²Ð° ÑģÐ¾
Ð½Ñ§ Ð³Ñ¡
Ð½Ñı Ð»
ÑĢÑĭ Ðµ
ĠÐºÐ¾ÑĤÐ¾ÑĢ ÑĭÑı
ÑģÑĤÑĭ Ñı
ĠÐķ Ð²
ĠÐ¸ÑģÐ¿ Ð¾Ð²Ñ£
ĠÑī Ñĥ
ĠÐ±ÑĮ ÑİÑĤ
ĠÐ¿Ð¸ÑģÐ° Ð»ÑĬ
ĠÑģêĻĭ Ð±
Ð½Ñ« ÑĤÐ¸
ĠÐ±Ð¾ÑĢ ÑĤ
ĠÐ²Ð¾Ð»Ð¾ ÑģÑĤÑĮ
ĠÑģÐ»Ñ£ Ð¿
ĠÐ¿Ñ§ ÑĤÐµ
ĠÑĩÐµÐ»Ð¾Ð±Ð¸ ÑĤÑĮÐµ
ĠÑĤÑĢÐµÑĤÐ¸ Ð¸
ĠÐ¼Ð¸ÑĤÑĢÐ¾Ð¿Ð¾Ð» Ð¸ÑĤÐ°
ĠêĻģÐ½Ð° Ð¼ÐµÐ½
ĠÐ¥ÑĢÐ¸ÑģÑĤ Ð¾Ñģ
ĠÐ½ÐµÐ½Ð°Ð²Ð¸ Ð´Ñ§
ĠÐľÐ¾Ð» Ð¾Ð´
ĠÐ¼ÑģÑĤÐ¸ ÑģÐ»Ð°Ð²ÑĬ
ĠÐ¿Ð¾Ð³Ñĭ Ð±
ĠÑĩÐµÑĢÐµ Ð·
ĠÑħÑĢÐµ ÑģÑĤÐ¸
ĠÑģÑĬÐ¼ÑĮÑĢ ÑĤÑĮ
Ð¸ Ð¼Ñ£
ÑĤ ÑĢÐ¾Ðº
Ð² ÑĨÑĭ
Ð´ ÑĸÐµ
ĠÐ½Ðµ ÑģÑĤÐµÑĢ
Ð½Ð¸ ÑĩÐ°
ĠÐ¿Ð¾ ÑģÑĤÑĭ
ĠÐ²ÑĬ ÑģÑ§
Ð´Ð° Ð»ÑĮ
Ð¾Ñģ Ð»
ĠÐ¾Ñĥ Ðº
ĠÐ¾Ñĥ Ð¶Ð°
ÑĩÐ¸ ÑħÑĬ
ĠÑģÐ¸ Ð»êĻĭ
ĠÐºÑĬ Ñģ
ĠÐ¿ÑĢÐ¾ ÑĪÑĥ
ÑĩÑĮ ÐºÐ°
ĠÑĩÐ¸ Ð½Ð¸
ĠÑĩÐ° Ð´ÑĬ
ĠÐ¿Ðµ ÑĨÐ°
ĠÐ¾Ð½ Ð¾Ð¼Ñĥ
ÑŃ ÑīÐµ
ĠÑħÐ¾ÑĤ Ñ§ÑĪÐµ
ĠÐ¼Ñ¹ Ð¶Ð¸
ĠÐ½Ð°ÑĪ Ñ§
ĠÐ½ÐµÐ¿ Ð¾ÑĤ
ĠÐ¿Ð¾Ñħ Ð²Ð°Ð»
ĠÐ¸Ð²Ð° Ð½Ñĥ
ĠÑģÑĬÑĤÐ²Ð¾ÑĢÐ¸ Ð»ÑĬ
Ð´ÐµÑĢ Ð¶Ð¸
ĠÐ¿Ð¾Ð¶Ð° Ð»ÑĥÐ¸
ĠÐ¿Ð¾Ð¼Ð° Ð·Ð°
ĠÐ¾Ð±Ðµ Ñģ
ÐºÐ²Ð° Ð¼ÑĬ
ĠÑģÐ¾ÑĢÐ¾ ÑĨÐ¸
ĠÐ½Ð¾Ð½ ÑĩÐµ
. :
Ð´ Ð¾Ð»
ĠÐ´ Ñ«
ĠÐ³ Ð½ÑĮ
ÑĨ Ð¾Ð¼ÑĬ
ĠÐ´Ð° ÑħÑĬ
ĠÐĲ Ð½Ð°
Ð½Ðµ Ð±Ðµ
ĠÑĨ Ð²Ñ£ÑĤ
Ð°ÑĢ Ñĸ
ĠÐºÐ° Ð´Ð¸
Ñ¥ Ð¸
ĠÑģÐ° Ð¼Ñĭ
ĠÐ¸Ð· Ð±ÑĢÐ°
ĠÐ¼Ð° ÑģÐ»
ÑĩÑĮ Ðµ
ĠÑģÑĤÑĢÐ° Ð½êĻĭ
ĠÐ¿ÐµÑĢ ÐµÑĤ
ĠÐ¼Ñ§ ÑĤÐµ
ĠÑģÐ²Ñ£ Ð´Ñ£
ÑĢÐµÐ¼ ÐµÐ½
ÑİÑī ÑĭÐ¼ÑĬ
ĠÐºÐ°Ð· Ð½Ð¸
ĠÐ½Ð¸ÐºÐ° ÐºÐ¾Ð²Ð°
ĠÑ³ÐµÐ´ Ð¾ÑĢÐ°
ĠÑģÑĬÐ¼ ÑĢÑĬ
ĠÐ¿ÑĢÐ¸Ð¸Ð¼ ÐµÑĤÑĮ
Ð½ ÐµÐ½Ñĭ
ĠÐ² Ñ¹
ĠÐ² ÑĶ
ĠÐ± Ð¶Ðµ
ĠÐ¾ ÑģÑĥ
ĠÐ½Ð° Ñ§
ĠÐ½Ð° Ð±
ÐµÐ¼ Ñ£
ĠÑģÑĤ ÑĢÐ¾Ðº
ÑĪÐ° êĻĹ
ĠÑ¿ Ð¼
ĠÑģÐµ Ñ§
ÑĪÐ¸ Ð¼Ð¸
ĠÐĴ Ñģ
ĠÑģÐ» Ð¾Ð½
âĢ »
ĠÐ²Ð¸ Ð½Ð¾Ð³ÑĢÐ°
Ð³Ð° ÑĤÑĭ
ĠÐ¿Ð¾Ð´ Ð¾Ð±ÑĮ
Ð½Ñ§ ÑĤÑĬ
Ð´ÑĮ Ðµ
Ð³Ð¸ Ð¸
ĠÑĩÐ¸ Ð½Ñĥ
Ð¾Ð²Ñĭ Ð¸
ĠÑģÑ£ Ð´Ñ£
ĠÐ³ÑĢ ÑĨÐ¸
ĠÐ¿Ð¾Ð± Ð°
ÑģÐºÑĭ Ð¼Ð¸
ĠÑ£ ÐºÐ¾Ð¶Ðµ
ĠÑģÑĥÐ´ Ð¾Ð¼
Ð¿ÑĢ Ð¾Ð´Ð°
ĠÐ¾Ñģ ÐµÐ½ÑĮ
ĠÐ¡Ð° Ð»ÑĤÐ°
ĠÐ²Ñ£ÑĢ Ð¾Ð²Ð°ÑĤÐ¸
ĠÐ±ÐµÐ» Ñĥ
Ð³Ð»Ð° ÑģÐ¸
ĠÐºÑĥÐ¿Ð¸ Ð»ÑĬ
ĠÑİÑĢÑĮ Ñ¥Ð²Ð¸
ÑģÐ»Ñĥ ÑĪÐ°
Ð»ÐµÑ¯ Ð°Ð½Ð´
ĠÑĢêĻĳ Ð±Ð°
ĠÐ¾ÑĥÐ´Ð° ÑĢÐ¸
ĠÐŁÐ¾Ð² ÐµÐ»Ñ£
ĠÐ·Ð°Ð¼Ñĥ Ð¶
ĠÐ¢ÑĢÐ¾ Ð¸
Ð² ÑĨÐ°
ĠÐ½Ðµ Ñ§
Ð²Ð° Ð²ÑĬ
ĠÑ¡ ÑģÐ¿Ð¾Ð´Ð¸Ð½Ñĥ
ÑĢÐ¸ Ð»Ð¾
ĠÐ¿ÑĢÐ¸ Ð»Ð°Ð³Ð°
ÑĩÐ° Ð¹
ÐµÐ´ ÑĬ
Ð½Ñĥ Ð»ÑģÑı
ĠÐ¸Ð· Ð»Ð¸
ĠÐ¾Ð± Ð²Ð¸
ĠÑĤÐ°Ðº ÑĥÑİ
ĠÐ¿Ð¾Ð³ êĻĳ
ĠÐ±ÑĮ ÑĢÑĮ
ĠÐ·Ð´ ÑĢÐ°Ð²ÑĬ
ĠÑĢÐ¾Ñģ Ð¿ÑĢÐ°
ĠÑĩÐµÑĤÑĭ ÑĢÐ¸
ĠÐ´Ð¾Ð²Ð¾Ð» Ð½Ð¾
ĠÐ±Ð¾Ð³Ð°ÑĤÑĮ ÑģÑĤÐ²Ð¾
ĠÐ´Ð½Ñ£ Ð¿
Ð½ ÐµÐ¼Ñ¹
Ð» Ð¾Ð´
Ð¼ Ð¾Ð¼
Ð³ Ð»Ðµ
ĠÐº ÑĥÐ´Ð°
ĠÐ° ÑĦ
ĠÐµ Ð´Ð½Ð¾
ĠÐ» Ð¾Ð½Ðµ
ĠÐĺ Ð²Ð°Ð½Ð°
ĠÐ·Ð° ÐºÑĥ
ÑĤÑĬ ÐºÑĬ
ĠÐ¿ÑĢÐµ Ð²Ð¾Ð·
ĠÐ¿ÑĢÐµ Ð·ÑĢÑ£
ĠÐ¾Ð± ÑĢÐ¾Ðº
ĠÐ¿Ð¾Ð¼ ÐµÑĢ
ĠÑģÑĤÐ° Ð³
ĠÑģÐº Ñ¹
ĠÐ±ÐµÐ· êĻĭÐ¼
ĠÐ¸Ð¼ Ð¶Ðµ
ĠÐ´ÑĮ Ð²
ĠÐºÑĢÐµ ÑģÑĤÑĬ
ĠÐ¿Ð¾ÐºÐ° êĻĹ
ĠÐ¶Ð¸ÑĤ Ð¾
ĠÐ½Ð¾Ð³Ð° ÑĤÐ°
ĠÐ»Ð¾Ñĥ ÐºÑĬ
ĠÐ²Ð¾ÑģÐ¿ Ð¾Ð¼Ð¸Ð½Ð°
ĠÐºÐ¾Ð½Ðµ ÑĨÑĮ
ĠÑĥÐ± Ð¾Ð³
ÑĢÐ¾Ñĩ Ð½ÑĭÐµ
ĠÐĴÐ¸Ð´Ñ£ Ð²ÑĬ
ĠÐºÑĭÐµ Ð²Ñĥ
ĠêĻģÐ°Ðº Ð¾Ð½ÑĬ
ĠÑģÐ¾Ð¿ ÑĢÐ¾ÑĤÐ¸
ĠÑģÑĭÑģÐºÐ¸ Ð²Ð°ÑĤÐ¸
Ð´ Ð½
Ñ§ ÑīÐ¸
ĠÐº Ð½ÑĮ
ĠÐ¾ ÑģÐ¿Ð¾Ð´Ð¸Ð½Ñĥ
ĠÐ³ Ð¾Ñĥ
Ð¿ Ð¾ÑĢÑĭ
ĠÐ½Ðµ Ñ¡
ĠÑĢ Ð±Ð»ÑĮ
ĠÐµ ÑĢÐµÑĤÐ¸
êĻĳ ÑħÐ¾
ĠÐ½Ð¸ ÐºÐ¾Ðµ
ĠÑĢÐ° Ð²Ð½Ð¾
Ġ: :
ĠÐ¡ ÑĤÐµÑĢ
ĠÐºÐ° Ð¸
ĠÐ¼Ð¾ Óı
ĠÑ¥ Ð¸
ĠÐ´Ñ£ Ð¶Ñ£
ĠÐ³Ð¾ÑĢ ÑĬ
ĠÐ±Ñ£ Ð´Ñĭ
ĠÑĢÑĥ ÑĨÑĮ
ĠÑģÐ¾ ÑĨ
ĠÑ» ÑģÐ¿
ĠÑ» ÑģÐ¿Ð¾Ð´Ð¸Ð½Ñĥ
ĠÑ§ ÑĤÐ¸
ÑģÑĤÐ² ÑĸÑ§
ĠÐºÐ¾ÑĢ Ð¾Ð±Ñ£
ÑģÐºÐ¾ ÑĩÐ¸
ĠÐ±ÑĮ Ð·
ĠÐºÐ¾Ñĥ Ð·
ĠÐ½Ð°ÑĪ ÐµÐ¼ÑĬ
ĠÑĢÐ¾Ð· Ð´Ð°
ĠÑĢÐ¾Ð· Ð¼Ð¸ÑĢÐ¾
ĠÐ´Ð¸ Ð²Ð¸
ĠÐ½Ð°Ð´ Ð¾Ð±Ð¸
ĠÑĢÐ¸ ÑģÑĥ
ĠêĻ© Ð½Ð´ÑĢÑ£
ĠÐ¿Ð¾Ð· Ð²Ð°Ð»Ðµ
ĠÐ³ÑĢÐ¸Ð²ÑĮ Ð½Ðµ
ĠÐ±Ð¾Ñĥ Ð´ÑĮ
ĠÑģÑĤÐ¾ÑĢ Ð¾Ð¶Ðµ
ĠÐ´ÐµÑĢÐ¶Ð° ÑĤ
ĠÐ½ÐµÐ´ Ñ«
ĠÐ²ÑĬÐ´Ð° Ðµ
ĠÐ¼Ð¾Ð»Ð¾Ð´ Ð¾Ð³Ð°
ĠÐ³ÑĢÐ² Ð½Ðµ
ĠÐ³ÑĢÐ² Ð½Ñ£
ĠÐ½Ð¾Ð³Ð° ÑĤÐ¾
ĠÑĨÐµÑĤ Ð²
ĠÐ¿Ñ¹ ÑĤÑĮ
ĠÐŁÐ° ÑĩÐµ
ĠÐ¿ÑĢÐ¾Ð¿ Ñĥ
ĠÑĤÑĢÑĮ ÑĤÐ¸Ñ§
ĠÐ¿Ð¾Ð²Ð¸ Ð½Ñ¹
ĠÑĨÐµÑĤÐ²ÐµÑĢ ÑĤÐ¸
ĠÐ¡Ñĭ Ð½Ð¾Ð²Ðµ
ĠÐ¿ÑĢÐ¸ÑĪÐµÐ´ ÑĪÐµ
ĠÑĤÐ¾Ð³ Ð´Ñĭ
ĠÐ¿Ð¾Ð»Ð¸ ÑĩÐ½Ð¾Ðµ
ĠÐ²Ð¸Ð´Ðµ Ð»Ð¸
ĠÐ¿ÑĢÐ¸ÑģÑĬ Ð»ÐµÑĪÐ¸
ĠÑģÐ»Ñĭ ÑĪÐ¸
ĠÐ´ÑĢÐµÐ² Ð»Ðµ
ĠÐ½ÐµÐ¿ÑĢÐ°Ð² Ð´Ñĭ
ĠÐĴÐ¾Ð»Ð¾Ð´Ð¸ Ð¼ÐµÑĢÑĬ
ĠÐ¾Ð²ÑĮ ÑģÐ°
ĠÐ¤Ð¸ Ð»Ð¾Ð½
ĠÑģÐ¾Ð»Ð½Ñĭ ÑĪÐºÐ¾
ĠÑģÐ¸ÑħÐ° Ð¸Ð»ÑĬ
ĠÑģ ÑĢÐ¾
ĠÑģ Ð¾Ð²Ðµ
ĠÐ½ ÑĢÐ°Ð²
ĠÐ´ ÑĪÐ¸
ĠÑĤ ÑĢÑ§
ĠÐ¿ÑĢ Ð¾ÑĢÐµ
ÑĤÐ¸ Ð²Ð¾
ĠÐ½Ðµ Ð¼Ð¸
ĠÐ½Ðµ Ð²ÐµÑĢ
êĻĹ Ð½Ðµ
ĠÐ·Ð° Ð±êĻĳ
ÑģÐº ÑĭÐµ
Ð¾Ð· Ðµ
Ð½ÑĮ Ñ§
Ð¾Ð¿ ÑĤÐ°
ĠÑĤÐ¾ êĻĹ
ĠÑģÐ° ÑĢÐ°
ĠÐ¿Ð¾Ð´ Ð¾
Ð½Ñı ÑĤÐ¸
ÑĨÐ¸ Ð¸
ĠÑĢÐ°Ð· Ð±Ð¸
ĠÐºÐ¾ÑĢ Ð¼Ð¸ÑĤ
ÑĨÑĭ Ð¸
ĠÐ²Ð¾Ð» Ñı
ĠÑģÑĤÑĢÐ° ÑģÑĤÑĮ
ĠÐ²ÑĢÐ° ÑĤÑĬ
ĠÐ²Ð¾Ð´ êĻĭ
ĠÐ²Ð¾ÑĤÑĩÐ¸ Ð½Ðµ
ĠÐ³Ð¾ÑģÐ¿Ð¾Ð´Ð¸ Ð½ÑĮ
ĠÐ·Ð¾Ð» Ð¾ÑĤÐ°
ĠÐĳÐ¾Ð¶Ð¸ Ñİ
ĠÐ¿Ð¾Ð³ÑĢÐµ Ð±Ð°
ĠÐ¾Ð±Ðµ ÑīÐ°
ĠÐ³Ð»Ñ£ Ð±ÑĬ
ĠÐ±Ð¾Ð»ÐµÐ· Ð½ÑĮ
ĠÐ·Ð½Ð°Ð¼ÐµÐ½ ÑĸÐµ
ĠÐ¶ÐµÑģÑĤÐ¾Ðº Ð¾Ðµ
Ð» ÑĸÑİ
Ð´ ÐµÐ½ÑĬ
ĠÐ± Ð°ÑĢ
ĠÐ± Ð¾Ð³Ð´Ð°
ÑĪ ÐºÐ¾Ð¹
ĠÑĩ Ð¸ÑĤÐ°
Ð½Ð¾ ÑģÑĤÑĮ
Ð¾Ð± ÑĢÑ£
ÑĩÐµ Ð½Ð¸
ĠÐ²Ðµ Ðº
ĠÐ¢ Ð¾Ð¸
ĠÐ³Ð¾ÑĢ ÐºÐ¾
ĠÐ½Ð¾ Ñı
ĠÑģÐº ÑĢÑĮ
ĠÐ²ÑĬÐ· ÑĢÐ°
ĠÐ¸Ð¼Ð° Ð¼
ĠÐ²Ð»Ð° Ð´
ĠÐ¿ÑĢÐ¾Ð´Ð° ÑĤÐ¸
ĠÐ²Ð¾Ð´ Ñ¹
ĠÐ±êĻĭÐ´ ÐµÑĤÑĮ
ĠÐ½Ð°Ð´ Ð¾Ð±ÑĮ
Ð¸ÑĤÐµÐ» Ñı
ÑİÑīÐ° Ñ§
ĠÐ¿Ð¾Ñĥ ÑĤÐ¸
ĠÐ¿Ð¾ÑĪ ÐµÐ»ÑĬ
ĠÑĥÐ± Ð¸ÑĤ
ĠÐ·Ð°Ðº Ð»Ñİ
ĠÐ¶Ð¸Ð²Ð¾ÑĤ Ð¾Ð²
ĠÑģÐµÑģÑĤ ÑĢÐ¸
ĠÑĤÐ²ÐµÑĢ Ð´Ð¾
ĠÑĤÑĢÐµÑĤÐµ Ð¹
Ð° ÑĤÑĮ
ĠÐ¾ ÑģÐ¸
ĠÐ½Ðµ Ð¶Ð¸
ÑĨ ÐºÐ°
ĠÐ· Ð¸Ð¼Ñ¹
Ñ¡ Ð½Ð¸
ĠÑ¿ Ð»êĻĭ
ĠÑ¿ ÐºÑĢÑĭ
ĠÐ»Ñİ ÑĤÑ£
Ð³Ð° Ð»Ð°
ĠÐ¿ÑĢÐµ Ð´Ð¸
ĠÐ²ÑģÐµ Ð¹
ĠÐ²Ñĭ ÑĤ
ĠÐ³Ð»Ð° Ð²Ð¾Ñİ
ĠÐºÐ¾ÑĢ Ð¼ÑĬ
ÑĨÑĮ Ð¼ÑĮ
ĠÑģÐ¾Ð± Ð¸ÑĢÐ°
ĠÐ³Ð»Ð°Ð³Ð¾Ð» ÐµÑĤÑĮ
ĠÐ¿Ð¾ÑģÐ»Ð° Ð²ÑĬ
ĠÐ´Ð¾Ð±ÑĢ Ð¾Ð¼ÑĬ
ĠÐ³Ð¾Ð´ Ð¾Ð²
ĠÐ²Ð°ÑģÐ¸ Ð»ÐµÐ¸
ĠÐ¿Ð¾Ñĩ ÐµÐ»ÑĬ
ĠÑģÐ²Ðµ ÑīÐµÐ½
ĠÐ²ÐµÐ»ÑĮ Ð¼
ĠÐ¿ÑĢÐ¾ÑģÐ¸ ÑĤÑĮ
ĠÐ¸Ð³ÑĥÐ¼ÐµÐ½ ÑĬ
ĠÑģÐ¼Ð¸ÑĢ ÐµÐ½
ÐºÑĢÐµÐ¿ ÐºÐ¾
ĠÑĤ ÑĸÐµ
Ð³ Ð¾Ð¿
Ñĩ Ð½Ð¾Ð¹
ÑĨ ÐºÐ¾Ð¼Ñĥ
ĠÐµ Ð´Ñĥ
Ð¾Ð³ Ð¾Ð¶
Ð¶Ðµ ÑĪÐ¸
Ð¾ÑĤ Ñ«
Ð²Ð¸ Ð½Ð°
ĠÐ²Ðµ ÑģÐ¸
Ð¿Ð° Ð»Ð¾
ĠÐ²ÑģÑ§ ÐºÐ¾Ñİ
Ð´ÑĬ ÑĪÐµ
ĠÐ¿ÐµÑĢ Ð²ÑĭÐ¸
ĠÐ¿Ð»Ð° ÑĩÐ°
ĠÑģÐ¾ÑĤ ÑĬ
ĠÑģÑĤÐ¾ Ðµ
Ð°Ð½ ÑĸÐ°
ĠêĻĸ Ð¶Ðµ
ĠÐ³Ð¾ÑģÑĥÐ´Ð°ÑĢÐµ Ð²Ð¾
ĠÑĢÐ°êĻģ Ð´Ñ£
ĠÐ³Ð¾ÑģÐ¿Ð¾Ð´Ð¸ Ð½Ñĥ
ÑĦÐ¸ Ð¼ÑĮ
ĠÐ¿ÑĢÐ¾ÑģÐ»Ð° Ð²
ĠÐ¿ÑĢÐ¾Ñĩ ÑĸÐ¸
ĠêĻĹÑĢÐ¾ÑģÐ»Ð° Ð²ÑĬ
ĠÐ¼ÑĬÐ½ Ð¾Ð³Ð°
ĠÐ½Ð¸ÑĩÐµ Ð²Ð¾
Ðµ Ð¶
Ñģ Ð¾Ð²ÑĬ
ĠÐ¸ ÐºÐ¾Ð½Ð°
Ð³ Ð¾Ð¶
Ð± Ð¸ÑĤÑĬ
Ð²Ð° ÑİÑīÐµ
ĠÑĩ ÑĥÐ´
Ð¶Ðµ Ð½Ñĭ
Ð½Ñĭ Ð¼ÑĮ
ĠÐ¿ÑĢÐ¸ Ð´Ð°
Ð¼Ð¸ Ð½ÑĮ
ĠÐŁ Ð»Ð°
ĠÑģÐ° ÑħÐ°ÑĢ
Ð¶Ð° ÐµÑĤ
ÑģÐµ Ð½Ð¸
Ð´Ð¾ ÑģÑĤÐµ
Ð¼Ðµ Ð»Ð¸
ĠÑģÑĭ ÑģÐºÐ°
ĠÑĨÐ°ÑĢ ÑģÑĤÐ²Ð¾Ð²Ð°
ÑģÐ»Ð° Ð²Ð¾Ñĥ
Ð·Ñĭ ÑĨÑĭ
ĠÑĨÑĢ ÑĤÐ²Ð¾
ĠÐ¿ÑĢÐ¾Ð´Ð° Ð¶Ðµ
ĠÐ½Ñĭ Ð½ÑĮ
ĠÐ·Ð»Ð° ÑĤ
ĠÐ·Ð½Ð° ÐµÑĤÑĬ
ĠÐĿÐ¸ ÐºÑĥÐ»Ð¸Ñĩ
ĠÐ·Ð°ÐºÐ¾Ð½ Ñĥ
ĠÑħÐ¾Ð´ Ñı
ĠÐŁÐ¾Ñģ Ð»Ðµ
ĠÑĢÐ°ÑĤ Ð½ÑĭÑħ
ĠÐ·Ð°Ð¼ ÐºÐ½Ñ¹
ĠÐ¼Ð¸ÑĤÑĢÐ¾Ð¿Ð¾Ð» Ð¸ÑĤ
ĠÐ´ÑĬÐ¼Ð¸ÑĤ ÑĢÐ°
ĠÑĤÑĢÑ¹Ð´ Ð¾Ð²ÑĬ
Ï ħ
ÑĤ êĻĳÐ¸
Ñģ Ð²Ñ£
ĠÑģ Ð±
Ð¼ Ð½Ñ£
ĠÐ¿ ÑĸÑ§
ĠÑĤ Ð¾Ð»ÑĮ
ĠÐº ÑĥÐ´Ñĭ
Ñĩ ÐµÐ»
ĠÐ½Ðµ Ð³Ð¾Ð¶Ðµ
Ð»Ð° Ð¼ÑĬ
Ð¾Ð´ Ð¸ÑĤ
ĠÐ²Ñģ Ð¿
ĠÐ¿ÑĢÐ¸ Ð¿Ð»
ÑĪÐ° ÑİÑĤ
ĠÐ¸Ð· Ð±ÑĢÐ°Ð½
Ð¿Ð° ÑĤÑĮ
ĠÐ²ÐµÐ»Ð¸ ÐºÐ¾Ð¸
ÑĨÐµ ÑħÑĬ
êĻ¿ ÑĪÐµ
ĠÐ»Ñ£ Ð¿
ÑĥÑĤ ÑģÑı
ĠÐ¿ÐµÑĢ Ð²Ð¾
ĠÐ¿ÐµÑĢ Ð²Ð°Ð³Ð¾
ĠÑģÑ£ Ð½ÑĮ
ĠÑģÐ»Ð° Ð²ÑĮ
ĠÑģÐ¼ ÐµÑĤ
ĠÐµÑģ Ð¼Ðµ
Ð¿Ð¸ÑģÐ° Ð½Ð¾
ÐµÐ²Ð¸ ÑĩÑİ
ĠÐ±Ð¾Ð³Ð°ÑĤÑĭ ÑĢÑĮ
ĠÑģÐºÐ¾ ÑĤÑĬ
ĠÑĤÐ¾Ð²Ð° ÑĢÐ°
ĠÐ¿Ð¾Ð¼ÑĭÑĪ Ð»Ñ§
ĠÑģÑĢÐ´ ÑĨÐµ
ĠÑģÐ¾Ð±Ð° ÐºÐ°
ĠÐºÐ°Ð»Ð¸ ÐºÐ¸
Ð´Ñ¡Ð½Ð° Ñĸ
ĠÑģêĻĭÐ± Ð±Ñ¡
ÑĤ ÐµÐ½ÑĸÐµ
Ð½ Ê¼
ĠÐ¸ ÑģÐºÐ¸
ĠÑĤ ÐµÑĤ
ÑģÑĤ Ð½Ð°
ĠÐº Ð»ÑĮ
Ñı Ð¼Ð¸
Ð· Ð±Ð°Ð²Ð¸
ĠÐ¾ Ð²Ð¸
ÑĤÑĮ ÑĨÑĮ
ĠÑĩ Ñģ
Ð¼Ð¸ Ð¸
ÑĩÐ¸ ÑģÑĤÐ¸
Ð¶Ð° Ñħ
ĠÐ¼Ð½ Ñİ
Ð»Ñ§ ÑĤÑĮ
Ð»Ñı ÑĤÑĮ
ĠÐºÐ¾ÑĤÐ¾ÑĢ Ð¾Ð¼
ĠÐºÑĥ Ð½
ĠÐ¼Ðµ Ð¶ÑĮ
ĠÐ¼Ð¾Ð¸ Ñħ
ĠÐ²ÐµÐ»Ð¸Ðº Ð¾Ð¼ÑĬ
ĠÑĤÑĬ Ð¸
ĠÐ±Ð¾Ð³ Ð¾Ð¼ÑĬ
ĠÑħÑĢÐ° Ð½Ð¸ÑĤ
ĠÑĢÑ¹ ÐºÑ¹
ĠÑĩÑĮ ÑĢÑĮ
ĠÐ²ÑĬÑģ Ð°Ðº
ĠÐ±Ñ« Ð´ÐµÑĤÑĮ
ĠÐ¶Ð°Ð»Ð¾Ð²Ð° Ð½ÑĮÐµ
ĠÐ¿ÑĢÐ¸ÑħÐ¾Ð´ Ð¸ÑĤ
ĠÐ´ÑĮÑı ÐºÑĥ
ĠÑģÐ»Ð¾Ð² Ð¾Ð¼
ĠÐ¸ÑģÐºÐ° ÑĤÑĮ
ĠÑĤÑĭÑģÑ§ Ñĩ
ĠÐ½Ð°Ð¿Ð° ÑģÑĤÐ¸
ĠÑ¡Ð±Ñĭ ÑĩÐ°
ĠÐ²ÐµÑĩÐµÑĢ ÑĬ
Ð¾ ÑħÐ°
Ðµ ÑģÑĤÑĮ
ÑĢ ÐºÑĥ
ĠÐ¸ Ð³Ð¾ÑĢÑĮ
ĠÐ² ÐºÐ¸
ĠÐ½ Ð´
Ð³ Ð¾Ð´Ñ£
ĠÐ½Ð° Ð»Ðµ
ĠÐ½Ð° ÐºÑĢÐµÐ¿ÐºÐ¾
ĠÐ° Ð¸
Ð¾Ð³ Ð¾ÑĢ
ĠÑ¡ ÑĤÐ¸
ĠÑ¡ ÑĢÑĥÐ¶ÑĮ
ĠÐ¿ÑĢÐ¸ Ð»Ð¾Ð¶
ĠÑħ ÑĢÑ£
ĠÐ¾Ñĥ ÑĤÑĢ
ÑĪÐ¸ Ð»ÑĬ
ÑģÑĤÐ¸ Ðµ
ĠÐ²Ñ£ ÑĨÑ£
ĠÐ¿ÑĢÐ¾ ÐµÐ·
ĠÑĪ Ð¾Ð»
ĠêĻģ ÐµÐ¼ÑĮ
ÑģÑĮ ÐºÐ°
ĠÑģÐ² ÐµÑĤÐµ
ÑģÐ»Ð° Ð²Ðµ
ĠÐ¿ÑĢÐ° Ð²Ð¸ÑĤÑĮ
ĠÐ½Ñ£ ÐºÑĭÐ¸
ĠÑģÑĤÑĢÐ° ÑĪÑĮ
ĠÑķ Ð¸
ĠÑĩÐ° ÑģÑĥ
ĠÐ³Ð»Ð°Ð³Ð¾Ð» ÐµÑĤ
ĠÑģÑĤÐ°ÑĢ Ð¾Ð¼Ñĥ
ĠÑĢÑ£ ÑĩÑĮ
ĠÐ¼Ñ¹ Ð¶ÐµÐ¼ÑĬ
ĠÐ»Ñĥ Ðº
ĠÑħÑĢ ÑĤ
ĠÐĹÐ° Ð½Ðµ
ĠÐ´Ð¾Ñĥ ÑĪÐ¸
Ð±ÑĢÑ£ ÑĤÐ¾
ĠÐ¶Ð°Ð»Ð¾Ð²Ð° ÑĤÐ¸
ĠÐ²Ð¾Ð¿ ÑĢÐ¾ÑĪÐ°
ĠÐ²ÐµÐ»Ð¸ÑĩÐµ ÑģÑĤÐ²Ñĥ
ĠÐ½Ð°Ð¿ÑĢÐ° Ñģ
ĠÐ½Ð°ÑģÐ¸ Ð»
ĠÑģÐ¸ÑĢ Ð¾ÑĤÑĬ
ĠÐ°Ð»ÑĤÑĭ Ð½Ð°
ĠÐºÐ»ÐµÐ² ÐµÑĤÑĮ
ĠÐ¢Ð¸Ð¼Ð¾ ÑĦÐµ
Î º
Ðµ Ð´Ð°
ÑĤ Ð¾Ð¶
Ð· Ð±ÑĢÐ°
Ð½Ð¸ Ð¼ÑĮ
ĠÐ° ÑĨÐ¸
Ñī Ñ§
ĠÐ¿Ð¾ Ñ£ÑħÐ°
Ð²Ð° Ð½Ðµ
ĠÐ¿ÑĢÐ¸ ÐºÐ»Ñİ
ĠÐ·Ð° ÑĥÑĤ
êĻģ Ð½
ÑĩÐ¸ ÐºÐ¸
ÑĩÐµ Ð²
ĠÑĤÐ¾ ÑĩÑĸÑİ
ĠÐ±Ð¾ ÑĩÐµ
Ð´Ð¾ ÑĪÐµ
ĠÐ±ÑĢÐ° Ð»
ĠÐĳ Ð¶
ĠÐ²Ñĭ Ð´Ð°ÑĤÐ¸
ĠÑ» ÑĤÐ¸
ĠÐºÐ¾ÑĢ Ð¾Ð²Ñĭ
ĠÐºÐ°Ðº Ð¾Ð²Ð¾
ĠÐ¼Ð¾Ð» ÑĮ
ĠÑģÑĥ ÑīÑİ
ĠÑģÐ¼ ÑĭÑģÐ»
Ð¼êĻĭ Ð¶Ðµ
ĠÐ»Ðµ Ð±Ðµ
ĠÐ»Ð° Ð·Ð°
ĠÐ±Ð° Ð³Ð°ÑĤÑĭ
ĠÐ³Ð° Ð²ÑĢÐ°
ĠÑģÐ»ÑĭÑĪÐ° Ð²
Ð²ÑĪ ÑĸÐ¸
ĠÐ¼Ð¾Ð½Ð° ÑģÑĤÐ¸
ĠÑĪÐµ ÑģÑĤÐ¸
ĠÐ¿Ð¾Ð´Ð° ÑģÑĤÑĬ
ĠÑĢÐ°Ð·Ñĥ Ð¼ÑĬ
ĠÐ´Ð½Ðµ ÑħÑĬ
ĠÐ´ÐµÐ² ÐºÐ°
ĠÑĦÐµÐ´ Ð¾ÑĢÐ°
ĠÐ´Ð¼Ð¸ÑĤ ÑĢÐ°
ĠÑģÑĢÐµÐ± ÑĢ
ĠÐ²Ñ§ ÑĩÐµ
ĠÐ¿Ð¾Ð´ÑĮÑı ÑĩÐµÐ¼Ñĥ
ĠÑģÐ°Ð´Ð¸ Ð»ÑģÑı
Ðµ Ð¶Ðµ
ÑĢ êĻĹ
Ð² Ð¾Ð¼
Ð³ Ð¾Ð²Ðµ
ÑĪ ÐµÐ½Ðµ
Ð· êĻĳ
Ð»Ð° Ñ§
ĠÐĺ Ð´Ð¾Ð¹
ĠÑģÑĤ êĻĳÐ¸
ĠÐĲ ÐºÐ¸
ÑĢÐ¸ Ðµ
ÑĢÐ¸ Ð»ÑĬ
ĠÐ·Ð° Ð½
ĠÐ·Ð° Ð²Ñ£ÑĤÐ°
ĠÐ½Ð¸ ÑīÐ°
ĠÐ¾Ñĥ ÑĤÐ²ÐµÑĢ
ĠÐ±Ñĭ Ð²ÑĪÐ°
ÑĩÐ° ÐµÑĤ
ÑĤÐµ Ðµ
ĠÐ²Ñ£ Ñģ
ĠÐ¿ÑĢÑ£ ÑģÑĤÐ¾Ð»
ĠÑģÐº Ð¾Ð¿
ĠÐ¸Ð¼ Ð¾Ñĥ
ĠÐ²ÑĬÐ· Ð»ÑİÐ±Ð¸
ĠÑĩÐµ ÑģÑĤÐ¸Ñİ
Ð½Ð´ Ñ¹
ĠÐ±êĻĳ Ð»Ðµ
ÑģÑĭ Ð»Ð°ÑĤÐ¸
ĠÐ²ÑĢÐ° Ð·Ð¸
ĠÐ²ÐµÑĢ ÑĮ
ĠÐ±Ð¾Ð³Ð° ÑĤÑĬ
ĠÐŁÑĢÐ¸ ÐµÐ·Ð¶Ð°
ĠÐ´êĻĭ ÑħÑĬ
ĠÑģÐ»Ð°Ð² Ñ«
ĠÐ¿Ð¾Ð½ Ñ£
ĠÐ²Ð·Ñı Ð²
ĠÐ±Ð¾Ð³Ð°ÑĤÑĭ ÑĢÐ¸
ĠÐ¿Ð¾ÐºÐ»Ð°Ð½Ñ§ Ñİ
Ð²Ñı Ð·Ð°
ĠÑĨÑĮ ÑĤÐ¾
ĠÐ¿Ð¾ÐºÑĢÑĭ ÑĤÐ¾
ĠÐºÐ¾ÑĢÐ¾Ð»ÐµÐ² Ð½Ð°
ĠÑĨÐ¾Ð» Ð¾Ð¼ÑĬ
ĠÐ¿ÐµÑĩÐ°ÑĤ Ð½ÑĭÑħ
ĠÑķÐ»Ð° Ñ§
ĠÐºÑİ ÑĢÐ¸
ĠÐ¿Ð¾Ð¿ÐµÑĨÐ° Ð»Ñĥ
. âĢĿ
Ġ ;
ĠÑ ²
Ðº Ð¾Ð²ÑĭÐµ
Ñĥ ÑĤÑĮ
Ñ§ ÑħêĻĭ
ĠÐº Ð»
Ñħ ÑĢ
Ñħ Ð¸ÑĤ
ĠÐ¾ Ð²Ðµ
Ð½Ð° Ð²ÑĬ
Ð²Ð° Ðµ
ĠÐ¿ÑĢÐ¸ Ð·ÑĭÐ²Ð°ÑĤÐ¸
Ñ« Ñ«
ĠÑĢÐ° Ð¶Ð´Ð°
Ñ¥ Ð¼Ð¾
ĠÑı ÐºÐ¾Ð²
ÑīÐ° ÑĪÐµ
Ð¶Ð¸ Ð³Ð°
ĠÐ¿Ð° Ð²ÑĮ
ĠÐ¼Ð° Ð»Ðµ
Ð»Ñİ ÑīÐµ
ĠÑ¹ Ð³Ð¾Ð´
ÑĦ Ð¾Ð»
ÑĤÑĭ ÑħÑĬ
ĠÐºÐ¾ÑĢ Ñĭ
ĠÐ¼Ðµ ÑĩÐ°
ĠÐ±Ð¾Ñı ÑĢÑĬ
ĠÐ¼ÐµÐ½ Ñ§
ĠêĻģÐ° Ð²Ð¸
ĠÐºÐ°Ð· Ð½Ñĭ
ĠÑģÐ»Ð°Ð² Ð½ÑĭÐ¹
ÑģÑĤÐ°Ð½ ÐµÑĤÑĮ
ĠÐ¿Ð¾ÑģÐ»Ñ£ Ð´ÑĮ
ĠÑĨÑĢÐº Ð²Ðµ
ĠÐ¦ Ñ£
ĠÐ±Ñ« Ð´Ð¸
ĠÐ´ÐµÑĤ ÐµÐ¼ÑĬ
ĠÐĶÑĥ ÑħÐ°
ĠÐ¼Ð°ÐºÑģÐ¸ Ð¼
ĠÐ´ÐµÑĢÐµÐ²Ð½Ñı Ð¼Ð¸
ĠÐ²Ð°Ð²ÑµÐ»Ñ¡ Ð½
Ñģ Ð¼Ñĭ
Ð» ÐºÐµ
Ð³ Ð¾Ð²ÑĮ
ĠÐ¾ Ð¸
ÑĢÐ° Ð·êĻĭÐ¼Ñ£
ĠÐ· Ñ§ÑĤ
ĠÐ²ÑĬ Ð¸
ĠÐ²ÑĬ Ð¸Ð½Ñĥ
ĠÑ¡ Ð½Ð¾
ÑĪÐ° ÐµÑĤÑĬ
ĠÑģÐ» Ð½ÑĨÐµ
ĠÐ¿Ð° Ð´Ð°
ĠÐļ Ð¾Ð»Ð¸
ĠÐľ Ñ£
ĠÑģÑĭ Ð½êĻĭ
ĠÐĵ ÑĢÐ¸
ĠÐ¼Ðµ ÑģÐµ
ĠÐ¿Ð»Ð° ÑĤÑ§
ĠÐ±êĻĳ Ð»Ð°
ĠÐ±ÑĢÐ°ÑĤ ÑĸÑİ
ĠÐ½Ð°ÑĩÐ° Ð»Ðµ
ÑĪÑĤ êĻĻ
ĠÑĢÐ°Ð± Ð¾Ñĥ
ĠÐ¾Ð¿ ÑıÑĤ
ĠÑģÐºÐ°Ð·Ð° Ð»
ĠÐ¸Ð¼ÐµÐ½ Ðµ
ĠÑħÑĢÐ¸ÑģÑĤ Ð¾Ñģ
ĠÐ»Ð¾ÑĪÐ° Ð´
ĠÐ±Ð¾Ð¶Ð¸ Ð¸
ĠÐ½ÐµÐ¿ÑĢÐ° Ð²ÑĮ
ĠÐŁÐ¾Ð´ Ð¾Ð±Ð°
ĠÐ´ÐµÑģÑı ÑĤÐ¸
ĠÐ¿Ð¾Ð¶Ð¸ Ð²Ðµ
ĠÑĤÐµÐ¿ ÐµÑĢÑĮ
ĠÑĤÑĢÑ¹ Ð´Ñĭ
ĠÐ½ÐµÐ´Ñ£ Ð»Ñİ
ĠÑ¿Ð¿êĻĭ ÑģÑĤÐ¸
ĠÐ¶ÐµÐ¼ ÑĩÑİ
ĠÑģÑĭÑĢ Ð¾Ð¹
Ðº Ð²
Ðº Ñ§
ĠÐ² ÐµÐ½ÑĸÐ°
ĠÐ´ ÑīÐ¸
Ñĩ Ñĭ
Ð¿ Ð¾ÑĢ
Ð»Ð° ÑĤÑĬ
Ñĸ Ð½Ð°
ĠÑĥ Ð¼Ð°
Ð´Ðµ ÑĨÑĮ
ĠÐ½Ð¸ Ð¼Ð°
ĠÑĢÐ° Ð´êĻĭ
ĠÑĢÐµ ÑĪ
ÑģÐµ Ñ§
ÑĦ ÑĢÐ°
ĠÑĢÐ°Ð· Ð³ÑĢÐ°
ĠÑĤÐ°Ðº Ð¶Ðµ
ĠÑģÑ£ Ð¼ÑĬ
ĠÑĩÐ° Ð´
Ñ³ ÑĮ
ĠÑģÐ¼ Ð¾Ð»Ð¸
ĠÐ´ÑĢÑĥ Ð¶
ĠÑģÑĤÐ°ÑĢ ÑĭÐµ
ĠÐ´ÑĮ Ñ§
ĠÐµÐ´Ð¸ Ð½Ð¾Ð¹
ĠÐ»Ð° ÑĤÐ¸
ĠÐ³Ð¾ÑĢÐ¾Ð´ ÑĮ
ĠÐºÐ½Ñ§ Ð¶ÑĮ
ĠÐ²ÑģÐ¸ Ñħ
ĠÐ²ÐµÐ»Ð¸ÐºÐ¸ Ñħ
ĠÐ¸ÑģÑĤÐ¸ Ð½Ð°
ĠÐ²Ð°ÑĢ Ð¸ÑĤ
ĠÑĤÐµÑĢ Ð¿Ñ£
ĠÐ¿Ð¾ÑģÐ»Ñ£ Ð´Ð¾Ð²Ð°
ĠÐ±ÑĢÐ°ÑĤÑĮ Ñİ
ĠÐ²Ð¸Ð´Ð¸ ÑĤÑĮ
ĠÐ½ÐµÐ¼Ð¾ ÑīÑĮ
ÑģÑĤÑ« Ð¿Ð¸
ĠÐµÑħÐ° ÑĤÐ¸
ĠÐ³ÑĬ ÑĢ
ĠÑģÐ¿ÑĢÐ°ÑĪÐ¸ Ð²Ð°ÑĤÐ¸
ĠÐ¿ÑĢÐ¾Ñħ Ð»Ð°Ð´
ĠÐĿÑĭ Ð½Ðµ
ĠÐ´Ð²ÐµÑĢ ÑĮ
ĠÐ±Ð°ÑĤÑİ ÑĪÐºÐ°
Ð¼ÑĢ ÐµÑĤÑĬ
ĠÑģÐ¾ÑģêĻĭ Ð´Ñĭ
ĠÑ¡Ð»ÑĮ Ð³Ð°
ĠÐ²ÑģÐºÐ¾ÑĢ Ñ£
Ð» ÐºÑĬ
ĠÑģ Ð¿ÑĢÐ°Ð²
Ðº ÑĸÐµ
ĠÐ½ ÑĪ
Ñħ Ð½Ð°
Ñĩ ÑĶ
Ð¿ Ð»Ð°
ĠÐ´Ð° ÑĪÑĮ
ĠÐ¿ÑĢÐ¸ ÐºÐ¾Ñģ
ĠÐ¾Ñĥ Ð±Ñĭ
Ð¼Ð° Ð¼ÑĬ
ĠÐĵ Ð´
Ñ³ ÐµÐ¸
ÑħÐ¾Ð´ Ð¾Ð½Ð¾Ñģ
ĠÐ´Ð²Ð¾ÑĢ ÐµÑħ
ĠÐ³ÑĢÐ¸Ð² Ð½ÑĬ
ĠÐ²ÑģÑı ÐºÐ¸Ð¼
ĠÐ¿Ð¸ÑģÐ° Ð½Ð¸Ðµ
ĠÐ³ÑģÐ´ ÑĢÐ¸
ĠÑĩÐµÐ»Ð¾Ð²Ñ£ ÑĩÑĮ
ĠÑģÑĤÐ¾Ð» Ð¿ÑĬ
ĠÐ¯ ÑĢÐ¾ÑģÐ»Ð°
ĠÐ¼Ð¾Ð³ ÑĬ
ĠÐ¿Ð¾ÑģÑĤÐ°Ð²Ð¸ Ð»Ð¸
ĠÐ¾Ð±ÑĢÐ° ÑĤÐ¸
Ð¶ÐµÐ½ Ð½ÑĭÐ¸
ĠÐ°Ð¿ Ð»ÑĬ
ĠÐ°Ð³Ð³ Ð»ÑĮ
ĠÑģÑĤÑĢÐ¾ Ð¸ÑĤÐ¸
ĠÐ½ÐµÐ½Ð° ÐºÐ°Ð·Ð°
ĠÐ²Ð¾Ð¿ ÑĢÐ¾ÑģÐ¸
ĠÑģêĻĳ Ð½ÑĬ
Ð¿Ð¸ÑģÐº Ð¾Ð¿Ð°
ĠÐ¿Ð¾Ð²Ð°ÑĢ ÐµÐ½
ĠÐ±Ð»Ð°Ð¶ÐµÐ½ Ð½ÑĭÑı
ĠÑģÐµÑĢÑĮ Ð±ÑĢÐ°
ĠÐ¿Ð¾ÑħÐ¾ÑĤ ÑıÑĤ
ĠÑĢÐ¾Ð² Ð½Ð¾
ĠÐ¢Ð¾Ð¼ÑĮ Ð¶
Ðº Ð¼
ĠÑĤ Ð»Ñ£Ð½
Ñ§ ÑĤÐ¾
ÐµÐ½ Ð½Ð¸ÑĩÐµ
Ð¾Ð³ ÑĢÐ°
ĠÐ²ÑĬ Ð½Ð¸Ð¼Ð°
ĠÐ´Ð° Ð½ÑĸÐ¸
Ð¾Ðº Ðµ
ĠÐ¾Ñĥ ÑĩÐµÐ½
ĠÑĢÐ° ÑģÑĤÐ¾
ĠÐ¶ ÑĢÐµÐ±
ĠÐ¡ ÑĸÑ§
ÑĤÐµ Ñħ
ĠÑģÐ° Ð½Ð¸
ĠÐ³ÑĢÐ° Ð¼Ð¾
ĠÐ¿Ð¸ ÑĪÐµ
ÑĦ ÑĢ
ĠÐĵ Ð´Ðµ
Ð»Ñĭ Ð¹
ĠÐ¼Ðµ Ð¶Ñĥ
ĠÐºÑĢÐ° Ð¸
ĠÑħÐ¾ ÑĨÑĮ
ÑģÐºÑĭ Ð°
ĠÐ±Ð¾Ð³Ð° ÑĤÐµ
ĠÐ±êĻĭÐ´ ÐµÑĤÐµ
ĠÑĤÐ¾Ð» Ð¾Ðº
ĠÐ·Ð°Ð¿Ð° Ð´
ĠÐ²Ð¾ÑĢ Ð¾ÑĤ
ĠÐ²ÑĭÑģ Ð¾
ĠÑĨÑĢÐº Ð²ÑĮ
ĠÐ»Ñ¹ ÐºÐ°Ð²
ĠÐ±ÑĢÐ°ÑĤÐ¸ Ñİ
ÑģÑĤÑ¹ Ð¿Ð¸
Ġâģ ĸ
ĠÐ³ÑĢÑ£Ñħ êĻĳ
ĠÐ·Ð»Ð¾ Ðµ
ĠÑģÑĢÐ° ÑĩÐ¸
ĠÐ¿ÑĢÐµÐºÑĢÐ°Ñģ Ð½Ð¾Ð¹
ĠÐ¿ÑĢÐ¸ÑıÑĤ ÐµÐ»ÑĮ
ĠÐ¶ÑĶ Ð½Ñĭ
ĠÐ¡ÐµÑĢ Ð³Ð¸
ĠÑģÐ°Ð¼Ð¾Ð² Ð»Ð°
Ð½ Ð½ÑĭÐ¸
Ð½ Ð½Ð°Ð³Ð¾
Ð¼ Ñ§ÑĤ
Ð´ Ð¾Ð½
Ð´ ÑĢÐ¾ÑģÑĤÐ¸
ĠÐ´ Ð¾Ð½Ðµ
Ð³ Ð½Ñ¹
ĠÐ± Ñķ
ĠÐ½Ðµ Ñĥ
ÑĨ ÐºÐ¸Ð¸
Ð³Ð¾ ÑģÑĤÐ¸
ÐºÐ° Ð»Ð°
ĠÐ·Ð° ÑħÐ°
Ð²Ð¸ Ð»
ĠÐ¾Ñĥ Ð¼ÑĬ
ĠÑģÐµ Ñı
ÑĩÐµ Ð²Ð¸
Ð¾Ð¶ Ñİ
ĠÐŁ Ð¾ÐºÐ°
ĠÐ»Ñİ Ð±Ñĭ
ĠÑı Ð±Ð»
Ð¶Ð° Ñ§
ĠÐ¿Ð¸ ÑĪ
Ð»Ñ§ Ð´Ð°
ĠÐľ Ð¾
ĠÑģÑĤÑĢÐ° ÑģÑ£
ĠÑķ Ð°
ĠÑģÑĥ Ð±
Ð¿Ð¾Ð´ Ð¾Ð±ÑĮ
ĠÐ³ÑĢ Ð¾Ð¼
Ð½Ð´ ÑĢÐµ
ĠÐ¿Ð¾Ð¿ ÑĢÐ°Ð²
ĠÑĢÑ£ ÐºÑĭ
ĠÐ½Ð¸Ðº Ð¾Ð»Ð°
ĠÑħÑĢÐ° Ð¼Ð°
ĠÐ±Ð¾Ñĥ Ð´ÐµÑĤ
ĠÐ½ÐµÐ´ ÐµÐ»Ñİ
ĠÐ¿Ð¾Ð±Ñ£ Ð³Ð¾ÑĪÐ°
Ð¾Ð¿Ð¸ Ñģ
ĠÐ¼Ñ« Ð¶Ð°
ĠÐ´ÑĢÑĬ êĻģ
ĠÐļÐ¸ ÐµÐ²Ñĥ
ĠÐ¼Ð¸ÑĤ ÑĢÐ¾
ĠÐ¼Ð¸ÑĤ ÑĢÐ¾Ð¿
ĠÐ¾ÑĥÐ± Ð¾Ð³Ð¸
ĠÑ³ÐµÐ´ Ð¾ÑĢ
ĠÐĳÑĭ ÑģÑĤÑĮ
Ġ 9
Ð½ Ðº
ÑĪ ÐºÐ¾Ð¼ÑĬ
Ñĩ Ð½Ð°Ñı
ĠÐ½Ðµ Ð²Ð¸
Ð½Ð¸ ÑĨÑĬ
ĠÐ¿Ð¾ Ñ¹
ĠÑĥ Ð±Ðµ
ĠÑ¿ Ð½
ĠÐ·Ð° ÑĤÐ²Ð¾ÑĢ
ĠÑģÑĬ ÐºÑĢ
ĠÐºÐ° ÐºÐ°Ñ§
ĠÐ»Ð¸ ÑĪÐ¸
ĠÐºÐ¾ÑĤ ÐµÐ»
ĠÐºÐ¾ÑĤÐ¾ÑĢ ÑĭÐ¼Ð¸
ĠÐ³Ð» êĻĭ
ĠÐ³Ð» Ñ¹
ĠÑģÑĤÐ°ÑĢ ÑĨÑĭ
ĠÐ¿Ð¸ÑģÐ° ÑĤÑĮ
ĠÐ¶Ð¸Ð²Ð¾ ÑĤÐ¸Ð½Ðµ
ĠÑħÑĢÐ° Ð½Ñ§
ĠÐ²ÐµÐ»Ð¸ÐºÐ¸ Ð¼
ĠÐ¿Ð¾Ð±Ñ£ Ð¶Ðµ
ÑħÐ¾Ð¼ ÑģÑı
ĠÑĢÐ°Ð·Ñĥ Ð¼Ð°
ĠÐ¢Ñ£ Ð¼ÑĬ
ĠÑģÑĤÑĢ ÐµÐ»Ðµ
ĠÐ±Ð¾Ð»Ñ£ Ð·Ð½ÑĮ
ĠÐ³Ð¾ÑĤ Ð¾Ð²Ð°
ĠÐ¿Ñ§ ÑĤÐ°
ÑģÐºêĻĳ Ñ§
ĠÑģÐ¸Ð´ Ð¾ÑĢÐ°
ĠÐ³Ð¾ÑĢÐ¾Ð´Ð¸ Ñī
ĠÐ½ÐµÐ¸Ð· ÑĢÐµÑĩÐµÐ½
Ð»ÑĤ Ð°ÑĢÑĮ
Ð² Ð¾Ð²ÑĬ
Ð² ÐµÐ½ÑĸÐµ
ĠÑģ Ð´Ñ£
ÑĮ ÑģÑĤÐ²Ð¾
ĠÐ¸ ÑģÑĬ
Ñ§ ÑīÐ°Ð³Ð¾
ĠÐº Ð¾Ð¶Ðµ
ĠÐ¼ Ð»ÑĮ
ĠÐ¾ ÑģÑĤ
ĠÑĢ Ñİ
Ð¶ ÑĶ
ĠÐĺ Ð¾ÑģÐ¸
ĠÑ¿ Ð²Ðµ
ĠÑģÐ²Ð¾ ÑŃ
Ð²ÑĬ ÑĪÑİ
ĠÑģÐ» Ð¾Ð²ÑĬ
Ð»ÑĮ ÑĪÐµ
ĠÑı Ð²
ĠÑĤÐ° Ð»Ð°Ð½
ÑħÐ° Ð¶Ð¸
ĠÐ²Ð¾Ð· Ð»
ĠÐ¿ÑĢÑ£ Ð¼Ñ«
ĠÑ§ Ð²Ð»Ñ§
êĻĻ ÑĪÑĤÐµ
Ñ³ Ñĥ
ĠÐ¿Ð¾Ð³ Ð½Ð°
ĠÐ²ÐµÐ»Ð¸Ðº êĻĳÐ¸
ĠÑī Ð¾ÑĤÐ¾
ĠÐŁÐ¾ Ð¸
ĠÐ½Ð°ÑĪ ÐµÐ¼êĻĭ
ĠÐ»ÑİÐ± Ð¸ÑĤ
ĠÐ²ÑĬêĻģ ÑĮ
ĠÑģÐ¼ÐµÑĢ ÑĤÑĮÑİ
ÑģÑĤÑĢÐ° ÑĪÐ¸
ĠÐ¡Ð° Ð¼ÑĬ
ĠÐŀÑĤ ÑĩÐµ
ĠÐ¿Ð¾Ð¼Ð¾ ÑĩÑĮ
Ð³Ð»Ð° Ñģ
ĠÑħÐ¾Ñī Ñĥ
ĠÐ½ÐµÐ±Ðµ ÑģÑĬ
Ð¶Ð´ ÐµÐ½ÑĬ
ĠÑĮ ÑģÑĤÑĮ
ĠÐ¿Ð¸ÑĤ ÑĹÐµ
ĠÐ¿ÑĢÐ¸ÑģÐ»Ð° Ð»ÑĬ
ĠÑĢÑ£Ð·Ð° Ð½ÑĬ
ĠÐ¿ÑĢÐ¾Ð² Ð¾Ð¶Ð°
ĠÑ¿ÑĤ êĻĭÐ´êĻĭ
ĠÐĶÑĥÐ½Ð° Ð¹
ĠÐ´Ð¾ÐºÐ»Ð° Ð´Ñĥ
Ñģ Ð½Ð¾Ð²Ð°
Ñģ Ð²Ñ§
ĠÐ½Ð° ÑĩÐ¸
ĠÐ½Ð° Ð·ÑĭÐ²Ð°
Ð»Ð¸ ÑĨÐ°
ĠÐ» Ð¾Ð¶ÑĮ
ĠÐ´Ð° Ð´Ð¸ÑĤÐµ
ĠÑ¡ Ð·
Ð·Ð° Ð½ÑĮ
ĠÐ³Ð¾ÑĢ êĻĭ
ĠÐ½Ñ£ ÐºÐ¾Ð¸
ĠÐºÑĢÐ° Ð»ÑĬ
ĠÐ¿Ð¾ÑĤ Ð¾Ð¼Ñ¹
Ð½Ð¸ÑĤ ÑģÑ§
ĠÐ²ÑĬÐ´Ð° ÑģÑĤÑĮ
ĠÐ±Ð¾Ð³Ð°ÑĤÑĭ ÑĢÐµÐ¹
ĠÐ´Ð¾Ð¿ ÑĢÐ°
ĠÐľÐ¾Ñģ ÐºÐ²Ñĭ
ĠÑĤÑĢÐ° Ð²Ñĥ
ĠÐ°Ð´Ð° Ð¼Ð°
ĠÑģÐ¾Ð½ Ð¼ÑĬ
ÑĢ Ð¾Ð½
ĠÐ¿ Ð¾Ð²Ð¾Ð¸
ĠÐ² Òį
Ñħ ÑĸÐ¸
ĠÐ½Ð° Ð²Ð¾Ð·
ĠÐ¿ÑĢ Ð¾Ð²Ñ£
ĠÐ½Ðµ Ð´Ð¾Ñĥ
ĠÐ²ÑĬ Ð½Ñ£
Ð¶Ðµ Ð¼
ĠÑ¡ Ñĩ
ÑĢÐ¸ Ð»ÑĮ
ĠÑ¿ ÑģÑ£
ĠÐ¾Ñĥ Ð²Ñ£Ð´Ñ£
Ð½ÑĮ ÑģÐºÐ°
ĠÐ¸Ð· Ð±Ð¸ÑĪÐ°
ÑīÐ¸ Ðº
ÑīÐ¸ ÐºÐ°
ĠÐ¼Ð° Ð¼
ĠÐ²Ð¸ Ð´Ð°
ÐµÑĢÐµ ÑĤÐ¸
ĠÐ³Ð»Ð° Ð´
ĠÑģÑĤÐ° ÑĢÐµ
ĠêĻĭ Ð·
ĠÐ±Ð» Ñ«
ĠÐ¼Ðµ ÑĩÐ¸
Ð»Ð¾Ð½ Ð¸
ÑģÑĤÐ°Ð² Ð»ÐµÐ½
ĠÑĤÐ¾Ð± Ð¾Ð¹
ĠÐ»Ðµ Ð²ÑĬ
ĠÎ¹ Ð½Ð¾
ĠÐ²Ð»Ð° Ð´Ñ£
ĠÑĤÐ²Ð¾ÑĢ Ñ§ÑĪÐµ
ÑħÑĥ ÑģÑı
ĠÐ´Ð¾Ð±ÑĢ Ð¾ÑĤÑ£
ĠÐ¿ÑĢÐ°Ð² Ð´êĻĭ
ĠÐ´Ð¾Ð±ÑĢÑĭ ÑħÑĬ
ÐºÐ¾Ð» Ð°
ĠÐ¿ÑĮ ÑĢÑĮ
ĠÑĩÑĮ ÑĢ
ĠÑĢÐ¾Ñģ Ð¾Ð»ÑĬ
ĠÑģÐºÐ¾ ÑĤ
ĠÐºÐ¾Ð¿ ÑĮ
ĠÑĤÐ°Ð¸ Ð½Ð¾
ĠÐ²Ð¾ÑĤÑĩÐ¸Ð½ Ð½Ð¸ÐºÐ¾Ð²
ĠÐ¾ÑĥÐ± ÑĢÑ¹
ĠÑ¡Ð±Ð¸ÑħÐ¾Ð´ Ðµ
ĠÑ¡Ð±Ð¸ÑħÐ¾Ð´ Ñ£
ĠÑ¡Ð±Ð¸ÑħÐ¾Ð´ Ñ¹
ĠÐ¿Ð¾ÑĢÑ§Ð´ Ð»Ð¸
ÑĤÐºÐ° Ð¼ÑĬ
ĠÐ¿ÑĢÐ¸Ð±Ð»Ð¸ Ð¶Ð°
ĠÐ¿Ð¾Ð¼ÐµÑģÑĤ Ð½ÑĭÑħ
ĠÐ´Ð¾Ð¼Ð¾ÑĩÐ°Ð´ ÑĨÐ¾Ð²ÑĬ
ĠÐ¿Ð¾Ð¿Ð¾ÑĢÑĤÐ¸ Ð»Ð¾
ĠÐ»Ñ¹Ñĩ ÑĪÐµÐµ
ĠÐºÐ¾Ð¼Ð¸ ÑģÐ°ÑĢ
ĠÐ·Ð°ÑĤÑħ Ð»Ð¾
Ðº Ð»ÑĬ
Ð´ ÐµÐ½ÑĸÐµ
ĠÐº Ð¾Ð²Ð¾
Ð± Ð¾Ð³
ĠÐ½Ð° Ð²Ð°
Ñī ÑĶ
Ð¶ Ð½ÐµÐ¼Ñĥ
ĠÑģÑĤ Ð¾Ñİ
Ð´Ð¸ Ð½ÑĮ
ÑĩÐµ Ð²ÑĬ
Ð²Ñ£ Ð¸
ĠÑĶ Ð¼Ð¾Ñĥ
ÑĩÐ° Ð»Ð°
ÑĩÐ° ÑĤÑĭ
ÑĨÐµ Ð¹
Ð´Ñĥ ÑīÐµ
ĠÐ¸Ñģ ÑĨÐµ
ÑģÑĤÐ°Ð²Ð¸ ÑĪÐ°
ĠÐ¿Ð¾ÑģÐ»Ð° Ð½ÑĬ
ÐºÐ°Ð· Ñĥ
ĠÐ±ÑĢÐ°ÑĤ Ñı
ĠÐ¿Ñĥ ÑģÑĤ
ĠÐ¼Ð¸Ð»Ð¾ ÑģÑĤÑĭ
Ð³Ð¾ÑģÐ» Ð¾Ð²Ð¸
ĠÐ¼Ð°ÑĢ ÐºÐ°
ĠÐ¿Ð¾Ð»Ð¾Ð¶Ð¸ Ð»
ĠÐ´ÑĢÐ¾Ñĥ Ð³ÑĬ
ĠÐĳÐ¾Ð¶Ð¸ Ð¸
ĠÑģÐ½Ð° Ð±
ĠÑģÑĢÐµ Ð´Ñĭ
ĠÑģêĻĳ Ð½Ð°
ĠÐºÑĢÐµÐ¿Ð¾ ÑģÑĤÑĮ
ĠÑģÐµÑĢÐµÐ± ÑĢÑı
ĠÐ½ÐµÑĩÐ¸ ÑģÑĤ
ĠÐ²Ð¾Ð·Ð²ÑĢÐ°ÑĤÐ¸ ÑģÑ§
ĠêĻĹÐ² Ð»êĻĹ
ĠÐ·Ð¼Ðµ Ð¸
ĠÐ¡Ð»Ð° Ð²Ð°
ĠÑĥÐµÐ· Ð´Ðµ
ĠÐĳÐ¾ Ñı
ĠÑģÐ»Ð°Ð²Ð¾ ÑģÐ»Ð¾Ð²
ĠÐ·Ð´Ð¾ÑĢÐ¾Ð²ÑĮ Ðµ
ĠÐ¶Ð¸Ð²Ð¾Ð½Ð° ÑĩÐ°Ð»
ĠÐ¸ Ð´Ñ£
Ð´ ÑıÑĤ
Ñħ Ð¾Ð½
ĠÐ¾ ÑĢÐ¾Ñĥ
Ð¾Ð» ÑİÐ±
ÑĢÐ° Ð¼ÑĬ
ĠÑĢ Ðº
Ð¾Ð´ Ð¾ÑĢ
ĠÐ´Ð° Ð¼
Ñ¡ Ð²Ñĭ
ĠÑ¡ Ð½Ð¾Ð³Ð¾
Ð´Ð¸ Ð½Ð°Ð³Ð¾
ĠÐ½Ð¸ ÑĮ
ĠÐ¸Ð· Ð±Ñ£
ÑīÐ¸ Ð¼ÑĮ
ĠÐ²Ð¾Ð· Ð±ÑĢÐ°
ÑĶ Ñģ
ĠÐķ Ð¼Ñĥ
ĠÑģÐ¾Ð± Ñı
ÐºÐµ Ñħ
ĠÐ²Ð»Ð° Ð³Ð°
ÑģÐºÑĭ Ð¹
ĠÑĩÐµÐ»Ð¾Ð²Ñ£ ÐºÑĥ
ĠÐ´Ñ£Ð»Ð° ÑİÑĤ
ĠÑĤÑĮ Ñĸ
ĠÐ³ÑĢÐ°Ð´ Ð¾Ð¼ÑĬ
ĠÐ²ÑĢÑ£ Ð¼Ñı
ĠÐ¼Ñ¡ Ð°
ĠÑģÐ¾Ð²Ñ£ ÑĤÑĬ
ĠÐ¼Ð½Ð¸ ÑĪÐµ
ĠÑĤÑĭÑģÑı ÑĩÐµÐ¹
ĠÐ¼ÑĥÑĢ Ð·Ñĭ
ĠÐ¿Ð°ÐºÐ¾ ÑģÑĤÑĮ
ĠÑģÐ¾Ð±Ð° ÐºÐ¸
ĠÐ¿ÑĢÐµÐ´Ñ£ Ð»Ñĭ
ĠÐ²Ð¾Ð·ÑĮ Ð¼Ð¸
ĠÐ¿ÑĢÐµÑģÑĤÐ¾Ð» ÑĬ
ĠÑģÐºÑĬ ÑĢ
. .
Ð° Ð½ÑĸÐµ
ÑĢ ÑĤÑĮ
ÑĢ Ð¾Ð±
Ñģ ÐµÐ½ÑĮ
Ñı Ð½Ñĭ
Ñĩ Ð½Ð°Ñ§
ÑĤÐ¸ Ð½Ð¾Ñĥ
ĠÐ´Ð° Ð¶ÑĮ
ĠÑģÑĤ ÑĥÐ´
ĠÐ²Ðµ ÐºÐ¸
ÑĤÐ° Ð¹
ĠÐ¼Ð¾ ÑģÑĤÐ¾Ð²
ÑīÐ° êĻĹ
ĠÐ¿Ð¾Ð´ ÑĮ
ÑĦ ÑĢÐµÐ¼
ĠÑī Ð¸
ĠÐ²Ð»Ð° Ð´Ð¸
ĠÐ²ÑĢÐ° Ð³Ñĭ
ĠÐ´ÐµÑĢ Ð¶Ð¸
ÑĤÐ² ÐµÐ½
ÑĤÐ² Ñ«
ĠÐ¼ÑĬ Ð½Ð¾Ð³Ð¾
ĠÑģÑ« Ð´
ĠÐºÐ°Ð· Ð½ÑĮ
ĠÐ¾Ñģ Ð½Ð¾Ð²Ð°
ĠÑħÐ° Ð»
ĠÑ¡Ð±ÑĢÐ° ÑĤÐ¸
ĠÑģÐºÐ°Ð·Ð° ÑĤÑĮ
ĠÑĤêĻĭ ÐºÐ°
ĠÑģÐµÐ» Ñĥ
ÑģÑĤÑĥÐ¿Ð¸ ÑĪÐ°
ĠÑ¡Ð±ÑĢÑ£ ÑĤÐµ
ĠÐ´ÑĢÑĥÐ³Ð° Ñı
ĠÐºÑĢÐµÐ¿Ð¾ ÑģÑĤÑı
ĠÐ¸Ð·Ñĭ Ð´Ðµ
ĠÐºÐ¾Ð»Ñ£ Ð½Ð°
ĠÐ±Ð¾Ð¶Ðµ ÑģÑĤÐ²
ĠÑģÐµÑĢÐµÐ±ÑĢ Ð¾Ð¼ÑĬ
ĠÐ¿Ð»Ð°ÑĤÐµ Ð¶ÑĮ
ĠÐ³Ð¾Ñĩ ÐºÐ¾Ð¼ÑĮ
Ðµ ÑĪÑĬ
Ð½ ÐºÐ¸
Ñģ Ð¾Ð²Ð°
ĠÐ¸ Ð½Ð¸Ð¸
ĠÐ¿ Ñı
Ñĥ Ð»
ĠÑĤ Ð°ÑĢ
ĠÑĤ ÐµÑĢÐµ
Ð¿ Ñĸ
Ð¿ Ð½Ð¾
Ð»Ð¸ ÑĤ
ĠÐ¾Ñĥ ÑĩÐ°
ĠÐ¾Ñĥ ÑĩÐ¸ÑĤ
ĠÑĢÐ° Ð±Ð¾
ĠÑģÐµ Ðµ
ĠÐ»Ñİ Ð±Ðµ
ĠÐĴ ÑĤÐ¾ÑĢ
ĠÐ±Ð¾ ÑĩÐºÐ¸
Òĩ :
ĠÐ¸Ð· Ð¸Ð´Ðµ
Ð¿Ð° Ð´Ð°
Ð»Ñİ ÑĤÑĮ
Ð´Ð¾ ÑħÐ°
Ð½Ñ§ Ð½ÑĬ
ĠÐŀ Ð²
ĠÐ¿Ð¸ Ð»Ð¸
ĠÐ²Ð¾Ð» ÑĮ
ĠÐ¼Ð¾Ð» Ñ§ÑĪÐµ
ĠÐ¿Ð»Ð° Ð²Ð°
ĠÐ¼Ñĥ ÑĩÐµ
ĠÐ³Ð»Ð°Ð³Ð¾Ð» Ñĭ
Ð¼Ñĭ ÑģÐ»
ĠÐ·Ð½Ð° ÑĤÐ¸
ĠÐ²ÑģÐ¸ Ð¼ÑĬ
ĠÐľÐ¸ ÐºÐ¸ÑĤÐ¸
ĠÐ¿Ð¾ÑģÐ»Ðµ Ð´
ĠÐ²Ð¾ÑĢ Ð¾Ð½Ð°
ĠÐµÑģÑĤÐµ ÑģÑĤÐ²Ð¾
ĠÐ²Ð°ÑģÐ¸Ð»ÑĮ Ñı
ĠÐ¡ÑĤÐ° Ð»
ĠÐ¾Ð±Ð° ÑĩÐµ
ĠÐ¾Ðº Ð¾Ð»ÑĮ
ĠÐ²Ñĸ Ð½Ð¾Ð³ÑĢÐ°
ĠÐ¼ÑĥÐ¶Ðµ Ð¹
ĠÐ¿Ð¾Ð¼ÐµÑīÐ¸ ÐºÐ¾Ð²
ĠÐ¿ÑĭÑĤÐ° ÑĤÑĮ
ĠÑĦÐ°ÑĢÐ° Ñ¡
ĠÐ¿Ð¾Ð»Ð¾Ð¶Ðµ Ð½Ð¾
ĠÑħÐ¾Ð»Ñ¡ Ð¿ÑĬ
ĠÐĶÐµÐ²Ð³ÐµÐ½Ð¸ Ð¹
ĠÐ²ÐµÐ½ÑĸÐ° Ð¼Ñĸ
Ġ Òħ
Ð½ Ð¾Ðº
ĠÐ¸ Ð´Ð¾Ñĥ
ĠÐ¿ ÑĤÐ°
ĠÐº Ð´Ðµ
ĠÐ¾ Ð³Ð¾Ð²Ð¾ÑĢ
ĠÐ¾ Ð»ÑĮÐº
ĠÐ½Ð° ÐµÐ¼
ÑĨ Ð°ÑĢÑĮ
êĻĳ Ð²Ð°
Ð½Ðµ Ð³Ð´Ð°
ĠÐ»Ñİ Ð±ÐµÐ·
ĠÑĢÐµ Ð±ÑĢÐ°
ÑīÐ° ÑİÑĤ
ĠÐ¿Ð¾Ð´ Ðº
ĠÐ¿ÑĢÐµ Ð¿Ð¾
ĠÐ±Ñ£ Ð»Ð°
ĠÐºÐ¾ÑĢ Ð¾Ð²
ĠÑģÐ»Ð° Ð´Ð¾ÑģÑĤÑĮ
Ð¼Ñĭ Ð¹
ĠÑģÑĤÐ¾ Ñ§ÑĤÐ¸
ĠÑģÐ°Ð¼ Ð°ÑĢ
ĠÐ½Ð¸Ðº Ð¾Ð»
ĠÑ¡Ð± Ð»Ð¸
ĠÐ³Ð¾ÑģÐ¿ Ð¾Ð¶Ð°
ĠÑģÐ¾Ð» Ð½
Ð³ÑĢÐ° Ð´Ð°
ĠÑĩÐµÑĢ ÐµÐ½
Ð»Ñ¹ Ð¸
ÑģÑĤÐ°Ð½ ÐµÑĤÑĬ
ĠÑģÑĤÑĢ ÐµÐ»Ð¾
ĠÑĢÑĮ ÑĨÐ¸
ĠÐ¼Ð¾Ñĥ Ð¶ÑĮ
ĠÐ¾Ð¿Ð° Ñģ
ĠÐµÑģÑĮ Ð¼ÑĮ
ĠÐ¸Ð³Ñ¹ Ð¼ÐµÐ½ÑĬ
ĠÐµÑĥ Ð°
ĠÐ¿ÑĢÐ¾Ð¶ Ð¸ÑĤÐ¾
ĠÑħÐ¾ÑĨÐµ ÑĪÐ¸
Ð½ ÐµÐ½Ð¾
Ð» Ð¾Ð¼Ð°
ĠÐ¿ Ð»ÐµÐ½
Ðº ÑĸÑ§
Ð´ ÑĢÐ°Ð²
ĠÐ½ Ð¾Ð½Ðµ
ĠÐ´ Ð¾Ð³
Ð³ Ð½Ðµ
Ð· Ð¾ÑĢ
ĠÐ½Ð° Ñİ
ĠÐ¿ÑĢ Ñ¹
ĠÐ¿Ð¾ Ðµ
ĠÐ²Ñģ ÑĮ
ĠÑ¿ Ð²
ĠÐ·Ð° êĻĭ
ÑģÐ° Ð°
ĠÐ²Ðµ Ð´Ð¾Ð¼Ð¾
Ð¾Ð¿ Ð¾
ÑĤÐµ ÑĩÐµ
ĠÐ¿Ð¾Ñģ ÑĢÐ°Ð¼Ð¸
ĠÐ±Ðµ ÑģÑĬ
ĠÐ²Ð¸ Ð¶Ð´ÑĮ
ĠÑģÑĭ Ð½Ð¾Ð¼
ĠÐ¼Ð¾Ð» Ð¾
ĠÑģÑ£ Ð¼ÐµÐ½Ðµ
ĠÐł Ñĭ
ĠÐ´ÑĢÑĥ Ð³Ð¾Ð¸
ĠÐ¸Ð½Ð¾ Ð¸
ĠÐ²Ð¸Ð´Ñ£ Ð»ÑĬ
ĠÐ¿Ð¸ÑģÐ° Ð½Ð°
ĠÐ¿ÑĢÐ¾Ð´Ð° Ð¶Ð°
Ð¼ÐµÑĢ ÑĤ
ĠÐ¿Ð¾Ð· Ð¾Ð²
ĠÐ½Ð± ÑģÐµ
Ð·Ðµ Ð¸
ĠÑĪÐ¸ ÑĢ
Ð±Ñĥ Ð´Ð¸
ĠÐ¼Ð°Ð»Ð¾ Ðµ
ĠÐ±ÑĢÐ°ÑĤÐ¸ êĻĹ
ĠÑĤÑĢÐµÑĤÑĮ Ð¸
ĠÑĤÑĢÐµÑĤÑĮ Ñı
ĠÐ¿ÑĢÐ¸ÑĤ ÑĩÐ°
ĠÐĳÐ»Ð° Ð³Ð¾ÑģÐ»Ð¾Ð²
ĠÐ¾Ð» ÑĤÐ°ÑĢ
ĠÐ¶ÐµÑĢ ÑĤÐ²êĻĭ
ĠÑĢÐ°Ð·Ñ¹ Ð¼Ñ£
ĠÐ³ÐµÑĢÐ° ÑģÐ¸Ð¼Ð°
ĠÐ¾Ð±ÐµÑģ ÑĩÐµÑģÑĤ
Ð½ ÐµÑĤÐµ
Ð² ÑĸÐµ
ĠÐ¿ Ð»Ñİ
Ð´ Ð½Ðµ
ĠÑĤ Ð²ÑĢÑĮ
ÑģÑĤ ÐµÐ½
ÑĪ Ð¸ÑĤÑĬ
Ñı Ð»Ð¸
Ð· Ð¼Ñ£
Ð½Ð¸ ÑĨÐµÑİ
ÐµÐ¼ ÑĭÐ¸
ÐµÑĢ Ñ§
ĠÐ´Ð° Ð´ÑĥÑĤ
ÑĪÐµ Ð¹
Ð»ÑĮ Ð¼Ð°
ĠÐºÐ° ÑĪÐ°
ĠÑ¹ ÑģÑĤÑĢÐ¾
ĠÑ¹ Ð¿Ð¾Ð²Ð°
ĠÑĤÑĭ Ðµ
ĠÑ» ÑĤ
Ð½Ð¸Ðº Ñ¡Ð¼ÑĬ
ÑģÑĤÐ°Ð²Ð¸ Ð»Ð¸
ĠÐ¿Ð¾ÐºÐ»Ð¾Ð½ Ñı
ĠÑģÐºÐ° ÑĤÐµÑĢ
ĠÐ´ÑĢêĻĭ Ð³êĻĭ
ĠÐ´Ð¾Ñĥ ÑħÐ°
ĠÐ²Ð·Ñı ÑĤÑĭ
ĠÑģÑĤÑĢ ÐµÐ»ÑĮ
ĠÐºÐ¾Ð¿ ÑĮÐµ
ĠÐ½Ð°Ð¿Ð° ÑģÑĤÑĮ
ĠÐ¶ÐµÐ»Ñ£ Ð·Ð¾
ĠÑģÐ²ÑıÑĤ Ð¾Ð³Ð¾
ĠÐ´Ð°Ð²êĻĳ Ð´Ð°
ĠÐĿÑĭ Ð½Ñ£
ĠÐ½Ð°Ð·Ð° Ð´
ĠÐ¶Ð¸Ð´ Ð¾Ð²Ðµ
ĠÑĤÐ¾ÑĥÑĢ ÐºÑĭ
Ñģ ÐµÑĤ
ĠÑģ Ð´Ðµ
ĠÐ± Ð³Ð¾
Ñħ Ð¾Ð¶Ðµ
Ñİ Ð¶Ðµ
ÒĨ ÒĨ
Ñı ÑīÐ°
Ð¾Ð² Ð½Ð°Ð³Ð¾
ĠÐ³ Ð½Ð¸
Ð¿ Ð°Ðº
ĠÐ½Ðµ êĻģ
Ñī ÐµÐ½ÑĮ
ĠÑģÑĤ Ð¾Ð¿Ð°
ÑĢÐ¸ Ð°
ĠÑģÐ²Ð¾ Ñ£
ĠÑģÐµ Ð¿
ÑĩÐ¸ ÑĪÐ°
ĠÐ¶ êĻĭ
ĠÑĤÐ¸ Ð²Ñĥ
ĠÐ¿ÑĢÐµ Ð±
ĠÐ´Ñ£ Ñ§
ĠÐ¿Ð»Ð° ÑĩÑİ
ĠÑģÑĥ ÑīÐµ
ĠÐ»Ðµ Ð¶Ð¸ÑĤÑĮ
ĠÐ²ÑģÑ§Ðº ÑĹÑ§
ĠÐ´Ñĥ ÑĪÑı
ĠÐ²Ð¾Ñģ ÑħÐ¾
ĠÑģÐ»Ñĥ Ð³Ð¸
ĠÐ±êĻĭÐ´ ÐµÑĤ
ĠÑģÐ¾Ð» Ð¾Ð¼Ð°
ĠÐºÐ½Ð¸ Ð³
ĠÐ½Ð± ÑģÑĮ
ĠÐ²ÑģÑ§ÐºÐ° Ð³Ñ¡
ĠÐ´ÑĢÑ¹ Ð³
ĠÐ±Ð»Ñİ Ð´Ð¸
ĠÐ¿Ð¾Ð²Ñ£Ð´Ð° ÑĪÐ°
ĠÐ¿Ð¾ÑħÐ²Ð° Ð»Ñı
ĠÐ¼Ð¾ÑģÐºÐ¾Ð² ÑģÐºÐ¸Ñħ
ĠÐŁÐ¾Ð» ÐºÐ°
ĠÑĤÑ£Ð»Ðµ ÑģÐ°
ĠÑĢÐµÐºÑĥ ÑīÐµ
ĠÐ¿Ñ« ÑĤÑĮ
ĠÑģÐ²ÑıÑĤÐ¸ ÑĤÐµÐ»
ĠÐŁÐ¾ÑĤÐ°Ð½ÑĨÑĭ ÑıÐ½Ð°
ĠÐºÐ¾Ð´ ÑĢÐ°
Ñģ ÑĨ
Ñģ êĻĻ
ĠÐ¸ Ñī
ĠÐ³ Ñ¡
Ð¾ÑĢ Ð¾Ð²
ĠÐ½Ðµ ÑĩÑĮ
ĠêĻĹ ÑĢÐ¾Ð¿Ð¾Ð»
ĠÑĶ ÑģÐ¸
ĠÐ¼Ð¾ ÑģÑĤ
ĠÑģÐ° Ð¼êĻĭ
ĠÐ¿Ð° Ð³êĻĭ
Ð¼Ñ£ ÑĤÐµ
ĠÐ±ÑĢÐ° ÐºÑĬ
ÑģÐ¿ ÑĢÐ°Ð²
ĠÑĤÐ°Ðº Ð¾Ð³Ð¾
ĠÐºÑĢ Ñģ
ĠÑģÐ²Ñ£ ÑĤÑ£
ĠÑģÐ¿ Ñ£
ÑİÑīÐµ Ðµ
ĠÐ¼Ñ¹ Ð¶ÐµÐ¸
ĠÑĩÑİ Ð´Ðµ
ĠÐ´Ð¾Ð±ÑĢ Ð¾Ð¼Ñ¹
ĠÐ²Ð¾Ð´ ÑĬ
ĠÐ½Ð°ÑĩÐ° Ð»Ð¾
ĠÑĢÐ°êĻģ Ð»Ð¸
ĠÐ¿ÑĢÐ°Ð² Ð¾Ð¹
ĠÑģÐ²Ñı Ð·Ð°
ĠÐ²Ð¾Ð»Ð¾Ð´Ð¸ Ð¼ÐµÑĢÐ°
ĠÐ¿ÑĢÐ¾ÑĤÐ¸Ð² Ñ«
ĠÐ¼Ð¾Ð»Ð¸ÑĤ Ð²Ñ£
ĠÐ¿Ð¾ÑģÐ»Ñ£ Ð´Ð¸
ĠÐ¾ÑĩÐ¸ Ñİ
ĠÐ´ÑĢÑĥÐ¶Ð¸ Ð½Ñ£
ĠÐ´ÐµÑĢÐµÐ² ÐµÐ½ÑĮ
ĠÐ±ÐµÑĢ ÐµÑĤ
ĠÐ¼ÐµÐ¶ Ð´Ñĥ
ĠÐ¸Ð·Ñĭ Ð¼Ð°
ĠÑĢÐ¾ÑģÑĤÐ¸ ÑģÐ»Ð°Ð²Ð¸
ĠÐ¸Ð¼Ñĥ ÑĤÑĮ
ĠÐ½Ð°Ð¿Ð¾ Ð¸
Ġ 000
Ð¸ ÑĨÐµ
ÑĤ Ð½Ñĭ
Ñģ êĻ¿
ĠÑģ Ð»Ð¾
ĠÐº Ð¾Ð¼ÑĬ
ĠÐº Ð¾Ð¶Ð°
ĠÐº Ð¾Ð´ÑĮ
ĠÐ¼ Ð¾Ð½Ðµ
ĠÐ¾ ÑĨÑĮ
ĠÐ¾ Ð»ÐµÐºÑģÐ°Ð½Ð´
ĠÐ½Ð° Ð³Ð¾
ĠÐ¿ÑĢ Ð´Ðµ
ÑĢÐ° ÐºÑĬ
Ñĸ ÑħÑĬ
ÑĢÐ¸ Ð²ÑĬ
ĠÐ¿ÑĢÐ¸ ÑģÑĤêĻĭÐ¿Ð¸
ĠÐ¶ Ð¾
ĠÐ²Ðµ Ð´
ĠÐŁ Ñĥ
Ð´Ñ£ Ð»ÑĬ
ĠÐ²Ð° Ð¼ÑĮ
Ð²ÑĮ Ð½Ð¾
ĠÐ¶Ð¸ ÑĢÑĬ
ĠÐ²Ñĭ Ð²ÐµÐ´
ĠÐľ Ð¾Ð¸
ĠÐ¿ÑĢÐ° Ð²Ð°
ĠÐµÑģÑĤÑĮ Ð»Ð¸
ÑĨÑĮ ÐºÐ°
ĠÐ¸Ñģ ÑĨÑĭ
ĠÐ´Ð¾Ð¼ Ð¾Ñĥ
Ð²ÑĪÐµ ÑģÑı
ĠÐ²Ð¾Ñģ Ð¾Ð»Ð¸
ĠÐ§ ÑĤÐ¾Ð±Ñĭ
ĠÐ¼ÑĮ Ð½Ðµ
ĠÑĢÐ°êĻģ êĻ¿
Ð°ÑĢÑĮ Ñİ
Ð¿Ñĥ ÑīÐµÐ½Ñĭ
ĠÑĤÐ¾ÑĢ Ð³Ñĥ
ĠÐ¼Ð¾Ð³ êĻĭ
ĠÐºÑĢÐ°Ñģ Ð¾ÑĤÑĭ
ĠÑ¥Ñģ Ð¼ÑĬ
ĠÐ·Ð°Ð¿Ð¸ ÑģÑı
ĠÐ¼Ð°Ð½Ð° ÑģÑģ
ĠÑĩÐ»Ð¾Ð²Ñ£ ÐºÑĥ
ĠÑģÑĢÐµ Ð´Ñ£
ĠÑģÐ»ÑĥÐ¶Ð¸ Ð»ÑĭÐµ
ĠÐ½Ð°Ð¿Ð° Ð´Ðµ
ĠÐ´Ð°Ð²Ñĸ Ð´êĻĭ
ĠÑģÐ¾Ð²ÐµÑĢ ÑĪÐµÐ½
ĠÐ¿Ð¾Ð³Ñĥ Ð±Ð¸ÑĤÐ¸
ĠÐµÐ¿ Ñģ
ĠÐ¿Ð¾Ð¼ÐµÑīÐ¸ ÐºÐ¸
ĠÐ±Ð¾Ð»Ñ§ ÑĢÐµ
ĠÐ°ÑĢÑħÐ¸Ð¼Ð°ÑĢ Ð¸ÑĤÑĥ
ĠÐ½Ð°ÑģÐ»Ñ£Ð´ ÑĸÐµ
Ð¸ÑģêĻĭ ÑģÑĬ
ĠÐ½ÐµÐ¿ÑĢÐµ ÑģÑĤÐ°Ð½
ĠÑĦÐµÑ¡ Ð´
ĠÐºÐ»ÐµÐ²ÐµÑĤÑĮ Ð½Ð¸ÐºÐ°
ĠÑħÐ¾ÑĨÑĮ ÑĪÐ¸
ĠÐ¸ Ð½ÑĭÐ¸
Ñ£ Ð·
ĠÑĤ êĻĻ
ĠÑĤ ÑĢÐ°Ð²
ÑģÑĤ Ð²Ñĭ
ĠÐ³ ÑĢÑĥÐ´Ð¸
ĠÐ½Ðµ ÑģÑĤ
Ð»Ð¸ ÑĨÐ¸
Ð»Ð¸ ÑĨÑĭ
ĠÐ° ÑĤÐ¸
Ð½Ð° ÑĤÐ°
ĠÐ´Ð° ÑģÑĤÐµ
ĠÑ¿ Ð±Ñ£
ĠÑģÑĬ Ð±
Ð°Ðº Ð¾Ð½ÑĬ
ÑĩÐ¸ Ð½ÑĬ
Ð¼Ð° ÑĪÐ¸
ĠêĻĹ ÐºÑ¡
ĠÐ¾ÑĤ ÐºÐ°
ĠÐ»Ð¸ ÑģÑĤÑĮ
ĠÑĸ Ð²Ð°Ð½
Ð³Ð° Ð»
Ð±Ñ£ ÑīÐ°
ÑģÑĤÐ² ÑĸÐ°
ĠÑģÑ£ ÑĩÐ°
ÑģÑĤÐ°Ð² Ð»Ñ§
ĠÑģÑ¹ Ð´ÑĬ
ĠÐ±êĻĳ ÑģÑĤÑĮ
ĠÐ²Ð¾Ñģ ÐºÑĢ
ĠÐ¼Ð½Ð¾Ð³ Ñ¡
ĠÑĢÐ¾Ð´Ð¸ ÑĤÐ¸
ĠÐ¿Ð¾ÑĪ Ð»Ð¾
ĠÐºÑĢÐµÑģÑĤÑĮÑı Ð½Ð¾Ð¼
ĠÐ½ÑĭÐ½Ðµ ÑĪ
ĠÐ±ÐµÑģÑ£ Ð´Ñĭ
ĠÐ¸Ð·Ð±Ð° Ð²Ð»Ñ§
ĠÐ·Ð» Ð¾Ð±Ð°
ĠÐ½ÐµÐ²Ð¸Ð´Ð¸ Ð¼Ð¾
ĠÑıÑĢÐ¾Ð¿Ð¾Ð» ÐºÑĬ
ĠÑĢÐ¾Ð¼Ð° Ð½Ð°
Ð° ÑĢÐ°
Ð» ÑģÑ§
Ð¼ Ð½Ð°
Ð´ Ð¾Ð»Ñ£
ĠÑĤ êĻĹ
Ñħ Ð¾Ð²Ð°
ĠÐ¾ ÑĩÐµÐ¹
ÑĤÐ¸ ÑĤÑĬ
Ð²Ð° ÑİÑĤÑĬ
ĠÐ²ÑĬ Ð´
êĻĹ ÑĤ
Ñ¡ Ð±Ð¸
ĠÑ¡ Ð±Ð¾
ĠÑ¡ ÑģÑ¹
ĠÐ¿ÑĢÐ¸ ÑıÑĤÐ¸
ĠÐ·Ð° Ð²
Ñ« ÑŃ
ĠÐ½Ð¸ ÐºÐ¾
ĠÐ¾Ñĥ Ð¼ÑĮ
ÑīÐµ Ð½Ð¸Ð¸
ÑĩÐµ ÑĪÐ¸
Ð½Ñĥ ÑĪÐºÐ°
ĠÑı Ð¸
Ð»Ñ£ Ð·Ðµ
ÑīÐ° Ð¸
Ð¶Ð¸ Ð¸
ÑīÐ¸ ÑģÑı
Ð³Ð° ÑĤ
ĠÑ¹ Ñĩ
ĠÐ¿Ð¾Ð¼ êĻĳÑĪ
ĠÐ³Ð¾ÑģÑĥÐ´Ð° ÑĢÑĭ
ĠÐ¿Ð¾Ð³ ÑĢÐ°
ĠÐĽ ÐµÐ²
ĠÐ¿ÑĢÐµÐ´ ÑģÑĤÐ¾
Ð½Ð¾Ñĥ Ð¾ÑĥÐ¼Ð¾Ñĥ
ĠÑģÐ»Ñĥ ÑĩÐ¸
ĠÐ±Ð¾Ñı ÑĢÑĭ
ĠÐ²Ð¾Ð´ Ñ§
ĠÐ¼ÑĬ Ð»
ĠÑģÐ²Ñı ÑĤÐµÐ¸
ĠÐ¿ÑĢÐ¸ÐºÐ°Ð· Ð½ÑĭÐ¼
ĠÐ²Ñ£ÑĢ êĻĳ
ĠÐ¿Ð¾Ð±Ñ£ Ð´
ĠÐ´Ð¾ÑĢ Ð¾Ð³Ð°
ĠÐ±ÐµêĻģ Ð°ÐºÐ¾Ð½
ĠÐ¶Ð°Ð»Ð¾Ð²Ð° Ð½ÑĮÑı
ĠÐ¾Ð±ÑĢÑ£ ÑģÑĤÐ¸
ĠÑģÐ¸Ð» Ð½Ð¾
ĠÐ¾Ð² ÑģÐ°
ĠÐ²ÑĬÑģÑĤÐ° Ð²ÑĬ
ĠÑĢÐ¾Ð¶ Ð´ÑĮ
ĠÐ¿ÑĢÐ¸Ð³ Ð¾Ð¶Ð°
ĠÑĥÐ¼ÐµÑĢ ÑĪÐ¸Ñħ
ĠÐµÑµ Ð°
ĠÐºÐ¾Ð±Ñĭ Ð»
ĠÐ½Ð°Ð´Ð¾Ð± ÐµÑĤ
ÑĤ Ð²ÑĮÑĢ
Ð½ Ð½Ñĭ
ĠÐ¸ Ð²ÐµÑĢ
ÑģÑĤ ÑĢÑĥ
Ð¿ Ð»ÑĬ
Ð¾Ð» Ð½Ðµ
ĠÑĢ ÐµÐ´
ĠÐµ Ñĸ
ĠÐ» Ð¾Ð¶Ðµ
Ð½Ð° ÑĤÐ¸
ĠÐ´Ð° ÑĢêĻĭ
ÑĢÐ¸ Ð½Ðµ
Ð¾Ðº ÑĮ
ĠÑĢÐ° Ð´Ð°
ĠÑĢÐ° Ð´Ð¾Ñĥ
ĠÑģÑĬ Ð½Ñ£
ĠÑģÐ¸ â¸¯
ÑĢÑĮ Ñİ
ĠÐ²Ñ£ Ð´Ñ£ÑĤÐ¸
ÑīÐ° Ñİ
Ð¶Ð¸ Ð¼
Ð²Ðµ Ð¸
ĠÐ¿Ð¾Ð´ ÑĢÑĥ
ĠÑģÐ² ÐµÐ´
ĠÑĢÐ°Ð· ÑĬ
ÑĤÑĭ Ñ§
ÑģÑĤÐµ Ñħ
ĠÑģÐ»Ð° Ð²Ð¾Ñİ
Ð¿ÑĢÐ° Ð²ÑĮ
ĠÐ³ÑĢÑ£ ÑģÐ¸
ĠÐ¼Ð¾Ðµ Ñı
ÑģÑĤÑ£ ÑħÑĬ
ĠÐ·Ð½Ð° Ð¼ÐµÐ½ÑĮ
ĠÑĤÑĮ Ð¼Ð°
ĠÐ½Ð¾Ð² Ñ¹
Ð»Ð¾Ñĥ Ñİ
Ð¾Ð²Ð¸Ñĩ Ñĥ
ĠÑħÐ¾Ð´Ð¸ Ð»
ĠÑĥÑĩÐ¸ Ð½Ð¸ÑĤÑĮ
ĠÐ±ÑĭÐ²Ð° ÑİÑĤÑĮ
ĠÐ´ÑĢÐµ Ð²Ðµ
ĠÑĨÐ°ÑĢÐµ Ð¹
ĠÐ³Ð¾ÑģÑĥÐ´Ð°ÑĢÐµÐ²Ñĭ Ð¼
ĠÐ¿ÑĢÑĬ Ð²Ñ£Ðµ
ĠÐ¿ÑĢÐ¸Ð½Ð¾ ÑĪÐµÐ½
ĠÐ¿ÑĢÐ¸Ð²ÐµÐ´ ÑĥÑĤ
ĠÐ¿Ð»ÑĬ ÑĤÐ¸
ĠÑį ÑĤÑĥ
ĠÐ²Ð´Ð° Ð»ÑĮ
ĠÑ¡Ð² ÑģÐ°
ĠÑĢÐ¾Ð·Ð±Ð¾ Ðµ
ĠÑģÐ¿Ð¾Ð» Ð½Ð°
ĠÑĩÐµÑĢÐ½Ð¸Ð³Ð¾Ð² Ñĥ
Ð¼ â¸¯
ĠÐ¾ Ð²Ð°
ĠÐ¾ ÐºÐ»Ð°
ÑĨ ÑĶÐ²ÑĬ
Ñ¹ Ð¸
ĠÐ¶Ðµ Ð½Ð¾Ñĥ
ĠÑģÑĤ ÑĢÐµÐ¼
ĠÐĲ ÐºÑĭ
ĠÐ¿ÑĢÐ¸ Ð´ÐµÑĤ
Ð²Ð¸ Ð»Ð¸
ÑģÑĤÐ¸ Ð»ÑĬ
ĠÑģÑĬ ÐºÐ°êĻģÐ°
ĠêĻĹ Ð·
ĠÐĴ Ð¾ÑĤ
ĠÐºÐ° ÑĪ
Ð¼Ñ£ Ð¸
ĠÐ¿Ð¾Ðº Ð»Ð¾
ĠÑĨÐ°ÑĢ Ñ£
Ð±Ð° Ð»
ĠÑģÑĤÐ° Ð½ÐµÑĤÑĬ
Ð¼ÐµÐ½ ÐµÐ¼ÑĬ
ĠÒĨ ÒĨ
ĠÑĨÑĢ ÑĤÐ²
ĠÐ¿ÐµÑĢ ÐµÐ¼Ðµ
ĠÑģÐ¾Ð± Ð¸
Ð·ÑĮ Ñĸ
ĠÑģÑĤÐ°ÑĢ Ð¾Ð¸
ĠÐ¸ÑģÐ¿ Ð¾ÑĢ
ĠÑĤÐ²Ð¾ÑĢ Ñı
ĠÐ´Ð¾Ð±ÑĢ Ñ¹
Ð½Ñĸ ÑĶ
ĠÐ¥ Ð¾Ð»Ð¾Ð¿
ÐºÐ¾Ð¼ êĻĭ
ĠÐ½ÐµÐ¿ ÑĢ
ĠÐ¼Ð¾ÑĢ ÑĮ
ĠÑģÐ»Ð°Ð² Ñ§
ĠÐĴÐ»Ð° Ð´Ñĭ
ĠÐ²Ð¾Ð»Ð¾Ð´Ð¸Ð¼ÐµÑĢ Ñİ
ĠÐ²Ð½Ð¸ Ð´Ð¾ÑĪÐ°
Ġ1 000
ĠÑĩÐµÑĤÐ²ÐµÑĢ ÑĤÑĮ
ĠÑģÑĢÐ° Ð¼Ð¾ÑĤ
ĠÐ´Ð²Ñ£ Ð¼Ð°
ĠÐ¿Ð¾ÑĤÑĢÐµÐ± Ñ¹
ĠÐ¸ÑģÐ¿Ð¾Ð» Ð½Ð¸
ĠÐ´Ð°Ð²Ð° Ð»ÑĬ
ĠÐ¾Ð±Ð»Ð° Ð´Ð°
ĠÑģÐ¾Ð»Ð¾Ð¼ Ñ¡Ð½ÑĬ
ĠÐ´Ð¾ÑģÑĤÐ¾ Ð¸ÑĤÑĬ
ĠÐ½ÐµÐ¿ÑĢÐ°Ð²ÐµÐ´ Ð½Ð°Ð³Ð¾
ĠÐ²Ð¾Ðµ Ð²Ð°ÑĤÐ¸
ĠÑĢÐ¾ÑģÐ¿ÑĢÐ¾Ñģ Ðµ
ĠÐºÐ¾Ð»Ð° ÑĩÐ¸
ĠÐ½ÐµÑīÐ° Ð´Ð½Ð¾
Ð» Ð½Ð¸
ĠÐ¸ Ð½ÑĭÑı
Ð¼ ÐµÐ»
ĠÐ² Ñı
ĠÐº Ð¾Ð»ÑĮÐºÐ¾
ÑĪ ÑĶ
ĠÐ½Ð° ÐºÐ»Ð°
ĠÐ¿ÑĢ Ð¾Ñĥ
Ð¼ÑĬ ÐºÐµ
êĻĹ Ð¶Ðµ
Ð¾ÑĤ Ð¾Ñĥ
ĠÐ¿ÑĢÐ¸ Ð¼Ð¾Ð»
Ð´Ðµ ÑĪÑĮ
ĠÑĨ Ð²Ñ£
ĠÐ¾Ñĥ Ð¼Ð°
ĠÑģÐ¸ Ð½Ð¾
ĠÑģÐ¸ Ð»ÐµÐ½ÑĬ
ĠÐ¿Ð¾Ñģ Ð»Ð¾Ð²ÑĬ
ĠÐ´Ð¾ ÑģÑĤ
Ð±Ðµ Ð¶Ð¸ÑĤ
ĠÐĳ ÐµÐ»
ĠÐľ Ð¸ÑĤ
ÑģÐºÐ° Ð°Ð³Ð¾
ĠÐ»Ñ£ Ð¿Ð¾ÑĤ
ĠÐºÐ¾Ð½ Ð´ÑĢÐ°
ĠÑĦ ÑĢÑ§
ĠÐµÐ¼Ñĥ Ð¶Ðµ
ĠÐ¿Ð¾Ð² Ð¾Ð»
ĠÐ´ÑĮ Ð¼ÑĮ
ĠÐµÑģ Ð¼Ñ§
ĠÐ¶Ð¸Ð²Ð¾ ÑĤÐ¸Ð½Ð°
ÐµÐ½Ñĭ Ð¸
ĠÐºÐ¾Ð» Ð¾
ĠÑģÑĤÐ¾Ð» Ðµ
ĠÑģÐ¾Ñĥ ÑīÐµ
ĠÐ½ÐµÐ¸ Ð¶Ðµ
ĠÐ¸Ð´Ðµ ÑĪÑĮ
ĠÐŀÑĤ Ð¿ÑĥÑīÐµÐ½Ñĭ
ĠÐ¶Ð¸ÑĤÐ¸ Ñı
ĠÐ´ÑĢÑ¹ Ð¶Ð±Ð°
ĠÐĴÐ¾ ÐµÐ²
ĠÐ²Ð·Ñĭ ÑģÐºÐ°
ĠÐ¿Ð¾Ð³ÑĢÐµ Ð±Ñ£
ĠÐ¿ÑĢÐ°Ð²Ð¸ Ð»Ð°
ĠÐĳÐ» Ð³
ĠÐ·Ð²Ñ£ ÑĢÐ¸
ĠÐµÑģÑĮ Ð¼ÑĬ
ĠÑĢÐ¾ÑģÑĤÐ¸ ÑģÐ»Ð°Ð²
ĠÐ²ÐµÑĢÐµ ÑĪÑĮ
Ð¾Ð³Ð¾Ð² Ð¾ÑĢÐ¸ÑĤ
ĠÑĤÐ°ÑĤÐ° ÑĢÐ¸Ð½Ð°
ĠÑĢÐ¾Ð·Ð±Ð¾Ð¹ Ð½Ð¸ÐºÐ¸
ĠÐ¿Ð¾ÑĨ ÐµÐ»
ĠÑģÐ¼ÐµÐ½ Ð¾Ð²Ð°
ĠÐ¾Ð¶Ð¸ Ð´Ð°
ĠÐ³Ð»ÑĥÐ± Ð¾ÐºÐ¸Ðµ
ĠÐºÐ¾ÑģÑĤÑ§ Ð½ÑĤÐ¸
ĠÐ²ÑĮÑĢÑĮ ÑĪÑĮ
ĠÐ²ÑģÑ£Ð²Ð¾Ð» Ð¾Ð´ÑĬ
ĠÐĲÑĦÐ°Ð½Ð° ÑģÐ¸Ñİ
Ð» Ð¾Ð¼Ð¸
ĠÐ² ÐµÐ½
Ð· Ð¾Ð²Ð°
ĠÐ¾ Ð»Ðµ
ĠÐ³ ÑģÐ¸
ĠÐ½Ðµ Ð´Ñĥ
ĠÐ½Ðµ Ð´êĻĭ
Ð»Ð¸ Ñħ
Ð»Ð¸ ÑħÑĬ
ÐµÐ½ ÑĹÑ§
Ð´Ð° Ð²ÑĬ
Ð¸ÑĤ Ð²Ð°
êĻģ ÐµÐ¼
ĠÐ½Ð¸ ÐºÐ¸
ĠÐ¶ ÑĢÑĮ
ĠÑ¹ ÐºÐ°
ÑĨÐ¸ Ð½Ð¸
Ð»Ñı Ð¹
ĠÐ¿Ð¾Ð³ Ñ¹
ÐµÐ² Ð½Ð°
ĠÎ µ
ĠÑģÐ¿ ÑĢÐ¾Ñģ
ĠÐ³ÑĢÐ°Ð¼Ð¾ÑĤ êĻĭ
ĠÐ¸ÑģÐ¿ ÑĢÐ°Ð²Ð¸ÑĤÐ¸
Ð½Ñĸ Ñı
ĠÑĢêĻĭ Ð±Ð»Ñ§
ÐµÐ½Ð¸ êĻĹ
ĠÑĤÑĢÐµ Ð¿
ĠÑģÐ¾Ðº Ð¾Ð»
ĠÐºÑĢÐµÑģÑĤÑĮÑı Ð½Ð¸Ð½
ĠÐ±ÑĥÐ´Ñĥ ÑĩÐ¸
ĠÐ´Ñī ÑĶÑĢÐ¸
ĠÐ¾ÑĤÐµ ÑĨÑĮ
ĠÐ´Ð¾Ðº Ð»Ð°Ð´
ĠÑĩÑĢÐµ Ð·
ĠÐ´Ð²ÑĮ ÑĢÐ¸
ĠÐ¿Ð¾Ð³Ð¸Ð± ÐµÐ»ÑĮ
ĠÐ¸Ð½Ð° ÐºÐ¾
ĠÐ·Ð°Ñħ Ð°ÑĢ
Ð»Ð¸Ð¼ Ð¿Ð¸Ñı
ĠÐ¿ÑĢÐ¿Ð´Ð± Ð½Ð°Ð³Ð¾
ĠÐ¼Ð¾Ð»ÐµÐ± Ð½Ð°Ñ§
ĠÐ²Ð¾Ð½ÑĮ Ð¶Ðµ
ÑĤ Ð¾Ð²ÑĬ
Ð½ Ð¾Ð¶
Ð» Ð¾Ð³Ð¾
Ð» â¸¯
Ð² Ð½Ð¾Ðµ
Ð² Ð½ÑĭÐ¸
ĠÐ¸ Ð´ÐµÑĤÑĬ
ĠÐ½ Ð½êĻĹ
ÑģÑĤ Ð¾Ð²ÑĬ
Ð³ ÐµÐ»Ð¸
Ñĩ ÑĤ
Ð¿ Ð¸ÑĤ
ÐµÐ¼ Ð°Ð³Ð¾
ĠÐ· Ð¾Ð²Ðµ
ĠÐ´Ð° ÑĤ
ĠÐ´Ð° ÑĢÑ¹
Ð´Ð¸ Ð½Ð°Ð³Ñ¡
êĻĳ Ñ§
ĠÑĢÐ° ÑģÑĤÐ°
ĠÑĢÐ° Ð´Ð¾Ð²Ð°
ĠÐ¾ÑĤ ÑģÐµ
Ð½ÑĮ Ñ¥
Ð²Ðµ ÑĨÑĬ
ĠÐļ Ð¾ÑĢ
ĠÐļ Ð¾Ð½Ðµ
ĠÐ²Ð¾Ð· Ð´ÑĭÑħÐ°
ĠÑ§ Ðº
ĠÐ´Ð¾Ð¼ ÑĮ
ĠÐ»ÑİÐ´ Ñĸ
ĠÑħÐ¾ÑĤ Ñ§ÑĤÑĮ
ĠÐ»Ðµ ÑģÑĤÑĮ
Ð»ÐµÐº ÑģÐ¸
ĠÐ¿ÑĢÐ¾Ð´Ð° Ð²Ð°ÑĤÐ¸
Ð¿Ñ£ Ð»Ð¸
ĠÐ³Ð° Ð»Ð°Ð°
ĠÑģÐ»Ð°Ð² Ñ¹
ĠÐ½Ð°ÐºÐ°Ð·Ð° ÑĤÐ¸
ĠÐ²Ð°ÑĢ Ð²Ð°
ĠÐ±Ð¾ÑĢ Ð·Ð¾
ĠÐ¿ÑĢÐ¸ÑĪ Ð»Ðµ
ĠÐºÐ°Ð¼ÐµÐ½ Ðµ
ĠÐĴÑģÐµ Ð³Ð´Ð°
ĠÐ¿Ð»Ð°ÐºÐ° ÑĤÐ¸
ĠÐ¿Ð¾ÐºÐ»Ð° Ð½Ñı
ĠÐ¿Ð¾Ð»Ð¾ÑĨ ÐºÐ¾Ð³Ð¾
ĠÐ¿ÑĢÐ¾ÑĩÐ¸ Ð¸
ĠÑģÐ¾Ð²Ñ£ÑĤ Ð¾Ð²Ð°ÑĤÐ¸
ĠÑĤÐ¸Ñĥ Ð½Ð¾Ð¼
ĠÏ Ģ
Ð¾ ÑģÑĤÐ°
Ðµ n
Ð¸ Ð½Ð¾
ĠÐ² ÑĤÐµ
Ñĥ Ð¼Ð¾Ñĥ
Ñĩ Ð½Ñĭ
ĠÐ½Ð° Ð²êĻĭ
ĠÐ³ ÑĢÑĭ
Ð»Ð¸ Ðµ
Òĥ .
Ð¶ ÑĸÐµ
Ð¾Ð³ ÑĮ
ÐºÐ° Ð»Ð¸
Ð¼Ð¸ ÑĤÑĮ
ĠÑħ Ñ¹Ð´
ĠÑħ Ð°ÑĢÑ£
ĠÐ½Ð¸ Ð½Ðµ
Ð½ÑĮ ÑĨÐµ
ĠÐºÐ° Ð»ÐµÐ½
ĠÐºÐ° Ð¼Ñ§
ĠÐ¿Ð¾Ñģ ÑĢÐ°Ð¼
ĠÐ±ÑĢÐ° Ð½
ĠÐļ ÑĢÐµ
ÑģÑĤÐ¾ Ñİ
ÑĪÑĮ ÐºÑ£
ĠÐ±ÐµÐ· Ð°ÐºÐ¾Ð½Ð¸
ĠÐķ Ð³Ð¸Ð¿
ĠÐ¿ÐµÑĢ ÐµÐ»
ĠÑģÑ£ ÑģÑĤÐ¸
Ñ³ Ð°Ð½
ÐµÐ½Ð¾ Ð¸
ĠÐ¿Ð¾ÑģÐ»Ð° Ð½Ñĭ
ĠÑģÑĤÐ°ÑĢ ÑĭÐ¹
Ð·Ð¸ ÑĢÐ°ÑĤÐ¸
Ð¾ÑĢÐ° Ð·
ĠÐ·Ð»Ð° ÑĤÐ¾Ð¼ÑĬ
ĠÐ·Ð½Ð° Ð¼ÐµÐ½Ð¸
ĠÐ¿ÑĢÐ¾Ñģ Ð²Ñ£ÑīÐ°
ĠÑĩÑĮ Ð¸
ĠÑģÑĤÐµ Ð¿
ĠÐ°Ð½ Ð³Ð»
ĠÐ·Ð°ÐºÐ¾Ð½ Ñ¹
ĠÐ¿ÑĢÐ°Ð²ÐµÐ´ Ð½Ð°Ð³Ð¾
ĠÐ±ÑĢÐ°ÑĤÐ¸ Ðµ
ĠÐ»Ð¾Ñĥ Ð±Ð¾
ĠÑģÐ²ÑıÑĤÑĭ ÑħÑĬ
ĠÑĤÑĭÑģÑ§ ÑīÑĭ
ĠÐ±Ñ£Ñģ Ð¾Ð²ÑĮ
ĠÐ¿Ð¾ÑħÐ²Ð° Ð»Ñĭ
ĠÐ³Ð¾ÑĢÐ° ÑħÑĬ
ĠÐ¡ÑĤ ÑĢÐ¾ÐºÐ°
ĠÑģÐ¸Ð´ Ð¾ÑĢÐµ
ĠÐ¿ÑĢÐ°Ð· Ð½Ð¸ÐºÐ¸
ĠÑģÐ¼Ð¸ Ð½Ð°
ĠÑģÐ¿Ð°ÑģÐµ Ð½Ð¸Ðµ
ĠÐ¿ÑĢÐ¸ÐµÑħÐ° Ð»ÑĬ
ÐºÐ¾ÑĢÐ¸ Ð·
ĠÐ³ÐµÐ½ÐµÑĢÐ° Ð»Ñĭ
i r
Ð° Ð½Ðµ
ĠÐ´ Ñı
Ð³ Ð¾Ð¹
ÑĪ ÐµÐ¼Ñĥ
ĠÐ½Ð° êĻģÐ½Ð°
ĠÐ¿ÑĢ Ð¸ÑĤÑĬ
Ð¿ Ð¾Ð±
Ð¾ÑĢ Ð¾Ð¼ÑĬ
ĠÐ½Ðµ Ð»
Ð»Ð° Ð½Ñı
Ñĸ ÑĤÐ¸
Ñ¹ ÑīÐ°
ĠÐµ Ñ³Ð¸Ð¼
ĠÐ» Ð¾Ð¶Ð¸
ĠÑģÑĤ Ð³
ÑĢÐ¸ ÑģÑ§
Ð²Ð¸ ÑĨÐ¸
ĠÐ½Ð¸ Ð½Ñ£
ĠÐºÐ° Ñ§
ĠÐ¿ÑĢÐ¾ ÑĩÐ¸Ñħ
ĠÐĳ Ð¸
ĠÑ¹ ÑĤÑ£
ĠÐ¾Ð± ÑĢÑ§
ĠÐ±Ñ£ ÑħÑĬ
ĠÑģÑĤÑĢÐ° ÑĤÐ¸
ĠÑĩÐ¸ Ð½Ð¸ÑĤÑĮ
ĠÐ¿Ðµ Ñģ
Ð½ÑĭÐ¸ Ð¼
ĠÑģÑĥ ÑģÑ£
ÐµÐ² ÑĢÐ°
ĠÐ´Ð²Ð¾ÑĢ Ð¾
ĠÐ´ÑĢ Ð¾Ð²
ĠÐµÐ´Ð¸ Ð½Ð¾Ñİ
ĠÐ²ÑĬêĻģ êĻ¿
ĠÐ¼ÑĮ ÑĢÑĤ
ĠÑħÑĢÐ° Ð¼Ñ£
Ð½Ð¾Ð² ÐµÐ½ÑĸÐµ
ĠÐ½êĻĳ Ð½êĻĹ
ĠÑģÐ¿Ð° ÑĤÑĮ
ĠÑģÐ¿Ð° ÑģÐµÐ½
ĠÐ¾Ð±Ñĭ ÑĩÐ°Ñİ
ĠÑĪÐ¸ ÑĢÐ¸Ð½
ĠÐ²Ð¾Ð»Ð¾ ÑģÑĤÐµÐ»Ð¸
ĠÑģÐ²Ð¸ Ð½ÑĮÐ¸
ĠÑħÐ²Ð° Ð»Ñı
ĠÐĳÐ¾Ð¶Ð¸ Ð¹
ĠÐ´ÐµÐ½ Ð³Ð°
ĠÐ²Ð¸Ð½Ð¾Ð²Ð° ÑĤ
ĠÐ²Ð¸Ð½Ð¾Ð²Ð° ÑĤÑĬ
ĠÐ±Ð¾Ð»Ð³Ð°ÑĢ ÑģÐºÐ¸
ĠÐĽÑĥ ÐºÐ°
ĠÐĺÑģÐ¿ ÑĢ
ĠÑ¡ÑģÑĤÑĢ Ð¾Ð²Ðµ
ĠÐ·Ð´ÑĢÐ°Ð²Ð¸ Ðµ
Ð½Ð°ÑĤÑĨÐ° ÑĤÐ¸
m us
t Ðµ
â ĪĻ
ĭ ®
Ð¼ Ð¾Ð²
Ð¼ ÑĸÐ¸
ĠÐ² Ð½
ĠÐ¾ Ð´Ð¸Ð½ÑĬ
ĠÐ½Ð° ÑĨÐ°
ĠÐ½Ðµ ÑģÑĤÑĮ
Òĥ âĢĲ
ĠÐ¿Ð¾ Óı
ĠÐ¿Ð¾ ÐµÐ´Ð¸
ĠÐ´Ð° Ð²ÑĬ
ĠÑ¡ Ðµ
ĠÐ¿ÑĢÐ¸ Ð¼ÐµÑĤ
ĠÑģÑĬ Ð¼Ð¾ÑĤ
Ġ: Â·
ÑĩÐ¸ Ð½Ðµ
ĠÐ²Ðµ ÑģÑĤÐµ
ÑĤÐ° ÐºÐ¾
ĠÑģÐ¸ ÑħÑĮ
ĠÑģÐ¸ Ð³Ð¾Ð²Ð¾
ĠÐ¼Ð¸ ÑħÐ¸
ĠÐ¼Ð¸ ÐºÐ¾Ñĥ
Ð´Ð¾ ÑħÐ¾Ð¼
ĠÐ²Ð¾Ð· Ñ§ÑĤÐ¸
ĠÐ²Ð¾Ð· ÐµÐ¼Ð¸
ĠÐ³Ð¾ÑĢ Ñİ
ÑĦ Ñĸ
ĠÐ±Ñ£ Ñİ
ĠÐ±Ñ£ Ð»Ð¾Ð½
ĠÐ´Ðµ Ð¶Ñ§
ÑĩÑĮ ÑģÐºÑĭÐ¸
ĠÐ½Ñ£ Ð¶ÑĮ
Ð»Ñĭ Ð¸
ĠÐºÑĥ Ð¾Ð½ÑĮ
ĠÐ¸Ð¼ ÐµÑĤÑĮ
ĠÑİ Ð´Ðµ
ĠÐ²Ð· ÑıÑĤ
ĠÐ³ÑĢÑ£ ÑģÑ£ÑħÑĬ
ĠÐ»Ðµ Ð¶Ð¸ÑĤ
ĠÐ³ÑĢÐ¸Ð² Ð½Ð¾
ĠÐ¿Ð¾Ð± Ð¾Ð¸
ĠÐ±ÑĮ Ð»ÑĬ
ĠÐ±ÑĮ Ð»Ð¾
ĠÐºÐ¾Ñĥ Ð½êĻĳ
ĠÑĩÑİ Ð¶
ĠÐ²Ð¾Ñģ ÐºÑĢÑĮ
ĠÐ»ÑİÐ± Ñ§
ĠÐ¿ÑĢÐ¾Ð´Ð° Ð»Ðµ
ĠÐ¿Ð» Ñ¡
Ð¾Ð±Ð¸ ÑĤÑĮÑ¥
ĠÑĤÑĮ Ð±ÑĮ
ĠÐ³Ð¾ÑģÐ¿Ð¾Ð´ ÑģÑĤÐ²êĻĭ
ĠÐ½êĻĳ Ð½ÑĮ
ĠÐ¼Ð¸ÑħÐ° Ð¸Ð»Ð¸
ĠÐ¿ÑĮ ÑĪÑĮ
ĠÐ²Ð¾Ð´Ð° Ð¸
ĠÐĶÐ¾Ð± ÑĢÐ¾
ĠÐ²ÑĬÑģ ÑħÐ¾
ĠÐłÐ° Ð´Ñĥ
ĠÐ±ÑĬ ÑĢÑĬ
ĠÐ³ÑĢÐ² Ð½Ð¾
ĠÐ±Ð»Ð°Ð³ Ð¾Ð¿
ĠÑ¥ÑģÐ¸ ÑĦÑĥ
ĠÑĤÐ¾Ñĥ Ð´Ð¾ÑĢ
ĠÐ¼Ð¾Ð»Ð¸ÑĤ Ð²Ð¾Ñİ
ĠÐ¤ ÑĢÐ°Ð³Ð¼ÐµÐ½
ĠÐ³Ñİ ÑĢÐµ
ĠÑĨÐ°ÑĢÐµ Ð²Ð°
ĠÐ¢Ð°Ðº Ð¾Ð²Ð°
Ð¶Ð´ ÐµÐ½ÑĸÐµ
ĠÐºÐ»Ñİ ÑĨ
ĠÑĢÐ¾Ñĥ Ð±Ð»Ñ§
ĠÐ¿Ð¾Ð»Ð° ÑĤÑĥ
ĠÐºÑĢÑĮ Ð½Ð¸
ĠÐ¿Ð¾Ð¼ÐµÑģÑĤÑĮÑı Ñħ
ĠÐłÑĥ ÑģÐ¸
ĠÐ½êĻĳÐ½Ðµ ÑĨÐ°
ĠÐºÐ¾ÑĢÐ¾Ð±ÑĮ êĻĹ
Ñ§ÑīÐ° Ñ§
ĠÐºÑ« Ð½ÑĬ
Ð»ÑĶ Ð²ÑĭÐ¼ÑĬ
ÐºÐ¾Ð²Ðµ Ðµ
ĠÐ²Ñ§ ÑĨÑĮ
ĠÐ¿ÐµÑĤÑĢÑĬ ÐºÐ¾Ñĥ
ĠÑĢÐµÐ·Ð° Ð½Ð°
ĠÑĢÐµÐ·Ð° Ð½Ð¾
ĠÐ¿ÐµÑĢÐµÐ¼ Ñĭ
ĠÐ·ÐµÐ» ÐµÐ½Ð°
ÑħÐ¾Ð¶Ð´Ð° ÑĪÐµ
ĠÐĳÐ¾Ð³Ð¾ÑĢÐ¾Ð´Ð¸ ÑĨÐ°
ĠÑĢÐµÐ· Ð²Ñĭ
ĠÐ¸ÑģÐ¿ÑĢÐ° Ð²Ð¸ÑĤÑĮ
ĠÐļÐ°ÑĢ ÑĤÐ°
ĠÐ·Ð¾Ð± Ð½Ð¸ÑĨÐ°
ĠÑħÐ¼ ÐµÐ»
ÑĦÐ¾Ð½Ð¾Ñģ Ñĥ
ĠÑģÑĤÑĮÐ¿Ð° Ð½Ð°
ĠÐºÐ¾Ð± êĻĳ
ĠÑħÑ£ ÑĢÐ¸
ĠÑģÑĤÐ¾Ð»Ð± ÑĨÐµ
ĠÑĤÑĥÑĢÐ° Ð±ÑĮÑ¥
ĠÑģÐ¿Ð¾Ð´Ð¸ Ð½Ðµ
ĠV ir
ĠÑĢêĻĳÐ±Ð° ÑħÑĬ
ĠÑħÐ°ÑĢÑ£ ÑĤ
ÑĢ êĻ¿
Ñģ ÐµÐ»
Ñģ Ð°Ðº
Ð´ Ð¾Ð²Ðµ
Ñħ ÑĢÑĸ
Ð± Ð»ÐµÐ½Ð¸Ðµ
ĠÐ¾ Ð³ÑĢÐ°
ĠÐ¿ÑĢ Ð¸ÑĤÐµ
ĠÐ³ Ð»Ñı
ĠÐ½Ðµ Ð¾Ñĥ
Ð½Ð¸ ÑĩÐ¸Ñħ
Ñī ÐµÐ¼Ñĥ
Ñī ÐµÐ½ÑĮÐµ
ĠÐµ Ñ«
Ð²Ð° Ð°Ð³Ð¾
ÐºÐ° Ð»
ĠÑģÑĤ Ð¾Ð¿
Ð¾ÑĤ Ñ¹
ĠÑ¡ Ð½Ð´ÑĢÑ£
Ð¼Ð¸ Ð½ÑĬ
ÑĢÐµ Ð²
ÑģÐ¸ Ð²ÑĬ
ĠÑģÐ¸ ÑĢÐµ
ÑĩÐ° ÐµÑĤÑĬ
ĠÐ¸Ð· Ð½ÐµÐ¼
ĠÑĸ Ð½
Ð¾Ð²Ð¸ ÑĨÐ°
ĠÐ¿Ð¾Ðº ÑĢÐ¾Ð²
ĠÐľ Ð½Ðµ
ĠÐºÐ¾ÑĢ Ð½Ð¸
ĠÑĤÑĢ Ð¸ÑĤÑĨÐ°
Ð²ÐµÐ´ Ð¾ÑĪÐ°
ĠÐ»Ð° ÑĤÑĭ
ĠÐ¿Ð¾Ð¸ Ð´ÐµÑĤÑĮ
ĠÐ¿ÑĢÐ¾Ð´Ð° Ð²Ð°ÑĤÑĮ
ĠÑģÑ« ÑīÐ°
ĠÐ²êĻĳ ÑĪÑĮ
ÐºÐ¾Ð» ÑİÐ±
Ð½Ð¸ÑĨÐ° Ð¼Ð¸
ĠÐ¾Ð±Ñĭ ÑĩÐ°Ð¸
ĠÐ´ÑĢÐ¾Ñĥ Ð³Ð¾
ĠÑ¡Ñģ Ñ«
ĠÐ±Ð¾Ð»Ñ£ Ð·
ĠÐ±ÐµÑģÑ£ Ð´Ñĥ
ĠÑĤÐ°ÐºÐ¾Ð²Ð¾ Ðµ
ĠÐ¾ÑĥÑĩ Ð¸ÑĤÑĬ
ĠÑģÐ¸Ð´ Ð¾ÑĢÑĥ
ĠÐ¿ÑĢÐ°Ð· Ð½Ð¸ÐºÑĬ
ĠÐ¿ÐµÑĢÐ² Ð¾Ð¹
ĠÐ´Ð¾ÑĢÐ¾Ð³ Ñĥ
ĠêĻĹÑĢÐ¾ÑģÐ»Ð° Ð²Ð°
ĠÐ²ÐµÐ· Ð´Ðµ
Ð·Ð½ ÐµÐ½Ð¾
ĠÐĿÐ°ÑģÑĤÐ°ÑģÑĮ Ñı
ĠÐ³ÐµÐ½ Ð²Ð°
âĢ» âĢ»
Ð» Ð¾Ð²Ð¾
ĠÑĩ ÐµÑĤÑĬ
êĻĹ Ð½Ð¸
ĠÑĥ Ð·Ð½Ð°
ĠÑħ ÑĮ
ÑģÑĤÑĮ Ñĸ
ÑĩÐ¸ ÑģÑ§
Ð½Ñ£ Ð¼
ĠÐ¶ Ð¾Ð½Ð°
ĠÐ¾ÑĤ ÐºÑĥ
ĠÐĴ Ð´Ñ£
Ð»ÑĮ Ð½Ð¸
ĠÑĤÐ° ÑĦ
Ð¾Ð´Ð¸ ÑĤÑĮ
Ð¿Ð¸ Ð»ÑĬ
ÑħÐ° ÑĤÑĮ
ĠÐ±ÐµÐ· Ð´
ĠÑģÑĤÑĢÐ° ÑħÐ¾Ð¼
ĠÐ²ÐµÐ» ÐºÑĭ
ĠÐ³Ð»Ð°Ð³Ð¾Ð» ÑİÑīÐ¸
ĠÐ¿Ð¾Ð¿ ÑĢÐ¸
ĠÐ¼Ñĭ ÑĤ
ĠÐ¿Ð¾Ð¸ Ð´Ð¾Ñħ
ĠÐ²Ð¾Ñģ Ñħ
ĠÐ´ÐµÑĢ Ð¶Ð¸ÑĤ
ĠÑĩÐµÐ»Ð¾Ð²Ðµ ÐºÐ¾Ð¼
ĠÐºÐ½Ð¸ Ð³ÑĬ
ĠÐ³Ð¾ÑģÐ¿Ð¾Ð´Ð¸ Ð½êĻĭ
ÑĢÐ¾Ð¼ Ðµ
ĠÐ²ÑĬÑģÐº ÑĢÑ£
ĠÐ¾ÑĥÐ¼ ÑĢÐµ
ĠÐ¿ÑĢÐ¿Ð± Ð½Ñĭ
ĠÐ¡Ñĭ Ð½Ðµ
ĠÐĺÐ»ÑĮ Ð¸
ĠÐ±ÑĥÐ´Ðµ ÑĪÑĮ
ĠÑĪÐµÐ´ ÑĪÐµ
ĠÑĤÑĢÐµÐ± Ñĥ
ĠÑĤÐ°Ð¼ Ð¾Ð¶ÐµÐ½
ĠÐ½Ð°Ð¼Ñ£ Ñģ
Ð¼Ð½ Ð¾Ð¶Ð¸
ĠÐ±Ð»Ñ¹ Ð´ÑĬ
ĠÐ²ÑģÐµÐ´ÐµÑĢ Ð¶Ð¸ÑĤÐµÐ»ÑĮ
ĠÑīÑĮ ÑĤÑĮ
ĠÑģ ÐµÐ»ÑĬ
ĠÑģ Ð¿Ð¾Ð´Ð¾Ð±
Ð´ ÑĢÐ¾ÑģÑĤÑĮ
Ð± ÐµÐ½
ĠÐ³ Ð»Ð¸
ĠÐ½Ðµ Ð²Ð¾
ĠÑĢ Ð¾Ð±Ð°
ÑĨ ÐµÐ½
ĠÐ· Ñ£
ĠÐ· Ð±ÐµÐ¶Ð°
ÑĢÐµ Ð²Ñ¹
Ð¼Ð° ÑĪÐµ
ÑĤÐ° Ð°Ð³Ð¾
ĠÐ¿Ð° ÑģÑĤÐ¸
ÑīÐ¸ Ð¸ÑħÑĬ
ĠÐ´Ñ£ Ð²
ĠÑĢÑĥ ÑĨÐµ
ĠÑĩÐµÐ» Ð¾
ĠÑ» Ð±
Ð´Ñĭ Ð¹
ĠÐºÐ¾ÑĤÐ¾ÑĢ Ð¾Ð¼Ñĥ
ĠÑĤÑĢ ÑĸÐµ
ĠÑģÐ¿ Ð¾Ñģ
ĠÑħÐ¾ ÑĪÑĮ
ĠÑģÐ°Ð¼ Ð¾Ð´ÑĢÑĬ
ĠÑģÐµÐ¼ Ðµ
ĠÐ¿ÑĢÐ¾Ð´Ð° ÑĤÑĮ
ĠÐ²ÑģÐ¸ ÑħÑĬ
ÐºêĻĭ Ñİ
ĠÑģÐºÐ° êĻģÐ°
ÑĪÑĤÐ¸ Ð¸ÑħÑĬ
ĠÐ´ÑĢêĻĭ Ð³Ð¸
ĠÑĤÑ¹ ÑĤÐ¾
ÑĩÐ¸ÑĤ ÑģÑı
ĠÑĩÐµÐ»Ð¾Ð±Ð¸ÑĤ Ð½Ð¾Ð¸
ĠÐ¿ÑĢÐ¸Ð½Ð¾ ÑģÑ§
ĠÑħÑĢÐ¸ÑģÑĤÐ¸ Ð°Ð½
ĠÑĢÐ¾Ð¶ Ð´ÐµÐ½
ĠÐ»ÑĥÐºÐ° Ð²
ĠÐĵÐ»Ð°Ð³Ð¾Ð» ÐµÑĤÑĮ
ĠÐ²ÐºÑĥ Ð¿Ñ£
. }
ÑĤ Ð²ÑĬ
Ð½ ÐµÐ½ÑĸÐµ
ĠÐ´ Ð¾Ð²Ñ£
Ñ§ Ð½ÑĸÑ§
Ñı Ð½Ð¾Ð¼
Ð· Ð¾Ñĥ
ĠÐ³ Ð¿
Ð¿ ÑģÐ°
ÑĨ Ð°ÑĢ
ÑĨ ÐºÑĥÑİ
ĠÑ¡ ÑĤÐ¾
ĠÑĥ ÑħÐ²Ð°ÑĤÐ¸
ĠÐ¸Ð· Ð±
Ð¶Ð° Ð»
ĠÐ¢ êĻĳ
ÑĨÐµ Ð²
ĠÑĢÐ°Ð· ÑģÑ£
ÑģÑĤÐµ ÑħÑĬ
ĠÒĨ .
Ð±ÑĢÐ° Ð½Ð¾
ĠÑģÑ£ Ð´Ð¾ÑĪÐ°
Ñ³ Ð¾ÑĢ
ĠÐºÑĢ Ñ¹
ĠÐ³ÑĢÐ°Ð¼Ð¾ÑĤ Ð¾Ñİ
ĠÐ²Ð»Ð° ÑģÑĤÐµÐ»Ð¸
ĠÐ¿Ð¸ÑģÐ° Ð»Ð¸
ĠÐ¿Ð¸ÑģÐ° Ð½ÑĸÐ°
ĠÐŁÐ¾ Ð¸Ð´Ð¸
ĠÐ¿Ð¾ÐºÐ»Ð¾Ð½ Ð¸ÑĤÐ¸
ĠÐ¼ÑĮ Ñĸ
ĠÐ´Ð¸ Ð²Ð½Ð¾
ĠÑĤÑı Ð¶
Ð½Ð¸ÑĤ ÑģÑı
ĠÐŁÑĢ ÑĸÐ¸
ĠÐºÑĥÐ¿ Ð»Ð¸
ĠÐ¶Ð¸ÑĤ ÑĸÐ¸
ĠÑĨÐ°ÑĢÐµ Ð²Ñĥ
ĠÐ¿Ð°Ð² Ð»Ðµ
ĠÐŁÑĢÐµ ÑĩÐ¸
ĠÑĢÑ¹ÐºÐ¾Ð´Ñ£ Ð»ÑĮÑİ
ĠÑģÐµÑģÑĤ ÑĢÑĥ
ĠÐ±ÑĢÐ°ÑĪ Ð¾Ð²
ĠÐ²ÑĤÐ¾ÑĢ Ð¾Ð¹
ĠÐ¼Ð°ÐºÑģÐ¸ Ð¼Ð°
ĠÐľÐ°Ð³Ð¸ Ð»ÐµÐ½Ð°
ĠÐ·Ð°Ð¿Ð»Ð° ÑĤÐ¸ÑĤÐ¸
ĠÐ½Ð¾Ð²Ñĥ Ð³Ð¾ÑĢÐ¾Ð´Ñĥ
Ð» Ð¾Ð²Ð¸ÑĩÐ°
Ñĭ Ð½Ð¸
ĠÐº Ð¾Ð¼Ð¾Ñĥ
ĠÐ¾ Ðµ
Ð¾Ð³ êĻĳ
Ð´Ð° ÑĤ
ĠÐĲ Ð²ÑĢÐ°Ð°
ĠÑ¡ ÑģÐº
ĠÐ²Ñģ ÐµÐ¼ÑĮ
ĠÑ¿ Ð¸Ð´Ð¾ÑĪÐ°
ÑĢÐµ ÑīÐ¸
ĠÐ¾Ñĥ Ð±ÑĮ
ÑĩÐ¸ Ðº
Ð¼Ð° ÑĤÐ°
ĠÐ²Ð¾ ÑģÑĤÐ¾Ñĩ
ĠÐ¾ÑĤ ÑĨÑĭ
Ð¾Ð¿ ÑĢÐµ
ĠÐ¿Ð¾Ð» ÑĤÐ¾ÑĢÐ°
ÑĢÑĮ Ñĸ
Ð»Ñ£ Ð½ÑĮ
ĠÐ±Ðµ Ð³Ð°Ñħ
Ð±Ð¸ ÑĢÐ°ÑĤÐ¸
ĠÐ¿ÑĢÐµ Ð´Ð°ÑĤÐ¸
ÑĹ Ð¸Ð¼ÑĬ
ĠÐ²Ð¾Ð· Ð½ÐµÑģ
ĠÑ¹ Ð²Ñ£
ÑģÐºÐ¸ Ð¼Ð°
Ð»Ñ§ ÑĪÐµ
êĻ¿ Ð½Ð°
Ð±Ð° ÑĤÐ¸
ĠÑĢÐ°Ð· Ð±Ð¾Ð¹
ĠÑģÑĤÐ° Ð°Ð³Ð¾
ĠÑħÐ¾ ÑĤÑĮ
Ð²ÐµÐ´ ÑĬ
ĠÐºÐ¾Ð» Ð¾Ð¼
ĠÐºÐ¾Ð» Ð¾Ðº
ĠÑĤÑĮ ÑĢ
ĠÑģÐºÐ° Ð¶Ñĥ
ĠÐºÐ½Ð¸ Ð³êĻĭ
ĠÐ¿ÐµÑĤ ÑĢÑĥ
ĠÐ´Ð¾Ð» Ð³
ĠÑħÐ¾Ð»Ð¾Ð¿ ÑģÑĤÐ²Ðµ
Ð¸ÑĤÐµÐ» Ñ§
ĠÑģÑĢ ÑĨÐ°
ĠÐ¿Ð¾ÑģÑĤÐ°Ð²Ð¸ ÑĤÑĮ
ĠÐ¼Ð¾Ð»Ð¾Ð´ ÑĨÑĭ
ĠÐĶÐ¾Ð±ÑĢÑĭ Ð½Ð¸
ĠÐºÐ»Ñİ ÑĩÐ¸
ĠÑģÑĤÐ²Ð¾ÑĢÐ¸ Ð»ÑĬ
ĠÐ²ÑĬÑģÐº ÑĢÑĮ
ĠÐºÐ¾ÑĢÐ° Ð±
ĠÐ¼Ð¸ÑĢ Ð¾Ð¼ÑĬ
ĠÐ¿ÑĢÐ¸Ð½Ð¾ ÑģÐ¸
Ð½Ð¸ÑĨ Ð¾Ñĥ
ĠÐ¿ÑĢÐµÐ¶ Ð½ÐµÐ¼Ñĥ
ĠÐ´ÐµÑĤ Ð¼Ð¸
ĠÑ¿Ð´Ð° ÑģÑĤÑĬ
ĠÐ²ÑģÐµÐ²Ð¾Ð» Ð¾Ð´Ð°
ĠÐĴÑģÐµ Ð²Ð¾Ð»
ĠÐ¿ÑģÐº Ð¾Ð²Ð¸ÑĩÐ¸
ĠÐ²Ð¾ÑĤÑĩÐ¸Ð½Ð° Ñħ
ĠÐľÑĥÑĢÐ¾Ð¼ ÑĨÐ°
ĠÐ²Ð¾Ð¸Ð½ ÑģÑĤÐ²Ð¾
ĠÐ³ÑİÑĢÐ³ Ñİ
ĠÑģÐ°Ð¶Ðµ Ð½ÑĮ
-------- --------
ĠÐ°Ð½Ð´ ÑĢÐµ
ĠÑģÑĬÐ¼ÑĢÑĮ ÑĤÑĮ
ĠÐ²Ð¾Ð»Ð¾Ðº Ð¸ÑĤÑĭ
ĠÐĳÑĥÐ´ ÐµÑĤÑĮ
ĠÐ¿ÑĢÐ¸ÑģÑĤÐ°Ð½Ð¸ ÑīÐµ
Ð» ÑĤÐ°ÑĢ
Ð² ÐµÐ½ÑĮ
Ð´ ÑĢÐ¾Ñĥ
ÑĪ Ðº
ĠÑĢ Ð¾Ð³ÑĬ
Ð»Ð¸ Ð²
ĠÐ¿Ð¾ êĻģ
ĠÑ¿ Ð´Ð°ÑĤÐ¸
Ð°ÑĢ Ð¾
ÑģÑĤÐ¸ Ð½Ð°
Ð¾Ð²Ð° Ð»Ð¸
ÑĤÐ° Ð½Ð°
ĠÑģÐ° Ð²
ĠÐ¸Ð· Ð¼
ĠÐ»Ð¸ ÑĨÐµÐ¼Ñ£
Ð²Ðµ Ðµ
ĠÐĳ Ð³
ĠÑĢÐ°Ð· Ð´ÑĢÐ°
ĠÐ±Ð» Ð³Ð¾ÑģÐ»Ð¾Ð²
ĠÑĤÐ°Ðº Ð¾Ð¼
Ð¾Ð²Ñĭ Ð¹
ĠÐ¸Ð¼Ð° ÑĤÐµ
ĠÑĤÑĢ ÑĥÐ´
ĠÐ´Ð¾Ð±ÑĢ Ð¾Ð´
ĠÐ½Ð°Ñģ Ð¾
ĠÐ£ ÑģÐ»ÑĭÑĪÐ°
ĠÑĢÐ¾ ÑģÑĤÐ¾Ð²
ÑģÑĤÐ¾Ð¸ ÑĤÑĮ
ĠÐ²Ð·Ñı ÑĤÐ¾
ĠÑģÐ¾ÑĢ Ð¾ÐºÐ¾
ĠÑģÑĢÐµ Ð´
ĠÐ³ÑĢÑ§ Ð·
ĠÐ¸ÑģÑĤ Ð¾ÑĢ
ĠÐ¿ÑĢÐµÐ¶ Ð½Ð¸Ñħ
ĠÐ¼Ð°Ð» ÐµÐ½ÑĮ
ĠÑ¡Ð´ Ð¾Ð»Ñ£
ĠÐ¼Ð°ÑĤÑĥ ÑĪÐºÐ¸
ĠÐ¿ÑĢÐ¾Ð¼Ðµ Ð¶Ñİ
ĠÑģÐºÐ²ÐµÑĢ Ð½Ð¾
ĠÐ¿Ð¾ÑĩÐµ Ð»Ð°
ĠÑģÐµÑĢÐ³ ÑĸÑ§
ĠÑħÐ¾ÑĩÐµ ÑĪÐ¸
ĠÑģÐ°Ð¼Ð¾Ð´ÐµÑĢ Ð¶
ĠÐ³ÐµÑ¡ ÑĢÐ³Ð¸
ÑĤ Ð¾ÑģÐ»Ð°Ð²ÑĬ
ĠÐº ÐµÐ´
Ð· Ð±ÑĢÐ°Ð½
ĠÐ» Ð¾Ð¶Ð½Ð¾
Ð´Ð° ÐµÑĤ
Ð¾Ð± Ñĥ
Ð¾Ð± Ð¸ÑĤÐ¸
ĠÑģÑĤ ÑĢêĻĭ
ĠÑ¡ ÑģÐ»Ð°
ĠÐ¿ÑĢÐ¸ Ð±êĻĳ
ĠÐ·Ð° Ð¸
Ð½Ðµ Ð½Ð¸Ðµ
ĠÑĢÐ° ÑģÐ»Ð°
Ð¼Ð° Ð°
Ð¾Ð¿ Ð»ÐµÐ¼
ĠÑģÐ» Ð¾Ð¶Ð¸
ĠÐ²Ñ£ Ð»Ð¸
ÑħÐ° Ð»
ÑīÐ¸ Ð½Ñĥ
ÑģÐ» Ð¾Ð²Ð¾
ĠÑ¹ Ñģ
ĠÐľ ÑĮ
ÑĪÑĮ ÐºÐµ
ĠÑ» ÑģÑĤÐ°Ð²Ð¸
ĠÐ¿ÑĢÑ£ Ð¸
ĠÑģÐº Ð²ÑĢÑĬ
ĠÐ²Ð¾Ð» Ð¾Ð´
ĠÐ¸Ñħ êĻ¿Ð¶Ðµ
Ð¶ÑĮ Ð´Ð¾
Ñ³ Ñĸ
ĠÐ´Ð²Ð¾ÑĢ Ñ¹
Ñµ Ð¼
ĠÐ²ÑĬêĻģ ÑĢÐ°
ĠÐ½Ð°ÑĩÐ° Ð»Ð°
Ð»ÐµÐ² êĻĭ
ĠÐ¼Ð¾Ð¶Ðµ ÑĤÐµ
ĠÐ½Ð°Ð¿Ð¸ÑģÐ° Ð½
ĠÐ·Ð°Ð¿Ð¸ ÑĢÐ°
ĠÐĵÐ¾ÑģÐ¿Ð¾Ð´ ÐµÐ½ÑĮ
ĠÐ¿Ñ¹ ÑģÑĤÐ¾
ĠÑĨÐ°ÑĢÐµ Ð¸
ĠÐ´ÐµÐ² ÑıÑĤÑĮ
ĠÐŁÐ¾Ñģ Ð»Ñ£
ĠÐ¿ÑĢÐ¸ÑħÐ¾Ð´ Ñ§
ĠÑħÑĢÐ¸ÑģÑĤ Ð¾Ð²Ð°
ĠÑĥÐ´Ð° ÑĢÐ¸Ð»
ĠÐ¸ÑģÑĤÐ¸Ð½ Ð½Ð¾
ĠÐ²ÑĤÐ¾ÑĢ ÑĭÐ¸
ĠÐ¾ÑĥÐ¼Ñ£ ÐµÑĤÑĬ
ĠÐ±Ð¶Ð¸ Ð¸
ĠÐ¿Ð¾Ð³Ð¾ ÑģÑĤÑĬ
ĠÐ´Ð¾Ð¼Ð°ÑĪ Ð½ÐµÐ¸
ĠÐ¼ÐµÑģÑĤÐµ Ñħ
ĠÑģÐ¸ÑĢÑ£ ÑĩÑĮ
Ð½ Ð½ÑĭÑħ
Ñģ ÐµÐ»ÑĮ
Ð² Ð»Ñĥ
ĠÑģ Ð½ÑĮ
ĠÐ¸ Ð¶
Ðº ÑĤ
Ð´ ÑĤÑĮ
ĠÑĤ Ñİ
ÑģÑĤ ÑĸÐ°
Ñħ Ð¾Ð¶Ð¸
Ñı Ð»ÑĬ
Ñĩ Ð½ÑĭÑı
ÑĤÐ¸ Ð»Ð¸
Ð¶ êĻĻ
ĠÐ²ÑĬ Ð¿ÑĢÐ¾ÑģÐ¸
ĠÐĲ ÑĩÐµ
ÑĢÐ¸ Ð½Ñĭ
ĠÐ¿ÑĢÐ¸ ÑģÑ£
ĠÑĥ ÑĤÑ£
ĠÐ·Ð° ÑĤÐ¾
ĠÑĤÐ¾ Ð°
ĠÐ¿Ð¾Ð» ÑģÐºÐ¾Ð¸
ÑĩÐ° Ñħ
ĠÐºÐ° ÑĤÐ¾ÑĢ
ÑĤÐµ ÑĢÐ°
ĠÐĶ Ð²Ð°
ĠÐ²Ñ£ ÑĢÐ¾
Ð¶Ð¸ Ð¾
ĠÐŀ Ð±ÑĢÐ°
ĠÐľ Ð»
ĠÑ» Ð½Ð°
Ð·Ñĭ Ð´Ð¾ÑĪÐ°
ĠÑķ Ð»
ĠÎ º
ĠÐ¸Ð¼Ð° ÑĪÐµ
ĠÐĽ Ð¸ÑĤÐ¾Ð²
Ð¸Ð¼ ÐµÑĤÑĮ
Ġ- --
ĠÑĨÐ° ÑĢÐ°
Ð½Ñĸ ÐµÐ¼
ĠÐºÐ°Ð· Ð½Ñĥ
ĠÐ²Ð°ÑģÐ¸ Ð»ÐºÐ¾
ĠÐºÐ¸ ÑģÐ»
ĠÐ±ÑĭÐ²Ð° Ð»Ð¾
ĠÑģÐ¿Ð° ÑģÑĤÐ¸
ĠÐŁÑĢ Ð¾Ñģ
ĠÐ²Ð¾Ð·Ð¼ ÐµÑĤÑĮ
ĠÐ½Ð°ÐºÐ° Ð·ÑĬ
ĠÐºÑĢÐ°Ð»ÐµÐ² Ð½Ñĭ
ĠÐ°ÑĢÑħ Ðµ
ĠÐ·Ð°Ðº Ð¾Ð½Ðµ
ĠÑģÐµÑģÑĤ ÑĢÑĭ
ĠÐ¸Ð¼Ð¸ Ð¶Ðµ
ĠÑĢÑı Ð´
ĠÐ¿ÑĢÐ¾Ð¶ Ð¸ÑĤÐ¾Ðº
ĠÐ¿ÑĢÐ¾ÑģÐ²Ñ£ ÑĤÐ¸
ĠÐĺÐ³Ð½Ð° ÑĤÑĮ
ĠÐ½Ð¾Ñı Ð±ÑĢÑı
ÑĢ Ð¼Ñĭ
ĠÑģ Ð¼ÑĮÑĢ
ĠÐ¸ Ð¸
ĠÐ² Ð¸ÑĤÐ°
ĠÐº Ð½Ñĸ
ĠÐº Ð»Ð°Ð´
ĠÐ¾ ÑĩÐµ
ĠÐ° Ð±Ð¾
ĠÐ» ÐºÑĬ
ĠÐ¶Ðµ Ð½êĻĳ
ÐºÐ° ÑĤÐ°
ĠÑĩ ÑĤÐ¸ÑĤÐ¸
ĠÑģÑĤ Ñı
ĠÑ¿ Ð²ÑĢÐ°ÑĤÐ¸
Ð¼Ð¸ Ñı
êĻģ êĻ¿
ĠÑģÑĬ Ð·Ð´Ð°
ÑģÑĤÐ° Ð²ÑĮ
ĠêĻĹ Ð²Ð»ÐµÐ½
ĠÐĴ ÐµÐ»
ĠÐ¼Ð¸ Ð½Ñĥ
Ð»Ñ£ ÑħÑĬ
ÑīÐ° Ð³Ñ¡
ĠÐ¿Ð° ÑĪÐ½Ð¸
ĠÐ²Ñĭ ÑĪÐ»Ð¸
ĠÑ¹ ÑģÐ¿Ñ£
ĠÐ¿Ð¸ ÑĤÑĮÑ§
ĠÐ±ÑĥÐ´ ÐµÑĤÐµ
ĠÑĢÐ°Ð· ÑĢÑĭ
ÑĤÑĭ Ñı
ĠÐĵ Ñģ
ĠÑģÐ¾Ð± ÐµÑĢ
ĠÐºÑĢ Ñī
ĠÐ´Ð²Ð¾ÑĢ ÑıÐ½Ðµ
ĠÑģÑĤÐ°ÑĢ ÑĭÐ¼
ĠÐ¿Ð¾Ð± Ð¸ÑĤÐ¸
ĠÐ´Ñĥ ÑĪÑİ
ĠÑģêĻĭ Ð´Ð¸
ĠÑĩÐµÐ»Ð¾Ð²Ðµ ÑĩÐµ
ĠÑĩÐµÐ»Ð¾Ð²Ñ£ ÐºÐ¾Ð¼ÑĬ
Ð»Ð¾Ð¶Ð¸ ÑĤÐ¸
Ð²ÑĪ Ñ¹
ĠÑģÑĤÐµ ÑĦÐ°Ð½Ð°
ĠÑĢÐ¾Ñģ Ð¾Ð»Ðµ
ĠÐ±Ð¾ÑĢÐ¸ ÑģÑĬ
ĠÐ¿Ð¾ÐºÐ»Ð°Ð½Ñ§ Ð½ÑĮÐµ
ĠÐ½Ð¾Ñģ ÑĬ
ĠÑģÑĸ Ð¼Ñ¡
ĠÐ·Ð°Ð¼ ÐºÐ¾Ð¼ÑĬ
ĠÑ¿Ð´Ð° Ð²Ð°ÑĤÐ¸
ĠÐ¿ÑĢÐ¸ÑĤ ÑĩÐ¸
ĠÑĩÑĢÐµ Ð·ÑĬ
Ð³Ð¾ÑĤ Ð¾Ð²Ð¸
ĠÐ¸Ð¼Ñĥ ÑīÐµ
ĠÑ¿ÑĤ Ð¾Ð»Ñ£
ĠÐºÑĢÐµÑģÑĤÑĮÑıÐ½Ðµ Ñħ
ĠÐĲÐ´Ð° Ð¼
ĠÐ¿ÑĢÐ¿Ð´Ð± Ð½ÑĭÐ¸
ĠÐ¿ÑĢÐ¸Ð»Ðµ Ð¶Ð½Ð¾
ÑģÐ»Ð¾Ð²Ðµ Ñģ
Ð»ÐµÐ²ÐµÑĤ Ð°
ĠÑģÑĤÐ°ÑĢÐµ ÑĨÑĮ
Ħ ĸ
ÑĤ ÐµÐ½ÑĬ
Ð½ ÑģÐºÐ¾Ð³Ð¾
Ð» ÐµÐ½ÑĮÐµ
ĠÑģ Ð½Ñ§
ĠÐ½ ÑĢÐ°
Ñĩ Ð½ÑĭÐ¸
Ñĩ Ð½Ð¾Ð¸
ĠÐ½Ð° Ð²Ð¾Ð´
ĠÐ½Ð° Ð²ÐµÐ´Ðµ
Ð¿ Ð¾Ð»ÑĮ
ĠÑĢ Ð¾Ð³Ð°
Ñī ÐµÐ¼êĻĭ
ÐµÐ½ Ñ¹
Ð½Ð° Ñ³
Ð²Ð° Ð³Ñ¡
Ð½Ð¾ ÑŃ
ĠÑĨ Ð¾Ð³Ð¾
ĠÐ¾Ñĥ Ð±ÑĭÑĤÐ¾ÐºÑĬ
ĠÐ¾Ñĥ Ð¿ÑĢÐ¾Ð´Ð°
ĠÑģÑĬ Ð´ÑĢÑĬ
Ð²ÑĬ ÑĪÐ°
ĠÐ²Ðµ Ð´ÐµÑĤ
ĠêĻĹ ÑĪÐ°
Ð¾Ð¿ ÑĮ
ĠÑģÐ» Ñģ
ĠÐ²Ñ£ ÑģÑĤ
ĠÐ¿Ð° ÑĤÐ¾Ðº
ĠÐ±ÑĢÐ° Ð³Ð°
ĠÐ¿ÑĢÐµ Ð¿Ð¸Ñģ
ĠÐ¿Ð¾Ðº Ð¾ÑĢÐµ
ĠÐŀ ÑĦÐ¸Ð¼ÑĮ
ĠÑĪ Ð²ÐµÐ´
ĠÑĤÑĭ Ð¼
Ð»Ñı Ð½
ĠÐ¼Ñ£ ÑĢ
ĠÑĩÐ¸ Ð½
ĠÐķ Ð»Ð¸ÐºÐ¾
ĠÐ¾Ð½ Ð±Ð°
ĠÐ¿Ð¾Ð² Ð¾ÑĢ
ĠÑģÐ¼ ÑĭÑĪ
ĠÑģÑ¹ Ð½Ð´Ñ¹
ĠÐ±ÑĢÐ°ÑĤ êĻĭ
ĠÐ¼Ñ¹ ÐºÐ°
ĠÐ½Ð¸Ðº Ð¾Ð³Ð¾Ð¶Ðµ
ĠÐ±Ñ¹ Ð´ÑĮ
ĠÑģÑĭÐ½ Ð¾Ð²
Ð³Ð¾ÑĢÐ¾Ð´ Ñ¹
ĠÐ³Ð° Ð»
ĠêĻģÐ° Ð¿
ĠÑĩÐµÐ»Ð¾Ð²Ðµ ÐºÐµ
ĠÐ½Ð°ÑĪÐ¸ Ð¼Ð¸
ĠÐ±ÐµÑģ Ð¾Ð²
ÑĤÑĢ Ð¾Ð±
ĠÐ³Ð¾Ð´ ÐµÑħ
ĠÑģÐ»Ñ¹ ÑĪÐºÐ°
ĠÑģÐ¾Ñĥ Ð´Ð¸
ĠÐºÑ¹ Ð¿Ð¸ÑĤÑĮ
Ġâ Ħĸ
ĠÐºÐ¸ Ð½Ð¾Ð²
ĠÑĨÐµÑĢ ÐºÐ²Ðµ
ĠÐ¿ÑĢÐ¸ÐºÐ°Ð· Ñ¹
ĠÐ½Ð°ÐºÐ°Ð·Ð° Ð½ÑĹÐµ
ĠÑĥÑĩÐ¸ Ð½ÑıÑĤ
ĠÐ³Ð¾Ð²Ð¾ÑĢÐ¸ Ð»Ð¸
ĠÑĤÐµÑĢ ÐµÐ¼
ĠÐ²Ð¿ Ð¾Ð»Ð½Ðµ
ĠÐ¸ÑģÐº ÐµÑħ
ĠÑĢÐ°Ð´ Ð¾ÑģÐ»Ð°Ð²Ð°
ĠÐ¿Ð¾Ð³Ð¸ Ð±Ð°
ĠÐĴÑĭ ÑħÐ¾Ð´Ð¸Ð»
ĠÐ¶Ð°Ð»Ð¾Ð²Ð° Ð»ÑĮ
ĠÐ³Ð¾ÑĤ Ð¾Ð²
ĠÑģêĻĳ Ð½Ð¾
ĠÐºÑĢÑĬ Ð²Ð¸
ĠÑģÑĤÐ¾Ð»ÑĮ Ð½Ñĳ
ĠÐ³Ñ¹ ÑīÐ°
ĠÐ±Ñ£Ð» ÐºÐ¸
ĠÐ½Ð°Ð¼ÐµÑģÑĤ Ð½Ð¸ÐºÐ¾Ð¼
ĠÐ±ÑĮÑĸ ÑĤÐ¸
ĠÐ¾ÐºÐ° ÑıÐ½
ĠÐĳÐµÑĢ Ð´Ð¾Ð²Ñĥ
Ð½Ð¾Ð¿Ð»ÐµÐ¼ ÑĶÐ½
ĠÐ¼Ñ§Ñģ Ð½Ð°Ñ§
Ð»ÐµÐºÑģÐµ Ñı
ĠÐ²ÑĭÑģÐ»Ñĥ Ð¶Ðµ
ĠÑĥÐ±ÑĮ ÐµÑĤ
ĠÐ²ÐµÑĤÑĪÐ° Ð½Ð¾Ðµ
ĠÐ²Ñ£Ð¶Ð»Ð¸ Ð²Ð¾
ĠÐ¶Ð¸Ð²Ñ¹ ÑĤÑĬ
ĠÐ¼Ñ§ÑĤÑĮ Ð»ÑĮ
ĠÐ²ÑĭÑģÑ¹ ÑĪÐ¸ÑĤ
ĠÐľÐ¾Ð»Ð¾Ð´ Ð¾Ð¹
ĠÐ¾ÑĥÐº ÑģÑ¹
ĠÑĤÐ¾Ð»Ð¾Ðº Ð½Ð¾
ĠÐ¾Ð±ÐµÑģÑĩÐµÑģÑĤ Ð¸ÑĤ
Ð¸ êĻĹ
Ñģ Ð½ÑĮ
ĠÐ¿ ÐµÐ»
ĠÐ¼ Ð¾Ð½Ð¸
ĠÐ½Ð° Ð¸Ð´Ðµ
ÐµÑĤ Ñĭ
ÐµÐ½ ÐºÐ¾
ĠÐĲ êĻģÑĬ
ĠÐ¿ÑĢÐ¸ Ð²Ð¸
Ð²Ð¸ ÑĩÐ°
Ð²Ð¸ ÑĨÑĭ
ÑĪÐ¸ Ðµ
ĠÑģÑĬ Ð±Ð¸ÑĢÐ°
Ð°Ðº Ñ¡Ð²ÑĬ
ĠêĻĹ êĻģÑĭ
ĠÑı ÐºÐ¾Ð¶
ÑĢÑĬ Ð²Ð°
Ð»Ñ£ Ð¸
ĠÐ¸Ð· Ð¾Ð±Ð¸
ĠÐ¢ Ð¾Ð¶Ðµ
Ð¶Ð¸ Ð²Ð¾
Ð³Ð° ÑĢÐµ
ĠÐ´Ðµ ÐºÐ°
ĠÐ¼Ñ£ Ð´
ĠÐºÑĥ ÑĢÑĮ
ĠÑģÑĤÑĢÐ° Ð¶
ĠÐ¿ÐµÑĢ ÐµÐ¼Ð¸
ĠÐ¿Ð¾ÑĢ Ð¾Ð´Ð¸
ĠÐ¸ÑģÐ¿ ÑĢ
ĠÐ¼Ñĭ ÑĤÐ°
ĠÑĤÐ²Ð¾ÑĢ Ñ§Ñī
ĠÐ½Ð°ÑĪÐµ Ð¹
ĠÐ¸Ð¼Ñ£ Ñı
ĠÐ¸Ð½ Ð¾Ð³Ð´Ð°
ĠÐ¸Ð½ Ð´Ñ£Ð¸
ĠÑĢÐµÑĩ ÐµÐ½Ð¾
ĠÑĩÑĮ ÑģÑĤÐ¸
ĠÐ¾Ð±Ñĭ ÑģÐºÐ¸
ĠÐ¾Ð±Ñĭ ÑģÐºÐ¾Ð¼
ÑħÑ¹ ÑĤÑĮ
ĠÐ´ÐµÐ² Ñ§
ĠÑģÐ¾ÑĢ Ð¾ÐºÑĬ
ÑģÐºêĻĭ Ð´Ñ£
ĠÑĩÐµÑĤÑĭÑĢÐµ Ð´ÐµÑģÑ§ÑĤÑĮ
ĠÑģÐ²ÐµÑĢ Ñħ
ĠÐ´Ð°Ð²Ñĸ Ð´Ð°
ĠÐ¾Ðº ÑĤÑıÐ±ÑĢÑı
ĠÐ±Ð¾Ð¶Ðµ ÑģÑĤÐ²ÐµÐ½
ĠÑĢÐ°Ð±Ð¾ÑĤÐ° ÑĤÐ¸
ĠÐ¡Ð²Ñı ÑĤÑĭÑħ
ĠÐ´ÑĸÐ° Ð²Ð¾Ð»
ĠÐ¤Ð¸Ð»Ð¸ Ð¿
ĠÐ´Ñĭ ÑħÐ°
Ñ Ł
ÑĤ ÐµÐ¼
ĠÐ± Ð¸ÑĤ
ĠÐ± Ð´Ñ£
Ñı Ð°
ĠÐ½Ð° ÑģÑĤÐ°Ð²Ð¸
êĻĭ Ð²Ð°
ĠÐ· Ð¸Ð¼
ĠÐ´Ð° Ð²Ð¸
ĠÐ´Ð° ÑİÑĤ
êĻĹ Ð½ÑĮ
Ð¾ÑĤ Ð¾Ð¼
ÑĪÐ° Ð»
ĠÐŁ Ð¾Ð¼Ð¸
ÑĤÐ° Ð»
ĠÐ¡ Ñ¹
Ñ¥ ÑĤÑĬ
Ð¶Ð° ÑĤÑĬ
Ð¿Ð° Ð»Ð°
Ð²ÑĮ Ð½Ð°
ĠÐ¿Ð¾Ð¼ ÑıÐ½Ð¸
Ð±Ð° Ðµ
ĠÐºÐ¾ÑĢ ÑĬ
ĠÐºÐ¾ÑĢ Ñĩ
ĠÐºÐ¾Ð½ Ð¾Ð¿
ĠÐĵ Ð´Ñ£
ĠÑģÑĤÑĢÐ° ÑģÑĤ
ĠÐ´Ð²Ð¾ÑĢ Ñĥ
ĠÑ³ Ð¾Ð¼Ð°
ĠÐ¿Ð¾Ð± ÐµÐ´Ð¸
ĠÑĤÑĬ ÑĩÑĮ
ĠÐ·Ð°Ð¿ Ñ¡Ð²Ñ£
ĠÐ²ÐµÑĢ Ð¸ÑĤÐ¸
ĠÐ¿Ñĥ ÑģÑĤÑĭ
ĠÑħÑĢÐ° Ð±ÑĢÐ°
Ð¾Ð¿Ð¾Ð» êĻĭ
ĠÑĢÐ°Ð± Ñĥ
Ð·Ðµ Ð²Ðµ
ĠÐ·Ð°ÐºÐ¾Ð½ Ñ£
ÑĢÑĤ Ð²Ñĭ
ĠÐ¢Ð°Ðº ÑĬ
ĠÐ´ÐµÐ»Ð° Ð¼
ĠÐ²Ð°ÑĪÐ¸ Ñħ
ĠÐ¿ÑĢÑĬ Ð³Ð°ÑĢ
ĠÐ¿Ð¾ÑĢÐ° Ð±Ð¾
ĠÐ¿ÑĢÐ°Ð²Ð¸ Ð»Ð¾
ĠÐ²Ð¾Ð¹ ÑģÐºÑĥ
ÑģÑĤÐ¸Ð½ Ð½Ñĥ
ĠÑĦÐµÐ´Ð¾ÑĢ Ð¾Ð²Ð¸ÑĩÐ°
ĠÑĨÑĢÑĬ ÐºÐ²Ð¸
ĠÐºÐ½ÑıÐ³Ð¸ Ð½Ñı
ĠÐ·Ð¼Ð¸ Ñı
ĠÐ³Ð¾Ð²Ð¾ÑĢ ÑıÑĤ
ĠÐ±Ð¾ÑĥÐ´Ð¾Ñĥ ÑĤÑĮ
ĠÐ¿ÑĢÐ¾Ð¸Ð· Ð²Ð¾Ð»
ĠÐ»ÐµÐ± ÐµÐ´ÑĮ
ĠÐ Ń
Ð° Ð½Ð¸
Ð¸ Ð½Ñĭ
Ñģ ÑĸÐµ
ĠÑģ ÑĩÐ°
ĠÐ¸ Ñ¥
Ð¼ ÐµÑĤÐµ
ĠÐ¼ Ð·
ĠÐ¼ Ð°ÑĢÑĮ
Ð· Ð¾Ð²
ĠÐ½Ðµ Ð±Ñĭ
Ð»Ð¸ ÑĤÐ°
ĠÐ¿Ð¾ ÑħÐ¾Ð´Ð¸
ÐµÐ¼ ÑģÑı
ĠÐĲ Ð½
Ð´Ð¸ Ð»ÑģÑı
ĠÑħ Ð²Ð°ÑĤÐ¸
ĠÑĢÐ° Ð±Ðµ
ĠÑĶ Ð³Ð´Ð°
ÑĨÐ° ÑħÑĬ
ĠÑģÐ° Ð½
ĠÐ¿Ð° Ð²Ðµ
Ð¼Ñ£ ÑĤÐ¸
ĠÐ¼Ð° Ð»Ñ¹
ĠÐĳ Ð¾ÑĢÐ¸
ĠÐ¶Ð¸ êĻģÐ½Ð¸
ĠÐļ Ð¾Ðµ
ĠÐ¿ÑĢÑ£ Ð¼ÑĥÐ´
ĠÑĢÐ°Ð· Ð´Ð°
Ð²ÐµÑĢ ÑĬ
ĠÐ½Ñ£ ÐºÐ¾ÑĤÐ¾ÑĢ
ĠÑģÐ¾Ð± Ð»Ð°
ĠÑģÐ¾Ð± Ð¾Ð»Ð¸
ÑİÑīÐµ ÑģÑı
ĠÑ¡ÑĤ ÑĨÐ°
ĠÑģÐµÐ¼ ÐµÐ¸
ĠÐ²Ð¾Ñģ Ð¿ÑĢ
Ð½Ñĸ êĻĹ
ĠÐ²ÑĢÐµÐ¼ ÐµÐ½Ðµ
ĠÐ¼êĻĭ Ð¶ÑĮ
ÐµÐ½Ñĭ ÑħÑĬ
ÑĤÐµÑĢ Ð¾
ĠÑĢÐ¸ Ð·ÑĮ
ĠÐ¼Ð½Ð¾Ð³ êĻĳ
ĠÑģÐºÐ¾ÑĢ Ð¾Ð¼
ĠÐ½ÐµÐ´ ÑĢÑĥ
ĠÐĶÐ¾Ð± ÑĢ
ĠÐ²ÑĬÑģ ÐµÐ»
ĠÐ¸êĻģ ÑĮ
ÑİÑīÐ° Ð³Ñ¡
ĠÐ±Ð¾ÑĢÐ¸ ÑģÑĥ
ĠÐ½Ð¾Ð³Ð° Ð¼Ð¸
ĠÐ½ÐµÐ±Ðµ ÑģÐ°
ĠÐ´Ð¾Ð½ Ñĥ
ĠÐ´ÑĢÑ¹ Ð³ÑĬ
ĠÐ¿ÑĢÐµÐ´Ð° Ð´Ðµ
ĠÐ¿Ð¾Ð¶ Ð°ÑĢ
ĠÑĢÐ°Ð´ Ñĸ
ĠÑıÐ·Ñĭ ÐºÐ°
ĠÑģÐ²ÑıÑĤÑĭ Ð¸ÑħÑĬ
ĠÐºÐ°Ð¼ÐµÐ½ ÑĸÐµ
ĠÐºÑĢÐµÑģÑĤÑĮÑıÐ½ ÑģÐºÐ¸Ñħ
ĠÐ²Ð»Ð°Ð´Ñĭ ÐºÐ°
ĠÑ¤ Ð³Ð´Ð°
ĠÐ¿ÑĥÑģÑĤÐ¾ ÑĪÑĮ
ĠÐµÐ´Ð¸Ð½ Ð¾ÑĢÐ¾Ð´
ĠÐ¿ÑĢÐ¾ÑĪ Ð»ÑĭÑħ
ĠÐ°Ð½Ð´ÑĢÑ£ Ð¸
ĠÐ¿Ð°Ð»Ð° ÑĤÑĥ
ĠÐ¿Ð¾Ð´Ð¿Ð¸ ÑģÐ¸
ĠÐ¿ÑĢÐ¾Ðµ Ðµ
ĠÐ¡Ðº Ð¾ÑĢÐ¾
ĠÐ¼Ð¸Ðº Ð¸ÑĤ
ĠÑĪÐ°ÑĤ ÑĢÑĥ
ĠÑ µ
ĠÑ ½
ÑĤ â¸¯
Ð² Ð»êĻĹ
Ð¼ Ð¸ÑĤÐµ
Ð¼ ÐµÐ»Ðµ
ĠÐ¿ Ð¾Ð²Ð¾
Ð´ ÐµÐ½ÑĮ
ĠÐº Ð¾Ð²Ð°
ĠÐ¿ÑĢ Ñĥ
ĠÐ¿ÑĢ ÑģÐ½Ð¾
ĠÐ» ÐµÐ½ÑĬ
ĠÐ²ÑĬ ÑģÑĬ
ĠÐ´Ð° Ð¼Ð°
Ð¶Ðµ ÑĪÑĮ
Ñ¡ Ð½
ĠÑĥ ÐºÑĢÑĭ
Ð´Ð¸ Ð½Ð¾Ð¼êĻĭ
ĠÐ·Ð° Ð²Ñ£
êĻģ Ð²Ñ£
Ð»Ðµ Ð±
ĠÐ²Ð¾ ÐµÐ²Ð°
ÑĩÐ° Ð¼
ÑĨÐ° Ð¼
ÑĢÑĮ Ð´Ð¸
ĠÐĶ Ð¾Ð½
ĠÐĶ ÑĢÑ¹
ÑĢÑĬ Ð¼Ð¸
Ð¿Ð¸ ÑĢÐ°
ĠÐ´Ð¾ Ð¸ÑĤÐ¸
ĠÑĤÐ²Ð¾ ÐµÐ¼
ĠÐ¾Ð± ÑĢÑĥ
ĠÐ¿Ð¾Ð¼ ÑĢÐ°
Ð³Ñ¡ Ð¶Ðµ
ÑĦ êĻĭ
ĠÑģÑĥ ÑīÐ¸
ĠÑĩÑİ Ð²ÑĮ
Ð³Ð¾ÑĢÐ¾Ð´ ÑĬ
ÑĤÐµÑĢ ÑĬ
ĠÑĩÐµÐ»Ð¾Ð²Ñ£ ÐºêĻĭ
ĠÑģÐ²Ð¾Ñ¥ Ñİ
ĠÐ±Ð»Ð¸ Ð·ÑĮ
ĠÑģÐ¼Ñ£ ÑĢÐµÐ½
Ð³Ð½ ÐµÑĤÑĮ
ĠÐ´ÑĥÑħÐ¾Ð² Ð½ÑĭÑħ
ÑģÑģ Ñµ
ĠÑģÐ²ÑıÑĤ ÑĥÑİ
ĠÐ¿ÑĢÐ¾ÑĢÐ¾ ÑĩÐµ
ĠÐ© Ð¾
ĠÐ´Ð²Ð¾ÑĢÑı Ð½Ð¾Ð¼
ĠÐ¼Ð½Ð¾Ð¶Ð° Ðµ
ĠÐ¿Ð¾Ð´ÑĢÐ° Ð¶Ð°
ĠÐ·Ð°Ð¿Ñ¡Ð²Ñ£ Ð´Ð¸
Ð² ÐµÑĤÑĬ
ĠÑģ ÐµÐ½Ð¾
ĠÑģ Ð´ÐµÐ»Ð°
Ð¼ Ð»
ĠÐ± Ð´
ĠÐ± Ñĸ
ÑĪ Ð½Ð°
ĠÐ¼ Ñµ
ĠÐ³ Ð¶
ĠÐ³ Ð¾Ð´Ñ£
Ñī Ñĸ
ĠÐµ Ñ£
Ð²Ð° ÑħÑĥ
Ð¾Ñĥ Ð´Ð¸
ÑĢÐ¸ êĻĹ
ĠÐ¿ÑĢÐ¸ Ð³Ð¾Ð²Ð¾ÑĢ
ĠÑ¿ Ð²ÑĢÑĬ
êĻĳ ÑĤÐ¸
ĠÐ¡ Ð¾ÑĤ
ĠÐ¡ Ð¸Ð¼
ĠÐĿ ÐµÐ´
ÑĩÐ° Ð²ÑĬ
Ð½Ñĥ Ð»Ð°
ÑīÐ° Ð¼Ð¸
ĠÐ¼Ð° Ð»Ñ¡
ĠÐ¿Ð¾Ð´ Ð¿Ð¸ÑģÐ°
ĠÐļ Ð¾Ð³Ð´Ð°
ĠÐ²Ñĭ Ð³Ð½Ð°
ĠêĻģ Ð¾Ð²
ĠÐľ Ð½Ñ¡
ĠÑĢÐ°Ð· Ð¾ÑĥÐ¼Ñ£
ĠÐºÐ¾ÑĤÐ¾ÑĢ Ð¾Ñİ
ĠÐ³Ð» Ñ«
ĠÑħÐ¾ ÑĪÑĤÐµÑĪÐ¸
Ð±ÑĮ ÑĢÐ°
ĠÑĤÑĢÐ¸ Ð´ÐµÑģÑ§ÑĤÑĮ
ĠÐĹ ÐµÐ½
ĠÑģÐµÑĢ Ð³Ð¸
ĠÐ±Ð¾Ð³ Ñ¹
ĠÐ±Ñ¹ Ð´ÐµÑĤÐµ
ĠÐ·Ð½Ð° ÑĤÑĮ
ĠÑģÐ¾Ð» Ð¾Ð²Ð°
ÑĤÑĥ ÑĢÐ°
Ð¾Ð¶ÑĮ ÑģÑĤÐ²Ð¾
ĠÐ¿ÑĢÐ¾Ñģ Ð¾Ð»
ĠÐ½ÐµÐ¿ ÑĢÐ¾
ĠÑħÑĢ ÑĤÑĸÐ°
ĠÐ´Ð² Ð´ÑĬ
ĠÐ¼Ð¾ÑĢ Ñĳ
ĠÐ´Ð¾Ð» Ð³ÑĬ
ĠÐ¶Ð¸Ð² ÑıÑĪÐµ
ĠÐĸ Ð°
ĠÑģÑĬÑĤÐ²Ð¾ÑĢÐ¸ ÑĤÑĮ
ĠÐ½Ð°Ð¿Ð¸ÑģÐ° ÑħÑĬ
ĠÐ½Ð°ÑĢ Ð¾Ð´Ð¸
ĠÐĵÐ¾ÑģÐ¿Ð¾Ð´ Ð½Ñı
ĠÐ¿Ð¾Ð¶ Ð½Ñİ
ĠÑĥÐ¼ ÑĢÐµÑĤÐ¸
ĠÐ´ÐµÐ»Ð° ÑĤÑĮ
ĠÑħÐ¾ÑĤÑ£ Ð»ÑĬ
ĠÐ²Ð¾ÑĤÑĩÐ¸Ð½ Ð½Ð¸ÐºÐ¸
ĠÑģÐ»ÑĥÐ¶Ð¸ ÑĤÑĮ
ĠÐ±Ñ£Ñģ Ð¾Ð¼ÑĬ
ĠÑģÐ¾Ð³ÑĢÑ£ ÑĪÐ°
Ð¾Ð±ÑĢÐ° Ñı
ĠÑģÑĬÐ³ÑĢÑ£ ÑĪÐ°
ĠÑģÐ¼Ð¸ ÑĢÐ¸
ĠÐ²ÑģêĻĹ ÐºÐ¾
ĠÐ·Ð´Ðµ Ð»Ð°
ĠÑĥÐ¼ÐµÑĢ ÑĪÐ°Ð³Ð¾
ĠÐĵÐ¾Ð²Ð¾ÑĢÐ¸ Ð»Ð°
ĠÐ¾Ð· ÐµÑĢÐµ
ĠÐĶÐ°Ð½Ð¸ Ð»Ð°
ĠÐ½Ð°Ð¿Ð¾Ð» Ð½Ð¸
ĠÐ¶ÐµÑĢÐµÐ±Ðµ Ð¹
Ð¾Ð»ÑİÐ±Ð¸ Ð²Ð°
ĠÐ»Ñ« ÐºÐ°
ĠÐŀÐ»Ñĳ ÑĪÐµÐ½ÑĮÐºÐ°
ĠÐ²ÐºÐ¸ Ð½ÑĥÑĤÐ¸
ĠÑĤÐ°Ð»Ð°Ð½ ÑĤÑĬ
ĠÐ·Ð°Ð¿Ð¸ÑģÑı Ð¼
Ð° Ð²
ÑĢ â¸¯
ÑĮ ÑģÐºÑĭ
ĠÐ¿ ÑĤÐ¾Ð»
Ñĭ Ð»Ð°
Ð± Ð°ÑĢ
ĠÐ½Ð° ÑĩÑĮ
ĠÐ½Ð° Ð·Ð²Ð°
Ð»Ð¸ Ð»
ĠÐ° ÑĩÐµ
ĠÐ· Ð¾Ñĥ
Ð¾Ð³ ÑĢÑ£
ĠÐ¶Ðµ Ð½Ñ«
Ñ¡ Ð²Ðµ
ÑĢÐ¸ Ð½ÑĬ
Ð´Ð¸ Ð½Ð¾Ñİ
ÑĪÐµ ÐºÑĬ
ÑĪÐµ Ð½Ð¸Ð¸
ĠÐ¾Ñĥ Ð±Ñ£
ĠÑĢÐ° Ð¹
ÑĢÑ£ Ð¸
ĠÐŁ Ñ£
ĠÐ¿Ð¾Ñģ ÑĮ
ÐºÑĬ Ð¼Ð¾
ĠÐ¼Ð° ÐºÐ°
Ð½Ñ§ ÑĤÑĮ
ĠÐ±Ñ£ ÑģÑĭ
ĠÑģÐ² ÐµÑĤÐ°
ĠÐºÐ¾ÑĢ ÑģÑĥ
ĠÑģÐº Ð¾Ð²Ð¾ÑĢ
ĠÐºÐ¾ÑĤÐ¾ÑĢ Ð°Ð³Ð¾
ĠÐ¼Ðµ Ð¶Ðµ
ĠÑĨÑĢ ÐºÐ¾Ð²
ĠÑĦ ÑĢÐ¾Ð»
Ð½ÑĭÐ¸ ÑħÑĮ
ÑħÐ¾Ð´ Ð¸ÑĤÑĬ
ĠÑģÐ¿ ÑģÐµ
ĠÐ¿ÐµÑĢÐµ Ð¿Ð¸Ñģ
ĠÑĤÐ²Ð¾Ð¸ Ð¼Ð¸
ĠÐ¶Ð¸Ð²Ð¾ ÑĤÐ¸Ð½Ñĥ
ĠÑĩÑİ Ð¶Ð°
ĠÐ´Ð²Ð° Ð½Ð°Ð´ÐµÑģÑ§ÑĤÑĮ
ĠÐºÐ¾Ð» Ð¾Ð´
Ð¾Ð½Ð¸ Ð»Ð¸
ĠÑģÐºÐ° Ð·ÑĭÐ²Ð°Ð»Ð¸
ÑĤÐµÐ» ÐµÐ¼
ĠÐ²Ñ£ÑĢ ÐµÐ½ÑĬ
ĠÐ¿Ð¾ÑģÑĤÐ°Ð²Ð¸ Ð»ÑĬ
ĠÐ±Ð¾Ð³Ð°ÑĤÑĭ Ð¹
ĠÐ´Ð½Ðµ Ð¹
ĠÐ´ÑĢÑĥÐ¶Ð¸ Ð½Ñĭ
ĠÐ´ÐµÑĢÐµÐ² Ð»Ñ§
ĠÐ´ÑĢÑĥÐ³ Ð¾Ð¼
ĠÐ²ÐµÑģÐµÐ»Ð¸ Ðµ
ĠÐ´Ð¾Ð±ÑĢÐ¾Ð´Ñ£ ÑĤÐµÐ»Ð¸
ĠÑģÐ¼ÐµÑĢÑĤ Ð½Ð¾Ðµ
ĠÐ¿Ð¾ÑģÑĢÐµ Ð´Ð¸
ĠÑĥÐºÐ°Ð·Ð° Ð»
ĠÐ¿ÑĢÐ¸ÑıÑĤ ÐµÐ»
ĠêĻĢÐ° Ð½Ðµ
ĠÑģÐ²Ð¾ÑĶ Ð³Ð¾
ĠÐ¿ÑĢÐµÑĤ ÐµÑĢ
ÑĤÑĶ ÑĨÑĬ
ĠÐ¿Ð¾ÐµÑħÐ° Ð»ÑĬ
ĠÐ½ÐµÐ²Ð¾Ð· Ð¼Ð¾Ð¶Ð½Ð¾
ĠÐ¼Ð¸ÑĤÑĢÐ¾Ð¿ Ð¾Ð»Ð¸
ĠÐ¸ Ð¾
ĠÐ¸ ÑģÑĤÑ§
Ð´ Ð½Ð¾Ð³Ð¾
Ñĥ Ð¼Ñĥ
Ñħ Ð¾Ð²Ðµ
ĠÐ¾ ÑģÐ»Ð°
ĠÐ½Ð° ÐºÐ¾Ð½
ÐµÑĤ ÐµÐ»
Ð´Ð° Ð¼ÑĬ
ĠÑħ Ð¾Ð¶Ð´Ð°
ÑĪÐ¸ Ð¹
ĠÐ±Ñĭ Ð²
ĠÐŁ Ð¾Ð²Ñ£
ĠÐŁ ÑĢÐ°Ð²
Ð¾Ð¿ Ð¾Ð¿
Ð´Ñ£ Ð»
ĠÐ¿Ð¾Ñģ Ð¿Ðµ
Ð¶Ð¸ Ñħ
ĠÐ¼Ð° Ñħ
ĠÐ²Ð¸ Ð´ÑĮ
Ð¿Ð° Ð´Ðµ
ĠÐ¿Ð¾Ðº Ð°ÑĢ
ĠÐ¿ÑĢÐ° Ð²Ðµ
Ð½ÑĭÐ¸ Ð¼Ð¸
ĠÐ»Ð° ÑģÐº
ĠÐ»Ð° Ð·ÑĬ
ĠÐ²ÑĢÐ° ÑĩÐµ
ĠÐ¿Ñĥ ÑģÑĤÑĭÐ½Ð¸
ĠÑģÐ»Ñĥ Ð¶Ðµ
ĠÐ¿Ð¾ÐºÐ° Ñı
ĠÑĢÐ°êĻģ Ð²Ñ£
Ð¶Ð´Ðµ Ñİ
ĠÐ´ÑĢêĻĭ Ð³Ð¾
ĠÐ¿ÑĢÐ¸ÑĪ ÐµÐ»ÑĮ
ĠÑģÐ»Ðµ Ð·Ñĭ
ĠÐ¿Ð»ÐµÐ¼ ÐµÐ½
ĠÑģÑĬÑĤÐ²Ð¾ÑĢ ÑĮ
ĠÐ¿Ð¾Ð»Ð° ÑĤÐ°
ĠÑģÑĤÑĢÑ£ Ð»Ñĭ
ÐµÐ·Ð¶Ð° Ð¹
ĠÑģÑĬÐ³ÑĢÑ£ ÑĪÐ¸
ĠÐ»Ñ§ ÑħÑĭ
ĠÐ·Ð¾Ð»Ð¾ÑĤ Ð¾Ð¹
ĠÐ³Ð»Ñ£ Ð±
ĠÐ±Ð¾Ð³Ð°ÑĤ ÑģÑĤÐ²Ð¾
ĠÐ¶ÐµÐ»ÐµÐ· Ð½ÑĭÐµ
ĠÐºÐ¾Ð½ÑİÑĪ Ð½Ñİ
ĠÐ¼Ð¸ÐºÑĥ Ð»Ð°
ĠÐ³ÐµÑĢ Ð¾Ð½
ĠÑģÑĤÐ°ÑĢÑ£Ð¸ÑĪÐ¸ Ð½Ñĭ
ĠÐ·Ð°êĻĭ ÑĤÑĢÐ°
Ġ ÏĦ
ÑĤ ÑĹ
Ñģ Ð¾ÑĪÐ°
ĠÐ± ÑĢÑĬ
Ñĩ Ð¸ÑĤÐµ
ĠÐ³ Ð¾Ð½Ðµ
ĠÑĢ ÑĥÐ´
ÑĨ ÐºÐ¸
ĠÐ¿Ð¾ ÑģÐº
Ð²Ð° ÐµÑĤÑģÑı
ÐºÐ° Ð½
ĠÐ²ÑĬ ÐºÑ¹
Ð¶Ðµ Ð½ÑĸÑ§
ĠÑģÑĤ êĻĭ
Ñ¡ Ð²Ð°
ĠÑ¡ Ð´Ðµ
ĠÐ²Ñģ ÐµÐ»
ĠÐ·Ð° Ð²Ñ£ÑīÐ°
êĻģ â¸¯
ĠÐ½Ð¸ Ð²Ñĭ
ÑģÑĤÐ° Ñı
Ð²Ñ£ Ð¼ÑĬ
ĠÐ¿Ð¾Ð» Ð¾Ð½Ñĥ
ĠÐ¼Ð¸ ÑĢÐ¾ÑģÐ»Ð°
ĠÑĤÐ° Ð±Ð°Ðº
Ð¾Ð´Ð¸ Ð»Ð°
ĠÐ¢ êĻĭ
ĠÐ²Ð° ÑĢÐµ
ĠÐ¿Ð° Ð»Ðµ
ĠÐ³ÑĢÐ° Ð±Ðµ
ĠÑ¹ Ð¼Ð°
ÑĩÑĮ ÑģÐºÑĭ
ĠÐ¿ÑĢÑ£ Ð¼Ñ£
ĠÐºÐ°Ðº ÑĥÑİ
ĠÐĵ Ð¸
ÑĨÑ£ Ð¼ÑĮ
ĠÑģÑĤÑĢÐ° Ð½ÑĮ
ĠÑģÑĥ Ñħ
ĠÑģÐ¿ ÐµÑĢÐ²Ð°
ĠÑĤÐ²Ð¾ÑĢ ÑĤ
ĠÑ¡ÑĤ ÑĢÐ¾
ĠÐ§ Ñİ
ÐºÐ¾Ð½ ÑĬ
Ð¾Ð½Ð¸ Ñİ
ĠÑ£ Ð·
ĠÐºÐ½ Ð·ÑĮ
ĠÐ¼Ð¾Ð³ Ð»Ð¸
ĠÑģÑĬÑĤÐ²Ð¾ÑĢÐ¸ Ð²ÑĬ
ĠÐ¾Ð±ÑĢÐ° êĻģÑĬ
ĠÐ±ÐµÐ» Ð¾Ð¹
ĠÑĤÐµÑĢ ÐµÐ¼Ð°
ĠÐ¿ÑĢÐµÐ´Ð° ÑģÑĤÑĬ
ĠÐ²Ð°ÑĪÐµ Ð³Ñ¡
ĠÑ¡Ñģ ÐµÑĤ
ĠÐ¿Ð¾Ð²Ñ£ ÑģÑĤÑĮ
ĠÐ¸Ð·Ñ§ ÑģÐ»Ð°Ð²Ñĥ
ĠÐºÑĥÐ¿Ð¸ Ð»
ĠÑģÐ¸Ð»Ð° Ð¼Ð¸
Î± Î¹
ĠÐ·Ð¸ Ð¼Ñĭ
ĠÐ¼ÑĥÐ´ ÑĢÑĬ
ĠÑº ÑĤÐ¸
ĠÐºÑĢÑĭ Ð¼
ĠÐºÐ°ÑĢÐ° Ð±Ð»Ð¸
ĠÐ±Ð»ÑĬ Ð³Ð°ÑĢ
ĠÐ¿Ð¾ÑģÐ°Ð´Ð¸ ÑĪÐ°
ĠÐĴÐµÐ»Ð¸ ÐºÐ¸Ð¹
ĠÐ²Ð¾Ð·ÑĢÐ° Ð´Ð¾Ð²Ð°
ĠÐ® ÑĢÑĮ
Ñ¡ÑģÐ¸ ÑĦÑĬ
ĠÐ½Ð¾Ð²Ðµ Ð³Ð¾ÑĢÐ¾Ð´Ñ£
ĠÐºÑĥÐ½ Ð³Ñĥ
i Ð¸
ÑĢ ÑĨÐ¸
Ðº ÑĢÐ¸
ĠÐ´ ÑĭÐ¼
ÑĪ ÐºÑ£
Ñı Ð¼ÑĬ
ĠÐ¾ ÑģÑĮ
Ñĸ Ñķ
Ð´Ð° Ð¼
ĠÑģÑĤ ÑĸÐ¸
ĠÑĨ ÑĢÑ£
ĠÑĢÐµ Ð²Ð½Ð¾
Ð½Ñĥ Ð»ÑĬ
ĠÐºÐ¾ ÑĤÑĮ
ĠÐ²Ð¸ Ð¶Ñĥ
ĠÐ¿ÑĢÐµ ÐºÐ¾
ĠÐ¶Ð¸ ÑĤÑĮÐµ
ĠÐ³ÑĢÐ° Ð´Ð¸
ĠÐ²Ð¾Ð» Ð½Ð¾
ÑĨÑ£ Ð¸
Ð³Ð¸ ÑħÑĬ
ĠÐ¿Ðµ ÑĪÐµ
ĠÐ¿ÑĢÐµÐ´ Ð¿Ð¾
ĠÐ½Ð¸Ðº Ð¾Ð½Ð°
ĠÑĩÑİ Ð´ÑĮ
Ð¾ÑĢÐµ Ð½Ð¸Ðµ
ĠÐ¿Ð¾ÑģÐ° Ð´Ð¸ÑĤÐ¸
Ð´Ð¾Ñĥ ÑĤÑĮ
ĠÑĤÐ¾ÑĢ Ð¶Ðµ
ÐºÐ»Ð° Ð½Ñ§
ÐºÐ¾Ð» Ðµ
ĠÐ½Ð± ÑģÐ°
ĠÑģÐ»Ð°Ð² Ð½Ð°Ð³Ð¾
ĠÐĴÐ° ÑģÑĮÐºÐ°
ĠÐ¿Ð¾Ð»Ð¾Ð¶Ð¸ ÑĤÑĮ
ĠÑĤÑĢÐµ ÑħÑĬ
Ð½êĻĹ ÑĤÐ¸
ĠÐ²Ð·Ñ§ Ð»
ĠÐ½Ð°Ñĩ Ñ§
ĠÐºÐ»Ð° Ð½Ñı
ĠÑħÐ²Ð° Ð»Ñ§
ĠÐ²ÑĮÑģÑ£ Ð¼ÑĮ
ĠÐ¿Ð¾Ð»Ñĥ ÑĪ
ĠÐ²Ð·Ñĭ ÑīÐµÑĤ
ĠÐ³ÑĢÐ°Ð´Ñ£ ÑħÑĬ
ĠÑĢÐµÐºÑĬ ÑĪÐµ
ĠÐ´Ð¾Ð±ÑĢÐ¾Ð´Ñ£ ÑĤÑ£
ĠÐ¿Ð¾Ð³êĻĭ Ð±Ð¸
ĠÑĢÐ¾ÑģÑĤÐ¸ ÑģÐ»Ð°Ð²ÑĬ
ĠÑĦÐ¸Ð»Ð¸ Ð¿Ð°
ĠÐ¡Ð²Ñı ÑĤÐ°Ð³Ð¾
ĠÑģÑĤÑĢÐ°Ð½Ð° Ð¼ÑĬ
ĠÐ¿Ð¾ÑħÐ¾ ÑĤÐ¸
ĠÑĤÑĢÐµÑĤ ÑĸÐ¸
ĠÐ¿Ñ« ÑĤÐ¸
ĠÐ±Ð»Ð°Ð³Ð¾Ð´Ñ£ ÑĤÑĮ
ĠÐ¿ÑĢÐµÐ´Ñ£ Ð»ÑĬ
ĠÐ²ÑĬÐ½Ð¸ Ð´Ðµ
ĠÑģÑĬÐ¼ÑĮÑĢ ÑĤÐ¸
ĠÐ¿ÐµÑĩÐµÐ½Ñ£ Ð·Ð¸
Ð° ÑĤ
ÑĢ ÐµÐ½Ðµ
Ð¼ ÑģÑ§
ĠÐ´ Ð½ÑĸÐµ
ĠÑĤ Ð½Ð°
ĠÐº Ð¾Ð³Ñ¡
ÑĪ Ð½ÑĭÑħ
ĠÐ¾ ÑģÐº
ĠÐ³ Ð¾Ð¹
ĠÐ½Ðµ Ñ¹
Ð»Ð¸ ÑīÐµ
ĠÐ¿Ð¾ êĻĭ
ĠÑĩ Ñ£
êĻĹ ÑīÐµ
êĻĹ Ð½ÑĬ
ĠÑħ Ñĸ
ĠÑħ êĻĳ
ĠÑħ ÑģÐ°
ĠÑĨ ÐµÑĢÐµ
ĠÑĨ ÐµÐ³Ð¾
ĠÐ½Ð¸ ÑħÑĮ
ĠÑĢÐ° Ð½Ð¸ÑĤ
Ð»Ðµ Ð²Ñ£
ÑģÑĤÐ¸ Ð½Ñ£
ĠÑģÑĬ Ð±Ñ¡
Ð»Ð¾ ÑģÑĤÑĮ
ĠÐ²Ðµ Ð´Ñĥ
ĠÐŁ ÑĤÐ¾Ð»
ĠÑģÐ» Ñİ
ĠÐ¿Ð¾Ð» Ð¾Ð²ÑĮ
ÑĩÐ° Ñı
ÑĢÑĬ Ð´Ð°
ĠÐ¼Ð½ Ð¾Ð¹
Ð¾Ð²Ðµ Ð¹
ĠÐ¿Ð¾Ð´ Ð²Ð¾Ð´
Ð¼Ðµ Ð¸
ĠÐ³Ð»Ð° Ð²Ñ«
ĠÑĢÑĥ ÑģÐºÑĥÑİ
ĠÑģÐ¾ ÑĦÐ¸
ÑģÑ£ Ñħ
Ð¼ÐµÐ½ êĻĭ
ĠÐ±Ð» Ð¶ÐµÐ½
ĠÐ²Ð¾Ð» Ð¾Ð¶Ð¸
ĠÐºÑĥ Ð½Ð¾
Ñĳ ÑĪÐµÐ½ÑĮÐºÐ¾
ĠÑħÐ¾ ÑĩÐµÑĤ
ĠÐ¿ÑĢÐµÐ´ ÑģÑĤÐ°
ĠÐ±ÑĢÐ°ÑĤ ÑĨÑĭ
ĠÐ¼Ð½Ð¾Ð³Ð¾ Ñİ
ĠÑł Ð½ÑĬ
Ð´Ñ¹ ÑĤ
ĠÑĢÐ¾Ð· Ð½ÑĭÑħ
ĠÐ´Ð¸ Ð°ÐºÑĥ
ĠÐ¸Ð¼Ñ£ Ð¸
Ð±ÑĬ ÑĢÐ°
ÑĤÑĢ ÐµÐ½
ĠÐºÐ¸ ÑĢÐ¿Ð¸
ĠÐ±ÐµÑĢÐµ Ð·Ñ£
ĠÐ¼Ð¾Ð³ Ñ¹
ĠÐĴÐ° Ð²Ð¸
ĠÐ¾Ð´ Ð½Ð¾
ĠÐ¿Ð¾ÑģÐ°Ð´ Ð½Ð¸ÐºÐ¾Ð¼ÑĬ
ĠÐ³Ñİ ÑĢÑ§
ĠÑħÐ¾Ð´ ÑıÑĤ
ĠÐ¿Ð¾ÑĪ Ð»Ñİ
ĠÐ¾ÑĤÐ´Ð° Ð²Ð°ÑĤÑĮ
ĠÐ¸Ð¼ÐµÐ½ ÐµÐ¼ÑĮ
ĠÐ¾ÑĤÐ²ÐµÑĤÑĩÐ¸ ÐºÐ¾Ð¼
ĠÑĥÐ´Ð° Ð»Ð¾Ð¹
ĠÐ²Ð¾ÑĤÑĩÐ¸Ð½ Ð½Ð¸ÐºÐ¾Ð¼
ĠÐ¾Ð² Ð¾Ð³Ð´Ð°
ĠÐ¾ÑĤÑĮ ÑĨÑı
ĠÐ¡ÑĤÐ° Ð½Ð¾Ð²Ð¸
ĠÑĢÑ« ÐºÑ«
ÐµÐ·Ð¶Ð° Ð»
ĠÑģÐ¼Ð¸ ÑĢÐµ
ĠÐľÐµ Ð´Ðµ
ĠÐ´Ð°Ð²êĻĳ Ð´ÑĬ
ĠÐºÐ»ÐµÐ²ÐµÑĤ Ñĭ
ĠÐ¿ÑĢÐ¾Ñħ Ð»Ð°
ĠÐ´Ñ£ÑĤÑĮ Ð¼Ð¸
ĠÐ¾ÑĥÑĩÐµ Ð½Ð¸ÑĨÐ¸
ĠÑĳ Ð³Ð¾
ĠÐ½ÐµÐ´ÐµÐ»ÑīÐ¸ ÐºÑĥ
ĠÐ»ÑİÐ±ÑĬ Ð²ÑĮ
ĠÐ´Ð¾ÑĢÐ¾Ð³Ð¾ Ñİ
ĠÐ½Ð¾Ð²Ñ¹ Ð³Ð¾ÑĢÐ¾Ð´Ñ¹
ĠÐ°ÑĢÑħÐµ Ð¿Ñģ
ĠÐĹÐµÐ½ Ð·ÐµÐ²Ðµ
ĠÐ¿Ð¾Ð»ÑĥÑĪ Ð¾ÐºÐ¾
ĠÑģ ÐµÑĤ
ĠÑģ ÐºÑĥ
ĠÐ¿ ÑĪÐµÐ½
Ð´ ÑĪÐµ
Ð´ ÐµÐ½Ð¾
ĠÐ½ Ð¾ÑĢ
ĠÐ½ Ð¾Ð¶Ðµ
ĠÐ³ ÑĢÐµÐ±
ĠÐ½Ðµ ÐºÐ¾
ĠÐ° Ðº
ĠÐ° ÑĢÐ°
ĠÐĲ Ð»Ðµ
Ð¾Ñģ Ñ§
ĠÐ¾Ñĥ ÑģÑĤÐ°Ð²
ĠÑģÑĬ Ð»Ð¸
ÑĩÐ¸ Ð¸
Ð¾Ð· ÐµÑĢ
ĠÐŁ Ð¾Ð²Ðµ
ĠÑģÐ¸ Ñ¥
ĠÐ¼Ð¾ Ñµ
ĠÐ²ÐµÐ»Ð¸ ÑĪÐ¸
ĠÐ²ÑģÐµ Ð²Ð¾
ĠÑģÑĤÐ° Ð²Ð¸ÑĤÑĮ
ĠÐºÐ¾Ð½ ÑģÑĤÐ°Ð½
ĠÑģÐº Ð¾ÑĢÐµ
ĠÐ½Ñ£ Ñģ
ĠÑĤÑ£ Ð»Ð¾Ð¼ÑĬ
ĠÐºÐ¾ÑĤÐ¾ÑĢ ÑĭÐ¹
ĠÑģÑĮ Ð¼
ĠÐºÑĢ ÑģÑĤÑĬ
ĠÑĩÐµ Ð¹
ĠÐ¿Ð¾Ð¿ ÑĢÐ°
ĠÐ±ÑĢÐ°ÑĤ Ð¾Ð¼ÑĬ
ĠÐ²ÐµÑĢ ÑĪÐºÐ¾Ð²
ĠÐ¼ÐµÐ½ ÑĪÐ¸
ĠÑĩÐµÐ»Ð¾Ð²Ñ£ ÑĨÑĭ
ĠÐ°ÑĢ ÑħÐ°Ð½
Ð»Ð¾Ñĥ Ð¸
ĠÑģÑĤÐ¾ÑĢ Ð¾Ð¶Ð¸
ĠÑģÑĤÐ¾ÑĢ Ð¾Ð½Ñ£
ÑģÑĤÑĢÐ¾ Ñİ
ĠÐ²ÑĬÑģ ÑħÑĭ
ĠÐºÐ¾Ð½ÑĮ ÑĨÑĮ
ĠÐ¼Ð¾Ð»Ð¸ ÑģÑ§
ĠÑĥÐ±Ð¸ ÑĤÐ¸
ĠÐ¸Ð·Ñ§ ÑģÐ»Ð°Ð²Ð°
ĠÐ°Ð¿Ð¾ ÑģÑĤÐ¾Ð»ÑĮ
ĠÐ¢Ðµ Ð±Ñ£
ĠÐºÑĬÐ½Ñ§ Ð·ÑĮ
ĠÐ¿ÑĪÐµÐ½Ð¸ ÑĨÑ£
ĠÑĤÑıÐ³ Ð»ÑĭÑħ
ĠÑģÑĬÐº ÑĢÐ¾Ñĥ
ĠÐľÐ½ Ð¾Ð³Ð°
ĠÐµÑģÑĤÐ²Ð¾ Ñİ
ĠÐ½Ð¸ÐºÐ¾Ð¼Ð¾Ñĥ Ð¶Ðµ
Ï Ģ
ÑĢ Ð½Ð¾
ĠÐ¸ ÑģÑ£
ĠÐ¸ Ð¾ÑģÐ¸
Ðº ÑĥÐ´Ñĥ
ĠÐ² Ð»Ðµ
êĻ ©
ĠÐº Ð¾ÑģÐ¸
Ñı ÑĪÐ°
Ð¾Ð» Ð¸ÑĤ
Ð½Ð¸ Ð¶Ðµ
Ð½Ð¸ ÑħÑĮ
ĠÐ° Ð½ÑĬ
Ð¶ Ð½Ñ£
Ð½Ð¾ ÑģÑĤÐ°
Ð¾Ð± Ð¾Ñĥ
ĠÐĲ Ð²
ĠÑĥ ÑĤÐ°
ĠÑĥ Ð»Ð¾Ð¶Ðµ
ĠÐ·Ð° ÑģÑ£
ĠÐ·Ð° Ð±ÑĭÐ²Ð°
Ð²Ð¸ Ñĩ
ĠÑģÑĬ Ð²Ñ£Ð´Ñ£
ÑģÐº Ñĸ
ĠÐ¶ Ð¸ÑĤÐµ
Ð»ÑĮ Ð½Ð¾
ĠÐ¼Ð¸ Ð»Ð¾Ñģ
Ð¿Ð¸ Ð²ÑĬ
ĠÐ¢ Ð¾Ð³Ð¸Ð²Ð°
ĠÐ²Ñ£ ÑĢÑĮ
Ð¶Ð¸ Ð½Ð°
ĠÑĸ ÑģÐ°
ĠÐ±ÑĢÐ° ÑĤÑ£
Ð¾Ð²Ð¸ ÑĨÑ§
ĠÐ¿Ð¾Ðº Ð¸
ĠÐ¿Ð¾Ðº Ð¸Ð½Ñĥ
ĠÐ²Ñĭ Ð¿Ð¸
ĠÐĶÐ° Ð¶Ðµ
ĠÐĶÐ° Ð²Ð¸
ĠÐĶÐ° ÑĢÐ¸Ñİ
ĠÑ¹ Ð±Ð¸
ÑĤÑĭ Ð¼
ĠÐ¼Ðµ Ð¶ÑĬ
ĠÐł Ð¾Ðº
ĠÐ³Ð»Ð°Ð³Ð¾Ð» ÐµÑĪÐ¸
ĠÐ¼Ð¾Ð¸ Ð¼Ð°
ĠÐ³Ð¾ÑĢÐ¾Ð´ Ð¾Ð²ÑĭÑħ
ĠÐ±Ð° ÑĢÐ°
ĠÐ·Ð»Ð° ÑĤÐ¾Ð¼
ĠÐ³Ð° Ð²
ĠÑģÐ»Ð¾Ð²Ðµ ÑģÑĮ
ĠÐ¿Ð¾Ð»Ð¾ ÑĨÑĬ
ĠÐ²Ð¾Ð¸ Ð½ÑĬ
ĠÐºÐ½Ð¸ Ð³Ñĥ
ĠÐ¼Ð¾Ð³ Ð¾Ñĥ
ĠÐ±Ð»Ð³ Ð¾Ð´Ð°
ĠÐ²ÑĢÑ£ Ð¼ÐµÐ½Ðµ
ĠÐ¿Ð¸Ñģ ÑĨÐ¾Ð²ÑĭÑħ
ĠÑģÐ¾Ð³ ÑĢÐµ
Ð½Ð¸ÑĨ Ñ¹
ĠÐ¼Ð°Ð½Ð°ÑģÑĤÑĭ ÑĢÐ¸
ĠÐ¿Ð¾Ð¶Ð°Ð»Ð¾Ð²Ð° Ð»ÑĬ
ĠÐ½Ð°Ð¿ÑĢÐ° Ð²Ð¸
ĠêĻģÑĬ Ð»Ð°
ĠÐ°Ð¼Ð¸ Ð½ÑĬ
ĠÐ¼Ð°Ð»Ñĭ Ñı
ĠÐ¼êĻĭÐ¶ êĻĭ
ĠÐ´ÑĢÑ£ Ð²Ð°
ĠÐ½Ñ¥ Ð³Ð¾
ĠÐĴÐ°ÑģÐ¸Ð»ÑĮ Ñı
ĠÑģÑĤÐ°ÑĢÐ¾ÑģÑĤÐ° Ð¼
ĠÑıÐ±Ð» Ð¾ÐºÐ°
Ðµ ÑĢÐ°
ÑĤ ÑĨêĻĭ
Ð² Ð´
ĠÐ½ Ð¼ÑĬ
ÑģÑĤ Ð¾Ð»Ð¸
ĠÐ± Ð·
Ñı ÐµÑĤ
Ð± Ð¾Ð½ÑĮ
ÑĤÐ¸ ÑĪÐ°
Ð½Ð¸ Ð½Ð¾
ĠÐ¿Ð¾ ÑĥÑĤ
ĠÐ· Ð³
Ð´Ð° Ð¼Ð¸
Ñ¡ Ð²
ĠÑ¡ ÑģÐ¿Ð¾Ð´
ĠÐ·Ð° Ð²Ð¾Ð»Ð¾
Ñ« Ð¼Ñ£
ĠÐ¡ Ð²
Ð´Ñ£ Ð¼ÑĬ
ÑĩÐ° ÑĤÑĬ
ĠÐ²Ñ£ Ð½ÐµÑĨÑĬ
Ð¿Ð° ÐµÑĤ
ĠÐ¿Ð¾Ð´ Ð²
ĠÐ¿ÑĢÐµ Ð¸Ð´Ðµ
ĠÐ·ÐµÐ¼ ÑĮ
ĠÐ¾Ð± Ñĥ
ĠÐ¿Ð¾Ð¼ êĻĳÑģÐ»Ð¸
ĠÐ³Ð»Ð° Ð´ÑĬ
ĠÐ±Ñ£ Ð»ÐºÐ°
ĠÑĢÐ°Ð· Ð²Ðµ
ĠÐºÐ¾Ð½ êĻ¿
ÑģÑĤÑĭ Ð¸
ĠÐ²ÑĬÐ· Ð»ÑİÐ±Ð»ÐµÐ½
ĠÐ¿Ð¾ÑĤ ÑĢÑĥ
ĠÐ¿Ð¾Ð¿ Ð¾Ð»
ĠÑĩÐ» ÑĨÐ¸
ĠÐ½Ð¸Ðº Ð¾Ð¼Ñ¹
ĠÐ²ÐµÑĢ ÑģÑĤÑĬ
ĠÑł Ð»Ðµ
ĠÐ·Ð»Ð° Ñ§
ĠêĻģÐ° Ð¿Ð°
ĠÑģÐ¾ÑĤÐ²Ð¾ÑĢÐ¸ ÑħÑĬ
ĠÑĤêĻĳ ÑģÑ§
ĠÑĩÐµÑĢ Ð½Ð¾ÑĢÐ¸
ĠÐ¯ Ð·
ĠÑĪÐµ ÑģÑĤ
-- .
ĠÐ¾Ð±ÑĢÐ° Ð·Ð°
ĠÐ¾Ð´ Ð¾Ð»Ñ£
ĠÐ²ÑĭÑģ Ð¾ÐºÐ¾
ĠÐ¤ Ð°ÑĢÐ°
ĠÐ¸ÑģÐº Ð¾ÑĢ
ĠÐ¸ÑģÐº êĻĭ
ĠÐ¿ÑĢÐ¸Ð¸ Ð¼ÐµÑĪÐ¸
ĠÑħÐ¾ÑĤÑ£ Ð»Ð¸
ĠÑĤÑĢÑĮ Ð¿Ñ£
ĠÑĢÐ°ÑģÐ¿ ÑĢÐ¾
ĠÐ¿Ð°ÑĢ Ñĥ
ĠÐ¿Ð¸ÑĤ ÑĸÑ§
Ð³ÑµÐ¿ ÑĤÑ§
Î¿ Î½
ĠÐ¼ÐµÑĩ ÑĤÐ°
ĠÐµÑħÐ° Ð»
ĠÐ¿ÑıÑĤÐ¸ Ð´ÐµÑģÑıÑĤ
ĠÑģÑĥÐ½Ð´Ñĥ ÐºÑĬ
ĠÑĢÐµÐºêĻĭ ÑĤÑĬ
ĠÑģÑĬÐºÐ¾Ð½ÑĮ ÑĩÐ°
ĠÐ°Ñģ Ð¿Ð¸
ĠÐ½ÐµÐ¿Ð¾ÑĤ ÑĢÐµÐ±
Ð° Ð´Ð¸
Ð¼ Ð¾Ð½Ð°
Ð¼ Ð¼Ñ¡
Ðº Ð¾Ð¼Ñ¹
ĠÐ² Ð¸ÑĤÑı
Ñħ Ð¾Ð²Ñ£
Ð± ÑĸÐ¸
ĠÐ½Ð° Ð·Ð½Ð°
ĠÐ¿ÑĢ Ð¾ÐºÐ¾
Ð»Ð¸ Ð½Ñĥ
ĠÐ· ÐµÐ»ÑĮ
ĠÐ· Ð¾Ð²Ñĥ
ÐµÐ½ ÑĸÑİ
ĠÑĩ ÑĢÑĬ
ĠÐĲ Ð¼Ð¸ÑĢÐ°
ĠÑ¡ Ð²Ð¸
ĠÑ¡ Ð²Ðµ
ĠÑĥ Ð¼ÑĮ
ĠÑĥ ÑģÑĤÑĢÐ¾
ÑĪÐµ Ð±
Ð²Ð¸ ÑĩÑĮ
ÑģÐ° ÑĦÐ°
ĠÐ¾ÑĤ Ñģ
ÑĤÐ° ÐºÐ°
ĠÐ¿Ð¾Ð» ÑİÐ±
ĠÐºÐ° ÑĨÐ¸
ÑĤÐµ ÑĪÐ¸
Ð¶Ð° ÑİÑīÐµ
ĠÐ¿Ð° Ð²Ð¾Ð»
ÑīÐ¸ Ð¸Ð¼ÑĬ
ĠÑĤÐ¸ ÑħÑĬ
ĠÐļ Ð½Ñı
ĠÐ²Ñĭ ÑĩÐ¸
ÑģÐ» êĻĭ
Ð¼Ðµ ÑģÑĤÐ¾
ĠÑĢÐ°Ð· Ð»Ð¸
ĠÑģÑĤÐ° Ð²Ð¸
Ð»Ñı ÑĤÐ¸
ĠÐºÑĥ Ð½Ñĥ
ĠÑģÑ£ Ð¼ÐµÐ½Ð°
ĠÑģÐ»Ð° Ð´ÑĬ
ĠÐ¿Ð»Ð° ÑĩÐ¸
ĠÑģÑĤÐ°ÑĢ ÑĭÑħ
ĠÑģÐ²Ñ£ Ð¶Ðµ
Ð·Ð¸ ÑĤÑĮ
ĠÑĤÑĥ ÑĢÐµÑĨ
ĠÐ¿Ð¸ÑģÐ° Ð½Ð¸Ñİ
ĠÐ²ÑĢÐ° Ð³Ñ¡
ĠÑĤÐ²Ð¾ÑĢ Ñ§Ð¸
ĠÑĢÐ¾Ð´ Ð¸ÑĤÐµÐ»ÑĮ
ĠÐ¿Ð¾Ð²ÐµÐ»Ñ£ Ð½ÑĸÐµ
ĠÑĩÐµÐ»Ð¾Ð²Ñ£ ÐºÐ¸
ĠÐ²Ð¾Ð¸ Ð½ÑĮ
ĠÐ´Ð¾Ð±ÑĢÑĭ Ð¸
ĠÐ·Ð°ÐºÐ¾Ð½ ÑĮ
ĠÐ¿ÑĢÐ¸ÑĪ Ð»Ñİ
ĠÐ±Ð¾ÑĢÐ¸ ÑģÐµ
ĠÑģÑĤÐ°ÑĢÐ¾ ÑģÑĤÑ£
ĠÐºÐ½Ñ§Ð· ÐµÐ¼ÑĬ
ĠÑģÐ²ÑıÑĤÑĭ Ñı
ĠÐºÑĢÐ°Ð»ÐµÐ² Ð½Ðµ
ĠÐ¶ÐµÐ½ ÐºÐ¸
ĠÐ²ÑģÑ§ÐºÐ¸ Ð¼Ð¸
ĠÑ¡ÑģÑĤÐ° ÑĤ
ĠÐ¿ÑĢÐ¸ÑģÑĤÐ° Ð²Ñĥ
ĠÑģÑĢÑ£ ÑĤÐµÐ½ÑĸÐµ
ĠÐ¼ÑĥÐ¶Ðµ Ð¼
ĠÐ¿ÑĢÐµÐ±Ñĭ Ð²Ð°ÑĤÐ¸
ĠÐºÐ¾Ð² ÑĩÐµ
ĠÑĨÑģ ÑĢ
ĠÑģÐ²êĻĻ ÑĤêĻĳÐ¸
ĠÐ¿ÑĢÐ¾Ð´ Ð¾Ð»
ĠÑģÑĥÐ´ÑĮÑı Ð¼
ĠÑĤÑī ÐµÑĤÐ°
ĠÐĺÑħÐ½Ð¸ Ð»Ð°ÑĤ
Ð½ ÑĤÑĸ
ĠÐ¿ Ñĩ
ĠÐ² ÑĪÐµÐ´
ĠÐ² ÑģÑĤÐ°Ð²ÑĬ
Ð± Ð¾Ð»Ñ£
ĠÐ¿ÑĢ Ð¾Ð²Ðµ
Ð¾ÑĢ Ð³
ĠÐ½Ðµ Ð³Ð¾Ð´
Ð»Ð¸ ÑĤÐµ
ĠÐ· ÑıÑĤ
ĠÐµ ÑĢÐ¼
ĠÐĲ ÐºÐ¾
Ñ¡ Ð³Ð¾
ÑĢÐµ Ð´Ð¸
ĠÑħ Ñ¡
Ñ« Ð¸
ĠÐĴ ÐµÑĢ
ĠÐĿ Ð¾Ð²Ð°
ĠÐ¿Ð¾Ð» ÑĤÐ¸Ð½Ñĥ
ĠÐ¿Ð¾Ñģ Ð»Ñİ
ĠÐ²Ñ£ Ð¼Ñĭ
ĠÐ»Ð¸ ÑģÑĤ
ĠÐ»Ð¸ ÑģÑĤÐ°
ĠÐºÐ¾ Ð¸ÑĤÐ¾
ĠÐ¿Ð° Ð´ÑĬ
Ð¿Ð° ÑİÑĤ
ĠÐ´Ñ£ Ð»Ð¾Ð¼
Ð½Ñ§ ÑĤ
ĠÐ²Ð¾Ð· Ð½ÐµÑģÐµ
Ð¼Ð¾ Ð¸
ĠÐ³Ð¾ÑĢ Ñ§
ĠÐ¾Ð± ÑĢÐµ
ĠÑģÐ¾Ð± Ð¾Ð¹
ĠÐ±Ð»Ð° Ð³Ð¾ÑĢÐ¾Ð´
ĠÐºÑĢ Ð¾Ñĥ
Ð½êĻĭ ÑĤÐ¸
ĠÐºÑĢÐ° Ð»Ñİ
ĠÑħÐ¾ÑĤ ÑıÑĤ
ĠÑģÐ¿ ÑģÐ°
ĠÎ¹ Ð¼
Ð¾Ð¶Ð° ÑĤ
ĠÐ²ÑģÑı Ðº
ĠÐĹ Ð½Ð°
ĠÐ·Ð½Ð° ÐµÐ¼
ĠÐ¿Ñ£ ÑĪÐ¸Ñħ
ĠÐ¿ÐµÑĩÐ° Ð»Ð¾Ð²Ð°
ĠÐºÑ¹ ÑĢÑĭ
ĠÐ¸Ð½ Ð¾Ðº
ĠÐ±ÐµÑĢÐµ ÐºÐ¾Ð²Ðµ
ĠÐ²Ð¾Ð´Ð° ÑĤÐ¸
ĠÑĤÐµÑĢ Ð¿Ð¸
ĠÐ·Ð°Ð¿Ð¸ ÑģÐµÐ¹
ĠÐ¿Ñ¹ ÑģÑĤÑĭÐ½Ð¸
ĠÐ»Ð¾Ñĥ ÐºÐ°
ĠÐ¸Ð·ÑĬ Ð¸Ð¼Ð°
ĠÑħÐ¾ÑĢ Ð¾Ð±ÑĢÐ°Ñı
ĠÐ¾ÑĤÐ¿Ñĥ ÑģÑĤ
ĠÐ²Ð¸Ð´Ð¸ Ð¼ÑĬ
ĠÐ·Ð´Ð¾ÑĢ Ð¾Ð²Ñ¹
ĠÐłÑĥ ÑģÑĮ
ĠÐ±Ñ§ ÑħÑĥ
ĠÑİÐ½Ð¾ ÑĪÐ°
ĠÑħÐ»Ñ£Ð± Ð¾Ð¼ÑĬ
ĠÐ¿ÑĢÐ¾Ð· Ð²Ð°
ĠÐ¿Ð¾Ð¼ÐµÑīÐ¸ ÐºÐ¾Ð¼
ĠÐ½ÐµÐ½Ð°Ð²Ð¸ ÑģÑĤÑĮ
ĠÐ¿ÑĢÐ°Ð·Ð´ Ð½Ð¸ÐºÑĬ
ĠÐ§Ñĥ ÑĢÐ¸Ð»Ð°
ĠÐŁÐ¾Ð¿ Ð¾Ð²Ð¸Ñĩ
ĠÑģÐ¼Ð¾Ð»ÑĮ Ð½Ðµ
ĠÐĿÐ¸ÐºÐ¸ÑĤÐ¸ Ð½Ð¸Ñĩ
ĠÐ¸Ð·Ð¼Ñ£ Ð½
ĠÐ·Ð°Ð¼Ñĥ Ð¶ÑĮ
ĠÐºÑĸÐ²Ñ¡ ÑĤÑĬ
ĠÑĢÐ°Ð·Ð´ Ð¾Ð»ÑĮ
ĠÐĺÐ·Ñ§ ÑģÐ»Ð°Ð²
ĠÐ·Ð°Ð¼ÐºÐ½Ñ¹ ÑĤÐ¾
Ðµ ÑĨÑĬ
ÑĤ Ð°ÑĢÑĮ
Ñģ Ð½Ñĭ
ĠÑģ Ð¾Ð´ÐµÑĢ
ĠÐ² Ê¼
ĠÐ´ Ð½Ñı
Ñ§ ÑģÐ°
Ð³ Ð´Ñ£
ĠÐ± Ð¾Ð´
ĠÐ½Ð° Ð¶Ð¸
ĠÐ½Ð° Ð²ÐµÐ´
Ð»Ð¸ ÑĤÑĬ
Ñĸ ÐµÐ¼
ĠÐ° Ð±Ð¸Ñ¥
ĠÐ· Ð¾ÑĢ
Ð¶ êĻ¿
Ð¾Ñģ Ð¾Ð¼
ĠÑ¿ ÑĢÐ°
ĠÑ¿ ÑģÑĤêĻĭÐ¿Ð¸
ÑĢÐµ Ñ§
ĠÑħ ÑĢÐµÐ±
ĠÐ¾Ñĥ ÑĤÑĢÐµ
ÑĪÐ¸ Ð²Ð°ÑĤÑĮ
ÑīÐµ Ð½Ð¸Ñı
ÑĩÐ¸ ÑĪÐ°ÑģÑ§
Ð»Ð¾ ÑĦ
ĠÐ¾ÑĤ Ð¿êĻĭ
ÑĩÐ° Ð»Ð¾
ĠÐĶ ÐµÑĢ
ÑĢÐ¾ ÑģÑĤ
ĠÐ¢ Ð¾Ð³Ð°
ĠÐ²ÐµÐ»Ð¸ ÑĤÑĬ
Ð²Ñĭ Ð¼Ð¸
ĠÐ³ÑĢÐ° Ð´ÑĮ
Ð»Ñ§ Ñİ
ĠÐ³Ð»Ð° ÑĤÐ¸
ĠÑĨÐ°ÑĢ ÑĸÐµ
ĠÑĢÐ°Ð· ÑĢÑ£
ÑģÑ£ Ð¼ÑĮ
Ð¾Ð¶Ð¸ Ð»
Ð»Ñĭ Ð¼ÑĬ
ĠÐ±ÐµÐ· ÑĩÐµÑģÑĤ
ĠÑģÑĤÑĢÐ° Ð´Ð°
ĠÑķ ÐµÐ»Ð¾
Ð³Ð¾Ð» Ð°
ĠÐ±Ð»Ð° Ð³ÑĬ
ĠÐ¿Ð»Ð° Ð¼ÐµÐ½ÑĮ
ÑıÑĤ Ð½Ð¾
ĠêĻĩ Ð¶Ðµ
ĠÑ³ Ð¾Ð¼Ð¸
ĠÑĤÑĬ ÑĩÑĸÑİ
ĠÑĢÐ¾Ð´ Ñĭ
ĠÑĢÐ¾Ð´ Ð¸ÑĤÐµÐ»Ð¸
ĠÑģÐ¾Ð» Ð½ÑĨÐ°
ĠÑĩÐµÑĢ ÐºÐ°
ĠÐ¿Ñ£ Ð½Ñ§
ĠÐ´êĻĭ Ð¼Ñĭ
ĠÐ·Ð´ ÑĢÐ°Ð²Ð°
ĠÐ·Ð°Ð¿Ð° ÑģÑĭ
ĠÑģÑĤÐ¾ÑĢ Ð¾Ð¶
ĠêĻģÐµÐ¼ Ð¸
ĠÐ¿Ð¾ÑģÐ»Ðµ Ð´Ð¸
ĠÑģÑĤÐ°ÑĢÐ¾ ÑģÑĤÑĭ
ĠÑĥÐ¼ ÑĢÐµ
ĠÐ¼Ð¾Ñĥ Ð¶Ðµ
ĠÐ²ÐµÑģÐµÐ»Ð¸ ÑĤ
ĠÐ¼Ð½Ð¾ êĻģÑ£
ĠÑĥÑĩÐ¸Ð½Ð¸ Ð»
ĠÐ¶Ð¸Ð²êĻĭ ÑīÑĸÐ¸
Ð²ÐµÑģ ÑģÐ°
ĠÐ»Ð°ÑĤÐ¸Ð½Ðµ ÑģÐºÐ¾Ð¼Ð¾Ñĥ
ĠÐ²ÐºÑ¹ Ð¿Ñ£
ĠÐ·Ð°ÑħÐ°ÑĢÑĮ Ð¸
ÑĢ ÑĶ
Ñģ ÐµÑĤÑĬ
ĠÐ¸ ÑĨÑ£
ĠÐ¸ Ð²Ð¾Ð»
Ð¼ ÐºÐ¸
Ð¼ Ð»Ðµ
Ð´ êĻĳÐ¸
Ñ§ Ð¶Ð°
ÑģÑĤ Ð°ÑĢÑ£
ĠÐ± Ð¾Ð·Ñ£
ĠÐ¾ ÐºÐ»Ð°Ð´
Ñĩ Ð½Ð¸
ÑĤÐ¸ êĻĹ
êĻĭ Ð¼Ð°
êĻĭ Ð´Ð¸Ð½Ð°
ÐµÐ½ ÑĭÐµ
ĠÐ» Ð²ÑĮ
Ð²Ð¾ Ñĩ
Ð²Ð¾ ÑĤÐ¸
Ð´Ð° ÐµÑĤÑĬ
ĠÑģÑĤ Ð¼êĻĭ
ĠÐ¿ÑĢÐ¸ Ñ§ÑĤ
ĠÐ¿ÑĢÐ¸ Ð²Ð¾Ð·
ĠÐ¾Ñĥ ÐºÐ¾ÑĢ
ÑģÐº Ñ£Ð¸
ÑĩÐ¸ Ð¼Ð¸
ĠÐ¼Ð¾ ÐµÐ¼Ñ¹
ĠÐ»Ð¸ Ð³Ð°
ĠÑĸ Ñİ
ĠÐ²Ñĭ ÑħÐ¾Ð´
Ð½Ñı ÑĤÑģÑı
êĻ¿ ÑĤ
ĠÐ²ÑĮ ÑģÐº
ĠÐ±Ñ£ ÑģÐ°
ĠÑ» Ð½êĻĹ
ÑģÑĤÐ² ÑĸÐ¸
ĠâĢ ¦
ĠÐĵ Ð¾Ð»
Ð·Ñĭ ÐºÑ¡Ð²ÑĬ
ĠÑĨÑĢ Ñģ
ĠÐºÑĢ êĻĭ
ĠÑģÑĤÐ°ÑĢ ÑĮ
ÐºÐ°Ð·Ð° ÑĤÐ¸
ĠÑģÑ¹ Ð³Ñ¹
ĠÑ³ Ð°
ĠÐ²Ð¾Ð´ êĻĳ
ĠÐ¶Ð° Ð»
ĠÑĤÑĮ ÐºÐ¼Ð¾
Ð¾Ð¿Ð¾Ð» ÐºÐ°
ĠÑĨÑ£ Ð»
ĠÐ¿ÑĢÐ¾Ð¼ êĻĳÑĪ
ĠÐľÐ° Ð»Ð¾
ĠÐ¶Ð¸ÑĤ ÑĸÐ°
Ð½êĻĹ Ð³Ð¾
ĠÐ¿Ð¸Ñģ Ð¼Ñ£
ĠÐºÐ»Ð° Ð´Ñ§
ĠÑħÐ¾ÑĢ Ð¾Ð¼
ÑĪÐµÐ½ÑĮ Ðµ
ĠÐ¿Ð»ÐµÐ¼ Ñ§
ĠÐ¿Ð¾ÑĢÐ° Ð·
ÑģÐµÐ½ ÑĸÐ°
ĠÐ¼Ð¾ÑģÐºÐ¾Ð² ÑģÐºÐ¾Ð³Ð¾
ÑĪÐ½Ð¸ Ñħ
Ð³ÑµÐ¿ ÐµÑĤÑĬ
ĠÑģÐ¿Ð¸ ÑģÐ¾Ðº
ĠÐ¿ÑĢÐ¾Ñĩ Ð¸ÑĤÐ°
ĠÐºÑ£ Ð¼ÑĬ
ĠÑģÐ¿ÑĢÐ°ÑĪÐ¸ Ð²Ð°ÑĤÑĮ
ĠÐ¿ÐµÑĩ ÐµÑĢÑĮ
ĠÐ¿ÑĢÐ¸ÐµÐ´ ÐµÑĤ
ĠÐ³ÑĢÐ¾ ÑĪÐµÐ¸
ĠÐĺÐµÑĢ ÑĥÑģÐ°
Ð½ ÐºÐ¾
Ñģ Ð¾Ð¼
Ð² Ð¸ÑĤÐµ
ĠÑģ Ð¸ÑĤ
Ð´ Ð²
ĠÐ´ ÐµÐ¼ÐµÐ½
ĠÐº Ð½Ðµ
ĠÐº ÐµÐ¼ÑĬ
ĠÐº Ð¾Ð¼Ð°
ĠÐ¾ ÑħÐ¾ÑĤ
Ð»Ð¸ Ð²Ð¾
ÑĨ ÐºÐ¾Ðµ
êĻĭ ÑģÑĤÐ¸
ÐµÑĤ ÑĪÐ°
ĠÐ· Ð²Ð°Ð½
ĠÐµ Ð½
ĠÐ¶Ðµ ÑģÐ»Ñģ
ĠÑĩ ÐµÑĤÑĮ
ĠÐĲ Ð¼Ð¸ÑĢ
ĠÐ¿ÑĢÐ¸ ÐºÐ»Ð°Ð´Ñĭ
ÑĪÐ° Ñħ
ÑĢÐµ Ð²Ð¾
êĻģ Ð»Ñ£
Ð²Ð¸ Ð´Ð¸ÑĤ
ĠÑĢÐ° Ñı
ĠÑģÑĬ Ð½ÑĬ
ÑĤÐ° Ñ§
ĠÐ»Ñİ ÑĤÐ¾
ĠÐ»Ñİ Ð´ÑĬ
ĠÑģÐ¸ ÑģÐ¸
ĠÐ²Ð° Ð°
ĠÐ²Ð° Ð»Ð°Ð°
ĠÑ¥ Ð¼
Ð³Ð° Ð½ÑĬ
Ð·Ð° Ð»ÑĬ
ÑģÐ¿ ÑĬ
ĠÐ´Ð¾Ð± ÑĢÑĮ
ĠÑģÑĤÐ° Ð½Ñ§
ĠÐ¼Ñ£ ÑīÐ°
ÑĨÑ£ ÑĤÐµ
Ð²Ð°ÑĤÐ¸ ÑģÑı
ÑĸÑİ ÑĤÑĬ
ÐºÐ¾Ð² Ð¾Ñĥ
ĠÐ³Ð»Ð°Ð³Ð¾Ð» ÑİÑĤÑĬ
ĠÐ¿Ð¾ÑģÐ»Ð° ÑĤÑĮ
ĠÐĽ ÑİÐ±
ĠÐĽ ÑıÑħ
ĠÑģÑĤÐ¾ ÑıÑĤÑĮ
ĠÑ³ Ð¾Ð¼Ñ£
ĠÐ³Ð¾ÑĢÐ¾Ð´ Ð¾Ð¼ÑĬ
ĠÐĹ Ð»Ð°
ÐµÐ· Ð´
ÑĪÑĤÐµ Ð¸
Ð½ÑĥÑĤ ÑĢÑĮ
ĠÐ½Ð± ÐºÐ¼
Ð¿Ðµ ÑĨ
ĠÐºÐ½ Ð·Ñı
ĠÐ¼Ð¾Ð³ Ñ«
ĠÐ±ÑĭÐ²Ð° ÑİÑĤ
Ð¾Ð»Ñ£ ÑĤ
Ð¼Ð¸ÑĢ Ð¾Ð²Ð¸Ñĩ
ĠÑĤÐµÑĢ Ð¿Ñ£ÑĤÐ¸
Ġ1 5
ĠÑģÐ°Ð¼Ð¸ Ð¼
ĠÑĨÐ°ÑĢÐµ Ð²Ð¾
ĠÑģÐºÐ¾ ÑĤÑĭ
ĠÐ½Ð°Ñĩ ÐµÐ»
ĠÐ¼ÑĮÑģÑĤÐ¸ ÑģÐ»Ð°Ð²Ð°
ÑĤÐ²ÐµÑĢ Ð´Ð¸
ĠÑĭ Ð·
ĠÑĪÐµÐ» ÐºÐ¾Ð²ÑĭÐµ
ĠÑģÑĢÑ£ ÑĤÐµ
ĠÑĩÑĢÐµ Ð²Ð°
ĠÐ²Ð°ÑĪ ÐµÐ¼Ñĥ
ĠÐ²ÑĭÑģÐ¾Ðº Ð¾Ñİ
ĠÐ³Ð»Ðµ ÑĪÐ¸
ĠÐ±Ð¶ÑĤÐ² Ð½Ñĭ
ĠÐ½Ñİ Ð¶Ðµ
ĠÐ±ÑĢÐ°ÑĤÑĸÐµ Ñİ
ĠÐĵÐ»Ð°Ð³Ð¾Ð» Ð°
ĠÑģÐ¼Ð¾Ð»ÑĮ Ð½ÑĮ
ĠÐĶÐµÐ² Ð³Ðµ
Ð¾Ð²Ð¾Ð» Ð½Ð¾
ĠÐ¾ÑģÑĤÐ°Ð½ ÐµÑĤÑģÑı
ĠÑģÐºÐ¾Ð±Ðµ ÐµÐ²
ĠÐ¿Ð¾Ð¿ÑĢÐ°Ð² ÐµÐ½Ð¾
ĠÑĢÑİ ÑĢÐ¸
Ð» Ð¾Ð³
ĠÐ² Ð¾Ð¿Ð¸
ĠÐ½ Ñı
ĠÐ´ ÑħÑĮ
ĠÐ´ ÑĸÑı
ĠÐ¼ Ð½ÑĬ
Ð± Ð¾Ð¶ÑĮ
Ð· Ð²ÐµÐ´
ĠÐ½Ð° ÑĩÐµ
ĠÐ½Ðµ ÑĩÐµÐ¼
ĠÐ° Ð»ÐµÐºÑģÑ£
ĠÐ» ÐµÑĤÐµ
ÐµÐ» ÑĸÐµ
Ð¾Ð½ Ñİ
ĠÐ¿ÑĢÐ¸ Ð³Ð¾ÑĢÐ¾Ð´
ĠÐ¿ÑĢÐ¸ êĻĹÑĤÐ¸
ÑĢÐµ ÐºÐ¾
ĠÐ¾Ñĥ ÑĩÐ¸Ð½Ð¸
ĠÐ¶ Ñĸ
ĠêĻĹ ÐºÑĭ
ĠÑĤÐ° ÑĤÑ§
ĠÐºÑĬ Ð¶Ð´Ð¾
Ð»Ñ£ ÐµÑĤÑĬ
Ð¾Ð´Ð¸ Ð»
ĠÐ¿ÑĢÐ¾ ÑħÐ¾Ð´
Ð³Ð° Ð³Ð¾
ĠÐ²ÑģÑ§ ÑĩÐµÑģÐºÐ¸
ĠÐ¾Ð± Ð¾Ð»
ĠÐľ Ð¾ÑĢ
ĠÐľ Ñ¹
ĠÑĢÑĥ Ñħ
Ð¾Ð³Ð° ÑĤÐ¸
ĠÑģÐ¾ ÑĦÐ¾Ð½
ĠÐºÐ°Ðº Ð¾Ð²ÑĬ
Ð·Ñĭ Ð²Ð°Ð»
ĠÐºÑĢ Ñĸ
ĠÐ´ÑĢÑĥ Ð³Ð¾Ðµ
ĠÑĤÑĢ êĻĭÐ´
ĠÐ³ÑĢÐ¸Ð² Ð½Ð¾Ñĥ
Ð¾ÑģÐ»Ð° Ð²ÑĮ
ĠÐ±ÑĮ Ñ¥ÑĤÑĮ
ĠÐ±Ð° Ð±Ð¸
ĠÐ»Ñĥ Ð³Ð¸
ÑĤÑĢ ÐµÑĤÑĮ
ĠÐºÐ°Ð· Ð½Ð¸ÑĤÑĮ
ĠÐ²Ð°ÑģÐ¸ Ð»Ñ§
ÑĢÑ¹ Ð³
ĠÐ¸Ð½ Ð¾Ð¿Ð»ÐµÐ¼
ĠÐºÐ½ êĻĻ
ĠÐ¿ÑĢÐ¸ÐºÐ°Ð· Ð½ÑĭÑħ
ĠêĻģÐµÐ¼ Ð»êĻĹ
ĠÐºÑĥÐ¿ Ð»ÐµÐ½Ð¾
ĠÐ±Ð¾ÑıÑĢ ÑģÐºÐ¾Ð¹
Ð½Ñ¡ Ð¼ÑĬ
ĠÐ¿ÑĢÐ°Ð²ÐµÐ´ Ð½Ð¾
ÑģÑĤÐ²êĻĭ Ð¸
ĠÐ³ÑĢÐµ ÐºÐ¸
êĻģÐ¸ Ð¸
ĠÐĽÐ° Ð·
ĠÐ²Ð¾ÑģÑĤÐ° ÑĪÐ°
Ð³Ð»Ð¸ Ð½
ĠÑĤÐ¾ÑĢÐ³ Ð¾Ð²Ð°
ĠÐ¿ÑĢÐ¾ÑĢ Ð¾ÐºÐ°
ĠÑ³ÐµÐ´ Ð¾ÑĢÐµ
ĠÐ¾ÑģÑĤÐ°Ð² Ð»ÑĮ
ĠÐ¿ÑĢÐµÐ±Ñĭ ÑģÑĤÑĮ
ĠÐĳÐµ êĻģ
ĠÐ·Ð¾Ð² ÑĥÑĤ
ĠÐ¶ÐµÑĢÐµÐ±ÑĮ Ñı
ĠÑģÐ²Ñ£ÑĤÐ¸ Ð»
êĻĥ Ñ£
ĠÑıÑĢÐ¾Ð¿Ð¾Ð» ÐºÐ°
ĠÐ´Ð²Ð°ÑĤÑĨÐ° ÑĤÐ¸
Ð³ÑµÐ¿ÐµÑĤ ÑģÐºÑĸÑ§
ĠÑħÐ¾ÑĩÐµ ÑĪÑĮ
ĠÐºÑ¡Ð½ ÑģÑĤÐ°Ð½
ĠÐ¿Ð¾ÑģÑĢÑ£ Ð´Ñ£
Ñ¡Ð½Ð°Ñ³Ð° Ð½ÑĬ
ĠÑģÐ¾Ð²Ðµ ÑģÑĤÐ¸
Ð¾ ÑĦÐ°
Ðµ Ð½Ð¸Ð¸
Ñģ ÐµÐ½ÑĬ
Ðº ÑĪÑĮ
ĠÐ´ Ð¼
Ñı Ð»
Ñĩ Ñĳ
ĠÐ½Ð° ÐºÐ»Ð°Ð´
Ð¿ ÑĢÑĮ
Ð½Ð¸ Ð»Ð°
Ð½Ð¸ ÐºÐ¾
ĠÑĢ Ð¶
êĻĭ Ð¸
ĠÐ· Ð²Ð¾Ð½
Ð½Ð° Ð¼
ĠÐ²ÑĬ Ð½Ðµ
Ð¶Ðµ Ð½ÑĸÐ°
Ð¾Ð½ Ð¾Ñĥ
ĠÐ¿ÑĢÐ¸ Ð´ÐµÑĤÑĬ
Ð´Ð¸ ÑĪÑĮ
ĠÐŁ Ð¾Ð¼ÐµÑģÑĤ
ĠÐ¡ Ð²Ð¾
ĠÐ¡ Ð¾Ð·
ĠÑĢÐµ ÐºÐ¾Ð¼
Ñ¥ Ð¶Ðµ
ĠÑĤÐ° Ð´
ĠÐ²Ñ£ Ð´ÑĭÐ¸
ĠÐ¼Ð° Ð¼ÐµÐ½ÑĮ
ĠÐ¼Ð° ÑĢÐ¸Ñ§
ĠÐ´Ð¾Ð± ÑĢÑĥ
ĠÐ²Ð¾Ð· Ñ§
ĠÑ¹ ÑĤ
ĠÑĪ Ð»Ð°
Ð»Ñ§ Ð¸
ĠÐľ êĻĭ
ĠÐ³Ð»Ð° Ð²Ð¸
ĠÑģÐ¾ ÑģÑĤÐ°
ĠÑĢÐ°Ð· ÑģÑĥ
ĠÐ²Ð¾Ð» Ñĭ
ĠÐºÐ¾ÑĤÐ¾ÑĢ ÑĥÑİ
Ð¾ÑĢÐ¸ Ð»Ð¸
ĠÑģÑ£ ÑĤÐ¸
ĠÑģÑ£ ÑĤÑĮ
ĠÐºÑĢ Ð¾Ð¼Ðµ
ĠÐ³Ð» Ñī
ĠÐ±Ð¶ ÑĸÐµ
ĠÑħÐ¾ ÑĩÑİ
ĠÐ¡Ðµ Ð¸
ÑģÑĤÑĥ Ð¿Ð°ÑĤÐ¸
Ð³ÑĢÐ° Ð´ÑĬ
ĠÐ¿ÐµÑĩÐ° ÑĤÑĮÑİ
ÑĪÑĬ ÐºÐ°
Ð¶Ð´Ðµ Ð½Ð¸
ĠÐ¿êĻĭ ÑģÑĤÑĭÐ½Ñİ
ĠÐ±Ð¸ÑĤÐ¸ ÑģÑı
ĠÐ½Ð°Ð¿ ÑģÐ°
ĠÑĤÐ¾Ð²Ð°ÑĢ Ñ¹
ÑĩÐµÑĤ Ñĥ
ĠÐŁÐ° Ðµ
ĠÐ¿ÑĢÐ¸ÑħÐ¾Ð´ Ðµ
ÑĤÐ²Ð¾ÑĢÐ¸ ÑĤÐ¸
ĠÐ²Ð¸Ð½Ð¾Ð²Ð° ÑĤÐ¾Ð¼
ĠÐ¿ÑĢÐ¸Ñģ Ð¾Ð»Ð¸
ĠÐ½Ð°Ð¿Ð¸ ÑĪÐ¸
ĠÐ²Ñĸ Ð½Ð°
ĠÑħÐ¾Ñĩ ÐµÑĤÑĮ
ĠÐ¿Ð¾ÑħÐ¾ ÑĤÑĮ
ĠÐ²ÐµÐ»Ð¸ÐºÑĭ Ñħ
ĠÑĢÐ¾Ð´Ð¸ÑĤ ÐµÐ»Ðµ
ĠÐ´Ð¸Ñı Ð²Ð¾Ð»
ĠÑģÑµ Ð¼Ðµ
ĠÐ¿Ð¾Ð²Ð° ÑĢÐ°
ĠÐ´Ð¾Ð¶ Ð´ÑĮ
ĠÐ·Ð°Ð¿Ð¸ÑģÐ° ÑĤÐ¸
ĠÐ¾ÐºÐ¾ ÑĪÐµ
ĠÑģÑĮÐ¼ÑĮ Ñİ
ĠÐĵÑĢÐ° Ð¼Ð¾ÑĤÐ°
ĠÐ¼Ð¾Ð¶Ð° ÑĪÐµ
ĠÑģÐ¸Ð½Ñĳ Ð¼
ĠÐ°Ð»ÐµÑ¯Ð°Ð½Ð´ ÑĢÑĬ
ĠÐºÑĢÐµÐ¿Ð¾ÑģÑĤÑı Ð¼
ĠÐĴÐ¾ÐµÐ² Ð¾Ð´Ð°
ÑĤ Ð¾ÑģÑĬ
Ñģ Ð²Ñ£ÑĤ
Ð´ Ð½Ð¸ÐºÐ°
Ð´ ÐµÐ»ÑĬ
ÑĪ Ð½ÐµÐµ
Ð± Ð½Ð¾
Ð¾Ð² ÑĥÑİ
Ð· ÐµÑĢ
Ð»Ð° Ð¼Ð°
ĠÐ° Ð»ÐµÐº
ĠÐ²ÑĬ ÑħÐ¾
Ð´Ð° ÑĢÐ¸
ĠÑĥ Ðº
ĠÐ·Ð° ÑĢÑĥ
ĠÑĨ ÐµÑģ
ĠÐ¾Ñĥ Ð³Ð¾ÑĤÐ¾Ð²Ð°
ÑģÑĤÐ¸ Ð²ÑĬ
ĠÑģÑĬ Ð´Ð°
ĠÑģÑĬ Ð²ÑĮÑĢ
Ð»Ð¾ ÑĤÑĮ
ĠÑĶ Ð¼Ñ¹
ĠÐŁ Ð¾Ð´Ð°
ÑĩÐ° ÑĤÑĭÐµ
ĠÐºÐ° ÑĪÐ¸
ĠÑĢÐµ ÐºÑĭ
ĠÑĤÐµ ÐºÑĥ
ÑĢÑĬ Ð²
ĠÐ¸Ð· Ð´Ð°
ĠÐ²Ñ£ ÑĮ
ĠÐ²Ñ£ Ð´Ð°ÑĤÐ¸
ĠÐ¿Ð° Ð³Ñ¹
ĠÐ¼Ð° Ð»Ñĥ
Ð·Ð° Ð½ÑĬ
ĠÐ¿Ð¾Ðº Ð¾ÑģÑĭ
ĠÐ¶Ð¸ Ð·
Ð½Ñ§ Ð½Ðµ
ĠÐ´Ð¾Ð± ÑĭÑĤ
ĠÐ³Ð»Ð° ÑģÑĭ
ĠÑģÑĭ ÑģÐºÐ°ÑĤÐ¸
ĠÑĤÑĭ Ð¼ÑĬ
ÐµÐ² êĻĭ
ĠÐ´Ð¾Ð¼ Ð¾Ð²Ð¸
ĠÐ±Ð¶ ÑĸÐ°
ÑģÑĤÐ°Ð²Ð¸ Ð»ÑĬ
ĠÐºÐ°ÐºÐ¾ Ð¸
ĠÑ¡Ð± Ð¸ÑĤÐµÐ»Ð¸
ĠÐ¶Ð¸Ð²Ð¾ ÑĤÐ¸
ĠÐºÐ½ÑıÐ· ÐµÐ¼
Ð¿Ñĥ ÑģÐºÐ°
ĠÐ¿ÑĮ ÑĢÐµ
ĠÐ¼Ð½Ð¾Ð³Ð¸ Ð¼ÑĬ
ĠÐ¦ ÑĢÑĮ
ĠÐ¿Ð¾ÑĪ Ð»ÐµÑĤ
Ð½êĻ¿ Ð½Ð¾
ĠÐºÐ¾Ð¿ ÑĬ
ĠÐ¿Ñ§ÑĤÑĮ Ð´ÐµÑģÑ§ÑĤÑĬ
ĠÐ¿ÑĢÐ¸Ð²ÐµÐ´ ÐµÑĤ
ĠÐ¼Ð°Ð½Ð°ÑģÑĤÑĭ ÑĢÑ§
ĠÐ¿ÑĢÐ¸ÑħÐ¾Ð´Ð¸ Ð»Ð¸
ĠÑģÐ²Ð¾Ð±Ð¾Ð´ Ñ¹
ĠÐ¿Ð¾Ð²Ð°ÑĢ Ð½Ñİ
ĠÑ¡Ð» Ð³
ĠÐ¸Ð³Ð½Ð° ÑĤÐ°
ĠÐ¡Ð¾Ð» Ð¾Ð¼
ĠÐ°Ð»ÐµÑ¯ Ð°Ð½
ĠÐ¸Ð½Ð¾Ð·ÐµÐ¼ ÑĨÑĭ
ĠÐ½Ð°Ð²Ñĭ Ðº
ĠÐ¸ Ð½ÑĭÑ§
ĠÐ¾ ÑģÐºÐ²ÐµÑĢ
Ð¿ ÑĸÐ°
Ð¾Ð¼ Ñ«
ĠÐ° Ð´ÑĬ
ĠÐ° Ñ³Ð¾Ð½
ĠÐ· Ð³Ð¾Ð²Ð¾ÑĢ
Ð¶ Ñı
ĠÐ´Ð° Ñ§
Ð½Ñĭ Ð¼Ð°
ĠÐĲ Ð»Ð¸Ð¼Ð¿Ð¸Ñı
ĠÑ¡ ÑģÑ£
ĠÑ¡ Ð´Ð¸Ð½ÑĬ
ÑĪÐ° ÑİÑīÐµ
Ð¼Ð¸ Ðµ
Ð¾Ðº êĻĭ
ĠÑĨ Ñ§
Ð°ÑĢ Ð¸ÑĤ
Ð°ÑĢ Ñ¡Ð½ÑĬ
ĠÑģÑĬ ÑģÑĮ
ĠÐ±Ñĭ ÑħÐ¾Ð¼ÑĬ
Ð½ÑĮ ÐµÐ¼ÑĬ
ĠÑģÐ» ÑĮÑĸ
ĠÑģÐ° Ð±Ð»Ñİ
ĠÐ¢ Ð¾Ð²Ð°
ĠÐ¿ÑĢÐ¾ ÑģÑĤÑĭ
ĠÐ¼Ð° Ð»Ð¸
ĠÑĤÐ²Ð¾ Ð¸Ð¼
Ð¼Ñĥ ÑĤ
ĠÑĪ ÑĤÐ¾Ð±Ñĭ
ÑĶ Ð²
ÑģÑĤÐ² Ñ«
ĠÐºÐ¾ÑĢ ÑĩÐµÐ¼
ĠÐ±ÐµÐ· Ð°ÐºÐ¾Ð½ÑĮ
ĠÑĦ ÐµÐ²ÑĢÐ°
ĠÐ±Ð¾Ð» ÑĬ
ĠÐ²ÑģÑı ÐºÑĬ
ĠÐ¼Ð» ÑĤÑĮ
ĠÑģÐ¾Ð» Ð½Ðµ
êĻģÐ° Ð¼Ð¸
Ð½ÑĸÐ¸ ÑħÑĬ
ĠÐ¿Ð¾Ð´Ð° Ð²Ð°ÑĤÐ¸
ĠÐ¿ÑĢÐ¾Ð¼ êĻĳÑģÐ»Ð¸
ĠÐ¡Ð¸ Ðµ
ĠÐ¶Ð¸ÑĤÐ¸ Ñİ
ĠÐ¾Ð³ Ð½Ñ§
ĠÐ»Ð¾Ñĥ ÐºêĻĳ
ĠÐ´ÐµÐ² Ñı
ĠÐ¿Ð»Ð¾ ÑīÐ°
ĠÐĴÑ£ Ð´Ð¾Ð¼Ð¾
ĠÑĨÐ°ÑĢÐ¸ ÑĨÐµ
ĠÐ²Ð¼Ðµ ÑģÑĤÐµ
ĠÑĤÑĢÐµÑĤÐ¸ Ð¹
Ð³Ð¾Ð´Ð°ÑĢ ÐµÐ½
ĠÑĥÐºÐ°Ð·Ð° Ð»ÑĬ
ĠÑĦÐ°ÑĢÐ° Ñ¡Ð½ÑĬ
ĠÐĲÐ´Ð° Ð¼Ð°
ĠÑĤÐ¾ÑĢÐ³Ð¾Ð² Ð»Ðµ
Ð³Ð¾ÑĢÐ° Ð·
ÑģÑĤÐ²ÑĬ Ð¼ÑĮ
ĠÑĢÐ¾ÑĥÑģÐ¸ Ð½Ð¾Ñĥ
ĠÐ±Ð¾Ð±Ñĭ Ð»Ð¸
ĠÑģÐ°Ð¶Ðµ Ð½Ñĭ
ĠÐ¿ÑĢÐ¾ÐºÐ»Ñ§ ÑĤÑĬ
ĠÐ°Ð»ÐµÐºÑģÐ°Ð½Ð´ ÑĢÐ°
ĠÐ¼Ð°Ð½Ð°ÑģÑĤêĻĳ ÑĢÐ¸
ĠÐļÐ°Ð½Ð´Ð° Ð²Ð»Ñĥ
ÑĢ Ð½Ð°
ÑģÑĤ Ð½Ð¾Ð¹
Ð± ÑĢÐ¸
ĠÐ¿Ð¾ ÑģÑĤÐ¾
ÐµÐ½ êĻĭ
Ð²Ð¾ ÑĤÐ¾
Ð¶ Ñ§ÑĤÑĮ
Ð½Ð¾ ÑĪÐ°
Ð½Ð¾ ÑīÐ¸
ĠÐĺ Ð´ÐµÐ¶Ðµ
ĠÑģÑĤ ÐµÑĢÐµ
êĻĹ ÑħêĻĭ
ĠÑĥ ÑģÑĤÐ°Ð²
Ð´Ð¸ Ð½Ð¾Ñĥ
ĠÐ·Ð° Ñ¹
ĠÐ¾Ñĥ Ð±Ð¸ÑĤÐ¸
ĠÑĢÐ° Ð´Ñ§
ĠÑĢÐ° Ð´Ñ¹
Ð»Ðµ ÑģÑĮ
ĠêĻĹ Ð·Ð¸
ÑĩÐ° Ñ§
Ð»ÑĮ Ð¸
ĠÑĤÐµ ÑĩÐµ
ĠÑģÐ° Ð¶ÐµÐ½Ð¸
Ð±Ð¸ ÑĨÑĮ
ÑīÐ¸ ÐºÑĬ
Ð³Ð° ÑĤÑĮ
ĠÑĤÐ²Ð¾ ÐµÐ¼Ð¾Ñĥ
ĠÑĤÐ¸ Ñħ
ĠÐ¶Ð¸ Ð²ÑĭÐ¸
Ð¼Ðµ ÑĤÐ¸
ĠÑĢÑĥ ÐºÐ°Ð¼Ð°
ĠÐ¿ÑĢÑ£ Ð¿Ð¾
ĠÐ¾Ð½ Ð´ÑĢÑ£
ĠÐ²ÑĬÐ· Ð´ÑĭÑħÐ°
ĠÐºÑĢÐ° ÑģÑĮ
ĠÐ¿Ð¾ÑĤ Ðº
ĠÐ¸Ð¼Ð° Ð»Ð¸
ĠêĻĩ Ð·
ĠÑ³ ÑĮ
ĠÐ¸ÑģÐ¿ ÑĬ
ĠÑĤÑĥ ÑĤÐ¾
ÑģÐºÑĭ Ð¼ÑĮ
Ð¾ÑģÐ¸ êĻĹ
ĠÐ»ÑİÐ± Ð¾Ð´Ñ£
ÑıÑĤÐ¸ ÑģÑı
ĠÑĢÐ¾Ð´ Ð¸ÑĤÐµÐ»Ñİ
Ð¼ÐµÑĢ Ð¸
ĠÐ²ÑĬêĻģ ÑĬ
ĠÐ·Ð½Ð° ÐµÑĤ
Ð³ÑĢÐ° Ð´Ð¸
ĠÐ¿ÑĢÐ°Ð² Ð´Ñ¹
ĠÐ¼Ð½Ð¾Ð³ ÑĭÐ¼Ð¸
Ð²ÑĪ Ð¾Ñĥ
ĠÐ´ÐµÑĢÐ¶Ð° Ð»Ð¸
ĠÐľÐ¸ Ð»Ð¾ÑģÑĤÐ¸
ĠÐ¿ÑĢÐ¾ÑĤÐ¸Ð² Ñ¹
ĠÐ¿Ð¾Ð»Ð¾Ð¶Ð¸ Ð»ÑĬ
ĠÐ³Ð¾Ð²Ð¾ÑĢÐ¸ Ð»Ð°
ĠÐ·Ð°Ð¿Ð¸ Ñģ
ĠÐ¦ Ð°ÑĢ
ĠÑģÐ»êĻĭ Ð¶
ĠÐ±Ð¾Ð»Ñ£ êĻģÐ½ÑĮ
ĠÑĢÐµÐºÐ¾ Ñħ
ĠÐ¿ÑĢÐ¸Ð½Ð¾ ÑģÐ¸ÑĤÐ¸
ĠÐŁÑĢÐµ Ð´
ĠÑĩÐ¸ÑģÑĤ Ð¾Ð¼ÑĬ
Ð³Ð»Ð¸ Ðµ
ĠÐ³ÑĢÑ§ Ð´Ñĭ
ĠÐ¿ÑĤÐ¸ ÑĨÑĭ
ĠÑĢÐ°Ð·êĻĭ Ð¼ÑĬ
ĠÐ¿ÑĢÐ¸Ð»Ð¾Ð¶Ð¸ ÑĤÐ¸
ĠÐ¾ÑģÑĤÐ°Ð² Ð»Ñı
Ð°ÐºÑ¡ Ð½
ĠÐ´ÑĥÑħÐ¾Ð² Ð½Ð°Ð³Ð¾
ĠÑģÑĤÐ°ÑĢÑ£Ð¸ ÑĪÐ¸Ð½Ð°
ĠÑģÐµÐ»Ðµ Ñħ
ĠÐ¾ÑĤÐ¿ÑĥÑģÑĤÐ¸ Ð»Ð¸
ĠÐ¿ÑĢÐ¸Ð· Ð¾Ð²
ĠÐ¾ÑĢÑĥ Ð¶Ð¸Ðµ
Ñ³Ðµ Ñ§
ĠÐ²ÐµÐ»Ð¼ Ð¾Ð¶Ð¸
ĠÐ²Ð»Ð°Ð´Ðµ ÑĤÐ¸
Ðµ ÑħÑĬ
ÑĤ Ð²Ñĥ
ÑĢ Ð¼Ð°
Ñģ Ð½Ñ£
ĠÐ¸ Ð½ÑĭÐ¼Ð¸
Ðº ÑĪÐµ
Ðº Ð¸ÑĤÐµ
ĠÐ´ Ð¾Ð¿Ð¾Ð»
ĠÑĤ Ð²ÑĢÑĬ
ĠÐ± Ð»ÑĮ
ÑĪ ÐºÐ¾Ñİ
Ð¾Ð² Ð¾Ñĥ
Ð»Ð° Ñģ
ĠÐ¿Ð¾ ÑĤÐ°Ð¸
ĠÐµ ÑĤÑĭ
Ð¶ Ð½Ð¾Ðµ
Ð²Ð° ÑİÑĩÐ¸
Ñ¡ Ð½Ñ£
ĠÑ¡ Ð±Ð¾Ð¸
ĠÐ¿ÑĢÐ¸ ÑģÑĤÑĥÐ¿Ð°
ĠÑ¿ ÑĢÐ¸
ĠÑģÐµ Ð±ÑĶ
Ð¾Ð³Ð¾ ÑĪÐ°
Ð½ÑĮ ÑģÐºÐ¾Ð¼Ñ¹
ĠÐ¡ ÑĸÐ¸
ĠÐ±Ðµ Ð¶Ð°
Ð¿Ð¸ ÑģÐºÐ°
ĠÐ¢ ÐµÐ»
ĠÐ¢ Ð¾Ñĥ
ĠÐ¢ ÑĢÐµÑĤÑĮ
ĠÐ¿Ð° ÑĪÐµÐ½
ĠÐ¿ÑĢÐ¾ ÑĪÐ°
ĠÐ¿ÑĢÐ¾ ÑģÑĤÑĮ
ĠÑĤÐ²Ð¾ ÐµÐ¼ÑĮ
ĠÐ±ÑĢÐ° Ð¶
ĠÐ¿Ð¾Ð´ Ð½ÐµÐ±Ðµ
ĠêĻ į
ĠÐŀ Ð»
ĠÐ²Ð¾Ð· Ð²Ñ£ÑģÑĤ
Ð½Ñı Ð°Ð³Ð¾
ÑģÐºÐ¸ Ñ¥
ĠÐ¿Ð¾Ð¼ ÑĮÑĸ
ÑĦ ÐµÐ¸
ĠÑģÑĤÐ° ÑĤÑĮÐµ
ĠÑ§ Ð¶Ðµ
ĠÐ²Ð· Ð¸ÑĢÐ°
ĠÑģÑĥ Ð¿ÑĢÐ¾ÑĤÐ¸Ð²
ĠÐ¸ÑģÐ¿ ÐµÑĢÐ²Ð°
ĠÐµÐ´Ð¸ Ð½Ðµ
ĠÐ²ÑģÑı ÐºÐ¾
ĠÐ´Ð¾Ð±ÑĢ Ð¾Ð¼Ñĥ
ĠÐ¿ÑĢÐ¾ÑĤÐ¸ Ð²Ð¾Ñĥ
ĠÐ´Ð¸ Ð°
ÑĤÑĢ Ñ¡
ÑĪÑĤ Ñ§
ĠÐ¾Ñģ Ð¾Ð±
ĠÐ¿Ð¾Ð»ÑĬ ÑĤÐ¾ÑĢÐ°
ĠÐ°Ð½ ÑĦ
ĠÑĤÑĢÐµ Ð¿ÐµÑĤ
ÑĦÐ¸ Ñ§
ĠÐ¼Ð¾Ð»Ð¸ ÑĤÐ¸ÑģÑı
ĠÑĢÐµÐº Ñ«
ĠÐ½Ð°ÑĢÐµ ÐºÐ¾ÑĪÐ°
ĠÑĥÐ±Ð¸ Ð»
ÑĭÐ¼ ÑģÑ§
ĠÐ¿ÑĢÐ¸ÑħÐ¾Ð´ Ñı
ĠÐŁÑĢÐµ Ð¶Ðµ
ĠÐ·ÑĬ Ð»Ð°
ĠÐ°ÑĢÑħ Ñĸ
ĠÑģÐ²ÐµÑĢ ÑħÑĬ
ĠÐĺÐ»ÑĮ Ñİ
Ð³ÑµÐ¿ ÑĤÐ°
ĠÐ´Ð°Ð²Ð° Ð¼
ĠÐ½Ñ£Ðº ÑĸÐ¸
ĠÑĤÑĢÐµÑĤÐ¸ Ðµ
ĠÐ¿ÐµÑĢÐ² Ð¾Ð³Ð¾
ĠÐ¿ÑĪÐµÐ½Ð¸ ÑĨÐµ
ĠÑģÐ¾Ð»ÑĮ Ñİ
ĠÐ±Ð»Ð°Ð³Ð¾Ð´Ñ£ ÑĤÐ¸
ĠÐ¿Ð¾Ð¼Ð¸Ð»Ð¾Ð²Ð° Ð½ÑĬ
ĠÐ¿ÑĥÑĤ ÐµÐ¼ÑĬ
ĠÑĢÐµÐ² Ð½Ñ¹
ĠÐ¿Ð°Ð²Ð»Ð¾Ð² ÑģÐºÐ¾Ð¼
ĠÑīÐµÐ´ ÑĢ
Ð³Ð¾Ð²Ñ£ÑĢ Ð½ÑĭÐ¸
ĠÐ»Ð¸Ð¿ÑģÐ²Ð° ÑģÐ»Ñģ
ĠÐµÑĥÐ° Ð³
Ð° Ð»Ð¸
ÑĢ ÐµÐ½ÑĬ
Ð» Ð¾ÑĤ
Ð» Ð¾Ð²Ðµ
Ð² Ð¾Ð½Ñĥ
Ðº Ð¾ÑĢÐ°
ĠÐ´ Ð»Ñ§
Ñ§ ÑħÐ¾
ĠÐ¼ Ð»Ðµ
ĠÐ¼ ÐµÑĢÐµ
Ð± Ð½Ð°
ĠÐ¿ÑĢ êĻĭ
ĠÐ¿ÑĢ Ð°ÑĢ
Ð½Ð¸ ÑĪÐ¸
Òĥ ,
ĠÐµ Ð»Ðµ
ĠÐ» Ð²Ð°
Ñ¡ ÑĢÐ°
ÑĪÐ° ÐµÑĤÑĮ
ĠÐ·Ð° ÑģÐµ
Ð²Ð¸ ÑģÑ§
ÑĤÑĬ Ð²Ñ£ÑĪÑĤÐ°
ÑīÐµ Ñİ
Ð»ÑĬ Ð¼ÑĮ
Ð²ÑĬ ÐºÐ¾
ĠÐ¶ ÑĢÐµ
ĠÑĤÐ° ÑĤÑĬ
ĠÑĤÐ° ÑĩÐµ
ĠÐ²Ñ£ ÑīÐ°
ĠÐ¼Ð° Ð»ÑĭÑħ
ĠÑĤÐ¸ Ð¸
ĠÑĤÐ¸ Ñİ
ĠÐŀ Ð²Ð¾
Ð±Ñ£ Ð¶Ðµ
ĠÐ¿Ð¸ ÑĪÑĥ
ĠÑģÑĭ ÑīÐµÑĤ
ÑģÑĮ Ñı
ÑģÑ£ ÑħÑĮ
ĠÐĵ ÑĢÑ£
ĠÐ½Ñ£ ÑĤÑĮ
ĠÐ²Ð¾Ð» Ð¾ÐºÐ¸
Ð»ÐµÐ½ ÑĹÐµ
ĠÐ¼Ñ£ ÑĢÐ°
ĠÐķ Ñĥ
ÑģÐºÐ¾ ÑĥÑİ
ĠÑİ Ð¶Ð½Ð¾
ĠÑģÐ¼ ÑĢÑĤ
ĠÐ¸ÑħÑĬ Ð¶Ðµ
ĠÐ´Ñĥ ÑĪÐµÑİ
ĠÐ´Ð¾Ð±ÑĢ Ñ¹Ñİ
ĠÐ½Ð°ÑĪ ÐµÐ¼Ð¾Ñĥ
ĠÐ£ Ð²Ð¸
ĠÐ´ÐµÑĢ ÑĮ
ĠÑģÐ¾Ð» Ñİ
ĠÐ¿Ð¾ÐºÐ° Ð¼Ðµ
ĠÑģÐ¼ÐµÑĢ ÐµÐ½Ð¾
ĠÑĩÐµÑĤ Ð¾
ĠÐ²ÐµÐ»Ð¸ÐºÐ¸ Ñı
ÑİÑī ÑĭÑ§
ĠÐ²ÑĬÐ´Ð° Ð»ÑĮ
ĠÐ±ÑĭÐ²Ð° ÑİÑĤÑĬ
ĠÑģÐ¿Ð° ÑģÐ¸
ĠÐ³Ð½Ñ£ Ð²Ð°ÑĤÐ¸
ĠÐ±Ð»Ð¸ Ð½Ñĭ
ĠÑĤÐ¾Ð² Ð°ÑĢÑĮ
ĠÐ´ÑĢêĻĭ Ð³Ñĭ
Ð´Ñ« ÑĤÑĬ
Ġ1 80
ÑıÑĪÐµ ÑģÑı
ĠÐ´ÑĢÐ¾Ñĥ Ð³
ÑģÑĤÐµÑĢ ÑĬ
ĠÐ½ÐµÐ½Ð° Ð²Ð¸Ð´Ð¸
ĠÐ²Ð¾ÑĤÑĩÐ¸Ð½ Ð½ÑĭÑħ
ĠÐ³Ð¾ÑĢÐ° Ñħ
ĠÐ·Ð°Ð¼ Ð¾ÑĢ
ĠÑĤÐ¾ÑĢÐ³ Ð¾Ð¼
ĠÐ¿Ð¾Ð³ÑĢÐµ Ð±Ð¾ÑĪÐ°
ĠÐºÑĢÐµÑģÑĤ Ð½Ð¾Ðµ
ĠÐ¿ÑĢÐ¸ÑģÑĬ Ð»Ð°
ĠÑģÑĬÑģ Ñ«
Ð¾Ð»Ð¾ ÑĪ
Ð³Ð¾Ð´Ð°ÑĢ ÐµÐ½ÑĸÐµÐ¼ÑĬ
Ð½Ð¸ÑĩÐ¸ Ð¼
ĠÐ»Ð¾ ÑĪÐµ
ĠÐ¿Ð¾Ð»Ð¾Ð²Ð¸ Ð½Ñĥ
ĠÐ¼Ð°ÐºÐµÐ´ Ð¾Ð½ÑĮ
ĠÐ¿Ð¾Ð»Ð¾ÑĤ ÐµÐ½Ðµ
ĠÐ»Ð°Ð· Ð¾ÑĢÑ§
ĠÐ·Ð°Ð¿Ð»Ð°ÑĤÐ¸ Ð»ÑĮ
ĠÑģÑ£Ð¼Ñ§ Ð½Ð°
ĠÐ²Ð¾Ð·ÑĮ Ð¼Ñĥ
ĠÐ´Ñ£Ð»Ñ£ ÑħÑĬ
ĠÐ³Ð»ÑĥÐ± Ð¾Ðº
ĠÐºÐ°Ð·Ð½Ð° ÑĩÐµ
ĠÑħÐ¾ÑĢÐ¾Ð± ÑĢÑĭ
ĠÑĤÐ²ÑĮÑĢ Ð´Ñ§
ĠÐľÐ°ÑĢÐ¸Ð½ ÐºÐ°
ĠÐºÐ°Ð¼Ñ§ Ð½Ñ¹
ĠÑĤÑĢÐ¸ÑĤÑĨÐ° ÑĤÑĮ
ĠÐ³ÑİÑĢÑ§ ÑĤÑ£
ÑĤ Ð¾ÑĢÐµ
ÑĢ Ð¼ÑĬ
ĠÑģ ÐµÐ½ÑĮ
ĠÐ¸ Ð½Ðµ
ÑģÑĤ Ð¾Ð²Ð°
ĠÐ± ÐµÑĢÑĮ
ĠÐº ÐµÐ»
Ð± Ð¾Ð»ÑĮ
ĠÐ¾ Ð½Ðµ
ĠÐ½Ð° Ð²
ĠÐ¿ÑĢ Ð¾ÐºÑĬ
ĠÐ½Ðµ Ð·Ð°
Ð»Ð° Ð¼
Ð»Ð¸ Ðº
ĠÐ· Ð»ÑĭÑħ
ĠÐ» Ñ¡
ĠÐ²ÑĬ Ð¶Ðµ
Ð¾Ð½ êĻĳ
ĠÐ¿ÑĢÐ¸ Ð´Ð¸
ĠÑ¿ ÑĬ
ĠÑ¿ ÑĢÑ£
ĠÑ¿ Ð½ÐµÑģÑĤÐ¸
ÐºÐ¸ Ñİ
ĠÐ¾Ñĥ Ð¶ÑĮ
Ð¾Ð²Ð° Ð½
ÑĩÐµ Ð²Ð°
ĠêĻĹ êĻģ
ĠÑģÐ¸ Ð¼Ð°
ĠÐ¿Ð¾Ñģ Ð¼Ð°ÑĤÑĢÐ¸
ĠÐ¼Ð¾ ÑģÑĤÑĭ
ĠÐ²Ñ£ ÑĢÐµ
ĠÐ¿Ð° Ñĥ
Ð¾Ð²Ñ£ Ðµ
Ð¼Ñ£ Ð½
ÑīÐ¸ Ð½Ð°
ÑĢÑĥ ÑĪÐ¸
ĠÐ¼Ð° Ð»Ð¾Ð¼
ĠÐ¿Ð¾Ð´ Ð¾Ð±Ð¸
ĠÐĶÐ° Ð¹
Ð´ÑĮ Ñİ
êĻ¿ ÑģÐµ
ĠÑĨÐ°ÑĢ ÑģÑĤÐ²Ð¾Ð²Ð°ÑĤÐ¸
ĠÐ¿ÑĢÑ£ Ð±Ñĭ
ĠÐĵ ÑĢÐµÑĩÐµ
ĠÐºÑĥ Ð·ÑĮ
ĠÎ ±
ĠÑĢÑ£ ÐºÑĥ
ĠÐ¿ÐµÑĢÐµ Ð¿
Ð²ÑĢÐ° ÑīÐµÐ½
ÑİÑīÐµ Ð¸
Ð²Ð°Ð½ Ð¾Ð¼ÑĬ
ĠÐĹ ÐµÐ¼
ĠÐ½Ð°ÑĪ ÑĭÐ¼ÑĬ
ĠÐ±Ð¾Ð³ Ð¾Ð²Ð¸
ĠÑģêĻĭ ÑīÐ¸ÑħÑĬ
ÐºÑĢÐ° ÑĤ
Ð²Ð¸ÑĤÐ¸ ÑģÑı
ĠÐ´Ð¾Ð» Ð³Ð¸
ĠÑħÐ¾Ð»Ð¾Ð¿ Ñĥ
ÑĭÐ¸ ÑħÑĬ
ÑĤÐµÐ» Ñı
ĠÐ¿Ð¾ÑģÐ»Ñ£ Ð¶Ðµ
ĠÐ¿Ð¾ÑģÐ»Ñĥ ÑħÐ¸
ĠÐ¿Ð¾ÑģÐ°Ð´ Ð½Ð¸ÐºÑĬ
ĠÐ¿Ð¾ÑģÐ°Ð´ ÑģÐºÐ¸Ñħ
ĠÐ²Ð» ÐºÐ°
ĠÑģÐ²ÑıÑĤÑĭ Ð¹
Ð±ÑĢÑ£ Ð·Ð°
ĠÐ¿Ð¾Ð´Ð¾Ð± ÐµÐ½ÑĬ
ĠÐ¿Ð¾Ð»Ñĥ Ð¿Ð¾Ð»
ĠÐºÐ¾Ð½Ðµ Ñĩ
ĠÐ´ÐµÐ» Ñĭ
Ð»Ð¾Ð¶ Ð¸ÑĤ
ĠÐ¿Ð¸ÑĤ ÑĹÑ§
ĠÑĤÐ¾ÑĢÐ³ Ð¾Ð²ÑĭÐµ
ĠÑĨÑĮ ÑĢ
ĠÑĤÐµÐ»Ðµ ÑģÐ°
ĠÐ±ÑĢÐµ Ð¶Ð½Ð¾
ĠÐ¼Ð½Ð¾Ð¶Ðµ ÑģÑĤÐ²Ð°
ĠÐ³Ð»Ñİ ÑĤÑĮ
ĠÑĢÐ°Ð·Ð»Ð¸Ñĩ Ð½ÑĭÐ¼Ð¸
ĠÑģÑĬÐ¼Ñ£ ÑĢÐµ
ĠÐ·Ð°Ð¿Ð»Ð°ÑĤÐ¸ ÑĤÑĮ
ĠÐ¿Ð°Ð»Ð° ÑĤÑĭ
ĠÐ³ÐµÐ½ÐµÑĢÐ° Ð»
ĠÐ²ÑĭÐºÑĥ Ð¿Ð°ÑĤÐ¸
ĠÐ³Ð¾Ð½Ð¸ ÑĤÑĮ
ĠÑģÑĤÑ¹Ð´ ÐµÐ½ÑĮ
ÑĢÑħÑĸ ÐµÑĢÐµ
ĠÐ¿ÑĢÐ¾ÑģÑĦÐ¸ ÑĢÑĭ
ĠÐ¼Ð°Ð½Ð°ÑģÑģ ÑĸÐ¸
) :
ĠÑ ¼
Ñģ ÐµÐ½ÑĸÐµ
Ð¼ ÑĢÑĬ
ĠÐ² Ñħ
Ð´ Ñİ
ÑģÑĤ Ñİ
Ð± ÑĢÐµ
ĠÑĢ Ð¾Ð¼Ð°Ð½
ĠÐ· ÑĢÐ¸
ĠÑĩ ÑĬ
Ð¶Ðµ Ð½ÑĮÐµ
ĠÑ¡ ÑģÐ¿
ĠÐ¿ÑĢÐ¸ Ð±Ð°Ð²
ĠÐ¾Ñĥ ÐºÐ»Ð°
ĠÑĢÐ° Ð²
ĠÑģÐµ Ð´ÑĮ
ĠÑģÑĬ Ð¿Ð¾Ð´Ð¾Ð±Ð¸
ĠÐ²Ð¾ ÑĨÐ°
ĠÐĿ ÐµÑĤ
ĠÐ¿Ð¾Ð» Ð½Ð¾
ĠÐ¿Ð¾Ð» ÑĥÐ´
Ñ¥ ÑĪÑĮ
ÐºÑĬ ÑĪÐµ
Ð¶Ð¸ ÐºÐ¸
ÑīÐ¸ Ðµ
ĠÑĸ Ð·
ĠÐ¿Ð¾Ðº ÑĢÐ¾Ð²ÑĬ
ĠÐ·ÐµÐ¼ Ð»êĻĹ
ĠÐ²ÑĮ Ð·ÑĮ
ĠÐºÐ¾ÑĢ Ñ£
ĠÑĤÑ£ Ð»Ñ£
Ð·Ñĭ ÑĨÑ£ÑħÑĬ
ĠÐ¼Ðµ ÑĪÐµ
ĠÐ¿ÐµÑĢ Ð¼ÑĮ
ĠÐ¿ÑĢÐµÐ´ ÑĢÐµÑĩÐµÐ½
ÐµÐ»Ñ£ Ð¶Ðµ
ĠÐ¼Ñ¹ ÐºÐ¸
ĠÐ¿Ñĥ ÑģÑĤÐ°
ĠÐ²Ð¾Ð´ Ñ«
ĠÐ¿Ð¾Ñħ Ð¾ÑĤÑ£
ĠÐ¸Ð²Ð° Ð½Ð¾Ñĥ
ĠÐ±ÐµÐ» ÑĭÑħ
ĠÐ¾Ð´ ÐµÑĢ
ĠÑħÐ° ÑĢÐ°
ĠÐ»Ñ¹ ÑĤ
ĠÐ´Ð¾Ð¿ ÑĢÐ°Ð²
ĠÐ»ÑİÐ±Ð¸ ÑĤÑĮ
ĠÐ´ÑĮÑı Ð²Ð¾Ð»ÑĬ
ĠÐ¿Ð¾Ð³Ð° Ð½ÑĭÑħ
ĠÐ¿ÑĢÐ¸ÐºÐ° Ð¶Ð¸
ĠÐ¼Ñģ ÑĨÑĮ
ĠÐ¨ Ðµ
ĠÑĨÐµÐ»Ð¾Ð²Ð° Ð½Ð¸Ðµ
ĠÑģÐ°Ð¼Ð¾ Ðµ
ĠÐ¿Ð¾Ð»Ð¸ ÑĩÐ½ÑĭÐ¼
ĠÐ¿Ð¾ÑĩÐ° ÑĪÐ°
Ð½ÐµÐ½Ð° Ð²Ð¸Ð´Ñ£
ĠÐ°Ð½Ð³ ÐµÐ»
ĠÑĢÑı Ð´Ñĥ
ĠÐ·Ð´Ðµ ÑģÑĮ
ĠÐ¼ÑģÑĤÐ¸ ÑģÐ»Ð°Ð²Ð°
ĠÐ±ÐµÐ´ Ñĥ
ĠÐ²Ð¾Ð·Ð´Ð²Ð¸ Ð¶Ðµ
ĠÐºÐ¾Ð±Ñĭ Ð»Ð°
ĠÐ°Ð½ÑĤ Ð¾Ð½Ð¸Ð¸
ĠÐĺÐ²Ð° Ð½Ñĥ
ĠÑĸÑ¡Ð° Ð½ÑĬ
ĠÑ¡Ð±ÑĮ Ñ§Ð´
ĠÐ»ÑİÐ±Ð¾Ð² ÑĸÑİ
ĠÐ½Ð°ÑģÑĭ ÑĤÐ¸
ĠÐ½Ð¸ÐºÐ¾ÑĤÐ¾ÑĢ ÑĭÐ¼Ð¸
ĠÐ¿ÐµÑĢÑģÑĤ Ð½Ð¸
ĠÐ¿Ð¾Ð±Ð° ÐµÑĤÑĮ
ĠÑİÑĢÑĮÑ¥Ð²Ð¸ ÑĩÑİ
ĠÑİÐ¶Ð½Ð¾ ÑģÐ»Ð°Ð²
i l
s Ð°
Î ´
Î ¸
ÑĢ ÑĤÐ°
Ð½ ÑģÑĤÐ²Ð¾
Ð½ Ð¾Ð¶Ð°
Ð² Ð»
ĠÑģ ÑĩÐµÑĤÑĬ
ĠÐ¿ ÑĤ
Ðº êĻ¿
ĠÑĤ Ð¼Ñĥ
ĠÐº Ð½ÑĬ
ĠÐº Ð»Ñĥ
ÑĪ Ð½
Ñħ Ð»Ðµ
Ñħ Ð¼Ð¾
Ð· Ð½Ñĥ
ĠÐ¾ ÑģÐ¿
ĠÐ¾ ÑĨÑ£
ĠÐ¾ Ð»ÐµÐºÑģÑ£
ĠÐ½Ðµ ÑĦ
Ñĸ Ð½ÑĬ
ĠÐ° ÑĦÐ°Ð½Ð°
Ð´Ð° ÐµÑĤÑĮ
Ñ¡ Ð´Ð°
ĠÑ¡ ÑģÑĤÑ¹
ÑĪÐ° Ð¸ÑĤÐµ
êĻģ Ð²Ð¾Ð»
ĠÐ²Ðµ ÑīÐµ
Ð½ÑĮ ÐµÐ¼
ĠÐ»Ñİ Ð±ÑĮ
ĠÑĢÐµ ÐºÑ¹
ĠÐ¿Ð¾Ñģ Ð¾Ð±Ð¸
ĠÑĤÐµ Ð¶
ĠÑĸ Ð¾Ñĥ
ĠÐ¿Ð¾Ðº Ð¾Ð»
ĠÐ²Ñĭ ÐµÑħÐ°
ĠÐ²Ð¾Ð· Ñĭ
ĠÑ¹ Ð¶Ð°
ÑĦ Ð¾Ð½Ð°
ÑģÑĮ ÑĤÐ¸
ĠÑĤÐ°Ðº Ð¾Ð²ÑĬ
ĠÑĤÑ£ Ð¼ÑĮÐ¶Ðµ
ĠÐºÑĥ Ð½Ð¸ÑĨÐ¸
ĠÐ¸Ð¼ êĻĭ
ĠÐ²ÐµÐ» ÑĸÐ¸
Ð½Ñ¹ ÑĤÑĬ
ĠÐ´Ð²Ð¾ÑĢ ÑĨÐ¾Ð²ÑĭÑħ
ĠÐ´Ð¾Ð¼ Ð¾Ð²ÑĮ
ĠÐ¿Ð¾ÑģÐ»Ð° Ð»Ð°
Ð¿Ð¾ Ð¸
ĠÐ´Ñĥ ÑħÐ°
ĠÐ±Ð¸ ÑĪÐ°
ĠÐ³Ñģ Ð½Ñĥ
ĠÐ½Ð¸Ðº Ð¾Ð»Ñĭ
ĠÐ²ÐµÑĢ ÑĪÐ¸ÑĤÐ¸
ĠÐ§ Ñı
ĠÐ§ ÐµÑĤ
ĠÐ·Ð½Ð° Ð»Ð¸
Ð»ÐµÐºÑģÐ° Ð½
ĠÑģÐ¾Ð» Ð¾Ð½Ð¸
ĠÐ¢Ð° Ð¼
ĠÑģÐ»Ñ¹ Ð³Ð°Ð¼ÑĬ
Ð½ÑĥÑĤ ÑģÑı
ĠÐ´Ð¾Ð» Ð³Ñĥ
ĠÐ·Ð°Ð¿Ð° ÑģÐ¾Ð¼ÑĬ
ĠÐºêĻĭ Ð½Ð¸ÑĨÐ°
ĠÐ²ÐµÐ»Ð¸ÐºÐ° Ñ§
ĠÐ¼Ð°ÑĢ ÑĬ
ĠÐ²ÑĭÑģ Ð¾ÐºÐ°
ĠÐ¼ÐµÐ´ Ð²ÐµÐ´
ÑģÑĤÐ²Ð¸ êĻĹ
ÑĤÐ¾Ð²Ð° Ñ§
ĠÐ³ÑĢÐµ ÑĩÑĮ
ĠÐ½Ð°ÐºÐ° êĻģÐ°
ĠÐ´ÑĮÑı Ðº
ĠÐ¿ÑĢÑĬ Ð²Ð¾
ĠÐ¼Ð½Ð¾Ð³Ð° Ð¶Ð´Ñĭ
ĠÐ³Ð¾ÑĤ Ð¾Ð²Ð¸
ĠÐºÐ¾Ñģ Ð°
ĠÐĳÑ£ ÑĪÐµ
ĠÐ¿ÑĢÐ¸ÑģÐ»Ð° ÑĤÑĮ
ĠÑĤÐ¾Ð¼ÑĮ Ð¶
ĠÐ³ÑģÐ´ÑĢ ÐµÐ¼ÑĬ
ĠÐ¿ÑĢÐ¸ÑģÑĤÐ°Ð² Ð¾Ð¼
ĠÐ»Ð¾Ñģ Ð¾Ñģ
ĠÑĪÑĮ Ð»Ð¸
ÑģÐ¿Ð¾Ð´ Ð°ÑĢÑİ
ĠÐ¿ÐµÑĢÐ² Ð¾Ð¼
ĠÑ¤ Ð¶Ðµ
ĠÐ¼Ð¸ÑĤÑĢÐ¾Ð¿Ð¾Ð» Ð¸ÑĤÑĬ
ĠÑħÐ¸ÑĤ ÑĢÐ¾ÑģÑĤÑĮ
ĠÑģÐ»Ñ¹Ð¶ Ð±Ðµ
ĠÐ¿ÑıÑĤÐ¸ Ð½Ð°ÑĤÑĨÐ°ÑĤÐ¸
ĠÐĳÑĢÐ° ÑĤÐµ
ĠÐ¾Ð±ÑĭÑģÐº Ð½ÑĭÐµ
ĠÐ²Ð»Ð°ÑģÑĤ ÐµÐ»
ĠÐ³ÑĢÐ¸Ð²ÐµÐ½ Ð¾Ðº
ĠÐ½Ñ£ÐºÑĭ Ð¹
ĠÑĥÐ¼Ðµ ÑİÑĤ
ĠÑģÑĢÐ°Ð¼ Ð¾ÑģÐ»Ð¾Ð²
ĠÐ½Ð°Ð²êĻĭ ÑħÐ¾Ð´Ð¾Ð½Ð¾Ñģ
ĠÐ»Ð¸Ð³Ð° ÑĤÑĥÑĢÐ°
Ð° Ð´Ð°
ĠÐ¸ ÐµÐ²Ð°
ĠÐ² ÑĤÐ°
Ð´ ÑıÑĤÑĮ
ĠÐ´ Ð¾Ð²Ð¸
ĠÐ± ÐµÑĢÐ¸
ĠÐº Ð¾Ðº
ĠÐ¼ Ð¾ÑĢÐ°
ĠÐ¼ ÑĢÐ°Ð¼
ĠÐ¾ ÐºÐ¾Ð½
Ð¿ Ð°ÑĢ
Ð¿ ÑĢÑĥ
ÑĨ Ð½ÑĮ
ĠÐ° Ð½ÑĮ
Ð²Ð° êĻĹ
ĠÐ²ÑĬ Ð½
ĠÑ¡ Ð½Ñ£
ĠÑ¡ ÑĨÐ¸
ĠÑ¿ Ð²ÑĢÐ°ÑīÐ°
Ð´Ð¸ êĻĹ
ĠÐ¾Ñĥ ÑĤ
ĠÐ¾Ñĥ ÑĪÐ¸
ĠÐ¾Ñĥ Ð±Ð¸ÑĪÐ°
ÑĩÐ¸ ÐºÑĬ
ÑģÐ¸ Ð¼ÑĬ
ĠÑģÐ¸ Ð»Ð¸
ÑĨÐ° Ð¼Ð¾
ĠÐ»Ð¸ ÑĨÐµÐ¼
ĠÐºÐ¾ ÑģÑĤÐ°
Ð²Ðµ ÑĢÐ°
ĠÐ´Ñ£ Ð²ÐºÐ°
ĠÐ²Ð¾Ð· Ð»Ðµ
ĠêĻģ Ð»Ð°ÑĤ
ÑĨÐ¸ ÑħÑĬ
ÑĨÐ¸ ÑĦÐ¾ÑĢ
ĠÐľ Ð½Ñ£
ĠÐ²ÑĮ ÑĢ
ĠÑĢÐ°Ð· Ð¼ÑĭÑĪ
ĠÐ³ÑĢÐ¸ Ð½
ĠÐºÐ°Ðº â¸¯
ÑģÑĤÐ²Ð¾ ÑĥÑİ
ĠÑģÐº Ð»Ð°
ĠÐł Ð¾Ð´
ĠÐ¿Ð¾ÑģÐ»Ð° Ð»ÑĮ
Ð¿Ð¾ ÑģÑĤÐ¾Ð»
ĠÑģÑĤÐ¾ ÑıÑĪÐµ
ĠÐ·Ð°Ð¿ ÑĢÑ£
ĠÐ±Ð° ÑĪ
ĠÐ²ÐµÑĢ êĻĭ
ĠÐ¼Ð¸Ð»Ð¾ Ðµ
ĠÐ§ Ð¸
ĠÐ²ÑĬêĻģ Ð¼Ð¾Ð¶Ðµ
ĠÐ¿ÑĢÐ¾ÑĤÐ¸ Ð²Ð¾
ĠÑģÑĬÑĤ ÑĢÐ°
ĠÐ³ÑģÐ´ ÑĢÑĭ
ĠÑĢÑĭ Ð¶ÑĮ
Ð¾Ð½ÑĮ ÐºÐ¾
ĠÑģÐ¾Ñĥ ÑīÐ°
ÑĤÐ¾ÑĢ Ñĭ
ĠÐ¼Ð¾Ñģ Ñ£Ð¸
ĠÐľÐ¸ Ð»Ð¸
ÐµÐ»Ð¸ Ð¸
ĠÐ·Ð°Ð¿Ð¸ ÑģÑĭÐ²Ð°ÑĤÐ¸
ĠÐ²Ð·Ñ§ Ð»Ðµ
ĠÑĪÐ° Ð¿ÐºÐ°
ĠÐ¸ÑģÐº Ð¾Ð¿Ð°
ĠÑģÐ¾Ðº ÑĢÐ¾Ð²
ĠÐ·Ð¾Ð» Ð¾ÑĤÐ¾
ĠÐ°Ð¿ ÑģÐ»ÑĬ
ĠÑģÑĬÑĤÐ²Ð¾ÑĢ Ñ§
ĠÐ¿Ð¾Ð²Ñ£Ð´Ð° ÑĤÐ¸
ĠÐ¼Ð¸Ð»Ð¾ÑģÑĤÑĮ Ñİ
ĠÐ¿Ð¾ÑĢÐ° Ð±Ð¾ÑĤÐ°
ĠÐ¡Ñĭ Ð½Ð°
ĠÐ¿Ð¾ÐºÐ»Ð° Ð½êĻĹ
ĠÐºÐ¾ÑĢÐ¼Ð¸ ÑĤÑĮ
ĠÐ±Ð°ÑĤ Ð¾Ð³Ð¸
ĠÐ´Ð¾Ð¼Ð¾Ð² Ð¸ÑĤÐ°
ĠÐ½Ð¾Ð³ Ñĥ
ĠÑ³ÐµÑ¡Ð´ Ð¾ÑģÐ¸Ð¸
ĠÐ½Ð±Ñģ Ð½Ð¾Ðµ
ĠÐ¿Ð¾Ð¹ Ð´ÐµÑĤ
ĠÑģÐ²Ñ£ÑĤÐ¸ Ð»ÑĮ
ĠÐĵÐ¾ ÑģÑĤÐ¸
ĠÐ¿Ð¾Ð³ÑĥÐ±Ð¸ ÑĤÑĮ
ĠÐĴÐ¾Ð»ÑĮ Ð³Ð°
ÐµÑĢÐµÐ¼ ÐµÑĤÐµ
ĠÐ¿ÑĢÐ¸Ð¸Ð¼Ð° ÑĤÐ¸
ĠÐ¿ÑĢÐ¾ÑĩÐ° Ð°
ĠÐ¿ÑĢÐ¾ÑĩÐ° Ñı
ĠÐ²ÑĬÐ·Ñ§ Ð»ÑĮ
ĠÐ¼Ð½Ð¾Ð¶Ð° Ð¸
ĠêĻĹÐº Ð¾Ð¶
ĠÑĢÐ°ÑģÐº Ð¾Ð¿Ð°
ĠÑģÐ¾Ð²Ð¾ÐºÑĥ Ð¿Ð¸
ĠÐ¬ ÑĤÐ¾
ĠÐ´Ð¾Ð·Ð¸ ÑĢÐ°ÑĤÐ¸
ĠÐ·Ð°Ð¿Ð¾Ð² ÐµÐ´ÑĮ
ĠÐĴÐ°ÑĢ ÑĦÐ¾Ð»
ĠÑģÐ¼ÑĮÑĢ Ð´Ð°
Ð³Ð¾ÑĢÐ°Ð· ÑģÑ¹Ð´
m i
n Ðµ
t Ð°
Ã Ĺ
Ð ļ
Ðµ Ð½Ð¸Ñı
ÑĤ Ð¾Ð¼ÑĮ
Ð½ ÑĹÑİ
Ñģ ÐµÐ¼
Ñģ Ð¾Ð²Ð¸
ĠÑģ Ð±Ð¸ÑĢÐ°
Ð´ ÐºÐ°
Ñĥ Ð¸
ĠÐ½ Òį
ĠÑĤ Ð¾Ð¶Ð´Ðµ
Ð³ ÑĢÑĭ
ÑĪ Ð½Ð°Ð³Ð¾
ÑĪ ÐºÑ¹
ĠÐ¾ ÑģÐ¿Ð¾Ð´Ð¸Ð½Ðµ
ĠÐ¾ ÑģÐ¿Ð¾Ð´Ð¾
ĠÐ½Ð° Ð³ÑĢÑ§
ĠÑĢ Ð¾Ð²ÑĬ
ĠÑĢ Ð¾Ð¶Ð´Ðµ
Ð»Ð¸ ÑĪÐ°
êĻĭ Ð¼Ñ£
Ñĸ êĻĭ
ĠÐ° Ð·Ð¾
ĠÐ¿Ð¾ Ñ§Ð»Ðµ
ĠÐµ Ð´Ð¾Ñĥ
Ð²Ð° Ð½Ñĥ
Ð²Ð° Ð¸ÑĤÐµ
Ð²Ð° ÐµÑĪÐ¸
ĠÐ²ÑĬ ÑħÑĬ
ĠÐĺ Ð»ÐµÐ¹
Ð¾Ð½ ÐºÐ°
ÐºÐ¸ Ð½Ñ£
êĻĳ Ð»Ðµ
ĠÑģÐ²Ð¾ Óı
ĠÑĨ ÐµÐ¼Ð¾Ñĥ
ĠÑĨ Ð¾Ð»Ð¾
ĠÐ½Ð¸ Ð³Ð´Ðµ
Ð°ÑĢ Ð¾Ð¼ÑĬ
ĠÐ¾Ñĥ ÑĨÐ¸
ĠÐ¾Ñĥ ÑĤÐ²ÑĢÑĬ
ÑĤÑĬ ÐºÑ£
ÑģÑĤÐ¸ Ñ§Ð½ÑĮ
Ġ: +
Ð¾Ð¶ ÑĬ
Ð¾Ð· Ð½Ð°
ĠÐ²Ðµ ÑĩÐ½Ð¾
ĠêĻĹ ÑģÑĤÐ¸
ĠÐ±Ð¾ Ñ§Ð½Ð°
ĠÑģÐ¸ Ð²ÑĬ
ĠÐºÑĬ Ð»ÑĬ
ĠÐ¸Ð· Ñ¹
ĠÐ²Ð° Ð¼Ð°
ĠÑ¥ Ð»
ĠÐºÐ¾ ÑīÑ£
ÑĢÑĥ Ð¾
ĠÐ¼Ð° ÑģÐºÐ¸Ð¼Ð°
ĠÐ¼Ð½ Òį
ĠÐ¿Ð¾Ð´ Ð²Ð°ÑĢÐ¸
ĠÐļ ÑĢÐ¾Ð¼Ðµ
ĠÐ²Ð¾Ð· Ð¾Ñĥ
ĠÐ²Ð¾Ð· Ð²Ñ£
Ð»Ñ§ ÑĤÑ£
ĠÐ³Ð»Ð° Ð°ÑĪÐµ
ĠÑ» ÑģÐ¿Ð¾Ð´Ð¸Ð½ÑĮ
ĠÐ³ÑĢÐ¸ Ð³Ð°
ĠÐ»Ñ£ Ð´
ĠÐ»Ñ£ Ð½Ð¸
ĠÑ§ ÑģÑĤÐ¸
ĠÑ§ ÑĢÑĬ
Ð»Ñı Ð´ÑĮ
ĠÐĿÐµ ÐºÑĤÐ°
ĠÐºÑĥ Ð½Ð¸ÑĨÑ£
Óı Ð¸
ĠÐ¸Ð¼ ÐµÐ½ÑĮ
ĠÑİ ÑĢÐ¸Ñİ
ĠÑİ ÑĢÐ¸Ñ§
ĠÐ¿Ðµ ÐºÑ¹ÑĤÑĬ
ĠÑģÑĮ Ð³ÑĢÑ£
ĠÐºÑĢÐ° ÐºÐ¾Ð²
ĠÑģÑ¹ ÑĪÐµ
ĠÐ´ÑĮ Ð»Ñ§
ĠÑģÐ¿ Ð¾ÑĢÐ¾
ĠÐ³ÑĢÐ¸Ð² Ð½
ĠÐ³ÑĢÐ¸Ð² Ð¾Ð½Ð¾
ĠÐ³ÑĢÐ¸Ð² ÐµÐ½Ñ£
ĠÐºÑĢÐµ Ð½Ð¸
Ð¾Ð´Ñ£ Ð½Ñĥ
ĠÐºÐ¾Ñĥ Ð·ÑĮ
ĠÑģÐ°Ð¼ Ñģ
Ġ- Òĥ
Ð³Ñĥ Ð¿
ĠÓı ÑħÑĬ
ĠÐ²ÐµÑĢ Ð¸ÑĤÑĮ
ĠÐ¿ÑĢÐ¾Ð´Ð° Ð»Ð¾
ĠÐºÐ½ÑıÐ· ÐµÐ¼ÑĬ
ĠÐ½ÑĮ Ð¶Ð¸
ĠÐ½ÑĮ Ð´ÑĮ
ĠÐ¼ÑĮ ÑĢÐ¾
ĠÐ³ÑģÐ´ ÑĢÐµÐ²Ñ¹
ĠêĻ© ÑģÐ¿Ð¾Ð´Ð¸Ð½Ñĥ
ĠÑĢÑ¹ Ð±Ð»Ñ§
ĠÐ±ÐµÑģ ÑĥÐ´
ĠÑĤÑĮ Ð±Ðµ
ĠÑĢêĻĭ ÑĨÑĮ
ĠÑĤÐ¾ÑĢ Ð¿Ð¸
ĠÑģÑ« ÑīÐµ
ĠÐĲÐ»ÐµÐºÑģÐ°Ð½Ð´ ÑĢÐ¾Ð²
ĠÐ½êĻĳ Ð½Ð¸
ÑĩÐµÐ½ Ð¾Ð¼Ñĥ
ĠÐ¿ÐµÑĤ ÑĢÐ¾Ð²Ð¸
ĠÑĨÑ£ Ð»Ð¾ÑĥÑİ
ĠÑģÑĤÐ¾ÑĢ Ð¾Ð²Ð¸
ĠÐ´Ñħ Ð¾Ð²ÑĮ
ĠÐºêĻĭ Ð½Ð¾
ĠÐ¿ÑĢÐ¸ÐºÐ°Ð· Ð¾
ĠÐ²Ð¾Ð´Ð° Ðµ
ĠÐ²ÑĬÑģ Ð¿Ð¸ÑĪÐ¸
ĠêĻģÐµÐ¼ Ñ§
ĠÐĸ ÐµÐ½Ñĭ
ĠÐ³Ð½Ñ£ Ð´
ĠÐ¼Ð°ÑĢ ÐµÐ½Ñ£
ĠÐ¿Ð¾Ð½ Ñı
ĠÐ´Ð¾Ð¼Ð° ÑģÐ»Ð°Ð²Ð°
ĠÐ¶Ð¸ÑĤÐ¸ Ñ¥
ĠÑĨÐµÐ» Ð¾Ð²Ð°ÑĤÐ¸
ĠÑ¥Ñģ ÐµÐ¼Ð¾
ĠÑģÐ¼Ñ£ ÑĤÑ§
ĠÐ¼Ð¾Ð»Ð¸ÑĤ Ð²Ñ«
ĠÑģÐµÐ´ Ð¼ÑĭÐ¸
ĠÐ¼Ð¾Ð»Ð¸ Ð¼
ĠÐ¿Ð¾ÑģÐ»Ñĥ ÑĪÐµ
Ð¾Ð±Ñ£ ÑĤÑĮÑ¥
ĠÑģÐ»Ðµ Ð³Ð»Ð¾
ĠÑĩÐ¸ÑģÑĤÐ¾ Ðµ
ĠÐ¼Ð¾Ñ¥ Óı
ĠÐ½Ð°ÐºÐ° Ð¿Ð°Ð»Ð¾
ĠÐ¾ÑĤÐ²ÐµÑĤÑĩÐ¸ ÐºÑĥ
ĠÐºÑĢÐ¸ Ð½Ð¸
ĠÐ²Ð°ÑģÐ¸Ð»ÑĮ ÐµÐ²Ð¸Ñĩ
ĠÑĨÐµÑĤÐ²ÐµÑĢ ÐºÐ°
ĠÑĨÐµÑĤÐ²ÐµÑĢ Ð¾ÑĤ
ĠÑĨÐµÑĤÐ²ÐµÑĢ ÐºÐ¸
ĠÐ´Ð°Ð½Ð¸ Ð»Ð°
ĠÐ¿Ð°ÑĢ ÑĦÑ£
ĠÐ¿ÑĢÐ¾ÑģÐ»Ð° Ð²Ð»Ñ§
ĠÐ¾ÑĥÐ± Ð¾Ð³Ñ¹
Ð½ÐµÐ² ÐµÐ»Ð¾
ĠÑĢÑ¹ÐºÐ¾Ð´Ñ£ Ð»Ð¸Ñİ
ĠÑħÐ¾ÑĢÐ¾ ÑĪÐµÐ½ÑĮÐºÐ¾
ĠÑ¡Ð² ÑģÑ§
ĠÐ¿ÑĢÐ¸ÑģÑĤÐ°Ð² Ð¾Ð²
ĠÐ´Ð°Ð²Ð° Ð¸
ĠÐĶÐ¾Ð±ÑĢÑĭÐ½Ñİ ÑĪÐºÐ¸
ĠÐĶÐ¾Ð±ÑĢÑĭÐ½Ñİ ÑĪÐºÑĥ
ĠÐ±ÐµÑĢ Ð¾
ĠÐ³Ð¾ÑģÑĤÑĮ Ñ§
ĠÑĢÑ£Ð·Ð° Ð½Ð°
ĠêĻģÑĬ Ð»Ð¾
ĠÐ´Ð¾Ð±ÑĢÐ¾Ð´Ñ£ ÑĤÐµÐ»ÑĮ
ĠÐ±Ñ£Ð» ÐºÐ¾Ñĥ
ĠÐ¿ÐµÑĢÐµÑģ Ð¼Ð¾ÑĤÑĢÐ¸ÑĤÐ¸
ĠÐŁÐ¾Ðº Ð»Ð°Ð½Ñı
ĠÐ·Ð¼Ð¸ Ð¸
ĠÑĨÐ¾Ð» Ð¾Ð²Ñ£
ĠÑĦÑĢÐ°Ð³Ð¼ÐµÐ½ ÑĤÐ°
ĠÐ±ÑĮÑĢÐºÐ¾Ð²ÑĮ ÑģÐºÐ°
ĠÐ½Ð°ÐºÐ°Ð·Ñ¹ ÐµÑĤÑĬ
ĠÐ¿Ð¾ÑĩÐµ Ð»Ð¸
ĠÑĤÑıÐ³ Ð»Ðµ
ĠÐ¼Ð°ÐºÑģÐ¸ Ð¼Ñĥ
ĠÐ¿ÑĢÐ¸ÑģÐ¿Ñ£ ÑħÐ¸
ĠÐ¼Ð°ÑĤÑĮ ÑĢÐ¸
ĠÐ¾ÑĥÐ¿ ÑĢÑ§ÑĤÐ°
ĠÐ¾Ð· Ð¾Ð²ÑĬ
ĠÐ¶ÐµÑĢÐµÐ± Ñ§ÑĤÑĬ
êĻģêĻĳ ÐºÑĬ
ĠÑģÑĤÑĢÐ°Ð´ Ð½ÑĭÑħ
Ð²ÐµÑģ ÐµÐ»
ĠÐ·Ð´Ñ£Ð»Ð° Ð½Ð¾
ĠÑģÐ¼ÐµÐ½ Ñĥ
ĠÐµÑĥ Ð³Ð»Ð¸Ðµ
Ñ¥Ð¼ ÑģÑ§
ĠÐºÑĢÐ¾ Ð¸ÑĤÐ¸
ĠÐ¼Ð¸ÑĢÑĮ ÑģÐºÑĭ
ĠÑħÑĢÑģÑĤÑĹÑ§ Ð½ÑĹ
ĠÑħÑĢÑģÑĤÑĸÑ§ Ð½Ñĸ
ĠÐ´ÐµÑĢÐµÐ²Ð½Ñı Ñħ
ĠÐ³ÑĢÑ¹ ÑĪÐ¸
ĠÑģÐ½Ð¾Ð²Ð¸ Ð´Ð°
ĠÑ§ÐºÐ¸ Ð¼Ð°
ĠÑ§ÐºÐ¸ Ð¼Ðµ
ĠÑĢÑ¹ÐºÐ¾Ð´ ÐµÐ»ÑĮ
ĠÐ¿ÐµÑĢÑģÑĤ ÐµÐ½ÑĮ
Ġ:- :
Ġ:- Òĥ:
ĠÑĢÑ¹Ð±Ð° ÑĪÐºÐ°
ĠÐ½ÐµÐ´Ð¾Ð± Ð¾ÑĢÐµ
ĠÐºÐ¾ÑĢÐ¾Ð±Ð¸ Ñ§
ĠÐ±ÐµÑĢÐµÐ¶Ðµ Ð½ÑĮÐµ
ĠÐ·Ð´ÑĢÐ°Ð²ÑģÑĤÐ²Ñĥ Ð¹
ĠÐ´Ð¾Ð¼Ð¾ÑĩÐ°ÑĤ ÑĨÐ¾Ð²ÑĬ
ĠÑ¡Ð±ÑĢÐµ ÑģÐºÐ¸
ĠÐ¸Ð½Ð´Ð¸ ÐºÑĤÐ°
ĠÐ´Ð¾Ð¼Ð¾Ð²Ð¸ÑĤ Ð¾Ð¼Ñ¹
ĠÑ§ÐºÑĬ ÑĪÑ£
Ð»ÐµÑģ Ð½ÐµÐ²ÐµÐ»Ð¾
ĠÐ¿Ð¾Ð³Ð¸Ð±Ðµ Ð»Ð¸
ĠÐ¡Ð¾Ðº Ð¾Ð»ÑĮ
ĠÐ¿ÐµÑĢÐµÑĤ ÑĢÑ§
ĠÑĢÑĥÑĨÑĮ Ñ§
ĠÑĢÐ¸ÑģÑĥ Ð½ÐºÑĥ
ĠÑĨÐµÑĤÐ² ÐµÑĢÐµÑĤÐ¸
ĠÑħÑĢÑ£ ÑģÑĤÑĮ
ĠÐ´ÑĮÑ§ ÐºÐ°
ĠÐ»Ñ¹ÐºÐ°Ð² ÑģÑĤÐ²Ð°
ĠÐ½Ð¸ÐºÐ¾Ð»Ð° Ðµ
ĠÐ½Ð°Ð²Ð¾Ð· ÑĬ
ĠÐ¾ÑĥÐ±ÑĢÑ¹ ÑģÑĭ
ĠÐ¿Ð¾ÑĢÑ§Ð´Ð»Ð¸ Ð²Ð¾Ð¸
ĠÐ¼Ð¸Ð»Ð¾ÑģÑĤÑĭ Ð½ÐµÑİ
ĠÐĴÑĤÐ¾ÑĢ Ð¾Ð¹
ĠÐ¿ÑĢÑ¹ ÑĤÐ¾Ð²Ð°Ñ§
ĠÑ¡ÑģÑĤÑĢÐ¾Ð²Ðµ ÑģÐºÐ¾Ð¸
ĠÐ½Ð°ÑĨÐ° ÑĤÐµ
ĠÐŁÐ¾ÐºÐ»Ð°Ð½Ñı Ð½Ð¸Ðµ
Ðµ Ð²Ñĭ
ÑĢ ÐµÑĤÑĬ
ĠÑģ ÑĨÐµ
ĠÐ¸ Ð½Ñ£Ð¼ÑĬ
Ð¼ Ð»Ð¸
ĠÐ² Ð½Ñ¹
Ñ§ ÑĪÐ°
Ñħ Ð²Ð°Ð»
ĠÐ¼ ÑĤÑĢ
Ñı Ð·
Ð¾Ð² Ñ«
ĠÐ¾ ÑģÐºÐ¾ÑĢ
ĠÐ³ Ð¾Ð»Ð¸
ĠÐ½Ðµ Ð¿Ð¾Ð´
ĠÑĢ Ñ§Ð´
ÑĨ ÐµÑĤÐ¾
ÐµÐ½ Ð½Ð¾
ÐµÑĢ Ñĭ
Ð²Ð° ÑŃ
ĠÐ²ÑĬ Ð½Ð¾Ñĥ
ĠÑģÑĤ ÑĢÑĭ
ĠÑ¡ Ð¶Ð¸
ĠÑ¿ Ð¼Ñ£
ÐºÐ¸ Ð½Ñĥ
êĻģ ÑĢÐ°
êĻģ ÑĢÑ£
ĠÐ¾Ñĥ ÑĤÐ²ÑĢÑĮ
Ð»Ðµ ÑĩÐµ
ĠÑģÑĬ ÑģÑĤÐ°Ð²Ð¸
Ð²ÑĬ ÑĪÐ¾Ñĥ
ĠÑģÐ¸ Ð¼Ðµ
ĠÐ¢ ÑĮ
ĠÐ»Ð¸ ÑĨÐµÐ¼ÑĮ
ĠÑ¥ ÑīÐµ
ĠÐ¿Ð° Ð½Ñĥ
ĠÐ¿Ð° Ð¿Ð°
ĠÐ¶Ð¸ ÑĢÐ¾ÑģÐ»Ð°
ĠÐ¶Ð¸ êĻģÐ½ÑĮ
ĠÐ³ÑĢÐ° Ð´êĻĭ
ÑĶ Ð²Ñĭ
ĠÑĤÑ£ Ð»Ñ¹
ĠÐ¿Ð¾ÑĢ Ð¾
ĠÐ¿Ð»Ð° ÑĤ
ĠÐ±êĻĳ ÑħÑĬ
ĠÑģÑĤÐ¾ ÑıÑĤÐ¸
ĠÑĤÐ²Ð¾ÑĢ ÑĮ
ĠÑ¡ÑĤ ÑĢÐ¾Ðº
ĠÑĩÑİ Ð¶ÑĮ
ĠÑģêĻĭ Ð´ÑĮ
ĠÑģêĻĭ ÑīêĻĭ
ĠÐ°ÑĢ ÑĪÐ¸Ð½Ð°
ÑİÑī ÐµÐ¼êĻĭ
ĠÐ¼Ð¾ÑĢ ÑĬ
Ð½Ð¸ÑĤ ÐµÐ»ÑĮ
ĠÐ¿Ð¾Ð´Ð° ÑģÑĤÑĮ
ĠÐ¿ÑĢÐ¾ÑĤÐ¸Ð² Ð»Ñı
ĠÐ³Ð½Ñ£ Ð²Ð¾Ð¼ÑĬ
ĠÐ½Ð¾Ð³Ð° Ð¸
Ñ§Ð¸ ÑģÑ§
ĠÑħÐ¾Ð´ Ð¸ÑĤÑĬ
ÑģÑĤÐ²Ð¸ Ñ¥
ĠÑģÐ¾ÑĤÐ²Ð¾ÑĢ Ñ§ÑĤÑĬ
ĠÐ½Ð¸Ñĩ ÐµÐ¼
ĠÑıÐ·Ñĭ ÐºÐ¾Ð¼
Ð·Ñĥ ÑĤÑĮ
Ð³Ð½ ÐµÑĤÑĬ
Ð¼Ð¾Ð» Ð°
ĠÐ²Ð¾Ð¿ ÑĢÐ¾
ĠÑģÐ²ÐµÑĤ ÑĭÐ¸
ÑĩÐµÑģÑĤ Ð²ÑĬ
ĠÐ¼Ð¾ÑģÐºÐ¾Ð² ÑģÐºÐ¾Ð¸
Ð»ÐµÑĤ Ñ£
ĠÐ¸Ð´ ÐµÑĤÐµ
ĠêĻĹÑĢÐ¾ÑģÐ»Ð° Ð²
ĠÐĽÑİ Ð±Ð¾
ĠÐĶÐ°Ð½Ð¸ Ð»Ð¾
ĠÐ·Ð»Ð¾Ð± Ð¾Ñİ
ĠÐ¿Ð¾Ð´Ð¸ Ð²Ð¸
ÑĢêĻĭÐ¶ ÑĸÐµ
ĠÐ¸Ð¼ÑıÐ½ Ð½Ð¾
ĠÐ¤ÐµÐ´ Ð¾ÑĢ
ĠÑģÐ¾ÐºÑĢÐ¾Ð²Ð¸ ÑīÐµ
ĠÐ¶ÐµÑģÑĤ Ð¾ÐºÐ¾
ĠÐ½ÐµÐ»Ð¸ ÑĨÐµÐ¼Ñ£
ĠÐ¿Ð¾Ð»ÑĥÐ¿Ð¾Ð» ÑĤÐ¸Ð½Ðµ
Ð° ÑħÑĥ
Ð° ÑħÐ¾Ñĥ
ĠÑģ ÑĶ
ĠÑĤ Ð²ÑĬ
ÑģÑĤ ÑĢÑ§
Ñİ ÑīÑĮ
ÑĤÐ¸ Ð»
ĠÐ½Ðµ Ð¼ÑĮÐ¶Ðµ
ÑĨ Ð¾Ð²ÑĭÐ¼
ĠÐ¿Ð¾ Ñ§Ð»ÑĬ
ÐµÐ¼ Ñı
ÐµÐ½ Ð¾Ñİ
ÐµÑĢ Ñĸ
ĠÐ²ÑĬ Ð·Ñĭ
ĠÐĺ Ð´Ð¸
ĠÐĺ Ð¼Ðµ
Ð¶Ðµ Ð½ÑĸÐ¸
ĠÐ²Ñģ Ð¸Ð¼
ĠÐ¿ÑĢÐ¸ Ñ¥
ĠÑĥ ÑĤÑĢÐ°
ĠÐ·Ð° Ð¸Ð¼
ĠÐ¾Ñĥ Ðµ
ĠÐ¾Ñĥ ÑģÑĤÑĢÐ°
ÑĢÑ£ ÑĤÐµ
Ð¼Ð° ÑĤÐµ
ÑīÐ° Ð°Ð³Ð¾
ĠÐ»Ð¸ Ð±Ð¾
Ð¶Ð¸ ÑīÐµ
ĠÐĳ Ð»Ñİ
ĠÐ´Ñ£ ÑĤÐµ
ĠÐ²Ñĭ Ð±ÑĢÐ°
ĠÐ³ÑĢÐ° Ð¼
ĠÑģÐ² Ð¸ÑĤÐ°
ĠÑģÑĤÐ° Ð°
Ð»ÐµÐ½ Ñĥ
ĠÐ±ÐµÐ· Ð°ÐºÐ¾Ð½
ĠÑĦ Ñĥ
ĠÐ¿Ð¾ÑĢ Ñ«
ĠÐ¿Ð¾ÑĢ ÑĤÑĭ
ĠÐĽ ÐµÑĤÐ°
ĠÑģÐ²Ñ£ ÑĤÑĥ
ĠÐ»Ð° ÑģÐºÐ°
ĠÑĤÑĬ ÐºÑĬÐ¼Ð¾
ĠÑĤÑ§ Ð¶ÑĮ
ĠÑĤÐ²Ð¾ÑĢ Ñ§ÑĤÑĬ
ĠÐ±Ð¸ ÑģÐµÑĢ
ĠÐ±Ð¾Ñı ÑĢÑĮ
ĠÐ¸Ð¼Ñ£ Ð½ÑĮÐµ
ĠÐ¶ÐµÐ½Ð° Ñħ
ĠÐ»Ñĥ ÑĩÑĪÐµ
ÐºÐ¾Ñĥ Ð¿Ñ£
ĠÑĢêĻĭ ÐºÑĬ
ĠÐ½Ð¾Ð² Ð¾Ð³Ð¾
ĠÑħÑĢ Ñĸ
ĠÑħÐ¾Ð´Ð¸ Ð»Ð°
ĠÐ¡Ð¸ Ð¸
ĠÐ±Ð¾ÑĢ Ð·Ñ£
ĠÐ¿Ð¾Ð¼Ð¸ Ð½
ĠÐ¿ÑĢÐ°Ð²ÐµÐ´ Ð½ÑĭÑħÑĬ
ĠÑĢÐ°Ð·Ñĥ Ð¼Ñĥ
Ð½Ñ£Ð¸ ÑĪÐ¸
ĠÑģÐ¾Ðº Ð¾Ð»ÑĬ
ĠÐ¿ÑĢÐµÐ´Ð° ÑģÑĤÑĮ
ĠÐłÐµ Ñĩ
ÑģÑĤÐ²êĻĭ ÐµÑĤÑĬ
ĠÑıÐ·Ñĭ ÐºÑĥ
ĠÐ²Ð´ Ð¾Ð²
Ð±ÑĢÑ£ ÑĤÐ°
ĠÐ¿Ð»ÐµÐ¼ ÐµÐ½Ð¸
ĠÐ¼ÐµÑĢ ÑĤÐ²Ð°
ĠÑĤÐ¾Ð»Ð¸ ÐºÐ°
Ð·Ñ¹ Ð¼
ĠÑ¿Ð²Ñ£ÑīÐ° Ð²ÑĬ
ĠÐ±Ð¾Ð³Ð°ÑĤÑĭÑĢ ÑģÐºÐ¾Ðµ
ÑģÑĤÐ¾Ñĥ Ð¿Ð¸
ĠÑħÐ¾Ñĩ ÐµÐ¼ÑĬ
ĠÐ²Ð¿ÑĢÐµ Ð´
ÑģÑİ Ð´êĻĭ
ĠÐ¿Ð¸ÑīÐ° Ð»Ð¸
Ïī Î½
ĠÐ½Ð°ÑĢÐ¾ ÑĩÐ¸ÑĤ
ÑĤÐ²Ð¾Ð²Ð° Ð»ÑĬ
) .
Ð² ÑģÐµ
ÑĮ Ð½Ð°
Ð¼ ÐµÐ»ÑĮ
Ð´ ÑĢÑĥ
Ð³ ÑĢÑĬ
Ð³ Ð»Ñĭ
Ñħ Ð¾ÑĢ
ĠÐ¼ Ð¾Ð½
Ð± Ð¾Ðº
ĠÐ¾ ÑĨÐ¸
Ð¿ êĻĳ
Ð¿ Ð¸ÑĤÐ°
Ð»Ð° Ð³Ð¾
ÑĤÑĮ Ð½Ð¸ÐºÑĬ
Ð²Ð° Ñ«
ĠÐ²ÑĬ Ð¿Ð¸
ĠÐĲ ÑĢÐ¸
ĠÐ¿ÑĢÐ¸ ÑģÑĤÑĥ
ĠÑĥ Ð¼Ð¸ÑĢÐ°
ĠÐ½Ð¸ ÑīÐ¾
ĠÐ¾Ñĥ ÑģÐ»ÑĭÑĪ
Ð»Ðµ ÑģÐºÐ°
ĠÑģÑĬ Ð²Ñ£ÑĤ
ĠÐ±Ñĭ ÑģÑĤÑĬ
ÑģÐº Ð¾Ð¼ÑĮ
ÑģÐ° Ñµ
ĠÐ¶ Ð´Ð°
ĠÐ²Ðµ Ñ³
ĠÐ¿Ð¾Ð» ÐºÐ°
ĠÑģÐ¸ Ð»ÑĬ
ĠÐ¸Ð»Ð¸ Ð¸
ÐµÐ´ Ñĥ
ĠÐºÐ° Ð»Ð°
ĠÐºÐ° Ð»Ð¸ÐºÐ°
ĠÐĶ Ð°Ðº
ÑĢÐ¾ ÑģÑĤÑĸÑİ
ĠÐ¸Ð· Ð²ÐµÑĤ
ĠÐ»Ð¸ ÑħÐ°
ĠÐ¿ÑĢÐ¾ ÑĩÐµ
ĠÐ²Ð¸ Ñ³
ĠÐ´Ð¾ ÑģÑĤÐ¾Ð¹
ĠÐ´Ñ£ ÑĤÐµÑħÑĬ
ĠÐ²Ñĭ ÑĪÑĮ
ĠÑ¹ Ð¿ÑĢÐ°
ĠÐ»Ñ£ ÑģÑĬ
ĠÑģÐº ÑĥÐ´
ĠÐµÑģÑĤÑĮ ÑģÑĤÐ²Ð¾
ÐµÐ½Ðµ ÑĨÑĮ
ĠÐ¼Ñĥ ÐºÐ¸
ĠÐ³Ð»Ð°Ð³Ð¾Ð» ÑĬ
ĠÐ»Ðµ ÑģÐ°
ĠÐ¼Ð¾Ð¸ ÑģÐ¸
ĠÐµÐ´Ð¸ Ð½Ð¾Ð¼
ĠÐ¿ÐµÑĢÐµ Ñ§
ĠÑĤÑĬ Ð¸Ñİ
ĠÑĤÐ²Ð¾ÑĢ ÑıÑĤ
ĠÐ·Ð°Ð¿ ÑĢÐµ
ĠÐ²ÑĬêĻģ Ð´Ð°
ĠÐ·Ð½Ð° Ðµ
ĠÐ¿ÑĢÑĸÐ¸ Ð´êĻĭÑĤÑĬ
ĠÐ»Ñĥ Ð½Ñ£
ĠÐ¼Ð½Ð¾Ð³ Ð¸Ð¼
ĠÑ« Ð¶Ðµ
ĠÑĩÑĮ Ñı
ĠÐ±ÑĭÐ²Ð° ÑĪÐµ
Ð¸Ð¼Ð° ÑĤÐ¸
ĠÐ¿ÑĢÐ°Ð²ÐµÐ´ ÐµÐ½ÑĬ
ĠÑħÐ¾Ð´ Ñ§
ĠÐ´ÐµÐ² Ñ§ÑĤÑĮ
ĠÐ¾ÑĤÐ²ÐµÑĤ Ñĥ
ĠÑħÐ¾ÑĢ Ð¾Ð¼Ñĭ
ĠÐļÐ¸ ÐµÐ²Ð°
ĠÐ°Ð³Ð³ Ð»
ĠÐ¿Ð¾Ð²Ð¸ Ð½Ñĥ
ĠÐ¿ÑĢÐµÐ±ÑĭÐ²Ð° ÑĪÐµ
ĠÐ¼ÑĥÐ´ ÑĢÐ¾ÑģÑĤÑĮ
ĠÐ³Ð¾ÑĢÐµ ÑģÑĤÐ¸
ĠÑģÐ»êĻĳ ÑĪÐ°Ð²ÑĬ
ĠÐ¶ÐµÑĢÐµÐ±ÑĮ Ð¸
êĻĭÐ´Ð¸ Ð½ÑĭÑħÑĬ
ĠÐ¿ÑĢÐ¸Ð±Ñĭ Ð»ÑĮ
ĠÐ½Ð¾Ñī ÑĸÑİ
ĠÑħÐµÑĢ êĻĭ
ĠÐ²Ð¾Ð»Ð¾Ð´Ð¸Ð¼Ð¸ ÑĢÑĬ
ĠÐºÐ¾ÑĢÑĭ ÑģÑĤÐ¸
Ð² ÑĥÑĤ
Ð´ ÑĢÑĭ
ĠÑĤ ÐµÐ»Ð¾
Ñĩ Ð½ÑĥÑİ
ĠÐ° ÑģÐ°
ÐµÑĢ Ð¾Ð²Ð¾
ĠÐ´Ð° Ñ§Ð»ÑĬ
ĠÑ¡ Ð½ÑĸÐ°
Ð´Ð¸ Ñİ
Ð»Ðµ Ð½Ð¸Ñ¥
ĠÑģÑĬ Ð²Ñ£ÑĤÑĬ
ĠêĻĹ ÐºÐ¾Ð²Ð°
ĠÐ²Ñ£ Ðº
ĠÐ»Ð¸ Ð¿
ĠÐ²Ð¸ Ð¶ÑĮ
ĠÐ´Ñ£ ÑĤÑ£
ĠÐĶÐ° Ð²Ñĭ
ĠÑ¹ ÑĤÑĢ
ÑģÑĤÐ¾ êĻĹ
ĠÐ²ÑĮ Ñĸ
Ð±Ð° Ð¼ÑĬ
ĠÐ¿ÑĢÑ£ ÐºÐ»Ð°
ĠÐ²Ð¾Ð» Ð°
ĠÐ²Ð¾Ð» ÑĪÐµÐ±
ĠÐ¿ÐµÑĢ ÑģÐ¸
ĠÑģÐ¾Ð± Ð¾ÑŃ
ĠÐ¿Ð¾ÑĢ Ð¾Ð¶
Ñ³ Ð¾
ĠÐ±Ð¾Ð» Ð¾ÑĤÐ°
Ð½êĻĭ ÑĪÐ°
Ñķ Ñ§
ĠÐ±ÑĢÐ°ÑĤ Ð¾Ñĥ
ĠÐ²ÐµÐ»Ð¸Ðº Ð¾Ð¼êĻĭ
ĠÑģÐ°Ð¼ Ð¾Ð¹
ĠÐ¿ÑĢÐ¾Ð´Ð° ÑģÑĤ
Ð¿Ð¸ÑģÐ° Ð½
ĠÐ¿Ð» ÐµÑĤ
Ð´Ñ¹ ÑĤÑĮ
ĠÐ²ÑĬêĻģ Ñĭ
ĠÐ²ÑĬêĻģ Ð´Ð¾Ñĥ
ĠÐ¿Ð¾Ð²ÐµÐ»Ñ£ Ð½Ð¸Ñİ
ĠÑģÑ« ÑĤÑĮ
ĠÑģÐ¾Ñĥ ÑīÑĮ
ĠÐ´ÑĬ Ñī
ĠÐºÐ¾ÑĢÐ¾Ð» ÐµÐ¼
ĠÑģÐµÑĢÐ´ ÑĨÑĥ
Ð¸ÑĤÐµÐ» êĻĹ
ĠÐ¸Ð²Ð°Ð½ Ð¾Ð²
Ð¶ÐµÐ½ ÑĹÐµ
ĠÑģÐºÐ°Ð·Ð° Ð»Ð¸
ĠÑģÐºÐ°Ð·Ð° ÑĪÐ°
Ð´ÐµÑĢ Ð¶Ð°ÑĤÐ¸
ĠÑģÐºÐ¾ ÑĤÐ¸
ĠÐĳÐ¾Ð¶Ð¸ Ðµ
ĠÐ±Ñ£Ñģ Ð¾Ð²ÑĬ
Ñ³Ð° Ð½Ð°
ĠÑĩÐµÑģÑĤ Ð½Ð¾
ĠÐºÐ¾Ð· ÑĮ
Ð»Ð¾Ð¶Ðµ Ð½Ð°
ĠÑħÑĢÐ°Ð± ÑĢÑĬ
ĠÐ¿ÑĢÑ§ Ð¼Ñ¡
ĠÐ¿ÑıÑĤÑĮ Ð´ÐµÑģÑıÑĤ
ĠÐ¸Ð³ ÑĢÑĭ
ĠÐ±Ð°ÑĤÑİ ÑĪÐºÐ¾
ĠÐ³ÑĥÐ± Ð½ÑĭÐ¼
ĠÐľÐ°Ð³Ð¸ Ð»ÐµÐ½Ñĭ
ĠÐ¿Ð¾Ð´Ð¿Ð¸ ÑģÑĮ
ĠÐ³ÑĢÐ¸Ð³Ð¾ÑĢ ÐµÐ¸
ĠÐ´Ð¸Ð¼Ð¸ÑĤ ÑĢ
ĠÑĢÐ°Ð´Ð¾Ð²Ð°ÑĤÐ¸ ÑģÑı
ĠÐľÐ°ÑĢÐºÐ¾Ð±ÑĢÑĥ Ð½ÑĬ
ĠÑĤÐ²ÑĢÑĮ Ð´Ñ£
ÑĢ Ð¾Ð·
Ð½ ÑģÐºÐ¾Ð¸
Ñģ ÑĢÑĬ
ĠÑģ Ð°Ðº
ĠÑģ ÑĥÑĤ
ĠÑģ ÑĹÐµ
ÑĮ Ð½ÑĬ
ÑĮ ÑģÑĤÐ²Ð°
ĠÐ½ Ð¸ÑĤ
Ð³ ÑĪÐµ
Ð³ ÑĮÑĸ
ĠÐ¼ Ð¾Ð²
ĠÐ¿ÑĢ Ñĭ
Ð¾Ð» ÐµÑĪÐ¸
Ñ¹ Ð´Ðµ
Ñ¹ Ð¼Ñ¹
ĠÐ» ÐµÑĤÑĬ
Ð¶ ÑĶÐ½ÑĸÑ§
ÑĤÑĮ Ð½Ð°
Ð²Ð° ÑĤÐ°
Ð´Ð° Ð²Ð¾
ĠÑģÑĤ Ð»ÑĬ
ĠÑ¡ ÑĨÑĮ
ÑĢÐ¸ Ð¼ÑĬ
ĠÑĥ Ð¿ÑĢÐ°Ð²
ĠÑĥ Ð±ÑĭÑĤ
Ð´Ð¸ Ð½êĻĭ
ÑĢÐµ ÐºÐ¸
ÐºÐ¸ Ð½
êĻģ Ñ§
ĠÐŁ Ð¾Ð´ÑĬ
ĠÐ¿Ð¾Ð» Ñ§
ĠÐ¿Ð¾Ð» ÑĤÐµ
ĠÐ¼Ð¸ Ð»Ð¾Ð²Ð°
ĠÐ¿Ð¾Ñģ Ð¾Ð»ÑĬ
ĠÑı ÑĪÐ°
ĠÑı ÐºÑ¡
ÑĢÐ¾ ÑĩÐµ
ĠÐ¸Ð· Ð½Ð°
ÑīÐ° ÑĤÑĮ
ĠÑ¥ Ð¼ÑĮ
ÑīÐ¸ Ð½Ñĭ
Ð¿Ð° Ðµ
ĠÐ¼Ð½ Ð¾Ð¶Ð¸
Ð±Ð¾ Ñ§
ĠÐ¿Ð¾Ðº ÑĢ
ĠÐŀ Ñħ
ĠÐ²Ð¾Ð· Ð³Ð»Ð°Ð³Ð¾Ð»
ĠÐ³Ð¾ÑĢ Ð¸
ĠÐ²ÑĮ ÑģÐ¿
ĠÐ±Ñ£ ÑħÐ°
ĠÑģÑĤÐ° Ð½ÑĬ
ÑģÑĤÐ² ÐµÐ½Ð°Ð³Ð¾
ĠÐķ ÑĢÐ¼
ĠÑĦ ÑĢ
ĠÐ¾ÑĤÑĬ Ð¿Ð¾Ñĥ
Ñ³ êĻĭ
ÑĤÑ£ Ð¼ÑĮ
Ð¼Ñĭ Ñı
ĠÑģÐ¾ÑĤ ÐµÐ½
Ð½êĻĳ Ð¼ÑĬ
Ñĳ ÑĪÑĮ
Ñķ Ð»Ð¾Ð±
ĠÐ¼Ñ¹ ÐºÑ¹
ĠÑĢÑĥÐ± Ð»ÐµÐ¹
ĠÐ½Ð°ÑĪ ÐµÐ¼
ĠÐ»ÑİÐ± Ð¸ÑĤÐµ
ĠÐ¿ÑĢÐ¾Ð´Ð° Ð¶Ñİ
ĠÐ±Ñ¹ Ð´
ĠÐ¿Ð¾ÐºÐ° Ð¶Ð¸
ĠÑ£ ÑħÐ°
ĠÑģÑĥÐ´ ÑĮÐµ
ÐºÐ¾Ð» Ñ£
ĠÐ´Ð¾Ð±ÑĢÐ¾ Ñİ
ĠÐºÐ¾ÑĢÐ¾Ð» Ñ§
ĠÐŀÑĤ Ð²Ðµ
ĠÑĢÐ°Ð´Ð¾ ÑģÑĤÑĸÑİ
Ð²ÑĪÐ¸ ÑħÑĬ
ĠÐ´ÑĢÐµ Ð²Ñ§
ĠÑ¡Ð±Ð¸ Ð´Ð°
ĠÐ¿Ð¾Ð¶Ð° Ð»Ñĥ
ĠÑģÐ¾Ð³ Ð»Ñ§Ð´Ð°
Î¹ Î±
ĠÐ¾ÑģÑĤÐ° Ð½ÑĥÑĤÑģÑı
ĠÑĢÐµÐºÐ¾ ÑħÑĬ
ĠÐ²Ð¾ÑĤÑĩÐ¸Ð½ Ð½Ð¸Ðº
ĠÐ¿ÑĢÐµÐºÑĢÐ°Ñģ Ð½ÑĥÑİ
ĠÐ½Ñĥ Ð½ÑĮ
ĠÐ¿ÑĥÑģÑĤÐ¾ ÑĪ
ĠÑģÐ¸ÑĢ Ð¾ÑĤÑ£
ĠÐ¿Ð¾Ð¼ÐµÑīÐ¸ Ðº
ĠÐµÐ· Ð´Ñĥ
ĠÐ°Ð»ÑĤÑĭ Ð½Ñĥ
ĠÐ±Ð¾Ð¶ ÑĬ
ĠÐ»Ð¾Ðº Ð¾ÑĤÑĬ
ĠÐ¡Ð°Ð´ ÐºÐ°
ĠêĻģÐ²Ñ£ êĻģ
ĠÐ½Ð¾Ð²ÑĬÐ³Ð¾ÑĢÐ¾Ð´ ÑĮ
ĠÐĴÐ¾Ð»ÑĮ Ñħ
ĠÐ¾ÑĢÑĥ Ð¶Ð¸
ĠÐ¿ÑĢÐ¸Ð²ÐµÐ· Ð¾ÑĪÐ°
ĠÐĿÐ¸ÐºÐ¸ÑĤÐ¸ ÑĩÐ°
ĠÐ±ÐµÐ»Ð¾ÐºÐ°Ð¼ÐµÐ½ Ð½Ñĥ
ĠÐ²Ð¾ÑģÐ¿Ð¾Ð¼ Ñ§
ĠÐŀÑĦÐ¸Ð¼ÑĮ Ñı
Ð° Ñģ
ÑĤ Ð²ÑĮ
ÑĤ Ð½ÑĭÐ¸
Ð½ ÐµÑĤÑģÑı
Ñģ Ñħ
Ð» Ð¼Ñ£
Ð² ÐµÑĤÑĮ
Ð¼ Ð¾Ð²ÑĬ
ĠÐ¿ ÐµÐ½Ðµ
ĠÐ² Ð±Ð¾ÑĢ
Ð´ Ð½ÑĬ
Ð´ Ð¾Ð±Ð¸ÑĤ
ĠÐ½ ÑĭÐµ
ÑģÑĤ ÑĢÑĭ
Ð³ Ð½ÐµÑĤ
ĠÐ± Ð¾Ð»Ð¸
ÑĪ Ð½ÐµÐ¼ÑĬ
Ð· Ð½ÑĬ
ĠÐ¾ Ð³Ð¾ÑĢÐ¾Ð´
Ñĩ Ð¾Ðº
ĠÐ¿ÑĢ Ð¾Ð²Ð°
Ð¾ÑĢ Ð³Ð¸
ÑĨ ÐµÐ½Ðµ
Ñī Ð¾ÐºÐ¸
ÑĤÑĮ ÑĨÐ°
Ð²Ð° ÑħêĻĭ
ÐºÐ° ÑģÐ°
Ð¶Ðµ Ð½Ð¸êĻĹ
ĠÐ¿ÑĢÐ¸ Ð»Ñĥ
ĠÑ¿ êĻĹ
ĠÑħ ÑĤ
ĠÐ¾Ñĥ Ð³Ð°
ĠÐ¾Ñĥ ÑģÐ»ÑĭÑĪÐ°
ĠÑģÑĬ Ð½Ð°
ĠÑģÑĬ ÑģÑĤÐ°
Ð»ÑĮ ÑĨÐ°
ĠÐºÑĬ Ð½Ðµ
ĠÐ¸Ð· Ð³Ð¾Ð½
ĠÐ²Ð¸ ÑĢ
ÑģÐµ Ð½Ð¸Ñ¥
Ð±Ðµ ÑĨÑĬ
ĠÐ¿ÑĢÐµ ÑģÑĤÑĥÐ¿Ð¸
ĠÐ´Ñ£ Ð²Ð¸ÑĨÐ°
ĠÐ³ÑĢÐ° Ð½Ð¸
Ð±Ñ£ Ð¶Ð°
Ð¼Ðµ Ð¹
Ð¼Ðµ ÑĪÑĮ
ĠÐ¿Ð¾Ð¼ ÐµÑĤÐ°
ĠÐ³Ð»Ð° Ð²Ñ¹
ĠÑĢÑĥ ÑģÐºÐ¾Ð¹
ĠÐ¿ÑĢÐ° Ð²ÑĭÐµ
ĠÐ»Ñ£ ÑĤÑĮ
ĠÐºÐ¾ÑĤÐ¾ÑĢ ÑĭÑħÑĬ
Ð·Ñĭ Ð´ÐµÑĤÑĬ
Ð¶ÑĮ Ðµ
Ð¾ÑĢÐ¸ ÑĨÐ°
ĠÑĩÐ° ÑİÑīÐµ
ĠÐ¿Ðµ ÑīÑĮ
Ð³ÑĬ Ð½Ð°
ĠÐ¿Ð¾Ð¿ ÑĢÐµ
ĠÑģÑ¹ Ñī
ĠÐºÑĢÐµ ÑģÑĤÑĥ
ĠÑħÐ¾ ÑĪÑĤ
ĠÐµÐ´Ð¸ Ð½Ð¾Ð³
ĠÐ²Ð¸Ð´Ñ£ Ñħ
ĠÐ»Ð° êĻģ
ĠÐ²Ð¾Ñģ ÑħÐ¸
ÑģÑĤÑ£ Ð¼ÑĬ
ĠÐ§ ÐµÐ»
ĠÐ½Ð°ÑĪÐµ Ñı
ÑīÐµÐ½ ÑĸÐµÐ¼ÑĬ
ĠÑĢÐ¸ Ð¼ÑĬ
ĠÑĤÑĮ Ð¼ÑĮ
Ð³Ð¾ÑģÐ» Ð¾Ð²Ðµ
ĠÐ·Ð´ ÑĢÐ°
ĠÐ´ÑĪ Ñİ
ĠÐ´Ð½Ð¸ Ð¹
ĠÐ³Ð½Ñ£ Ð·Ð´Ð¾
ĠÐ²ÑĬÑģÑ£ ÐºÐ¾
Ð²ÑĢÑĬ Ð¶Ðµ
ĠÐ½Ð¸ÐºÐ° ÐºÐ¾Ð¸
ĠÐ½Ð°ÑĢÐµ ÑĩÐµÐ½
ĠÑĤÐ°ÐºÐ¾Ð²Ð° Ð°
ĠÐ³ÑĢÑ§ Ð´êĻĭ
ĠÐ¨ ÑĤÐ¾
ĠÐ±ÑĢÐµ Ð³Ñĥ
ĠÐ¿Ð»Ð°ÑĤÐ¸ ÑĤ
ĠÐ²Ñĸ Ð½Ð¾
ĠÐ´ÐµÑģÑı ÑĤ
ĠÐ¿Ð¾Ð¼Ñĭ ÑģÐ»ÑĬ
ĠÐ²Ð¾ÑĤÑĩÐ¸Ð½Ð° Ð¼Ð¸
ĠÐ´Ð¾Ð²ÐµÐ´ ÐµÑĤÑĨÐ°
ĠÐ±Ð¶Ð¸ êĻĹ
ĠÐ¿Ð¾ÑĩÐ¸ Ð½Ð¸ÑĤÑĮ
ĠÐ´Ð¾ÑģÑĤÐ° Ð»
ĠÐ³Ð¾Ð´Ð¸ Ð½Ð°
ĠÐºÑĢÐ¾ÑĤÐ¾ ÑģÑĤÑĮ
ĠÐ¶Ñĭ Ð²Ð¾
ĠÐ¡ÑĤÐµ ÑĦÐ°
ĠÐ¿Ñĩ ÐµÐ»Ñĭ
Ð¾ ÑĪÐµ
ÑĤ ÐµÐ»Ñ£
ÑĤ Ð¾Ð³Ð´Ð°
ÑĢ ÐºÐ¸
Ñģ Ð¸ÑĤÑĬ
Ð» Ð½Ñĭ
ĠÐ² ÐµÑĤÑĬ
ĠÐ² ÑģÑĤÑĢÐµ
Ð´ ÑĨÐ¸
ĠÐ´ Ð¾Ð½ÑĬ
ĠÐ¾ Ð·ÐµÑĢÐ°
ĠÐ¿ÑĢ Ð¾ÑĢÐ°
ÑĤÐ¸ Ð½Ð¸
ĠÐ½Ðµ ÑģÐ¸
ĠÐ¿Ð¾ ÑĪÑĮ
Ð¶ Ð½Ñĭ
ĠÐ¶Ðµ Ð½Ð¸ÑĤÐ¸ÑģÑı
Ð²Ð° Ð»ÑĮ
Ð²Ð° Ñ¥ÑĤÑĮ
Ð¾Ñĥ ÑħÐ°
ĠÐ¿ÑĢÐ¸ ÑĪÐ¸
ĠÑ¿ Ð»Ñ¹
ÑĪÐµ Ð²ÑĬ
ÑģÑĤÐ¸ ÑĪÐ°
ĠÑģÑĬ Ð¼ÑĬ
Ð¾Ð²Ð° Ð»Ðµ
ĠÐ²Ð¾ ÑģÑĤÐ¾Ðº
ÑĤÐ° Ð½ÑĬ
ĠÐ¡ Ð¼
ĠÐ¡ Ð¿
ĠÐĿ Ñĸ
ĠÐ¿Ð¾Ð» ÐºÑĥ
ĠÑĢÐµ ÐºÐµ
ĠÐĶ ÐµÐ½Ð¸
ĠÐ¼Ð¾ ÑīÑĮ
Ð»Ñ£ Ðµ
Ð»Ñ£ Ð¿
Ð»Ñ£ Ð±ÑĬ
ĠÑģÐ° Ð¶ÐµÐ½
ÑīÐ° ÐµÑĤÑĬ
ĠÐ²ÐµÐ»Ð¸ ÑĤÑĮ
ĠÐ¿ÑĢÐµ ÑģÑĤÐ¾Ð»Ñ£
ĠÐ²Ñĭ Ð²Ðµ
ĠÑģÐ²Ð¾Ðµ Ð³
ĠÑ¹ ÑģÑĤÐ°
ĠÑĢÐ°Ð· ÑģÐ»Ð°Ð±Ð»ÐµÐ½
ĠÐĵ Ð¾ÑĢ
ĠÐ±Ð» êĻĭÐ´
Ð¼Ð¾ÑĤ ÑĢÐµ
ÑĨÑ£ Ñħ
ĠÑģÑ£ Ð½Ð°
êĻĻ ÑĤÐ¸
ĠÐ¿Ð¾ÑĢ Ð¾ÐºÐ°
ĠÐ¾ÑĤÑĬ Ð²Ñ£ÑīÐ°
ĠÐ±Ð¾Ð» Ð¾Ð³
ÑİÑĤ ÑĨÐ°
ĠÑħÐ¾ÑĤ ÑıÑĪÐµ
ĠÐ±ÑĢÐ°ÑĤ Ñ¹
Ð±ÑĮ Ñ§
ĠÐ²Ð»Ð° Ð´ÐµÑĤÑĮ
Ð½Ð¾Ñĥ ÑĤÐ¸
ĠÐ´Ñĥ ÑĪÐµÐ²
ĠÐ±Ð¸ Ð²
ĠÐ³Ñģ Ð½ÑĬ
ĠÐ¼ÐµÐ½ Ð¾Ð²
ĠÑĢÐ¾Ð· Ð³ÑĢÐ°
ĠÐ³Ð° Ð»Ñĸ
ĠÐ³Ð¾Ð» Ð¾Ð²Ð¾Ñİ
ĠÑģÑĥÐ´ ÑĮ
ĠÐ²Ð¾Ð¸ Ð½Ð¸
ÑĩÑİ Ñİ
Ð°ÑĢÑĮ Ñı
ĠÐ¼Ð¾ÑĢ Ñ£
ĠÐ±Ð¾Ñĥ Ð´Ñ£ÑĤÐµ
Ð²ÑĪÐ¸ Ð¼ÑĬ
ĠÐ´Ð¾ÑĢ Ð¾Ð´
ĠÐ¿ÑĢÑĸ êĻĹ
ĠÐ¢Ð°Ðº Ð¾Ð¶Ð´Ðµ
ĠÑĩÐµÐ»Ð¾Ð±Ð¸ÑĤ Ð½ÑĥÑİ
ĠÑģÐ²ÑıÑĤÑĭ Ð¸
ĠÑģÐ²ÑıÑĤÑĭ Ð¼
ĠÐ¸Ð¼ÐµÐ½ Ð¾Ð²Ð°
ĠÐµÐ´ Ð½Ð¾Ð³Ð¾
ĠÐ³ÑĢÑ£ÑĪ Ð½Ð°Ð³Ð¾
ĠÑĤÑĭÑģÑ§ ÑīÑĮ
ĠÐºÐ»Ð¸ Ð¼Ñ§
ĠÐºÑĢÐµÑģÑĤ Ð½Ð¾Ð¼Ñĥ
Î± ÏĦ
ĠÐ½Ñ¹ Ð¶Ð°
ĠÑģÐµÑģÑĤ ÑĢÑ¹
ĠÐºÐ½Ð¸Ð³Ð° Ð¼Ð¸
Ð½Ð¸Ð¼Ð° Ð»
ĠÐºÑĢÑĭ Ð»
ĠÐ²Ð¼Ñ£ ÑģÑĤÐ¾
ĠÐ²Ð°ÑĪ ÐµÐ¼êĻĭ
ĠÐ¿ÑĢÐ¾Ð¼Ðµ Ð¶Ð¸
ĠÐ³Ð¾ÑģÑĥÐ´Ð°ÑĢ ÑģÑĤÐ²Ð¾
ĠÐ²Ð¾ÑģÑĤ Ð¾ÐºÑĬ
ĠÑĤÐ¾ÑĢÐ³Ð¾Ð² Ð»Ð¸
ÑģÑĤÑĸ Ñ«
ĠÑģÐ»Ð¾Ð± Ð¾Ð´Ñĭ
ĠÐ·Ð¼Ðµ Ñı
ĠÐ¶Ð¸Ð´ Ð¾Ð²ÑĮ
Ð´Ð°Ð»Ðµ ÑĩÐµ
ĠÐ¶ÐµÐ· Ð»ÑĬ
ĠÑĪÐ°ÑĤ ÑĢÑĭ
ĠÐ¤Ðµ Ð¾Ð´Ð¾ÑĢ
ĠÐ±ÐµÑģÑĩÐµÑģÑĤÐ¸ Ðµ
ÑģÑĤÐ°ÑĢ Ð¾Ð¼Ñĥ
ĠÑħÐ¾Ð´Ð° ÑĤÐ°Ð¸
ĠÐ¿Ð¾Ð¿ÑĢÐµ Ð¶Ð½ÐµÐ¼Ñĥ
Ð° Ð³Ð³
Ðµ Ð½Ð¸Ñ¥
Ð² Ð¾Ð¼Ñĥ
ĠÐ² Ð½ÐµÐ¼
ĠÐº Ð¾Ð¶ÑĮ
Ñħ Ð¾ÑĤÐ²Ð¾ÑĢ
ÒĨ )
Ð· ÐµÐ¼ÑĬ
ĠÐ¾ Ð¿ÑĢÐ°Ð²ÑĮ
ĠÐ½Ðµ Ð²ÑĬ
ĠÐ° Ñħ
ĠÐ° Ð±ÑĮÐµ
ÐµÐ½ ÑĹÐ¸
ĠÐ» Ð¾Ð±
ÐºÐ° Ð¶Ð¸
Ð¶Ðµ ÑĨÑĬ
ĠÑĥ ÑĢÐ°
ĠÑ¿ Ð²ÑĢÐ°
ĠÐ·Ð° Ð¶
ĠÐ·Ð° ÑīÐ¸
ĠÐ·Ð° ÑģÑĤÑĥÐ¿
Ð½Ðµ ÑģÑĬ
ĠÐ¾Ñĥ Ð¸
ĠÑģÐµ ÑĩÑĮ
ĠÑģÑĬ êĻģÐ´Ð°
ÑģÑĤÐ° Ð»
ÑģÐº Ð¾Ð²Ðµ
ĠÐ¶ ÑĤ
ĠÐ¡ ÑĸÐ°
Ð´Ñ£ Ð²ÑĬ
ĠÐ¿Ð¾Ð» ÐºÐ¸
ÑĢÑĮ Ð¶Ð°
ĠÐĶ ÑĮ
ĠÑģÐ° Ð½ÑĬ
ĠÐ¢ Ñ¹
Ð±Ð¸ Ð¹
ĠÐ±ÑĢÐ° ÑĪÑĮ
ĠÐ³ÑĢÐ° Ð¶Ð´Ð°
ĠêĻ ĥ
ĠÐ²Ð¾Ð· Ð¸
Ð½Ñı Ð»Ð¸
ĠêĻģ Ð»Ð¾Ð±
ĠÐ·ÐµÐ¼ Ð¸
Ð»Ñ§ ÑĤÑĬ
Ð´ÑĮ Ð½ÑĮ
ĠÐ³Ð»Ð° Ð²ÑĬ
ĠÐ´Ðµ ÑģÐ½Ð¸
ÑĩÑĮ Ð½Ð¾
ĠÐ½Ñ£ ÑģÐ¼ÑĮ
ĠÐ½Ñ£ ÑĨÑĸÐ¸
ĠÐ¼Ñ£ ÑĢÑĭ
ĠÐ¿Ð¾ÑĢ ÑĤ
ĠÐ¿Ð¾Ð¿ Ð¾Ð²
ĠÐ³ÑĢÐ¸Ð² Ð½Ñĥ
ĠÐ¿Ð¾Ð¸ Ð¼Ð¸
ĠÐ¿Ð¾Ð¸ Ð´Ñĥ
Ð³Ñĥ Ð±
ĠÐ»ÑİÐ± Ð¾Ð²ÑĬ
ĠÐ¼Ð¸Ð»Ð¾ ÑģÑĤÑĭÐ½Ð¸
ĠÑģÑĭÐ½ Ð¾Ð¼ÑĬ
ĠÐ¼ÑĮ ÑĢ
ĠÐ¿Ð¾ÐºÐ° Ð°
Ð¾Ð¿Ð¾Ð» ÐºÑĥ
ĠÐ¡Ð° Ð²Ð°
Ð¾Ð»Ñ£ Ð¿
ĠÐ±Ð»Ð¸ ÑģÐºÐ¾
ĠÐºÑĥÐ¿ ÑĨÐ°
ĠÐºÑĢÐ°Ñģ Ð¾ÑĤÐ°
ĠÐ¿Ð¾Ð½ Ð¾ÑģÐ¸
ĠÐ¾Ð´ Ð½Ð¾Ð¹
ĠÑĪÐ¸ ÑĪ
ĠÐ³Ð»Ð°Ð³Ð¾Ð»Ð° ÑĪÐ°
Ð½Ñ£Ð¸ ÑĪÐµ
ĠÐ´Ð½Ðµ ÑĪ
ĠÐ¼Ð¸ÑħÐ°Ð¸ Ð»Ð¾Ð²Ð¸
ÑħÑĢÐ° Ð½Ð¸
ĠÐ½Ð°Ñĩ Ð½ÐµÑĤ
ĠÑģÐ¸Ð» Ñ«
ĠÐºÐ¾Ð· Ð°
ĠÐºêĻĳ Ð¼ÑĬ
ĠÐ·Ð°Ð²Ð¸ ÑģÑĤÑĮ
ĠÑģÑĤÐµÐ¿Ð° Ð½Ñĥ
ĠÐ²Ñ£ÑĢÑĥ Ð¹
ĠÐ±Ð»Ð°Ð¶Ðµ Ð½ÑĭÐ¸
ĠÑĤÑĢÐµÐ± Ñ¹
ĠÐ²ÐµÐ´Ð° Ñİ
ĠÐ´ÑĥÑħÐ¾Ð² Ð½Ð¾Ð¹
ĠÐ¼Ð°Ð»Ñĭ Ðµ
ĠÑĦÐ¸Ð»Ð¸ Ð¿Ð¾Ð¼ÑĬ
ĠÑĤÑİÑĢ Ð¼Ñĭ
ĠÐ¿Ð¾Ð»Ð¾Ð¶Ðµ Ð½Ð°
ĠÑģÐ»Ð¾Ð²Ñ£ Ð½ÑĮ
Ð²ÑıÑĤ ÑģÑı
ĠÐ¸ÐºÐ¾Ð½ Ñĭ
ĠÐĿÑĭ Ð½ÐµÑĪ
ĠÐ¼Ð°ÐºÐµÐ´Ð¾Ð½ ÑıÐ½Ðµ
ĠÑĢÑĭÑĨÐµÑĢ Ñİ
ĠÐ²Ñ£ÑĢÑ¹ Ð¸
ĠÐ¼Ð¸ÐºÑĥ Ð»Ð¸
ĠÐ¿Ð¾ÑĤÑĢÑ£ Ð±Ð°
ĠÐºÑĭÑ¥ Ð²Ñĥ
ĠÑĢÐ°ÑĤÐ¼Ð° Ð½Ð¾Ð¼
ĠÑĤÐ¸ÑħÐ°Ð½Ð¾Ð²Ð¸ ÑĩÑĮ
ĠÐľÐ¸Ð»Ð¸ ÑĤÑĢÐ¸
Ð° ÑħÑ¹
Ðµ ÑĤÐ¸
ÑĢ Ð¾Ð¿ÑĬ
Ð½ ÑĤÑĮ
Ð½ Ð½Ñ£
Ð½ Ð½ÑĭÐµ
Ñģ ÐµÐ½Ð¾
Ð² Ð¾Ð³Ð¾
ĠÐ² Ð²ÐµÐ´
ĠÐ² ÑĤÐ¾ÑĢÐ°
ĠÐ´ Ð¾Ð³Ð°
Ð³ Ð½Ñ§
Ð³ Ð¾Ð¶Ð¸
ĠÐ± Ð¾ÑĢÐ¾
Ð± Ð¾Ð½ÑĬ
ĠÐ¾ Ð¿Ð¾
ĠÐ³ Ð²
ÑĤÐ¸ ÑīÐ°
ĠÐ½Ðµ Ð±ÑĢÑ£
Ð½Ð¸ Ð½ÑĮ
ĠÑĢ Ð¾Ðº
Ð»Ð¸ Ñ¥
ÑĨ Ð¾Ð²Ð°
ĠÐ° Ð¶Ð¸Ð¾
Ñī Ð½Ð¸ÐºÑĬ
ĠÐµ êĻĹ
ĠÐ´Ð° Ð¼Ð¾
Ð´Ð° Ð³Ð¾
Ð¶Ðµ Ð½Ðµ
ĠÑģÑĤ Ñ¡
ĠÐĲ Ð½Ð´ÑĢÑ£
Ð¼Ð¸ Ð¶Ðµ
ĠÐ½Ð¸ ÐºÑĬ
ĠÐ¾Ñĥ ÑĢÑ§
ĠÐ±Ñĭ Ð²Ð°Ð»Ð¸
ĠÐ±Ñĭ ÑģÑĤêĻ¿
ĠÐŁ Ð¾Ð±Ñ£
Ð½ÑĮ ÐºÐ°
Ð¾Ð¿ ÑĢÑ£
ĠÐĿ Ð°ÑĢ
ĠÐ±Ð¾ ÑķÑ£
ĠÑģÐ¸ Ð»Ð¾
ÑĩÐ° Ð½
ĠÐºÐ° ÑĦ
ÑĸÐµ Ð²ÑĬ
ÑĤÐµ ÑĩÐµÑģÑĤÐ²ÑĬ
ĠÐ¼Ð¾ ÑģÑĤÑĬ
ĠÑĤÐµ ÑģÐ½Ð¾
Ð»Ñ£ Ð½Ð¾
ĠÑģÐ° Ð´Ñĥ
Ð¶Ð° Ð¹
