{
  "version": "1.0",
  "truncation": null,
  "padding": null,
  "added_tokens": [
    {
      "id": 0,
      "content": "<s>",
      "single_word": false,
      "lstrip": false,
      "rstrip": false,
      "normalized": false,
      "special": true
    },
    {
      "id": 1,
      "content": "<pad>",
      "single_word": false,
      "lstrip": false,
      "rstrip": false,
      "normalized": false,
      "special": true
    },
    {
      "id": 2,
      "content": "</s>",
      "single_word": false,
      "lstrip": false,
      "rstrip": false,
      "normalized": false,
      "special": true
    },
    {
      "id": 3,
      "content": "<unk>",
      "single_word": false,
      "lstrip": false,
      "rstrip": false,
      "normalized": false,
      "special": true
    },
    {
      "id": 4,
      "content": "<mask>",
      "single_word": false,
      "lstrip": false,
      "rstrip": false,
      "normalized": false,
      "special": true
    },
    {
      "id": 5,
      "content": "[CTX_CHURCH]",
      "single_word": false,
      "lstrip": false,
      "rstrip": false,
      "normalized": false,
      "special": true
    },
    {
      "id": 6,
      "content": "[CTX_DAILY]",
      "single_word": false,
      "lstrip": false,
      "rstrip": false,
      "normalized": false,
      "special": true
    },
    {
      "id": 7,
      "content": "[CTX_LEGAL]",
      "single_word": false,
      "lstrip": false,
      "rstrip": false,
      "normalized": false,
      "special": true
    },
    {
      "id": 8,
      "content": "[CTX_LIT]",
      "single_word": false,
      "lstrip": false,
      "rstrip": false,
      "normalized": false,
      "special": true
    },
    {
      "id": 9,
      "content": "[CTX_EPIC]",
      "single_word": false,
      "lstrip": false,
      "rstrip": false,
      "normalized": false,
      "special": true
    },
    {
      "id": 10,
      "content": "[CTX_SCIENCE]",
      "single_word": false,
      "lstrip": false,
      "rstrip": false,
      "normalized": false,
      "special": true
    },
    {
      "id": 11,
      "content": "[GAP]",
      "single_word": false,
      "lstrip": false,
      "rstrip": false,
      "normalized": false,
      "special": true
    },
    {
      "id": 12,
      "content": "·",
      "single_word": false,
      "lstrip": false,
      "rstrip": false,
      "normalized": false,
      "special": true
    },
    {
      "id": 13,
      "content": ":",
      "single_word": false,
      "lstrip": false,
      "rstrip": false,
      "normalized": false,
      "special": true
    }
  ],
  "normalizer": null,
  "pre_tokenizer": {
    "type": "ByteLevel",
    "add_prefix_space": false,
    "trim_offsets": true,
    "use_regex": true
  },
  "post_processor": {
    "type": "ByteLevel",
    "add_prefix_space": true,
    "trim_offsets": false,
    "use_regex": true
  },
  "decoder": {
    "type": "ByteLevel",
    "add_prefix_space": true,
    "trim_offsets": true,
    "use_regex": true
  },
  "model": {
    "type": "BPE",
    "dropout": null,
    "unk_token": null,
    "continuing_subword_prefix": null,
    "end_of_word_suffix": null,
    "fuse_unk": false,
    "byte_fallback": false,
    "ignore_merges": false,
    "vocab": {
      "<s>": 0,
      "<pad>": 1,
      "</s>": 2,
      "<unk>": 3,
      "<mask>": 4,
      "[CTX_CHURCH]": 5,
      "[CTX_DAILY]": 6,
      "[CTX_LEGAL]": 7,
      "[CTX_LIT]": 8,
      "[CTX_EPIC]": 9,
      "[CTX_SCIENCE]": 10,
      "[GAP]": 11,
      "·": 12,
      ":": 13,
      "!": 14,
      "\"": 15,
      "#": 16,
      "$": 17,
      "%": 18,
      "&": 19,
      "'": 20,
      "(": 21,
      ")": 22,
      "*": 23,
      "+": 24,
      ",": 25,
      "-": 26,
      ".": 27,
      "/": 28,
      "0": 29,
      "1": 30,
      "2": 31,
      "3": 32,
      "4": 33,
      "5": 34,
      "6": 35,
      "7": 36,
      "8": 37,
      "9": 38,
      ";": 39,
      "<": 40,
      "=": 41,
      ">": 42,
      "?": 43,
      "@": 44,
      "A": 45,
      "B": 46,
      "C": 47,
      "D": 48,
      "E": 49,
      "F": 50,
      "G": 51,
      "H": 52,
      "I": 53,
      "J": 54,
      "K": 55,
      "L": 56,
      "M": 57,
      "N": 58,
      "O": 59,
      "P": 60,
      "Q": 61,
      "R": 62,
      "S": 63,
      "T": 64,
      "U": 65,
      "V": 66,
      "W": 67,
      "X": 68,
      "Y": 69,
      "Z": 70,
      "[": 71,
      "\\": 72,
      "]": 73,
      "^": 74,
      "_": 75,
      "`": 76,
      "a": 77,
      "b": 78,
      "c": 79,
      "d": 80,
      "e": 81,
      "f": 82,
      "g": 83,
      "h": 84,
      "i": 85,
      "j": 86,
      "k": 87,
      "l": 88,
      "m": 89,
      "n": 90,
      "o": 91,
      "p": 92,
      "q": 93,
      "r": 94,
      "s": 95,
      "t": 96,
      "u": 97,
      "v": 98,
      "w": 99,
      "x": 100,
      "y": 101,
      "z": 102,
      "{": 103,
      "|": 104,
      "}": 105,
      "~": 106,
      "¡": 107,
      "¢": 108,
      "£": 109,
      "¤": 110,
      "¥": 111,
      "¦": 112,
      "§": 113,
      "¨": 114,
      "©": 115,
      "ª": 116,
      "«": 117,
      "¬": 118,
      "®": 119,
      "¯": 120,
      "°": 121,
      "±": 122,
      "²": 123,
      "³": 124,
      "´": 125,
      "µ": 126,
      "¶": 127,
      "¸": 128,
      "¹": 129,
      "º": 130,
      "»": 131,
      "¼": 132,
      "½": 133,
      "¾": 134,
      "¿": 135,
      "À": 136,
      "Á": 137,
      "Â": 138,
      "Ã": 139,
      "Ä": 140,
      "Å": 141,
      "Æ": 142,
      "Ç": 143,
      "È": 144,
      "É": 145,
      "Ê": 146,
      "Ë": 147,
      "Ì": 148,
      "Í": 149,
      "Î": 150,
      "Ï": 151,
      "Ð": 152,
      "Ñ": 153,
      "Ò": 154,
      "Ó": 155,
      "Ô": 156,
      "Õ": 157,
      "Ö": 158,
      "×": 159,
      "Ø": 160,
      "Ù": 161,
      "Ú": 162,
      "Û": 163,
      "Ü": 164,
      "Ý": 165,
      "Þ": 166,
      "ß": 167,
      "à": 168,
      "á": 169,
      "â": 170,
      "ã": 171,
      "ä": 172,
      "å": 173,
      "æ": 174,
      "ç": 175,
      "è": 176,
      "é": 177,
      "ê": 178,
      "ë": 179,
      "ì": 180,
      "í": 181,
      "î": 182,
      "ï": 183,
      "ð": 184,
      "ñ": 185,
      "ò": 186,
      "ó": 187,
      "ô": 188,
      "õ": 189,
      "ö": 190,
      "÷": 191,
      "ø": 192,
      "ù": 193,
      "ú": 194,
      "û": 195,
      "ü": 196,
      "ý": 197,
      "þ": 198,
      "ÿ": 199,
      "Ā": 200,
      "ā": 201,
      "Ă": 202,
      "ă": 203,
      "Ą": 204,
      "ą": 205,
      "Ć": 206,
      "ć": 207,
      "Ĉ": 208,
      "ĉ": 209,
      "Ċ": 210,
      "ċ": 211,
      "Č": 212,
      "č": 213,
      "Ď": 214,
      "ď": 215,
      "Đ": 216,
      "đ": 217,
      "Ē": 218,
      "ē": 219,
      "Ĕ": 220,
      "ĕ": 221,
      "Ė": 222,
      "ė": 223,
      "Ę": 224,
      "ę": 225,
      "Ě": 226,
      "ě": 227,
      "Ĝ": 228,
      "ĝ": 229,
      "Ğ": 230,
      "ğ": 231,
      "Ġ": 232,
      "ġ": 233,
      "Ģ": 234,
      "ģ": 235,
      "Ĥ": 236,
      "ĥ": 237,
      "Ħ": 238,
      "ħ": 239,
      "Ĩ": 240,
      "ĩ": 241,
      "Ī": 242,
      "ī": 243,
      "Ĭ": 244,
      "ĭ": 245,
      "Į": 246,
      "į": 247,
      "İ": 248,
      "ı": 249,
      "Ĳ": 250,
      "ĳ": 251,
      "Ĵ": 252,
      "ĵ": 253,
      "Ķ": 254,
      "ķ": 255,
      "ĸ": 256,
      "Ĺ": 257,
      "ĺ": 258,
      "Ļ": 259,
      "ļ": 260,
      "Ľ": 261,
      "ľ": 262,
      "Ŀ": 263,
      "ŀ": 264,
      "Ł": 265,
      "ł": 266,
      "Ń": 267,
      "ĠÐ": 268,
      "Ð¾": 269,
      "Ð°": 270,
      "Ðµ": 271,
      "Ð¸": 272,
      "ĠÑ": 273,
      "ÑĤ": 274,
      "Ð¾Ð": 275,
      "ÑĢ": 276,
      "Ð½": 277,
      "Ñģ": 278,
      "ÑĬ": 279,
      "Ð»": 280,
      "Ð²": 281,
      "ĠÑģ": 282,
      "ĠÐ¸": 283,
      "ÑĮ": 284,
      "Ñĥ": 285,
      "Ð¼": 286,
      "ĠÐ¿": 287,
      "Ðº": 288,
      "ĠÐ²": 289,
      "Ð´": 290,
      "Ñ£": 291,
      "Ñĭ": 292,
      "ĠÐ½": 293,
      "CT": 294,
      "čĊ": 295,
      "CTX": 296,
      "Ñı": 297,
      "ĠÐ´": 298,
      "ĠÑĤ": 299,
      "ÑģÑĤ": 300,
      "ĠÐº": 301,
      "Ð³": 302,
      "ĠÐ±": 303,
      "ÑĪ": 304,
      "Ñİ": 305,
      "Ñħ": 306,
      "êĻ": 307,
      "Ð¾Ð²": 308,
      "ĠÐ¼": 309,
      "Ð·": 310,
      "Ñĩ": 311,
      "Ð±": 312,
      "ĠÐ¾": 313,
      "Ñ§": 314,
      "ĠÐ½Ð°": 315,
      "¶Ðµ": 316,
      "ĠÐ¿ÑĢ": 317,
      "Ð¾Ð¼": 318,
      "ÑĤÐ¸": 319,
      "Ð¾ÑĢ": 320,
      "ĠÐ³": 321,
      "Ð¿": 322,
      "Ð¾Ð»": 323,
      "Ð»Ð¸": 324,
      "Ð½Ð¸": 325,
      "ÑĢÐ°": 326,
      "ĠÑĢ": 327,
      "Ð»Ð°": 328,
      "ĠÐ½Ðµ": 329,
      "ÑĨ": 330,
      "ÒĨ": 331,
      "CH": 332,
      "ÐµÑĤ": 333,
      "ÐµÐ¼": 334,
      "ĠÐ°": 335,
      "ĠÐ¿Ð¾": 336,
      "Ð¾Ð´": 337,
      "ĠÐ·": 338,
      "ĠÐµ": 339,
      "ÐµÐ½": 340,
      "Ð²Ð¾": 341,
      "Ð³Ð¾": 342,
      "ÐµÑĢ": 343,
      "Ñī": 344,
      "Ð¾Ð³": 345,
      "Ñĸ": 346,
      "ĠÑĩ": 347,
      "ĠÐ»": 348,
      "Òĥ": 349,
      "Ð°ÑĢ": 350,
      "Ð¶": 351,
      "ÑģÐº": 352,
      "Ð½Ð°": 353,
      "ÑĤÑĮ": 354,
      "GA": 355,
      "êĻĭ": 356,
      "IT": 357,
      "LIT": 358,
      "Ð²Ð°": 359,
      "ĠÑĥ": 360,
      "ĠÐ²ÑĬ": 361,
      "Ð½Ñĭ": 362,
      "Ð¼ÑĬ": 363,
      "ĠÐ¶Ðµ": 364,
      "ÐµÐ»": 365,
      "ÐºÐ°": 366,
      "ĠÐ´Ð°": 367,
      "ĠÑģÑĤ": 368,
      "Ð½Ð¾": 369,
      "ÑħÑĬ": 370,
      "Ñ¹": 371,
      "ÐºÐ¾": 372,
      "ĠÐĺ": 373,
      "Ġ:": 374,
      "Ð¾ÑĤ": 375,
      "Ð¾Ð½": 376,
      "Ð¶Ðµ": 377,
      "Ð¾Ð±": 378,
      "ÑĥÐ´": 379,
      "Ð¾Ñģ": 380,
      "RCH": 381,
      "URCH": 382,
      "CHURCH": 383,
      "Ð¸ÑĤ": 384,
      "Ð¹": 385,
      "ĠÐ¿ÑĢÐ¸": 386,
      "EP": 387,
      "IC": 388,
      "EPIC": 389,
      "Ð¼Ð¸": 390,
      "ĠÐ²Ñģ": 391,
      "ÐµÐ²": 392,
      "Ð´Ð°": 393,
      "AI": 394,
      "DAI": 395,
      "LY": 396,
      "DAILY": 397,
      "ĠÐĲ": 398,
      "Ð°Ðº": 399,
      "ĠÑģÐ²Ð¾": 400,
      "ĠÐ¾ÑĤ": 401,
      "ĠÑħ": 402,
      "ÑĪÐ°": 403,
      "EGA": 404,
      "LEGA": 405,
      "LEGAL": 406,
      "Ð¸Ð½": 407,
      "Ð¸Ð»": 408,
      "ÑģÑĤÑĮ": 409,
      "ÑĤÐ¾": 410,
      "ÐµÐ´": 411,
      "Ð°Ð½": 412,
      "Ð¾Ð³Ð¾": 413,
      "êĻĹ": 414,
      "ÑģÑı": 415,
      "ĠÑĢÐ°": 416,
      "ĠÐ·Ð°": 417,
      "ĠÑ¡": 418,
      "ĠÐ½Ð¸": 419,
      "Ñ¡": 420,
      "ÑĢÐµ": 421,
      "ĠÂ": 422,
      "ĠÂ·": 423,
      "ĠÑĨ": 424,
      "ÑĢÐ¸": 425,
      "Ð¾Ðº": 426,
      "ÑĪÐµ": 427,
      "Ð´Ðµ": 428,
      "Ð°Ð»": 429,
      "Ð°Ð²": 430,
      "ÑĪÐ¸": 431,
      "CE": 432,
      "CI": 433,
      "EN": 434,
      "SCI": 435,
      "ENCE": 436,
      "SCIENCE": 437,
      "Ġ[": 438,
      "GAP": 439,
      "ĠÑģÐµ": 440,
      "Ð¾Ð¼ÑĬ": 441,
      "ĠÑģÑĬ": 442,
      "ÑĢÑ£": 443,
      "Ð¾Ñĥ": 444,
      "ĠÑ¿": 445,
      "Ð´Ð¸": 446,
      "êĻģ": 447,
      "ĠÐ±Ñĭ": 448,
      "ÑģÑĤÐ¸": 449,
      "ÐºÐ¸": 450,
      "ĠÑı": 451,
      "ÑĩÐ¸": 452,
      "Ð¾Ð¶": 453,
      "ÐµÑģ": 454,
      "êĻĳ": 455,
      "ÑĤÑĬ": 456,
      "Ð¾Ð¹": 457,
      "ÑĩÐµ": 458,
      "Ð¾Ð²Ð°": 459,
      "Ñ«": 460,
      "Ð¾Ð·": 461,
      "Ð¾Ð¿": 462,
      "Ð»Ðµ": 463,
      "ÑīÐµ": 464,
      "ĠÐ²Ð¾": 465,
      "ĠÐ¶": 466,
      "ÐµÐ»Ð¸": 467,
      "ĠÐ±Ð¾": 468,
      "ĠÐ»Ñİ": 469,
      "Ð¸Ð¼": 470,
      "ĠÐ¾Ñĥ": 471,
      "Ð²Ð¾ÑĢ": 472,
      "ĠÑĤÐ¾": 473,
      "Ð¸Ñģ": 474,
      "Ð°ÑĤ": 475,
      "ÐµÐ¼ÑĬ": 476,
      "Ð¾Ð¼Ñĥ": 477,
      "Ð½Ðµ": 478,
      "ĠÐ¸Ð»Ð¸": 479,
      "ĠÑģÐ»": 480,
      "ĠÐŁ": 481,
      "Ð²Ñ£": 482,
      "ĠÐ¿Ð¾Ð»": 483,
      "Ð½Ñ£": 484,
      "ĠÐ¡": 485,
      "ĠÐ¿Ð¾Ñģ": 486,
      "Ð¸ÑĤÐ¸": 487,
      "ÑĨÐ°": 488,
      "Ð´Ñ£": 489,
      "ĠÐĴ": 490,
      "Ð½Ñı": 491,
      "ĠÑģÑ§": 492,
      "ĠÐĿ": 493,
      "ÐµÑĤÑĮ": 494,
      "ÑĢÑĥ": 495,
      "ĠÐ¼Ð¾": 496,
      "Ð»ÑĬ": 497,
      "Ð°Ð¼": 498,
      "Ð¾Ð¶Ðµ": 499,
      "ĠÐ¸Ð¼": 500,
      "ĠÐ¸Ð·": 501,
      "ÐµÑĤÑĬ": 502,
      "Ð½ÑĬ": 503,
      "ÑĢÐ¾": 504,
      "Ð²ÑĬ": 505,
      "ĠÑĤÐµ": 506,
      "ÑĤÐ°": 507,
      "Ð°Ñģ": 508,
      "ĠÐ¾Ð±": 509,
      "ĠÐ³Ð¾Ñģ": 510,
      "ĠÐµÐ³Ð¾": 511,
      "ĠÐ²ÐµÐ»Ð¸": 512,
      "Ð²Ð¸": 513,
      "ĠÑĢÐµ": 514,
      "Ð½Ñĥ": 515,
      "ĠÐ±ÑĥÐ´": 516,
      "ÐºÑĬ": 517,
      "ĠÐºÑĬ": 518,
      "Ð¸Ñħ": 519,
      "ĠêĻĹ": 520,
      "ÑģÐ¸": 521,
      "ÑĤÐµ": 522,
      "ÑĸÐµ": 523,
      "ÑĩÐ°": 524,
      "ĠÐ¿Ð¾Ð´": 525,
      "ÑĢÑĮ": 526,
      "Ð»Ð¾": 527,
      "Ð»ÑĮ": 528,
      "Ð¼ÑĮ": 529,
      "Ð½ÑĮ": 530,
      "ĠÑĩÑĤÐ¾": 531,
      "ĠÐĳ": 532,
      "ÐºÐ°Ð·": 533,
      "ÑĢÑĬ": 534,
      "ÐµÐ·": 535,
      "Òĩ": 536,
      "ĠÐ²Ñ£": 537,
      "ĠÐ´Ð¾": 538,
      "Ð»Ñ£": 539,
      "ĠÐ¿ÑĢÐ¾": 540,
      "Ð¾Ð²Ñ£": 541,
      "ÐºÑĥ": 542,
      "ĠÐºÐ°": 543,
      "Ð°ÑĤÐ¸": 544,
      "ĠÑĨÐ°ÑĢ": 545,
      "Ð¼Ñĥ": 546,
      "ĠÐĶ": 547,
      "ĠÐ¢": 548,
      "ĠÑĤÐ²Ð¾": 549,
      "ĠÑĩÐµÐ»": 550,
      "ĠÑĶ": 551,
      "ĠÐŀ": 552,
      "ÑĥÐ´Ð°ÑĢ": 553,
      "ĠÐ²Ñĭ": 554,
      "ĠÑģÐ²Ð¾Ðµ": 555,
      "Ð¾Ð²Ð¸": 556,
      "ĠÐ³ÑĢÐ°": 557,
      "Ñ¥": 558,
      "ĠÐºÐ¾": 559,
      "Ð»Ñı": 560,
      "ĠÐ´Ñ£": 561,
      "ĠÐ»Ð¸": 562,
      "Ð¼Ñ£": 563,
      "ĠÑģÑĭ": 564,
      "ĠÑģÐ¸": 565,
      "ÑĩÑĮ": 566,
      "ĠÐ²ÑģÐµ": 567,
      "ĠÑĸ": 568,
      "ĠÐ·ÐµÐ¼": 569,
      "Òħ": 570,
      "ĠÑĢÑĥ": 571,
      "ĠÐ¼Ð½": 572,
      "ĠÐ¿Ð¾Ð¼": 573,
      "ĠÑĪ": 574,
      "ĠÐ³Ð¾ÑģÑĥÐ´Ð°ÑĢ": 575,
      "ÑĸÐ¸": 576,
      "Ð»Ñİ": 577,
      "ÑģÑĤÐ°": 578,
      "ĠÐ±ÑĢÐ°": 579,
      "ĠÐľ": 580,
      "ĠÐļ": 581,
      "ĠÑĢÐ°Ð·": 582,
      "ÑĦ": 583,
      "Ð¾Ð²ÑĬ": 584,
      "ĠÑģÐ²": 585,
      "ÑīÐ°": 586,
      "ĠÐ¿ÑĢÐµ": 587,
      "Ð¶Ð¸": 588,
      "Ð´Ð¾": 589,
      "ÐµÐ½ÑĮ": 590,
      "ÑīÐ¸": 591,
      "ÑģÑĤÐ°Ð²": 592,
      "Ð¾ÑĢÐ¾Ð´": 593,
      "ÑģÑĤÐ¾": 594,
      "Ð±Ñ£": 595,
      "ĠÐ¿ÐµÑĢ": 596,
      "ĠÐ¼Ð¸": 597,
      "ĠÑĤÐ°": 598,
      "ĠÐºÐ°Ðº": 599,
      "ĠÑĤÐ°Ðº": 600,
      "ĠÐ¿Ð¾Ðº": 601,
      "ĠÐºÐ¾ÑĤ": 602,
      "ÑģÐºÐ¸": 603,
      "ĠÐ´Ð¾Ð±": 604,
      "ĠÑ¥": 605,
      "ĠÐºÐ½Ñı": 606,
      "Ð¼Ð°": 607,
      "Ð¿Ð¾Ð´": 608,
      "Ð±Ð¾": 609,
      "ĠÐ²Ð¸": 610,
      "Ð³Ð°": 611,
      "ĠÐºÐ¾ÑĤÐ¾ÑĢ": 612,
      "Ð¾Ð²Ð¾": 613,
      "âĢ": 614,
      "Ð¾Ð²Ðµ": 615,
      "ĠÐ¸Ñģ": 616,
      "ÑĪÑĮ": 617,
      "Ð´ÑĬ": 618,
      "ĠÐ²Ð¾Ð·": 619,
      "ÑĢÑĭ": 620,
      "ĠÑģÐ¾": 621,
      "ÑĨÐµ": 622,
      "Ð½Ð¸Ðµ": 623,
      "ĠÑĤÑĭ": 624,
      "ĠÑĤÐ¸": 625,
      "ĠÐµÑģÑĤÑĮ": 626,
      "Ð»Ð°Ð²": 627,
      "ĠÐ¶Ð¸": 628,
      "ÑĨÐ¸": 629,
      "Ð¾Ð»ÑĮ": 630,
      "ÑģÑ§": 631,
      "Ð´Ñĥ": 632,
      "ÑģÑĤÐ²": 633,
      "ÑģÐ»": 634,
      "Ð±Ð¸": 635,
      "ĠÑĤÐ¾Ð³Ð¾": 636,
      "ĠÐĵ": 637,
      "ĠÐ¼Ñ£": 638,
      "Ð¶Ð°": 639,
      "Ġ,": 640,
      "Ġ.": 641,
      "ÑģÐºÐ°": 642,
      "ĠÐºÐ½ÑıÐ·": 643,
      "ÑģÑĤÑĭ": 644,
      "ĠÐ¾ÑĤÑĬ": 645,
      "ĠÐ±Ñ£": 646,
      "ÑĢÑı": 647,
      "ĠÑĦ": 648,
      "ĠÐ»Ñ£": 649,
      "ĠÐºÐ¾Ð½": 650,
      "Ð±Ðµ": 651,
      "ĠÐ²ÑĮ": 652,
      "ĠÑĤÑ£": 653,
      "ĠÑ¹": 654,
      "Ð¾Ð²Ñĭ": 655,
      "Ð»Ð°Ð³": 656,
      "Ð¸ÑĤÑĮ": 657,
      "ĠÐ´ÐµÑĢ": 658,
      "Ð½Ñ§": 659,
      "ĠÐ²Ð¾Ð»": 660,
      "ÑĥÐ¿": 661,
      "â¸": 662,
      "ĠÐ¿Ñĥ": 663,
      "ĠâĢ": 664,
      "Ð²ÑĮ": 665,
      "ĠêĻģ": 666,
      "ĠÑģÐ²Ð¾Ð¸": 667,
      "ĠêĻ": 668,
      "êĻ¿": 669,
      "ÑıÑĤ": 670,
      "ĠÐºÐ¾ÑĢ": 671,
      "ĠÐ¿Ð°": 672,
      "ĠÐ¿ÑĢÑ£": 673,
      "ĠÐ±ÐµÐ·": 674,
      "ĠÐ²ÑģÑ§": 675,
      "ĠÐ½Ð¾": 676,
      "ÑĨÑĭ": 677,
      "Ð´ÑĮ": 678,
      "Ð´Ñĭ": 679,
      "ĠÑģÑĤÐ°ÑĢ": 680,
      "Ð²ÐµÑĢ": 681,
      "Ð¾Ð»Ð¸": 682,
      "ĠÑģÐ°": 683,
      "ĠÐµÐ¼Ñĥ": 684,
      "ÑģÑĤÐ²Ð¾": 685,
      "ÑĥÑİ": 686,
      "Ð²Ñĭ": 687,
      "Ð¼Ð¾ÑĤ": 688,
      "ĠÐ²Ð°": 689,
      "ĠÐ±Ð¾Ð³": 690,
      "ÐµÐ¹": 691,
      "ĠÑıÐºÐ¾": 692,
      "ÑħÐ°": 693,
      "ĠÐķ": 694,
      "Ð¾Ñİ": 695,
      "ĠÑģÑı": 696,
      "ÑĹ": 697,
      "ĠÑģÐº": 698,
      "ĠÑģÐ¿": 699,
      "ĠÐ¸Ñħ": 700,
      "ĠÐ¸Ð²Ð°": 701,
      "ÐµÐ²Ð¸": 702,
      "Ð½Ð¾Ðµ": 703,
      "ÐµÐ½Ð¸": 704,
      "Ð»ÐµÐ½": 705,
      "ĠÐ¼Ðµ": 706,
      "ĠÐ³ÑĢÐ¸": 707,
      "ĠâĢĶ": 708,
      "ÐµÐ¼Ñĥ": 709,
      "Ð±Ñĭ": 710,
      "Ð½ÑĭÐµ": 711,
      "Ð½ÑĭÑħ": 712,
      "ÐµÑĨ": 713,
      "ÑĶ": 714,
      "Ð¸ÑĤÑĬ": 715,
      "ĠÐ²Ð°Ñģ": 716,
      "Ð»Ñ§": 717,
      "Ð½Ð¸Ðº": 718,
      "ĠÐºÐ°ÐºÑĬ": 719,
      "ĠÐ²ÐµÐ»": 720,
      "ĠÐ·Ð°Ð¿": 721,
      "ĠÐ²Ð·": 722,
      "ĠÐĿÐµ": 723,
      "ÑģÐµ": 724,
      "ĠÐ½Ñ£": 725,
      "Ð³Ð¸": 726,
      "ĠÐ²ÑģÑ£": 727,
      "ĠÐ´Ðµ": 728,
      "ĠÐ½Ð°Ð¿": 729,
      "ĠÐ²ÐµÐ»Ð¸Ðº": 730,
      "Ð²Ðµ": 731,
      "ÑģÐ°": 732,
      "ÐµÐ¼ÑĮ": 733,
      "Ð¶ÑĮ": 734,
      "ÑĨÑ£": 735,
      "ÑħÐ¾Ð´": 736,
      "Ð¸Ð»ÑĬ": 737,
      "Ð¸Ð½Ñĥ": 738,
      "Ð¾Ðµ": 739,
      "ĠÐĶÐ°": 740,
      "Ð¾Ð½Ð°": 741,
      "ĠÐ²ÑĬÐ·": 742,
      "ĠÐ¼Ð¾Ð»": 743,
      "ÐµÐ½ÑĬ": 744,
      "Ð°Ð»ÑĬ": 745,
      "Ð³Ñ¡": 746,
      "ĠêĻĭ": 747,
      "Ð¾Ð¶Ð¸": 748,
      "ĠÑĥÐºÐ°Ð·": 749,
      "ĠÐ¿Ð¾ÑĢ": 750,
      "Ð¾Ð´Ð°": 751,
      "ĠÐ¿Ð¸Ñģ": 752,
      "ÑĸÐ°": 753,
      "ĠÐ±ÑĥÐ´ÐµÑĤ": 754,
      "Ð½Ð°Ð³Ð¾": 755,
      "ÐµÐ½Ðµ": 756,
      "Ð¸ÑĤÐµ": 757,
      "ÑģÑĬ": 758,
      "Ð³Ð´Ð°": 759,
      "ĠÐ¿Ð¾Ð²": 760,
      "ĠÐºÐ¾ÑĤÐ¾ÑĢÑĭ": 761,
      "ĠÑģÑĤÑĢÐ°": 762,
      "ĠÐ´Ð²Ð¾ÑĢ": 763,
      "ÑģÑĤÑĬ": 764,
      "ÐµÑĢÐµ": 765,
      "Ð·ÑĬ": 766,
      "ĠÐºÑĤÐ¾": 767,
      "Ð¼Ð¾": 768,
      "ĠÐ²ÑģÑı": 769,
      "ÑĢÐ°Ð²": 770,
      "ÑģÑ£": 771,
      "ĠÐ¿Ð¾ÑĤ": 772,
      "ÐµÐ½Ð°": 773,
      "ĠÑĢÐµÑĩÐµ": 774,
      "ÑĥÑĤ": 775,
      "ÒĦ": 776,
      "ÐµÐ»ÑĮ": 777,
      "ĠÐ¿ÑĢÐ°Ð²": 778,
      "ĠÑģÐ¾Ð±": 779,
      "ĠÑ»": 780,
      "ĠÑģÐ¼": 781,
      "ĠÐ³Ð¾ÑĢÐ¾Ð´": 782,
      "Ð¸Ð»Ð¾": 783,
      "ÐµÑĤÑģÑı": 784,
      "ĠÑķ": 785,
      "Ð»Ñĥ": 786,
      "ĠÐ»ÑİÐ´Ðµ": 787,
      "Ð³ÑĬ": 788,
      "ĠÐ´Ñĥ": 789,
      "ÑģÑĮ": 790,
      "ĠÐºÑĢÐµ": 791,
      "ĠÐºÑĢÐ°": 792,
      "ĠÐ´ÑĢÑĥ": 793,
      "ĠÒĨ": 794,
      "Ð°Ð·": 795,
      "ĠÐ¼Ñĥ": 796,
      "ĠÐ¿Ð¾Ð³": 797,
      "ĠÑİ": 798,
      "ÑİÑĤ": 799,
      "ĠÑ§": 800,
      "Ð²Ð°ÑĤÐ¸": 801,
      "Ð¸Ð»ÑĮ": 802,
      "ĠÐ±Ð»": 803,
      "Ð³Ñĥ": 804,
      "ĠÐ³Ð¾ÑĢ": 805,
      "Ð¸ÑħÑĬ": 806,
      "ÑģÑĤÐµ": 807,
      "ĠÐ¿Ð¸": 808,
      "ĠÑģÑ£": 809,
      "ĠÑģÐ²Ð¾ÐµÐ³Ð¾": 810,
      "Ð¸Ð¼ÑĬ": 811,
      "ĠÐ¼Ð°": 812,
      "ĠÐ´ÐµÑĢÐµÐ²": 813,
      "ĠÑģÐ°Ð¼": 814,
      "ÑĸÑ§": 815,
      "ĠÑĤÐ°ÐºÐ¾": 816,
      "ÐºÐ¾Ð²": 817,
      "ÐºÐ¾Ð¶Ðµ": 818,
      "Ð±Ð°": 819,
      "Ð½Ð¾Ñİ": 820,
      "ÑĩÑİ": 821,
      "ĠÑĨÑĢ": 822,
      "ĠÑĤÐ²Ð¾ÑĢ": 823,
      "Ð»Ð°Ð³Ð¾Ð»": 824,
      "ĠÐ¿Ð»Ð°": 825,
      "ÐºÑĭ": 826,
      "ĠÑģÑĥÐ´": 827,
      "ĠÐµÑģ": 828,
      "Ð°ÑĢÐ¸": 829,
      "Ð´Ð¸Ð½": 830,
      "Ð¿Ð°": 831,
      "ĠÐ¸ÑħÑĬ": 832,
      "ĠÑģÑĥ": 833,
      "ÐµÑħ": 834,
      "ÑĤÑĭ": 835,
      "ÑĨÑĮ": 836,
      "ĠÐł": 837,
      "Ð»Ñĭ": 838,
      "ÑĸÑİ": 839,
      "ĠÐ±ÑĮ": 840,
      "ĠÐºÑĢ": 841,
      "ĠÑĤÐ¾Ð¼": 842,
      "Ð¿Ð¸": 843,
      "Ð»ÐµÐº": 844,
      "ĠÑģÑĤÐ°": 845,
      "ĠÑĩÐµ": 846,
      "ÑıÐ½": 847,
      "ĠÐ¿Ðµ": 848,
      "ĠÐ±Ð¾Ð»": 849,
      "ĠÐ¼Ð½Ð¾Ð³": 850,
      "ĠÑĤÑĥ": 851,
      "ĠÐ³ÑĢÐ°Ð¼Ð¾ÑĤ": 852,
      "Ð¾Ð¸": 853,
      "ÑĢÐµÐ¼": 854,
      "Ð½ÑĭÑı": 855,
      "Ð½Ð¾Ð¹": 856,
      "ĠÑĤÐ¾Ð¼Ñĥ": 857,
      "ÑģÑĤÐ²Ð°": 858,
      "â¸±": 859,
      "ĠÐ¿Ð¾ÑģÐ»Ð°": 860,
      "ĠÐĽ": 861,
      "Ð±ÑĢÐ°": 862,
      "Ð·Ñĭ": 863,
      "ÑĮÑı": 864,
      "ĠÐ³ÑĢ": 865,
      "ĠÐ²ÐµÑĢ": 866,
      "²Ĥ": 867,
      "á²Ĥ": 868,
      "á²ĤÑĥ": 869,
      "Ð¾Ð²Ð¾ÑĢ": 870,
      "Ġá²ĤÑĥ": 871,
      "ÑıÑĤÐ¸": 872,
      "ÑĪÐºÐ°": 873,
      "Ñ³": 874,
      "ĠÐ´Ð¾Ð¼": 875,
      "Ð½ÑĭÑħÑĬ": 876,
      "Ð°Ð³Ð¾": 877,
      "ĠÑĤÐµÐ±Ñ£": 878,
      "ĠÐ³Ð»Ð°Ð³Ð¾Ð»": 879,
      "ĠÐ²Ðµ": 880,
      "Ð°Ð½Ð´": 881,
      "Ð¾ÑģÑĤ": 882,
      "ĠÐ´ÑĢ": 883,
      "ĠÑĢÐ¾Ð´": 884,
      "ĠÐºÑĥ": 885,
      "ĠÐ»ÑİÐ´": 886,
      "ĠÑħÐ¾": 887,
      "Ð¸ÑħÐ°": 888,
      "ĠÑĤÑĢ": 889,
      "ĠêĻĹÐºÐ¾": 890,
      "ĠÐ°ÑīÐµ": 891,
      "ĠÐ³ÑĢÑ£": 892,
      "ĠÐ»ÑİÐ´Ð¸": 893,
      "ĠÐ¿Ð¾Ð¿": 894,
      "ĠÑģÑĮ": 895,
      "ĠÐĳÐ¾Ð³": 896,
      "ĠÑĥÑĩ": 897,
      "ĠÑĢÐ°Ð´Ð¸": 898,
      "ÑģÐ¿": 899,
      "Ð¼Ñĭ": 900,
      "ĠÐ³Ð¾ÑģÐ¿Ð¾Ð´": 901,
      "ĠÐ¸Ð¼ÑĬ": 902,
      "ĠÐ·ÐµÐ¼Ð»Ð¸": 903,
      "Ð½Ñİ": 904,
      "ĠÐ±Ð¾Ñı": 905,
      "ÐµÐ½Ð¾": 906,
      "Ð»ÐµÐ²": 907,
      "ĠÐµÑģÐ¸": 908,
      "ĠÐ¼Ñĭ": 909,
      "ĠÑģÐ»Ñĥ": 910,
      "Ð·Ð°": 911,
      "Ð²Ñĥ": 912,
      "ĠÑĩÐµÑĢ": 913,
      "Ð¼Ðµ": 914,
      "ĠÑĤÐ²Ð¾Ðµ": 915,
      "ĠÐ³Ñģ": 916,
      "ĠÑģÑĤÐ¾": 917,
      "ĠÑħÐ¾ÑĤ": 918,
      "ĠÐĵÐ¾Ñģ": 919,
      "ÑģÐºÐ¾Ð³Ð¾": 920,
      "ĠÐ¸Ð²Ð°Ð½": 921,
      "ĠÐ¾Ð½": 922,
      "ÐºÐ¾Ð¼": 923,
      "ÑħÑĥ": 924,
      "Ð»Ð¾Ð½": 925,
      "Ð¾ÑĤÐ²Ð¾ÑĢ": 926,
      "Ð¸Ð»Ð¸": 927,
      "ĠÑģÐ²Ñ£": 928,
      "ĠÑĩÐ»": 929,
      "ÑģÐ»Ð°": 930,
      "ĠÐĴÑĬ": 931,
      "ĠÑ³": 932,
      "ĠÐ±Ð³": 933,
      "ÐµÐ»Ñ£": 934,
      "ĠÐ²Ð»Ð°": 935,
      "ĠÑĢÑ£": 936,
      "ĠÐ¸ÑģÐ¿": 937,
      "ÑĤÑ£": 938,
      "ÐµÐ²Ð°": 939,
      "ĠÐ¼Ð½Ñ£": 940,
      "ĠÐ¿ÑĢÐµÐ´": 941,
      "ÑĤÐ²Ð¾ÑĢ": 942,
      "ÑĢÐ¾Ñģ": 943,
      "Ġ1": 944,
      "ĠÐ¸Ð¶Ðµ": 945,
      "ĠÐ»ÑİÐ´ÐµÐ¹": 946,
      "ĠÐ´ÐµÐ½ÑĮ": 947,
      "ÑĢÑ§": 948,
      "Óı": 949,
      "ĠÐ°Ð½": 950,
      "ĠÑĩÑĤ": 951,
      "ĠÑĩÐ°": 952,
      "Ð½ÑĭÐ¼": 953,
      "ĠÐ¼Ð°Ð»": 954,
      "Ð»ÐµÐºÑģ": 955,
      "ĠÑĩÐµÑĤ": 956,
      "Ð±Ñı": 957,
      "ĠÐ±ÐµÑģ": 958,
      "ĠÐºÐ°ÐºÐ¾": 959,
      "â¸¯": 960,
      "ĠÐ¿Ð¾Ð±": 961,
      "ÑĪÑĤÐµ": 962,
      "ĠÑħÐ¾Ð»": 963,
      "ĠÐ¸Ð¼Ñ£": 964,
      "ĠÐ¼Ð¾Ðµ": 965,
      "ĠÐ¼Ð¸Ð»Ð¾": 966,
      "ĠÐ¿Ð¾Ð¶": 967,
      "ĠÑĨÐ°ÑĢÑĮ": 968,
      "ĠÑĩÐµÐ»Ð¾Ð¼": 969,
      "ĠÐ¸Ð½": 970,
      "ĠÑģÐµÐ¼": 971,
      "ĠÑĩÑİ": 972,
      "ĠÐ²Ð¾ÑĤ": 973,
      "ĠÐ½ÐµÐ³Ð¾": 974,
      "ĠÑģÑĭÐ½": 975,
      "ĠÑģÐ²Ð¾Ñİ": 976,
      "ĠÐ¼Ð½Ð¾Ð³Ð¾": 977,
      "ĠÑĤÐµÑħ": 978,
      "ĠÑģÐ¸Ð»": 979,
      "ÑıÑĤÑĮ": 980,
      "ĠÑĩÐ¸": 981,
      "ÐµÐ½Ñĭ": 982,
      "ĠÑĤÑĢÐ¸": 983,
      "ÑĢÐ¾Ðº": 984,
      "ĠÑĥÐºÐ°Ð·Ñ£": 985,
      "Ð¸ÑĤÐ°": 986,
      "ĠÐ±Ðµ": 987,
      "ÐµÐ»ÑĬ": 988,
      "Ð½ÑĭÐ¸": 989,
      "ĠÐ¿ÑĢÐ¾ÑĤÐ¸": 990,
      "ĠÐ´Ð¾Ð²": 991,
      "ÑģÐºÑĭ": 992,
      "Ð»ÐµÐºÑģÐ°Ð½Ð´": 993,
      "ĠÐ±ÑĭÑĤÐ¸": 994,
      "ĠÑģÐµÐ³Ð¾": 995,
      "Ð³Ð¾ÑĢ": 996,
      "ĠÐ±Ð»Ð°": 997,
      "ĠÐ²Ð¸Ð´Ñ£": 998,
      "ĠÑĤÐµÐ¼": 999,
      "ĠÐ´Ñ£Ð»Ð°": 1000,
      "ĠÐ»Ñĥ": 1001,
      "ĠÐµÐ¶Ðµ": 1002,
      "ĠÐ»Ñ£ÑĤ": 1003,
      "ĠÐ³ÑģÐ´": 1004,
      "ĠÑģÐ»Ð¾Ð²": 1005,
      "ĠÐ»ÑİÐ±": 1006,
      "ÐµÑĤÐµ": 1007,
      "ĠÑģÐµÑĢ": 1008,
      "ĠÐ½Ð¸Ñħ": 1009,
      "ĠÐ½Ð¸Ðº": 1010,
      "ÐµÐ´Ð¾ÑĢ": 1011,
      "ĠÐ¿Ð°Ðº": 1012,
      "ĠÑĩÑĤÐ¾Ð±": 1013,
      "Ð½ÑĭÐ¼ÑĬ": 1014,
      "ĠÑĤÐ²Ð¾Ð¸": 1015,
      "Ð½ÑĥÑİ": 1016,
      "ĠÐ¿ÑĢÐ¾Ñģ": 1017,
      "ĠÐ¸Ð½Ð¾": 1018,
      "Ð½Ð¸Ñı": 1019,
      "Ð¾ÑģÑĤÐ¸": 1020,
      "ĠÑĩÐµÐ»Ð¾Ð²Ðµ": 1021,
      "êĻĻ": 1022,
      "ĠÐ³Ð»": 1023,
      "Ð³Ð¾ÑĢÐ¾Ð´": 1024,
      "ĠÑĤÐ¾Ð±": 1025,
      "êĻĭÐ´": 1026,
      "ĠÑģÐ½": 1027,
      "ĠÐºÐ°Ð·": 1028,
      "ĠÐ³Ð´": 1029,
      "ĠÐ¿ÑĢÐ¸ÐºÐ°Ð·": 1030,
      "ĠÐºÐ¾ÑĤÐ¾ÑĢÑĭÐµ": 1031,
      "Ð¾Ð³Ð´Ð°": 1032,
      "ÑĨÑĥ": 1033,
      "ĠÐ²ÐµÐ»Ð¸ÐºÐ¸": 1034,
      "ÐºÑ¡": 1035,
      "ÑĪÑĤ": 1036,
      "ĠÐºÐ½ÑıÐ·ÑĮ": 1037,
      "Ð½Ð°Ñı": 1038,
      "Ð·ÑĮ": 1039,
      "ĠÐĿÐ°": 1040,
      "Ð½Ð¸Ð¸": 1041,
      "ĠÐ½Ð°ÑĪ": 1042,
      "Ñķ": 1043,
      "ĠÐ½Ñĭ": 1044,
      "ÑİÑĤÑĬ": 1045,
      "ĠÐ·ÐµÐ¼Ð»Ñİ": 1046,
      "ĠÑħÐ¾Ð´": 1047,
      "Ð¾Ð²ÑĮ": 1048,
      "ĠÐ±Ð¾ÑĢ": 1049,
      "ĠÐĵÐ¾ÑģÐ¿Ð¾Ð´": 1050,
      "ĠÐ±Ð¶": 1051,
      "ĠÐ¾Ð½Ð¸": 1052,
      "ĠÐ²ÑĢÐµÐ¼": 1053,
      "ÐµÐ²ÑĬ": 1054,
      "ÑĢÐ¾Ð¼": 1055,
      "ĠÎ": 1056,
      "ĠÑģÑĤÐ¾ÑĢ": 1057,
      "ĠÐ¥": 1058,
      "ĠÑħÐ¾Ð»Ð¾Ð¿": 1059,
      "Ð¸Ð½Ðµ": 1060,
      "ĠÐ³Ð¾Ð»": 1061,
      "ĠÐ¼ÐµÐ½": 1062,
      "ĠÐ¿Ð¾Ð½": 1063,
      "ĠÐºÐ¾Ð³Ð¾": 1064,
      "ÐºÐµ": 1065,
      "Ð°ÑĤÑĭ": 1066,
      "Ð¾Ð²Ñĥ": 1067,
      "ĠÐ³Ð¾Ð´": 1068,
      "Ð½Ð¸ÐºÐ°": 1069,
      "ĠÐ¼Ð¾Ð½Ð°": 1070,
      "ÑĢÐµÐ±": 1071,
      "ĠÐ½ÐµÐ¼": 1072,
      "ĠÑĩÐµÐ»Ð¾Ð²Ñ£": 1073,
      "ĠÐĹ": 1074,
      "Ð¸ÑģÐ°": 1075,
      "ĠÑģÑĤÑĢÑ£": 1076,
      "ĠÐ½ÐµÐ¿": 1077,
      "ĠÐºÑĥÐ¿": 1078,
      "ĠÐ²ÑĢÐ°": 1079,
      "Ñµ": 1080,
      "ĠÐ´Ð½": 1081,
      "ĠÐ½Ð°Ñģ": 1082,
      "Ð³Ð¾Ð´": 1083,
      "ĠÐ²Ð¾Ð´": 1084,
      "ĠÑ¡Ð±": 1085,
      "ĠÐ¸ÑģÑĤ": 1086,
      "Ð¾ÑĢÐ¾": 1087,
      "ĠÐ¾Ñģ": 1088,
      "ĠÑıÐ·": 1089,
      "ĠÐ¶Ð¸Ð²Ð¾": 1090,
      "ĠÑĢÐ¾Ð·": 1091,
      "ÐµÑĪÐ¸": 1092,
      "Ð¼ÐµÐ½": 1093,
      "ĠÐ¿ÑĢÐ¸ÑĪ": 1094,
      "ĠÐ±ÑĢÐ°ÑĤ": 1095,
      "ĠÑ¡ÑĤ": 1096,
      "ĠÐ³Ð¾ÑģÑĥÐ´Ð°ÑĢÑĮ": 1097,
      "ĠÐºÐ°Ð¼": 1098,
      "ĠÐºÐ½Ñ§": 1099,
      "ĠÐµÐ¼": 1100,
      "ĠÑģÐ»Ñĭ": 1101,
      "Ð·Ð¸": 1102,
      "ĠÑĤÑĬ": 1103,
      "ÑģÑĤÑ£": 1104,
      "ĠÐ³ÑĢÐ¸Ð²": 1105,
      "ĠÐ²ÐµÑģ": 1106,
      "Ð²ÐµÐ´": 1107,
      "ĠÑĢÑĥÐ±": 1108,
      "ĠÐ½Ð°Ð¼ÑĬ": 1109,
      "Ð½Ð¾Ð¼": 1110,
      "ĠÐ¾Ð¿": 1111,
      "ĠÑģÐµÐ±Ðµ": 1112,
      "ĠÑģÐ»Ð°": 1113,
      "ÑĩÐ¸Ð½Ð¸": 1114,
      "ĠÐĲÑīÐµ": 1115,
      "Ñ§ÑĤÑĮ": 1116,
      "ĠÑģÑ¹": 1117,
      "ĠÑī": 1118,
      "ĠÐ³Ð¾ÑģÑĥÐ´Ð°ÑĢÑİ": 1119,
      "ĠÐ´Ð²Ð°": 1120,
      "ĠÐ¿Ð¾Ð¼Ðµ": 1121,
      "ÑģÐºÑĥ": 1122,
      "ĠÐ½ÐµÐ´": 1123,
      "ĠÐ»Ðµ": 1124,
      "ĠÑģÐ¾ÑĤÐ²Ð¾ÑĢ": 1125,
      "ĠÐ¼Ð¾Ð½Ð°ÑģÑĤÑĭ": 1126,
      "ĠÐ³Ð»Ð°": 1127,
      "ĠÐ§": 1128,
      "ÑģÐºÐ¾Ð¹": 1129,
      "Ð°Ð´": 1130,
      "ĠÐ·Ð»Ð°": 1131,
      "ĠÐĲÐ»ÐµÐºÑģÐ°Ð½Ð´": 1132,
      "ĠÑĤÑı": 1133,
      "ĠÐ°ÑĢ": 1134,
      "ĠÐ²Ð°ÑģÐ¸Ð»ÑĮ": 1135,
      "Ð¾Ð½ÑĬ": 1136,
      "ÑŃ": 1137,
      "Ð½Ð¾Ð³Ð¾": 1138,
      "Ð½ÑĭÐ¼Ð¸": 1139,
      "ÑĢÐ°ÑĤÐ¸": 1140,
      "ĠÐ·Ð½Ð°": 1141,
      "ĠÐ¿Ð¾ÑģÑĤÐ°Ð²": 1142,
      "ĠÐ¿Ð¾Ð´Ð¾Ð±": 1143,
      "ÐµÑİ": 1144,
      "ĠÑģÐ»Ð°Ð²": 1145,
      "Ð°Ð½ÑĬ": 1146,
      "ĠÐ¼Ñ§": 1147,
      "ÑİÑĤÑĮ": 1148,
      "Ð¾ÐºÑĬ": 1149,
      "ĠÐ±ÑĭÐ»Ð¾": 1150,
      "ĠÐ¼Ð¾ÑĢ": 1151,
      "ĠÐ¼Ð°ÑĤ": 1152,
      "ĠÐ´ÑĮ": 1153,
      "ĠÑħÑĢÐ°": 1154,
      "ÑģÑĤÑĮÑı": 1155,
      "ĠÐ±êĻĳ": 1156,
      "ÑħÐ¾": 1157,
      "ĠÐ·Ð°Ðº": 1158,
      "ĠÐºÐ½ÑıÐ·Ñı": 1159,
      "ÑģÐºÐ¾Ð¼": 1160,
      "ĠÐ¾Ðº": 1161,
      "ÑĩÐ¸Ð½": 1162,
      "ĠÐ£": 1163,
      "ĠÑģÐµÐ±Ñ£": 1164,
      "ĠÐºÐ½Ð¸": 1165,
      "ĠÐ½Ð°Ð´": 1166,
      "Ñ§ÑĤ": 1167,
      "ĠÑĢÐ°Ð·Ñĥ": 1168,
      "ÐµÐ½ÑĸÐµ": 1169,
      "ĠÐºÐ¾Ð»": 1170,
      "ÐµÐ²Ñĭ": 1171,
      "ĠÑģÐ°Ð¼ÑĬ": 1172,
      "ĠÑĢÐ°Ð±": 1173,
      "Ð°Ð»ÑĮ": 1174,
      "Ð°ÑĢÑĮ": 1175,
      "ĠÐ¼Ð»": 1176,
      "ÑħÐ¸": 1177,
      "Ð¿Ñĥ": 1178,
      "Ð½Ð¸ÐºÑĬ": 1179,
      "ĠÐ¸Ð·ÑĬ": 1180,
      "Ð¾Ð¼ÑĮ": 1181,
      "Ð¸Ð¼Ð°": 1182,
      "Ð½Ñ¹": 1183,
      "ĠÐ´Ð¾Ð²ÐµÐ´": 1184,
      "ÑģÐºÐ°Ð³Ð¾": 1185,
      "ÑģÑĤÑĥÐ¿": 1186,
      "Ð½ÑĭÐ¹": 1187,
      "ĠÑĤÐ¾ÑĤ": 1188,
      "ĠÐ±ÑĥÐ´ÐµÑĤÑĬ": 1189,
      "ĠÐ¼Ð¸ÑħÐ°": 1190,
      "ÑīÑĮ": 1191,
      "ÐµÐ´ÑĬ": 1192,
      "ĠÐ²ÑģÐµÐ°": 1193,
      "ÐµÐ¸": 1194,
      "ĠÐ±Ð»Ð°Ð³": 1195,
      "Ð½êĻĭ": 1196,
      "ĠÓı": 1197,
      "Ð¸Ð»Ð°": 1198,
      "ĠÑģÐ»Ð¾Ð²Ð¾": 1199,
      "ĠÐ´Ð»Ñı": 1200,
      "ĠêĻĩ": 1201,
      "ÑģÐºÐ¾Ð¼Ñĥ": 1202,
      "ÑĪÐº": 1203,
      "ĠÑĢÑĭ": 1204,
      "Ð½Ð¾Ð¼Ñĥ": 1205,
      "ÑĢÐ¾Ð¿": 1206,
      "ĠÐµÐ´Ð¸Ð½": 1207,
      "ÑĤÐ¾ÑĢ": 1208,
      "ÑĸÑı": 1209,
      "ÐºÑĢÐ°": 1210,
      "Ð°Ð½Ðµ": 1211,
      "ĠÐ¿Ð»": 1212,
      "ĠÑĢÑĥÑģÐ¸": 1213,
      "ĠÑģÑĭÐ½Ð°": 1214,
      "ÑİÑīÐµ": 1215,
      "ĠÐ¾Ð½ÑĬ": 1216,
      "ĠÐ¼Ð¾Ð¸": 1217,
      "ĠÐ¾Ð³": 1218,
      "ĠÐŁÐ¾": 1219,
      "ĠÐ±Ð¾ÑıÑĢ": 1220,
      "ĠÐ¿Ð¾Ð²ÐµÐ»Ñ£": 1221,
      "Ð¸Ð´Ðµ": 1222,
      "Ð¾Ð´Ñ£": 1223,
      "ĠÐ±ÑĭÐ²Ð°": 1224,
      "ĠÐ·Ð´": 1225,
      "Ð°Ð½ÑĮ": 1226,
      "ÑģÐºÐ¾Ðµ": 1227,
      "ĠÐ¿ÐµÑĤ": 1228,
      "Ð´Ð¾ÑĪÐ°": 1229,
      "ĠÑģÑĬÑĤÐ²Ð¾ÑĢ": 1230,
      "ĠÐ½Ð°ÑĪÐµ": 1231,
      "ĠÑģÐ¾Ð»": 1232,
      "ĠÐ´Ð¸": 1233,
      "ĠÎ¹": 1234,
      "ÑĪÑĤÐ¸": 1235,
      "ĠÑģÐ¼ÐµÑĢ": 1236,
      "ĠÐ´Ð¾Ð±ÑĢ": 1237,
      "ÐµÑĤÐ°": 1238,
      "ÐºÐ¾Ð¼ÑĬ": 1239,
      "ĠÐ¿Ð¾ÐºÐ»Ð¾Ð½": 1240,
      "ÑģÑĭ": 1241,
      "ÑĪÑĥ": 1242,
      "ĠÐ¼ÑĮ": 1243,
      "Ð±ÑĮ": 1244,
      "ÐµÑĢÐ¸": 1245,
      "ĠÐ½Ð°ÑĪÐ¸": 1246,
      "Ð¿Ñ£": 1247,
      "ĠÑģÐµÐ»": 1248,
      "ÑģÐºÐ¸Ðµ": 1249,
      "ĠÑģÐ»Ð¾Ð²ÐµÑģ": 1250,
      "ĠÑĨÐ°ÑĢÑİ": 1251,
      "Ð½Ð¾Ñĥ": 1252,
      "ĠÑł": 1253,
      "ĠÐ´Ð¾Ð²ÐµÐ´ÐµÑĤÑģÑı": 1254,
      "ĠÐ¿Ð¾ÑĪ": 1255,
      "Ð¸Ð´": 1256,
      "Ð½ÑĸÐµ": 1257,
      "ÑĢÑ£Ð¿": 1258,
      "ĠÐ¿ÐµÑĢÐµ": 1259,
      "ĠÐ±ÑĭÑģÑĤÑĮ": 1260,
      "Ð¾Ð³Ð°": 1261,
      "Ð¶ÑĬ": 1262,
      "ÑĢÐµÐ´": 1263,
      "ĠÐ¿Ñ£": 1264,
      "Ð¸Ð½Ð°": 1265,
      "ĠÐ¡Ðµ": 1266,
      "ĠÑ£": 1267,
      "Ð¸Ð½ÑĬ": 1268,
      "ĠÑģÑĤÐ°Ð½": 1269,
      "Ð¾Ð²Ð¸Ñĩ": 1270,
      "ĠÐ²ÑģÐµÐ¼": 1271,
      "ÐµÐ²Ñĥ": 1272,
      "ĠÑĤÑ§": 1273,
      "Ð¾Ð²Ð°ÑĤÐ¸": 1274,
      "ĠÐ²ÐµÐ»Ð¸ÐºÐ¾Ð³Ð¾": 1275,
      "Ð½ÑĥÑĤ": 1276,
      "ĠÐ¶ÐµÐ½Ð°": 1277,
      "ĠÐ¸Ð¼Ð°": 1278,
      "ĠÐ¼Ð¾ÑģÐº": 1279,
      "ĠÑĤÐµÐ±Ðµ": 1280,
      "Ð´Ð°ÑĤÐ¸": 1281,
      "ÑĤÐ²": 1282,
      "Ð½êĻĳ": 1283,
      "ÐºÐ¾Ñİ": 1284,
      "ĠÐ¯": 1285,
      "ÑīÐµÐ½": 1286,
      "ĠÐ³Ð¾Ð²Ð¾ÑĢ": 1287,
      "ÐµÑĨÑĬ": 1288,
      "ĠÐ²ÑģÑıÐºÐ¸": 1289,
      "Ð°ÐºÐ¾": 1290,
      "ĠÐ´Ð¾Ð»": 1291,
      "ĠÑĦÐµÐ´Ð¾ÑĢ": 1292,
      "ĠÐ±Ð°": 1293,
      "ĠÐ½ÑĬ": 1294,
      "Ñ¹Ð´": 1295,
      "ĠÑĤÐ¾Ð¼ÑĬ": 1296,
      "ĠÐ¼ÑĬ": 1297,
      "ĠÐ²Ð¾Ð»Ð¾Ð´": 1298,
      "Ð½ÐµÑģ": 1299,
      "ĠÐ½Ð°ÐºÐ°Ð·": 1300,
      "ÑģÐ»Ð°Ð²": 1301,
      "Ð²ÑĪÐµ": 1302,
      "ĠÐ´ÐµÐ»": 1303,
      "Ð¸Ð¼ÑĮ": 1304,
      "Ð°ÑĪÐµ": 1305,
      "Ð°ÑĢÑı": 1306,
      "ĠÑĩÐµÑĤÐ²ÐµÑĢ": 1307,
      "ÑİÑī": 1308,
      "ĠÐ´Ð¾Ð±ÑĢÑĭ": 1309,
      "ĠÐºÐ¾Ñĥ": 1310,
      "ĠÑĩÐ¸Ñģ": 1311,
      "Ð²Ð¾Ð»": 1312,
      "ĠÐ½ÐµÐ±": 1313,
      "ÑĤÑĥ": 1314,
      "ÐµÑĢÑĮ": 1315,
      "Ð¾Ð½ÑĮ": 1316,
      "ĠÑģÐ²ÑıÑĤ": 1317,
      "ÑģÑĤÑĢÐ¾": 1318,
      "ĠÐ²Ð¾Ð·Ð¼": 1319,
      "ĠÑģÐ»ÑĥÐ¶": 1320,
      "ĠÑĥÑĩÐ¸Ð½Ð¸": 1321,
      "ĠÐ¼Ñ¹": 1322,
      "ĠÐ²ÑĬêĻģ": 1323,
      "ĠÑģÐ»ÑĭÑĪÐ°": 1324,
      "ĠÐ±Ð¾Ð»ÑĮ": 1325,
      "ĠÐ°Ð½Ð´": 1326,
      "ĠÐĿÐ¾": 1327,
      "Ð¸Ð¼Ð¸": 1328,
      "Ð´Ñ§": 1329,
      "ĠÐ¼ÐµÐ½Ðµ": 1330,
      "ÑĨÑĬ": 1331,
      "ĠÐ±ÑĢÐ°ÑĤÑĮ": 1332,
      "ÑĪÑĬ": 1333,
      "Ð½Ð¾Ð¸": 1334,
      "ĠÐ¼Ð°ÑĢ": 1335,
      "Ð½Ð¸ÑĤÐ¸": 1336,
      "ĠÐ¾Ð±Ñĭ": 1337,
      "ÐºÑ¹": 1338,
      "ĠÑĤÐ¾Ð²": 1339,
      "ÑģÐºÐ¸Ñħ": 1340,
      "ÐºÐ¾Ðµ": 1341,
      "ĠÑģÑĤÐµ": 1342,
      "ÑĢÑİ": 1343,
      "ĠÑĤÑĮ": 1344,
      "Ð²Ð°ÑĤÑĮ": 1345,
      "Ð¾ÑĪÐ°": 1346,
      "ÑģÑĤÑĢÐ°": 1347,
      "ĠÐ¿ÑĢÐ°": 1348,
      "ĠÐ¼ÐµÐ½Ñı": 1349,
      "ĠêĻĸ": 1350,
      "ĠÐ±Ð»Ð°Ð³Ð¾": 1351,
      "ĠÐ½ÑĮ": 1352,
      "Ð²ÐµÑĤ": 1353,
      "ĠÐ¸Ð³Ñĥ": 1354,
      "ĠÐ¿Ð¾Ð·": 1355,
      "ĠÑģÑĤÐ¾Ð»": 1356,
      "ĠÑĥÐ±Ð¾": 1357,
      "ĠÐ¿ÐµÑĩ": 1358,
      "ĠÐ¿ÑĢÐ¾Ð´Ð°": 1359,
      "ĠÑĩÑĮ": 1360,
      "ĠÑ¥Ð³Ð¾": 1361,
      "ÑħÑĮ": 1362,
      "Ð°Ð²ÑĬ": 1363,
      "Ð¶Ð´Ðµ": 1364,
      "ÑģÐ»Ð¸": 1365,
      "ÑĢÐ¾Ð²": 1366,
      "ĠÐ¶Ð°Ð»": 1367,
      "ĠÐ¿Ð¾Ð´ÑĬ": 1368,
      "Ð¸ÑĪÐ°": 1369,
      "ĠÑģêĻĭ": 1370,
      "Ð¼êĻĭ": 1371,
      "ĠÐ¿Ð¾Ð»Ð¾": 1372,
      "ĠÐºÐ¾ÑĢÐ¾Ð»": 1373,
      "Ð½Ð¾Ð¼ÑĬ": 1374,
      "ĠÑĤÐ¾ÑĢ": 1375,
      "ĠÐ²ÐµÐ»Ð¸ÐºÐ°": 1376,
      "ĠÐ²Ð¾Ñģ": 1377,
      "Ð¸Ð¸": 1378,
      "ĠÑĨÐµÑĢ": 1379,
      "ĠÐ¿Ð¾Ð¶Ð°Ð»": 1380,
      "ĠÐ²ÑģÐ¸": 1381,
      "Ð¸ÑĤÐµÐ»": 1382,
      "ĠÐ½Ð¾Ð²": 1383,
      "ĠÑĢÐµÑĩ": 1384,
      "Ð»Ð¾Ð²": 1385,
      "ĠÐ±Ð¸ÑĤÐ¸": 1386,
      "ĠÐ±ÑĥÐ´ÐµÑĤÑĮ": 1387,
      "Ð¿Ð¸Ñģ": 1388,
      "ĠÐ½Ð°Ñĩ": 1389,
      "ÐºÐ¾Ð³Ð¾": 1390,
      "ĠÐ¿Ð¾Ñĩ": 1391,
      "Ð´êĻĭ": 1392,
      "ĠÑĨÑ£": 1393,
      "ÑģÑĤÐ°Ð½": 1394,
      "ÑģÐºÐ¾Ð¸": 1395,
      "Ð¼Ð¸ÑĤ": 1396,
      "Ñ§ÑĤÐ¸": 1397,
      "ĠÐ¾Ð±ÑĢÐ°": 1398,
      "ĠÐ½Ð°ÑģÑĬ": 1399,
      "ĠÐ´ÐµÑĤ": 1400,
      "ĠÐ¿Ð¸ÑģÐ°": 1401,
      "ĠÐ¼Ð¾Ð¶Ðµ": 1402,
      "ÑģÑĥ": 1403,
      "ĠÑĨÐ°ÑĢÑı": 1404,
      "ÑĪÐµÐ½": 1405,
      "Ð¾ÑģÑĤÑĮ": 1406,
      "Ð»Ð°Ð´": 1407,
      "ĠÐ¿ÑĢÐ¾Ð¼": 1408,
      "ĠÐ¼Ñ£ÑģÑĤÐ¾": 1409,
      "ĠÑģÐ²Ð¾Ð¸ÑħÑĬ": 1410,
      "ĠÑĤÐ°Ð¼": 1411,
      "ĠÑģÐºÐ°Ð·": 1412,
      "Ð¾Ð¶ÑĮ": 1413,
      "ĠÐ¸ÑģÐº": 1414,
      "Ð¾Ð¶Ð°": 1415,
      "ĠÑģÐ²Ð¾Ð¸Ð¼ÑĬ": 1416,
      "ĠÑĪÐµ": 1417,
      "ĠÑĢÐ¾Ñģ": 1418,
      "Ð³Ñĭ": 1419,
      "ĠÐ¼Ð¾Ð³": 1420,
      "ĠÐ¡ÑĤ": 1421,
      "Ð³ÑĢÐ°": 1422,
      "ĠÑĤÐ¾Ð¹": 1423,
      "ĠÐµÐ³Ð´Ð°": 1424,
      "ĠÑĩÐµÐ»Ð¾Ð±": 1425,
      "ÑħÐ¾Ð¼ÑĬ": 1426,
      "ĠÑĥÐ¼": 1427,
      "Ð½Ð¸ÐºÐ¸": 1428,
      "ĠÑħÑĢÐ¸": 1429,
      "ĠÐ¼êĻĭ": 1430,
      "ÐºÑ£": 1431,
      "Ð½Ñĸ": 1432,
      "ÐµÑĢÑĬ": 1433,
      "ĠÑĢÐ°êĻģ": 1434,
      "ĠÐµÐ´Ð¸": 1435,
      "Ð°ÑĢÑĭ": 1436,
      "ĠÐ´Ð¾Ð±ÑĢÐ¾": 1437,
      "ĠÑģÐ²Ð¾Ð¸Ñħ": 1438,
      "ĠÐ¿Ð¾ÑģÐ»": 1439,
      "Ð¶Ð°ÑĤÐ¸": 1440,
      "ĠÑĥÐ±": 1441,
      "ĠÐ±êĻĭÐ´": 1442,
      "ĠÒ": 1443,
      "ĠÐ²Ð¾ÐµÐ²": 1444,
      "ĠÑģÐ²Ð¾Ñ¥": 1445,
      "Ð¾Ð·Ð¸": 1446,
      "Ð²Ð°Ð½": 1447,
      "ĠÐ±Ð¾Ð³Ð°ÑĤÑĭ": 1448,
      "ĠÐºÐ¸": 1449,
      "ÑħêĻĭ": 1450,
      "ĠÐ¿Ð°ÑĩÐµ": 1451,
      "ĠÑĤÐ°ÐºÑĬ": 1452,
      "ÑģÐ»Ñģ": 1453,
      "ĠÐ±Ð»Ð¸": 1454,
      "ĠÐ²Ð¾Ð»Ð¾Ð´Ð¸Ð¼": 1455,
      "ĠÐµÐ²Ð¾": 1456,
      "ÑĤÐ¸ÑĤÐ¸": 1457,
      "ĠÑĩÐ»Ð¾Ð²Ñ£": 1458,
      "ĠÐ¼Ð¸ÑĤ": 1459,
      "ĠÐ¿Ð°ÑĤ": 1460,
      "ĠÐ³ÑĢÐ°Ð´": 1461,
      "Ð±Ñĥ": 1462,
      "ĠÐ²Ð°Ð¼ÑĬ": 1463,
      "ĠÐºÑĢÑ£Ð¿": 1464,
      "ĠÐ´Ð²": 1465,
      "Ð¾ÑĤÐ°": 1466,
      "ĠÐ²Ð¾ÑĢ": 1467,
      "ĠÐ¾Ð´": 1468,
      "ÑĨÑ§": 1469,
      "Ð²Ð°Ð»Ð¸": 1470,
      "ÑģÐºÑĥÑİ": 1471,
      "ĠÐºÑĢÐ°Ñģ": 1472,
      "ĠÐºÐ½ÑıÐ·Ñİ": 1473,
      "ĠÒĤ": 1474,
      "ĠÑģÐ²Ð¾ÐµÐ¼Ñĥ": 1475,
      "ĠÐ´ÐµÑĢÐµÐ²Ð½Ñı": 1476,
      "ÑĪÐºÐ¸": 1477,
      "ĠÐ½Ð¸Ð¼ÑĬ": 1478,
      "ĠÐ²Ð¿": 1479,
      "Ð±ÑĬ": 1480,
      "ÑĢêĻĭ": 1481,
      "ĠÐµÑı": 1482,
      "ĠÐºÐ¾Ð¼Ñĥ": 1483,
      "Ð¸ÑĪÐ¸": 1484,
      "Ð¾Ð²Ð¸ÑĩÐ°": 1485,
      "ĠÐ¾ÑĩÐ¸": 1486,
      "ÐºÐ¾Ð²Ð°": 1487,
      "Ð¾Ð²Ð°Ð»": 1488,
      "ĠÐ½Ð¸ÑħÑĬ": 1489,
      "ĠÐĿÐ¸": 1490,
      "ÐºêĻĭ": 1491,
      "Ð¾Ð²Ñ£Ð´Ð°": 1492,
      "ĠÑģÐºÐ°": 1493,
      "ĠÑıÐºÐ¾Ð¶Ðµ": 1494,
      "ĠÐ¿Ð¾ÑģÐ»Ñ£": 1495,
      "ĠÐ¼Ð¸Ð»Ð¾ÑģÑĤÐ¸": 1496,
      "ĠÐ¿Ð¾Ñħ": 1497,
      "Ð²ÑĢÐ°": 1498,
      "Ð¾Ð»ÑĮÐºÐ¾": 1499,
      "ÑĹÐµ": 1500,
      "ĠÐ»ÑİÐ´ÐµÐ¼": 1501,
      "ĠÐ¿ÑĢÐ¾ÑĤÐ¸Ð²": 1502,
      "ÐµÐ¶Ðµ": 1503,
      "ĠÐ¶Ð¸Ð²": 1504,
      "Ð¸Ð½ÑĮ": 1505,
      "Ð½Ð¸Ñİ": 1506,
      "Ð²Ð¾Ð´": 1507,
      "ĠÐ¾ÑĤÐ´Ð°": 1508,
      "ĠÐ¿ÑĥÑģÑĤÐ¾": 1509,
      "ĠÑĢÑĥÑģÐ¸Ð¸": 1510,
      "Ð½ÐµÐ½": 1511,
      "ĠÑĢÐ¸": 1512,
      "ĠÐ¸Ð¼Ð°ÑĤÐ¸": 1513,
      "ĠÑıÐ´": 1514,
      "ĠÐ¿Ð¾ÐºÐ°": 1515,
      "ÑģÑĤÐ²Ñĥ": 1516,
      "ĠÐºÐ½": 1517,
      "ĠÐ½Ð°ÑĩÐ°": 1518,
      "Ð¾Ð»Ñ£": 1519,
      "ÐµÑĨÑĮ": 1520,
      "ĠÑĤÑĢÐµ": 1521,
      "ĠÐ²ÑģÑ£ÑħÑĬ": 1522,
      "Ð³Ð¾Ð¶Ðµ": 1523,
      "Ð¸Ðµ": 1524,
      "Ð²Ð¾Ðµ": 1525,
      "ĠÑĤÐ¾Ð»": 1526,
      "ÑĪÑĤÐ°": 1527,
      "ĠÐ°Ð¿": 1528,
      "00": 1529,
      "Ð¸Ð¼Ð¾": 1530,
      "ÑĨÑİ": 1531,
      "ĠÐľÑĥ": 1532,
      "Ġ-": 1533,
      "ĠÐ¼Ð½Ðµ": 1534,
      "ĠÐ¿Ð°Ð¼": 1535,
      "ĠÐ´Ð½Ð¸": 1536,
      "Ð°Ð»Ð¸": 1537,
      "ĠÐŁÑĢÐ¸": 1538,
      "ĠÑģÐµÐ±Ñı": 1539,
      "ĠÐ¿Ð¾ÑģÐ»Ñĥ": 1540,
      "ĠÐºÑĢÑĥ": 1541,
      "ĠÐ±ÑĬ": 1542,
      "ĠÐ²Ð°ÑĢ": 1543,
      "ÑħÐ¾Ð²": 1544,
      "ĠÐ´ÐµÑģ": 1545,
      "ÑĩÐµÐ½": 1546,
      "ĠÐ²ÑĢÐµÐ¼Ñı": 1547,
      "Ð½Ð¾Ð²": 1548,
      "ĠÐ³ÑĢÐ¸Ð³Ð¾ÑĢ": 1549,
      "ĠÐ´ÑĬ": 1550,
      "Ð¸Ñı": 1551,
      "ĠÐºÐ¾Ð»Ð¸": 1552,
      "Ð¸ÑĤÑģÑı": 1553,
      "ÑĪÑİ": 1554,
      "ĠÐ¿ÑĢÑı": 1555,
      "Ð°Ñħ": 1556,
      "ĠÑģÐ²Ð¾ÐµÐ¹": 1557,
      "Ð¶Ð´Ð°": 1558,
      "Ð½Ð¸ÑĨÐ¸": 1559,
      "Ð½ÐµÑĤ": 1560,
      "ĠÐ±Ñĥ": 1561,
      "ĠÐ¿ÑĢÑĸ": 1562,
      "ĠÐ½ÐµÐ±ÐµÑģ": 1563,
      "ĠÐ²ÑĬÑģ": 1564,
      "êĻĳÐ¸": 1565,
      "ĠÑģÐºÐ¾ÑĢ": 1566,
      "Ð»Ð¾Ð¶": 1567,
      "ĠÐ²ÐµÐ»Ð¸ÐºÐ¾Ð¼Ñĥ": 1568,
      "ĠÐ²Ð¾ÑĤÑĩÐ¸": 1569,
      "Ð¸Ð½Ñ£": 1570,
      "ĠÐ´Ð°ÑĤÐ¸": 1571,
      "ĠÑĢÑ¹": 1572,
      "Ð½Ð°Ñ§": 1573,
      "ĠÑģÐµÐ»Ð°": 1574,
      "ĠÑģÐ¾Ð±Ð¾Ñİ": 1575,
      "ĠÑĤÐ¾Ð³Ð´Ð°": 1576,
      "ÑģÐ»Ð¾Ð²": 1577,
      "ÐºÑĮ": 1578,
      "ĠÑĤÐ°ÑĤ": 1579,
      "ĠÐĴÐ»Ð°": 1580,
      "ĠÐ²Ð¾Ð¸Ð½": 1581,
      "ÑĪÐºÐ¾": 1582,
      "Ð¾ÑĤÑĭ": 1583,
      "ĠÐĲÐ¶Ðµ": 1584,
      "ĠÐ±Ð¸": 1585,
      "ĠÐ¼Ñı": 1586,
      "ĠÑĢêĻĭ": 1587,
      "ÑģÑĤÐ°Ð²Ð¸": 1588,
      "ĠÑģÐ²Ð¾Ð¸Ð¼Ð¸": 1589,
      "ĠÐ²ÑĭÑģ": 1590,
      "ÑģÐ½Ð¾": 1591,
      "Ð±Ð¾ÑĢ": 1592,
      "Ð³Ð½Ð°": 1593,
      "ĠÑģÐµÑĢÐ´": 1594,
      "ĠÑģÐ²Ñı": 1595,
      "ĠÑģÑĭÐ½ÑĬ": 1596,
      "Ð½Ñ«": 1597,
      "Ð°ÐºÑĬ": 1598,
      "ĠÐ´Ð°ÑĢ": 1599,
      "ĠÐ¶Ð¸ÑĤÐ¸": 1600,
      "ĠÑ¾": 1601,
      "ĠÐ¿Ð°ÐºÑĭ": 1602,
      "ĠÐĺÐ»ÑĮ": 1603,
      "ĠÐ¤": 1604,
      "ĠÑĤÑ£Ð¼ÑĬ": 1605,
      "ĠÑģÐ¼Ñ£": 1606,
      "ĠÐ¿Ð¾ÑĢÑĥ": 1607,
      "Ñ§ÑĪÐµ": 1608,
      "Ð¶Ð´": 1609,
      "ÑıÐ²": 1610,
      "ĠÐ³Ð»Ð°Ð²": 1611,
      "ĠÑĢÐ°Ð´Ð¾": 1612,
      "ĠÑĤÐµÐ±Ñı": 1613,
      "ĠÐ´Ð¾ÑĢ": 1614,
      "ĠÐ¸Ð´Ðµ": 1615,
      "ĠêĻģÐ°": 1616,
      "ĠÐ³Ð½Ñ£": 1617,
      "ĠÑĨÐµÐ»": 1618,
      "ÑĭÑħ": 1619,
      "ĠÑĥÑĩÐ½ÑĥÑĤ": 1620,
      "ĠÑħÑĢ": 1621,
      "Ð¼Ñı": 1622,
      "ĠÐ±ÐµÑĢÐµ": 1623,
      "Ð¼Ð¾Ñĥ": 1624,
      "ÐµÐ»Ðµ": 1625,
      "ĠÐ±ÑĥÐ´Ñĥ": 1626,
      "ĠÐ¦": 1627,
      "ĠÑģÑ«": 1628,
      "ĠÑĩÐ°Ñģ": 1629,
      "Ð¾Ð»Ð¾": 1630,
      "ĠÐ²Ð°ÑģÐ¸Ð»": 1631,
      "ĠÐ¸Ð»ÑĮ": 1632,
      "ĠÐ²ÑģÑ£Ð¼ÑĬ": 1633,
      "Ð½Ð¸ÑĨÐ°": 1634,
      "ĠÑĤÐ¾Ð¸": 1635,
      "Ð¾Ð½Ñĥ": 1636,
      "ĠÑĪÐ¸": 1637,
      "ĠÐ¿Ð¾Ð±Ñ£": 1638,
      "ÑĢÐ¾Ð¿Ð¾Ð»": 1639,
      "ÑĭÐ¸": 1640,
      "Ð°Ð½Ð°": 1641,
      "ĠÐ¿Ð¾Ð¼Ñĭ": 1642,
      "ÐµÐ²Ð¸Ñĩ": 1643,
      "ĠÐ³ÑĢÐ°Ð´ÑĬ": 1644,
      "ĠÐ¿Ð¾Ð´Ð¾Ð±Ð°": 1645,
      "Ð¶ÐµÐ½": 1646,
      "Ð´Ñı": 1647,
      "Ð¾Ð²ÑĭÑħ": 1648,
      "ÑĪÑı": 1649,
      "Ð¾Ð¶Ð½Ð¾": 1650,
      "ĠêĻ©": 1651,
      "Ð¾ÑĤÑĬ": 1652,
      "Ð¾ÐºÐ°": 1653,
      "Ð»Ð°ÑĤÐ¸": 1654,
      "ĠÐ¿Ð¾ÑģÐ°Ð´": 1655,
      "ĠÐ²Ñ£ÑĢ": 1656,
      "ĠÐ¼Ð¾Ð»Ð¸ÑĤ": 1657,
      "Ð½Ð¸ÑĨÑĭ": 1658,
      "Ð´ÐµÑĤÑĬ": 1659,
      "ĠÑģÐ²Ð¾ÐµÑİ": 1660,
      "ÐµÐ¼êĻĭ": 1661,
      "Ð´ÐµÑĤÑĮ": 1662,
      "Òį": 1663,
      "ĠÐ¶ÐµÐ½Ñĭ": 1664,
      "ĠÐ°Ð·ÑĬ": 1665,
      "ĠÑĤÐ²": 1666,
      "ĠÑıÐ²": 1667,
      "ĠÑĩÑĤÐ¾Ð±ÑĬ": 1668,
      "ĠÐºÐ¾Ð½ÑĮ": 1669,
      "ĠÐ´Ð¾Ð¿": 1670,
      "ĠÑıÐ·Ñĭ": 1671,
      "ĠÐ³ÑĢÐ°Ð´Ð°": 1672,
      "Ð°Ð½ÑĸÐµ": 1673,
      "ĠÐºÐ¾Ð¿": 1674,
      "ĠÐµÑģÐ¼Ð¸": 1675,
      "ĠÐ»ÑİÐ±Ð¾": 1676,
      "ĠÐ´Ð¾Ð±ÑĢÐ°": 1677,
      "ĠÑħÐ»Ñ£": 1678,
      "ĠÑĤêĻĳ": 1679,
      "Ð¿ÑĢÐ°": 1680,
      "ÑģÐºÐ¾": 1681,
      "ĠÐ¿ÑĥÑĪÐº": 1682,
      "ĠÐ¡ÑĬ": 1683,
      "ĠÐ¾Ð±ÑĬ": 1684,
      "ĠÐľÑĥÑĢÐ¾Ð¼": 1685,
      "ĠÐºÑĢÐµÑģÑĤÑĮÑı": 1686,
      "ĠÐĨ": 1687,
      "ĠÑĤÑĢÐ¾": 1688,
      "ÐµÐ²Ð¸ÑĩÐ°": 1689,
      "ĠÐ²êĻĳ": 1690,
      "ÑĨÐ¾Ð²": 1691,
      "Ñ§Ñī": 1692,
      "Ð¾ÑĤÑ£": 1693,
      "ÐºÐ²Ð¸": 1694,
      "ĠÑģÑĤÐ²Ð¾ÑĢ": 1695,
      "ĠÐ½Ð¸Ð¼Ð¸": 1696,
      "ĠÐ¿ÑĮ": 1697,
      "Ð³Ð°ÑĢ": 1698,
      "ĠÐŀÑĤ": 1699,
      "ĠÐ·Ð°Ð¿Ð°Ñģ": 1700,
      "ĠÐ±ÑĢÐ°ÑĤÐ°": 1701,
      "ĠÐ¿Ð¾ÑģÐ»Ðµ": 1702,
      "Ð¶Ñĥ": 1703,
      "ĠÐ¿Ð¾ÑĪÐ»Ð¸": 1704,
      "Ð»Ð¾Ð±": 1705,
      "ĠÐ¼Ð°Ð½Ð°": 1706,
      "Ê¼": 1707,
      "ĠÐ¿ÑĢÐµÑĩÐ¸": 1708,
      "Ð¾Ð¼Ð¾": 1709,
      "ĠÑĥÐµÐ·": 1710,
      "Ð¾Ð½Ð¸": 1711,
      "ÐºÐ¾Ð¸": 1712,
      "ÑģÐºÐ¸ÑħÑĬ": 1713,
      "ĠÐĸ": 1714,
      "ĠÐ½Ð±": 1715,
      "ĠÐ¸Ð²Ð°Ð½Ð°": 1716,
      "ĠÐ¿ÐµÑĢÐµÐ´": 1717,
      "ĠÐ³ÑĢÐ¸Ð²ÑĮ": 1718,
      "Ð¾Ð²Ð¸ÑĩÑĮ": 1719,
      "Ð³Ð¾Ð²Ð¾ÑĢ": 1720,
      "ÐµÐ²Ð¸ÑĩÑĮ": 1721,
      "ÑĸÐµÐ¼ÑĬ": 1722,
      "ĠÐ³Ñĥ": 1723,
      "ÑģÑĤÑĮÑıÐ½": 1724,
      "Ð¾Ð²Ð¸ÑĩÑİ": 1725,
      "ĠÐŁÑĢ": 1726,
      "ĠÑģÑĤÐ°Ð²": 1727,
      "Ð°Ð»Ð¾": 1728,
      "Ð½Ð°Ð°": 1729,
      "ĠÐ±ÑĥÐ´ÑĥÑĤ": 1730,
      "ĠÐĴÐ»Ð°Ð´Ð¸": 1731,
      "ĠÐľÐ¸ÑħÐ°": 1732,
      "ĠÑĢÐµÐº": 1733,
      "ĠÑģÑĥÑĤÑĮ": 1734,
      "Ð¾Ð±ÑĮ": 1735,
      "Ð²Ð¾Ñİ": 1736,
      "ĠÐ´Ð°Ð½Ð¸": 1737,
      "Ð¾Ð±Ð¾Ð´": 1738,
      "ĠÐ²Ð·Ñı": 1739,
      "ĠÐ³Ð¾ÑģÑĥÐ´Ð°ÑĢÑı": 1740,
      "ĠÐ´Ñ£Ð»Ð¾": 1741,
      "ĠÐ´ÑĢÑĥÐ³": 1742,
      "Ð¾Ð¼Ñ¹": 1743,
      "ĠÐ¿ÑĢÐ¸ÑħÐ¾Ð´": 1744,
      "ĠÐĳÐ¾Ð¶Ð¸": 1745,
      "ÑĤÐµÐ»": 1746,
      "ÑĭÐ¼ÑĬ": 1747,
      "ĠÑģÑĢ": 1748,
      "ĠÐ¢Ð°ÐºÐ¾": 1749,
      "ĠÐ¼Ð°Ðº": 1750,
      "ĠÑģÐ¸ÑĨÐµ": 1751,
      "ĠÐ»ÐµÑģ": 1752,
      "ĠÑĢÐ°Ð´": 1753,
      "Ġâ": 1754,
      "ĠÑ¥Ð¼Ñĥ": 1755,
      "ĠÑģÐ¾Ð²": 1756,
      "ĠÐºÑ¹": 1757,
      "Ð¾ÑĢÐ¾Ð´Ð¸": 1758,
      "ĠÐ¿Ð¾Ð¼Ð¾": 1759,
      "Ð¿ÑĬ": 1760,
      "ĠÐµÐ»Ð¸": 1761,
      "ÑĢÐ¾ÑģÑĤÐ¸": 1762,
      "ĠÐ³Ð´Ñ£": 1763,
      "ĠÑģÐµÐ´": 1764,
      "ĠÑģÐ»Ñ¹": 1765,
      "--": 1766,
      "ĠÐ´Ð¼Ð¸ÑĤ": 1767,
      "ÑĤÑģÑı": 1768,
      "Ð¸Ð»Ñĥ": 1769,
      "ĠÐ»Ð°": 1770,
      "ÑģÐ»Ñĭ": 1771,
      "Ð·Ñ£": 1772,
      "ĠÐ¸êĻģ": 1773,
      "ÐµÐ²Ðµ": 1774,
      "Ð¾Ð´ÑĬ": 1775,
      "ĠÐ¾ÑĤÑĨÐ°": 1776,
      "ĠÑĩÑİÐ´": 1777,
      "Ð¾ÑĢÐ°": 1778,
      "ĠÑģÐ²Ð¾Ñı": 1779,
      "ĠÐ³Ð¾ÑģÑĥÐ´Ð°ÑĢÐµÐ²Ñĭ": 1780,
      "ĠÐ¿Ð¾ÐºÐ»Ð°": 1781,
      "ÑĥÐ´Ð¸": 1782,
      "Ġ2": 1783,
      "ĠÐ´Ð¾Ð½": 1784,
      "ÑĤÑĨÐ°": 1785,
      "Ð±Ð°Ð²": 1786,
      "ĠÐ¿Ð°ÑĤÑĢÐ¸": 1787,
      "ĠÐ±ÑĭÐ»Ð¸": 1788,
      "Ð³ÑĢÑ£": 1789,
      "ĠÐ²ÑģÐµÐ³Ð¾": 1790,
      "Ð¾Ð»Ñİ": 1791,
      "ĠÑĩÐµÑĤÑĭ": 1792,
      "ĠÐ¿Ð¾ÑģÐ°": 1793,
      "Ð±Ð°Ð»": 1794,
      "ĠÐ²Ð¾Ð¸": 1795,
      "ĠÐºÑĢÐ°Ð»ÐµÐ²": 1796,
      "ĠÐĲÐ»ÐµÐºÑģÐ°Ð½Ð´ÑĢÑĬ": 1797,
      "ĠÐºêĻĭ": 1798,
      "ÑīÑĥ": 1799,
      "ĠÐ·ÐµÐ¼Ð»Ñı": 1800,
      "ĠÐ·Ð´Ñ£": 1801,
      "ĠÐľÐ¾": 1802,
      "ĠÐ´êĻĭ": 1803,
      "ĠÑ¡Ñģ": 1804,
      "ĠÐ½ÐµÐ¼Ñĥ": 1805,
      "ÐºÐ¾Ñĥ": 1806,
      "ĠêĻĹÐºÐ¾Ð¶Ðµ": 1807,
      "ÑĩÐ½Ð¾": 1808,
      "ÐµÐ¼Ð°": 1809,
      "Ð¼Ñ§": 1810,
      "ĠÑĤÑ£ÑħÑĬ": 1811,
      "ĠÐĳÐ¾Ð³Ð°": 1812,
      "ĠÑĢÑĥÐ±Ð»ÐµÐ²": 1813,
      "ĠÐ½êĻĳ": 1814,
      "ĠÐ³Ð°": 1815,
      "ĠÐ¼Ð¾Ð½Ð°ÑģÑĤÑĭÑĢÑı": 1816,
      "ĠÐ¿êĻĭ": 1817,
      "ĠÑĤÐ¾Ð±Ð¾Ñİ": 1818,
      "Ð°ÑĤÐ°": 1819,
      "ĠÑģÐ²Ð¾Ð¹": 1820,
      "ĠÑĤÑĢÐµÑĤÑĮ": 1821,
      "ÑĤÑĢ": 1822,
      "ĠÐ³Ð¾": 1823,
      "ÐºÐ¾Ð¹": 1824,
      "Ð³Ð³": 1825,
      "ÑģÑĤÑĢ": 1826,
      "ĠÐ¾ÑĤÐ¿Ñĥ": 1827,
      "ĠÐ¼Ð¾ÑģÐºÐ¾Ð²": 1828,
      "ĠÑĤÐ²Ð¾ÐµÐ³Ð¾": 1829,
      "ĠÐ½ÐµÐ¸": 1830,
      "ĠÐ±ÑĭÐ»Ð°": 1831,
      "ĠÐ´ÑĮÑı": 1832,
      "ĠÑĢÐ°Ð·ÑĥÐ¼Ñ£": 1833,
      "ĠÐ¼Ð¾Ð¹": 1834,
      "ĠÐ´Ð¾Ð¼ÑĬ": 1835,
      "ĠÐ½Ð°ÑĪÐµÐ³Ð¾": 1836,
      "ĠÑĪÑĤÐ¾": 1837,
      "ÑĪÑ«": 1838,
      "ĠÐ¿Ð°ÑĤÑĢÐ¸Ð°ÑĢ": 1839,
      "Ð¿Ð¾": 1840,
      "ĠÐ¼ÑĥÐ´": 1841,
      ".,": 1842,
      "ĠÐ°ÑĢÑħ": 1843,
      "ĠÐ¾ÑĥÐ±Ð¾": 1844,
      "ÐºÐ¾Ð²ÑĬ": 1845,
      "Ð±ÑĭÐ²Ð°": 1846,
      "ĠÐ½Ð°Ð¼": 1847,
      "ĠÐ¾ÑĤÐ²ÐµÑĤ": 1848,
      "ĠÐ·ÑĬ": 1849,
      "ÑĪÑĤÑı": 1850,
      "êĻģÐ°": 1851,
      "-.": 1852,
      "ĠÐ¼Ñ£ÑģÑĤÐ°": 1853,
      "Ð³Ñ¹": 1854,
      "Ð¼Ñ¹": 1855,
      "ĠÐ¿Ð°Ð²": 1856,
      "ÑİÑīÐ¸": 1857,
      "ĠÐ²ÑģÐµÐ¼ÑĬ": 1858,
      "ĠÐ´Ð¾ÑģÑĤÐ¾": 1859,
      "ĠÑģÐ°Ð¼Ð¸": 1860,
      "ĠÑģÐ¾Ñĥ": 1861,
      "ĠÐ¿Ð¾Ð»ÑĬ": 1862,
      "Ð²Ð°Ð»ÑĬ": 1863,
      "ĠÑĥÐ³Ð¾Ð´": 1864,
      "ĠÐ½ÐµÐ¼ÑĬ": 1865,
      "ĠÐ¢Ð¾": 1866,
      "Ð¾Ð½Ñĭ": 1867,
      "ÑģÐºÐ¸Ð¼": 1868,
      "ÐµÑĤÐ¸": 1869,
      "ĠÑģÐ½Ð°": 1870,
      "ÑİÑĢ": 1871,
      "Ð·Ñĥ": 1872,
      "ĠÐºÐ½Ñ§Ð·": 1873,
      "ĠÑĩÐµÐ»Ð¾Ð¼ÑĬ": 1874,
      "Ñ£Ð¸": 1875,
      "ĠÐ½Ð°Ð´Ð¾Ð±": 1876,
      "ĠÐ´ÐµÐ»Ð°": 1877,
      "ĠÐ¥ÑĢÐ¸": 1878,
      "ĠÐ½Ð°Ð¿Ð¸ÑģÐ°": 1879,
      "Ð°ÑĢÑĬ": 1880,
      "ĠÐ±ÑĥÐ´Ð¸": 1881,
      "ĠÐ´Ð°Ð»": 1882,
      "ĠÐ¸Ð¼ÐµÐ½": 1883,
      "ĠÐ²Ð½Ð¸": 1884,
      "Ð½ÑĸÐ¸": 1885,
      "Ð±Ñ¡": 1886,
      "ĠÐ³Ð½": 1887,
      "Ð¾Ð»ÑĬ": 1888,
      "ĠêĻģÐµÐ¼": 1889,
      "ÑĢÑĤ": 1890,
      "ĠÐ»ÑİÐ´ÑĮ": 1891,
      "ĠÐ²ÑģÐµÐ³Ð´Ð°": 1892,
      "Ð¾Ð¼êĻĭ": 1893,
      "ĠÐºÑĢÐµÑģÑĤÑĮÑıÐ½": 1894,
      "ĠÐ½Ð¸ÐºÐ°": 1895,
      "ĠÐºÐ»Ð°": 1896,
      "Ð»Ð¾Ð¶Ð¸": 1897,
      "Ð¾ÑĢÐ¸": 1898,
      "ĠÐ¢Ñ£": 1899,
      "ĠÑĩÐµÐ»Ð¾Ð±Ð¸ÑĤ": 1900,
      "ÑĤÐ¾Ð¶Ðµ": 1901,
      "ĠÑģÐ¼Ð¾ÑĤ": 1902,
      "Ð¾ÐºÐ¾": 1903,
      "ĠÐ²Ð´": 1904,
      "ĠÐ±ÑĢÐ°ÑĤÐ¸": 1905,
      "ĠÐ¶Ð¸ÑĤ": 1906,
      "ĠÐ²ÐµÐ´": 1907,
      "ĠÐ²Ð°ÑĪÐµ": 1908,
      "ĠÐ²Ð°ÑģÑĬ": 1909,
      "ĠÑĨÑĢÐº": 1910,
      "ÑĭÐ¹": 1911,
      "ÐºÐ¾Ð¼Ñĥ": 1912,
      "ĠÐµÐ´": 1913,
      "âĢĿ": 1914,
      "ĠÐļÐ¸": 1915,
      "ÑĨÐºÐ¸": 1916,
      "ĠÐ¼Ð¾ÐµÐ³Ð¾": 1917,
      "ĠÐ°ÑĪÑĤÐµ": 1918,
      "ĠÐ´ÐµÐ²": 1919,
      "ĠÐ¸Ð¼Ñı": 1920,
      "ĠÐ½Ð¾Ð³": 1921,
      "ĠÐ¿Ð¾Ð¸": 1922,
      "ĠÐ²ÑĢÑ£": 1923,
      "ĠÐĵÐ¾ÑģÐ¿Ð¾Ð´ÑĮ": 1924,
      "Ð½Ð¸ÐºÑĥ": 1925,
      "Ð½Ð¸Ñ¥": 1926,
      "ĠÐ´Ð¾Ñģ": 1927,
      "ÑģÐºÐ¾ÑĢ": 1928,
      "ÑĢÐ°Ð½": 1929,
      "ĠÐ¸Ð³ÑĥÐ¼ÐµÐ½": 1930,
      "ĠÐ¿Ð¾Ð»Ðµ": 1931,
      "Ð²ÑĢÐ°ÑĤÐ¸": 1932,
      "Ð½Ð¾Ð²Ð°": 1933,
      "ĠÐ±ÑĭÐ»ÑĬ": 1934,
      "ĠÐµÑģÐ¼ÑĮ": 1935,
      "ĠÑĥÐºÐ°Ð·Ñĥ": 1936,
      "Ð²ÑĪÐ¸": 1937,
      "Ð¾ÑģÐ¸": 1938,
      "Ð³Ð¾Ð²": 1939,
      "ÑĮÑĸ": 1940,
      "ĠÐµÑīÐµ": 1941,
      "ÑıÑĤÑĬ": 1942,
      "ĠÐ´ÐµÑĢÐµÐ²Ð½Ð¸": 1943,
      "ĠÐ¿Ð¾Ð¼Ñ£": 1944,
      "ĠÐ¼Ð¸Ð»": 1945,
      "ĠÑĤÐ°Ð¼Ð¾": 1946,
      "ĠÐºÐ°Ð±Ð°Ð»": 1947,
      "ĠÐ½ÑĭÐ½Ðµ": 1948,
      "ÑĭÑı": 1949,
      "Ñ£Ð·": 1950,
      "ÑĩÐ¸Ð½Ñĥ": 1951,
      "ĠÐ°Ð½Ð´ÑĢÑ£": 1952,
      "Ð´ÐµÑĤ": 1953,
      "ĠÐ¿Ð¾Ð½ÐµÐ¶Ðµ": 1954,
      "ĠÐ¼Ð°Ð»Ð¾": 1955,
      "ÑĹÐ¸": 1956,
      "ÑĭÐµ": 1957,
      "ĠÐ¸Ð¼Ñ£ÑĤÐ¸": 1958,
      "ĠÑģêĻĻ": 1959,
      "ÑģÐºÐ¸Ð¼ÑĬ": 1960,
      "ĠÐ¿Ð¾Ð´Ð°": 1961,
      "ÑģÑĤÑĥ": 1962,
      "Ð¾Ð½Ðµ": 1963,
      "ĠÐ¿ÑĢÐ¸ÑģÑĤÐ°Ð²": 1964,
      "Ð½Ð°Ð°Ð³Ð¾": 1965,
      "ĠÐ¸Ð»ÑĮÐ¸": 1966,
      "ÑİÑīÐ°": 1967,
      "Ð»ÑıÑĤÐ¸": 1968,
      "ÑĥÐ´Ð°": 1969,
      "ĠÐ¼ÐµÑĢ": 1970,
      "Ð½Ð¸ÐºÐ¾Ð²": 1971,
      "ĠÐ²ÑĬÐ´Ð°": 1972,
      "ĠÑ«": 1973,
      "ĠÐ´ÑĪ": 1974,
      "ĠÐ¼Ð°Ð½Ð°ÑģÑĤÑĭ": 1975,
      "Ð¾Ð¼Ð°": 1976,
      "ĠÑĩÐµÐ»Ð¾Ð²ÐµÐºÐ°": 1977,
      "ĠÑģÐ¿Ð°Ñģ": 1978,
      "ĠÑģÐµÐ¼ÑĮ": 1979,
      "ÑĪÐ°Ð³Ð¾": 1980,
      "ĠÑĥÑģÑĤÑĢÐ¾": 1981,
      "ÑĭÐ¼": 1982,
      "ĠÐ¿ÑĢÑĸÐ¸": 1983,
      "ĠÐ³ÑĢÐ°Ð¼Ð¾ÑĤÑĭ": 1984,
      "ÑĩÐµÑĤ": 1985,
      "ĠÐŁÐ¾ÑĤ": 1986,
      "Ð±Ð»Ð¸": 1987,
      "ĠÐ²Ð¾ÑĤÑĩÐ¸Ð½": 1988,
      "ÑĨÐµÐ¼ÑĬ": 1989,
      "ĠÑģÑĤÑ£": 1990,
      "ĠÑģÐ»Ð¾Ð²Ð°": 1991,
      "ĠÑģÑĤÐ°ÑĤÑĮ": 1992,
      "ĠÐ²ÑģÑİ": 1993,
      "ÑĹÑ§": 1994,
      "ĠÐĶÐ¾Ð±": 1995,
      "Ð´Ñ¹": 1996,
      "ĠÑģÐµÑĢÐµ": 1997,
      "ĠÐ²Ð¸Ð½": 1998,
      "ĠÐ±Ð¾Ð³Ð°": 1999,
      "ÐµÐ´Ð¸": 2000,
      "ĠÐĳÐ¾Ð³ÑĬ": 2001,
      "Ð½ÑĭÑ§": 2002,
      "êĻģÑĬ": 2003,
      "ĠÐĹÐ°": 2004,
      "Ñ£Ð»Ð¾": 2005,
      "ĠÑħÐ¾Ñī": 2006,
      "ĠÐ³ÑĢÐ°Ð¼Ð¾ÑĤÐ°": 2007,
      "ĠÐ¾ÑģÑĤÐ°Ð²": 2008,
      "ĠÐĳÐ¾Ð³Ñĥ": 2009,
      "ĠÐ²Ð·ÑıÑĤÐ¸": 2010,
      "ĠÐ³Ð¾Ð´Ñĥ": 2011,
      "ĠÐ¼Ð¸Ð»Ð¾ÑģÑĤÑĮ": 2012,
      "ĠÐ³Ð´Ðµ": 2013,
      "Ð¸ÑģÑ§": 2014,
      "ĠÐ½Ð¾Ñģ": 2015,
      "ĠÐ²Ð¾Ð¹": 2016,
      "ÑıÑĪÐµ": 2017,
      "ÑģÑĤÐ²Ð¸": 2018,
      "ĠÑħÐ¾ÑĤÑ£": 2019,
      "ĠÑĤÐ¾Ð±Ñ£": 2020,
      "ĠÑĢÐ¶Ð¸": 2021,
      "ĠÐ¾ÑĤÐ²ÐµÑĤÑĩÐ¸": 2022,
      "ÑĩÐ°Ð»Ð¸": 2023,
      "ĠÑģÑĤÐ°Ð½Ñĥ": 2024,
      "ĠÐ´ÐµÐ½Ðµ": 2025,
      "Ð¾Ð²Ð°Ð½": 2026,
      "ÑĢÐ¾Ñİ": 2027,
      "ĠÐ¿Ð¾ÑģÑĤ": 2028,
      "Ñ¡Ð²ÑĬ": 2029,
      "Ð´Ð¸ÑĤÐ¸": 2030,
      "ĠÑģÐ¼ÐµÑĢÑĤÐ¸": 2031,
      "ĠÐ¿ÑĢÐ¸ÑģÑĤÑĥÐ¿": 2032,
      "ĠÐ¼Ñģ": 2033,
      "ĠÑĥÐµÐ·Ð´Ðµ": 2034,
      "ĠÐŁÐ¾Ñģ": 2035,
      "ĠÐ³ÑģÐ´ÑĢÑĮ": 2036,
      "ĠÐ±Ñ¹Ð´": 2037,
      "ĠÑģÐ¾ÑĢ": 2038,
      "ĠÐ½ÐµÐ´ÑĢÑĥ": 2039,
      "ĠÐ¼Ð½Ñ¡": 2040,
      "Ġ3": 2041,
      "ĠÐ°Ð»": 2042,
      "Ð´ÐµÑģÑı": 2043,
      "ĠÐ¼Ð¾Ñı": 2044,
      "ĠÐ´ÐµÑģÑı": 2045,
      "ÑĢÐµÐ½": 2046,
      "ĠÐ·Ð°Ð½Ðµ": 2047,
      "Ð¼ÐµÐ½Ð¸": 2048,
      "Ð¿Ð¾Ð´Ð¾Ð±": 2049,
      "ĠÐ±ÑĮÐµÑĤ": 2050,
      "Ð¾Ð±Ñĭ": 2051,
      "Ð°Ð³": 2052,
      "ĠÑĥÐº": 2053,
      "ĠÐ²Ð¾Ð´Ð°": 2054,
      "ĠÐ²Ð¾ÐµÐ²Ð¾Ð´": 2055,
      "ÑĮÐ¸": 2056,
      "Ð³Ð¾ÑĤ": 2057,
      "ÑĥÐ´Ñĭ": 2058,
      "ĠÐ¿ÑĢÐ¾Ð¿": 2059,
      "ĠÐ»Ñ£ÑĤÐ°": 2060,
      "ÑĢÐ¾ÑģÑĤÑĮ": 2061,
      "ĠÐ·Ð´Ð¾ÑĢ": 2062,
      "Ð´ÑĢÐµ": 2063,
      "ĠÐ²ÑĬÑģÑ£": 2064,
      "ĠÐ¿ÑĢÐµÑĩÐ¸ÑģÑĤÑĭ": 2065,
      "ĠÑģÐ²Ð¾Ð¸Ð¼": 2066,
      "ĠÐ±ÐµÐ·ÑĬ": 2067,
      "ĠÐ¿ÑĢÐ¸Ð²": 2068,
      "ÐµÐ²Ñ£": 2069,
      "ĠÑĩÑĤÐ¾Ð±Ñĭ": 2070,
      "ĠÐ¿ÑĢÐ¸Ð²ÐµÐ´": 2071,
      "ĠÑģÐ²Ð¾ÐµÐ¼": 2072,
      "ÑĪêĻĭ": 2073,
      "ÑģÐºÐ¸Ð¸": 2074,
      "ÐµÑĪÑĮ": 2075,
      "ĠÐ±ÑĢÐ°ÑĤÑĮÐµÑİ": 2076,
      "ĠÑĥÐ´": 2077,
      "Ð·Ð´Ð°": 2078,
      "ĠÐ´ÐµÑĢÐµÐ²Ð½Ñİ": 2079,
      "ĠÐ¿ÑĢÐ¾ÑĤÐ¸Ð²Ñĥ": 2080,
      "ÐµÑ¡": 2081,
      "ĠÐ¼Ð¸ÑĤÑĢÐ¾Ð¿Ð¾Ð»": 2082,
      "ÑĢÑĸ": 2083,
      "ĠÐ°ÐºÑĭ": 2084,
      "ĠÐĴÐ¾": 2085,
      "ĠÑģÑĤÐµÐ¿": 2086,
      "ĠÐ·Ð°Ð¿Ð¸Ñģ": 2087,
      "ĠÐ¿Ð°ÐºÐ¸": 2088,
      "ĠÐ¾Ð±ÑĢÑ£": 2089,
      "ĠÐ¶ÑĬ": 2090,
      "â±": 2091,
      "Ð»Ñ£Ð·": 2092,
      "ĠÐ²Ð¾Ð·Ð¼Ð¾Ð¶Ð½Ð¾": 2093,
      "ĠÐ´ÑĢêĻĭ": 2094,
      "ĠÐĺÐ»ÑĮÑı": 2095,
      "ĠÐ´Ñħ": 2096,
      "ĠÐºÐ¾Ñģ": 2097,
      "Ð½Ð¸ÐºÐ¾Ð¼": 2098,
      "ÑĢÑ¹": 2099,
      "ĠÐĿÑĬ": 2100,
      "Ð¿Ðµ": 2101,
      "ÐºÑĥÑİ": 2102,
      "ĠÐ³ÑĢÐµ": 2103,
      "ĠÑģÐ¾Ðº": 2104,
      "ĠÐ»ÑĮ": 2105,
      "ĠÐ¾Ð½Ð°": 2106,
      "ĠÐ¼ÐµÐ´": 2107,
      "ĠÐ²ÑĭÑĪÐµ": 2108,
      "Ġ7": 2109,
      "ĠÑĤÐµÑĢ": 2110,
      "ĠÐ¿Ð¾Ð¼ÐµÑģÑĤÑĮÑı": 2111,
      "Ð³Ð»Ð°": 2112,
      "ĠÐ¿ÑĢÐµÐ¶": 2113,
      "ĠÑģÐµÐ¼ÐµÐ½": 2114,
      "ĠÐ±Ð¾ÑĢÐ¸Ñģ": 2115,
      "ĠÑĥÑĩÐ½ÐµÑĤ": 2116,
      "Ñ£ÑħÑĬ": 2117,
      "ĠÐ³Ð¾ÑĤ": 2118,
      "Ð¸ÑĤÑĥ": 2119,
      "ĠÐ¾Ð²": 2120,
      "ĠÐ½ÑĭÐ½Ñ£": 2121,
      "ĠÐ½Ð°ÑĢÐµ": 2122,
      "ĠÐŁÐµÑĤ": 2123,
      "ĠÐ¿Ð¾Ð»Ð¾Ð¶": 2124,
      "ÐºêĻĳ": 2125,
      "ĠÑģÑĤÑĢÐ¾": 2126,
      "ĠÑĢÐ°Ð·Ð¼Ñ£": 2127,
      "Ð¼ÐµÐ½Ð°": 2128,
      "ĠÑģÑĤÑĢÑ£Ð»ÑĮ": 2129,
      "ĠÐķÑĢÑĥ": 2130,
      "ÐµÑĤÐ¾": 2131,
      "ÑģÐ»Ð°Ð²ÑĬ": 2132,
      "ĠÑİÑĢÑĮ": 2133,
      "ĠÐ¿ÑĢÐ¾ÑĢ": 2134,
      "ĠÐ§ÑĤÐ¾": 2135,
      "ĠÐ²ÐµÐ»Ð¸ÐºÐ°Ð³Ð¾": 2136,
      "ÑģÐºÐ°Ñı": 2137,
      "ÑĪÐ½Ð¸": 2138,
      "ĠÑĤÐ°ÐºÐ¾Ð²Ð°": 2139,
      "ÑĩÐµÑģÑĤÐ¸": 2140,
      "ĠÐºÐ¾Ð½Ñı": 2141,
      "ĠÐ´ÐµÐ½": 2142,
      "ĠÐ¿Ð¾Ñĥ": 2143,
      "Ð¸ÑĪ": 2144,
      "Ð°Ð»Ðµ": 2145,
      "ĠÑ³ÐµÐ´Ð¾ÑĢ": 2146,
      "ĠÐ¼Ñ£ÑģÑĤÑ£": 2147,
      "ĠÐ¿Ð¾Ð»Ð¾Ð²": 2148,
      "ĠÐ²ÐµÐ»Ð¼Ð¸": 2149,
      "ĠÐ¸Ð»ÑĮÐ¸ÑĩÑİ": 2150,
      "ĠÐ²ÐµÑģÑĮ": 2151,
      "Ð¾Ð²ÑĭÐ¼": 2152,
      "ĠÐ½Ð°ÑĢ": 2153,
      "ÑĩÐµÐ¹": 2154,
      "ĠÑģÐ²Ð¾ÐµÐ¸": 2155,
      "Ð»Ð¾Ð¼ÑĬ": 2156,
      "ĠÐķÐ³Ð´Ð°": 2157,
      "ĠÐ¿ÑĢÐ°Ð²ÐµÐ´": 2158,
      "ĠÐ¿ÑĢÐµÐ¼": 2159,
      "ÐºÐ°Ð¼Ð¸": 2160,
      "Ð¿Ð¸ÑģÐº": 2161,
      "ĠÐķÑĢÑĥÑģÐ»": 2162,
      "ĠÐ¿ÑĢÐµÐ´Ð°": 2163,
      "ĠÐ»ÑİÐ´ÐµÐ¸": 2164,
      "ĠÐľÐ¾ÑģÐº": 2165,
      "ĠÑĢÐ°ÑĤ": 2166,
      "Ð±Ð¾Ð¹": 2167,
      "ĠÐºÐ¾ÑĤÐ¾ÑĢÐ¾Ð¹": 2168,
      "ĠÐ±Ð¾Ð³Ð¾ÑĢÐ¾Ð´Ð¸": 2169,
      "ĠÑ¥Ñģ": 2170,
      "â±ķ": 2171,
      "ĠÑģÑĢÐ¾Ðº": 2172,
      "ĠÐ±Ð¾ÑĥÐ´": 2173,
      "ĠÑĩÐ¸ÑģÐ»Ð°": 2174,
      "ĠÑĤÐ¾Ð²Ð°ÑĢÑĭ": 2175,
      "ĠÐ´Ð²Ñ£": 2176,
      "ĠÐ²ÑĮÑģÐµ": 2177,
      "ĠÑģÐµÐ¼ÑĬ": 2178,
      "Ð´Ð¾Ñĥ": 2179,
      "ĠÐ¿ÑĢÐ¾Ð¼Ñĭ": 2180,
      "ÑĭÑĤ": 2181,
      "Ð´Ð¸Ð½ÑĬ": 2182,
      "ĠÑĩÐµÐ»Ð¾Ð²Ñ£ÐºÑĬ": 2183,
      "ÑĮÐ¼Ð¸": 2184,
      "ĠÑĢÑĥÑģ": 2185,
      "Ð²Ð°Ð»": 2186,
      "ĠÐ±Ð»Ð³": 2187,
      "ÑĤÐ¸Ð½": 2188,
      "Ð»Ð°Ð²ÑĬ": 2189,
      "ĠÐ½Ð¾Ð²Ð³Ð¾ÑĢÐ¾Ð´": 2190,
      "ĠÐ½Ð¸Ñĩ": 2191,
      "ĠÑģÐºÐ¾": 2192,
      "Ñ§ÑĤÑĬ": 2193,
      "Ð°ÑĢÐ°": 2194,
      "ĠÐ¾Ð±ÑĬÑıÐ²": 2195,
      "ÐºÐ¾Ð²ÑĮ": 2196,
      "ĠÐ½ÐµÐ²Ñ£": 2197,
      "Ð¾Ð»Ð°": 2198,
      "ĠÐ½ÐµÐ¶Ðµ": 2199,
      "ĠÐ³Ð¾ÑĢÐ¾Ð´Ð°": 2200,
      "Ð½Ð¸ÑĤ": 2201,
      "ĠÑĩÐµÐ»Ð¾Ð²ÐµÐº": 2202,
      "ĠÐºÑĢÐµÐ¿": 2203,
      "ĠÐºÐ°Ð¼ÐµÐ½": 2204,
      "ĠÐ²Ð¸Ð´": 2205,
      "Ð²Ñ£ÑīÐ°": 2206,
      "ĠÐ½Ð°Ñĥ": 2207,
      "ÑĥÐ±": 2208,
      "ÐºÑĢÐ°Ñģ": 2209,
      "ÐµÐ½ÑĮÐµ": 2210,
      "ĠÐ¿ÑĥÑģÑĤÐ¾ÑĪÑĮ": 2211,
      "ÑħÑ¹": 2212,
      "ĠÐ±ÐµêĻģ": 2213,
      "ĠÑĤÑĭÑģÑı": 2214,
      "ĠÐ¿Ð¾Ð¶Ð°Ð»Ð¾Ð²Ð°Ð»": 2215,
      "Ð»Ð¸Ð½": 2216,
      "ĠÑĤÐ²Ð¾ÑĢÐ¸ÑĤÐ¸": 2217,
      "Ñ¯": 2218,
      "Ð¾ÑĢÑĥ": 2219,
      "ĠÐ¿Ð»Ð¾": 2220,
      "Ñ¥ÑĤÑĮ": 2221,
      "Ð»ÐµÐ½Ð¾": 2222,
      "ĠÐ¼Ñ«": 2223,
      "Ð½Ð¸Ð½Ð°": 2224,
      "ĠÐ½ÐµÐ¹": 2225,
      "ĠÐ¿Ð¾ÑħÐ¾": 2226,
      "ĠÐ¾ÑĤÑĮ": 2227,
      "ĠÐ´ÐµÑĤÐ¸": 2228,
      "ĠÐ²ÐµÐ»Ð¸ÐºÐ¸Ð¹": 2229,
      "Ð³êĻĭ": 2230,
      "ÑĩÐµÐ½Ð¾": 2231,
      "Ð°Ð½Ñĥ": 2232,
      "ĠÑģÐ¾ÑĤÐ²Ð¾ÑĢÐ¸": 2233,
      "ĠÑĨÐ°ÑĢÐ¸": 2234,
      "ĠÑĩÐµÑĤÑĭÑĢÐµ": 2235,
      "ÑĭÑĤÐ°": 2236,
      "Ð¾Ð¿Ð¾Ð»": 2237,
      "ĠÑĤÐ²Ð¾Ñı": 2238,
      "ÑĦÐ¾Ð½": 2239,
      "ÑħÐ¾Ð¼": 2240,
      "ĠÑ¡Ð±ÑĢÐ°": 2241,
      "ĠÑģÑĤÑĢ": 2242,
      "ĠÑģÐ²Ñ£ÑĤ": 2243,
      "ÑĪÐµÐ´": 2244,
      "ÑħÐ°Ð»Ð¸": 2245,
      "ĠÐ¸Ñİ": 2246,
      "ĠÐµÐ·": 2247,
      "ÑĢÐ¸Ð»": 2248,
      "Ð¸ÑĤÐµÐ»ÑĮ": 2249,
      "Ð¾Ð½Ñ£": 2250,
      "ĠÑ¥ÑģÐ¸": 2251,
      "ÑĭÑħÑĬ": 2252,
      "ĠÑĤÐ¾Ð»ÑĮÐºÐ¾": 2253,
      "ĠÑĥÐ±Ð¸": 2254,
      "ĠÐ¾Ð³Ð½ÐµÐ½": 2255,
      "ĠÐ´Ñ£Ð»Ð°ÑĤÐ¸": 2256,
      "ĠÐ¿ÑĢÐ¸Ð´Ðµ": 2257,
      "ÑĢÐ°Ð²Ð¸": 2258,
      "ĠÑģÐµÐ¸": 2259,
      "ÑģÑĤÐ¸Ñİ": 2260,
      "Ð½ÑĮÐµ": 2261,
      "ĠÑĤÐ¾Ñĥ": 2262,
      "Ð»ÑİÐ±": 2263,
      "ÑİÑĤÑģÑı": 2264,
      "ĠÐ½Ð¸Ð¶Ðµ": 2265,
      "ĠÑĤÐ¾Ð»ÐºÐ¾": 2266,
      "Ð»Ð¾Ð¼": 2267,
      "ĠÐ´Ð¾Ð¼Ð°": 2268,
      "ÑģÑĤÐ²Ñ£": 2269,
      "ÑĨêĻĭ": 2270,
      "ĠÐ¼Ð¾Ð»Ð¾Ð´": 2271,
      "ĠÑĥÐ·": 2272,
      "ĠÐµÑģÑĤÐµ": 2273,
      "ĠÐ±êĻĭÐ´ÐµÑĤÑĬ": 2274,
      "ĠÐĴÑ£": 2275,
      "Ñ£Ñħ": 2276,
      "ĠÑĥÑĤ": 2277,
      "ĠÐ´Ð°Ð²Ð°ÑĤÐ¸": 2278,
      "ÐµÐ¶": 2279,
      "ĠÐ²Ð¾Ð»Ð¾Ð´Ð¸Ð¼ÐµÑĢ": 2280,
      "ĠÐĳÐ¾Ð²Ð°": 2281,
      "ĠÐ¢Ð°Ðº": 2282,
      "ĠÐĴÑĮ": 2283,
      "ĠÑĢÐ¾Ñĥ": 2284,
      "ĠÑħÐ¾ÑĤÑı": 2285,
      "ĠÐ´Ð¾Ð±ÑĢÑ£": 2286,
      "ÐµÐ½Ð¸Ðµ": 2287,
      "ÑĩÐ°ÑĤ": 2288,
      "ĠÐ¿Ð¾ÑĢÐ¾": 2289,
      "ĠÑģÑĬÐº": 2290,
      "ĠÐ½Ñ£ÑģÑĤÑĮ": 2291,
      "Ð°Ð·Ð°ÑĢ": 2292,
      "ĠÐ·Ð¾Ð»": 2293,
      "ÑĤÐ¸Ð½Ð°": 2294,
      "ĠÐ¿Ð¾Ð»Ñĥ": 2295,
      "Ð²ÑĢÑĬ": 2296,
      "ĠÐ´Ð°Ð»ÑĬ": 2297,
      "ĠÐ´ÑĢÑĥÐ³Ð°": 2298,
      "ĠÑĤÐ¾Ð»Ð¸": 2299,
      "ĠÐ±Ñ¹": 2300,
      "ĠÐ·Ð»Ð¾": 2301,
      "ÑģÑĤÐ²êĻĭ": 2302,
      "ĠêĻĸÐºÐ¾": 2303,
      "ĠÐ²Ð¾ÑĤÑĩÐ¸Ð½Ñĭ": 2304,
      "Ð¶ÐµÑĤ": 2305,
      "Ð²Ð¾Ð·": 2306,
      "ÐµÐ»Ð°": 2307,
      "ĠÐ¿ÑĢÐ¸ÑĤ": 2308,
      "ĠÐ¡Ð¾Ð»": 2309,
      "ĠÐ¿Ð¾Ð´Ð²Ð¸": 2310,
      "Ð½ÐµÑĤÑĮ": 2311,
      "ĠÑģÐ¸ÑħÑĬ": 2312,
      "ĠÐ¿Ð¸Ñī": 2313,
      "Ð½Ð¸ÐµÐ¼ÑĬ": 2314,
      "ĠÐ¼ÐµÐ¶": 2315,
      "ĠÐ¾Ð¶Ðµ": 2316,
      "ĠÐ¿ÑĢÐ¾Ðº": 2317,
      "Ð°Ð·Ñĥ": 2318,
      "ĠÐ¿ÑĢÐ¸Ð½ÐµÑģ": 2319,
      "ĠÐ³ÑĢÑ£Ñħ": 2320,
      "Ñ¡Ð¼ÑĬ": 2321,
      "Ð¾Ð»Ð½Ð¸": 2322,
      "ĠÑĩÐ¸Ð½": 2323,
      "ÑĪÐ¸ÑħÑĬ": 2324,
      "ĠÑ¹Ð±Ð¾": 2325,
      "ĠÐ¾Ð±ÑĭÑĩÐ°": 2326,
      "ĠÐ´Ð°Ð²": 2327,
      "ĠÐºÑĥÐ½ÑĬ": 2328,
      "ĠÐ±ÐµÑģÑ£": 2329,
      "Ð»ÐµÑĤ": 2330,
      "ÑĸÐ¹": 2331,
      "ĠÑģÐ½Ð°ÑĢÑı": 2332,
      "ĠÐ²Ð¸Ð´Ð¸": 2333,
      "ĠÑĤÑĥÑĤÑĬ": 2334,
      "ĠÐ³ÑģÐ´ÑĢÑİ": 2335,
      "ÐµÐ²Ð¸ÑĩÑİ": 2336,
      "ÑĨÐµÐ¼": 2337,
      "Ð¸Ð»Ðµ": 2338,
      "ĠÐ¸ÑģÐºÑĥ": 2339,
      "Ð¾Ð¼Ñ£": 2340,
      "ĠÐºÐ»Ñİ": 2341,
      "ÑģÐ¿Ð¾Ð´": 2342,
      "ĠÐµÐµ": 2343,
      "ÐºÐ¾ÑĪÐ°": 2344,
      "ĠÐ»Ñ£ÑĤÐ¾": 2345,
      "ÐµÐ»Ñİ": 2346,
      "ĠÑĩÐµÑģÑĤ": 2347,
      "Ñ¹Ñİ": 2348,
      "Ġ10": 2349,
      "ĠÑĤêĻĭ": 2350,
      "Ñ§ÑīÐµ": 2351,
      "Ð´Ð½Ð¾": 2352,
      "ĠÑģÐ»Ð¾Ð²ÐµÑģÐ°": 2353,
      "ĠÐ¿ÑĢÐµÐ¶Ð´Ðµ": 2354,
      "ĠÐ´Ð°Ð»Ðµ": 2355,
      "ĠÐ¿ÑĢÐ¾ÑĤ": 2356,
      "ĠÐ²Ð·Ñ§": 2357,
      "ĠÐ¼Ð½Ð¾Ñİ": 2358,
      "ĠÐ¿Ð»Ð°ÑĤÐ¸ÑĤÐ¸": 2359,
      "ĠÑģÑĬÑĤÐ²Ð¾ÑĢÐ¸": 2360,
      "ĠÐ¼Ð°ÑĤÐµÑĢÐ¸": 2361,
      "Ð°Ñı": 2362,
      "Ð¼ÐµÑĢ": 2363,
      "ĠÐ²Ñ£ÑĢÑĥ": 2364,
      "ĠÐ³ÑĢÐ²": 2365,
      "ĠÐ¡Ð¸": 2366,
      "ĠÑĢÐ°Ð·Ð´Ñ£": 2367,
      "ĠÐ´ÑĢÐ°": 2368,
      "Ð´ÐµÐ¶Ðµ": 2369,
      "ĠÐ¡Ñĭ": 2370,
      "ÑĮÑİ": 2371,
      "ĠÐ¿ÑĢÐ¾Ð´": 2372,
      "ĠÐ¿ÑĤÐ¸": 2373,
      "ĠÑģÐ¾Ñģ": 2374,
      "Ð»êĻĭ": 2375,
      "ĠÐ¿Ð¾Ð·Ð½Ð°": 2376,
      "Ð»Ð¸ÑģÑı": 2377,
      "ĠÐ±êĻĭ": 2378,
      "ÑĨÑı": 2379,
      "ĠÑĤÐ²Ð¾Ñİ": 2380,
      "ĠÐ¿ÑĥÑĪÐºÐ°ÑĢ": 2381,
      "Ð¾Ð¶Ð´Ðµ": 2382,
      "ĠÐ¾Ð±Ñ£": 2383,
      "Ð±ÑĢÑı": 2384,
      "ĠÐ²ÑĬÑģÐ¿": 2385,
      "ĠÑĤÐ¾Ðµ": 2386,
      "Ð°ÐºÐ¾Ð½": 2387,
      "ĠÐ±ÑĭÑģ": 2388,
      "ĠÐ´Ð¾Ñĥ": 2389,
      "Ð¶Ð½Ð¾": 2390,
      "ĠÑĢÑı": 2391,
      "ĠÐ²ÑĮÑģÑı": 2392,
      "ĠÐ´Ñ£ÑĤ": 2393,
      "Ð½ÑĸÑ§": 2394,
      "ĠÐ½Ð¸Ð¼": 2395,
      "ÑģÑĤêĻĭ": 2396,
      "ĠÑģÐ¼Ð¸": 2397,
      "ĠÐ¼Ð¸ÑĢÑĬ": 2398,
      "ĠÑıÐ¶Ðµ": 2399,
      "ĠÑħÐ¸ÑĤ": 2400,
      "ĠÑħÑĤÐ¾": 2401,
      "ĠÐ°Ð·": 2402,
      "ĠÑĭ": 2403,
      "Ð´ÐµÑĢ": 2404,
      "ĠÐ´Ñ£ÑĤÐ¸": 2405,
      "ĠÑĢÑĥÐºÑĥ": 2406,
      "ĠÐ»Ð¾ÑĪÐ°": 2407,
      "ĠêĻĢ": 2408,
      "ĠÑĩÐµÑĤÐ¸": 2409,
      "ÐµÐ²Ð¾Ð»": 2410,
      "ĠÑĸÑ¡": 2411,
      "ĠÐ¸ÑģÑĤÐ¸Ð½": 2412,
      "ĠÐ»ÐµÑĤÐ°": 2413,
      "ĠÐ¡Ð²": 2414,
      "ĠÐºÐ¾ÑĤÐ¾ÑĢÐ¾Ðµ": 2415,
      "Ð½Ð¾Ð³": 2416,
      "Ð²Ñ£ÑĤ": 2417,
      "ĠÐºÐ¾ÑģÑĤ": 2418,
      "Ð¸Ð´Ñ£": 2419,
      "ĠÐ¢Ñĥ": 2420,
      "Ð»Ð°ÑĤ": 2421,
      "ĠÐ´Ð°ÑģÑĤÑĮ": 2422,
      "Ð´ÐµÑģÑ§": 2423,
      "ĠÐ¿Ñ¹": 2424,
      "ÑģÐºÐ¾Ð¼ÑĬ": 2425,
      "ĠÐ¿ÑĢÐ¸Ð¸Ð¼": 2426,
      "ÑĥÐ´ÑĮ": 2427,
      "ĠÐ¢Ñĭ": 2428,
      "ĠÑģÐ²Ð¾ÐµÐ¼ÑĬ": 2429,
      "Ð°Ð±": 2430,
      "ĠÑģÑĭÐ½Ñĥ": 2431,
      "ĠÐ¶ÐµÐ»Ð°": 2432,
      "ĠÐ¿ÑĢÐµÐ¶Ðµ": 2433,
      "Ð´ÑĢÐ°": 2434,
      "ĠÐ²ÑĤÐ¾ÑĢ": 2435,
      "ÑĤÐ¸ÑģÑı": 2436,
      "ĠÐ¼Ð¸ÑĢ": 2437,
      "ĠÐ´ÐµÑĤÐµÐ¹": 2438,
      "ĠÐ¼Ð¾ÐµÐ¼Ñĥ": 2439,
      "ĠÐµÐ¹": 2440,
      "ĠÑģÐ¾Ð³": 2441,
      "ĠÐ»Ñ¹": 2442,
      "ĠÐ·Ð²Ñ£": 2443,
      "ĠÐ´ÐµÑĢÐ¶": 2444,
      "Ð¿ÑĮ": 2445,
      "ĠÐ¿ÑıÑĤÐ¸": 2446,
      "ĠÐ¼ÑĥÐ¶Ð°": 2447,
      "ĠÐ¿Ð»ÐµÐ¼": 2448,
      "ĠÑģÐ²Ð¾Ñ§": 2449,
      "Ð½ÐµÐ¼": 2450,
      "ĠÐ´Ð²Ñĥ": 2451,
      "Ġ4": 2452,
      "ĠÑģÑĬÐ³ÑĢÑ£": 2453,
      "ĠÑģÐºÐ¾ÑĢÐ¾": 2454,
      "ĠÐ²Ð¾Ð¿": 2455,
      "ĠÐ²ÑģÑ§Ðº": 2456,
      "ĠÐ±Ð»Ñİ": 2457,
      "ĠÐ³Ð¾Ð½": 2458,
      "ĠÐĵÐ¾ÑģÑĥÐ´Ð°ÑĢ": 2459,
      "ĠÑģÐ¾Ð±Ñ£": 2460,
      "ÐµÑĢÐ°": 2461,
      "ÑıÐ¼ÑĬ": 2462,
      "ĠÐ¿Ð¾Ð¸Ð´Ðµ": 2463,
      "ĠÐļÐ¾": 2464,
      "ĠÐ¿Ð¾Ð²Ñ£": 2465,
      "ÑĨÐ¾Ð¼": 2466,
      "ĠÐµÐ´Ð¸Ð½ÑĬ": 2467,
      "ĠÑĢÐ°Ð²": 2468,
      "ÐµÑģÐ»Ð°Ð²": 2469,
      "ĠÐ±Ñ«": 2470,
      "ĠÐ½Ð°Ðº": 2471,
      "ĠÑģÑĤÐ¾Ñı": 2472,
      "ÐµÐ»Ð¾": 2473,
      "ĠÐ²ÑĮÑģÑ£": 2474,
      "ĠÑĩÑİÐ´Ð¾ÑĤÐ²Ð¾ÑĢ": 2475,
      "Ð¾Ð²ÑĭÐµ": 2476,
      "ÐºÐ°Ð³Ð¾": 2477,
      "ĠÑĩÐµÐ³Ð¾": 2478,
      "ĠÐ¿Ð¾Ð»Ð¾Ð¶Ð¸": 2479,
      "ĠÐ²ÐµÑģÐµÐ»Ð¸": 2480,
      "Ð½êĻĹ": 2481,
      "ÑĪÑ§": 2482,
      "ĠÐ¿Ð¾ÑģÑĭ": 2483,
      "ĠÐ²Ð¾ÑģÐ¿": 2484,
      "ÐµÐ²Ð¾": 2485,
      "ĠÐ´ÑĢÑ¹": 2486,
      "ÑģÐ¾": 2487,
      "ÐµÐ¼Ð¸": 2488,
      "ĠÑĤÑ£Ð»Ð¾": 2489,
      "Ð¼Ð°Ð½": 2490,
      "Ð·Ð½Ð¸": 2491,
      "Ð²Ð°Ð³Ð¾": 2492,
      "Ð²Ð°Ñı": 2493,
      "ĠÐĺÐ·": 2494,
      "ĠÐ·Ð°Ð¿Ð¾Ð²Ñ£": 2495,
      "ĠÐ¿ÑĢÐµÐ±ÑĭÐ²Ð°": 2496,
      "Ñ§Ð´": 2497,
      "ÑĪÐµÐ½Ð¸": 2498,
      "Ð½ÐµÑİ": 2499,
      "ÑĤÑĮÑģÑı": 2500,
      "Ð¾Ð³Ð¸": 2501,
      "ĠÐ´ÑĢÑĬ": 2502,
      "ĠÑħÐ»Ðµ": 2503,
      "ĠÑģÐ²ÐµÑĢ": 2504,
      "ĠÐ¿ÑıÑĤÑĮ": 2505,
      "ÑģÑĤÐ²ÐµÐ½": 2506,
      "ĠÑģÐ»Ð°Ð²Ð°": 2507,
      "ÑĩÑı": 2508,
      "Ð¾Ð»Ðµ": 2509,
      "ĠÐļÐ°ÐºÐ¾": 2510,
      "ÑĪÐ°ÑĤÐ¸": 2511,
      "ĠÑĤÐ¸Ð¼Ð¾": 2512,
      "ĠÐ²ÑĭÑĪ": 2513,
      "Ð½ÐµÐ¹": 2514,
      "Ð¾ÑĤÑĥ": 2515,
      "ĠÑĩÐµÐ¼ÑĬ": 2516,
      "ÐµÐ½Ð¸Ñı": 2517,
      "ĠÐ¿Ð¾ÑģÑĤÐ°Ð²Ð¸": 2518,
      "ĠÑģÐ»Ðµ": 2519,
      "Ð½ÑĭÐ¸ÑħÑĬ": 2520,
      "ÑģÐºÑĬ": 2521,
      "ĠÐ¿Ð¸ÑīÐ°": 2522,
      "ĠÐ²Ð»": 2523,
      "âĢĿ.": 2524,
      "ĠÐ´ÐµÐ»Ð¾": 2525,
      "ÑĩÐ¸ÑĤ": 2526,
      "ĠÑģÑĤÐ°ÑĢÐ¾ÑģÑĤÐ¸": 2527,
      "ĠÐ¾ÑĢ": 2528,
      "ĠÐ¿ÑĢÑĬ": 2529,
      "ÑĤÐ°Ð³Ð¾": 2530,
      "ĠÑģÐ²Ð¾Ð±Ð¾Ð´": 2531,
      "Ð½ÑĸÐ°": 2532,
      "ĠÐ³Ð¸": 2533,
      "ĠÐµÐ¼êĻĭ": 2534,
      "ÐµÐ´ÑĮ": 2535,
      "ĠÐ´ÑĢÐ¾Ñĥ": 2536,
      "ĠÑģÐµÐ»Ð¾": 2537,
      "ÑĤÑı": 2538,
      "Ð²ÑĮÑĢ": 2539,
      "ĠÐ¾ÑģÑĤ": 2540,
      "ĠÐ³ÑĢÐ°Ð¼Ð¾ÑĤÑĥ": 2541,
      "Ð°Ð½Ð¸Ðµ": 2542,
      "ĠÑĤÐ¾Ð¿": 2543,
      "ĠÑĢÐ¾Ð´Ð¸": 2544,
      "ĠÑĩÐ¸ÑģÑĤÐ¾": 2545,
      "ĠÑīÐ¾": 2546,
      "ĠÐ·ÐµÐ¼Ð»Ðµ": 2547,
      "Ġ(": 2548,
      "ÑĢÐ°Ð²Ð¸ÑĤÐ¸": 2549,
      "ĠÐ±ÑĭÑĤÑĮ": 2550,
      "ĠÐ¿Ð¾ÑĤÐ¾Ð¼Ñĥ": 2551,
      "ÑĨÐµÑİ": 2552,
      "Ġâģ": 2553,
      "ĠÐ¼Ð»Ð°": 2554,
      "ĠÑģÑĢÐ°": 2555,
      "ĠÑģÑĤÑĭ": 2556,
      "ĠÐ¿ÑĢÐµÐºÑĢÐ°Ñģ": 2557,
      "Ð¶Ð¸ÑĤÑĮ": 2558,
      "ĠÐµÐ¼Ñ¹": 2559,
      "ĠÐ°Ð½Ð´ÑĢÐµ": 2560,
      "ÑģÑĤÑĮÐµ": 2561,
      "ĠÐĳÑ£": 2562,
      "ĠÐ°Ð¶Ðµ": 2563,
      "ĠÐ¿Ð¾ÐºÐ°Ð·": 2564,
      "Ð»Ð°Ð²Ð°": 2565,
      "Ð´ÑĢÑ£": 2566,
      "Ð»êĻĹ": 2567,
      "ÑģÐºÐ¸Ð¹": 2568,
      "ĠÐ³ÑĢÐ¾Ð±": 2569,
      "ĠÐłÐ°": 2570,
      "ĠÐ¿ÑĢÐ°Ð²Ð¾": 2571,
      "ĠÐ½ÐµÑĤ": 2572,
      "ĠÐ¿ÐµÑĢÐ²": 2573,
      "ĠÐºÐ¾Ð¼": 2574,
      "ĠÑĤÑ¹": 2575,
      "ĠÐ¢Ð°": 2576,
      "ĠÐ¿Ð¸ÑģÐ°Ð½": 2577,
      "ÑģÐºÐ¸Ñı": 2578,
      "Ð¾ÑĢÑĬ": 2579,
      "ÑģÑĤÐ¸ÑĤÐ¸": 2580,
      "ĠÐ²ÑģÐµÑı": 2581,
      "ĠÐ±ÐµÑĢ": 2582,
      "ÑģÐ»ÑĭÑĪÐ°": 2583,
      "ÑĢÐ¸ÑĤÐ¸": 2584,
      "ĠÐ´Ð²Ð¾ÑĢÑĬ": 2585,
      "ÑĤÐ¸ÑĤÑĮ": 2586,
      "ĠÐ¿ÑĢÐ¸Ð·": 2587,
      "ĠÑĤÐ¾Ð¼Ñ¹": 2588,
      "Ð»ÐµÑģ": 2589,
      "ĠÐ¼Ð¾ÑĢÐµ": 2590,
      "ĠÐ½ÐµÐ½Ð°": 2591,
      "ĠÐ¾Ð±ÑĢÐ°Ð·": 2592,
      "ĠÐ²ÐµÐ»Ñ£": 2593,
      "ĠÐ¿Ð¾ÑĤÐ¾Ð¼ÑĬ": 2594,
      "ĠÐ°Ð²": 2595,
      "ĠÐ¿ÑĢÐ¾ÑģÑĤ": 2596,
      "ĠÐ³Ð¾ÑģÑĥÐ´Ð°ÑĢÐµÐ²Ñĥ": 2597,
      "ĠÐ³ÑĢÐ°Ð¼Ð¾ÑĤÐµ": 2598,
      "ĠÑģÑĥÐ´Ð°": 2599,
      "ĠÐ±Ð°ÑĤ": 2600,
      "ĠÑ¡ÑĨ": 2601,
      "ĠÑģÐµÐ»Ð¸": 2602,
      "ĠÐ½ÐµÐ¼ÑĮ": 2603,
      "ĠÐµÐ»Ð¸ÐºÐ¾": 2604,
      "ÑĦÐ¸": 2605,
      "Ð²Ñ£ÑĤÑĬ": 2606,
      "ĠÐ³ÑĢÐ°Ð´Ñ£": 2607,
      "ĠÐºÐ¾Ð·": 2608,
      "ĠÐ¿ÑĢÐ¾Ð³": 2609,
      "ÑĦÐ°": 2610,
      "ĠÐ¿Ð¾Ð³Ð¸": 2611,
      "Ð»ÐµÐ½Ð¸Ðµ": 2612,
      "ĠÐ¿ÑĢÐµÑĩÐ¸ÑģÑĤÑĭÐµ": 2613,
      "Ð½ÑĤ": 2614,
      "ĠÐ±Ð¾Ð¶Ð¸": 2615,
      "ĠÑĥÐ³": 2616,
      "ÑģÐºÑĭÐ¸": 2617,
      "ÑĨÐ°ÑĤÑĮ": 2618,
      "ÑīÑİ": 2619,
      "ĠÐ²Ñ£Ð´Ð°": 2620,
      "ĠâĢĵ": 2621,
      "Ð¿Ð¸ÑģÐºÐ¾Ð¿": 2622,
      "ĠÑģÑĤÑĮ": 2623,
      "Ð²ÑĪ": 2624,
      "ĠÐ¿Ð»ÑĬ": 2625,
      "Ð»ÐµÐ½ÑĸÐµ": 2626,
      "ĠÐ°ÑĢÑħÐ¸": 2627,
      "Ð°Ð¼Ð°": 2628,
      "ĠÑĤÐ¾Ðº": 2629,
      "ĠÑ¥ÑģÑĤÑĮ": 2630,
      "ÐºÐ»Ð¾Ð½": 2631,
      "ĠÐ´Ð¼Ð¸ÑĤÑĢÐµ": 2632,
      "ĠÐµÐ´Ð¸Ð½Ð¾": 2633,
      "ĠÐºÑĢÐ¸": 2634,
      "ĠÐ¿ÑĢÐ°Ð·": 2635,
      "ÑĪÐ¸Ñħ": 2636,
      "ĠÐ²ÑģÑıÐºÐ¸Ñħ": 2637,
      "ĠÐ½Ð°Ð¼Ð¸": 2638,
      "ĠÐ¿ÑĢÐ¿": 2639,
      "ĠÐºÐ¾ÑĤÐ¾ÑĢÑĭÑħ": 2640,
      "ĠÑħÑĢÐ°Ð±": 2641,
      "ĠÐ¿Ð°ÑĢ": 2642,
      "ĠÐ¿ÑĢÑ£Ð´ÑĬ": 2643,
      "Ð²ÑĭÐ¸": 2644,
      "Ð½Ñ¡": 2645,
      "ĠÐ¿ÑĢÐ¸ÑģÐ»Ð°": 2646,
      "ĠÐ¼ÑĤ": 2647,
      "ĠÑĮ": 2648,
      "ĠÑĢÑĮ": 2649,
      "ÑĸÑģ": 2650,
      "ĠÑģÐ¾Ð·": 2651,
      "ĠÑģÑĬÐ±": 2652,
      "ĠÐ¿Ð¸ÑĤÐ¸": 2653,
      "ĠÑģÐ¾Ð²Ñ£": 2654,
      "ĠÑĪÐµÑģÑĤÑĮ": 2655,
      "ĠÑģÐ¸Ð»ÑĮ": 2656,
      "ĠÑħÐ¾ÑĤÑ§": 2657,
      "ĠÐ²ÐµÑĩ": 2658,
      "ĠÐ´Ð¾Ð¼Ñĥ": 2659,
      "ĠÐ¼Ð¾Ð³Ñĥ": 2660,
      "ÑĤÑ§": 2661,
      "ĠÐ¼Ð¾Ñİ": 2662,
      "ĠÑĥÑĩÐ¸Ð½Ð¸ÑĤÐ¸": 2663,
      "ĠÑģÐ»êĻĭ": 2664,
      "ÐµÑģÑ§": 2665,
      "ĠÐ°Ð³Ð³": 2666,
      "ÑģÑĤÐ²Ðµ": 2667,
      "ĠÐ±ÑĮÑİÑĤ": 2668,
      "ÑıÐ½Ð¸": 2669,
      "Ð½ÐµÐ¼ÑĬ": 2670,
      "ĠÐ¾Ð»": 2671,
      "ĠÑĢÐ°ÑģÐ¿": 2672,
      "ĠÑĤÐ¾ÑĢÐ³": 2673,
      "ĠÐºÑĭ": 2674,
      "ĠÐºÑĢÑĭ": 2675,
      "ĠÐ½Ð°Ð´ÑĬ": 2676,
      "ÑīÐ°Ð³Ð¾": 2677,
      "ĠÑĬ": 2678,
      "ĠÐ´ÐµÑĢÐ¶Ð°ÑĤÐ¸": 2679,
      "ĠÐ³Ð°Ð²": 2680,
      "ĠÐ¿ÑĢÐ¸Ð½Ð¾": 2681,
      "Ð»Ñ¹": 2682,
      "ĠÐĶÐ¾Ð±ÑĢÑĭ": 2683,
      "ÐµÐ¼Ð¾": 2684,
      "ĠÑģÑĭÑī": 2685,
      "ÑĤÐµÐ»ÑĮ": 2686,
      "ĠÐ¯ÐºÐ¾": 2687,
      "ÑĪÐµÐ½ÑĮ": 2688,
      "ÑīÐµÑĪÐ¸": 2689,
      "ĠÑĥÐºÑĢÐ°": 2690,
      "ÐºÐ¾Ð½": 2691,
      "ÑĩÐµÐ³Ð¾": 2692,
      "ĠÐĴÑĭ": 2693,
      "ÑĩÐ¸Ð½Ð°": 2694,
      "ĠÐ¶ÐµÐ»Ñ£Ð·": 2695,
      "ĠÐ±ÑĭÑĪÐ°": 2696,
      "ÑĢÐ°Ð·": 2697,
      "ÑĢÐ¾ÑĤÐ¸": 2698,
      "ĠÑĨÐµÑĤ": 2699,
      "ĠÑħÑĢÐ¸ÑģÑĤÐ¸": 2700,
      "Ð½ÐµÐ²": 2701,
      "ÐµÑĩÐµ": 2702,
      "Ġ12": 2703,
      "ĠÐ°Ð½Ð´ÑĢÑ£Ñİ": 2704,
      "ĠÑĤÑĢÑĮ": 2705,
      "ĠÐĵÐ¾ÑģÐ¿Ð¾Ð´Ð°": 2706,
      "ĠÐ¿Ð¾ÑĤÑĢÐµÐ±": 2707,
      "Ñ§Ð¸": 2708,
      "Ð´Ð¾Ð²Ð°": 2709,
      "ĠÑĤÐ°ÐºÐ¾Ð¶Ðµ": 2710,
      "ĠÐ»Ñ£ÑĤÑĬ": 2711,
      "ÑĤÑĮÑİ": 2712,
      "ÐµÐ»Ñı": 2713,
      "Ð²ÐµÑģÑĤÐ¸": 2714,
      "ÑĪÐºÑĥ": 2715,
      "ĠÐ½Ð¸ÐºÐ¾Ð¼Ñĥ": 2716,
      "ĠÐºÑĢÐµÑģÑĤ": 2717,
      "ĠÐŁÑĢÐµ": 2718,
      "ĠÐºÐ»Ð¸": 2719,
      "Ð»ÐµÐ½Ð¸": 2720,
      "ÑĩÐ¸ÑĤÐ¸": 2721,
      "Ð°ÐºÐ¸": 2722,
      "ĠÑĩÐµÐ¼": 2723,
      "ĠÑĤÐ°ÐºÐ¾Ð²Ð¾": 2724,
      "ĠÐ²Ð»Ð°Ð´Ñĭ": 2725,
      "ĠÐĵÐ¸": 2726,
      "Ð¾ÑģÑĮ": 2727,
      "ĠÐ¶ÑĮ": 2728,
      "ĠÐĽÐ°Ð·Ð°ÑĢ": 2729,
      "ÑĩÐ¸Ñħ": 2730,
      "ÑģÑĤÑĢÑ£": 2731,
      "ĠÐ±Ð»Ð°Ð³Ð¾ÑģÐ»Ð¾Ð²": 2732,
      "Ñ»": 2733,
      "ĠÐ»ÑİÐ´ÐµÐ¼ÑĬ": 2734,
      "ĠÐ¾ÑĢÑĥ": 2735,
      "ĠÐ¾ÑĤÑĢÐ¾Ðº": 2736,
      "ĠÑĨÐµÑĢÐºÐ²Ð¸": 2737,
      "ĠÑģÐ²Ð¾ÐµÑı": 2738,
      "ĠÐ²Ð¾Ð»Ð¾ÑģÑĤÐ¸": 2739,
      "ĠÐ¿ÑĢÐ¸ÑĪÐµÐ´": 2740,
      "ÑĪÐ¸Ð¼ÑĬ": 2741,
      "ĠÐ²ÑģÑ§ÐºÐ¸": 2742,
      "ÑĢÐ¾ÑģÐ»Ð°Ð²": 2743,
      "ĠÐºÐ¾Ð½Ð¸": 2744,
      "ĠÐ³Ð»Ð°Ð³Ð¾Ð»Ð°": 2745,
      "ĠÑĤÑĢÑĥ": 2746,
      "ĠÑģÐ²Ñ§": 2747,
      "ÑĩÐµÑģÑĤ": 2748,
      "ĠÐ¿Ð¾ÐºÐ»Ð°Ð½Ñ§": 2749,
      "ĠÑģÐ²Ð¸": 2750,
      "Ñ¿": 2751,
      "ĠÐ½Ð°ÑĢÑı": 2752,
      "Ð³Ð»Ñĭ": 2753,
      "ĠÑħÐ¾ÑĢ": 2754,
      "ĠÐ³ÑĢÐ¸Ð³Ð¾ÑĢÑĮ": 2755,
      "ĠÐ´ÐµÐ½Ð³Ð¸": 2756,
      "ĠÐºÐ½Ð¸Ð³": 2757,
      "Ð¾Ð´Ð¸": 2758,
      "Ð¾Ð¶Ð´": 2759,
      "Ñ«Ñī": 2760,
      "ÑĭÐ²Ð°": 2761,
      "ĠÐ²ÑģÑ£Ð¼Ð¸": 2762,
      "ĠÑģÐ¾Ð²ÐµÑĢ": 2763,
      "ĠÐ»ÑİÐ´ÑĮÐ¼Ð¸": 2764,
      "ÑģÑ¹": 2765,
      "ÐµÐ»ÐµÐ½": 2766,
      "ÑĢÐ¾Ð²Ð°": 2767,
      "ĠÐ¼Ñ¡": 2768,
      "ĠÐ¸Ð·Ñ§": 2769,
      "ĠÐµÐ¼Ð¾Ñĥ": 2770,
      "ĠÐ²Ñ£Ð´": 2771,
      "Ð¿ÑĢÐ°Ð²": 2772,
      "ĠÑĢÐ¾ÑģÑĤ": 2773,
      "êĻģÑĮ": 2774,
      "ĠÐ¿ÑĢÐ¸ÑĪÐ»Ð¸": 2775,
      "ĠÐ¼Ð¾Ð½Ð°ÑģÑĤÑĭÑĢÑĮ": 2776,
      "ĠÑģÐµÑĢÐ´ÑĨÐµ": 2777,
      "ÑĨÐ¾": 2778,
      "ĠÐ²ÑģÐµÐ¼Ð¸": 2779,
      "ĠÐ»Ð²": 2780,
      "ĠÑģÐ¾ÑĤ": 2781,
      "ĠÐ¼Ñĸ": 2782,
      "ĠÐ´Ð°ÑģÑĤÑĬ": 2783,
      "Ð¸Ð»ÑģÑı": 2784,
      "ĠÐ´ÑĢÐµÐ²": 2785,
      "Ð´Ð²Ð¸": 2786,
      "Ð»Ñ¡": 2787,
      "ĠÑĩÐ¸ÑģÑĤ": 2788,
      "ÑĢÐ¾Ñĥ": 2789,
      "ĠÐ°ÑĢÑħÐ¸Ð¼": 2790,
      "Ð½Ð¸Ñĩ": 2791,
      "ĠÐºÐ¾Ð½Ñİ": 2792,
      "ĠÐ·ÐµÐ¼Ð»Ñ§": 2793,
      "ĠÐľÐ°ÑĢ": 2794,
      "ĠÐ¾ÑĥÐ¼": 2795,
      "ĠÐ¼ÑĥÐ¶ÑĮ": 2796,
      "Ð·Ð°Ð½": 2797,
      "ÐºÐ¾Ð¿": 2798,
      "ÑģÑĤÐµÑĢ": 2799,
      "ÑģÑĤÐ¸Ð½": 2800,
      "ĠÐ¿Ð¾Ð¼ÑĭÑĪ": 2801,
      "ĠÐ¼ÑĥÐ¶Ð¸": 2802,
      "ĠÐ²ÐµÑĢÑħ": 2803,
      "ÐµÑħÐ°Ð»": 2804,
      "ĠÐ¾Ð±Ð»Ð°": 2805,
      "ĠÑĩÐµÐ»Ð¾Ð±Ð¸ÑĤÑĮ": 2806,
      "ĠÐºÐ½Ñ§Ð·ÑĮ": 2807,
      "ĠÐ³ÑģÐ´ÑĢ": 2808,
      "Ð½Ð¾Ð²Ð¾": 2809,
      "ĠÑĪÐ°ÑĤ": 2810,
      "ÑĩÐ°ÑĤÐ¸": 2811,
      "ĠÐ²Ð¾ÑĤÑĩÐ¸Ð½Ñĥ": 2812,
      "ĠÐ¿Ð¸ÑīÐ°Ð»Ð¸": 2813,
      "ÑħÑĢÐ°": 2814,
      "ĠÐ¾Ð±Ð°": 2815,
      "ÑĤÐ²Ð°": 2816,
      "ÑģÐ¾Ð¼ÑĬ": 2817,
      "ĠÑĥÑĢÑı": 2818,
      "ĠÑģÑĬÐ¼Ñ£": 2819,
      "ÑıÐ¹": 2820,
      "ĠÑħÐ²Ð°": 2821,
      "ĠÐºÐ¾ÑĢÐ¾Ð»ÐµÐ²": 2822,
      "ĠÐ·Ð¸Ð¼": 2823,
      "ĠÑĤÐ¾ÑĤÑĬ": 2824,
      "Ð·Ð¾": 2825,
      "ĠÐ½Ð°ÑĪÐ°": 2826,
      "Ð±ÑĢÑ£": 2827,
      "ĠÐ¸Ð¼Ð°ÑĤÑĮ": 2828,
      "ĠÐ²ÑģÐµÑħ": 2829,
      "ĠÑģÑĤÑĢÑ£Ð»ÑıÑĤÐ¸": 2830,
      "ĠÑģÐ¿Ð¸Ñģ": 2831,
      "ĠÐ´Ð²Ðµ": 2832,
      "ÑĩÑĥ": 2833,
      "Ñ£Ð¼ÑĬ": 2834,
      "Ð¶Ñİ": 2835,
      "ĠÑģÐµÐ½": 2836,
      "ĠÐ¼Ð½Ð¾Ð¶Ðµ": 2837,
      "ĠÐ±ÑĭÐ²Ð°ÐµÑĤÑĬ": 2838,
      "ĠÐ¿Ð°Ð½": 2839,
      "ÑĥÐ±Ð¸": 2840,
      "ĠÑĤÐ°ÐºÐ¸Ñħ": 2841,
      "ĠÐ¸Ð²Ð°Ð½Ð¾Ð²Ð¸Ñĩ": 2842,
      "ĠÐ³Ð¾Ð²Ð¾ÑĢÐ¸ÑĤÑĮ": 2843,
      "ĠÐ¼Ð¸Ñħ": 2844,
      "ĠÐ²Ð°Ð¼": 2845,
      "ĠÐ±Ñ¡": 2846,
      "Ð»ÑģÑı": 2847,
      "ĠÑĤÑĢÐ°": 2848,
      "ÑģÐºÐ¸Ð¼Ð¸": 2849,
      "ĠÐ±Ð¾Ð»ÑĮÑĪ": 2850,
      "ĠÐ´ÑĥÑħÐ¾Ð²": 2851,
      "Ð±êĻĳ": 2852,
      "ĠÐ´Ð¸Ð²": 2853,
      "ĠÐ¾Ð±Ð¸": 2854,
      "ĠÐ²ÐµÐ»ÐµÑĤÑĮ": 2855,
      "Ð»Ð¾Ð²Ð°": 2856,
      "ĠÐ²Ð¼Ðµ": 2857,
      "Ð³Ð»Ð¾": 2858,
      "ÐµÐ¾Ð´": 2859,
      "ÐµÑĩ": 2860,
      "ÑĪÑĤÑĮ": 2861,
      "ÑĤÑĸ": 2862,
      "ÐºÑĥÐ¿": 2863,
      "ĠÑģÑĤÐ°ÑĢÐ¾": 2864,
      "ĠÐ¿ÑıÑĤ": 2865,
      "Ð¾ÑĢÐµ": 2866,
      "ÐµÑħÐ°Ð»ÑĬ": 2867,
      "ĠÑģÐ°Ð¼Ð°": 2868,
      "ĠÐ·Ð°Ð¼": 2869,
      "ĠÐ±Ð¾Ð³Ð°ÑĤ": 2870,
      "ĠÐ°ÐºÐ¸": 2871,
      "Ð½Ñ£Ð¸": 2872,
      "ĠÐ¸Ð¼Ñ§": 2873,
      "Ð±ÑĭÑĤ": 2874,
      "ÑģÐ»ÑĮ": 2875,
      "ĠÐ²ÑģÐµÐ²Ð¾Ð»": 2876,
      "Ð¶Ð´ÑĮ": 2877,
      "ĠÑģÐ»Ñ£": 2878,
      "ĠÐ²Ð°ÑĪ": 2879,
      "ĠÐĺÐ½Ð¾": 2880,
      "ĠêĻĹÐ²": 2881,
      "ĠÐ²ÐµÐ»Ð¸ÑĩÐµ": 2882,
      "ĠÑĤÐ°ÐºÐ¾Ð²Ñĭ": 2883,
      "ÑģÑĤÐµÐ¹": 2884,
      "ĠÐ¿ÐµÑĢÐµÐ´ÑĬ": 2885,
      "ĠÐ»Ð¸Ñħ": 2886,
      "ĠÑģÐ¸Ðµ": 2887,
      "ĠÑģÐ¸Ð»Ñĭ": 2888,
      "ĠÐ¶ÐµÐ½Ñĥ": 2889,
      "ĠÐ±ÑĢÐ°ÑĤÐµ": 2890,
      "ÑĭÐ²Ð°ÑĤÐ¸": 2891,
      "Ð³Ð¾ÑĪÐ°": 2892,
      "ĠÑĤÐ²Ð¾Ð¹": 2893,
      "Ð¶ÐµÐ½ÑĬ": 2894,
      "ĠÑģÑĤÑĢÐ°ÑĪ": 2895,
      "ĠÐ¿ÑĢÐ¸ÐµÐ¼": 2896,
      "Ð³Ð¾Ð¼ÑĬ": 2897,
      "ÑģÐ»Ñĥ": 2898,
      "ĠÐ¸Ð´": 2899,
      "Ð´Ð¸ÑĤÑĮ": 2900,
      "ĠÐ½Ð°Ð¿Ð°": 2901,
      "ÐºÐ»Ð°": 2902,
      "Ð»ÐµÐ½ÑĬ": 2903,
      "ĠÐ°Ð»ÑĤÑĭ": 2904,
      "ĠÐºÐ°ÑĢÐ°": 2905,
      "ĠÐ¿Ð¾Ð´Ð¾Ð±Ð°ÐµÑĤÑĬ": 2906,
      "ĠÐ·Ñ£Ð»Ð¾": 2907,
      "ĠÐ¿ÑĢÐ¸ÐºÐ°": 2908,
      "ĠÐ²ÐµÐ´Ð°": 2909,
      "ĠÐºÑĢÑĬ": 2910,
      "Ð´Ñ£ÑĤÐ¸": 2911,
      "ĠÐ¶Ð¸Ð²Ð¾ÑĤ": 2912,
      "ÑīêĻĭ": 2913,
      "ÑĮÐµ": 2914,
      "ĠÑĩÐ¸ÑģÐ»Ð¾": 2915,
      "ĠÐĺÐ²Ð°Ð½": 2916,
      "ĠÑģÐ°Ð²": 2917,
      "ÑĭÐ¼Ð¸": 2918,
      "ĠÑģÐ²Ð¾Ñ¥Ð³Ð¾": 2919,
      "ÑĤÐ¾Ðµ": 2920,
      "ÑģÑĤÑĭÐ½Ð¸": 2921,
      "ĠÐ¿Ð¾Ð²Ñ£Ð´Ð°": 2922,
      "ĠÐĴÐ°Ñģ": 2923,
      "ĠÐ´Ð²Ð¾ÑĢÐ°": 2924,
      "ĠÐ³Ð¾ÑĢÐ¾Ð´ÑĬ": 2925,
      "ĠÐ¼Ð½Ð¸": 2926,
      "ĠÑĨÑĮ": 2927,
      "ĠÐ¼Ð½Ð¾Ð³Ð°": 2928,
      "ĠÐ¿Ð¾ÐºÐ»Ð¾Ð½ÑĬ": 2929,
      "ĠÐ¿ÑĢÑıÐ¼Ð¾": 2930,
      "Ð·Ðµ": 2931,
      "Ð¾Ð»ÐºÐ¾": 2932,
      "ĠÑĩÐµÐ²Ð¾": 2933,
      "ĠÐµÑģÐ¼Ñı": 2934,
      "ĠÐ±Ð³ÑĬ": 2935,
      "ÑĤÐµÐ¹": 2936,
      "ĠÑĤÐ¾Ð¼ÑĮ": 2937,
      "Ð°Ð½ÑĮÐµ": 2938,
      "Ð°ÑĢÑ£": 2939,
      "Ð½ÐµÐ¸": 2940,
      "ĠÐ±ÑĨ": 2941,
      "ĠÐ±Ñ§ÑĪÐµ": 2942,
      "Î¹": 2943,
      "ĠÑĥÐ¾": 2944,
      "ÑīÐ¾": 2945,
      "ĠÐ¿ÑĢÐ¸Ð¼Ñ£": 2946,
      "Ð½Ð¸êĻĹ": 2947,
      "Ð¾Ð³ÑĬ": 2948,
      "ĠÐ·Ð°Ñħ": 2949,
      "Ð¿ÑĢÐ¾Ñģ": 2950,
      "ĠÐ²Ð¿ÐµÑĢ": 2951,
      "ÑģÑĤÐ°Ð²ÑĬ": 2952,
      "ĠÐ¾ÑĥÐ±": 2953,
      "Ð»Ð¾Ñĥ": 2954,
      "ĠÐ´ÐµÑĢÐ¶Ð°": 2955,
      "Ð¸ÑĢÐ°": 2956,
      "Ð³ÑĮ": 2957,
      "ĠÑģÐ¾Ð±ÑĢÐ°": 2958,
      "ĠÑĤÐµÐ»": 2959,
      "ÑĤÐ¾Ñĥ": 2960,
      "Ġ5": 2961,
      "Ð¿Ð¸ÑģÐ°": 2962,
      "Ð»Ð¸Ñĩ": 2963,
      "ĠÐ½Ð°Ð¿Ð¸Ñģ": 2964,
      "ĠÐĺÐ»Ð¸": 2965,
      "ĠÐĴÐµÐ»Ð¸": 2966,
      "ĠÐ½ÐµÐ´Ð¾": 2967,
      "ĠÐ³Ð¾ÑģÑĥÐ´Ð°ÑĢÐµÐ²Ð°": 2968,
      "ĠÐ»ÑĥÐºÐ°": 2969,
      "Ð½ÑĨÐµ": 2970,
      "ÑĨÐ¾Ð²ÑĬ": 2971,
      "ÑģÑĤÑĮÑİ": 2972,
      "ĠÐ»Ð¾Ñĥ": 2973,
      "Ð¼Ð¸ÑĢÐ°": 2974,
      "ĠÐ´Ð¾Ðº": 2975,
      "ĠÐ¾Ð±ÑĢÑı": 2976,
      "ĠÐ´Ð¾ÑģÑĤ": 2977,
      "ĠÑĩÐµÐ»Ð¾Ð±Ð¸ÑĤÑĩÐ¸": 2978,
      "ĠÐĲÐ½": 2979,
      "ĠÐ²Ð°ÑĪÐ°": 2980,
      "ĠÐĶÑĢÑĥ": 2981,
      "ĠÑĢÐµÐºÑĬ": 2982,
      "ĠÑĤÑĭÑģÑ§": 2983,
      "ĠÑĤÐ¸Ñħ": 2984,
      "Ð½Ð¸Ð½": 2985,
      "ĠÐ²Ð¼Ñ£": 2986,
      "Ð²Ð¾Ð¸": 2987,
      "ÑĢÐ¾Ñĩ": 2988,
      "ÐµÐ¼ÐµÐ½": 2989,
      "ÑģêĻĹ": 2990,
      "Ð¾ÑĤÐ¾": 2991,
      "ĠÐ¿Ð¾ÑĩÐ¸Ð½": 2992,
      "ĠÐ»Ð¸ÑĤ": 2993,
      "ĠÐ¨": 2994,
      "ĠÐ½ÐµÐ¼Ð¾": 2995,
      "Ð´ÐµÑĪÐ¸": 2996,
      "Ð¸ÑĤÐ¸ÑģÑı": 2997,
      "ĠÐ½Ð°ÑĢÐ¸": 2998,
      "ÑīÐ°ÑĤÐ¸": 2999,
      "ĠÑģÐ¸Ð»Ð¾Ñİ": 3000,
      "ĠÐ¿ÑĥÑĤÐ¸": 3001,
      "ÑģÑĤÑ¹": 3002,
      "ĠÐŁÑĢÑ£": 3003,
      "Ð½Ñ¹Ñİ": 3004,
      "Ð²ÐµÑģ": 3005,
      "ĠÐŁÐ¾Ðº": 3006,
      "ĠÐķÐ³Ð¾": 3007,
      "ĠÐ½ÐµÐ¶ÐµÐ»Ð¸": 3008,
      "ĠÐ³Ð¾ÑģÑĤ": 3009,
      "ÑĢÐµÐ¿": 3010,
      "Ð»Ð¾Ð¶Ðµ": 3011,
      "ĠÐ¼ÐµÑģÑĤÐ¾": 3012,
      "ĠÑıÐ´ÑĢÐ°": 3013,
      "ĠÐ´ÑĢÐµ": 3014,
      "ĠÑ¡Ð½": 3015,
      "ĠÑĨÑĤÐ¾": 3016,
      "Ð¼Ð¾Ð»": 3017,
      "ĠÐ¾Ð½Ð´ÑĢÐµ": 3018,
      "ĠÐ¿Ð¾ÐºÑĢÑĭ": 3019,
      "ĠÑħÑĢÐ¸ÑģÑĤ": 3020,
      "ÐºÐ¾Ð²Ð¾": 3021,
      "ĠÐ·Ð°Ð²Ð¸": 3022,
      "ĠÑĢÑĭÑĨ": 3023,
      "Ð¿Ð°Ñģ": 3024,
      "ÐµÐ½Ñ£": 3025,
      "Ð½Ð¸ÐºÐ¾Ð¼ÑĬ": 3026,
      "ĠÐ²ÐµÑĤ": 3027,
      "ĠÐ¿Ð¾Ð¼Ð¾Ð·Ð¸": 3028,
      "ĠÐ²Ð¾ÑģÐº": 3029,
      "ĠÐ±Ñ£Ð»": 3030,
      "ĠÐ¸Ð¼Ð¸": 3031,
      "Ð¶Ð°Ð½": 3032,
      "ĠÐłÑĥ": 3033,
      "ĠÐ²Ð¾Ð´Ñĭ": 3034,
      "Ð¾Ð¼Ð¾Ñĥ": 3035,
      "ĠÐ³ÑĬ": 3036,
      "ĠÐ²Ð´Ð°": 3037,
      "ÑĨÐºÐ¾Ð³Ð¾": 3038,
      "Ð²ÑĬÑĪÐµ": 3039,
      "ÑĢÐµÑĤÐ¸": 3040,
      "Ð²Ð°ÐµÑĤÑĬ": 3041,
      "ĠÐ¼Ð¾Ñ¥": 3042,
      "ĠÐ¼ÑĮÑģÑĤÐ¸": 3043,
      "ÑĪÐ¸ÑĤÐ¸": 3044,
      "ĠÐ»Ð¸ÑĨÐ°": 3045,
      "ÑģÐºÐ¾Ñİ": 3046,
      "ĠÐ¼Ð¾Ñ§": 3047,
      "ĠÐ¿ÐµÑĩÐ°Ð»Ð¸": 3048,
      "ĠÐĲÑĪÑĤÐµ": 3049,
      "ĠÐ¿Ð¸ÑģÐ°Ð½Ð¾": 3050,
      "ÑĩÐºÐ°": 3051,
      "ĠÑĢÐ°Ð±ÑĬ": 3052,
      "ĠÐ¸Ð½ÑĭÐµ": 3053,
      "ĠÐ¿ÑĥÑĪÐºÐ¸": 3054,
      "ĠÐ¼Ð¸ÑħÐ°Ð¹": 3055,
      "Ð²Ð°Ð¹": 3056,
      "ĠÑģÑĤÐ°Ð»ÑĬ": 3057,
      "ĠÐ½Ð°Ð¿ÑĢÐ°Ð²": 3058,
      "ĠÐ³Ð¾ÑģÐ¿Ð¾Ð´Ð¸Ð½Ðµ": 3059,
      "ĠÐ²ÐµÐ»ÐµÑĤÐ¸": 3060,
      "Ð¾Ð·Ñ£": 3061,
      "ĠÐ·Ð´ÑĢÐ°Ð²": 3062,
      "ĠÑĹ": 3063,
      "ĠÐ²ÑĭÑģÐ¾Ðº": 3064,
      "ĠÑģÑĬÐ¼": 3065,
      "ĠÐ²Ð¾Ð»Ð¾ÑģÑĤ": 3066,
      "Ð´ÑĥÑĤ": 3067,
      "ĠÐ±Ð¾Ð³ÑĬ": 3068,
      "Ð¼ÑĮÐ¶Ðµ": 3069,
      "ĠÑĨÐ°ÑĢÑģÑĤÐ²Ð¾": 3070,
      "ĠÐ¼ÑĥÐ¶Ðµ": 3071,
      "ÐµÑĤÑĨÐ°": 3072,
      "Ð¾Ð´Ñĥ": 3073,
      "ĠÐ¼ÑĥÐ¶": 3074,
      "ĠÐ²Ð¾ÐµÐ²Ð¾Ð´Ð°": 3075,
      "ĠÑĩÐ¸Ð½Ð¸ÑĤÐ¸": 3076,
      "ĠÐ¿Ð¾ÑħÐ²Ð°": 3077,
      "ÑĤÐµÐ¸": 3078,
      "ĠÐŁÐ¾Ð´": 3079,
      "Ġ6": 3080,
      "ĠÐ¿ÑĢÐ¸Ñģ": 3081,
      "ÑĢÑıÐ¼Ð°": 3082,
      "ĠÐ»Ð¾Ð²": 3083,
      "ÐºÐ¾Ð¼Ñ¹": 3084,
      "Ð½Ð¸ÐµÐ¼": 3085,
      "Ð»Ð°Ð³Ð°": 3086,
      "ĠÑĤÐ¾Ð³": 3087,
      "ÐºÐ°Ñı": 3088,
      "ĠÑĨÑĢÑĮ": 3089,
      "ĠÑģÑĭÑģÐºÑĥ": 3090,
      "ÐµÐ³Ð¾": 3091,
      "ĠÐ»Ð¸ÑĨÐµ": 3092,
      "ĠÐ½ÐµÐ¿ÑĢÐ°Ð²": 3093,
      "ĠÐ±Ð¾Ð³Ð°ÑĤÑĭÑĢ": 3094,
      "ÐºÐ¸ÑĦ": 3095,
      "Ð´Ð¸ÑĤÐµ": 3096,
      "ĠÐ¶ÐµÐ½Ðµ": 3097,
      "ĠÐ²Ñ£Ñĩ": 3098,
      "ĠÐ½Ð°ÑĪÑĬ": 3099,
      "Ð¿Ð¾Ð»": 3100,
      "ĠÐ½Ð°Ð¿ÐµÑĢ": 3101,
      "ĠÑĢÐ¾": 3102,
      "ÑģÐ²": 3103,
      "ÑĥÐ¼": 3104,
      "Ñ§Ð½": 3105,
      "ĠÐ½Ð°ÑĪÑĮ": 3106,
      "ĠÑģÑĬÐ²Ñ£": 3107,
      "Ð°ÑĤÑĮ": 3108,
      "ĠÐŁÐ¾Ð¼": 3109,
      "Ð¸ÑĨÐ°": 3110,
      "ĠÑģÐ¸Ð¼": 3111,
      "ÑĥÐ´ÑĬ": 3112,
      "ĠÐ¿ÑĢÐ¾ÑĤÐ¸Ð²ÑĬ": 3113,
      "ĠÐ¿Ð¾Ð¼Ð¸Ð»": 3114,
      "ĠÐ»Ð°Ð²": 3115,
      "ĠÐ¿Ð»Ñ£": 3116,
      "ĠÐ¼Ð°ÑĤÐ¸": 3117,
      "ÑıÐ½Ðµ": 3118,
      "ĠÐ¿ÐµÑĢÐµÐ²": 3119,
      "ĠÐ¼Ð¸ÑĢÐ°": 3120,
      "Ð½Ð¸ÑħÑĬ": 3121,
      "ĠÐ½Ð°Ð¿ÑĢÐ°": 3122,
      "ĠÐ¼Ñ¹Ð¶": 3123,
      "ĠÐ³ÑĢÑ£ÑĪ": 3124,
      "ĠÑıÐºÐ¾Ð²": 3125,
      "ĠÐ±ÑĮÑİ": 3126,
      "ĠÐ¿ÑĢÐ°Ð²ÑĮ": 3127,
      "Ð¾ÑĪ": 3128,
      "ÑģÐºÑĸÐµ": 3129,
      "ÑģÑĤÐ²Ð¾Ð¼": 3130,
      "Ð°Ð¼ÑĬ": 3131,
      "Ð³Ð¾Ð²ÑĬ": 3132,
      "ĠÐ»ÑĬ": 3133,
      "ĠÑģÐ²Ñ£ÑĤÑĬ": 3134,
      "Ð¾Ð±Ñ£": 3135,
      "ĠÐ³Ð¾ÑĢÐ¾Ð´ÐµÑħ": 3136,
      "ĠÐ¸Ð²Ð°Ð½Ð¾Ð²Ð¸ÑĩÐ°": 3137,
      "ĠÑģÐµÑĢÐµÐ´": 3138,
      "ĠÐ²Ð¾ÑĤÑĩÐ¸Ð½Ð°": 3139,
      "ĠÐ¸Ð³Ð½Ð°": 3140,
      "ĠÐ±ÑĭÐ»": 3141,
      "ĠÑģÑĸÑ§": 3142,
      "ÑģÐºêĻĭ": 3143,
      "ĠÐ´Ð°Ð¸": 3144,
      "ĠÐ³Ð¾ÑĢÑ£": 3145,
      "ĠÑĤÐ°ÐºÐ¾Ðµ": 3146,
      "Ð¼ÑĮÑĢ": 3147,
      "ĠÑģÑĬÑģ": 3148,
      "ÑģÑĤÐ°Ð½Ð¸": 3149,
      "ĠÐ¼Ð¸ÑħÐ°Ð¸Ð»Ñĥ": 3150,
      "Ð½Ð¸ÑĤÑĮ": 3151,
      "Ð½Ð¸Ð¼Ð°": 3152,
      "ĠÐ·Ð»Ð°ÑĤÐ°": 3153,
      "ĠÐ²ÐµÐ»Ð¸ÐºÑĬ": 3154,
      "ĠÑģÑĭÐ½Ð¾Ð²Ðµ": 3155,
      "ÑģÐ»ÑĬ": 3156,
      "ÑĢÐ¾Ð¼ÑĬ": 3157,
      "ĠÑģÐµÐ»ÑĮ": 3158,
      "ÑĥÑĤÑĮ": 3159,
      "Ð´Ð¾Ð²": 3160,
      "ĠÐºÐ°ÑĢ": 3161,
      "Ð³Ð¾ÑģÐ»Ð¾Ð²": 3162,
      "Ð±Ð»": 3163,
      "ĠÐĶÐ°ÑĢÐ¸": 3164,
      "ĠÐµÐ¸": 3165,
      "ĠÐ°Ð¿Ð¾ÑģÑĤ": 3166,
      "ĠÐ´Ð¾Ð¿ÑĢÑıÐ¼Ð°": 3167,
      "Ð¾Ð»ÑİÐ±Ð¸": 3168,
      "ĠÑģÐ¸Ñı": 3169,
      "ĠÐ¶Ð¸Ð²Ð¾ÑĤÐ°": 3170,
      "ĠÐ¸Ð·Ð±Ð°Ð²": 3171,
      "ĠÐ¿Ð¾Ð¼ÐµÑīÐ¸": 3172,
      "ĠÐµÑģÑĤ": 3173,
      "ĠÐ´Ð°Ð¶Ðµ": 3174,
      "ĠÑģÑĸÐµ": 3175,
      "Ñ¡Ð¼": 3176,
      "ĠÐ²Ð¾Ð·Ð¼Ð¸": 3177,
      "ÑĤÑĢÐ°": 3178,
      "Ð¿Ð»": 3179,
      "Ð½Ð°êĻĹ": 3180,
      "ĠÐĴÐ¾Ð»": 3181,
      "ĠÑĦÑĥ": 3182,
      "Ð½Ð¸ÑĩÐµ": 3183,
      "ĠÐ¸Ð·Ñĭ": 3184,
      "Ð¾Ð²Ð¾Ñİ": 3185,
      "ĠÑĢÐ¾Ð¼": 3186,
      "ĠÑĤÐ¾Ð²Ð°ÑĢÑĭÑīÐ¸": 3187,
      "ĠÐ³ÑĮ": 3188,
      "ÑīÑĬ": 3189,
      "ĠÐ¸Ð¼Ðµ": 3190,
      "Ð±Ð¾Ñİ": 3191,
      "ĠÐ½Ð°Ð´Ðµ": 3192,
      "ÑīÐµÑĤ": 3193,
      "Ð½ÐµÐµ": 3194,
      "ĠÐ¢Ð¾Ð³Ð´Ð°": 3195,
      "ĠÑģÐ¿Ð¸ÑģÐ¾Ðº": 3196,
      "ĠÑĤÐ²Ð¾ÐµÐ¸": 3197,
      "ĠÑĤÐ°ÑĤÐ°ÑĢ": 3198,
      "ĠÑĩÑı": 3199,
      "ĠÐ¶ÐµÑĢÐµÐ±": 3200,
      "Ð±Ñ§": 3201,
      "ÐºÐ¾ÑĤÐ¾ÑĢ": 3202,
      "Ð³Ð»Ð¸": 3203,
      "ĠÐ±ÐµÐ»": 3204,
      "ĠÑģÑĭÑīÐµÑĤÑģÑı": 3205,
      "ÑģÑĤÐ¸ÑĤÑĮ": 3206,
      "ĠÐ²ÑģÐºÐ¾ÑĢ": 3207,
      "ÑĶÐ¼ÑĬ": 3208,
      "ĠÐ²ÑģÑ£Ñħ": 3209,
      "ĠÐºÐ°Ð¼ÐµÐ½ÑĮ": 3210,
      "Ð¼ÐµÑĤ": 3211,
      "ÑģÐ¿Ñ£": 3212,
      "ĠÐºÐ¾Ð¸": 3213,
      "ÑĦÑĬ": 3214,
      "ĠÑĤÐ²ÐµÑĢ": 3215,
      "ĠÐ¿Ð¾Ð³Ð¾": 3216,
      "Ð»Ð¸ÑĤÐ¸": 3217,
      "ĠÐ¿Ð¾ÐºÐ»Ð¾Ð½Ð¾": 3218,
      "ĠÐ´Ð½ÑĮ": 3219,
      "ĠÐ¼Ð¾Ñĥ": 3220,
      "ĠÐĺÐ¶Ðµ": 3221,
      "ĠÐ³ÑĢÐ°Ð´Ñĥ": 3222,
      "ÑĤÐ²Ð¾": 3223,
      "êĻĭÑĤÑĬ": 3224,
      "ĠÑĩÐ»Ð²": 3225,
      "Ð´Ð¾Ð¼ÑĬ": 3226,
      "ÑĩÐµÑĤÑĬ": 3227,
      "ĠÐ°Ð»Ðµ": 3228,
      "ĠÐ½Ð°ÑģÐ»Ñ£": 3229,
      "ĠÐ²Ð¸Ð½Ð¾Ð²Ð°": 3230,
      "ĠÑĢÐ°Ð·ÑĥÐ¼": 3231,
      "ÐµÐ´Ð¾Ð½": 3232,
      "ĠÑĤÑĢÐµÐ±": 3233,
      "ÑĢÐ°ÑĪÐ¸": 3234,
      "ĠÑĢÐ¾Ð´Ñĥ": 3235,
      "ĠÑĤÐ²Ð¾Ñ§": 3236,
      "ĠÐ²Ð¸Ð´Ñ£ÑĤÐ¸": 3237,
      "ĠÑıÐ²Ð»Ñı": 3238,
      "ĠÐ²Ð¿ÑĢÐµÐ´": 3239,
      "Ð³Ð¾Ð½": 3240,
      "ĠÐļÐ°ÐºÑĬ": 3241,
      "ĠÐ´ÑĢÑĥÐ³ÑĬ": 3242,
      "ĠÑĥÐ¶Ðµ": 3243,
      "ÑĢÐ¸Ð½Ð°": 3244,
      "ĠÑģÐ¸Ð´": 3245,
      "ĠÐ´Ð°Ð»Ð¸": 3246,
      "ĠÑĤÐ²Ð¾Ð¸ÑħÑĬ": 3247,
      "ĠÑĩÐµÑģÑĤÑĮ": 3248,
      "ÑĩÐºÐ¸": 3249,
      "ĠÐ¶ÐµÐ½": 3250,
      "ĠÐ±ÑĢÐ°ÑĪ": 3251,
      "ĠÐ¼Ð¸ÑħÐ°Ð¸Ð»Ð°": 3252,
      "ĠÐ±ÑĢÐ°ÑĤÑĥ": 3253,
      "ĠÑ§Ð·ÑĬ": 3254,
      "Ð¾Ð´ÐµÑĢ": 3255,
      "ĠÐ³ÑĢÑ£ÑħÑĬ": 3256,
      "Ð¿Ñģ": 3257,
      "Ð°Ð»Ñĥ": 3258,
      "ĠÑİÐ½Ð¾": 3259,
      "ĠÐ¾ÑģÐ¸": 3260,
      "Ð²Ð¸Ð´Ð¸": 3261,
      "ĠÐ¿Ð¾Ð³Ð°": 3262,
      "Ð°ÑħÑ«": 3263,
      "ĠÐĽÐ°Ð·Ð°ÑĢÐµÐ²Ð¸ÑĩÑĮ": 3264,
      "ÑĤÑĮÐµ": 3265,
      "ĠÐ²ÑĬÑģÐµ": 3266,
      "ĠÐºÐ¾ÑĢÐ°Ð±": 3267,
      "Ð¿Ð¾Ð²Ð°": 3268,
      "ĠÐĲÐ·": 3269,
      "êĻģÑĭ": 3270,
      "ĠÐ¿ÐµÑĤÑĢÐ°": 3271,
      "----": 3272,
      "ĠÐ²Ð·Ñĭ": 3273,
      "ĠÑħÐ¾ÑĩÐµ": 3274,
      "ĠÐºÑĮ": 3275,
      "ĠÐµÐ³Ð¾Ð¶Ðµ": 3276,
      "ĠÐ·Ð»Ð°ÑĤ": 3277,
      "Ð½Ð¸ÐºÐ¾Ð²ÑĬ": 3278,
      "ĠÑĢÐ°ÑĤÑĮ": 3279,
      "Ð²Ð¾Ð»Ð¸": 3280,
      "Ð·Ð½Ð°": 3281,
      "ĠÐ´Ñĸ": 3282,
      "ĠÐ°Ð»ÐµÐº": 3283,
      "Ð»Ð¸ÑģÑĮ": 3284,
      "ĠÐ»ÐµÑĤ": 3285,
      "ĠÑĨÐ°": 3286,
      "ĠÐĿÑ£": 3287,
      "ĠÐ¿ÑĬ": 3288,
      "Ð³Ð»": 3289,
      "ĠÐ¿Ð¾Ð´ÑĮÑı": 3290,
      "ĠÐ¸ÑģÑħÐ¾Ð´": 3291,
      "ĠÐ³ÑĢÑ£ÑĪÑĮ": 3292,
      "ĠÐ·Ð³Ð¾Ð²Ð¾ÑĢ": 3293,
      "ĠÐ±ÑĢÐ°ÑĤÑĬ": 3294,
      "ĠÐ¿Ñ§ÑĤÑĮ": 3295,
      "ĠÑĢÐµÐºÑĥ": 3296,
      "ĠÑģÑĮÑĢ": 3297,
      "ÑĢÐ¼": 3298,
      "ĠÐ²ÑĬÑģÐº": 3299,
      "ĠÐ·Ð°ÐºÐ¾Ð½": 3300,
      "ĠÐ²Ð¾Ð»Ñİ": 3301,
      "Ð¼ÐµÐ½Ðµ": 3302,
      "ĠÐ±ÑĥÐ´ÐµÑĪÐ¸": 3303,
      "ÐºÐ°Ñħ": 3304,
      "Ð¾Ð²ÑĭÑħÑĬ": 3305,
      "ĠÑģÐ²Ñ£ÑĤÐ°": 3306,
      "Ð¿êĻĭ": 3307,
      "ÐµÑħÐ°Ð»Ð¸": 3308,
      "ĠÐ¿Ð¾Ð»Ð¸": 3309,
      "ĠÑĢÑ¹Ðº": 3310,
      "ĠÐ¿ÑģÐº": 3311,
      "ĠÐºÑĢÐ°Ð»ÐµÐ²Ð½Ð°": 3312,
      "ĠÐ¾ÑĤÐ´Ð°ÑĤÐ¸": 3313,
      "ĠÐ¡ÐµÐ³Ð¾": 3314,
      "ÐµÑħÑĬ": 3315,
      "Ð°ÑĢÑ§": 3316,
      "ĠÑĪÐ°Ð½": 3317,
      "Ġ100": 3318,
      "ÑıÑĤÑģÑı": 3319,
      "ĠÐ¿ÑĢÐ¾Ð²": 3320,
      "ÐµÐ½ÑĮÑİ": 3321,
      "ÑģÑĤÐ²Ð¾Ð¼ÑĬ": 3322,
      "ĠÐ¸Ð·Ð²Ñ£": 3323,
      "ĠÐŀÑĥ": 3324,
      "ĠÐ¼ÐµÐ¶Ð¸": 3325,
      "êĻ½": 3326,
      "ĠÐ´Ñ£Ð»Ñ£": 3327,
      "ÑģÑĤÐ¾Ðº": 3328,
      "ĠÐ¼Ð°Ñģ": 3329,
      "ĠÐ½Ð°Ð¼Ðµ": 3330,
      "ĠÑĩÐµÑĤÐ²ÐµÑĢÐ¾Ð³": 3331,
      "ÑģÐ¸Ð¼": 3332,
      "ĠÐ±Ð¾Ð³Ð¾ÑĢÐ¾Ð´Ð¸ÑĨÑĭ": 3333,
      "Ð¸Ð²": 3334,
      "ÑĢÐ°Ð²ÑĮ": 3335,
      "ĠÑģÐ¸ÑĢ": 3336,
      "ĠÑĢÑĭÐ±": 3337,
      "ĠÐ¸Ð³ÑĥÐ¼ÐµÐ½Ñĥ": 3338,
      "ĠÐ¿Ñ¡": 3339,
      "Ð´Ñ«": 3340,
      "ĠÑĤÐ¾ÐºÐ¼Ð¾": 3341,
      "ĠÑģÑĤÐ¾Ð»ÑĮ": 3342,
      "Ð½ÑĸÑİ": 3343,
      "ĠÑģÐ¾Ð³ÑĢÑ£": 3344,
      "ĠÑĢÐ°Ñģ": 3345,
      "ĠÐ»ÑİÐ´ÐµÑħ": 3346,
      "ĠÐ²ÑĢÐµÐ¼Ñ§": 3347,
      "ĠêĻħ": 3348,
      "ĠÐŁÐµÑĤÑĢÑĬ": 3349,
      "ÑĪÐ°ÑģÑı": 3350,
      "Ð½êĻ¿": 3351,
      "ĠÑıÐ´ÑĢÐ¾": 3352,
      "ĠÑģÐ¸Ñħ": 3353,
      "ĠÑģÐ¸Ð»Ñĥ": 3354,
      "ĠÐ»ÑĥÐ³Ð¸": 3355,
      "Ð´ÐµÑģÑıÑĤ": 3356,
      "Ð¸Ð´Ð¾ÑĪÐ°": 3357,
      "ĠÐ¿Ð¸ÑĤ": 3358,
      "ÐºÑĢÑĭ": 3359,
      "ĠêĻĹÐ¶Ðµ": 3360,
      "ĠÐºÐ¾ÑĢÐ¼": 3361,
      "Ð½Ð¾Ð¼Ñ¹": 3362,
      "ÑĢÐµÐ¹": 3363,
      "ĠÑģÐ¸Ð»Ð°": 3364,
      "ÐºÐ°Ñ§": 3365,
      "Ñ¡Ð½Ð°": 3366,
      "Ð»ÑİÐ±Ð¸": 3367,
      "ĠÐ´Ñī": 3368,
      "ĠÐ¸Ð½Ð¾Ð³Ð¾": 3369,
      "ĠÐ´Ð¾Ð½Ð´ÐµÐ¶Ðµ": 3370,
      "ĠÑ±": 3371,
      "ĠÐ¿Ð¾Ð³ÑĢÐµ": 3372,
      "Ð¶ÐµÐ½ÑĮ": 3373,
      "ĠÐķÑģÑĤÑĮ": 3374,
      "ĠÐ±Ñ£Ñģ": 3375,
      "Ð¹ÑģÑı": 3376,
      "Ð¾Ð²ÑĭÐ¼ÑĬ": 3377,
      "ÑģÐ¼ÑĮ": 3378,
      "Ð³Ð°ÑĢÐ¸": 3379,
      "ÑĢÑ£Ð±": 3380,
      "ĠÐ´Ð½Ðµ": 3381,
      "ĠÐ¿ÑĢÐ¸ÑģÐ½Ð¾": 3382,
      "ĠÐ²ÑģÑ§ÐºÐ¾Ð¸": 3383,
      "ĠÐ¿Ð¸ÑĪ": 3384,
      "ĠÑģÐ¾Ð·Ð´Ð°": 3385,
      "ÒĨ.": 3386,
      "ÑģÑĤÐ²Ð¾Ð²Ð°": 3387,
      "Ð¸ÑĤÑĭ": 3388,
      "ĠÐ½Ð°ÑĪÐµÐ¼Ñĥ": 3389,
      "ĠÑģÑĸ": 3390,
      "Ð³Ðµ": 3391,
      "Ð²êĻĭ": 3392,
      "Ð¶Ð´Ð¾": 3393,
      "ÑĪÐ¸ÑģÑı": 3394,
      "ĠÐ¼ÑĭÑģÐ»Ð¸": 3395,
      "ĠÐ¸ÑģÐºÐ°ÑĤÐ¸": 3396,
      "ĠÐ²ÑģÐµÐ¼Ñĥ": 3397,
      "ÐµÐ¼Ð¾Ñĥ": 3398,
      "ĠÑħÐ»ÐµÐ±": 3399,
      "Ð²ÑĢÑĮ": 3400,
      "ÑĭÐ¸ÑħÑĬ": 3401,
      "ĠÐ¼Ð½Ð¾Ð·Ð¸": 3402,
      "ĠÐ²ÐµÐ·": 3403,
      "Ð¶Ñ£": 3404,
      "ĠÑĢÐ¾Ð´Ð¸ÑĤÐµÐ»": 3405,
      "ÐµÐ½Ñĥ": 3406,
      "ĠÑ¡Ðº": 3407,
      "ĠÐ±Ð¾Ð¶": 3408,
      "ĠÐľÐ¾ÑģÐºÐ²Ðµ": 3409,
      "Ð¼ÐµÐ½ÑĮ": 3410,
      "ĠÐ½Ñ«": 3411,
      "Ð·ÑĭÐ²Ð°": 3412,
      "ĠÐ¿ÑĢÐ¸ÐºÐ°Ð·Ñĥ": 3413,
      "ĠÑģÐ»ÑĥÐ¶Ð¸Ð»": 3414,
      "ĠÑĢÐµÐµ": 3415,
      "Ð¿ÑĢ": 3416,
      "ĠÐ½Ð½": 3417,
      "Ð½Ð¸ÐµÐ¼ÑĮ": 3418,
      "Ð»ÑİÐ±Ð»ÐµÐ½": 3419,
      "ĠÐ¶ÐµÐ½Ñ£": 3420,
      "ĠÐ¿ÑĢÐ¸ÑıÑĤ": 3421,
      "ĠÐºÐ¾ÑĢÐ¾Ð»ÑĮ": 3422,
      "ĠÐºÑĢÐµÑģÑĤÑĮÑıÐ½Ðµ": 3423,
      "ÑĦÐµ": 3424,
      "ÑĪÐ°ÑģÑ§": 3425,
      "ĠÐ¼Ð»ÑģÑĤÐ¸": 3426,
      "ĠÐ½Ñĥ": 3427,
      "ĠÐ¾Ð·": 3428,
      "Ð½Ð¸Ñħ": 3429,
      "ĠÐ¿Ð¾Ð»Ð¾Ð²Ð¸": 3430,
      "ÑĪÑĤÐ°Ð°Ð³Ð¾": 3431,
      "ĠÐºÐ¾Ð¶": 3432,
      "ÑİÑĪÐºÐ°": 3433,
      "ĠÐ´Ð²Ð¾ÑĢÐµ": 3434,
      "Ð½êĻĳÐ¸": 3435,
      "Ð»Ð¾Ñģ": 3436,
      "ĠÐ´ÑĢÑĥÐ¶": 3437,
      "ĠÐĲÐ»ÐµÐºÑģÐ°Ð½Ð´ÑĢÑĥ": 3438,
      "ĠÐºÑĥÐ·": 3439,
      "ĠÑĢÐ¾Ð¶Ðµ": 3440,
      "ĠÑ¡Ð¿": 3441,
      "ĠÐ±ÑĢÐ°Ð½ÑĮ": 3442,
      "ĠÐ³Ð»Ð°Ð²Ñĭ": 3443,
      "ĠÐ»Ð°ÑĤÐ¸": 3444,
      "ÑĩÐ¸Ð¼": 3445,
      "ĠÐºÐ½Ð¸Ð³Ð°": 3446,
      "ĠÐľÑĥÑĢÐ¾Ð¼ÐµÑĨÑĬ": 3447,
      "ĠÐ¿ÑĢÑĮ": 3448,
      "ĠÐ·Ð¼Ð¸": 3449,
      "ĠÑĤÑİÑĢ": 3450,
      "ĠÐºÑĢÑĮ": 3451,
      "Ð¹ÑĤÐµ": 3452,
      "ĠÐ³Ð¾Ð»Ð¾Ð²Ð°": 3453,
      "ĠÐ¼Ð¸ÑħÐ°Ð¸Ð»": 3454,
      "ĠÐ¥ÑĢÐ¸ÑģÑĤ": 3455,
      "Ð²ÐµÐ´Ðµ": 3456,
      "ĠÐ½Ð°Ð¼ÐµÑģÑĤ": 3457,
      "ĠÐºÐ»ÐµÐ²": 3458,
      "ĠÑ¿ÑĨ": 3459,
      "ĠÑĩÐ°Ð´Ð¾": 3460,
      "ĠÑ¡Ð²": 3461,
      "ĠÐºÐ°Ð·Ð½Ð°": 3462,
      "ĠÑģÐºÐ¾Ð½": 3463,
      "ĠÑ¡Ð³": 3464,
      "ĠÐ¿Ð¾ÑģÑĢÐµÐ´": 3465,
      "ĠÐ¼Ð°Ð»Ð°": 3466,
      "ĠÐ²ÐµÐ»ÑĮÐ¼Ð¸": 3467,
      "ĠÐķÑĢÑĥÑģÐ»Ð¾Ð½": 3468,
      "ĠÐ²Ð¼ÐµÑģÑĤÐ¾": 3469,
      "ĠÑĥÐ¼ÑĬ": 3470,
      "Ð¾Ð¶Ð´Ð°": 3471,
      "ĠÐ²Ð¸Ð´Ðµ": 3472,
      "ĠÐºÐ°Ð¼ÐµÐ½Ð¸": 3473,
      "Ð½ÑĮÑĸ": 3474,
      "ĠÑģÐµÑģÑĤ": 3475,
      "ÑĤÐ½Ð¾": 3476,
      "ĠÐ°Ð´Ð°": 3477,
      "ĠÐ²Ð»Ð°ÑģÑĤ": 3478,
      "ĠÑĩÑĢÐµ": 3479,
      "ĠÑģÑĥÐ´Ñĥ": 3480,
      "ĠÑģÑĢÐµÐ´": 3481,
      "ĠÑģÑĤÐ°ÑĤ": 3482,
      "ÑģÑĤÐ²Ñ¹": 3483,
      "ĠÐ¿ÑĢÑ£Ð´Ð°": 3484,
      "ĠÐ¸ÑģÐ¿Ð¾Ð»": 3485,
      "ĠÑĩÐµÐ»Ð¾Ð²Ñ£ÐºÐ°": 3486,
      "ĠÐ´ÑĢÑĥÐ¶Ð¸": 3487,
      "Ð½Ð¸Ð¼": 3488,
      "ĠÐ¿Ð¾ÑģÑ£": 3489,
      "ÑĪÑĤÑİ": 3490,
      "ĠÐ¿Ð¾ÑģÐ»ÑĥÑĪÐ°": 3491,
      "Ð½ÑĭÐ°": 3492,
      "Ð¿ÑĢÑ£": 3493,
      "ĠÐ¸Ð²Ð°Ð½Ð¾Ð²": 3494,
      "ĠÑģÐ½Ð°ÑĢÑıÐ´Ñĥ": 3495,
      "ĠÐ¾ÑĥÑĩ": 3496,
      "ĠÐ¿Ð»Ðµ": 3497,
      "ĠÐ½Ð¸ÑĩÑĤÐ¾Ð¶Ðµ": 3498,
      "ĠÐ»ÑİÐ±Ð¸": 3499,
      "Î±": 3500,
      "Ð»Ð¸Ð½Ð°": 3501,
      "ĠÐ¼êĻĳ": 3502,
      "Ð½Ñ£Ð¼ÑĬ": 3503,
      "ĠÐ¿Ð»Ð°ÐºÐ°": 3504,
      "ĠÐ´ÐµÑĤÐµÐ¼": 3505,
      "ĠÐ¾Ð´Ð¸Ð½": 3506,
      "ĠÑĢÐ°Ð±Ð°": 3507,
      "ĠÑĢÐ°Ð·Ð±Ð¾Ð¹": 3508,
      "ĠÐ»ÑİÐ±Ð¾Ð²ÑĮ": 3509,
      "ĠÐ±Ð»Ð¸Ð·": 3510,
      "Ð¾Ð½Ð¾Ñģ": 3511,
      "Ð»ÐµÐ½Ð°": 3512,
      "ĠÐ±ÑĥÐ´Ðµ": 3513,
      "ĠÑĢÑĥÐºÐ¸": 3514,
      "ĠÐ½Ð°Ð´Ñ£": 3515,
      "ĠÑĢÐ¾Ð±": 3516,
      "ÑĥÐ´Ñĥ": 3517,
      "ĠÑģÐµÐ¹": 3518,
      "ÑıÑģÑı": 3519,
      "ÑĩÐ¸ÑĤÑĮ": 3520,
      "ĠÐ³Ð»Ð°Ð³Ð¾Ð»Ð°ÑĤÐ¸": 3521,
      "ĠÐ±Ð»Ð°Ð³Ð¾ÑģÐ»": 3522,
      "ÑģÐ»Ð°Ð²Ð°": 3523,
      "ĠÑģÑĢÐµÐ±": 3524,
      "ĠÐ½Ð¾ÑīÑĮ": 3525,
      "ÑĩÐ¸ÑĤÑģÑı": 3526,
      "ĠÐ³ÑİÑĢ": 3527,
      "Ð¾ÑģÐ»Ð°Ð²": 3528,
      "ĠÐ²ÑģÑ§ÐºÐ¾Ðµ": 3529,
      "ĠÑģÐ°Ð¼Ð¾Ð³Ð¾": 3530,
      "ĠÐ¿ÐµÑĩÐ°ÑĤ": 3531,
      "Ð¸Ð²ÑĬ": 3532,
      "ĠÐ¿ÑĢÐµÑģ": 3533,
      "ĠÐ³Ð¾ÑĢÐ°Ð·": 3534,
      "Ġ9": 3535,
      "ĠÐ²ÑĭÐ±Ð¾ÑĢ": 3536,
      "ĠÑģÑĢÑ£": 3537,
      "ĠÐ¿ÐµÑĤÑĢ": 3538,
      "ÑıÐ·": 3539,
      "ĠÑ¡Ð½Ð¸": 3540,
      "ÐµÐ¼Ñ¹": 3541,
      "ĠÐ»ÐµÐ²": 3542,
      "ĠÐ¿Ð¾Ð»Ñı": 3543,
      "ÑħÑ«": 3544,
      "ÐµÑģÑĮ": 3545,
      "ÑĩÐ°Ð½": 3546,
      "ĠÐ½Ð¸ÐºÐ¾Ð»Ð¸": 3547,
      "ĠÐĴÐ»Ð°Ð´Ð¸Ð¼": 3548,
      "ĠÐ½Ð¾Ð³Ð°": 3549,
      "ĠÐ¾Ñĩ": 3550,
      "ĠÐ¶ÐµÐ½Ð¾Ñİ": 3551,
      "ĠÐ¿ÑĢÐ¸Ð»Ð¾Ð¶": 3552,
      "ĠÐºÐ½Ð¸Ð³Ð¸": 3553,
      "ĠÑĤÐ¾Ð¿Ð¾ÑĢ": 3554,
      "ĠÐ¿ÑĢÐ¸Ð±Ð»Ð¸": 3555,
      "ĠÑĩÐµÐ»Ð¾Ð²Ñ£ÑĩÐµ": 3556,
      "ĠÐ´Ð¾ÑĢÐ¾Ð³": 3557,
      "Ð½Ð¸Ð°": 3558,
      "Ð¶ÐµÑĤÑĮ": 3559,
      "ÑħÐ¾ÑĤÑ£": 3560,
      "êĻģÐ¸": 3561,
      "ĠÑģÐ¼ÐµÑĢÑĤ": 3562,
      "ĠÐ½Ð°Ð¿Ð¸ÑģÐ°Ð½Ð¾": 3563,
      "ĠÐ½Ñ£Ðº": 3564,
      "ĠÐ±Ð¾Ð»Ð³Ð°ÑĢ": 3565,
      "Ð¾Ñĩ": 3566,
      "ĠÐºêĻĳ": 3567,
      "ĠÑģÐ»Ð°Ð²Ñĭ": 3568,
      "ĠÐ´ÑĮÐ½ÑĮ": 3569,
      "ĠÑģÐ¸Ð¼ÑĬ": 3570,
      "Ð±Ð¸ÑĪÐ°": 3571,
      "ĠÐ³ÑĢÑ£ÑħÐ°": 3572,
      "ÐºÐ¸ÑĤÐ¸": 3573,
      "ĠÑ³ÐµÑ¡": 3574,
      "ĠÐ¸Ð²Ð°Ð½Ñĥ": 3575,
      "Ġ70": 3576,
      "ĠÑģÑĥÐ¿": 3577,
      "ĠÐĲÐ»Ðµ": 3578,
      "Ð»Ð°Ð²Ð¸": 3579,
      "ÐµÐ½ÑĸÐ¸": 3580,
      "ĠÐ¸Ð½ÑĭÑħ": 3581,
      "ĠÐ½ÐµÐ²": 3582,
      "ĠÐºÐ¾ÑĢÐ¼Ð¸": 3583,
      "ÑħÐ°ÑĤÑĮ": 3584,
      "ĠÐ¿Ð¾ÑģÐ»êĻĭ": 3585,
      "ĠÐ³Ð¾Ð²Ð¾ÑĢÐ¸ÑĤÑĬ": 3586,
      "Ð¸Ð»Ð¾Ñģ": 3587,
      "ĠÑĩÐ°Ð´Ð°": 3588,
      "ĠÑħÑĢÑģÑĤ": 3589,
      "ĠÑĤÐ¾Ñİ": 3590,
      "ĠÐ²Ñ£ÑĤ": 3591,
      "ĠÐ¿Ð¾ÑģÐ»Ñ£Ð´": 3592,
      "Ð²Ð¾Ñĥ": 3593,
      "ĠÐĴÐ¸Ð´Ñ£": 3594,
      "ĠÐ¶Ð¸Ð²Ñĥ": 3595,
      "ĠÐ¿ÑĥÑĤÑĮ": 3596,
      "ĠÐ²ÐµÐ»Ð¸ÐºÐ¸Ð¸": 3597,
      "ĠÑ¡ÑģÑĤÐ°Ð²": 3598,
      "ĠÐ²Ð¾Ð»Ð¸": 3599,
      "ĠÑĤÑĢÐµÑĤ": 3600,
      "Ñ©": 3601,
      "ĠÐ¿Ð¾ÐºÐ¾ÑĢ": 3602,
      "ĠÐºÑ¡": 3603,
      "Ð´Ð¾Ñİ": 3604,
      "ĠÐ²Ð¸Ð½Ð°": 3605,
      "ĠÐ³Ð»Ð°Ð²Ñĥ": 3606,
      "ĠÐ¿Ð°ÑĤÑĢÐ¸Ð°ÑĢÑħ": 3607,
      "Ð°ÑĢÐµ": 3608,
      "ĠÑģêĻĹ": 3609,
      "ĠÐ¸ÑĤÐ¸": 3610,
      "ĠÐ¼ÑĨ": 3611,
      "Ð½Ð¸ÑĨ": 3612,
      "ĠÐ¿ÑĢÑıÐ¼": 3613,
      "Ð¸ÑĤÐµÐ»Ð¸": 3614,
      "ĠÑĢÑĥÑģÑĮ": 3615,
      "ĠÐ¿Ð¸ÑīÐ°Ð»ÑĮ": 3616,
      "ÐµÑĢÑĥ": 3617,
      "ÑģÐºÐµ": 3618,
      "ĠÐ»ÐµÐ¶": 3619,
      "ÑĩÐµÑİ": 3620,
      "Ð½Ñ£Ðµ": 3621,
      "ĠÐ¿Ð¸ÑĤÑĮ": 3622,
      "ÑģÐºÑĸÐ¸": 3623,
      "ĠÐ»ÑİÐ´ÑĸÐµ": 3624,
      "ÑĢÑ¡": 3625,
      "Ð°Ð²ÑĪÐµ": 3626,
      "ĠÐ¼ÐµÑĩ": 3627,
      "ĠÐ½Ð¾Ð²Ð°": 3628,
      "ĠÐ¿Ð¾Ð³Ð¸Ð±": 3629,
      "ĪĻ": 3630,
      "ĠÑģÐµÐ¼Ñĥ": 3631,
      "ĠÐ¿ÑĢÐ¸Ð»Ñ£": 3632,
      "ÑĢÐ¸ÑĩÑĮ": 3633,
      "ĠÐ³Ð¾ÑģÐ¿Ð¾Ð´ÑģÑĤÐ²Ð¾": 3634,
      "ĠÐºÐ°Ð·Ð½Ð¸ÑĤÐ¸": 3635,
      "Î¿": 3636,
      "ÑµÐ¿": 3637,
      "Ñ§ÑĤÐµ": 3638,
      "ĠÐ½Ð°Ð¼Ñ£": 3639,
      "ĠÐĶÑĥ": 3640,
      "ĠÐ¥ÑĢÐ¸ÑģÑĤÐ°": 3641,
      "ĠÑģÐµÑĢÐµÐ±": 3642,
      "ĠÐ½Ð°ÑĢÐ¸ÑĨÐ°": 3643,
      "ĠÐºÐ»ÑİÑĩ": 3644,
      "ĠÐ¿ÑĢÐ¿Ð±": 3645,
      "ĠÐĴÑģ": 3646,
      "ĠÐ²Ñ£ÑĢÐ¾Ñİ": 3647,
      "ĠÐ²ÑģÑ§ÐºÐ¾Ð¼Ñ¹": 3648,
      "Ð¼ÑĭÑĪ": 3649,
      "ĠÐ½Ð¸Ð¼ÑĮ": 3650,
      "ĠÐ¿Ð¾Ð´Ð¾Ð±Ð½Ð¾": 3651,
      "ĠÐºÑ¹Ð¿": 3652,
      "ĠÐºÐ¾ÑģÐ°": 3653,
      "ĠÐºÐ¾Ð³Ð´Ð°": 3654,
      "Ð³Ð¾Ðµ": 3655,
      "ĠÐ´ÑĥÐ±": 3656,
      "ĠÐ¶Ð°Ð»Ð¾Ð²": 3657,
      "ĠÐ³ÑĢÑĬ": 3658,
      "ÐµÑģÐ°": 3659,
      "ÑĹÑİ": 3660,
      "ĠÐ±Ð¾Ð¶Ðµ": 3661,
      "Ð¾Ð²Ñ£ÑĢ": 3662,
      "ĠÐ¿Ð¾ÑģÑĭÐ»Ð°": 3663,
      "ĠÐ¡Ð°Ð¼": 3664,
      "ĠÐµÐ²": 3665,
      "ĠÑĥÐ³Ð¾Ð´ÑĮÐ¸": 3666,
      "ĠÐºÐ¾ÑĤÐ¾ÑĢÑĭÑı": 3667,
      "Ð·Ð°Ð¼Ð¸": 3668,
      "ĠÑģêĻĳ": 3669,
      "ĠÐ»ÑİÐ´Ð¼Ð¸": 3670,
      "ĠÐ¿Ð¾Ð´Ð¾Ð±Ð°ÐµÑĤ": 3671,
      "ÑĢÐ¸Ð½": 3672,
      "ĠÐºÑĥÐ´Ñĭ": 3673,
      "ĠÐ³Ð»Ðµ": 3674,
      "Ð½Ð¾Ð¼êĻĭ": 3675,
      "Ð°Ð½Ð¾Ð²": 3676,
      "ĠÐŀÑĤÑĬ": 3677,
      "ĠÐ±Ð»Ð°Ð³Ð¾Ð´": 3678,
      "ÑīÐµÐ¸": 3679,
      "ÐºÑ«": 3680,
      "ĠÐ²ÐµÐ»Ð¸ÐºÐ¾Ðµ": 3681,
      "ĠÐ¸Ð¼ÐµÐ½Ð¸": 3682,
      "ĠÐ²Ð¾Ð»Ð¾Ð´Ð¸Ð¼ÐµÑĢÑĬ": 3683,
      "ĠÑģÐ²ÑıÑīÐµÐ½": 3684,
      "ÑģÐºêĻĳ": 3685,
      "ÑĢÐ¸ÑĤ": 3686,
      "ĠÐ¿Ð°ÐºÐ¾": 3687,
      "ĠÑĩÐµÐ»Ð¾Ð²ÐµÐºÑĥ": 3688,
      "Ð¾Ð»Ð¾Ð¼": 3689,
      "ĠÑĦÐ¸Ð»Ð¸": 3690,
      "ĠÐ¿Ð¾ÑĪÐ»Ð¸Ð½Ñĭ": 3691,
      "ÑĪÐ¸Ð¼": 3692,
      "ĠÑĢÑĥÐ±Ð»ÑĮ": 3693,
      "ÑİÑĩÐ¸": 3694,
      "Ð½ÑĮÑİ": 3695,
      "ÐµÐ·ÑĬ": 3696,
      "Ð°ÑĤÐµ": 3697,
      "ĠÑĪÐ¸ÑĢÐ¾Ðº": 3698,
      "ĠÐ½Ð¾Ð²Ð³Ð¾ÑĢÐ¾Ð´ÑĮ": 3699,
      "ĠÐ¸Ð¼ÑĮ": 3700,
      "ĠÑģÐ½Ñ£": 3701,
      "ĠÐŁÐ°": 3702,
      "ĠÐ¿Ð¾Ð¶Ð¸": 3703,
      "Ð³Ð´Ñĭ": 3704,
      "ĠÐ¿ÑĢÑ£Ð¼": 3705,
      "ĠÑĤÑĢÐµÑĤÐ¸": 3706,
      "ĠÐ´ÑĢÑĮ": 3707,
      "ĠÐŁÑĢÐ¾": 3708,
      "ĠÐºÐ¾Ð½ÑĨÐ°": 3709,
      "ĠÐ½Ð°ÐºÐ°Ð·Ð°Ð½Ð¸Ðµ": 3710,
      "ÑıÑħÑĥ": 3711,
      "ĠÐĲÐ¼Ð¸": 3712,
      "ĠÐ·Ð»Ð¾Ð±": 3713,
      "ÑĪÐµÑİ": 3714,
      "ĠÐ±ÑĭÐ²": 3715,
      "ĠÐļÑĬ": 3716,
      "ĠÑĤÑ£Ð»ÐµÑģ": 3717,
      "ĠÑģÐ¿Ð¸": 3718,
      "ĠÐ¼Ð½Ð¾Ð¶ÐµÑģÑĤÐ²Ð¾": 3719,
      "ÑĭÐ½Ðµ": 3720,
      "ĠÐ¶ÐµÐ·": 3721,
      "ĠÑĪÐµÐ»": 3722,
      "ÐµÐ²ÑĮ": 3723,
      "Ð´Ð¾Ñħ": 3724,
      "ĠÑģÐ¿ÑĢÐ°ÑĪÐ¸": 3725,
      "ĠÐ³Ð½Ñ£Ð²ÑĬ": 3726,
      "ĠÐ±ÑĢÐµ": 3727,
      "Ð½Ñ£ÑħÑĬ": 3728,
      "ĠÐ¡Ð»Ñĭ": 3729,
      "ĠÐºÐ¾ÑĥÐ½Ð¾": 3730,
      "ĠÑĨÐµÑĤÐ²ÐµÑĢ": 3731,
      "ĠÑĢÑ«": 3732,
      "ĠÑģÐ²Ð¾ÐµÐ¼ÑĮ": 3733,
      "ĠÑ¡Ð½ÑĬ": 3734,
      "ĠÐ³Ñ¹": 3735,
      "ĠÐ¿ÑĢÐ¸Ð»Ðµ": 3736,
      "ĠÑģÐ»ÑĭÑĪÐ°Ð²ÑĬ": 3737,
      "È¥": 3738,
      "ĠÑĥÐ¼ÐµÑĢ": 3739,
      "ĠÐ¿Ð°Ð¼ÑıÑĤÐ¸": 3740,
      "ĠÐ²Ð¾Ð·Ð²ÑĢÐ°ÑĤÐ¸": 3741,
      "ĠÑĤÐ¾Ð²Ð¾": 3742,
      "ĠÐļÐ½Ñı": 3743,
      "ĠÐ»ÐµÑģÑĭ": 3744,
      "Ð²Ð°Ð½Ð°": 3745,
      "Ð¾Ð±ÑĢÐ°": 3746,
      "Ð°ÐºÑĥ": 3747,
      "ĠÐ¢ÑĬ": 3748,
      "ĠÑĪÑĥ": 3749,
      "ĠÐ¿ÐµÑĢÐµÑģ": 3750,
      "ĠÐ¿Ð¾Ð³ÑĥÐ±": 3751,
      "ÐºÐ¾Ð¼ÑĮ": 3752,
      "ĠÐ½Ð°Ð¹": 3753,
      "ÑīÐ¸Ð¼ÑĬ": 3754,
      "ĠÑĤÐ°ÐºÐ¾Ð¹": 3755,
      "ĠÑģÑĤÑĢÐµÐ»": 3756,
      "ĠÑĤÐ²Ð¾ÑĢÐ¸": 3757,
      "ĠÐ°Ð»Ð¸": 3758,
      "Ð¶ÑĥÑĤ": 3759,
      "ĠÐ¿ÑĢÐ¸Ð¸Ð´Ðµ": 3760,
      "ĠÐ½Ð¾ÑīÐ¸": 3761,
      "Ð½Ð¸ÐºÑĭ": 3762,
      "Ð³Ð°ÑĤÐ¸": 3763,
      "ĠÑħÐ°": 3764,
      "ĠÐ¾ÑģÐ¾Ð±": 3765,
      "ĠÐ´Ñ£Ð»ÑĬ": 3766,
      "Ð»ÐµÐ½Ñĭ": 3767,
      "ĠÐ²Ñĸ": 3768,
      "ĠÐ´ÑĥÑĪÐ¸": 3769,
      "ĠÐ¶Ð¸ÑĤÑĮ": 3770,
      "ĠÑ¡Ð±ÑĢÑ£": 3771,
      "ĠÐ¾ÑģÐ°": 3772,
      "Ð¿ÑĢÐ¸": 3773,
      "ĠÐľÑĥÑĢÐ¾Ð¼ÐµÑĨÑĮ": 3774,
      "ĠÐ¿ÑĥÑĪÐµ": 3775,
      "ĠÐ²ÑģÑ§ÐºÐ¾Ð¼ÑĬ": 3776,
      "ĠÐ²Ð°ÑģÐ¸Ð»ÑĮÐµÐ²Ð¸ÑĩÐ°": 3777,
      "ĠÐ¿ÑĢÐ¾Ð¼ÐµÐ¶": 3778,
      "Ð°ÑĢÑİ": 3779,
      "Ð½ÐµÐ¼Ñĥ": 3780,
      "ĠÐ¿Ð¾Ð¿Ð°": 3781,
      "ÑĮÐ¼": 3782,
      "ĠÐ¿ÑĢÐ¸Ð²Ð¾Ð´": 3783,
      "ĠÐ¼Ð¸ÑĤÑĢÐ¾Ð¿": 3784,
      "ĠÐºÐ½Ñ§Ð·Ñİ": 3785,
      "ÑīÐ¸ÑħÑĬ": 3786,
      "ĠÐ½Ð°ÑĩÐ°ÑĪÐ°": 3787,
      "ĠÐ³Ð»Ñĥ": 3788,
      "ÑĪÐ°Ñı": 3789,
      "ĠÐ¼Ð¾ÑģÐºÐ²Ðµ": 3790,
      "ĠÐ¾Ð±ÑĭÑģÐº": 3791,
      "ĠÑĢÑĥÐ±Ð»Ñı": 3792,
      "ĠÐ¿ÑĢÐ¾ÑĪ": 3793,
      "Ð»Ð°ÑģÑĮ": 3794,
      "ĠÐ³Ð¾ÑĢÑĭ": 3795,
      "Ð°Ð³Ð°": 3796,
      "ĠÐ¸Ð´Ñĥ": 3797,
      "Ð¾ÑĤÐµ": 3798,
      "ĠÐ°Ð½Ð³": 3799,
      "ĠÐ²Ð·ÑıÑĤÑĮ": 3800,
      "êĻģÑ£": 3801,
      "ĠÐ´ÐµÐ½ÐµÐ³": 3802,
      "ĠÐ¼Ð¸Ð¼Ð¾": 3803,
      "ĠÐ³Ð»Ð°Ð³Ð¾Ð»Ñı": 3804,
      "ĠÑģÐ¼ÐµÑĢÑĤÑĮ": 3805,
      "ĠÐ²Ð°Ð²": 3806,
      "ĠÑĤÐ²Ð¾ÐµÐ¼Ñĥ": 3807,
      "ĠÐ¾Ð³Ð½ÑĮ": 3808,
      "Ð¿Ð¸ÑģÐ¸": 3809,
      "ÑīÐ¸Ñħ": 3810,
      "ĠÐ³Ð¾ÑĢÐµ": 3811,
      "ĠÑĩÑĮÑĤÐ¾": 3812,
      "ĠÑģÐµÑĢÐµÐ±ÑĢÐ°": 3813,
      "ĠÑĢÑĭÑĨÐµÑĢ": 3814,
      "Ð°ÑĢÑĥ": 3815,
      "Òĩ.": 3816,
      "ÑĩÐ°Ð»": 3817,
      "ĠÐ·ÐµÐ¼Ð»ÑĮ": 3818,
      "ĠÑģÑĤÐ¾ÑĢÐ¾Ð½Ñĭ": 3819,
      "ĠÐ¾Ð±Ðµ": 3820,
      "ĠÐºÐ¾Ðµ": 3821,
      "ĠÐ²ÐµÐ»ÐµÐ½Ð¾": 3822,
      "ĠÐ¾ÑĨ": 3823,
      "ĠÐ½ÐµÑģ": 3824,
      "ÑĪÐµÐ½Ð¸Ðµ": 3825,
      "ĠÑ¿Ð´Ð°": 3826,
      "ĠÑĩÐµÑĤÐ²ÐµÑĢÐ¾Ð³ÑĢÐ°Ð½": 3827,
      "Ð¼Ð¶Ðµ": 3828,
      "ÑĤÐ¸Ð½Ñĥ": 3829,
      "ĠÐŁÐ¾Ð»": 3830,
      "ÑĤÐ²Ñĭ": 3831,
      "Ð¿Ð¾ÑĢ": 3832,
      "ĠÐŁÐµÑĢ": 3833,
      "ĠÐ²Ð²ÐµÑĢ": 3834,
      "ĠÐºÐ½ÑıÐ³": 3835,
      "Ð½Ð¸ÑĨÑĥ": 3836,
      "ĠÑģÐºÐ¾Ð»ÐºÐ¾": 3837,
      "ĠÐºÑĢÐ¾Ð²ÑĮ": 3838,
      "Ñ§ÑīÐ°": 3839,
      "ĠÑĢÐ°ÑģÑĤ": 3840,
      "ĠÐĳÑĭ": 3841,
      "ĠÐ»ÐµÐ¶Ð°": 3842,
      "ĠÑĥÐ±Ð¾Ð³": 3843,
      "Ð¸ÑģÑı": 3844,
      "ĠÐ±ÑĢÐ¾Ñģ": 3845,
      "Ð±Ð»Ð°": 3846,
      "Ð¾Ð»Ñĭ": 3847,
      "ĠÐĶÐ°Ð½Ð¸": 3848,
      "ĠÐ¿Ð¾Ð¼ÑĭÑģÐ»Ð¸": 3849,
      "ĠÐ²ÐµÐ»Ð¸ÐºÑĥÑİ": 3850,
      "ÑĪÐ¾Ñĥ": 3851,
      "ĠÐ²Ð¸Ð´Ñı": 3852,
      "ĠÐ¿Ð°ÑĪ": 3853,
      "ĠÑĨÐµÑĢÐºÐ¾Ð²": 3854,
      "ĠÑĢÐ°Ð´Ð¾ÑģÑĤÑĮ": 3855,
      "ĠÐ´Ð°Ð½ÑĮ": 3856,
      "Ð½Ñ£Ð¹": 3857,
      "ĠÑĩÐ°ÑģÑĤÐ¸": 3858,
      "ĠÑĤÑĢÐ¾Ð¸": 3859,
      "ÑĤÑģÑ§": 3860,
      "ÑħÑĭ": 3861,
      "Ð±ÐµÐ¶": 3862,
      "ĠÑģÑĢÐ´": 3863,
      "Ð¾ÑĥÐ¼Ñ£": 3864,
      "ĠÐ´Ð²ÐµÑĢ": 3865,
      "ĠÐ³Ð¾ÑģÑĤÑĮ": 3866,
      "ĠÐ¿Ð¾ÑĪÐ»Ð¸Ð½": 3867,
      "Ð½Ð¸Ð¼ÑĬ": 3868,
      "ĠÑĢÑ£ÑĪÐ°": 3869,
      "ÑĪêĻĻ": 3870,
      "ÑĪÐ¸ÑĤÑĮ": 3871,
      "ĠÑ¡Ð´": 3872,
      "Ð²ÑĭÐ¹": 3873,
      "ĠÐ´Ð¾Ð¿ÑĢÐ°Ð²Ð¸ÑĤÐ¸": 3874,
      "ĠÑģÑĤÐ°ÑĤÑĮÐ¸": 3875,
      "ĠÑ¯": 3876,
      "ĠÐ¸Ð½Ð°": 3877,
      "ĠÐ±Ñ§": 3878,
      "Ð´Ð¸Ð½Ð°": 3879,
      "ĠÐºÑĢÐ¾Ð¼Ñ£": 3880,
      "ĠÑĢÐµÐºÐ¾ÑĪÐ°": 3881,
      "ĠÑģÐ²Ðµ": 3882,
      "ĠÐ¼ÐµÑģÑı": 3883,
      "ĠÑħÐ¾Ð´Ð¸": 3884,
      "ÑģÑĤÐ½Ð¾": 3885,
      "ĠÐ±Ð³Ð°": 3886,
      "ÑĦÐ°Ð½": 3887,
      "ĠÐ´Ñ£Ð»Ñĥ": 3888,
      "ĠÑıÐ·ÑĭÐºÑĬ": 3889,
      "ĠÑĥÑģÑĤÐ°Ð²": 3890,
      "ĠÐ¿ÑĢÐ¸ÐºÐ°Ð·Ðµ": 3891,
      "ĠÐ¼ÐµÐ»": 3892,
      "Ð¿Ñ¹": 3893,
      "ĠÐ¾Ð±Ð¾Ð·": 3894,
      "ĠÐĽÑİ": 3895,
      "ĠÑħÐ¾Ð»Ð¾Ð¿Ð¸": 3896,
      "ĠÐºÐ¾Ð»Ñ£": 3897,
      "Ð³ÑµÐ¿": 3898,
      "ÑħÐ°ÑĤÐ¸": 3899,
      "ĠÐ¿Ð¾Ð¶Ð°Ð»Ñĥ": 3900,
      "ĠÐ¸Ð³ÑĥÐ¼": 3901,
      "Ð¶Ð´Ñĭ": 3902,
      "ĠÐ¿ÑĢÐ¾Ð·": 3903,
      "ĠÐ»Ð¾": 3904,
      "Ð´Ð°Ð²": 3905,
      "ĠÐ°ÑĢÑħÐ¸Ðµ": 3906,
      "ÑĩÐ¸Ð½Ñĭ": 3907,
      "ĠÐ³Ð¾Ð»Ð¾Ð²Ñĭ": 3908,
      "ĠÐ´Ð°Ð»ÐµÑĩÐµ": 3909,
      "ÑĩÑĤÐ¾": 3910,
      "ĠÐ·Ð°Ð´": 3911,
      "ĠÐ²ÐµÐ»Ð¸ÐºÐ¾": 3912,
      "ĠÑħÐ¸ÑĤÑĢÐ¾ÑģÑĤÐ¸": 3913,
      "ĠÐ¿Ð¾Ð¿ÐµÑĢÐµ": 3914,
      "Ð¾ÐºÐ¸": 3915,
      "ĠÐ³Ð¾ÑģÐ¿": 3916,
      "ĠÐ²Ð¾Ð·ÑĢÐ°": 3917,
      "ĠÐ½Ñ£ÑĤÑĬ": 3918,
      "ĠÐ¿Ð»Ð¾Ð´": 3919,
      "ĠÐ±Ð¾Ñİ": 3920,
      "ĠÑĤÐ°ÑĤÑĮ": 3921,
      "ĠâĪĻ": 3922,
      "ÑĢÐ¾Ð´": 3923,
      "Ð´Ð°Ð½": 3924,
      "ĠÐĲÐ·ÑĬ": 3925,
      "ÑĤÐ°Ð½": 3926,
      "ĠÐ¾ÑģÑĤÐ°": 3927,
      "Ð¾Ð±Ð¸": 3928,
      "ÑĢÑ£ÑĤÐ¸": 3929,
      "ĠÐ²ÑĮÑģ": 3930,
      "Ġâ¸±": 3931,
      "Ñ§Ð»ÑĬ": 3932,
      "ĠÐ°Ð¼Ð¸": 3933,
      "ĠÐ¿Ð¾Ð²Ð¸Ð½": 3934,
      "Ð·Ñİ": 3935,
      "ĠÐ¿Ð¾ÑħÐ¾Ð´": 3936,
      "ÐµÐ½Ñĸ": 3937,
      "ĠÐ¸ÑģÐ¿ÑĢÐ°Ð²": 3938,
      "ĠÐ¼Ð¾ÐµÐ¸": 3939,
      "ĠÑģÑĸÐ°": 3940,
      "ĠÐ½ÐµÐ±Ð¾": 3941,
      "ĠÑ¡Ð»": 3942,
      "ÑĪÐµÐµ": 3943,
      "ĠÑģÐ¾ÑħÐ°": 3944,
      "ĠÐ²Ñ£ÑģÑĤÑĮ": 3945,
      "ĠÐ½Ñ£ÐºÐ¾Ðµ": 3946,
      "ĠÐºÐ»Ð°Ð½Ñ§": 3947,
      "ÐµÑģÑĬ": 3948,
      "ÑĨÑ£ÑħÑĬ": 3949,
      "ÑĪÑ£": 3950,
      "Ð±ÑĸÐµ": 3951,
      "ĠÐ´Ð°ÑĤÑĮ": 3952,
      "ĠÐ±Ð¾Ð³Ð¾Ð¼": 3953,
      "ÑĢÐ¾ÑĤÐ¸Ð²": 3954,
      "ĠÐ¿Ð¾Ð»Ñİ": 3955,
      "ĠÑĢÐµÑĩÐ¸": 3956,
      "ĠÐ²Ñ£ÐºÐ°": 3957,
      "ĠÑĨÐ°ÑĢÑģÑĤÐ²Ð°": 3958,
      "ĠÑģÑĤÐ°ÑĢÑ£": 3959,
      "ĠÐ²ÑĢÐµÐ¼ÐµÐ½Ð¸": 3960,
      "ĠÐ´ÐµÑĢÐµÐ²Ð½ÑıÐ¼Ð¸": 3961,
      "ÑĤÑĨÐ°ÑĤÑĮ": 3962,
      "Ð½Ð¾Ð²Ðµ": 3963,
      "ÑĩÐµÐ½Ñĭ": 3964,
      "ĠÑĥÑĩÐµ": 3965,
      "ĠÐ¿ÑĢÐ¸Ñı": 3966,
      "ĠÐļÑĤÐ¾": 3967,
      "ĠÐºÑĢÑĥÐ¶": 3968,
      "ÑģÑĤÑĭÐ½Ñİ": 3969,
      "ĠÐºÐ¸ÐµÐ²": 3970,
      "ĠÑĤÐ¾Ð¶Ðµ": 3971,
      "ÑħÐ¾ÑĤ": 3972,
      "ĠÐµÐ»": 3973,
      "ĠÐ²Ð°ÑģÐ¸Ð»ÑĮÑı": 3974,
      "ÑģÑĤÑ«": 3975,
      "ĠÐµÑģÑĤÑĬ": 3976,
      "ĠÐ´Ð¾Ñĩ": 3977,
      "ÑµÑģÐµ": 3978,
      "ĠÑģÐ²Ð¸Ð½": 3979,
      "ĠÑ£ÐºÐ¾": 3980,
      "ĠÐ¾Ð´Ðµ": 3981,
      "ĠÐ±Ð¾ÑĢÐ¸ÑģÐ°": 3982,
      "ĠÑĩÐ¸Ð½Ð¾Ð²": 3983,
      "Ð»Ð¸ÐºÐ°": 3984,
      "Ð°Ð²Ð¸": 3985,
      "Ð´ÑĨÐ°ÑĤÑĮ": 3986,
      "ÑģÑĤÐ°ÑĤ": 3987,
      "ĠÐ²ÐµÐ»Ð¸ÐºÐ¾Ñİ": 3988,
      "Ð½ÐµÑĤÑĬ": 3989,
      "ĠÐ¶Ð¸ÑĤÐ°": 3990,
      "ĠÑĤÐµÐ¿": 3991,
      "ĠÑĤÐµÐ¼Ð¸": 3992,
      "ĠÐ¶Ð¸Ð²Ð¾ÑĤÑĬ": 3993,
      "ĠÐºÐ½ÑĥÑĤ": 3994,
      "ĠÐ»Ñ§": 3995,
      "ĠÑĢÐ°Ð·êĻĭ": 3996,
      "ĠÑģÑĤÑĢÐ°ÑħÑĬ": 3997,
      "ĠÐ½Ð¾Ð²ÑĬ": 3998,
      "ĠÐ¿Ð¾Ð¼ÐµÑģÑĤÑĮÐµ": 3999,
      "Ð¸Ð´ÐµÑĤÑĮ": 4000,
      "ĠÐºÑĢÐ¾Ð²": 4001,
      "ĠÐ¿ÑĢÑĸÐ¸Ð´Ðµ": 4002,
      "ĠÐ¸Ð¾ÑģÐ¸": 4003,
      "ĠÐ¾Ð¿ÑĢÐ¸ÑĩÑĮ": 4004,
      "ĠÐ´Ð¸Ñı": 4005,
      "ÑĪÐ¸ÑĤ": 4006,
      "ĠÐ½ÐµÑİ": 4007,
      "ĠÐ½Ð¸Ð·": 4008,
      "ĠÑ¹Ð¼": 4009,
      "ÑĭÑ§": 4010,
      "ÑĪÐµÐ¸": 4011,
      "ÐµÑĤÑĮÑģÑı": 4012,
      "ĠÑĢÐ°Ð´Ð¾ÑģÑĤÐ¸": 4013,
      "ĠÐ¾ÑĥÐ±Ñ¡": 4014,
      "Ð´êĻĳ": 4015,
      "ÑģÑĤêĻĳ": 4016,
      "Ð³Ð½Ñ£": 4017,
      "ĠÐ¿Ð¾Ð¸Ð¼Ð°": 4018,
      "ĠÑħÐ²Ð°Ð»Ð¸": 4019,
      "ĠÐ´ÑĥÐ¼": 4020,
      "Ð¶ÐµÑĤÑĬ": 4021,
      "ĠÐ·Ð°Ð¿Ð¾Ð²Ñ£Ð´Ð¸": 4022,
      "ÑīÑ¹": 4023,
      "ĠÐŀÐ½ÑĬ": 4024,
      "ĠÑģÑĮÑĢÐ´ÑĮ": 4025,
      "ÑģÑĤÐ¾Ð²": 4026,
      "ĠÐ²ÐµÐ»Ð¸ÐºÐ¸Ð¼ÑĬ": 4027,
      "ĠÐ¿ÑĢÑĢ": 4028,
      "ÑĤÐ¾Ð½": 4029,
      "ĠÑĥÐ²Ð¸": 4030,
      "ĠÐºÐ¾ÑĤÐ¾ÑĢÐ°Ñı": 4031,
      "ĠÐ²ÐµÐ»Ð¸ÐºÐ¾Ð¹": 4032,
      "ĠÐ¿Ð¾Ð»ÑĮ": 4033,
      "ĠÑģÐ¾ÑģÑĤÐ°Ð²": 4034,
      "ĠÐºÐ°Ð·Ð°ÐºÑĬ": 4035,
      "ĠÐ´Ð¾Ð±ÑĢÐ¾Ð´Ñ£": 4036,
      "ĠÐ¼Ð¾Ð»Ð¸": 4037,
      "Ð¶Ñ§": 4038,
      "ĠÐ²Ð»Ð°ÑģÑĤÑĮ": 4039,
      "ĠÐĿÐ¸Ðº": 4040,
      "ĠÐ¿ÑĭÑĤÐ°": 4041,
      "ĠÐĳÐ»Ð°": 4042,
      "ĠÐ¾ÑĩÐ¸Ð¼Ð°": 4043,
      "ĠÐĴÐ»Ð°Ð´Ð¸Ð¼Ð¸": 4044,
      "Ð»Ñĸ": 4045,
      "ĠÐ½Ð°Ð·Ð°": 4046,
      "Ð²Ð°ÑĢ": 4047,
      "ĠÑģÐ¸Ñİ": 4048,
      "ĠÐ¿Ð¾ÑĤÑı": 4049,
      "ĠÑģÑĤÑĥÐ¿": 4050,
      "Ð¾Ð±Ð°": 4051,
      "ĠÐºÐ½Ñ§Ð·Ñ§": 4052,
      "ĠÐ½Ð°Ð·": 4053,
      "ĠÐ¡ÑĭÐ½Ñĥ": 4054,
      "ÑĪÐ¾": 4055,
      "Ð¾Ð¼Ñĭ": 4056,
      "ĠÑĤÐ²Ð¾Ð¸Ð¼ÑĬ": 4057,
      "ĠÑĤÐ°Ð¹": 4058,
      "ÑĢÐµÑĤ": 4059,
      "ĠÐ³Ð»Ñ£": 4060,
      "ĠÐ´Ð¾Ð¼êĻĭ": 4061,
      "ĠÑģÐ¼Ð¾ÑĤÑĢÑı": 4062,
      "Ð½ÐµÑĨÑĬ": 4063,
      "ĠÐ¾ÑĤÐ²ÐµÑĤÑĩÐ¸Ðº": 4064,
      "ĠÐ²ÑģÐµÐ³Ð´Ñĭ": 4065,
      "ĠÐ±Ñ£Ð»Ñĭ": 4066,
      "ĠÑģÐ¾ÑĤÐ²Ð¾ÑĢÐ¸ÑĤÐ¸": 4067,
      "ĠÐ²Ð°ÑģÐ¸Ð»ÑĮÐµÐ²Ð¸Ñĩ": 4068,
      "ĠÑģÐºÐ°Ð·Ð°": 4069,
      "ĠÑħÐ¾Ð»Ð¾Ð¿Ð°": 4070,
      "ĠÑģÐ»Ð°Ð´": 4071,
      "ĠÐ¿Ð¾ÑģÐ°Ð´Ð¸": 4072,
      "ĠÐ¸Ð·Ð²Ð¾Ð»": 4073,
      "ĠÑģÑĤÑĢÐ°Ð½Ð°": 4074,
      "ĠÑĩÐµÑĢÐ½Ð¸": 4075,
      "ĠÐ²Ð¸Ð´Ñ£Ð²ÑĬ": 4076,
      "Ð½ÑıÐ³Ð¾": 4077,
      "ĠÐºÐ½ÑĥÑĤÐ¾Ð¼": 4078,
      "ÑģÐ¸ÑĤÐ¸": 4079,
      "ÑĥÐ´Ñ£": 4080,
      "ÑĬÐ»": 4081,
      "Ð»ÑıÐ¹": 4082,
      "ĠÑģÐ¼Ñĭ": 4083,
      "ĠÑĦÐµÐ´Ð¾ÑĢÐ°": 4084,
      "ĠÐ¿Ð¾Ð¹": 4085,
      "Ð±Ð¸ÑĢÐ°": 4086,
      "ĠÐ¸Ð¼Ð°ÑĪÐ¸": 4087,
      "ÐºÑĬÑĢ": 4088,
      "ĠÐ´Ð°Ð²Ñĸ": 4089,
      "Ð¸Ð·": 4090,
      "ÑģÑĤÑĸÑİ": 4091,
      "ĠÑĥÑģ": 4092,
      "ĠÑģÐ¾Ð½": 4093,
      "Ð¶Ð¸Ðµ": 4094,
      "ÐµÐ½ÑĮÑı": 4095,
      "Ð±Ð¾Ð¸": 4096,
      "ĠÐ¼ÐµÑĩÑĮ": 4097,
      "ĠÐ¼Ð°Ð½Ð°ÑģÑĤÑĭÑĢÑĮ": 4098,
      "ĠÐµÐ´Ð°": 4099,
      "Ð´Ñ£Ð¶Ðµ": 4100,
      "ĠÑīÐµ": 4101,
      "ĠÐºÐ¾ÑĢÐ¾Ð»Ñı": 4102,
      "Ð°Ð·ÑĥÐ¼Ñ£": 4103,
      "ĠÐ¾ÑģÑĤÐ°Ð½": 4104,
      "ÑīÐµÐ¼ÑĬ": 4105,
      "ÑĢÐµÑĤÑĮ": 4106,
      "Ð¼Ð°ÑĤ": 4107,
      "ĠÑģÑĥÐ´Ðµ": 4108,
      "ĠÑ¡Ð±Ð¸Ñħ": 4109,
      "ĠÐºÐ¾Ð¼Ñ¹": 4110,
      "ĠÐ¿Ñ£Ñģ": 4111,
      "Ð¾Ð¿Ð°": 4112,
      "ĠÐ¾ÐºÐ¾Ð»Ð¾": 4113,
      "ĠÐĶÑĢÑĥÐ¶": 4114,
      "ĠÐŀÐ½": 4115,
      "ĠÐķÐ¶Ðµ": 4116,
      "ĠÐ¼ÐµÑģÑĤÐ°": 4117,
      "ĠÐ±Ð»Ð°Ð¶Ðµ": 4118,
      "ĠÐ±Ð»Ð¸Ð¶": 4119,
      "ĠÐľÐ¸ÑħÐ°Ð¸Ð»Ð¾": 4120,
      "ÐµÑĤÑģÑ§": 4121,
      "Ñ¡Ð½ÑĬ": 4122,
      "ÑĢÐ¸Ð»Ð°": 4123,
      "ĠÐ²ÑĬÐ·Ð´Ð°": 4124,
      "ĠÐ¿Ð¾ÐºÐ»Ð°Ð½Ñ§Ð½Ð¸Ðµ": 4125,
      "ĠÑģÐ¾Ð»Ð¸": 4126,
      "ĠÐ¼ÑģÑĤÐ¸": 4127,
      "ĠÐ¿Ð¾Ð¼Ð¸Ð½Ð°": 4128,
      "ĠÐºêĻĭÐ¿": 4129,
      "ĠÑĤÐ¾Ð¶": 4130,
      "ÑĩÐµÐ¼": 4131,
      "Ð°Ð»Ñ£": 4132,
      "ĠÐ²Ð¾ÑģÑĤ": 4133,
      "ÑģÑĤÐ¸Ð¸": 4134,
      "ĠÐĦ": 4135,
      "ÑĨÐºÐ¾Ð¹": 4136,
      "ÑīÐµÐ½ÑĸÐµ": 4137,
      "ĠÑĸÑģ": 4138,
      "ĠÑĢÐ¾ÑģÑĤÐ¸": 4139,
      "ÐºÐ°Ð¼ÑĬ": 4140,
      "ÐºÐ°ÑħÑĬ": 4141,
      "ĠÐ¿Ð¾Ð»Ñ£": 4142,
      "ÑģÐºÐ°Ð°": 4143,
      "ĠÑģÐºÐ¾Ð»ÑĮÐºÐ¾": 4144,
      "Ð»Ð¾Ð²Ð¾": 4145,
      "ĠÐ½Ð¸Ð¶": 4146,
      "ĠÐ¼Ñ£ÑģÑı": 4147,
      "ĠÑĤÑ£Ñħ": 4148,
      "ÑĤÐ¾Ð¼": 4149,
      "Ð½Ð¸ÑĩÑĮ": 4150,
      "ÑĤÐ¾Ð²Ð°": 4151,
      "ĠÑ»ÑģÐ¿Ð¾Ð´": 4152,
      "ĠÐĵÐ¾ÑģÐ¿Ð¾Ð´Ð¸": 4153,
      "ĠÑĢÐ¾Ð·Ð±Ð¾Ð¹": 4154,
      "ĠÐ¼Ð¸ÑĤÑĢÐ¾Ð¿Ð¾Ð»Ð¸ÑĤÐ°": 4155,
      "ÐµÐ´Ðµ": 4156,
      "ĠÑ¡Ð±Ñĭ": 4157,
      "ĠÐĲÐ»ÐµÐºÑģÐ°Ð½Ð´ÑĢÐµ": 4158,
      "ĠÑĥÑģÑĤÑĢÐ¾Ð¸ÑĤÐ¸": 4159,
      "ĠÐ²Ñ£ÐºÑĭ": 4160,
      "ĠÑ¸": 4161,
      "ÑħÑĸ": 4162,
      "ĠÐ¿ÑĢÐµÐ²": 4163,
      "Ð»ÐµÐ·": 4164,
      "ÑīÐµÐ¹": 4165,
      "ĠÐ·ÐµÐ¼Ð»Ñ£": 4166,
      "ÑĤÐµÐ½": 4167,
      "ĠÐµÑĥ": 4168,
      "ÑģÑĤÐ¾Ð¼ÑĬ": 4169,
      "ÑĩÑĬ": 4170,
      "ĠÐ²ÑĬÑģÐ°": 4171,
      "Ð³ÑĥÑģÑĤÐ°": 4172,
      "ĠÐ½Ð°ÑĪÐ¸Ð¼": 4173,
      "ĠÐ¼Ñ£ÑĢÑĭ": 4174,
      "ĠÑĢÐ°Ð·ÑĥÐ¼Ñ£ÑĤÐ¸": 4175,
      "ÑĪÐ¸Ð½": 4176,
      "Ð³Ð¾Ñĥ": 4177,
      "ĠÑħÐ¾ÑĢÐ¾": 4178,
      "ĠÐ½ÐµÐ±ÐµÑģÑĮ": 4179,
      "ĠÑº": 4180,
      "Ñ³ÑĬ": 4181,
      "ĠÐ¿ÐµÑĤÑĢÑĥ": 4182,
      "ĠÐ±Ñ£ÑĪÐµ": 4183,
      "ÐµÐµ": 4184,
      "ĠÑ¿ÑĤ": 4185,
      "ĠÐ¿Ð¾Ð´Ð»Ð¸Ð½": 4186,
      "ĠÐ²ÐµÑĢÑĮ": 4187,
      "ĠÑħÑģ": 4188,
      "ĠÐĽÐ¸": 4189,
      "ĠÑħÐ¾ÑīÐµÑĪÐ¸": 4190,
      "ĠÐµÐ¿": 4191,
      "ĠÐļÐ°": 4192,
      "ĠÐºÐ½ÑıÐ¶Ðµ": 4193,
      "ÑģÑĤÐ²Ð¾Ð²Ð°ÑĤÐ¸": 4194,
      "ĠÑĢÐ°Ð·Ð¾ÑĢ": 4195,
      "ĠÑį": 4196,
      "ĠÐ±ÐµÐ´": 4197,
      "ĠÐ¿Ð¾ÑģÑĬ": 4198,
      "ĠÐ±Ð»Ð°Ð³Ð°": 4199,
      "ĠÐ¿ÐµÑĩÐ°Ð»ÑĮ": 4200,
      "Ð¾Ð²Ð°ÑĤÑĮ": 4201,
      "Ðµr": 4202,
      "Ð¿ÐµÐ·": 4203,
      "ĠÐ»Ð¾Ñģ": 4204,
      "Ð¶Ð°Ñģ": 4205,
      "ĠÐºÐ½ÑıÐ¶": 4206,
      "ĠÐ¸Ð³ÑĥÐ¼ÐµÐ½Ð°": 4207,
      "ĠÐ½Ð°Ð´Ð¾Ð±Ð½Ð¾": 4208,
      "ÑģÐµÐ½": 4209,
      "ĠÐ³Ð¾ÑĢÐ¾Ð´Ð¾Ð²": 4210,
      "ĠÐ¼Ð¾Ð½Ð°ÑģÑĤÑĭÑĢ": 4211,
      "ĠÐ¸Ð´ÐµÐ¶Ðµ": 4212,
      "Ð´Ð¾Ð¼": 4213,
      "ĠÑģÑĤÑĢÐ°Ð½Ñĭ": 4214,
      "ĠÐ¼ÑĥÑĢ": 4215,
      "ĠÐ³ÑĢÐ¸Ð²Ð½Ð°": 4216,
      "ĠÐºÐ°Ð±Ð°Ð»Ñĭ": 4217,
      "ĠÐ¡Ð²ÑıÑĤ": 4218,
      "ĠÐĶÑĢÑĥÐ¶Ð½ÐµÐ²": 4219,
      "ĠÐ¾ÑĥÑĤ": 4220,
      "ĠÐĳÐ»": 4221,
      "ĠÑħÐ¾Ð´Ð¸ÑĤÐ¸": 4222,
      "ĠÐ¼Ð°ÐºÐµÐ´Ð¾Ð½": 4223,
      "ĠÐ¿ÑĢÐ°Ð²Ð¾ÑģÐ»Ð°Ð²": 4224,
      "ĠÐ¿Ð¸ÑģÐ¼Ð°": 4225,
      "ĠÐºÑĢÐ¾ÑĤ": 4226,
      "ĠÐ²ÐµÑĢÑħÑĬ": 4227,
      "ÐµÐ½Ð¸Ñİ": 4228,
      "Ð¸Ð½Ð¾": 4229,
      "ĠÐ¶Ð°": 4230,
      "ĠÐ³ÑĥÐ±": 4231,
      "Ð´Ð°Ð»Ð¸": 4232,
      "Ð´ÐµÐ¸": 4233,
      "ĠÑģÐ¼Ð¾Ð»": 4234,
      "ĠÐ¼Ñ£ÑĢÐ°": 4235,
      "ĠÐ¼Ð½Ð¾Ð³Ð¸Ðµ": 4236,
      "ĠÐ¤Ð¸Ð»Ð¸": 4237,
      "ĠÐ²Ð¸ÑĤ": 4238,
      "ĠÐ±Ð¾Ð³Ð¾": 4239,
      "ĠÑģêĻĭÑĤÑĮ": 4240,
      "ÑĢÐ¾Ð²Ð¸": 4241,
      "ĠÐ°Ð³": 4242,
      "ĠÑģÐ²ÐµÑĤ": 4243,
      "Ð»Ñģ": 4244,
      "ĠÐ¸Ð½ÑĭÑħÑĬ": 4245,
      "ĠÐ»êĻĭ": 4246,
      "ĠÐĶÐµÐ²": 4247,
      "ĠÐ¢Ð¾Ð³Ð¾": 4248,
      "ĠÑĢÐ°Ð·Ð²Ñ£": 4249,
      "ĠÑģÑĤÐ¾ÑĢÐ¾Ð¶Ðµ": 4250,
      "ĠÐ½Ð°ÑĪÐ¸ÑħÑĬ": 4251,
      "ĠÐķÑĢÑĥÑģÐ»Ð¾Ð½ÑĬ": 4252,
      "ĠÑĤÐ°ÐºÐ¸ÑħÑĬ": 4253,
      "ĠÑĪÑĮ": 4254,
      "ĠÑĥÑĩÐ¸Ð½": 4255,
      "ĠÑĤÐ¾Ð»Ð¸ÐºÐ¾": 4256,
      "ÑģêĻĭ": 4257,
      "Ð¿Ð°Ð½": 4258,
      "ĠÐ¼Ð»Ð°Ð´ÑĬ": 4259,
      "Ġh": 4260,
      "ĠÑĢÑ¹ÐºÐ¾Ð´Ñ£": 4261,
      "ĠÐ¿ÑĭÑĤ": 4262,
      "ĠÑħÑ¹": 4263,
      "Ð¸Ð½Ð¾Ð²": 4264,
      "ĠÑĶÐ³Ð¾": 4265,
      "ĠÐ¿Ð¾ÑĢÑ§Ð´": 4266,
      "ĠÐ¿Ð¾Ð³Ñĭ": 4267,
      "ĠÐ½ÐµÐ´ÐµÐ»": 4268,
      "ĠÐ¸ÑĤ": 4269,
      "Ð´ÑĢÑĬ": 4270,
      "ĠÐ·ÐµÐ¼Ð»ÐµÑİ": 4271,
      "Ð²êĻĳ": 4272,
      "ĠÐ±ÑıÑĪÐµ": 4273,
      "ĠÐĶÐ¾": 4274,
      "ĠÐ±Ð¾Ð»ÑĪÐ¸": 4275,
      "ĠÐ´Ñĭ": 4276,
      "ĠÐºÐ¾Ð²": 4277,
      "ĠÐµÐ³Ñ¡": 4278,
      "Ð½Ñ£Ð¼ÑĮ": 4279,
      "ĠÐ±ÐµÐ·Ð¾": 4280,
      "ĠÐ±Ð¸Ð»Ð¸": 4281,
      "Ñ¹Ð±": 4282,
      "ĠÑĤÐ¾Ð±Ðµ": 4283,
      "Ġâģŀ": 4284,
      "ÑĪÐµÐ½ÑĬ": 4285,
      "Ð·Ð½ÑĮ": 4286,
      "ÑĪÐ°Ð»": 4287,
      "ÑģÑĤÐ¾Ñĩ": 4288,
      "ĠÑĦÐµÐ´": 4289,
      "ĠÐ´Ð°Ð½Ñĭ": 4290,
      "ĠÑģÐµÑģÑĤÑĢÐ°": 4291,
      "ĠÐľÐ°Ð³": 4292,
      "ĠÐ±Ð¾Ð»Ñ£Ð·": 4293,
      "ĠÐ½Ð°ÐºÐ°": 4294,
      "Ð¾Ð½Ð¾": 4295,
      "ÑĤÐ°Ñı": 4296,
      "Ñ¥Ð¼ÑĬ": 4297,
      "ĠÐ³ÑĢÑ§": 4298,
      "ĠÑĨÐµÑĢÐºÐ¾Ð²ÑĮ": 4299,
      "ĠÐ³Ñİ": 4300,
      "ĠÐ¿ÑĢÐ¸Ð³": 4301,
      "ĠÑģÐ°Ð¼Ð¾Ð¼Ñĥ": 4302,
      "ĠÐ¾Ð½Ð¾": 4303,
      "ĠÐļÑĸ": 4304,
      "ĠÐ¿Ð¾ÑĤÑıÐ³Ð»Ð¾": 4305,
      "ĠÑģÑĤÐ²Ð¾ÑĢÐ¸": 4306,
      "ĠÑĥÐ±ÑĭÑĤ": 4307,
      "Ð¸Ð»Ñ£": 4308,
      "ĠÐ²Ð¾ÑģÑĤÐ°": 4309,
      "ÑģÑĤÐ²ÑĥÑİ": 4310,
      "ÑģÐ¸Ð¸": 4311,
      "ĠÐ²Ñ£ÐºÑĬ": 4312,
      "ĠÑĢÑĥÑģÑĸÐ¸": 4313,
      "ĠÑģÐ²Ð°": 4314,
      "ĠÑĢÐ°ÑĤÐ¸": 4315,
      "ÑģÐºÐ°ÑĤÐ¸": 4316,
      "ÑĩÐµÑĤÑĮ": 4317,
      "ĠÑģÑĤÐ°ÑĢÑĨÐ°": 4318,
      "ÑħÐ¾Ð´Ñı": 4319,
      "ĠÑģÑĢÐ¾ÐºÑĥ": 4320,
      "ÑıÑħÑĬ": 4321,
      "ĠÑ¡Ð±Ñ£": 4322,
      "ĠÐ¾ÑĥÑģÑĤÑĢÐ¾": 4323,
      "ĠÑģÐ¾Ð»Ð¾Ð¼": 4324,
      "ĠÐ²Ð¾Ð¸Ð½ÑģÐºÐ¸ÑħÑĬ": 4325,
      "ĠÐ¿ÑĢÐµÐ´ÑĬ": 4326,
      "ĠÐ²Ð¿ÑĢÐµÐ´ÑĮ": 4327,
      "ĠÐ²Ñ§": 4328,
      "Ð»Ð°Ð¼": 4329,
      "ĠÐ¿ÑĢÐµÐ±Ñĭ": 4330,
      "ĠÐ¼Ð°ÑģÑĤÐµÑĢ": 4331,
      "ĠÑģÐµÑĢÐ´ÑĨÐ°": 4332,
      "ĠÐ¾ÑĤÐ¸": 4333,
      "ĠÐ²ÑĬÐ¿": 4334,
      "ÐµÑģÐµ": 4335,
      "ĠÑħÐ»Ñ£Ð±": 4336,
      "Ð¾Ð²Ð°Ð»ÑĬ": 4337,
      "ĠÐ¸ÑģÑĨ": 4338,
      "ĠÑģÑĤÐ¾ÑĢÐ¾Ð½Ñĥ": 4339,
      "ÑĦÐ¾Ð½Ð°Ñģ": 4340,
      "ĠÐ¼Ð»Ð°Ð´": 4341,
      "ĠÐ°Ð²ÑĢÐ°": 4342,
      "ĠÐľÑĭ": 4343,
      "ĠÑĩÐ°ÑģÑĤÑĮ": 4344,
      "ĠÐ¸Ð³Ð¾ÑĢ": 4345,
      "ĠÐŁÐ¾Ð¿": 4346,
      "ÑĦÐ°Ð½Ð°": 4347,
      "ĠÐ³Ð¾ÑĢÐ°Ð·Ð´Ð¾": 4348,
      "ĠÐ¼Ð¸ÑĤÑĢÐ¾Ð¿Ð¾Ð»Ð¸": 4349,
      "Ð½Ð¸Ð´Ðµ": 4350,
      "ĠÑĥÐ»Ð¸": 4351,
      "ĠÐ»Ð¾Ð´": 4352,
      "ĠÐ´Ð°Ð²Ð°": 4353,
      "ÑĩÐ°ÑĤÑĮ": 4354,
      "ĠÐ¿Ð°Ð´Ðµ": 4355,
      "ĠÐ¿Ð¸ÑģÐ°ÑĤÐ¸": 4356,
      "ĠÐ½Ñ¹": 4357,
      "ĠÐºÐ°ÑĤ": 4358,
      "ĠÑĤÐ¾Ñı": 4359,
      "ĠÐĳÐ¾": 4360,
      "ĠÐ¿ÑĢÐ¾ÑģÑĤÐ¸": 4361,
      "Ð½êĻĭÑİ": 4362,
      "ÑĢÐµÐ¸": 4363,
      "ĠÐ²Ð¾Ð·Ð»ÑİÐ±Ð»ÐµÐ½": 4364,
      "ĠÐ¼Ð°ÑĢÑĤÐ°": 4365,
      "ĠÑ¡ÑģÐ¿Ð¾Ð´": 4366,
      "ÑĢÐµÐ²": 4367,
      "ÑĢÐ°Ð¼": 4368,
      "ĠÐ²Ð°Ð¼Ð¸": 4369,
      "ĠÑĩÐ»Ð¾Ð²Ñ£ÐºÑĬ": 4370,
      "ĠhÐµr": 4371,
      "ĠÐ¾ÑĤÑĨÑĥ": 4372,
      "ĠÐ¿Ð¸ÑģÐ°Ð»": 4373,
      "ĠÑģÐºÐ°Ð¶ÑĥÑĤ": 4374,
      "Ð¸Ñİ": 4375,
      "ĠÐ´ÑĢÐµÐ²Ð¾": 4376,
      "ĠÑģÑİ": 4377,
      "ÑīÑĸÐ¸": 4378,
      "ĠÐ¸ÑģÑĨÑĥ": 4379,
      "Ð³Ð¾ÑĢÐ¾Ð´Ð°": 4380,
      "ĠÑĤÐ¾Ð²Ð°ÑĢÑĬ": 4381,
      "ĠÐ¿ÑĢÐ¾Ñĩ": 4382,
      "ĠÐ¿ÐµÑĢÐµÐ¼": 4383,
      "ĠÐµÑģÐ¼Ð¾": 4384,
      "ĠÑģÐ»Ð°Ð²Ñĥ": 4385,
      "ĠÐ¾ÑĤÐ¾": 4386,
      "ĠÑıÐ²Ð¸": 4387,
      "ĠÑģÐ»Ð¾Ð±Ð¾Ð´": 4388,
      "ĠÐ±Ð¾Ð»Ñ£": 4389,
      "ĠÐ¼Ð°ÑĤÐµÑĢÑĮ": 4390,
      "ĠÑģÑĤÐ¸": 4391,
      "ĠÐºÐ°Ð´": 4392,
      "Ñ«ÑĤÑĬ": 4393,
      "ĠÐ¯ÐºÐ¾Ð¶Ðµ": 4394,
      "ĠÐ±ÑĥÐ´ÑĥÑĤÑĮ": 4395,
      "ĠÐ´ÑĢÑĥÐ³ÑĥÑİ": 4396,
      "Ð¾Ð¶ÑĮÑģÑĤÐ²Ð¾": 4397,
      "ĠÐ´ÑĢÑĥÐ³Ð¾Ð¹": 4398,
      "ĠÐ¿ÑĥÑĪÐºÐ°": 4399,
      "ĠÐ¿ÑĢÐ¸ÑĪÐµÐ´ÑĬ": 4400,
      "ÑīÐ¸Ð¼": 4401,
      "ÑĢÐ¾ÑģÐ»Ð°Ð²ÑĬ": 4402,
      "ĠÐ¿ÑĢÐ¾ÑģÐ»Ð°Ð²": 4403,
      "Ġ+": 4404,
      "Ð²ÐµÐ»Ð¸": 4405,
      "ÑĩÐ½Ð¾Ðµ": 4406,
      "ÑĤÐ¾Ð¼ÑĬ": 4407,
      "ĠÐºÐ½ÑıÐ·Ð¸": 4408,
      "ĠÐ¿Ð¾ÑĤÐ¾Ð¼": 4409,
      "ĠÑģÑĤÐ°Ð²Ð¸ÑĤÐ¸": 4410,
      "ÐºÐ¸ÑĦÐ¾ÑĢ": 4411,
      "ĠÐ¿Ð¾Ð²Ð°ÑĢ": 4412,
      "ĠÑģÑĤÐ¾Ð¸ÑĤÑĬ": 4413,
      "ĠÐ¿Ð¾Ð¼ÐµÑģÑĤ": 4414,
      "ĠÐ²Ð¾ÑĢÐ¾Ð²": 4415,
      "ÑģÑĤÐ°Ñģ": 4416,
      "ÑĪÐµÐ´ÑĬ": 4417,
      "ĠÐ¿ÑĥÑģÑĤÐ¾ÑĪÐ¸": 4418,
      "ĠÐľÐ°Ð³Ð¸Ð»": 4419,
      "Ð½Ð¸ÑĨÐµ": 4420,
      "ĠÐµÑİ": 4421,
      "ÑĤêĻĭ": 4422,
      "ÑīÐ½Ð¾": 4423,
      "ÑĢÐµÑĩÐµÐ½": 4424,
      "ĠÑĢÐµÑīÐ¸": 4425,
      "ÑĪÑĤÐ¸Ð¸Ð¼ÑĬ": 4426,
      "ĠÐ±ÑĭÐ²ÑĬ": 4427,
      "ĠÐĳÐ¾Ð»": 4428,
      "Ð½Ð°Ð³Ñ¡": 4429,
      "Ð¾Ð·ÐµÐ¼": 4430,
      "ĠÑģÑĤÐ°ÑĢÐ°": 4431,
      "ĠÑģÐ¾ÑĢÐ¾Ðº": 4432,
      "ĠÐ¿ÑĤÐ¸ÑĨÐ°": 4433,
      "ĠÐ³Ð¾Ð´Ñĭ": 4434,
      "ĠÐĳÑĢÐ°": 4435,
      "ĠÑģÑĤÐ¾Ð»ÑĬ": 4436,
      "Ð¶ÐµÐ½ÑĸÐµ": 4437,
      "Ð½ÑĥÑĤÑĬ": 4438,
      "ĠÐ¿ÐµÑĢÐ²Ð¾Ðµ": 4439,
      "ĠÐ²ÐµÑģÑĤÐ¸": 4440,
      "Ð·Ñı": 4441,
      "ĠÐ°Ð»ÐµÐºÑģÐ°Ð½Ð´": 4442,
      "Ð¾Ð¶Ð¸ÑĤ": 4443,
      "ÑĹÐµÐ¼ÑĬ": 4444,
      "ĠÐ½Ð°ÑĪÐ¸Ñħ": 4445,
      "ĠÐ´Ð¾Ð¼Ñĭ": 4446,
      "ĠÐ¿Ð¾ÑģÐ»Ñ¹": 4447,
      "Ñ§Ð½Ð¸": 4448,
      "Ð´Ð°Ð¹": 4449,
      "ĠÐ¸Ð¼Ñĥ": 4450,
      "Ð±êĻĭ": 4451,
      "Ð±Ð¸ÑĤÐ¸": 4452,
      "ĠÐ¿ÑĢÐµÐ·": 4453,
      "ĠÐ²Ð»Ð°ÑģÑĤÐ¸": 4454,
      "ĠÐ·Ð½Ð°Ð¼ÐµÐ½Ð¸": 4455,
      "êĻĩ": 4456,
      "Ð¿Ð¾Ð²": 4457,
      "Ð²Ð°Ð½ÑĬ": 4458,
      "ĠÐ»ÑĥÑĩ": 4459,
      "ÑīÐµÐµ": 4460,
      "ĠÑĢÑĥÑĨÑ£": 4461,
      "ĠÐ±ÑĮÐµÑĤÑĬ": 4462,
      "ĠÐ¼Ð½Ð¾Ð³Ñĭ": 4463,
      "Ð³Ð¾ÑĢÐ¾Ð´Ñ£": 4464,
      "ĠÐ²Ð»Ð´": 4465,
      "Ð³Ð¾Ñİ": 4466,
      "ĠÐ´Ð¾ÑĩÑĮ": 4467,
      "ĠÐ´Ñ£Ð²Ð¸": 4468,
      "ĠÐľÐ¸ÑħÐ°Ð¸Ð»Ð°": 4469,
      "ÑģÑĤêĻĭÐ¿": 4470,
      "ĠÐ°Ð»ÐµÑ¯": 4471,
      "ĠÐ¿ÑĢÐµÐ»": 4472,
      "ĠÑĢÐµÐºÐ¾": 4473,
      "ĠÐ±ÑĢÐ°Ð½Ð¸": 4474,
      "Ð¾Ð²Ð¾Ð¸": 4475,
      "ĠÐ¿Ð»Ð°ÑĤÐ¸": 4476,
      "ĠÐ²Ð°ÑģÐ¸Ð»ÑĮÐµÐ²": 4477,
      "Ð²Ñ¹": 4478,
      "ĠÐ¿ÑĢÐ¸êĻĹ": 4479,
      "ĠÑģÐ¾Ð»Ð½ÑĨÐµ": 4480,
      "ĠÐĵÐ¾ÑģÑĥÐ´Ð°ÑĢÑĮ": 4481,
      "ĠÐ¿ÑĢÐ¸ÑģÑĬ": 4482,
      "ĠÑĢÐ°Ð·Ð»Ð¸Ñĩ": 4483,
      "ĠÐ±Ð¾Ð³Ð°ÑĤÑĮ": 4484,
      "ĠÐ±Ð¾Ð±Ñĭ": 4485,
      "Ð»Ð°Ñı": 4486,
      "ĠÐ¿Ð°ÐºêĻĳ": 4487,
      "Ñ£ÑħÐ°Ð»ÑĬ": 4488,
      "ÑĤÐ¾Ð²": 4489,
      "ÑıÐ´": 4490,
      "ĠÐ¿ÑĢÐ¸Ð´Ð¾ÑĪÐ°": 4491,
      "ĠÑħÐ¾Ð»Ð¾Ð¿ÑĬ": 4492,
      "ĠÑģÑĤÑĢÑ£Ð»Ñı": 4493,
      "ĠÐ¿ÐµÑĤÑĢÑĬ": 4494,
      "ĠÐ¾Ð²Ð¾": 4495,
      "ĠÐŁÐ¾Ð½": 4496,
      "ĠÐºÐ°Ð»": 4497,
      "ÑĩÐµÐ½ÑĬ": 4498,
      "ĠÐºÐ¾Ð»Ð¸ÐºÐ¾": 4499,
      "ÐµÑģÑĤ": 4500,
      "ÐµÐ±": 4501,
      "ĠÑģÐ²Ð¾Ñ¥Ð¼Ñĥ": 4502,
      "ĠÑĢÐµÐºÐ»ÑĬ": 4503,
      "ĠÑ¥ÑģÐ¼ÑĮ": 4504,
      "ÑħÐ°Ð½": 4505,
      "ĠÐ¼Ñ¡ÑµÑģÐµ": 4506,
      "ÑĢÑ«": 4507,
      "Ð¾Ð²Ð¾Ð»": 4508,
      "ĠÐ·ÐµÐ»": 4509,
      "ÑĸÐµÐ¼ÑĮ": 4510,
      "ĠÐºÐ¾ÑĤÐ¾ÑĢÐ¾Ð³Ð¾": 4511,
      "ĠÐ¢Ñ£Ð¼ÑĮÐ¶Ðµ": 4512,
      "ÑĤÐµÑĢ": 4513,
      "ÐºÐ¾Ð²Ðµ": 4514,
      "êĻ¯": 4515,
      "ĠÐ¼Ð¾ÑĩÐ½Ð¾": 4516,
      "ĠÐ¾ÑģÐ¼Ð¸": 4517,
      "Ð°ÐºÑ¡": 4518,
      "ÑĢÑĭÐ¹": 4519,
      "ĠÐ±Ð¾Ð»ÑĮÑĪÐµ": 4520,
      "ĠÐ¿Ð¾ÑħÐ¾ÑĩÐµ": 4521,
      "ĠÐĶÐµÐ²Ð³": 4522,
      "Ġ8": 4523,
      "ĠÐ¿Ð¾Ð¸Ð¼": 4524,
      "ĠÐĴÐ¸": 4525,
      "ÐºÐ¼Ð¾": 4526,
      "ĠÐ¼Ð¾ÐµÐ¹": 4527,
      "ĠÐ½êĻĳÐ½Ðµ": 4528,
      "ĠÐ°ÑĢÑħÐ¸Ð¼Ð°ÑĢ": 4529,
      "ĠÐ±Ð¾Ð¹": 4530,
      "ĠÑĢÐ°Ð±Ð¾ÑĤ": 4531,
      "ĠÑĥÑģÑĤÐ°": 4532,
      "ĠÑģÐ»ÐµÐ·Ð°Ð¼Ð¸": 4533,
      "ĠÐ¸Ð½Ð¾Ðµ": 4534,
      "ĠÐ¼Ð¸Ð»Ð¾Ñģ": 4535,
      "Ð¶ÐµÐ½Ð¸": 4536,
      "ÑĩÐµÐµ": 4537,
      "ĠÑģÑĥÐ´Ð¸ÑĤÐ¸": 4538,
      "ĠÐ³Ð¾ÑģÐ¿Ð¾Ð´ÑĮ": 4539,
      "ĠÐ³Ð¾ÑģÐ¿Ð¾Ð´Ð¸Ð½Ð°": 4540,
      "ĠÑĥÐºÐ°": 4541,
      "ĠÑħÑĬ": 4542,
      "ĠÐ¸ÐµÐ²": 4543,
      "ĠÐ¿Ð°Ð¼ÑıÑĤÑĮ": 4544,
      "ĠÑĩÑİÐ´Ð¾ÑĤÐ²Ð¾ÑĢÑĨÐ°": 4545,
      "ĠÐ´Ð²Ð¾ÑĢÑıÐ½": 4546,
      "ĠÐ¾ÐºÐ¾Ð»Ð½Ð¸": 4547,
      "ÑĢÐ¸Ð¸": 4548,
      "ĠÑĤÐ°ÐºÑ¡": 4549,
      "Ð³Ð¸Ð¿": 4550,
      "ĠÑĩÐ°ÑģÑĤÐ¾": 4551,
      "Ð²Ð¾Ð½": 4552,
      "ĠÐ¿Ð¾ÑģÑĤÑĢÐ°": 4553,
      "ĠÑĢÐ°Ð·Ñģ": 4554,
      "Ð²Ñı": 4555,
      "ĠÐ²ÑĬÑģÑĤ": 4556,
      "Ð´Ð°Ð»": 4557,
      "ĠÑģÐ²Ð¾ÐµÐ³Ñ¡": 4558,
      "ÐµÐ½Ð°Ð³Ð¾": 4559,
      "ĠÑģÐ»Ñ¹Ð¶": 4560,
      "Ð°Ð½Ð¾": 4561,
      "ĠÐ¿Ð»ÑĮ": 4562,
      "ÐºÑģ": 4563,
      "êĻĳÑħÑĬ": 4564,
      "ĠÐ·Ð»Ð°ÑĤÐ¾": 4565,
      "ÐµÑĪ": 4566,
      "ĠÐ²ÑĬÐ¸Ð½Ñĥ": 4567,
      "ĠÑģÑĤÐ°ÑĢÑĭÐ¹": 4568,
      "Ð¾ÑĢÐ¾ÑĤÐ¸": 4569,
      "ĠÑĤÑĬÐ³Ð´Ð°": 4570,
      "ĠÐ¼Ð¾Ð¶ÐµÑĤ": 4571,
      "ĠÐ¿Ð¾Ð»Ð¾Ð²ÑĨÐ¸": 4572,
      "ĠÑĩÐ¸Ð½Ñĥ": 4573,
      "ĠÐ²ÑģÑıÐºÐ¾Ð¼Ñĥ": 4574,
      "ĠÐ±Ð»Ð³Ð¾": 4575,
      "ĠÐ²Ð¾Ð´Ñĥ": 4576,
      "Ð°Ñ§": 4577,
      "ĠÐ¾Ð¶Ð¸": 4578,
      "ĠÐ´Ð²Ð´": 4579,
      "ĠÐ³ÑĢÑĮ": 4580,
      "ĠÐ¿Ð¾ÑģÑĤÐ¸": 4581,
      "ĠÐ½Ð°Ð¿ÑĢÐ°ÑģÐ½Ð¾": 4582,
      "ĠÑ¤": 4583,
      "ÑĢÐ¾Ð½": 4584,
      "ĠÐ¿Ð¾ÐµÑħÐ°Ð»ÑĬ": 4585,
      "ĠÐĴÐ¾Ð·": 4586,
      "ĠÑĤÐ²Ð¾Ñ¥": 4587,
      "ÑģÑĤÐ²Ð¾Ñĥ": 4588,
      "ĠÐ´ÑĥÑĪÑĥ": 4589,
      "ĠÑģÐ½ÑĬ": 4590,
      "Ð³Ð¾Ð¼": 4591,
      "Ð¸ÑĤÑĨÐ°": 4592,
      "ĠÑģÑĭÐ½Ðµ": 4593,
      "ĠÐ¾Ð±ÑĭÑĩÐ°ÐµÐ¼ÑĬ": 4594,
      "ĠÐ¶ÐµÐ½Ð¸": 4595,
      "ĠÐ¾ÑĥÐº": 4596,
      "ĠÐ¿Ð¾ÑĢÐ¾ÑħÑĬ": 4597,
      "ĠÐ¸Ð·Ð¼Ñ£": 4598,
      "ĠÐĳÐ¾Ð¶Ðµ": 4599,
      "ÑģÑĤÐ²Ð¸Ðµ": 4600,
      "ĠÐ¼ÑĸÐ½": 4601,
      "ĠÐ´Ð»ÑĬ": 4602,
      "ĠÑĢÑĥÐºÐ°": 4603,
      "ĠÑĤÑ£Ð¼ÑĮ": 4604,
      "ĠÐ½Ñ£ÐºÑĭ": 4605,
      "ĠÑģÐ¾Ð±Ð¾ÑĢ": 4606,
      "ĠÐĽÑĥ": 4607,
      "ĠÐ¸Ð³": 4608,
      "ĠÐ¾ÑģÑĤÐ°Ð²Ð¸": 4609,
      "Ð»Ð°ÑģÑı": 4610,
      "ĠÐ¼Ð¾Ð¸Ð¼ÑĬ": 4611,
      "ĠÐ³ÑĢÐ°Ð´Ðµ": 4612,
      "ĠÐ·Ð°ÐºÐ¾Ð½ÑĬ": 4613,
      "Î½": 4614,
      "ÑĢêĻĳ": 4615,
      "ÑħÑ¡": 4616,
      "ĠÐºÑĢÐµÑģÑĤÑĮÑıÐ½Ð¸": 4617,
      "ĠÐ¾ÑģÐ¸ÑĦ": 4618,
      "ĠÐ´ÐµÐ»Ðµ": 4619,
      "ĠÐ·Ð°ÑĢÑı": 4620,
      "ÑĩÐ¸Ðµ": 4621,
      "ĠÐ±Ð¾Ð»ÑĮÑĪÐ¸": 4622,
      "ĠÐ³Ð¾ÑģÐ¿Ð¾Ð´ÑģÑĤÐ²Ð°": 4623,
      "ĠÐ³ÑĢÐ¸Ð²ÑĮÐ½ÑĬ": 4624,
      "ĠÐļÐ½ÑıÐ·ÑĮ": 4625,
      "ĠÐ´Ð²Ð¸": 4626,
      "Ð°ÐºÐ¾Ð²": 4627,
      "ĠÑĨÑĢÑĬ": 4628,
      "ÑĢÐ¸Ñı": 4629,
      "ĠÐ¼Ð¾Ð¸ÑħÑĬ": 4630,
      "ĠÐµÐ·Ð´": 4631,
      "ĠÐ·Ð»": 4632,
      "Ð»ÐµÐ½Ð¸Ñı": 4633,
      "ĠÐ±Ð¶ÑĤÐ²": 4634,
      "Ð¾Ð¿Ð¾Ð»ÐºÑĬ": 4635,
      "ĠÐ¿Ð¾ÐºÐ°Ð·Ð°": 4636,
      "ĠÐ±Ð»ÑĬ": 4637,
      "ĠÐ¿Ð¾Ð»ÐºÐ¸": 4638,
      "ĠÐ¿Ð°Ðµ": 4639,
      "ĠÐ³ÑĢÐ¾Ð·": 4640,
      "ĠÐ¼Ð¾Ð¶ÐµÑĤÑĮ": 4641,
      "ĠÐ½ÐµÐ½Ð°Ð²Ð¸": 4642,
      "ÐºÐ¸Ð½": 4643,
      "ÐºÐ¸Ð¹": 4644,
      "Ð¸ÑħÑĮ": 4645,
      "Ð¼Ð¾ÑĤÑĢÐ¸": 4646,
      "ÑģÐ»Ð°Ð²Ð¸": 4647,
      "ĠÐ¼Ð°ÑĤÑĥ": 4648,
      "ĠÐ±Ð¾ÑıÑĢÑģÐºÐ¸Ñħ": 4649,
      "Ġ15": 4650,
      "ĠÐ³Ð¾Ð»Ð¾Ð²Ñĥ": 4651,
      "ĠÐºÐµÐ»Ð°": 4652,
      "ÑĦÐ¸Ð¼": 4653,
      "Ð´Ð°ÑĢ": 4654,
      "ĠÐ´Ð²ÑĮ": 4655,
      "ÑĨÐ¾Ð¼ÑĬ": 4656,
      "ĠÐ¿Ð¾ÑĩÐµ": 4657,
      "ĠÐ¿ÑĢÐ¸Ð³Ð¾Ð¶Ðµ": 4658,
      "ĠÐ½Ð°ÑĪÐ¸Ð¼ÑĬ": 4659,
      "ĠÑĤÐ¾Ð²Ð°ÑĢ": 4660,
      "ĠÐ½Ð¾Ð²ÑĬÐ³Ð¾ÑĢÐ¾Ð´": 4661,
      "Ð´ÐµÐ»Ð¸": 4662,
      "ÑĢÐ¾Ð²ÑĬ": 4663,
      "Ð½ÑĭÐ¸Ð¼ÑĬ": 4664,
      "ĠÐ´Ð°Ð²Ð°ÑĤÑĮ": 4665,
      "ĠÐ½Ð¸ÑĩÐµÐ³Ð¾": 4666,
      "ĠÐ¿Ð¾Ð»Ð¾Ð½": 4667,
      "Ð¿Ð¾Ð¼": 4668,
      "ĠÑĥÐ¼Ð¸": 4669,
      "ĠÐ¼Ð¾ÐµÐ¼êĻĭ": 4670,
      "ĠÐºÑĢÐ¾Ð²Ð¸": 4671,
      "ĠÑģÐ»Ð¸": 4672,
      "ÑĩÐµÑĢÐ°": 4673,
      "ĠÐ²ÑģÑıÐºÐ¾Ð³Ð¾": 4674,
      "ĠÑģÐ¾Ð¿": 4675,
      "ĠÐ¿Ð°Ñģ": 4676,
      "ĠÐ¿Ñģ": 4677,
      "Ð¶Ð°Ð²": 4678,
      "ĠÐ¶Ð¸Ð²Ñĭ": 4679,
      "ĠÑģÑĤÐ°ÑĢÐ¾ÑģÑĤ": 4680,
      "ĠÐ³Ð¾ÑĢÐ¾Ð´Ñ£": 4681,
      "ÑģÑĤÐ¾Ð¹": 4682,
      "Ð½ÐµÑĪÐ¸": 4683,
      "ĠÑķÑĸÑģ": 4684,
      "ĠÑĤÑĢêĻĭ": 4685,
      "ĠÐ³Ð¾Ð»Ð¾Ð²Ñ£": 4686,
      "ĠÐ¿Ð¾Ð¼Ð¾ÑīÐ¸": 4687,
      "Ð¼êĻ¿": 4688,
      "ĠÐ¿ÑĢÐ¾ÑĢÐ¾": 4689,
      "Ð¼Ñ¡": 4690,
      "ĠÐ²ÑģÐµÐ»ÐµÐ½": 4691,
      "ĠÑħÐ»Ñ£Ð±ÑĬ": 4692,
      "ĠÑģÑĤÐ°Ð½Ð¸": 4693,
      "Ð¾Ñħ": 4694,
      "ĠÐ¸ÑģÐºÐ°": 4695,
      "ÑıÐ¼": 4696,
      "ĠÐºÑ«": 4697,
      "ĠÐºÐ»Ñ§": 4698,
      "ĠÐ¿Ð¾Ñ£": 4699,
      "ĠÑģÑĬÐ¿": 4700,
      "ĠêĻģÐ°Ðº": 4701,
      "ĠÐ·Ð³Ð¾Ð²Ð¾ÑĢÐ¸ÑĤÑĬ": 4702,
      "ĠÐ´ÑĢÑ£": 4703,
      "ĠÑģÑĭÐ½Ñ¡Ð²ÑĬ": 4704,
      "Ð½ÑĸÐµÐ¼ÑĬ": 4705,
      "ĠÐ·Ð°Ð¿Ð°ÑģÑĭ": 4706,
      "ĠÐ¸Ð¾ÑģÐ¸ÑĦ": 4707,
      "ĠÑģÐ¸Ð¸": 4708,
      "ĠÑĢÐ°Ð²Ð½Ð¾": 4709,
      "Ð»Ð¸Ð¼": 4710,
      "ĠÑģÑĬÐ²ÑĢÑĬ": 4711,
      "ÑīÐ¸ÐºÐ¸": 4712,
      "ĠÑĢÑĬ": 4713,
      "ĠÐ·Ð´Ðµ": 4714,
      "ĠÐĴÑģÐµ": 4715,
      "ĠÐ¶Ð¸Ð²ÑĬ": 4716,
      "ĠÑģÐ¿Ð°": 4717,
      "ĠÑģÑĤÑ§": 4718,
      "ĠÐ¿ÑĢÐ¸Ð±Ñĭ": 4719,
      "ÑĦÑ£": 4720,
      "ĠÐ·Ð°Ð¿Ð¾Ð²Ñ£Ð´Ð°": 4721,
      "ĠÐĲÐ»ÐµÐºÑģÐ°Ð½Ð´ÑĢÐ°": 4722,
      "ĠÐ¿ÑĢÐ°Ð·Ð´": 4723,
      "ĠÐ¼Ð¸ÑħÐ°Ð»": 4724,
      "ÑĪÐµÐ²": 4725,
      "ÑģÐºÑ£": 4726,
      "ĠÐ·Ð°ÑĤÐ²Ð¾ÑĢ": 4727,
      "ĠÐŀÐ½Ð°": 4728,
      "Ð½ÑĨÐ°": 4729,
      "ÑĪÐµÐ½ÑĸÐµ": 4730,
      "Ð¶ÐµÐ¸": 4731,
      "Ð¾ÑģÑĬ": 4732,
      "ĠÐ²Ñ£ÑĢÑĭ": 4733,
      "ĠÐ¿ÑĮÑĢ": 4734,
      "ĠÑĤÑĢÐµÑĤÑĮÑı": 4735,
      "ĠÐ¿ÑĢÑ§": 4736,
      "ĠÐ´Ð¾ÑģÑĤÐ°": 4737,
      "ĠÐºÐ¾ÑĤÐ¾ÑĢÑĭÐ¼": 4738,
      "ĠÐ½ÐµÐ²Ð¸Ð´Ð¸": 4739,
      "ĠÑģÑĤÐ¾ÑıÑĤÑĮ": 4740,
      "ĠÐºÐ¾ÑĢÐ¾Ð±ÑĮ": 4741,
      "ĠÑģÐ¸Ð»Ñ£": 4742,
      "ĠÑĢÐ°Ð±Ñĥ": 4743,
      "ĠÐ½Ñİ": 4744,
      "ĠÐ´Ñ£Ð»Ñı": 4745,
      "ĠÐľÐ°Ðº": 4746,
      "ÑīÐ¸ÐºÐ¾Ð¼": 4747,
      "ĠÑģÐºÐ²Ð¾Ð·": 4748,
      "ĠÐµÐ´Ð¸Ð½Ð°": 4749,
      "ĠÑģâ±ķ": 4750,
      "Ð´ÐµÐ¼ÑĬ": 4751,
      "ĠÐ¾ÑģÑĤÑĢ": 4752,
      "êĻĭÐ¸": 4753,
      "Ð±ÐµÑĢ": 4754,
      "ĠÐ½Ð°Ð¾Ñĥ": 4755,
      "ĠÐ³ÑĢÐ°Ð´Ñĭ": 4756,
      "ÑģÑĤÐ¾Ð¸": 4757,
      "ĠÐ´ÑĢÑĥÐ³Ð¸": 4758,
      "ĠÑģÐ°Ð»": 4759,
      "Ð´Ñĸ": 4760,
      "ĠÐ´Ð°Ð½Ð¾": 4761,
      "Ð½ÑĮÑı": 4762,
      "ĠÐ²Ð¾ÐµÐ²Ð¾Ð´Ñĭ": 4763,
      "ĠÐ²Ð½Ñĥ": 4764,
      "Ð±Ð»Ñİ": 4765,
      "ĠÑģÑĭÑģÐºÐ¸": 4766,
      "Ð±Ð¸Ð»Ð¸": 4767,
      "ĠÐ²ÑģÑ§ÐºÐ¾Ð³Ð¾": 4768,
      "ĠÑģÑ£Ð´Ðµ": 4769,
      "ĠÑģÐ´Ñ£": 4770,
      "ĠÐ¾ÑĤÐµÑĨÑĬ": 4771,
      "ĠÐ¼Ñ£ÑĢÐ¾Ñİ": 4772,
      "ĠÐ¼Ð¾Ð»Ð¸ÑĤÐ¸": 4773,
      "ĠÐ¿ÑĢÐ°Ð²Ð¸ÑĤÐ¸": 4774,
      "ĠÐłÐµ": 4775,
      "ĠÐ°Ð²Ð³ÑĥÑģÑĤÐ°": 4776,
      "ÑĪÐµÐ½Ð¾": 4777,
      "ĠÐ¾ÐºÐ°": 4778,
      "ÑĪÐ½Ð¾": 4779,
      "ĠÐ¼Ð½Ð¾": 4780,
      "ĠÐ³Ð¾ÑĢÐ¾Ð´Ñĭ": 4781,
      "ĠÐ¼Ñ¹Ð¶ÑĮ": 4782,
      "ĠÐ½Ð¾Ð³Ð¸": 4783,
      "ÑģÑĤÐ²ÑĬ": 4784,
      "ĠÐ½ÐµÐ´Ñ£": 4785,
      "ĠÐ´Ð¾Ð±ÑĢÐµ": 4786,
      "ĠÐ²Ð°ÑĪÐ¸": 4787,
      "ĠÐ·Ð°ÐºÐ»Ð°Ð´": 4788,
      "ÑıÐ½Ð¸Ðµ": 4789,
      "ĠÐ±ÐµÑĢÐµÑĩÐ¸": 4790,
      "ÑĤÑıÐ±ÑĢÑı": 4791,
      "ĠÐ°Ð»ÑĤÑĭÐ½": 4792,
      "ĠÐ³Ð¾ÑģÑĤÐ¸": 4793,
      "ÑģÐºÐ¾Ð²Ð¾": 4794,
      "ĠÐºÑĢÑ£Ð¿Ð¾ÑģÑĤÑĮ": 4795,
      "ÑģÑĤÐ°ÑĢÐ¸": 4796,
      "Ð½Ð¸ÑĩÐ¸": 4797,
      "ĠÑĪÐ°": 4798,
      "ĠÐ¿ÑĢÐµÑģÑĤ": 4799,
      "ĠêĻģÑĬ": 4800,
      "ĠÑģÐ°Ð´": 4801,
      "ĠÐ¿Ð¾ÑģÐ»Ð°Ð½": 4802,
      "ĠÐ²ÐµÑīÐ¸": 4803,
      "Ð»ÑĶ": 4804,
      "Ð³êĻĳ": 4805,
      "ÑģÑ£ÑħÑĬ": 4806,
      "ÐºÐ²Ð°": 4807,
      "ÐºÐ½Ñĥ": 4808,
      "ÑıÑīÐµ": 4809,
      "ĠÐ²ÑģÑ£Ð¼": 4810,
      "ĠÐ³ÐµÑĢ": 4811,
      "ĠÑ¡Ð»Ðµ": 4812,
      "ĠÐ´ÑĥÑĪÑı": 4813,
      "ĠÐ»ÑİÐ´ÑıÐ¼ÑĬ": 4814,
      "ĠÐ±ÑĥÐ´ÑĥÑĤÑĬ": 4815,
      "ÑĮÑĢ": 4816,
      "ĠÐµÑģÑĤÐ²Ð°": 4817,
      "ĠÐºÐ°ÐºÐ¾Ð²Ð°": 4818,
      "ĠÑĤÐ²Ð¾ÑĢÑ§": 4819,
      "ĠÑĩÐ¾Ð»": 4820,
      "ĠÐ¼Ð¸Ðº": 4821,
      "ĠÑĤÐ²Ð¾ÑĢÐ¸ÑĤÑĮ": 4822,
      "ĠêĻĸÐºÐ¾Ð¶Ðµ": 4823,
      "ĠÐ¼Ð¾Ð»Ð¸ÑĤÐ²Ð°": 4824,
      "ÑıÐ½Ð°": 4825,
      "ĠÐ±Ð¶Ð¸": 4826,
      "ĠÑģÑĤÐ°ÑĢÐ¾ÑģÑĤÐ°": 4827,
      "¾¿": 4828,
      "á¾¿": 4829,
      "ĠÐ±Ð¾Ð±": 4830,
      "Ð¶Ð°Ð»Ð¸": 4831,
      "ĠÐ´Ð²Ð¾ÑĢÑĭ": 4832,
      "ĠÑ§Ð·Ð¾": 4833,
      "ĠÑĩÐ»Ð¾Ð²Ñ£ÐºÑĥ": 4834,
      "ÑĩÑĮÑİ": 4835,
      "ĠêĻģÐ½Ð°": 4836,
      "ÑĨÐºÐ¾Ð¼Ñĥ": 4837,
      "ÐºÐ¸Ð½Ð°": 4838,
      "Ð¾Ð²ÑĭÐ¼Ð¸": 4839,
      "ĠÐ¿ÑĢÐ¸ÑĪÐµÐ»ÑĬ": 4840,
      "ĠÐ¼ÑĬÐ½": 4841,
      "ĠÑģÑĬÐ¼ÑĮÑĢ": 4842,
      "ĠÑħÐ¾Ð´Ð¸Ð»Ð°": 4843,
      "ĠÐ·Ð°Ð¿Ð¸ÑģÐ¸": 4844,
      "ĠÐ°ÑĢÑħÐ¸ÐµÐ¿Ð¸ÑģÐºÐ¾Ð¿": 4845,
      "ĠÐ´Ñ£Ð»Ð¾Ð¼ÑĬ": 4846,
      "ĠÐ²ÐµÐ»ÐµÐ»": 4847,
      "ĠÐĳÐ¾Ð¶Ð¸Ñı": 4848,
      "ĠÐ»Ð¾Ðº": 4849,
      "ÑĤÑĮÑı": 4850,
      "ĠÐ¼Ñ£ÑĢÑĥ": 4851,
      "ĠÑħÑĢÐ¸ÑģÑĤÐ¸ÑıÐ½": 4852,
      "ĠÑģÐ¾ÑħÑĢÐ°": 4853,
      "ĠÐ¼Ð½Ð¾Ð³Ð¸": 4854,
      "ĠÐ¿ÑĢÐ¸Ð·Ð²Ð°": 4855,
      "ĠÑĥÐ³Ð¾Ð»ÑĮ": 4856,
      "ĠÐ²â¸¯": 4857,
      "Ñ«ÑīÐµ": 4858,
      "ĠÐ¿Ð¾Ð»Ð¾Ð¶Ðµ": 4859,
      "ĠÑģÑ£Ð´Ñ§": 4860,
      "ĠÐ¿Ð¾Ð¼Ñ£ÑĩÐµÐ½Ð¾": 4861,
      "ĠÐ·Ð¾Ð»Ð¾ÑĤÑĭ": 4862,
      "ĠÐ´Ð½Ñı": 4863,
      "ĠÐ¼ÐµÐ½ÑĮ": 4864,
      "Ð½Ð°Ð¼Ð¸": 4865,
      "ĠÐ¢Ðµ": 4866,
      "ĠÑĤÐ²Ð¾ÐµÐ¹": 4867,
      "ĠÐºÐ¾ÑĤÐ¾ÑĢÑĭÐ¹": 4868,
      "Ð´ÐµÑģÑ§ÑĤÑĮ": 4869,
      "ĠêĻ©ÑģÐ¿Ð¾Ð´": 4870,
      "ĠÐ³ÑİÑĢÐ³": 4871,
      "Ð¾ÑĦ": 4872,
      "ÑıÑħ": 4873,
      "Ð¾Ð¶ÑĬ": 4874,
      "Ð±ÑĢÐ°Ð½": 4875,
      "ĠÐ²ÐµÑģÐµÐ»": 4876,
      "ĠÑ³ÐµÑ¡Ð´": 4877,
      "ĠÑģÐ²Ð¾Ð¸Ð¼Ð°": 4878,
      "ĠÐ²ÑģÐµÐ¸": 4879,
      "ĠÐ¾ÑģÐº": 4880,
      "Ð½Ð¾Ñģ": 4881,
      "ĠÑģÐ°Ð¼Ð¾": 4882,
      "ĠÐ½Ð°ÑģÑĭ": 4883,
      "Ð²ÐµÑģÐµÐ»Ð¸": 4884,
      "ĠÐ½ÐµÑı": 4885,
      "ÐµÑĢÑ£": 4886,
      "ĠÐ¿Ð»ÐµÐ¼ÑıÐ½": 4887,
      "ĠÐ´Ð°ÑģÑĤ": 4888,
      "Ð°Ð½Ð½Ð°": 4889,
      "Ð½ÑĮÐ¸": 4890,
      "ĠÐ³Ð¾ÑĢÐ¾Ð´Ðµ": 4891,
      "ĠÐ¸Ð¼ÑıÐ½": 4892,
      "ĠÑĤÐ¾Ð²Ð°": 4893,
      "ĠÐ½ÐµÑĩÐ¸": 4894,
      "ĠÑĤÐµÐ»ÐµÑģ": 4895,
      "ĠÐ´Ð°Ð´Ðµ": 4896,
      "ÑĢÐ¾ÑĪÐ°": 4897,
      "ĠÐ¿Ð¾ÑģÐ»Ð°ÑĤÐ¸": 4898,
      "ĠÐ³Ð½Ñ£Ð²Ð°": 4899,
      "ĠÐĴÐ¾Ð»Ð¾Ð´": 4900,
      "ĠÑĤÑİÑĢÐ¼Ñĥ": 4901,
      "ĠÐ¸Ð´Ð¸": 4902,
      "ĠÑħÑĢÐ°Ð½Ð¸": 4903,
      "ĠÐ¿Ð¾ÑĩÐ¸ÑĤÐ°": 4904,
      "ÑĩÐµÐ¼Ñĥ": 4905,
      "Ð»Ð°Ð½": 4906,
      "ĠÐ¿Ð¾Ð¼Ð¾ÑīÑĮ": 4907,
      "ĠÐ¼Ñ¹Ð¶Ñ¹": 4908,
      "ÑĩÐµÐ¼ÑĬ": 4909,
      "ÐºÐ¸Ð¼ÑĬ": 4910,
      "ĠÐĿÑ«": 4911,
      "ĠÐ¸Ð·Ð²Ð¾Ð»Ð¸": 4912,
      "ĠÑĪÐµÐ´": 4913,
      "ĠÐ´ÑĥÑĪÐ°": 4914,
      "ĠÐ´Ñ£ÑĤÐµÐ¼ÑĬ": 4915,
      "Ð²ÐµÐ½": 4916,
      "ĠÑģÐ²Ð¾Ð¸Ð¼ÑĮ": 4917,
      "ĠÐ¼Ð»ÑģÑĤÑĮ": 4918,
      "ĠÐ¿Ð¾ÑģÐ»êĻĭÑĪÐ°": 4919,
      "ĠÐ°Ð¶ÑĮ": 4920,
      "Ð°ÑĤÑĥ": 4921,
      "Ð½ÐµÑģÑĤÐ¸": 4922,
      "ĠÐ´ÑĢÑĥÐ³Ñĭ": 4923,
      "Ð±Ð»Ñ§": 4924,
      "Ð¶ÑĸÐµ": 4925,
      "ĠÐ¿Ð¾Ð³ÑĥÐ±Ð¸": 4926,
      "ĠÐ¿Ð¾ÑģÐ»Ð°Ð»ÑĬ": 4927,
      "ĠÐ±êĻĳÑģ": 4928,
      "ĠÐ±Ð¾Ð³Ð¾ÑĢÐ¾Ð´Ð¸ÑĨÐ¸": 4929,
      "ĠÐ°Ð½Ð´ÑĢÐµÑİ": 4930,
      "ĠÐºÐ¾ÑĤÐ¾ÑĢÐ¾Ð¸": 4931,
      "ĠêĻģÐ»Ð°": 4932,
      "ĠÐĽÑ£": 4933,
      "ĠÐ²ÐºÑĥ": 4934,
      "ĠÐ½ÐµÐº": 4935,
      "ĠÐ¿ÑĢÐ¸Ð¸": 4936,
      "ÑĪÐ¸Ð½Ð°": 4937,
      "ĠÐ½ÐµÐ¼êĻĭ": 4938,
      "ĠÐ·Ð½Ð°Ð¼ÐµÐ½": 4939,
      "ĠÐ³Ðµ": 4940,
      "ĠÐ¿ÑĢÐ¾ÑĩÑĮ": 4941,
      "Ð²ÐµÐ´Ð¸": 4942,
      "ĠÑģÑĤÐ°Ð½ÐµÑĤ": 4943,
      "Ð²Ñ§": 4944,
      "ÑģÑĤÐ¸Ð»ÑĬ": 4945,
      "ÑĤÐ¸Ð½ÑĬ": 4946,
      "ĠÑ¡Ð±Ð¸": 4947,
      "ÑĪÐµÑģÑı": 4948,
      "êĻģÐ½Ð°": 4949,
      "ĠÐ¿ÑĢÑ£Ð´": 4950,
      "ĠÐ¿Ð¾ÑĢÑ¹": 4951,
      "ĠÑĩÑİÐ´Ðµ": 4952,
      "ĠÐ·Ð»Ñĭ": 4953,
      "ĠÐķÑīÐµ": 4954,
      "Ð¿Ð°Ð½Ð°": 4955,
      "ĠÑģÐ»ÑĥÑĩÐ¸ÑĤÑģÑı": 4956,
      "ĠÐ¶ÐµÐ»": 4957,
      "ĠÐ²Ð¾Ð·Ð´Ð°": 4958,
      "ÑĩÐ¸Ð½Ðµ": 4959,
      "Ð½Ð¸ÑĨÑİ": 4960,
      "ÑĢÐ°Ð¼Ð¸": 4961,
      "ĠÐ¶Ð¸Ð·Ð½Ð¸": 4962,
      "ĠÐ¿Ð¸ÑģÐ¼Ð¾": 4963,
      "ĠÑĢÑĭÐ±Ð°": 4964,
      "ĠÐ²ÑģÑıÐºÐ¸Ðµ": 4965,
      "ĠÐ²Ð·ÑıÐ»ÑĬ": 4966,
      "ĠÐ´Ð°ÑĢÑĭ": 4967,
      "ÑĨÐ¾Ð²ÑĭÑħ": 4968,
      "ĠÑģÐ²Ð¾ÐµÐ¼êĻĭ": 4969,
      "ĠÑĤÐ°ÐºÐ¾Ð¶Ð´Ðµ": 4970,
      "ĠÐ¸Ð½Ð¾Ð·ÐµÐ¼": 4971,
      "ĠÑĩÐµÐ»Ð¾Ð±Ð¸ÑĤÑĮÑİ": 4972,
      "ĠÐ²ÐµÑĢÐµ": 4973,
      "Ð·Ñ§": 4974,
      "Ð±ÑĢÑ§": 4975,
      "ĠÐ³Ð°Ð»Ð¸": 4976,
      "ĠÐ¼Ñ£ÑģÑĤÐµ": 4977,
      "ĠÑģÐ¿Ð¾ÑĢ": 4978,
      "ĠÐ²Ð·Ñ§ÑĤÐ¸": 4979,
      "ĠÐ¼Ð½Ð¾Ð³Ð¸Ð¼Ð¸": 4980,
      "ĠÐ³Ð¾ÑģÐ¿Ð¾Ð´Ð¸": 4981,
      "ĠÐ´Ð°Ð½Ð¸Ð»": 4982,
      "ÑģÑĤÐ°Ð²Ð°": 4983,
      "Ð½ÑİÑİ": 4984,
      "ÑģÑĤÑ£Ð¸": 4985,
      "ÑĤÑĢÐ¾": 4986,
      "ÑĤÑĢÑĮ": 4987,
      "ĠÐ¸Ðº": 4988,
      "ĠÐ¼Ð¾ÑĢÑİ": 4989,
      "ĠÐ´ÐµÑģÑıÑĤ": 4990,
      "ÑĩÐ¸Ñİ": 4991,
      "ĠÐ³Ð¾ÑģÑĥÐ´Ð°ÑĢÐµÐ²Ðµ": 4992,
      "ĠÐ®": 4993,
      "Ð´Ð¾Ð±": 4994,
      "ÐµÑĢÐ¾": 4995,
      "ĠÐ¶ÐµÑĢÐµ": 4996,
      "Ñ¹Ð¼": 4997,
      "ĠÐ´ÐµÐ¸": 4998,
      "ĠÐ¿Ð¾ÑģÑĢÐµÐ´Ñ£": 4999,
      "ĠÐ²ÐµÐ½": 5000,
      "ĠÐ¶Ð¸Ð²Ð¾ÑĤÑĭ": 5001,
      "ĠÐĴÐ»Ð°Ð´Ð¸Ð¼ÐµÑĢÑĬ": 5002,
      "Ð°ÐºÐ°": 5003,
      "ĠÑĢÐµÐºÐµ": 5004,
      "ĠÐºÐ°Ð±Ð°": 5005,
      "ĠÐľÐ¸": 5006,
      "ĠÐ¸Ð½ÑĬ": 5007,
      "ĠÐ³Ð»Ñ§": 5008,
      "ĠÐ·Ð¼Ñ£": 5009,
      "ĠÑĥÑģÐ»ÑĭÑĪÐ°": 5010,
      "Ð¾ÑģÐ»Ð°Ð²ÑĬ": 5011,
      "Ð´Ð°Ð½Ð°": 5012,
      "ĠÐ²ÑĮÑģÐ¸": 5013,
      "ĠÐ²Ð°ÑĪÐµÐ³Ð¾": 5014,
      "Ġâģĺ": 5015,
      "ÑĩÑĸÑİ": 5016,
      "ĠÐ²ÑģêĻĹ": 5017,
      "ĠÑıÑĢÐ¾ÑģÐ»Ð°Ð²": 5018,
      "Ð½ÑıÑı": 5019,
      "ĠÑĢÑĥÐºÐ°Ð¼Ð¸": 5020,
      "Ð±Ð¸Ðµ": 5021,
      "ĠÐ·Ð°Ð¿Ð¾Ð²": 5022,
      "ĠÐ¿Ð¾Ð³êĻĭ": 5023,
      "ĠÑģÑĤÐ°Ð»Ð¸": 5024,
      "ĠÐ¿ÑĢÑĸÐ¸Ð¼": 5025,
      "Ð°Ð·ÑĥÐµÑĤÑĬ": 5026,
      "ĠÐ²Ð¾Ð»ÑĮ": 5027,
      "Ð¾Ð¼Ð¸": 5028,
      "ÑĸêĻĹ": 5029,
      "ĠÐĳÐµ": 5030,
      "ĠÐºÐ°Ð·Ð°": 5031,
      "ĠÐ±Ð»Ð°Ð³Ð¾Ð´Ñ£": 5032,
      "ĠÐ±ÑĭÐ²Ð°ÐµÑĤÑĮ": 5033,
      "ĠÐ¿Ð¾Ð±Ñ£Ð´Ð¸": 5034,
      "ĠÐ±Ð¾Ñĥ": 5035,
      "ÑģÐºÐ¾Ð²Ð°": 5036,
      "ĠÐ´ÐµÐ½ÑĮÐ³Ð¸": 5037,
      "ĠÐ¸Ð½Ð´Ñ£": 5038,
      "ĠÑĩÐµÑĤÐ²ÐµÑĢÑĤÐ¸": 5039,
      "ÑĪÐ»Ð¸": 5040,
      "ĠÐ½Ð°ÑģÑĤÐ°Ð²": 5041,
      "Ð²Ð°Ð¸": 5042,
      "ÑīÐµÐ½Ð¸Ðµ": 5043,
      "ĠÐ²ÑģÐµÑħÑĬ": 5044,
      "ÐºÐ°ÐºÐ¾": 5045,
      "ĠÑģÐ»ÑĮ": 5046,
      "ĠÑģÐºÐ²ÐµÑĢ": 5047,
      "ĠÑĤÐ¾Ð²Ð°ÑĢÐ¸": 5048,
      "ĠÐ¼Ð¾Ð¶ÐµÑĤÑĬ": 5049,
      "ĠÐ¡ÑĤÑĢÐ°": 5050,
      "ĠÑģÑĤÑ£Ð½Ñĭ": 5051,
      "ĠÐ´Ð»Ð¸": 5052,
      "ĠÐ½ÐµÑĢÐ°": 5053,
      "ĠÐºÑĥÑĢ": 5054,
      "ĠÐ´Ð¾Ð±ÑĢÑĭÐ¹": 5055,
      "ĠÐ¿Ð¾ÑħÐ²Ð°Ð»Ð¸": 5056,
      "ĠÐ¿Ð¾ÑħÐ¾ÑĩÐµÑĪÑĮ": 5057,
      "ÐºÐ»Ð¸": 5058,
      "ÑĨÐµÐ¼ÑĮ": 5059,
      "ÐµÑĢÐµÐ¼": 5060,
      "ĠÑĩÐµÑģ": 5061,
      "Ð¸Ð½êĻĭ": 5062,
      "ĠÐ¾ÑĥÐ¶Ðµ": 5063,
      "Ð¶ÐµÐ¹": 5064,
      "ĠÐ´Ð¾Ð¼Ð¾": 5065,
      "ĠÐ´ÑĮÑĢ": 5066,
      "ĠÐ±Ð¾Ð³Ð°ÑĤÑĭÑĢÑı": 5067,
      "ĠÐ¢Ð°ÐºÐ¾Ð¶Ðµ": 5068,
      "Ð½Ð¾Ð¿": 5069,
      "ĠÐ½Ð¸ÑĩÑĮ": 5070,
      "ĠÐ´Ñ£Ð»Ñ§": 5071,
      "ĠÐ°ÑĢÑħÐ¸Ð¼Ð°Ð½Ð´": 5072,
      "ĠÐ·Ð¾Ð²": 5073,
      "ĠÐ¿ÑĢÐ¾Ñħ": 5074,
      "ĠÐ±ÑĭÐ²Ð°ÑİÑĤÑĬ": 5075,
      "Ð´ÑĢ": 5076,
      "ÑĩÐ½Ð¾Ð¹": 5077,
      "Ð±Ð»ÑĮ": 5078,
      "ĠÑģÐ»Ð¾Ð²Ñ£": 5079,
      "ĠÐ¢ÑĢÐ¾": 5080,
      "ĠÐ¶Ð¸Ð²Ð¾ÑĤÑ£": 5081,
      "ĠÑĦÐµÐ´Ð¾ÑĢÐ¾Ð²": 5082,
      "ĠÐºÐ¾ÑĢÐ¾Ð»Ñİ": 5083,
      "ĠÐ½ÐµÐ¸Ð·": 5084,
      "ĠÑĤÑĢÑĬ": 5085,
      "ĠÐ¾ÑĤÐ²Ðµ": 5086,
      "ĠÑĨÐ°ÑĢÑ§": 5087,
      "ĠÐ²Ð¾Ð´Ð¾Ñİ": 5088,
      "ÐµÐ²ÑĭÐ¼": 5089,
      "ĠÐ²Ð·ÑıÐ»": 5090,
      "ĠÑĢÑ§": 5091,
      "ĠÐ¿Ð¸ÑīÐ°Ð»": 5092,
      "ĠÐ¿Ð¾Ð¸ÑĤÐ¸": 5093,
      "ĠÐ¼Ð°Ð»Ñ£": 5094,
      "ĠÐ´ÐµÐ»ÐµÑħ": 5095,
      "Ð¸Ð´ÐµÑĤ": 5096,
      "ĠÐ¿ÐµÑĩÐ°Ð»": 5097,
      "ĠÑĢÐ°Ð¸": 5098,
      "ĠÐ¸Ð·Ð¾": 5099,
      "ĠÑĤÐ¸Ñĥ": 5100,
      "Ð»ÐµÐ¿": 5101,
      "ĠÐºÐ°Ð»Ð¸": 5102,
      "ĠÐ±ÐµÐ·Ð·": 5103,
      "ĠÐ¿Ð¾Ð»Ð¾ÑĨ": 5104,
      "ĠÑģÑĸÐ¸": 5105,
      "ÑĪÐµÐ½Ð°": 5106,
      "ĠÐ¿ÑĢÐµÑģÑĤÐ°Ð²": 5107,
      "ĠÐ¿Ð¾ÐºÐ¾": 5108,
      "ĠÐ·Ð´Ñ£Ð»Ð°": 5109,
      "ĠÑĦÑĥÐ½ÑĤ": 5110,
      "ĠÐ¿Ñ§ÑĤ": 5111,
      "Ð´Ð¸ÑĤ": 5112,
      "ÑģÑĤÐ²Ñĭ": 5113,
      "ĠÐ²ÑģÑ§ÐºÐ°Ñ§": 5114,
      "ĠÐ³Ð¾Ð²Ð¾ÑĢÐ¸ÑĤÐ¸": 5115,
      "ĠÐ´Ð¾Ð±ÑĢÑĭÐµ": 5116,
      "ĠÐ¢ÑĥÑĤÑĬ": 5117,
      "ĠÐ°Ð»ÐµÐºÑģÐµ": 5118,
      "Ð°ÑĤÑ£": 5119,
      "Ð¾Ð²ÑĭÑı": 5120,
      "ĠÐ§Ð°": 5121,
      "Ð³Ñ£": 5122,
      "ĠÐµÑĢÐµ": 5123,
      "ÐºÐ¸Ð¼": 5124,
      "ĠÐ±Ð¾Ð»ÐµÐ·": 5125,
      "ĠÑĩÐµÑĢÑĤÑĭ": 5126,
      "ĠÑģÐºÑĬÑĢ": 5127,
      "ĠÑħÑĢÐµ": 5128,
      "Ð²Ñ£Ðµ": 5129,
      "ĠÐ¿Ð¾Ð¶Ð½Ð¸": 5130,
      "ĠÐºÐ½Ñ§Ð·Ð¸": 5131,
      "ÑģÑĤÑĸ": 5132,
      "ĠÐ¶ÐµÐ½ÑĮ": 5133,
      "Ð´Ð¾ÑģÑĤÑĮ": 5134,
      "ĠÐ¿ÐµÑĢÑģÑĤ": 5135,
      "ĠÐ¿Ð»Ð¾ÑĤ": 5136,
      "ĠÐ³Ð¾Ð´Ð°": 5137,
      "ĠÐ²ÑĢÐ°Ð³ÑĬ": 5138,
      "ĠÑģÐ¼ÐµÑĢÑĤÐ¸Ñİ": 5139,
      "ÏĦ": 5140,
      "ÐµÑĤÑ£": 5141,
      "ÑģÐºÐ¾Ð²": 5142,
      "ÑĤÑĮÑ§": 5143,
      "Ð²Ñ£Ñī": 5144,
      "ĠÑģÑĭÐ½Ð¾Ð¼": 5145,
      "ĠÐ²Ñ£ÑĩÑĮ": 5146,
      "ĠÐ¸Ð²Ð°Ð½ÑĬ": 5147,
      "ĠÑĩÐµÐ»Ð¾Ð²ÐµÐºÑĬ": 5148,
      "ĠÑĩÐ°ÑģÑĬ": 5149,
      "ÑĮÐ½Ð¾": 5150,
      "ĠÐ¿Ñ§": 5151,
      "ĠÐ¡Ð°": 5152,
      "ĠÐ¿ÑĢÐµÑģÑĤÐ°Ð²Ð¸": 5153,
      "ĠÐ³Ð¾ÑĢÐ°": 5154,
      "ĠÐ¸ÑģÑĤÐµÑĨ": 5155,
      "ĠÐ£Ð¶ÑĬ": 5156,
      "Ð¾Ð²Ð¸ÑĩÑĬ": 5157,
      "ĠÐ±Ð°Ð³": 5158,
      "ĠÐ½Ð¾Ð²Ñ£": 5159,
      "ĠÐ´Ð¾Ð±ÑĢÐ°Ð³Ð¾": 5160,
      "Ð³Ð¾ÑĤÐ¾Ð²": 5161,
      "ĠÑĤÐµÐ»Ñ£": 5162,
      "ĠÑĢÐ¾Ð³": 5163,
      "ĠÐ¿Ð¾ÑĩÐ°": 5164,
      "ĠÑĨÑģ": 5165,
      "ĠÐ±Ð¾Ð»Ðµ": 5166,
      "ĠÑĥÑĢÑıÐ´": 5167,
      "ĠÐ²ÐµÐ»ÐµÐ½ÑĮÑİ": 5168,
      "ĠÐ½ÐµÐ´ÑĢÑĥÐ³Ð¾Ð²ÑĬ": 5169,
      "ÑĤêĻĳ": 5170,
      "ĠÐ¶ÐµÐ½ÑĬ": 5171,
      "Ð²Ñ£ÑĤÐ°": 5172,
      "ĠÐ¼Ð¸ÐºÑĥ": 5173,
      "ĠÐĴÑĬÐ·": 5174,
      "ĠÐ³ÑĢÐ¸Ð²ÐµÐ½ÑĬ": 5175,
      "ĠÐ²ÑģÑıÐºÐ¸Ð¼Ð¸": 5176,
      "ĠÐ¿Ð¾Ð»ÐºÑĬ": 5177,
      "000": 5178,
      "ĠÐ»ÑĥÑĤ": 5179,
      "ĠÐ¶ÐµÐ½Ñ¹": 5180,
      "ÐµÐ»Ñĭ": 5181,
      "ÐºÐ°ÑĤÐ¸": 5182,
      "ĠÐ¿ÑĢÐ¸Ð±Ð°Ð²": 5183,
      "ĠÑħÑĥÐ´": 5184,
      "ĠÐ»ÑİÐ±Ð¸Ð¼": 5185,
      "ĠÑģÑĤÑĬ": 5186,
      "ĠÑģÑĤÑĥ": 5187,
      "Ð²Ñ£Ð´Ñ£": 5188,
      "ĠÐ»Ð¸ÑģÑĤÑĬ": 5189,
      "ÑģÐºÐ°Ñ§": 5190,
      "ĠÐ´ÐµÑĢÐ·": 5191,
      "ĠÐ¿Ð¸ÑģÑĮ": 5192,
      "ĠÐ¿Ð»Ð°ÑĤÑĮÐµ": 5193,
      "ĠÐ´ÑĢÐ¾Ð±": 5194,
      "ĠÑģÑĢÐµ": 5195,
      "Ð»ÐµÐ¹": 5196,
      "ÑīÐµÑĤÑĮ": 5197,
      "ĠÐ´Ð°Ð»Ð°": 5198,
      "ĠÐ¸Ð¼Ð°Ð¼": 5199,
      "ĠÐ¢Ð²Ð¾ÑĢ": 5200,
      "ĠÑģÑĤÐ¾ÑıÑĤÐ¸": 5201,
      "ĠÑģÐ»ÑĥÐ¶Ð±Ñĥ": 5202,
      "ĠÑĨÑ£Ð»Ð¾Ð²": 5203,
      "ĠÐ¿Ð¾ÑģÐ»Ð¾Ñĥ": 5204,
      "ÑĢÐºÐ¾Ð²ÑĮ": 5205,
      "ĠÐ³Ð»Ñİ": 5206,
      "ĠÑĥÑĤÐµ": 5207,
      "ĠÑģÑĤÐµÐ¿Ð°Ð½": 5208,
      "ĠÐ²ÑĮÑģÐµÐ³Ð¾": 5209,
      "ĠÐĶÐ¾Ð±ÑĢÑĭÐ½Ñı": 5210,
      "Ð²ÑģÑı": 5211,
      "ĠÐĵÐ»Ð°Ð³Ð¾Ð»": 5212,
      "ĠÑģÑ£Ð´": 5213,
      "ĠÑĤÑĢÑ¹": 5214,
      "ĠÐ»ÑİÐ´ÑĮÐµ": 5215,
      "ĠÐ¿ÑĢÐµÐ¼ÑĥÐ´": 5216,
      "Ð¿Ñĭ": 5217,
      "Ð½Ð¸Ð½ÑĬ": 5218,
      "ĠÑĥÑĩÐ½ÑĥÑĤÑĬ": 5219,
      "ĠÐ³Ð¾Ð»Ð¾Ð²": 5220,
      "ĠÐ±Ð¾Ð³Ð°ÑĤÑĭÑĢÐ¸": 5221,
      "ĠÐ¼Ð°Ð½Ð°ÑģÑĤÑĭÑĢÑı": 5222,
      "ĠÑĥÐ±ÑĮ": 5223,
      "Ð¾Ð²ÐµÐ¹": 5224,
      "ĠÐµÐ´Ð¸Ð½Ð°Ð³Ð¾": 5225,
      "ĠÐĸÐµ": 5226,
      "Ð²Ð°ÑĪÐµ": 5227,
      "ĠÐ¿Ð¾ÑģÐ¿Ñ£": 5228,
      "Ð°ÑģÐ°": 5229,
      "ĠÐ·ÐµÐ¼ÐµÐ»ÑĮ": 5230,
      "Ð½Ð¸ÐºÑĮ": 5231,
      "ĠÐ´ÐµÑĢÐµÐ²ÐµÐ½ÑĮ": 5232,
      "ÑĤÑĭÐ¸": 5233,
      "ĠÐ¿ÑĪÐµÐ½Ð¸": 5234,
      "ĠÐ½Ñĸ": 5235,
      "Ð¾ÑĢÑĮ": 5236,
      "ĠÐ¸Ð·ÑģÑĤÐ°ÑĢÐ¸": 5237,
      "ĠÐ²Ð¸Ð½Ñĭ": 5238,
      "ĠÐ²Ð°ÑģÐ¸Ð»ÐµÐ¹": 5239,
      "ĠÐ²ÑħÐ¾Ð´": 5240,
      "ÐºÐ°Ð¼": 5241,
      "ĠÐ¾Ð±Ð¾": 5242,
      "ĠÐ²ÑģÑ§ÐºÐ¾": 5243,
      "ĠÑıÐ²Ð»ÑıÐµÑĤ": 5244,
      "ÑħÐ½Ð¸": 5245,
      "Ð¿ÑĢÐµ": 5246,
      "Ð²Ð°Ð°": 5247,
      "ĠÑıÐ·ÑĬ": 5248,
      "ĠÐ¿Ð°ÑĪÐ½Ð¸": 5249,
      "ĠÐ¿Ð¾Ð²ÐµÐ»Ð¸": 5250,
      "ĠÐ¿Ð¾ÑĤÑĢÐµ": 5251,
      "ÐµÑĤÐµÐ¸": 5252,
      "ĠÐļÐ°ÑĢ": 5253,
      "ĠÐ´ÐµÑĢÐµÐ²Ð½Ðµ": 5254,
      "ĠÐ³ÑĢÑ£ÑħÑĭ": 5255,
      "ĠÐ¿ÑĢÐ°Ð²ÑĮÐ´ÑĮ": 5256,
      "Ð¼Ð½": 5257,
      "ĠÑģÐ»Ð¾Ñĥ": 5258,
      "ĠÐ¶Ð¸Ð»Ð¸": 5259,
      "ĠÐ¶Ð¸Ð·Ð½ÑĮ": 5260,
      "ĠÐ²ÑĬÐ·Ñ§": 5261,
      "ĠÑģÐ¾Ð±Ðµ": 5262,
      "ĠÐ¿ÑĢÐ¸ÑĪÑĮ": 5263,
      "ĠÐ·Ð°Ð±": 5264,
      "ĠÐ½Ð°Ð¿Ð¸ÑĪ": 5265,
      "ÑķÑ£": 5266,
      "ĠÐ´ÑĮÑģÑ§": 5267,
      "ĠÐ±Ð¾ÑıÑĢÑģÐºÐ¾Ð³Ð¾": 5268,
      "ĠÐºÐ¾ÑĥÐ½ÑĬ": 5269,
      "ĠÑģÐºÐ°Ð¶ÐµÑĤ": 5270,
      "ĠÐ¿Ð¾ÑĤÐµ": 5271,
      "ĠÑĦÐµÐ¾Ð´": 5272,
      "ĠÐ³Ð»Ð°Ð²Ð°": 5273,
      "ĠÐ»Ð°ÑĤÐ¸Ð½Ðµ": 5274,
      "Ð¾ÑĢÐ¾Ð½": 5275,
      "Ð¸ÑģÐ¸": 5276,
      "ĠÐ»ÑİÐ±ÑĬ": 5277,
      "ĠÐ²ÐµÐ»Ð¸ÐºÐ¸ÑħÑĬ": 5278,
      "ĠÐ±Ð¾ÑıÑĢÐ¸Ð½Ñĥ": 5279,
      "ĠÐ´Ð°ÑĢÑĬ": 5280,
      "ĠÑİÐ¶Ðµ": 5281,
      "ĠÐ¸Ð½Ð¾Ð¼Ñĥ": 5282,
      "Ð°Ð½ÑĮÑİ": 5283,
      "ĠÑģÑģÑĭ": 5284,
      "ĠÐ¶ÐµÑĢ": 5285,
      "ĠÑĦÐ°ÑĢÐ°": 5286,
      "ĠÑģÑĤÐ¾ÑĢÐ¾Ð½": 5287,
      "ĠÐ¼Ð¾ÑģÐºÐ²Ñ£": 5288,
      "ĠÐļÐ¸ÐµÐ²ÑĬ": 5289,
      "ĠÐŁÐ¾Ð¸": 5290,
      "Ð´Ñ£ÑĤÐµ": 5291,
      "ĠÐ¿Ð°Ð³Ñĥ": 5292,
      "ĠÐ¿Ð¾ÑħÐ¾ÑĤ": 5293,
      "ÑĤÑ¹": 5294,
      "Ð¶ÐµÐ¼ÑĬ": 5295,
      "ĠÐ´Ñ£Ð»Ñ£ÑħÑĬ": 5296,
      "ĠÐ±ÑĭÑĤ": 5297,
      "ĠÐ²ÑĭÑħÐ¾Ð´": 5298,
      "ÑĢÐ¾ÑģÐ¸": 5299,
      "ĠÐ¿ÑĢÐµÐºÑĢÐ°ÑģÐ½Ð°Ñı": 5300,
      "Ð²Ð°ÐµÑĤ": 5301,
      "Ð¾Ð»ÑİÐ±": 5302,
      "Ð½Ð¾ÑģÑĤÐ¸": 5303,
      "ĠÑģÐ»Ð¾Ð²ÐµÑģÑĬ": 5304,
      "ĠÑģÐ»ÑĥÐ¶Ð±Ñĭ": 5305,
      "ĠÐ½Ð¸ÐºÐ¾Ð»Ð¸Ð¶Ðµ": 5306,
      "Ð¾ÑĢÑ£": 5307,
      "ĠÐ½ÐµÐ´ÐµÐ»ÑīÐ¸": 5308,
      "ĠÐ²Ð½Ðµ": 5309,
      "Ð¾Ð³Ñĥ": 5310,
      "Ð¾Ð¿Ð¸": 5311,
      "ĠÑģÑĤÐ°ÑĢÐ¾Ð¼Ñĥ": 5312,
      "ĠÑħÐ¾Ð´Ð¸Ð»": 5313,
      "ĠÐ¾ÑĤÐ´Ð°Ð²Ð°ÑĤÐ¸": 5314,
      "ĠÐ²ÑĢÑ£Ð¼Ñı": 5315,
      "Ð°Ð½ÑĨÑĭ": 5316,
      "Ð´Ñ£ÑħÑĬ": 5317,
      "Ð²Ð¸Ð¸": 5318,
      "ĠÐ¿Ð¾ÐºÑĢÐ¾Ð²": 5319,
      "ĠÐ²Ð¾Ð·Ð´Ð²Ð¸": 5320,
      "Ð²ÑĭÐ¼ÑĬ": 5321,
      "ĠÐ¼ÐµÐ¶ÑĬ": 5322,
      "ĠÐ¿Ð¾Ð³ÑĢÐµÐ±": 5323,
      "Ð³Ð»ÑĭÑħ": 5324,
      "ĠÑĢÐ°Ð±Ñĭ": 5325,
      "ĠÐ¼ÐµÑģÑĤÐµ": 5326,
      "Ð¾Ð²ÑĮÐµ": 5327,
      "ĠÑĢÑĥÐ±Ð»Ð¸": 5328,
      "ĠÑĨÐµÐ»Ð¾Ð²Ð°Ð»": 5329,
      "ÑĥÑģ": 5330,
      "Ð¼Ñĸ": 5331,
      "ĠÑĢÐ¾Ð²": 5332,
      "ĠÑģÐ»êĻĳ": 5333,
      "ĠÐłÐ°Ð·": 5334,
      "ĠÐºÐ¾Ð»ÐºÐ¾": 5335,
      "ĠÐ¾ÑĥÐ´": 5336,
      "ĠÐĲÐ´Ð°": 5337,
      "Ð½ÑıÑĤÑĮ": 5338,
      "ĠÐ¼ÐµÑģÑĤ": 5339,
      "ĠÐ½Ð°ÐºÐ°Ð·Ð°Ð½": 5340,
      "ĠÑĩÐ»Ð¾Ð²Ñ£ÐºÐ°": 5341,
      "ĠÑĢÐ°Ð´Ð¾Ð²Ð°ÑĤÐ¸": 5342,
      "ĠÐ¿ÑĢÐ¸Ð²ÐµÐ·": 5343,
      "ĠÐºÑĤ": 5344,
      "ĠÐ³ÐµÐ½": 5345,
      "ĠÐ½Ð¸ÐºÑĤÐ¾Ð¶Ðµ": 5346,
      "Ð¸ÑĤÐµÐ»Ñı": 5347,
      "ĠÐ¿Ð¾Ð²Ðµ": 5348,
      "ĠÐ¾Ð±ÑĮ": 5349,
      "ĠÐ²Ñ£ÑĢÐ°": 5350,
      "ĠÐ²Ð¸Ð½Ð¾": 5351,
      "ĠÐ´Ð¾Ð¼Ð¾Ð²": 5352,
      "ĠêĻĳ": 5353,
      "ĠÐºÐ²Ð°": 5354,
      "ĠÐºÑĢÑ£Ð¿ÐºÐ¾": 5355,
      "Ð»ÑĤ": 5356,
      "ĠÐ½Ð°Ð¸": 5357,
      "ĠÐ¿Ð¾ÑĤÐ°": 5358,
      "Ð°ÑĤÐµÐ»ÑĮ": 5359,
      "ĠÐ·Ð°Ð¿Ð»Ð°ÑĤÐ¸": 5360,
      "ĠÐ±Ð»Ð°Ð¶ÐµÐ½": 5361,
      "ĠÑĤÑĥÑĢ": 5362,
      "ĠÐ³Ð»Ð°Ð³Ð¾Ð»ÑİÑīÐµ": 5363,
      "Ġ13": 5364,
      "ĠÐ¼ÑģÑĨÐ°": 5365,
      "Ñ§Ð»Ð¸": 5366,
      "ĠÑģÐ»Ð¾Ð²Ð¾Ð¼ÑĬ": 5367,
      "ĠÐ±Ð¾Ð³Ð°ÑĤÑĭÑĢÑĮ": 5368,
      "Ñ§Ð½Ð°": 5369,
      "ÑīÐ°Ð½": 5370,
      "ĠÑĥÑħ": 5371,
      "ĠÑĤÐ²Ð¾ÐµÐ¼": 5372,
      "ĠÐ²ÑģÑ§ÐºÑĸÐµ": 5373,
      "Ð³Ð½Ñĥ": 5374,
      "ÑĨÐ¾Ñĥ": 5375,
      "Ð¾ÑĥÑĤÑĮ": 5376,
      "ĠÐ¿Ð¾Ð»Ð°ÑĤÑĭ": 5377,
      "ÐºÐ°Ð·ÑĬ": 5378,
      "ĠÐ¿ÑĢÐ¾ÑĩÐ¸": 5379,
      "ĠÐ¼ÑĭÑģÐ»ÑĮ": 5380,
      "ĠÐ½Ð±Ñģ": 5381,
      "ĠÐ»Ð°Ð·": 5382,
      "ĠÐ±Ð¾Ð»ÑĪ": 5383,
      "ĠÐ²Ð°ÑģÐ¸Ð»ÑĮÑİ": 5384,
      "ĠÑĢÐµÐºÐ»Ð°": 5385,
      "ĠÑģÑĤÑĢÑ£Ð»ÑĮÐ±Ñ£": 5386,
      "ÑĥÐ¼Ñĥ": 5387,
      "ĠÐºÑĬÑĤÐ¾": 5388,
      "ĠÑĪÐ»Ð¾": 5389,
      "ĠÑķÑ£": 5390,
      "ĠÐĴÐ¾Ð»Ð¾Ð´Ð¸Ð¼": 5391,
      "ĠÐ¿Ð¾Ð¶Ðµ": 5392,
      "ĠÐºÐµÐ¼": 5393,
      "ĠÐ¿ÑĢÐ¾Ð¶Ð¸ÑĤ": 5394,
      "ĠÑĥÑģÐ¿": 5395,
      "Ð²Ð¸ÑĤÑĮ": 5396,
      "ĠÑĥÑĩÐ¸Ð½Ð¸ÑĤÑģÑı": 5397,
      "ĠÐ´ÐµÐ½ÐµÐ¶": 5398,
      "Ð³Ð¾ÑĤÐ¾Ð²Ð°": 5399,
      "ĠÐ²ÐµÐ»Ñ£Ð»ÑĬ": 5400,
      "ĠÐ½Ð°Ð·ÑĭÐ²Ð°": 5401,
      "Ð»Ð¸ÐºÐ¾": 5402,
      "Ð²Ð°ÐµÑĤÑĮ": 5403,
      "ĠÑ¿Ð½Ñİ": 5404,
      "Ð´Ð¸Ð½Ð¾": 5405,
      "ÐµÐ½Ð¸Ð¸": 5406,
      "ĠÐ¿Ð¾ÑģÐ»Ð°ÑĪÐ°": 5407,
      "ĠÐ´Ð¾Ð²Ð¾Ð»": 5408,
      "ĠÐ½Ð¸ÐºÑĤÐ¾": 5409,
      "ĠÐ¿ÑĢÐ¾ÑģÐ¸": 5410,
      "ĠÐ·Ð»Ð°ÑĤÑĭ": 5411,
      "ÑĭÐ½Ð¸": 5412,
      "ĠÑħÐ°ÑĢ": 5413,
      "êĻĹÑĤÐ¸": 5414,
      "ĠÐ¼Ð¾ÑīÐ½Ð¾": 5415,
      "ĠÐ²ÑģÐµÑİ": 5416,
      "ĠÑ¥Ð¶Ðµ": 5417,
      "ĠÐ²Ð¾Ð¹ÑģÐºÐ°": 5418,
      "ĠÐµÑĢ": 5419,
      "Ñ¹Ð¸": 5420,
      "ÑĤÐ¾Ñİ": 5421,
      "ĠÑ¥Ð¼Ñ¹": 5422,
      "ĠÐ¸Ð²Ð°ÑĪÐºÐ¾": 5423,
      "ĠÐ¿Ð¾ÑģÐ»Ð°Ð»": 5424,
      "Ð»ÐµÐ²ÑĬ": 5425,
      "ĠÐ½Ð°ÑĪÑĥ": 5426,
      "ĠÐ´Ð°Ð²Ñĭ": 5427,
      "ĠÑ¡ÑĩÐ¸": 5428,
      "ĠÐ±ÑĭÑħ": 5429,
      "ĠÐ¶Ð¸Ð²ÐµÑĤ": 5430,
      "Ð±ÑĢÐ°ÑĤÐ¸": 5431,
      "ĠÐ´Ð¾Ð»Ð³Ð¾": 5432,
      "ĠÐ³Ð¾ÑģÑĥÐ´Ð°ÑĢÐµÐ²ÑĭÑħ": 5433,
      "ĠÐºÐ¾Ð±Ñĭ": 5434,
      "ĠÐ³Ð¾ÑģÐ¿Ð¾Ð´Ð¸Ð½Ñĥ": 5435,
      "ĠÐ²ÑĢÐ°ÑĤÐ°": 5436,
      "ĠÐ·Ð´ÑĢÐ°Ð²Ð¸": 5437,
      "ĠÐ·Ð¾Ð»Ð¾ÑĤ": 5438,
      "ĠÐ¸ÑĤÑĤÐ¸": 5439,
      "ĠÑĤÐ¾ÑĩÐ¸Ñİ": 5440,
      "Ð°ÑĤÐµÐ»": 5441,
      "ÑĥÑĤÑģÑı": 5442,
      "ĠÐ¾Ð±ÑĢÑ£ÑĤÐµ": 5443,
      "ĠÐłÑĥÑģÐ¸Ð¸": 5444,
      "ĠÐ¾Ð±Ð»Ð¸": 5445,
      "Ð»Ñ£Ð´ÑĬ": 5446,
      "ĠÐĶÑ£": 5447,
      "Ð¾Ð»Ð¸ÐºÐ¾": 5448,
      "ĠÑĤÐ²Ð¾ÐµÐ³Ñ¡": 5449,
      "ĠÑĢÑ£ÑĩÐ¸": 5450,
      "ĠÐ¾ÐºÐ»Ð°Ð´": 5451,
      "ĠÑĤÐ°Ð¼Ñ¡": 5452,
      "ĠÐ²Ð´Ñ£": 5453,
      "Ð²Ð°Ñ§": 5454,
      "ĠÐºÐ°ÑĤÐ¾": 5455,
      "ĠÐ±Ð¾ÑıÑĢÐ¸Ð½Ð°": 5456,
      "ĠÐ¼ÑĮÐ½ÑĮ": 5457,
      "ĠÑĢÑĥÐºÐ¾Ñİ": 5458,
      "ĠÑĤÐ°ÐºÐ¸Ð¼ÑĬ": 5459,
      "ĠÐ³Ð»Ð°Ñģ": 5460,
      "ĠÑĢÐ°Ð·ÑĥÐ¼ÑĬ": 5461,
      "ĠÐ¿Ð¾ÑĢÑĥÐºÐ¸": 5462,
      "ĠÐŁÐ¾ÑĤÐ¾Ð¼ÑĬ": 5463,
      "ĠÐ±Ð»Ð°Ð³Ð¾ÑģÐ»Ð¾Ð²Ðµ": 5464,
      "Ð¸Ð½Ñĭ": 5465,
      "ÑĢÐ°Ð²ÑĬ": 5466,
      "ĠÑģÐµÐ±Ñ§": 5467,
      "ĠÐ¡ÑĮ": 5468,
      "ĠÑĩÐµÑģÑĤÐ¸": 5469,
      "ĠÐºÑĥÐ¿Ð¸Ð»": 5470,
      "ÑģÑĤÑĥÐ¿Ð¸": 5471,
      "ĠÐ¿Ñ£ÑĪÐ¸ÑħÑĬ": 5472,
      "Ð»ÐµÐ¼ÐµÐ½": 5473,
      "Ð³Ð»Ð°Ð³Ð¾Ð»": 5474,
      "ĠÐ¿ÑĢÐ¸Ð³Ð¾Ð´": 5475,
      "Ð´Ð°ÑĤÑĮ": 5476,
      "ÑĹÐ°": 5477,
      "Ġ`": 5478,
      "ĠÑģÑĸÑİ": 5479,
      "ĠÐ¿Ð¾Ð»Ð¾Ñĥ": 5480,
      "ÑĢÐ¾ÑģÑĤ": 5481,
      "ĠÐ¿Ð¾Ð²ÐµÐ»": 5482,
      "ĠÐ³Ð»Ð°Ð³Ð¾Ð»Ñ§": 5483,
      "ĠÐ´ÐµÑģÑ§ÑĤÑĮ": 5484,
      "ĠÑĨÐµÐ»Ð¾Ð²Ð°": 5485,
      "ĠÐ²ÑģÑ§ÐºÑĹÐµ": 5486,
      "ĠÐ±Ð¸Ð»ÑĬ": 5487,
      "êĻĹÑĪÐµ": 5488,
      "Ð·Ð¸ÑĢÐ°": 5489,
      "ĠÐ¼Ð¾ÑģÐºÐ¾Ð²ÑģÐºÐ¸Ð¸": 5490,
      "Îµ": 5491,
      "Ð»ÐµÑĤÑĮ": 5492,
      "ĠÐ´ÐµÐ²Ð¸": 5493,
      "ÑĩÐµÐ½Ð°": 5494,
      "Ð»Ñ£Ð½": 5495,
      "ĠÐ¿ÑĢÐ°Ð²Ð´Ñĥ": 5496,
      "Ð»ÑĥÑĩÐ¸": 5497,
      "ÑģÐºÑĭÑı": 5498,
      "ÑĤÐ¾ÑĢÐ°": 5499,
      "ĠÐ¦Ð°ÑĢÑĮ": 5500,
      "ĠÐ¸Ð·Ñ§ÑģÐ»Ð°Ð²ÑĬ": 5501,
      "ĠÐŁÐ¾Ð½ÐµÐ¶Ðµ": 5502,
      "ĠÐ½Ñ§": 5503,
      "ĠÐ±Ð¾Ð¶ÑĮ": 5504,
      "ĠÐ¡Ð¿Ð°Ñģ": 5505,
      "Ð½Ð¸ÐºÑ¹": 5506,
      "ĠÐ´ÑĢÑĥÐ³Ñĥ": 5507,
      "ĠÑĤÐ¾Ð¼êĻĭ": 5508,
      "ĠÐ¥Ñģ": 5509,
      "ĠÐ²ÑģÑıÐºÐ¸Ð¼": 5510,
      "ĠÐ¸ÑİÐ½Ñı": 5511,
      "ĠÑģÑĤÐ°ÑĤÐ¸": 5512,
      "ĠÐ¿Ð¾Ð»ÐºÑĥ": 5513,
      "ĠÐ²Ð¾Ð»Ñħ": 5514,
      "ĠÑģÐ»Ð¾Ð²Ñĥ": 5515,
      "ĠÐ¸Ð¼ÐµÐ½ÐµÐ¼ÑĬ": 5516,
      "Î¿Ï": 5517,
      "ĠÐ¿Ð¾ÑģÑĥ": 5518,
      "ĠÑĶÐ¶Ðµ": 5519,
      "ĠÑĤÐ°ÐºÐ¶Ðµ": 5520,
      "Ð»Ð°Ð³Ð¾Ð»Ð¸": 5521,
      "ĠÑĢÐ°Ð±Ð¾ÑĤÐ°": 5522,
      "ĠÐ¼ÑĬÐ½Ñ£": 5523,
      "ĠÑĤÐ¾ÑĢÐ³Ð¾Ð²": 5524,
      "ĠÐĲÑĢ": 5525,
      "ÑĪÐµÐ½Ð¸Ñı": 5526,
      "ĠÑģÐ²ÑıÑĤÐ°Ð³Ð¾": 5527,
      "Ġ30": 5528,
      "ĠÐ»Ð¾ÑĪÐ°Ð´Ð¸": 5529,
      "ĠÐºÑĢÐµÑģÑĤÐ¸": 5530,
      "ĠÐĽÐµ": 5531,
      "ĠÐ¼Ð½Ñ¡Ð³Ð¾": 5532,
      "ĠÐ¿ÑĢÐ¾ÑĢÐ¾ÐºÑĬ": 5533,
      "ĠÐµÐ¿Ð¸ÑģÐºÐ¾Ð¿": 5534,
      "ÐºÐ¾Ð²Ñĥ": 5535,
      "ĠÑģÑĥÐ·Ð´Ð°": 5536,
      "ĠÐ²ÑģÑıÐºÐ¸ÑħÑĬ": 5537,
      "ĠÐĺÐ»ÑĮÑİ": 5538,
      "ÑĨÐºÐ¸Ñħ": 5539,
      "ÑģÑĤÑ¹Ð¿": 5540,
      "ĠÐ¿Ð°Ð»Ð°": 5541,
      "ĠÐºÐ°ÐºÐ¾Ðµ": 5542,
      "ĠÐ½ÐµÐ¿ÑĢÐ°Ð²ÑĮ": 5543,
      "ÑĪÐµÐ»ÑĬ": 5544,
      "ÑĢÐ¸ÑĤÑĮ": 5545,
      "ĠÐ¶Ð¸Ð»": 5546,
      "ĠÑģÐ¼ÑĢ": 5547,
      "ĠÐ´Ð°Ð½": 5548,
      "ĠÐ½Ð¸Ð±": 5549,
      "Ð¾Ð²Ð¸Ñİ": 5550,
      "ÑĩÑĮÑģÑĤÐ¸": 5551,
      "ĠÐ¼Ð¾Ð»Ñİ": 5552,
      "Ñ£Ð·Ð¶Ð°": 5553,
      "ĠÐ¸ÑİÐ»Ñı": 5554,
      "ĠÐ¡Ð»ÑĭÑĪÐ°": 5555,
      "Ð´Ð½Ð°": 5556,
      "ĠÑĢÐ¸Ð¼": 5557,
      "Ð²Ð°ÑİÑĤ": 5558,
      "Ð¸ÑĤÑģÑ§": 5559,
      "ĠÐ¸ÑģÑĤÐ¸Ð½ÑĮ": 5560,
      "ĠÑĢÐ¾ÑĥÑģÐ¸": 5561,
      "ĠÐ²ÑĮÑģÑ£ÑħÑĬ": 5562,
      "ĠÐ¿Ð¾ÑģÐ»Ñĭ": 5563,
      "ĠÐŀÐ½Ð¸": 5564,
      "ĠÑģÐ¸ÑĢÑ£": 5565,
      "ĠÑĤÐ°ÐºÑĥÑİ": 5566,
      "ĠêĻģÐ²Ñ£": 5567,
      "ĠÐ±êĻĳÑģÑĤÑĬ": 5568,
      "ĠÑĢÐ°Ð·Ð¼Ñ£ÑĢ": 5569,
      "ĠÐ¸Ð½ÑĭÐ¼": 5570,
      "Ð¼êĻĳ": 5571,
      "ĠÑģÐ¸Ð±Ð¸": 5572,
      "ĠÐ¿ÑĥÑģÑĤÐ¸": 5573,
      "Ð²Ð¾Ð»ÑĬ": 5574,
      "ĠÐ¿Ð¾Ð»Ð¾Ð²Ð¸Ð½Ð°": 5575,
      "ÑĤÑĢÐ¸": 5576,
      "ĠÐºÑĬÐ½Ñ§": 5577,
      "ĠÐ²Ñ£ÐºÐ¸": 5578,
      "ĠÑģÑĤÑĢÐ°Ð½": 5579,
      "ĠÐ¼Ð¸Ð»Ð¾ÑģÐµÑĢ": 5580,
      "ĠÐ¿ÑĢÐ¾Ð»": 5581,
      "Ð²Ð°ÑĤ": 5582,
      "ĠÑħÑĥ": 5583,
      "ĠÐ¡Ð¾": 5584,
      "ĠÑĤÑĢÑ£": 5585,
      "ÒĨ,": 5586,
      "Ñ«ÑĤ": 5587,
      "ĠÑĨÐ°ÑĢÐµÐ¼ÑĬ": 5588,
      "ĠÐ¼Ð½Ð¾Ð³Ð¸Ñħ": 5589,
      "ĠÐ´ÐµÑĢÐ¶Ð°Ð²": 5590,
      "ÑĢÐ¾Ð»": 5591,
      "ĠÐ°ÑĤ": 5592,
      "ĠÑĢÐµÐºÐ¸": 5593,
      "ĠÐ¿Ð°ÑĪÐµÐ½": 5594,
      "ĠÐ²Ð°ÑģÐ¸Ð»Ð¸": 5595,
      "ĠÐ´Ð°ÑĪÐ°": 5596,
      "ĠÑģÐ¼Ð¾Ð»ÑĮ": 5597,
      "ĠÐ±Ð¾ÑıÑĢÐµ": 5598,
      "ĠÐ´Ð¾Ð±ÑĢÑĭÑħ": 5599,
      "ĠÐ´Ð°ÑĢÑĥ": 5600,
      "ĠÑĥÑĤÑ£": 5601,
      "ĠÑģÐ¿Ñģ": 5602,
      "ĠÐ¿Ð¾Ð¼ÐµÑģÑĤÐµÐ¹": 5603,
      "ĠÐ½êĻĳÐ½Ñ£": 5604,
      "ĠÐ¾ÑĤÑĮÑĨÑı": 5605,
      "êĻģÐ½ÑĮ": 5606,
      "ĠÐ¸ÑģÑĨÑ£": 5607,
      "ĠÐĵÐ¾ÑĢÐµ": 5608,
      "ĠÐ¸ÑħÑĮ": 5609,
      "ÑĥÑĤÑĩÐ¸": 5610,
      "ĠÑĢÐ¾Ð´ÑĬ": 5611,
      "ĠÐ¸ÑģÑĤÐ¸": 5612,
      "Ð±Ð»Ñı": 5613,
      "ĠÐ¡Ñĥ": 5614,
      "ÑĤÑĨÐ°ÑĤÐ¸": 5615,
      "ĠÐºÐ°Ð½": 5616,
      "ĠÐ¼ÑĢÑĮ": 5617,
      "ĠÐ¿ÑĢÐ¸Ð³Ð¾Ð²Ð¾ÑĢ": 5618,
      "ĠÐ¾ÑĤÐºÑĥÐ¿": 5619,
      "ĠÑĨÐ¸": 5620,
      "ĠÐºÐ°Ð¿": 5621,
      "ĠÐºÐ¾ÑĢÐ°": 5622,
      "ĠÐ¸Ð²Ð°ÑĪÐºÐ°": 5623,
      "ĠÑĤÐ¾Ð¼Ð¾Ñĥ": 5624,
      "ĠÐ¸Ð²Ð°Ð½Ð¾Ð²Ð¸ÑĩÑİ": 5625,
      "ĠÑģÐ²Ð¸Ð´Ñ£": 5626,
      "Ð°ÑħÑĥ": 5627,
      "Ð´Ð¸Ð¼ÑĬ": 5628,
      "ĠÐļÐ¾Ð½": 5629,
      "ĠÐ²Ð·ÐµÐ¼": 5630,
      "ĠÐ´Ð²Ð¾ÑĢÐ¾Ð²": 5631,
      "ÑĨÑ«": 5632,
      "ĠÑ£Ð·": 5633,
      "ĠÐ¼Ð¾Ðº": 5634,
      "ĠÐ¾Ð»ÐµÐº": 5635,
      "Ð»Ð¸Ð²ÑĬ": 5636,
      "ÐµÐ½ÑĸÐ°": 5637,
      "ĠÐ´Ð°Ð¹": 5638,
      "ÑĪÐ°Ð°Ð³Ð¾": 5639,
      "ĠÑĤÑ¡": 5640,
      "ĠÑĤÐ²Ð¾Ð¸Ñħ": 5641,
      "ÑģÑĤÐ¾Ñı": 5642,
      "ĠÑĤÐ°Ð¼ÑĬ": 5643,
      "Ñ³Ð¾Ð½": 5644,
      "ÑģÐ²Ð¸": 5645,
      "Ð»Ð¸Ð²Ð¾": 5646,
      "ĠÐ¿ÑĢÐµÐ¿Ð¾Ð´Ð¾Ð±": 5647,
      "ĠÐ±Ñ£Ð¶Ð°": 5648,
      "ĠÐ½Ñ£ÐºÐ¾": 5649,
      "ĠÐ¡ÑĤÑĢÐ°ÑĤÐ¸": 5650,
      "Ð¾Ð³Ð¾Ð²Ð¾ÑĢ": 5651,
      "Ð¶Ð¸ÑĤÐ¸": 5652,
      "êĻĭÑİ": 5653,
      "ĠÑĸÐ²Ð°Ð½": 5654,
      "ĠÐ¸Ð²Ð°Ð½Ð¾Ð²Ð°": 5655,
      "ĠÐ³Ð¾Ð´ÑĬ": 5656,
      "ĠÐ²ÑģÐµÐ²Ð¾Ð»Ð¾Ð´ÑĬ": 5657,
      "ÐµÐ¼Ðµ": 5658,
      "êĻĭÐ¼": 5659,
      "ĠÑ¿Ð²ÐµÑĢ": 5660,
      "ĠÐ±ÑĮÑĸ": 5661,
      "ĠÐĵÐ¾ÑģÐ¿Ð¾Ð´Ñĥ": 5662,
      "ĠÐ¼Ð°ÐºÑģÐ¸Ð¼": 5663,
      "ĠÐĶÐ¾Ð±ÑĢÑĭÐ½Ñİ": 5664,
      "Ð¸ÑģÐµ": 5665,
      "ĠÐ±ÐµÑģÑĩÐµ": 5666,
      "ÐµÐ½ÑĭÑħ": 5667,
      "ĠÐ´ÐµÑģÑıÑĤÑĮ": 5668,
      "ĠÐ¿Ð¾Ð¶Ð°Ð»ÑĥÐ¸": 5669,
      "ĠÐ¸Ð½Ñĭ": 5670,
      "ĠÐºÐ¾Ð½Ñ£": 5671,
      "ĠÐ²ÑĮÑģÑĮ": 5672,
      "ĠÑĤÑ£Ð¼Ð¸": 5673,
      "ĠÐ´Ð¾Ð¼Ñ¹": 5674,
      "ĠÐ±ÐµÑĢÐµÐ·": 5675,
      "ĠÐ¶ÐµÑĢÐµÐ±Ðµ": 5676,
      "ĠÐ²Ð¾Ð½": 5677,
      "Ð¾ÑĢÑĤÐ¸": 5678,
      "ĠÐĺÐ½": 5679,
      "ĠÑĢÐ¸Ð·": 5680,
      "ĠÐ¶Ð¸ÑĤÐ¸Ðµ": 5681,
      "ĠÑħÐ»Ñ£Ð±Ð°": 5682,
      "ĠÐ¼ÐµÐ¶Ð´Ñĥ": 5683,
      "ĠÑĥÐ¼Ñĭ": 5684,
      "ĠÐĳÑĥÐ´": 5685,
      "Ð´ÑĥÑĤÑĬ": 5686,
      "ĠÐ²ÑģÑ§ÐºÐ°Ð³Ð¾": 5687,
      "Ġ14": 5688,
      "ĠÐ¼Ð¸ÑħÐ°Ð¹Ð»": 5689,
      "ĠÐºÐ»Ð°Ð½Ñ§Ñİ": 5690,
      "ĠÐºÑĥÐ´Ð°": 5691,
      "Ð»Ð°Ð´Ñĥ": 5692,
      "ĠÐ²ÑģÐµÑģ": 5693,
      "ĠÐ¿Ð¾ÑģÐ¾Ð»": 5694,
      "ĠÐ¿Ð¾ÐºÐ°Ð¼": 5695,
      "ĠÐ²ÑģÑıÐº": 5696,
      "ĠÐ¿Ð¾Ð»Ð¾Ð²Ð¸Ð½Ñĥ": 5697,
      "ĠÑģÐ¾Ð»ÑĮ": 5698,
      "ĠÑģÑĤÑĢÐµ": 5699,
      "ÑĩÐµÐ¸": 5700,
      "ĠÑģÐ°Ð¼Ð¾Ð´ÐµÑĢ": 5701,
      "ĠÑģÐ¾ÑĥÑĤÑĮ": 5702,
      "ĠÐ½Ð°Ð´Ð¾Ð±Ðµ": 5703,
      "ĠÐ²Ð½Ð¸Ð´Ðµ": 5704,
      "Ð¸ÑĤÐ¾": 5705,
      "ĠÐ¾ÑĤÐº": 5706,
      "ĠÑĤÐ°ÐºÑĸÐµ": 5707,
      "ĠÐ¸ÑģÑĨÐ¾Ð¼": 5708,
      "ĠÑĤÑ£Ð¼": 5709,
      "ĠÑģÐ²ÑıÑĤÑĭÐ¸ÑħÑĬ": 5710,
      "ĠÑĢÐ¸Ð·Ñĭ": 5711,
      "ÑĢÑĸÐ°ÑĢ": 5712,
      "ĠÐ¿ÑĢÑ£Ð¼ÑĥÐ´": 5713,
      "ĠÑĩÐµÐ¼Ñĥ": 5714,
      "Ð¶ÐµÐ½Ð¸Ðµ": 5715,
      "ĠÑģÑĬÐ²": 5716,
      "ĠÐ¾ÑĥÐ¿": 5717,
      "ÐµÑĢÐµÐ¸": 5718,
      "Ð¿Ð°Ð´Ð°": 5719,
      "ĠÐ³ÑģÐ´ÑĢÑ§": 5720,
      "Ð¾Ð²Ð¸ÑĩÑĥ": 5721,
      "ĠÐľÐ¸ÑħÐ°Ð¹": 5722,
      "ĠÐ¾ÑĤÐ¿ÑĥÑģÑĤÐ¸": 5723,
      "ĠÐµÐ´Ð¸Ð½Ñĥ": 5724,
      "ĠÑģÑĤÐ°ÑĢÐ¾ÑģÑĤÐ¸ÑĪÐºÐ¾": 5725,
      "ĠÐ±Ð°ÑĤÑİ": 5726,
      "ÑģÐºÑ¹": 5727,
      "ĠÐ¾ÑĥÐ¼Ñ£": 5728,
      "ĠÐłÐµÑĩÐµ": 5729,
      "ĠÐ±Ð¾Ð»Ð³Ð°ÑĢÐ¸": 5730,
      "ÑĪÑĤÐµÑĪÐ¸": 5731,
      "ĠÐµÐ´Ð¸Ð½Ð¾Ð³Ð¾": 5732,
      "ÑĪÑ¹": 5733,
      "ÑĨÐ¾Ð²Ð°": 5734,
      "Ñ¹ÑĤÑĬ": 5735,
      "ĠÐ¿ÑĢÐ¸ÑģÐ¿Ñ£": 5736,
      "ĠÐ¿ÑĥÑĤ": 5737,
      "ĠÐ¿ÑĢÑ£ÑģÑĤ": 5738,
      "Ð½ÑĸÑı": 5739,
      "Ð¾Ð²ÑĮÑı": 5740,
      "ĠÑĥÐ²Ñ£": 5741,
      "ĠÐ±ÑĭÐ²ÑĪÐµ": 5742,
      "ĠÑĸÐ²Ð°": 5743,
      "ĠÐ¼Ñ¹Ð¶Ð°": 5744,
      "ĠÐ²Ð°ÑģÐ¸Ð»ÐµÐ¸": 5745,
      "ĠÑĥÐ´Ð°ÑĢ": 5746,
      "ĠÑĦÑĥÐ½ÑĤÐ¾Ð²ÑĬ": 5747,
      "ĠÑģêĻĭÐ´": 5748,
      "Ð´ÑĨÐ°": 5749,
      "ÑıÐ½ÑĬ": 5750,
      "ĠÐ½ÐµÑĩÐµÑģÑĤÐ¸": 5751,
      "Ð¶Ñı": 5752,
      "ĠÐ¶Ð¸Ð´": 5753,
      "ĠÑģÑĤÑĢÐ°Ð½Ñ£": 5754,
      "Ð½Ð¾Ð¼Ð¾Ñĥ": 5755,
      "ĠÑģÐ»Ð¾Ð²ÐµÑģÑĭ": 5756,
      "ĠÐ¼ÑĥÐ´ÑĢÑĭ": 5757,
      "ĠÐ¼Ð¸ÑĤÑĢÐ¾Ð¿Ð¾Ð»Ð¸ÑĤ": 5758,
      "ĠÐ²Ð¾ÑģÐºÑĢÐµ": 5759,
      "ÑĢÐµÐ¼ÑĬ": 5760,
      "Ñ£Ðµ": 5761,
      "ĠÐ½Ð¸Ð·ÑĬ": 5762,
      "ĠÑķÐ²Ñ£": 5763,
      "ĠÐ¿Ð¾Ð±Ð¸": 5764,
      "ĠÑģÑ¹Ð´Ñĭ": 5765,
      "ĠÑĢÑĥÐ±Ð»ÐµÐ²ÑĬ": 5766,
      "ÑĤÐ°ÑĢ": 5767,
      "Ð±Ð¾Ð¶": 5768,
      "Ð½Ð¸ÑĨÑ£": 5769,
      "ĠÐ°ÑĦ": 5770,
      "ĠÑıÑĢÐ¾Ð¿Ð¾Ð»": 5771,
      "ÑĢÐ¾ÐºÑĬ": 5772,
      "ĠÑĩÑĮÑģÑĤÑĮ": 5773,
      "Ð½ÐµÐ½Ð°Ð²": 5774,
      "ĠÐĴÐ°ÑģÐ¸Ð»Ð¸": 5775,
      "ĠÐ¿Ð¾ÑĩÐ¸Ð½Ð¾Ðº": 5776,
      "ĠÐ½Ð°Ð¼ÑĮ": 5777,
      "ĠÐ¾ÑĤÑĤ": 5778,
      "Ñ«ÑĤÑĮ": 5779,
      "ĠÐ²Ñ£ÑģÑĥ": 5780,
      "ĠÑĨÐ°ÑĢÐµÐ²": 5781,
      "ĠÐ¿ÐµÑĢÐµÐ»": 5782,
      "Ð»Ñ§ÑĤÐ¸": 5783,
      "ĠÐ±ÑĮÑİÑĤÑĬ": 5784,
      "ĠÑģÐ»ÑĥÐ³Ð°": 5785,
      "ĠÑģÑĬÑĤÐ²Ð¾ÑĢÐ¸ÑĤÐ¸": 5786,
      "ĠÐ±êĻĭÐ´êĻĭÑĤÑĬ": 5787,
      "ĠÐ¼Ð¾Ð»Ð¸ÑĤÐ²Ñĥ": 5788,
      "ĠÐ¡Ð¾Ð»Ð¾Ð²ÐµÐ¹": 5789,
      "ĠÐ¿Ð»ÑĬÑĤÑĮ": 5790,
      "Ð¼Ð¾Ð¶Ðµ": 5791,
      "ĠÑĢÐµÐ²": 5792,
      "ĠÑĨÐ°ÑĢÐµÐ²Ñĥ": 5793,
      "ĠÐ¿Ð¾ÑģÑĤÐ°Ð²Ð¸ÑĤÐ¸": 5794,
      "ĠÐ¿Ð¾Ð¼Ð¾Ð»": 5795,
      "ĠÐ¿Ð¾ÑĢÑĭ": 5796,
      "ĠÑĩÐµÑĢÐµÐ·ÑĬ": 5797,
      "ĠÑĩÐ°ÑģÑĭ": 5798,
      "ĠÐ²ÑģÐºÐ¾ÑĢÑ£": 5799,
      "ÐºÐ¸Ð½Ñĥ": 5800,
      "ÑĪÐµÑĤÑĮ": 5801,
      "ĠÐ¶ÐµÐ»Ñ£": 5802,
      "ÑĨÐµÑħ": 5803,
      "ĠÑħÐ¾ÑĤÑĮ": 5804,
      "ĠÐ´ÑĮÐ½Ð¸": 5805,
      "ĠÐ±Ð¾ÑıÑĢÑģÐºÐ¸Ðµ": 5806,
      "ĠÐºÑĸ": 5807,
      "ÐµÑĢÐ¶": 5808,
      "ĠÐ»Ð¶Ð¸": 5809,
      "Ñ¹Ð¼Ñ£": 5810,
      "Ð´Ð¸Ð»Ð¸": 5811,
      "ĠÐĿÑĮ": 5812,
      "ĠÐ³ÑĬÑĢ": 5813,
      "ĠÐºÐ¾Ð½Ð½ÑĭÑħÑĬ": 5814,
      "Ð¸ÑĤÑĮÑģÑı": 5815,
      "ĠÐĳÐ¾Ð³Ð¾ÑĢÐ¾Ð´Ð¸": 5816,
      "ĠÐ¿ÑĢÐµÐ´Ñ£": 5817,
      "ĠÑģÑĤÐ¾ÑĢÐ¾Ð¶": 5818,
      "Ġ20": 5819,
      "ĠÐĴÐ¾ÐµÐ²": 5820,
      "ÑģÑĸ": 5821,
      "ĠÐ·Ð°Ð½": 5822,
      "Ð¼Ð°Ð½Ð°": 5823,
      "ÑģÑĤÐµÐ¸": 5824,
      "ĠÑģÐ»Ð¾Ð²ÐµÑģÐ¸": 5825,
      "Ð¿Ð¸ÑģÑĮ": 5826,
      "ĠÐºÑĢÑ£Ð¿Ð¾ÑģÑĤÐ¸": 5827,
      "ÐºÑĮÑĸ": 5828,
      "ĠÑĢêĻĭÐºêĻĭ": 5829,
      "ĠÑĤÐµÐ¼ÑĬ": 5830,
      "ĠÐ¼ÑĢ": 5831,
      "ĠÐ¿ÑĢÐ¸ÑĪÐµ": 5832,
      "ĠÐ½Ð¸ÐºÐ¾ÑĤÐ¾ÑĢ": 5833,
      "ĠÐ²ÑĬÐ·Ð²ÑĢÐ°ÑĤÐ¸": 5834,
      "ĠÐ´ÑĢÑĥÐ·Ð¸": 5835,
      "ĠÐ¥Ð¾": 5836,
      "ĠÐ¾ÑĤÐ´Ð°ÑĤÑĮ": 5837,
      "ĠÐ¿ÐµÑĢÐµÐ²Ð¾Ð·": 5838,
      "ĠÐ¿ÑĢÐ¾Ð»Ð¸": 5839,
      "ĠÑĢÑĭÐ±Ñĭ": 5840,
      "ĠÐ²Ð¾Ð¹ÑģÐºÐ¾": 5841,
      "Ġ40": 5842,
      "Ð´ÑĢÐ¸": 5843,
      "Ð»Ð°Ð´Ñĭ": 5844,
      "ĠÐ²ÐµÐ»Ð¸ÐºÐ¾Ð¼": 5845,
      "ĠÑģÑĤÐ°Ð»Ð°": 5846,
      "ĠÑĩÑİÐ´Ð¾": 5847,
      "ĠÑģÐ»ÑĥÐ¶Ð¸ÑĤÐ¸": 5848,
      "ĠêĻģÐµÐ¼Ð»": 5849,
      "ĠÐħ": 5850,
      "ĠÐ²Ð¾ÑĢÐ¾ÑĤÐ¸": 5851,
      "ĠÑģÐµÐ´Ð¼ÑĮ": 5852,
      ".âĢ": 5853,
      "ĠÐ¿ÑĢÐ¸Ð±Ñ£": 5854,
      "Ð¼Ð°ÑĤÑĮ": 5855,
      "ĠÑĤÐ°ÐºÐ¾Ð²Ð°Ð³Ð¾": 5856,
      "ĠÐ±Ð¸Ð»": 5857,
      "ĠÐĲÐ²": 5858,
      "ĠÑģÑĬÐ±Ð¾ÑĢ": 5859,
      "ĠÐ¿Ð¾ÑĢÐ°": 5860,
      "ĠÑĩÐµÑĢÑĤÐµ": 5861,
      "ĠÐ¼Ð¸Ð½Ñĥ": 5862,
      "ĠÐ¿Ð¾ÐµÑħÐ°Ð»": 5863,
      "ĠÐ²ÑĮÐ·": 5864,
      "ĠÑģÑĤÐ°ÑĢÐ¾Ð¹": 5865,
      "ÑĨÑĮÐ¼ÑĮ": 5866,
      "ĠÐ¼Ð½Ð¾Ð³Ð¾Ðµ": 5867,
      "ĠÐ²ÐµÐ»Ð¸ÐºÐ°Ñı": 5868,
      "ĠÐ¿Ð¾Ð´Ð¾Ð±Ð°ÐµÑĤÑĮ": 5869,
      "ĠÐ¼ÑĢÐ°": 5870,
      "ÐºÐ¸ÑħÑĬ": 5871,
      "ĠÑĤÑĢÑı": 5872,
      "Ð°ÑģÑĬ": 5873,
      "ĠÐ¿Ð°Ð´": 5874,
      "ÑĨÑ£Ð¼ÑĬ": 5875,
      "ĠÑģÐ»Ð°Ð²Ñ£": 5876,
      "ĠÐĶÑĢÑĥÐ¶Ð½ÐµÐ²Ð½Ð°": 5877,
      "ÑīÐµÑĢ": 5878,
      "ĠÑ¿Ð²Ñ£ÑīÐ°": 5879,
      "ÑĩÐµÐ½Ð¸Ðµ": 5880,
      "ĠÐ³Ð¾ÑĢÐ¾Ð´Ñĥ": 5881,
      "ĠÑĤÐ²Ð¾ÑĢÐ¸ÑĪÐ¸": 5882,
      "ĠÐ´Ð¾Ð±ÑĢÑĭÐ¼ÑĬ": 5883,
      "ĠÐ´Ð¾ÑĢÐ¾Ð³Ð¾": 5884,
      "ĠÐ¿Ð¾ÐºÐ»Ð°Ð½Ñı": 5885,
      "ĠÐºÐ¾Ð½ÑİÑĪ": 5886,
      "ĠÐ¼Ð»Ð°Ð´ÐµÐ½": 5887,
      "Ð´Ð¸Ð»ÑĬ": 5888,
      "ĠÐ´ÐµÑĤÑĮ": 5889,
      "ĠÑĩÐ¸Ð½ÑĬ": 5890,
      "ÑĪÐ¸Ð¸": 5891,
      "ĠÐ²Ñ£Ñģ": 5892,
      "ĠÑ¥Ð¼Ð¾Ñĥ": 5893,
      "ĠÐ²Ð¾Ð·Ð¼Ñĥ": 5894,
      "ĠÐ²ÑģÑ§ÐºÑĬ": 5895,
      "ĠÐ¿ÐµÑĢÐµêĻĹ": 5896,
      "ÑģÑĤÑ§": 5897,
      "Ð¾Ð¼Ð¸Ð½Ð°": 5898,
      "ĠÐ´ÑĥÑĪÐµ": 5899,
      "ĠÐ¿Ð¾Ð¼ÐµÑģÑĤÑĮ": 5900,
      "ĠÐ³ÑĢÐ¸Ð²ÑĮÐ½Ñ£": 5901,
      "ĠÐ·ÐµÐ»Ð¾": 5902,
      "ĠÐ¿Ð¾ÑģÐ¼Ñ£": 5903,
      "ĠÐĴÐ¸Ð´": 5904,
      "ĠÑģÐ»ÑĥÑĪÐ°": 5905,
      "ĠÐ³Ð»Ð°ÑģÑĬ": 5906,
      "ĠÐ²Ð´Ð²Ð¾Ðµ": 5907,
      "ĠÐľÐ¾ÑģÐºÐ¾Ð²": 5908,
      "Ð³Ð¾Ð²Ð¸": 5909,
      "Ð»Ð°ÐºÐ°": 5910,
      "ĠÐ´Ð°Ð»ÑĮ": 5911,
      "ĠÑĤÑ£Ð»Ð°": 5912,
      "ĠÐ²Ð·ÑıÑĤ": 5913,
      "ĠÐ²ÐµÑĢÑħÑĥ": 5914,
      "ĠÐ¿ÑĢÐ¾ÑģÐ»Ð°Ð²Ð¸": 5915,
      "ĠÐ²Ð¾Ð»Ð¾Ð´Ð¸Ð¼Ð¸": 5916,
      "ĠÑģÐ²ÑıÑĤÑĭÑħ": 5917,
      "ĠÑĥÑĩÐ¸Ð½Ð¸ÑĤÑĮ": 5918,
      "ĠÑĩÐµÐ»Ð¾Ð±Ð¸ÑĤÑĩÐ¸ÐºÐ¸": 5919,
      "Ïģ": 5920,
      "ĠÐ´Ð°Ð¼ÑĬ": 5921,
      "Ñ¡Ð±ÑĢÐ°": 5922,
      "ÑĢÐ¸ÑĪÐ¸": 5923,
      "ĠÐĳÑĥÐ´Ð¸": 5924,
      "Ð³Ð°Ñħ": 5925,
      "ĠÑģÐ²Ñ£ÑĤÑĮ": 5926,
      "ĠÐ²Ð¾Ð·Ð¼ÐµÑĤ": 5927,
      "ĠÐ½Ñ£ÐºÐ¾ÐµÐ³Ð¾": 5928,
      "ĠÑģÑĢÐµÐ±ÑĢÐ°": 5929,
      "Ð¾Ð³Ð¾Ð¶Ðµ": 5930,
      "ĠÐ¿Ð¾Ð´Ð»Ðµ": 5931,
      "ĠÑĩÐ¸Ð½Ð¸": 5932,
      "Ð¾Ð³ÑĢÐ°": 5933,
      "ĠÐ¾ÑĤÐ¿Ð¸": 5934,
      "ÑĢÐµÐ½Ð¸Ðµ": 5935,
      "ĠÐŁÐ¸ÑģÐ°": 5936,
      "ĠÐ¿Ð¾Ð»Ðº": 5937,
      "ÑīÐ¸Ð¸": 5938,
      "ĠÐ»ÐµÑģÑĥ": 5939,
      "ĠÐ¿Ð¾Ð¼ÑĭÑĪÐ»Ñı": 5940,
      "Ð²Ð»Ñ§": 5941,
      "ĠÐ³ÑĢÑı": 5942,
      "Ð´Ð°Ð»ÑĬ": 5943,
      "Ð½ÑıÐ¼Ð¸": 5944,
      "ÑīÐ°Ñı": 5945,
      "ĠÑģÐ¾Ð±Ð»Ñİ": 5946,
      "ĠÑĢÐ°Ð±Ð¾Ñĥ": 5947,
      "Ð¸ÑĤÐµÐ»Ñİ": 5948,
      "ĠÐ²Ð¿ÐµÑĢÐµÐ´ÑĬ": 5949,
      "Ð¸Ñī": 5950,
      "ĠÐ¸Ð½Ð¾Ð¹": 5951,
      "ĠÐ²ÑģÐ¿": 5952,
      "ĠÐĳÐ¾Ð²Ñĥ": 5953,
      "ĠÑĤÐ°ÐºÐ¸Ð¼": 5954,
      "ĠÐºÐ¾ÑĤÐ¾ÑĢÑĥÑİ": 5955,
      "ĠÐ»Ñ£Ð¿": 5956,
      "ĠÐ±Ð¾Ð»Ñ§": 5957,
      "ĠÐµÐ´Ð¸Ð½Ð¾Ð¼Ñĥ": 5958,
      "ĠÐŁÐ¾ÑĤÐ°Ð½ÑĨÑĭ": 5959,
      "ĠÑħÐ¾ÑīÐµÑĤ": 5960,
      "ĠÐĶÐµÐ²Ð³ÐµÐ½Ð¸": 5961,
      "Ð°ÑĤÑĬ": 5962,
      "ĠÐ½Ð¾ÑĢ": 5963,
      "Ð»Ð°Ð·": 5964,
      "ĠÐĴÑģÑ§": 5965,
      "ĠÐ²Ð¸Ð´Ñ§": 5966,
      "ĠÐ´Ð¾Ð±ÑĢÐ¾Ð¼ÑĬ": 5967,
      "ĠÑĪÐ¸ÑĢ": 5968,
      "Ð³Ð½Ð¸": 5969,
      "ĠÐ½ÐµÑĤÑĬ": 5970,
      "ĠÐ²Ð¾Ðµ": 5971,
      "ÑĨÐ°ÑħÑĬ": 5972,
      "Ñ¥Ð²Ð°": 5973,
      "ĠÐ´Ð¾ÑģÐ¿Ñ£": 5974,
      "Ð¾ÑĥÐ´": 5975,
      "ÐºÑĤÐ°": 5976,
      "ĠÑģÐµÐ³Ñ¡": 5977,
      "ĠÐ²ÐµÐ»Ð¸ÐºÑĥ": 5978,
      "ĠÐ·Ð°Ð¿Ð¸": 5979,
      "ÐºÑĭÐ¸": 5980,
      "ĠÐ¿ÑĢÑıÐ¼Ñĭ": 5981,
      "ĠÐ¿Ð¾ÑĢÐ¾ÑħÑĥ": 5982,
      "Ð»Ð°Ð¼Ð¸": 5983,
      "ĠÐµÑµ": 5984,
      "ĠÐ²ÑĬÐ¿Ð°": 5985,
      "ĠÐ¼Ñ£ÑģÑĤÑĬ": 5986,
      "Ð²ÑĭÑħ": 5987,
      "ĠÎĻ": 5988,
      "ĠÐ²Ð¸Ð´Ð¸ÑĪÐ¸": 5989,
      "ĠÑģÑĤÐ°ÑĤÐµÐ¹": 5990,
      "ÐºÐ»Ð°Ð´": 5991,
      "ÑħÐ¾Ñĥ": 5992,
      "ÐµÐ½ÑĸÑ§": 5993,
      "Ð¾ÐºÑĥ": 5994,
      "ĠÐ¿Ð¾ÑĢÐ¾Ð·": 5995,
      "ĠÐ·Ð´Ð°ÑĢ": 5996,
      "ĠÐºÐ»ÐµÐ²ÐµÑĤ": 5997,
      "Ñ£ÑĤÐµ": 5998,
      "ĠÐ¼Ð¸Ð½": 5999,
      "Ð¾Ð´Ðµ": 6000,
      "Ñ¡ÑĤ": 6001,
      "ÑĸÐµÑİ": 6002,
      "Ð»ÑİÑĤ": 6003,
      "ĠÐ¾Ð½Ð¾Ð³Ð¾": 6004,
      "ĠÐ»ÑİÐ±Ð²Ð¸": 6005,
      "ĠÐ½ÐµÐ²Ñ£ÑĢ": 6006,
      "ĠÐ¿ÑĢÐ¾ÑħÐ¾Ð´": 6007,
      "ĠÐ»Ð¸ÑĨÐµÐ¼": 6008,
      "Ð²ÑĭÑħÑĬ": 6009,
      "ĠÐ½ÐµÐ¼Ð¶Ðµ": 6010,
      "ĠÐĲÐ½ÑĤÐ¸": 6011,
      "ĠÐºÐ¾ÑĢÐ°Ð±Ð»ÑĮ": 6012,
      "Ð²ÑĪÐ°": 6013,
      "ĠÑģÐ¸Ð½": 6014,
      "ÑĨÐºÐ¾Ð¼": 6015,
      "Ð¶Ð´Ð¸": 6016,
      "ĠÐ´Ñ¹": 6017,
      "Ð¿Ð¾Ñĥ": 6018,
      "Ð»Ð¸Ð²Ð°": 6019,
      "ÑĢÐ¸Ñİ": 6020,
      "ĠÐ·Ð°Ð¿Ð¸ÑģÐ°": 6021,
      "ĠÐ¿Ð¸Ð²": 6022,
      "ĠÑģÑĤÐ°Ð½Ñĭ": 6023,
      "ĠÑģÐµÐ¼ÐµÐ½Ð°": 6024,
      "Ñ§ÑĤÑģÑ§": 6025,
      "ÑħÐ°Ð»ÑĬ": 6026,
      "Ð¾Ð¶Ð´ÑĮ": 6027,
      "ĠÐ´Ð²Ð¾ÑĢÐµÑĨ": 6028,
      "ĠÑģÑ£Ð¼Ð¾": 6029,
      "ĠÐ±êĻĳÐ»Ð¾": 6030,
      "ĠÐ±Ð¾ÑıÑĢÐ¸Ð½": 6031,
      "ĠÐºÐ¾ÑĥÐ½Ñ£": 6032,
      "ĠÐ±êĻĭÐ´êĻĭ": 6033,
      "ĠÐ½ÐµÐ´ÑĢÑĥÐ³Ð¸": 6034,
      "ĠÑģÐ¸Ð¼ÑĮ": 6035,
      "ĠÐ¼ÐµÑĤ": 6036,
      "ÐµÐ½Ñİ": 6037,
      "ÐµÐ½ÑĸÑİ": 6038,
      "ĠÐĺÑģÑĥ": 6039,
      "ĠÐ¿ÑĢÑ£Ð¶Ð´Ðµ": 6040,
      "ĠÑĨÑĮÑĢ": 6041,
      "ĠÑģÐºÐ¾Ð½ÑĩÐ°": 6042,
      "ĠÐ´Ð°Ð¶Ð´ÑĮ": 6043,
      "ĠÐļÐ¾ÑĤ": 6044,
      "ĠÐºÑĥÐ¿Ð¸": 6045,
      "ÑıÐ½Ñĭ": 6046,
      "ĠÐ¼Ð°Ð¼": 6047,
      "Ð»Ð¸Ð¼ÑĬ": 6048,
      "Ð¶ÐµÐ½ÑĮÐµ": 6049,
      "Ð»ÐµÐ²Ð°": 6050,
      "ĠÐ¸Ð¼Ð°ÑĤ": 6051,
      "ĠÐ²Ñ£ÑĢêĻĭ": 6052,
      "ĠÐľÐ½Ð¾Ð³Ð¾": 6053,
      "ĠÑģÑĤÐ°ÑĢÐ¸Ð½": 6054,
      "ÑģÑĤÑĥÐ¿Ð°": 6055,
      "ĠÑģÐµÐ»Ñĥ": 6056,
      "ĠÐ´ÐµÑĢÐ¶Ð°ÑĤÑĮ": 6057,
      "ĠÐ¸Ð³Ñ¹": 6058,
      "ÑĩÐ½": 6059,
      "Ð¿Ð¾Ð²Ñ£": 6060,
      "Ð½Ð¸ÐºÐµ": 6061,
      "ĠÐ½Ð°ÑĩÐ°ÑĤÑĬ": 6062,
      "ĠÐ¿ÑĥÑĪÐµÐºÑĬ": 6063,
      "Ð´Ð¸ÑĪÐ¸": 6064,
      "ĠÐ¼Ð°ÑĤÑĮ": 6065,
      "ĠÐ½ÐµÐ¿ÑĢÐ¸": 6066,
      "ÑģÐºÐ¾Ð¼Ñ¹": 6067,
      "ĠÐ¸Ð½ÑĭÐ¹": 6068,
      "Ð·Ð°ÑĤÐ¸": 6069,
      "Ð½ÐµÑĨÑĮ": 6070,
      "ĠÐ¿Ð¾Ð´ÐºÐ¾Ð¿": 6071,
      "ĠÐ¿ÑĥÑģÑĤ": 6072,
      "ĠÐĴÐ»Ð°Ð´Ð¸Ð¼ÐµÑĢ": 6073,
      "ĠÑģÐ¼Ð¾ÑĤÑĢÑ§": 6074,
      "Ð»ÐµÐ¼": 6075,
      "ĠÐ´ÐµÑĤÐµÐ¸": 6076,
      "ĠÐ¿ÑĥÑģÑĤÑĭ": 6077,
      "ĠêĻĨ": 6078,
      "ĠÐ³Ð¾ÑĢÑĥ": 6079,
      "ĠÑģÐ²Ñ£ÑĤÐ¸": 6080,
      "ĠÐ´ÐµÐ½ÐµÐ³ÑĬ": 6081,
      "Ð²Ð¸ÑĤÐ¸": 6082,
      "ÑĪÑĭ": 6083,
      "ÑĦÑĮ": 6084,
      "ĠÑģÐ¿ÑĢÐ°Ð²": 6085,
      "ĠÐ¼ÑĬÐ½Ð¾Ð³": 6086,
      "ĠÐ¾ÑĤÐ¿ÑĥÑģÑĤ": 6087,
      "ĠÐ±Ð°ÑĤÑİÑĪÐºÐ°": 6088,
      "ĠÐ³ÑĢÐ¸Ð³Ð¾ÑĢÑĮÐµÐ²": 6089,
      "Ð²Ñĸ": 6090,
      "Ð²Ð¾Ð¹": 6091,
      "ĠÑĥÐ´Ð°": 6092,
      "ĠÑģÑĤÐ°Ð»Ð¾": 6093,
      "Ð¾ÑĤÐ¾Ñİ": 6094,
      "ĠÐ³ÑĢÐ¸Ð²Ð½Ñĭ": 6095,
      "ÑĤÐµÐ»Ð¸": 6096,
      "ĠÐ°Ð±ÑĸÐµ": 6097,
      "Ð¶Ð¸ÑĤÑĬ": 6098,
      "ĠÐ±Ð¾êĻĹ": 6099,
      "ĠÑĤÐ°ÐºÐ¸Ðµ": 6100,
      "ĠêĻĭÑĩÐ¸Ð½Ð¸": 6101,
      "ĠÐ½Ð°Ð¿ÑĢÐ°Ð²Ð»ÐµÐ½": 6102,
      "Ñ±": 6103,
      "ĠÐ¾ÑĤÐµÑĩÐµ": 6104,
      "ĠÑĤÐ²Ð¾ÐµÑı": 6105,
      "ĠÑģÐµÐ¼Ð¸": 6106,
      "ĠÐ½ÐµÐ±ÐµÑģÐ¸": 6107,
      "ĠÐ¸Ð·Ñ§ÑģÐ»Ð°Ð²": 6108,
      "ĠÐ½ÐµÐ¿ÑĢÐ°Ð²ÐµÐ´": 6109,
      "ĠÐ²ÑĬÑģÑĤÐ°": 6110,
      "ĠÐ¿ÑĢÐ¸ÐµÑħÐ°Ð»Ð¸": 6111,
      "ĠÐ²ÑĭÑģÐ»Ñĥ": 6112,
      "ĠÑģÑ¹ÑĤÑĮ": 6113,
      "ĠÐ¼Ð»ÑĤ": 6114,
      "ĠÐ¸Ð´Ñ£Ð¶Ðµ": 6115,
      "ÑģÑĤÐ°Ð»ÑĬ": 6116,
      "ĠÐ¼Ð¾Ñģ": 6117,
      "ĠÑĢÐ¾Ð¶ÑĮ": 6118,
      "Ð¶Ð´Ñĥ": 6119,
      "ÐºÐ¾Ñģ": 6120,
      "--------": 6121,
      "ÑģÐºêĻĳÐ¸": 6122,
      "Ð½Ð°ÑħÑĬ": 6123,
      "ĠÐºÐ¾ÑĤÐ¾ÑĢÑĭÑħÑĬ": 6124,
      "ĠÑĩÐ»Ð¾Ð²Ñ£ÑĩÑĮ": 6125,
      "ĠÐ³Ð¾ÑĤÐ¾Ð²": 6126,
      "ÑıÐ»Ð¸": 6127,
      "Ð½ÐµÐ³Ð¾": 6128,
      "Ñ³ÑĮ": 6129,
      "ĠÑģÐµÐ»Ðµ": 6130,
      "ĠÑĩÐµÑĤÐ²ÐµÑĢÑĤÐµÐ¹": 6131,
      "ĠÐ´ÐµÑģÑıÑĤÐ¸": 6132,
      "ĠÐ¿ÑĢÐ¾Ð¼ÑĭÑĪ": 6133,
      "ĠÐ²ÐµÐ»Ð¸ÑĩÐµÑģÑĤÐ²Ð°": 6134,
      "ĠÐ´Ð²Ð¾": 6135,
      "ĠÐ¼Ð°ÑĢÐ¸": 6136,
      "ĠÑĢêĻĳ": 6137,
      "Ñ«Ñ§": 6138,
      "ĠÐ¼Ð¸ÐºÐ¸ÑĦÐ¾ÑĢ": 6139,
      "ĠÑ§ÐºÐ¾": 6140,
      "ĠÐ»ÑİÐ´Ð¸Ðµ": 6141,
      "ĠÑģÑĬÐ±Ð»Ñİ": 6142,
      "ĠÐĴÐ»Ð°Ð´Ð¸Ð¼Ð¸ÑĢÑĬ": 6143,
      "Ð¶êĻĭ": 6144,
      "Ð¾ÑģÐ°": 6145,
      "ĠÐ¿Ð¾Ð»ÑĤÐ¸Ð½Ð°": 6146,
      "ĠÑģÐ°Ð¿": 6147,
      "ĠÑģÐºÑĢÑĭ": 6148,
      "ĠÐ¸Ð¼Ð°Ð¼ÑĬ": 6149,
      "ĠÐ½Ð°ÑĢÐµÑĩÐµ": 6150,
      "ĠÐ½Ð°ÑĢÑıÐ´Ñĥ": 6151,
      "ĠÑģÐ¿Ð¾Ð´Ð¾Ð±": 6152,
      "ĠÐ¿Ñ§ÑĤÐ¸": 6153,
      "ĠÐºÐ¾Ð»ÑĮ": 6154,
      "ĠÐ½Ð°Ð¼Ð¾": 6155,
      "ĠÑĢÐ¾Ð´Ð°": 6156,
      "ĠÐ²ÑģÐµÐ´": 6157,
      "ĠÐ·Ð°Ð²": 6158,
      "ĠÐ³ÐµÐ½Ð²": 6159,
      "ÑģÑĸÐ¸": 6160,
      "ĠÐºÑ£": 6161,
      "ĠÑģÑĬÐ±ÑĢÐ°": 6162,
      "ÑĩÐ°Ð¹": 6163,
      "ĠÐ¿Ð¾Ð¸Ð´Ð¾ÑĪÐ°": 6164,
      "ÑĩÐ¸Ð»ÑĬ": 6165,
      "ĠÑģÑĤÐ³Ð¾": 6166,
      "Ð»ÑıÑħ": 6167,
      "ĠÐ´Ñ£ÑĤÑĮ": 6168,
      "Ð¾Ð²Ð¾Ðµ": 6169,
      "ÐºÑ¹Ñİ": 6170,
      "Ð²ÑĢÐ°ÑīÐ°": 6171,
      "ĠÐ²Ñ£Ð´Ð¾Ð¼Ð¾": 6172,
      "ÑģÐºÑĸÑ§": 6173,
      "ĠÐ¶ÐµÐ¼": 6174,
      "ĠÐ±Ð¾Ð¸": 6175,
      "ĠÐļÐ°Ð»Ð¸": 6176,
      "ĠÐ±ÐµÐ·Ñģ": 6177,
      "ĠÐ³Ð»Ð°Ð³Ð¾Ð»Ñİ": 6178,
      "ÐµÑĪÑĬ": 6179,
      "Ð±ÑĶ": 6180,
      "ÑĪÐ¸ÑĪÐ¸": 6181,
      "ĠÐ¡Ð¸ÑĨÐµ": 6182,
      "Ð²Ñ¡": 6183,
      "ÐºÑĸ": 6184,
      "ÑĤÑĮÐµÐ²": 6185,
      "ĠÑĪÑĤ": 6186,
      "ĠÐľÐ½Ð¾Ð³": 6187,
      "ĠÐļÑĢÐ°": 6188,
      "ĠÐ¼Ð½Ð¾Ð³Ð¸ÑħÑĬ": 6189,
      "ĠÐ²ÐµÐ»Ð¸ÐºÐ¸Ñħ": 6190,
      "ĠÑħÐ¾ÑīÐµÑĤÑĮ": 6191,
      "ĠÑĢÐ°Ð·Ð´Ñ£Ð»Ð¸": 6192,
      "ĠÑħêĻĭ": 6193,
      "Ð°Ð½ÑĸÐ°": 6194,
      "ĠÐ½Ð¸ÑħÐ¶Ðµ": 6195,
      "Ð²Ð°Ð½Ð³": 6196,
      "ĠÑĤÐ²Ð°ÑĢÐ¸": 6197,
      "Ġ;": 6198,
      "Ð»ÐµÐ¼ÑĬ": 6199,
      "ÐºÐ¾Ð±": 6200,
      "ĠÐ±ÐµÐ·ÑĥÐ¼": 6201,
      "ĠÐ²Ð·ÐµÐ¼ÑĬ": 6202,
      "ĠÐºÑĥÐ¿Ð»ÐµÐ½": 6203,
      "ĠÐ£ÐºÐ°Ð·ÑĬ": 6204,
      "Ð¼ÐµÐ½ÑĬ": 6205,
      "ĠÐ´Ð¾Ð»Ð¸": 6206,
      "ĠÐ³Ð½Ðµ": 6207,
      "ĠÐ¿ÑĢÐ¸ÐµÐ·": 6208,
      "Ñ¡Ð±": 6209,
      "ĠÐ¿Ð¾ÑģÐ»Ð°Ð»Ð¸": 6210,
      "ĠÐ²ÐµÑīÑĮ": 6211,
      "ĠÐ»ÑİÐ±Ð¾Ð²Ð¸Ñİ": 6212,
      "ĠÑ¡Ð±Ð»Ð°": 6213,
      "ĠÑĩÐµÑĤÐ²ÐµÑĢÑĤ": 6214,
      "ĠÑħÑĢÐ¸ÑģÑĤÐµ": 6215,
      "ĠÑĨÐµÐ»Ð¾Ð²": 6216,
      "ĠÐ½Ð°ÐºÑĢÐµÐ¿": 6217,
      "ĠÐ¿Ð¸ÑĪÐµÑĤ": 6218,
      "ĠÐ¿ÑĭÑĤÐºÐ¸": 6219,
      "ĠÐ½Ð°ÐºÑĢÐµÐ¿ÐºÐ¾": 6220,
      "ĠÑģÑħÐ¾Ð´": 6221,
      "ÑĩÐ½ÑĭÐ¼": 6222,
      "Ð´Ð°Ð½ÑĬ": 6223,
      "ĠÑ¡Ð²Ð¾": 6224,
      "ĠÐ²Ñ£ÑĢÑ£": 6225,
      "ĠÐ²ÑĮêĻģ": 6226,
      "ĠÐ±ÐµÐ·Ñĥ": 6227,
      "ĠÐ¸ÑģÐ¿ÑĭÑĤÐ°": 6228,
      "ĠÑģÑĤÐ¾ÑĢÐ¾Ð½Ñ£": 6229,
      "Ð°Ð¸": 6230,
      "ĠÐ²Ð°Ð»": 6231,
      "ĠÑĤÐ°ÐºÐ¾Ð²": 6232,
      "ĠÐ¿Ð¾ÑĢÑĥÑĤÑĩÐ¸": 6233,
      "ĠÐ¼Ð¾Ð¶ÐµÑĪÐ¸": 6234,
      "ĠÐ½Ð¸ÐºÐ°ÐºÐ¾Ð¶Ðµ": 6235,
      "ĠÐ¾Ð»Ðµ": 6236,
      "ĠÐ¿ÑĢÐ¸ÑĩÐ°": 6237,
      "ĠÑĢÑ£Ð·": 6238,
      "ĠÑħÐ¾ÑīÐµÑĤÑĬ": 6239,
      "Ð²Ð¸Ð½": 6240,
      "ÑĩÐ°Ð»ÑĬ": 6241,
      "ĠÐ¿ÑĢÑĸÐµÐ¼": 6242,
      "ĠÐºÑĢÐµÐ¿Ð¾ÑģÑĤÐ¸": 6243,
      "ĠÐ´ÑĪÐ°": 6244,
      "ĠÐ¿Ð¾Ð¸Ð´": 6245,
      "ĠÐ²Ð¾Ð»Ð¾": 6246,
      "ĠÐ¿ÑĢÐ¾Ð¼Ðµ": 6247,
      "ĠÑ¡Ð¶Ðµ": 6248,
      "Ð½ÑıÐ°Ð³Ð¾": 6249,
      "ĠÐ¿ÐµÑĢÐ²Ð°Ð³Ð¾": 6250,
      "ĠÐ»ÑİÐ±Ð¾Ð²": 6251,
      "ĠÑĤÑĬÐºÐ¼Ð¾": 6252,
      "ĠÐ¿Ð¾ÑģÐ»ÐµÐ´": 6253,
      "ĠÐ±Ñ¹Ð´Ð¸": 6254,
      "Ð¼Ñ«": 6255,
      "ĠÐ¾ÑĥÑģ": 6256,
      "ĠÐ¿Ð¾ÑĤÐ¾Ð¿": 6257,
      "ĠÑĢÐ¾ÑģÐ¿ÑĢÐ¾Ñģ": 6258,
      "ÑģÐºÐ¾ÑĢÑ£": 6259,
      "ĠÐ±Ñ¹Ð´ÐµÑĤÑĬ": 6260,
      "ĠÐºÐ½Ð¸Ð³Ð°Ð¼": 6261,
      "ĠÑĩÐµÑĢÐ½Ð¸Ð³": 6262,
      "Ð³Ð»Ðµ": 6263,
      "ĠÐ¶ÐµÑģÑĤÐ¾Ðº": 6264,
      "ĠÐ¿Ð¾Ð´Ð»Ñ£": 6265,
      "Ñ¥Ð¼ÑĮ": 6266,
      "ĠÐ´Ñ£Ð»Ñĭ": 6267,
      "ĠÑĪÐµÐ´ÑĬ": 6268,
      "Ð¶Ð°ÑĪÐµ": 6269,
      "ĠÐ³ÑĢÐ°Ð´Ð¾Ð¼ÑĬ": 6270,
      "ĠÑ³ÐµÐ´Ð¾ÑĢÐ¾Ð²Ð¸ÑĩÑİ": 6271,
      "ĠÐ¿Ð¾ÑĨ": 6272,
      "Ð»Ð¾ÑģÑĤÐ¸": 6273,
      "ĠÐ½Ñ£ÐºÐ¾ÑĤÐ¾ÑĢ": 6274,
      "ÐµÐ²ÑĭÑħ": 6275,
      "ĠÑĤÑĢÐµÑħ": 6276,
      "ĠÐ²Ð·ÑıÐ»Ð¸": 6277,
      "ĠÐ³Ð°Ð²ÑĢÐ¸Ð»": 6278,
      "ĠÐ¿ÐµÑĢÐµêĻĹÑģÐ»Ð°Ð²": 6279,
      "ÑĤÐ²ÐµÑĢ": 6280,
      "ĠÐ¿Ð¾ÑĤÑĬ": 6281,
      "ĠÐ¿ÑĢÐ¾ÑĪÑĥ": 6282,
      "ĠÐ³ÑĢÐ¸Ð²ÐµÐ½": 6283,
      "ĠÐ¼Ð¾Ð½Ð°ÑģÑĤÑĭÑĢÐµ": 6284,
      "ĠÐ§Ñı": 6285,
      "ĠÐ´Ð¾Ð¼Ð°ÑĪ": 6286,
      "ĠÐ¾ÐºÐ¾": 6287,
      "ĠÐ°ÐºÐ¾": 6288,
      "Ð¾Ð±Ðµ": 6289,
      "Ð³Ð¾ÑĢÑ£": 6290,
      "ĠÑģÑĤÐ¾ÑĢÐ¾Ð¶Ð¸": 6291,
      "ĠÑģÐ¾Ð²Ñ£ÑĤ": 6292,
      "ĠÐ²ÑģÐºÐ¾ÑĢÐµ": 6293,
      "ĠÐºÐ½ÑıÐ³Ð¸Ð½": 6294,
      "ÑİÑģÑı": 6295,
      "ĠÐ½ÐµÐ´Ñĥ": 6296,
      "ĠÐ¿Ð¾Ð³Ð°Ð½": 6297,
      "ĠÐ¿ÑĢÐ¸ÐºÐ°Ð·ÑĬ": 6298,
      "ĠÑĦÐµÐ´Ð¾ÑĢÑĥ": 6299,
      "ĠÑģÐ²ÑıÑĤÐ¾Ð³Ð¾": 6300,
      "ĠÑĥÑĤÐ²ÐµÑĢ": 6301,
      "ĠÐ³Ð»ÑĥÐ±": 6302,
      "ĠÐ¿Ð¾Ð¼ÑıÐ½Ð¸": 6303,
      "Ð´Ð¾ÑģÑĤÐ°": 6304,
      "ĠÑĤÐ²Ð¾ÑĢÐ¸ÑĤ": 6305,
      "ĠÐ¶Ð¸Ð²ÑĥÑĤ": 6306,
      "ĠÑĤÐ¸Ð¼Ð¾Ñ³": 6307,
      "ĠÐľÐ°ÑĢÑĪÐ°Ð»": 6308,
      "ĠÐ±Ð»Ð°Ð³Ð¾Ð´Ð°ÑĢ": 6309,
      "Ð»Ð¾Ð²Ð¸": 6310,
      "ÐºÐ¾Ð²Ð¸": 6311,
      "ĠÑĢÐ¾Ð¶Ð¸": 6312,
      "ĠÐ¶ÐµÐ»ÐµÐ·": 6313,
      "ĠÐ¿ÑĢÐ¸Ð²ÐµÑģÑĤÐ¸": 6314,
      "ĠÐ¿ÑĢÐ¾ÑĩÐ°": 6315,
      "ĠÐ¼Ð¸ÑĢÑ£": 6316,
      "Ð´ÑĭÑħÐ°": 6317,
      "ĠÑģÐ¼Ðµ": 6318,
      "ĠÐ±ÑĮÑĢÐºÐ¾Ð²ÑĮ": 6319,
      "ĠÑģÐµÐ»Ð¸ÑĤ": 6320,
      "ĠÐŁÐ¾ÐºÐ°Ð·ÑĥÐµÑĤÑĬ": 6321,
      "ĠÐ²Ð»Ð°ÑģÑĤÐµÐ»Ð¸": 6322,
      "ĠÐ±ÐµÐ·Ð·Ð°ÐºÐ¾Ð½": 6323,
      "Ġ{": 6324,
      "Ð´Ð±": 6325,
      "ĠÐ¿ÑĢÐ¸ÐµÑħÐ°Ð»": 6326,
      "ĠÑģÐ²Ð¾ÑĶ": 6327,
      "ĠÐ´Ð¾Ð±ÑĢÑĬ": 6328,
      "ĠÐ±Ð»Ð°Ð³Ð¾ÑĩÐµÑģÑĤÐ¸": 6329,
      "ĠÐ¿Ð¾Ð»Ð¾Ð¶Ð¸ÑĤÐ¸": 6330,
      "Ð»ÐµÑĤÑĬ": 6331,
      "ÑıÐ½Ñĥ": 6332,
      "ĠÐ·Ð²ÐµÑĢ": 6333,
      "Ð½Ð°Ð¼ÑĬ": 6334,
      "ÑĥÑĤÑĥ": 6335,
      "ĠÐ¿Ð¾Ð¸Ð´Ð¸": 6336,
      "Ð½Ð¸ÑĨÑĮ": 6337,
      "ĠÐ»Ñ£Ð¿Ð¾": 6338,
      "ĠÐ´Ð²Ð°ÑĤÑĨÐ°ÑĤÑĮ": 6339,
      "ÑĪÑĤÐ¸Ð¸ÑħÑĬ": 6340,
      "ĠÐºÐ¸ÑĢÐ¸Ð»": 6341,
      "ĠÐ¼Ð¸Ð»Ð¾ÑģÑĤÐ¸Ñİ": 6342,
      "Ð½ÑĨ": 6343,
      "ĠÐºÐ¸Ñģ": 6344,
      "ĠÐ¿Ð¸ÑģÐ°ÑĤÑĮ": 6345,
      "ĠÐ½Ð¾Ð²Ñ£Ð³Ð¾ÑĢÐ¾Ð´Ñ£": 6346,
      "ĠÐ·Ð°Ð¼Ñĥ": 6347,
      "ÑĨÐ°Ð¼Ð¸": 6348,
      "Ð¶Ð¸Ð¼ÑĬ": 6349,
      "ĠÐ¿Ð¾Ð²ÐµÐ»Ðµ": 6350,
      "ĠÑİÑĢ": 6351,
      "ĠÐ¿Ð¾ÑģÐ»Ð°Ð½Ð°": 6352,
      "ĠÐºÐ½Ð¸Ð¶": 6353,
      "ĠÐ½Ð°Ð¿Ð¸ÑģÐ°Ð½Ñĭ": 6354,
      "ĠÑĤÑĭÑģÑıÑĩ": 6355,
      "ĠÐ¡Ð²Ñı": 6356,
      "Ð»Ð°Ñħ": 6357,
      "ĠÑ¡ÑģÑĤÐ°": 6358,
      "ĠÐ¶Ð¾Ð½": 6359,
      "ĠÐľÑĬ": 6360,
      "ĠÐ¿ÐµÑĢÑĮ": 6361,
      "ĠÐ¿Ð»Ð°ÑĤÐµ": 6362,
      "ĠÑĢÑ£ÐºÐ¸": 6363,
      "ĠÐ³ÑģÐ´ÑĢÑı": 6364,
      "ÑıÐ¼Ð¸": 6365,
      "ĠÐ½Ð°Ð²Ñĭ": 6366,
      "ĠÐ²ÑĬÐ·ÑĮÐ¼Ð¸": 6367,
      "ĠÑģÑĤÑĢÐ°ÑħÐ°": 6368,
      "ĠÐ´ÑĢÑĥÐ³Ð¾Ðµ": 6369,
      "ĠÑĢÐ¸Ð·Ñ£": 6370,
      "ĠÐ¶Ð¸ÑĤÐ¸Ñı": 6371,
      "ĠÑģÐ¾ÑĢÐ¾ÐºÑĬ": 6372,
      "ĠÐ²Ð½ÑĥÑĤ": 6373,
      "ĠÑģÐºÐ¾Ð»ÑĮ": 6374,
      "Ð¿ÑĢÐ°Ð²Ð¸": 6375,
      "ĠÐ¿ÑĢÐ¸Ð¸Ð¼ÐµÑĤÑĮ": 6376,
      "ÑĩÐºÑĥ": 6377,
      "Ð²Ð°Ñİ": 6378,
      "Ð°Ð»ÑģÑı": 6379,
      "Ð±Ð¸ÑĤÑĮ": 6380,
      "ĠÐ¼ÑĥÐ¶Ñĥ": 6381,
      "ĠÐ´ÐµÑĤÑĮÐ¼Ð¸": 6382,
      "Ð´Ð¸ÑĤÑĬ": 6383,
      "ÐºÐ¸Ñı": 6384,
      "Ð¾Ð²Ð°Ð»Ð¸": 6385,
      "ÑĨÐ°Ð¼ÑĬ": 6386,
      "ĠÐ¾Ð±ÑĢÐ°Ð·ÑĬ": 6387,
      "ĠÐ½Ð¸Ð±ÑĥÐ´ÑĮ": 6388,
      "ĠÑĤÑī": 6389,
      "ĠÑģÐ»ÑĬ": 6390,
      "Ñ³Ð¸Ð¼": 6391,
      "ÑģÐºÐ¾Ð¼êĻĭ": 6392,
      "ĠÑĪÐµÑģÑĤ": 6393,
      "ĠÐ²Ð´Ð¾Ð²Ð°": 6394,
      "ĠÐ´Ð°Ð½Ð°": 6395,
      "ĠÑĦÐ¸Ð»Ð¾Ñģ": 6396,
      "ĠÐ·Ð°Ð¿Ð°": 6397,
      "ĠÐ´Ð¾Ð±ÑĢÐ¾Ð¹": 6398,
      "Ð³ÑĢÐ¸": 6399,
      "ĠÐ½ÐµÐ·": 6400,
      "ĠÐ·Ñĥ": 6401,
      "ĠÐ»Ð¾Ð¶": 6402,
      "ÑģÐºÐ¾Ñĥ": 6403,
      "ĠÐľÐ¾Ð»": 6404,
      "ĠÐ²Ð¾ÐµÐ²Ð¾Ð´Ð°Ð¼": 6405,
      "ĠÐ¼Ñ£ÑģÑĤÑ£ÑħÑĬ": 6406,
      "ĠÑĢÑıÐ´": 6407,
      "ĠÐ¿ÑĢÑĩ": 6408,
      "êĻĹÐºÐ¾": 6409,
      "ĠÐ¿Ð¾Ð»Ñ¹": 6410,
      "Ð¿Ð°Ð´Ðµ": 6411,
      "ĠÐ¶Ð°Ð»Ð¾Ð²Ð°Ð½": 6412,
      "ĠÐ¾Ð³Ð½ÐµÐ½Ð½ÑĭÑħÑĬ": 6413,
      "ĠÑĤÐ¾ÑĥÑĢ": 6414,
      "ĠÑģÑģÑĭÐ»": 6415,
      "Ð±Ð¸Ð»ÑĬ": 6416,
      "ĠÐ½Ð°ÑĢÑ§": 6417,
      "ĠÐ¿Ð¾Ñı": 6418,
      "Ð½Ð¾Ñ¥": 6419,
      "ÑĢÐ¾ÑģÐ»Ð°Ð²Ð°": 6420,
      "ÑµÑĢ": 6421,
      "ĠÐºÐ½Ð¸Ð³Ñĭ": 6422,
      "ĠÐ½Ð°ÑĩÐµÑĢ": 6423,
      "ĠÐ±Ð¾Ð³Ð°ÑĤÑĮÑģÑĤÐ²Ð¾": 6424,
      "ĠÐ¾Ð´Ñ£": 6425,
      "ĠÐ¾ÑĦÐ¾Ð½Ð°Ñģ": 6426,
      "ĠÑĢÐ°Ð½Ð¾": 6427,
      "ĠÑģÑĬÑģÑĤÐ°Ð²": 6428,
      "Ð³Ð°Ð¼Ð¸": 6429,
      "ĠÑĢÐµÑĩÐºÐµ": 6430,
      "ĠÐ²Ð»ÑĬ": 6431,
      "ÑģÑĤÐ¾Ñĥ": 6432,
      "ĠÐµÑģÑĮ": 6433,
      "ĠÐ¾ÑĤÑĩÐ¸Ð½Ñĥ": 6434,
      "ĠÐ¡Ñ£": 6435,
      "ĠÐ±Ð»Ð³Ð¾Ð´": 6436,
      "ĠÐ¿Ð°ÑĤÑĢÑĸÐ°ÑĢ": 6437,
      "ĠÐ¿ÑĢÐ¸Ð²ÐµÐ´Ðµ": 6438,
      "ĠÑĤÐ°ÑĤÐ¸": 6439,
      "ĠÑĤÑĢÐ°Ð²": 6440,
      "Ð¶Ñ«": 6441,
      "ĠÑģÑĬÐ´Ñ£": 6442,
      "ĠÐ²ÐµÐ»ÐµÐ»ÑĬ": 6443,
      "ÑŃÑĤÑĬ": 6444,
      "ĠÐĴÐ»Ð°Ð´Ð¸Ð¼ÐµÑĢÑĥ": 6445,
      "ĠÐ½ÐµÐ³Ñ¡": 6446,
      "Ð¶Ð°ÑĤ": 6447,
      "ĠÐ¼Ð¾Ð¸Ð¼": 6448,
      "ĠÑĨÐ°ÑĢÐµÐ²Ð¸": 6449,
      "ÑģÐ»Ð°Ð±": 6450,
      "ĠÐ»ÑİÐ±ÐµÐ·": 6451,
      "ĠÐ´Ð¾Ð±ÑĢÑĭÑħÑĬ": 6452,
      "ĠÑĥÐ±Ð¾Ð¹": 6453,
      "ĠÐ¶Ð¸Ð²êĻĭ": 6454,
      "ĠÐºÐ°Ð±Ð°Ð»Ñĥ": 6455,
      "ĠÐ¿Ð¾Ð´Ð»Ð¸Ð½Ð½Ð¾": 6456,
      "ÐµÑĢÐ²Ð°": 6457,
      "ÑīÐµÐ¼": 6458,
      "ÑĪÐµÐ¹": 6459,
      "ĠÐ²ÐµÐ»Ð¸ÑĨÑ£": 6460,
      "ÑĸÐ¸Ð¼ÑĬ": 6461,
      "ĠÐ±êĻĳÑĤÐ¸": 6462,
      "ĠÐ¿Ð°Ð²Ð»Ð¾Ð²": 6463,
      "ĠÑģÐ²Ð¾ÐµÐ¼Ð¾Ñĥ": 6464,
      "ĠÐ¾Ð³Ð½ÐµÐ½Ð½ÑĭÑı": 6465,
      "ĠÐĵÐ¾ÑģÑĥÐ´Ð°ÑĢÑİ": 6466,
      "ĠÐ¿Ð¾ÑģÑĭÐ»Ð°ÑĤÐ¸": 6467,
      "ĠÐ¸Ð´ÐµÑĤÑĮ": 6468,
      "ĠÐ²ÑĭÐºÑĥ": 6469,
      "ĠÐ²ÑģÐµÐ¹": 6470,
      "ĠÑģÑĤÐ°ÑĢÐ¸": 6471,
      "ÑĨÑ£Ð½": 6472,
      "ĠÐ½Ð¾Ð²Ð³Ð¾ÑĢÐ¾Ð´ÑĮÑĨÐ¸": 6473,
      "ĠÑķÑ£Ð»Ñ¡": 6474,
      "Ð¾ÐºÑĥÐ¿": 6475,
      "ĠÐ´ÐµÑĢÐµÐ²Ð½ÐµÑİ": 6476,
      "ĠÐºÑĥÐ½Ñĭ": 6477,
      "ĠÑģÑĤÑĢÑı": 6478,
      "ĠÐ¿ÑĢÐ¸Ð¿": 6479,
      "ĠÑħÐ¼": 6480,
      "ĠÐ¿Ð¸ÑĢÑĬ": 6481,
      "ĠÐ³Ð¾ÑģÐ¿Ð¾Ð´Ð¸Ð½ÑĬ": 6482,
      "ĠÐ¸ÑģÐ¿ÑĢÐ°Ð²Ð¸": 6483,
      "ĠÑĩÐµÐ»Ð¾Ð²Ñ£ÐºÐ¾Ð¼ÑĬ": 6484,
      "ĠÑģÑĤÐ°Ð½ÐµÑĤÑĬ": 6485,
      "ĠÐ½Ð°ÐºÐ°Ð·Ð°": 6486,
      "ĠÐ¸Ð³ÑĢÐ°": 6487,
      "ÐºÑĢÐµ": 6488,
      "Ð±Ð¾Ð³": 6489,
      "ĠÑģÐ²Ð¾Ð°": 6490,
      "ĠÐ¡ÐµÑĢ": 6491,
      "ĠÐ¼Ð¸ÑĢÑĮ": 6492,
      "Ð±Ð°Ð¼Ð¸": 6493,
      "ĠÐ»ÐµÐ¾Ð½": 6494,
      "ĠÐ¿Ð¾ÑĩÑĤÐ¾": 6495,
      "ĠÐ¸Ð´ÐµÑĪÐ¸": 6496,
      "ĠÐ¼ÐµÐ´Ñĥ": 6497,
      "ÑĢÐµÐ½Ñĭ": 6498,
      "Ð¼Ð°ÑĤÐ¸": 6499,
      "ĠÐ¿ÑĢÑĹ": 6500,
      "ĠÐ»Ð°ÑĢÐ¸": 6501,
      "ĠÑĥÑĪÐ¸": 6502,
      "ĠÐ´Ð¾ÑħÐ¾Ð´": 6503,
      "Ð´ÑĭÐ¸": 6504,
      "ĠÐ¿Ð¾Ð²ÐµÑĢ": 6505,
      "ĠÐ¿Ð¸ÑĢ": 6506,
      "ĠÐ½Ð¾Ð²Ð°Ð³Ð¾ÑĢÐ¾Ð´Ð°": 6507,
      "ÑģÑ«": 6508,
      "Ð´Ñ¡": 6509,
      "ĠÐºÐ¾Ð½Ñ§": 6510,
      "ĠÐºÐ¾ÑĥÐ¿": 6511,
      "ĠÐ½ÐµÐ³": 6512,
      "ĠÐ¼Ð½Ð¾Ð³Ð¾Ð»Ñ£": 6513,
      "ĠÐ½Ð°ÑģÐ¸Ð»ÑĮ": 6514,
      "ĠÐ³Ð»Ð°Ð²Ñ£": 6515,
      "ĠÑģÐ»ÑĭÑĪÐ°ÑĤÐ¸": 6516,
      "ÑģÑĤÐ²Ð¸Ñı": 6517,
      "ĠÐ·Ð´Ð¾ÑĢÐ¾Ð²Ð¾": 6518,
      "ĠÑ¡Ð»ÑĮ": 6519,
      "ĠÑıÑģÑĤÐ¸": 6520,
      "ĠÑģÐ²ÑıÑĤÐ¸": 6521,
      "ĠÐ¿ÐµÑĢÐµÑģÐ»Ð°Ð²": 6522,
      "ĠÐ¼Ñ£ÑĢÑ£": 6523,
      "ĠÑģÑĤÐ¾êĻĹ": 6524,
      "ĠÑħÐ¾Ð»Ñ¡": 6525,
      "ĠÐ±ÑĥÐ»Ð°ÑĤ": 6526,
      "ĠÐ²ÑģÑ§ÐºÐ¸Ñħ": 6527,
      "Ð²êĻ¿": 6528,
      "ĠÐºÑĥÐ´": 6529,
      "ĠÐ´Ð°ÑĤ": 6530,
      "ĠÐ¿Ð¾Ð¼Ð¾Ð»Ð¸": 6531,
      "ĠÐ¿ÑĢÐ°Ð²ÑĥÑİ": 6532,
      "ĠÐ³Ð¾ÑĢÑĮ": 6533,
      "ĠÐ²Ð°ÑĢÑ§": 6534,
      "ĠÑĤÑĢÑ£Ð±": 6535,
      "Ð´ÐµÑģ": 6536,
      "Ð»ÐµÐ¸": 6537,
      "ĠÐ¾Ð±Ð¸ÑĤÐµÐ»Ð¸": 6538,
      "Ð»ÐµÐ½ÑĸÐ¸": 6539,
      "ĠÑģÐºÐ°Ð·Ð°Ð»ÑĬ": 6540,
      "ĠÑĤÑĢÐµÐ³ÑĢÐ°": 6541,
      "ĠÐ´Ð¾ÑģÐ°": 6542,
      "ĠÐ¾Ð±ÑĬÑıÐ²Ð»ÐµÐ½Ð¾": 6543,
      "ĠÑģÑī": 6544,
      "ĠÐ¸Ð½Ñ£ÑħÑĬ": 6545,
      "ÑĪÐºÐµ": 6546,
      "Ð»Ð¸Ð¸": 6547,
      "ĠÐ»ÐµÐ´": 6548,
      "ĠÑģÑĤÐ¾Ð¸": 6549,
      "ĠÐ¿ÑĢÐ¸Ð»Ð¾Ð¶Ð¸": 6550,
      "ĠÐ±ÑĭÐ²ÑĪÐ¸": 6551,
      "ĠÑģÐ²Ñ§ÑĤ": 6552,
      "ĠÑģÐ°Ð¼ÑĮ": 6553,
      "ĠÑĤÐ²Ð¾ÑĢÑı": 6554,
      "ĠÑĩÑİÐ¶Ðµ": 6555,
      "ÑİÑīÐ¸Ð¼ÑĬ": 6556,
      "ĠÐ¿Ð°ÐºÐ¾ÑģÑĤÐ¸": 6557,
      "Ð»ÑĸÐ°": 6558,
      "ĠÐ¿ÑĢÐ¸Ð´Ð°": 6559,
      "ÐµÐ²ÑĢÐ°": 6560,
      "ĠÑĪÑĤÐ¸": 6561,
      "ĠÑģÐ¿ÑĢÐ¾Ñģ": 6562,
      "ĠÐ»ÑİÐ´ÑĸÐ¸": 6563,
      "ĠÑĩÐµÑĢÑĤÑĥ": 6564,
      "ĠÑ³ÐµÐ´": 6565,
      "ĠÐ±Ñ¹Ð´ÐµÑĤ": 6566,
      "ÐºÐ»Ð¾Ð½Ð¸": 6567,
      "ÑĩÑ£": 6568,
      "Ð¾Ð´Ñĭ": 6569,
      "ĠÑĢÐ°Ð´Ñĥ": 6570,
      "ÑĩÐ°Ñİ": 6571,
      "ĠÐ±Ð¾ÑıÑĢÑĭ": 6572,
      "ĠÑģÐ»ÑĥÐ¶Ð±Ðµ": 6573,
      "ĠÑģÐ½Ð°ÑģÑĤÑĮ": 6574,
      "ĠÐ´Ð¾ÑĩÐµÑĢÐ¸": 6575,
      "ĠÐ¾Ð´Ð¸Ð½ÑĬ": 6576,
      "ĠÐ°Ð±Ð¸Ðµ": 6577,
      "ÑīÐµÐ½Ñĭ": 6578,
      "ĠÐ¿ÑĢÐ¸Ð¸Ð¼Ð¸": 6579,
      "ÑĩÐµÐ²Ð¾": 6580,
      "ĠÑģÑĤÑĢÑ£Ð»": 6581,
      "ĠÐ±Ð¸ÑĤÑĮ": 6582,
      "ĠÐ¼Ð°Ð¸": 6583,
      "ÑĪÑĤÐ¸Ð¸": 6584,
      "ĠÑĤÐ°Ð²": 6585,
      "ĠÐ¾ÑĥÐ´Ð°ÑĢ": 6586,
      "ĠÐºÐ°ÐºÐ¾Ð¹": 6587,
      "ĠÑģÑĮÑĤÐ²Ð¾ÑĢ": 6588,
      "ĠÐ¸Ð¼Ñ£ÐµÑĤÑĬ": 6589,
      "ÑĪÐºÑ£": 6590,
      "ĠÐ¿ÐµÑĤÑĢÐ¾Ð²": 6591,
      "ĠÐ²ÑģÑıÐºÐ¸Ñı": 6592,
      "ĠÐ·Ð°Ð¿Ð°ÑģÑĬ": 6593,
      "ÑİÑīÐ¸ÑħÑĬ": 6594,
      "ĠÑĥÐºÐ°Ð¶ÐµÑĤ": 6595,
      "Ð½Ð¸Ñ§": 6596,
      "ÐºÐ¾ÑĥÐ¿": 6597,
      "ĠÐ¿ÑĢÐ¸ÑģÐ»Ð¸": 6598,
      "ĠÑĨÐ¾Ð»": 6599,
      "Ð¾Ð²Ð°Ñı": 6600,
      "ĠÐ´Ð²Ð¾ÑĢÑ£": 6601,
      "ĠÐ¿Ð»Ð°ÑĤÐ¸ÑĤÑĮ": 6602,
      "ĠÑģÑĤÐµÐ¿Ð°Ð½Ð°": 6603,
      "ĠÐ´Ð¾ÑģÑĤÐ¾Ð¹": 6604,
      "ĠÓ": 6605,
      "ÑĤÐ¾Ð»": 6606,
      "ĠÐ¼Ð¾Ð³Ð¾": 6607,
      "ÑĩÐ½ÑĭÐµ": 6608,
      "ĠÐĺÐ¾": 6609,
      "Ð´Ð°Ð»Ðµ": 6610,
      "ĠÐ²ÐµÐ»ÑĮÐ¼": 6611,
      "ĠÑĩÐµÐ»Ð¾Ð²Ñ£ÐºÑĥ": 6612,
      "ĠÑģÐºÐ¾ÑĢÐ±": 6613,
      "ĠÐ¿Ð°ÑĤÑĢÐ¸Ð°ÑĢÑħÐ°": 6614,
      "ĠÑģÐ½Ð°ÑģÑĤÐ¸": 6615,
      "ÑģÐ¸Ð¼Ð°": 6616,
      "ĠÐ¡Ð¾Ð·": 6617,
      "ĠÐ¿Ð»Ð°ÑĩÑĮ": 6618,
      "ĠÐ¼Ð½Ð¾Ð³Ð¸Ñı": 6619,
      "ĠÑħÑĢÐ°Ð¼ÑĬ": 6620,
      "ĠÐ¾ÐºÐ¾Ð»ÑĮ": 6621,
      "ĠÐ¶ÐµÐ½Ð°Ð¼": 6622,
      "ĠÐ±ÑĢÐ°ÑĤÑĮÐ¸": 6623,
      "ĠÐ¿ÑĢÐ¾Ð¿Ð¾Ð²Ñ£Ð´Ð°": 6624,
      "ĠÑģÐµÐ¼ÐµÐ½Ð¾Ð²": 6625,
      "ĠÑħÐ¾ÑĢÐ¾ÑĪÐ¾": 6626,
      "ÑģÐ¾Ð¶Ðµ": 6627,
      "ĠÐĺÑģÐ¿": 6628,
      "ÐºÐ¸Ð¼Ð¸": 6629,
      "ĠÐ¾ÑĥÐ³Ð¾Ð´": 6630,
      "ĠÐļÐ°Ð½": 6631,
      "ÑĦÑĥ": 6632,
      "Ð³Ð°Ð¹": 6633,
      "ĠÑģÑĥÐ´ÑĮÑı": 6634,
      "ĠÐ½Ð¸ÐºÐ¾Ð³Ð¾": 6635,
      "ĠÑģÑĤÐ¾ÑĢÐ¾Ð½Ð°": 6636,
      "ĠÑģÑĬÑģâ¸¯": 6637,
      "ÑģÑħÐ¾Ð´": 6638,
      "ĠÐ±Ð¶ÑĮ": 6639,
      "Ð½Ð°ÑĤÐ¸": 6640,
      "ĠÑĥÐ¼Ñ£": 6641,
      "Ð´ÐµÐ¹": 6642,
      "ĠÐĶÐ¼Ð¸ÑĤ": 6643,
      "ĠÐ¿Ð¾ÐºÐ¾Ð¸": 6644,
      "ĠÐ²Ð°ÑĪÐ¸ÑħÑĬ": 6645,
      "ĠÐ¸ÑģÐºÑĥÑģ": 6646,
      "ĠÑģÐ°ÑĢ": 6647,
      "Ð·Ð´Ñĭ": 6648,
      "ĠÐ¿Ð¾ÑģÐ»Ð¸": 6649,
      "ĠÐ½Ð°Ð¿Ñĥ": 6650,
      "ĠÐ¸Ð½Ð´Ð¸": 6651,
      "ĠÐ¿Ð¾ÑģÑĤÑĢÐ¸": 6652,
      "ĠÐ¿Ð»Ð¾ÑĤÐ¸": 6653,
      "ĠÐºÐ¾ÑģÑĤÑĢÐ¾Ð¼": 6654,
      "ĠÐ´Ð¾ÑģÑĤÐ°ÑĤÐ¾": 6655,
      "Ð»ÐµÐ½Ð¸Ð¸": 6656,
      "ĠÐ¿ÑĢÐ¾Ð¼ÑĭÑģÐ»": 6657,
      "ĠÐ¾Ð±Ð¸Ð´Ñĥ": 6658,
      "ĠÐ¼ÑĨÑģÐ°": 6659,
      "ÑĢÐ¼Ð¸": 6660,
      "ĠÐ¿ÑĢÐµÑĤ": 6661,
      "ÐµÑĢÑı": 6662,
      "ĠÐ¾Ð±ÑĢÐ°ÑĤÐ¸": 6663,
      "ĠÐ²ÑĮÑģÑ§": 6664,
      "Ð¾Ð´Ð°ÑĤÑĮ": 6665,
      "ĠÐ¿Ð¸ÑĪÐµ": 6666,
      "ĠÑģÐ°Ð¼Ð¾Ð¼Ñ¹": 6667,
      "ĠÐºÐ½Ð¸Ð³Ð°Ñħ": 6668,
      "ÑģÑİ": 6669,
      "Ð²ÐµÐ½Ð¸": 6670,
      "ĠÐºÐ¾Ð±": 6671,
      "Ð¶Ð¸Ð¼": 6672,
      "Ð¾Ð½Ð¾Ð²": 6673,
      "ÐºÐ¸Ñħ": 6674,
      "Ð±Ð¸Ð¸": 6675,
      "ĠÐºÑĢÐµÑģÑĤÑĬ": 6676,
      "ĠÐ¿Ð°Ð²Ð»Ð°": 6677,
      "Ð»Ñ«": 6678,
      "ÑĢÐ°Ð²Ð°": 6679,
      "ĠÐ¾ÑĤÑĨÐ¾Ð²": 6680,
      "ĠÑĤÑĢÑĥÐ´": 6681,
      "ĠÑģÐµÑĢÐ³": 6682,
      "ĠÐ²ÑĢÐµÐ¼ÐµÐ½Ð°": 6683,
      "ĠÑĢêĻĭÑĨÑ£": 6684,
      "ĠÑĢÐ°Ð´Ð¾ÑģÑĤ": 6685,
      "ĠÐļÐ¸ÐµÐ²Ð°": 6686,
      "Ð¾Ð±ÑĢÐ°Ð·": 6687,
      "ĠÑĪÑİ": 6688,
      "ĠÐ¿Ð¾Ð¿Ñĥ": 6689,
      "ĠÐ¿Ð¾Ð½Ðµ": 6690,
      "Ð³Ð½Ñ£Ð²Ð°": 6691,
      "Ð°Ð»Ð°": 6692,
      "Ð½ÐºÐ°": 6693,
      "ĠÐ¿Ð¾Ð»Ð¾ÑĤ": 6694,
      "ĠÐµÑģÑĤÑĮÐ»Ð¸": 6695,
      "ĠÐĲÐ»ÐµÐºÑģÐ°Ð½Ð´ÑĢ": 6696,
      "ĠÐ¶Ð°Ð»Ð¾Ð²Ð°Ð»": 6697,
      "ĠÐ¿ÑĥÑĪÐºÐ°ÑĢÑı": 6698,
      "ĠÑĢÐ°Ð·êĻĭÐ¼Ñ£": 6699,
      ".âĢł": 6700,
      "Ð²ÐºÐ°": 6701,
      "ĠÐ¸Ð½ÑĭÐ¼ÑĬ": 6702,
      "ĠÐ²ÑģÑĤÑĢÑ£": 6703,
      "ĠÐ½Ð°Ð»Ðµ": 6704,
      "ÑĤÐ¸Ð½Ðµ": 6705,
      "ÐµÐ½Ð¾Ðµ": 6706,
      "ÐµÐ½ÑĸÑı": 6707,
      "ĠÑĥÐ¼ÑĮ": 6708,
      "ĠÐ¿ÑĢÐ¸ÑģÑĤÐ°Ð²Ð°": 6709,
      "ĠÐ¿Ð¾Ð»ÑĥÑĤ": 6710,
      "ĠÑĪÑĬ": 6711,
      "ĠÐ¿Ð¾Ð»Ð¾ÑĤÑĮ": 6712,
      "ĠÐ¿Ð°Ð¼Ñ§ÑĤÑĮ": 6713,
      "ÑģÐºÐ¾ÑĩÐ¸": 6714,
      "ÑİÑīÐ°Ð³Ð¾": 6715,
      "ĠÐŁÐ¾ÑģÐ»Ñĥ": 6716,
      "ĠÑ²": 6717,
      "ĠÐ½Ð°ÑģÐ»": 6718,
      "Ð´Ð¸Ðµ": 6719,
      "ÐºÐ¸Ðµ": 6720,
      "ĠÐ´Ñ£Ð»": 6721,
      "ĠÐºÐ¾Ð½Ðµ": 6722,
      "ĠÐ¸Ð²Ð°Ð½Ðµ": 6723,
      "ĠÑĩÐµÑģÑĤÐ¸Ñİ": 6724,
      "ĠÑĩÐ¸ÑģÐ»Ð¾Ð¼ÑĬ": 6725,
      "ĠÑģÑ«ÑĤÑĬ": 6726,
      "ĠÐľÐ°ÑĢÐºÐ¾Ð±": 6727,
      "ĠÐĶÐ°ÑĢÐ¸Ð¹": 6728,
      "ĠÐĲÐ»ÐµÑĪÐ°": 6729,
      "ĠÐ³ÑĢÐ¾": 6730,
      "ĠÐ¿ÑĢÐ¸Ð¸Ð¼ÑĬ": 6731,
      "Ð°Ð½Ð³": 6732,
      "ĠÐ¿Ð¾Ð»ÐºÐ¾Ð²": 6733,
      "ĠÐ¸Ð·Ð²Ðµ": 6734,
      "ĠÐ²Ñ£ÑģÐ¸": 6735,
      "ĠÐ´Ð¾Ð±Ñĭ": 6736,
      "ĠÑģÑĤÐ°ÑĢÐµÑĨ": 6737,
      "ĠÐ¾Ð±ÑĭÑģÐºÑĥ": 6738,
      "Ð´Ð¾Ð¼Ð¾": 6739,
      "ĠÐ¿ÑĢÐ¸Ðº": 6740,
      "Ð¸Ð»Ð¾Ð²Ð°": 6741,
      "ÑģÑĤÐ¸Ðµ": 6742,
      "ĠÐ¼Ð¾ÐµÐ¼ÑĬ": 6743,
      "Ð¼Ð¾ÑĤÑĢ": 6744,
      "ĠÐ¼Ð¾ÐµÐ³Ñ¡": 6745,
      "ĠÐ¿Ð¾ÑĪÐµÐ»ÑĬ": 6746,
      "ĠÑģÐºÐ°Ð·Ñĭ": 6747,
      "ĠÐ¶Ð¸Ð²ÐµÑĤÑĬ": 6748,
      "ĠÐ¿êĻĭÑĤÐ¸": 6749,
      "ĠÐ²Ñ£Ð´Ñ£": 6750,
      "Ð¾Ð²Ð¸ÑĤÑĮ": 6751,
      "Ð»ÑıÑĤÑĮ": 6752,
      "ĠÐ²ÑĬÐ·Ð´Ð²Ð¸": 6753,
      "ĠÑģÑ£Ð²ÐµÑĢ": 6754,
      "ĠÐµÑģÐ¼Ñĭ": 6755,
      "ÑģÐºÑĭÑħ": 6756,
      "ĠÑĢÐ¾Ð·Ð±Ð¾": 6757,
      "ĠÑģÐ¾ÑĤÐ²Ð¾ÑĢÐ¸ÑĪÐ°": 6758,
      "ĠÐ¶Ð°Ð»Ð¾Ð±": 6759,
      "ĠÐ¼ÑĥÐ´ÑĢÑĬ": 6760,
      "ĠÐĶÑĥÑħÐ°": 6761,
      "ĠÐºÐ»Ðµ": 6762,
      "ĠÐ´Ð¾Ð¸": 6763,
      "ĠÐ²ÐµÐ»Ð¼": 6764,
      "ĠÐ¿Ð¾Ð¿ÑĬ": 6765,
      "Ð·Ð°Ð½Ð°": 6766,
      "ĠÐ¿ÑĢÐ¾Ð´Ð°Ð¶Ð¸": 6767,
      "ĠÐ´Ð°Ð²êĻĳ": 6768,
      "ÑģÐ»Ñ£": 6769,
      "ÑĪÐµÐ¼ÑĬ": 6770,
      "ÐµÐ»ÐµÐ¼": 6771,
      "ĠÐŀÐ»Ðµ": 6772,
      "ĠÐ§ÐµÑĢ": 6773,
      "Ð´ÐµÑĢÐ¶Ð°": 6774,
      "ĠÐ°Ð»ÐµÐºÑģÑ£": 6775,
      "ĠÐ§Ð°Ð´Ð¾": 6776,
      "ĠÐ©": 6777,
      "ĠÐ°Ñģ": 6778,
      "ÐµÐ½ÑĸÐµÐ¼ÑĬ": 6779,
      "Ð¶Ð¾": 6780,
      "Ð»Ð¾Ðµ": 6781,
      "ĠÐľÐ½": 6782,
      "ĠÐ²Ð¾Ð»Ð¾Ðº": 6783,
      "ĠÐ½Ð¾Ñı": 6784,
      "ÑĶÐ½": 6785,
      "ĠêĻĭÐ±Ð¾": 6786,
      "ĠÐºÑĢÑĭÐ¼": 6787,
      "ĠÐ½Ð°Ð¿Ð¸ÑģÐ°ÑĤÐ¸": 6788,
      "ÑĪÐµÐ¼Ñĥ": 6789,
      "ĠÑħÑĢÑĮ": 6790,
      "êĻĳêĻĹ": 6791,
      "ĠÐ¿ÑĢÐ°Ð²Ð´Ð°": 6792,
      "ĠÐ¾Ð¿Ð°Ñģ": 6793,
      "ĠÐ¾Ð¿ÑıÑĤÑĮ": 6794,
      "ĠÐ£Ð¶Ðµ": 6795,
      "ÑĨÐºÐ¸Ðµ": 6796,
      "ĠÐ¼ÑĮÑģÑĤÐ¸ÑģÐ»Ð°Ð²ÑĬ": 6797,
      "ĠÐ´Ð½Ñ£": 6798,
      "Ñ¡Ð¼ÑĮ": 6799,
      "ĠÑĤÐ²Ð¾ÐµÐ¼ÑĬ": 6800,
      "ĠÑģÐ²Ð¾Ð±": 6801,
      "ĠÐºÐ¾ÑĤÐ¾ÑĢÑĭÐ¼ÑĬ": 6802,
      "ĠÐ±Ñ¹Ð´Ñ¹": 6803,
      "ĠÐ²Ð¿ÐµÑĢÐµÐ´ÑĮ": 6804,
      "ĠÐĶÐ°Ð½Ð¸Ð»": 6805,
      "Ð½ÑĤÐ°": 6806,
      "ĠÐ¿ÑĪÐµ": 6807,
      "ĠÐ¿ÑĤÐµÐ½": 6808,
      "ĠÐºÐ»Ñ£": 6809,
      "ĠÐ²Ñ£ÑģÑĤÐ¸": 6810,
      "ĠÐ»Ð¸ÑĨÐµÐ¼ÑĬ": 6811,
      "ĠÐ¶Ð¸Ð²Ð°": 6812,
      "ĠÐ½Ð¾Ñī": 6813,
      "ĠÑģÐ²ÑıÑĤÑĭ": 6814,
      "ĠÐ¿ÐµÑĩÐµÐ½Ñ£": 6815,
      "ĠÐ±Ð¾ÑĥÐ´ÐµÑĤÑĮ": 6816,
      "ĠÐ±Ð¸Ñģ": 6817,
      "ĠÐ²ÑĬÐ¼Ñ£": 6818,
      "Ð½ÑĭêĻĹ": 6819,
      "ĠÐĺÑħÐ½Ð¸": 6820,
      "ĠÑģÐ²Ð¾êĻĹ": 6821,
      "ĠÑħÐ°Ð»": 6822,
      "êĻģÐ´Ð°": 6823,
      "ĠÐ¶Ñĭ": 6824,
      "Ð´Ð¾ÑħÑĬ": 6825,
      "ĠÑħÑĢÐ°Ð¼Ð¸": 6826,
      "ĠÐ»ÐµÑģÐ¾Ð¼": 6827,
      "ĠÐ¾ÑĤÐ¿ÑĥÑģÐº": 6828,
      "ĠÐ´ÑĢÐµÐ²Ð°": 6829,
      "ĠÐ¿Ð¸ÑĤÑĮÐµ": 6830,
      "ĠÐºÑĢÑĥÐ¶Ð°Ð»ÑĮ": 6831,
      "ĠÐļÑĸÐµÐ²ÑĬ": 6832,
      "ĠÐľÐ°ÑĢÐºÐ¾Ð±ÑĢÑĥ": 6833,
      "ĠÐ½Ð°ÑĢÐ¾": 6834,
      "ÑģÐºÑĸÐ¹": 6835,
      "ĠÐŁÐ°Ðº": 6836,
      "ĠÐ¼Ð°Ð¸Ñı": 6837,
      "Ð¾Ð½ÑĮÐºÐ°": 6838,
      "ĠÐŁÐ°ÑĩÐµ": 6839,
      "ĠÑĥÐ±ÑĭÑĤÐºÐ¸": 6840,
      "Ð³Ð¾Ð¸": 6841,
      "Ð¶ÐµÐ½Ð¾": 6842,
      "ĠÐ·Ð°Ð±Ñĭ": 6843,
      "ĠÑģÐ¸Ð»Ðµ": 6844,
      ",.": 6845,
      "ĠÑģÐ»Ð¾Ð²ÑĬ": 6846,
      "ĠÑģÑĤÐ°ÑĢÐ¾ÑģÑĤÑĮ": 6847,
      "ĠÐ´ÐµÐºÐ°": 6848,
      "ĠÐ¿Ð¾Ð³ÑĢÑ£": 6849,
      "â¸±.": 6850,
      "ĠÐ¸ÑģÐ¿Ð¾Ð²Ñ£Ð´Ð°": 6851,
      "ĠÐ²Ð¾ÑģÑħÐ¾ÑĤÑ£": 6852,
      "ĠÐºÑĢÐµÐ¿Ð¾ÑģÑĤ": 6853,
      "ĠÐ·Ð°ÑħÐ°ÑĢÑĮ": 6854,
      "ĠÐ±Ð¾Ð»Ñ£Ð·Ð½Ð¸": 6855,
      "ĠÐ¸Ð´ÐµÑĤÑĬ": 6856,
      "Ð»Ð¸Ð²Ð°ÑĤÐ¸": 6857,
      "ÐµÐ¼Ñĭ": 6858,
      "Ð°ÐºÐ¾Ð²Ð°": 6859,
      "ĠÐ¾ÑĤÐºÐ°Ð·": 6860,
      "ÑĢÐµÑĩÐµ": 6861,
      "ĠÐ¡ÑĤÐµ": 6862,
      "ĠÐ¿Ð»Ð°ÑĩÑİ": 6863,
      "Ñ³Ð°": 6864,
      "ĠÐ¤Ð¸Ð»": 6865,
      "ĠÐ²ÐµÐ»Ð¸ÑĩÐµÑģÑĤÐ²Ð¾": 6866,
      "ĠÐ»Ð¸ÑĤÐ¾Ð²": 6867,
      "ĠÑ¡Ð»ÐµÐ³ÑĬ": 6868,
      "Ð±Ñ¹": 6869,
      "ĠÐ½ÐµÐ²Ð¾Ð»": 6870,
      "ĠÐ°Ð½Ð°": 6871,
      "ÑĢÐ¸Ð¼": 6872,
      "ÑīÐ¸ÐºÐ°": 6873,
      "ĠÐ²Ð°ÑĪÑĬ": 6874,
      "ĠÐ±ÑĢÐ°ÑĤÐ¸Ñı": 6875,
      "ĠÐ¿ÑĢÐ¾ÑĢÐ°Ð·ÑĥÐ¼Ñ£": 6876,
      "ÑīÐ¾Ñĥ": 6877,
      "ÑĸÑ«": 6878,
      "ĠÐĴÑģÑı": 6879,
      "ĠÐĵÑĢÐ°": 6880,
      "ĠÐ¸ÑģÐ¿Ð¾Ð²Ñ£": 6881,
      "ĠÐ¸ÑģÑĤÐ¸Ð½Ñ£": 6882,
      "Ð²Ð¾Ð¼Ñĥ": 6883,
      "ĠÐ½ÐµÑģÑĬ": 6884,
      "ĠÑıÑĢÐ¾ÑģÐ»Ð°Ð²ÑĬ": 6885,
      "ĠÑģÑĥÐ´ÑĬ": 6886,
      "ĠÑłÐ½": 6887,
      "ĠÑĥÐºÑĢÑĭ": 6888,
      "ĠÑģÑĤÑĢÑıÐ¿": 6889,
      "ĠÑģÑĩ": 6890,
      "ÑıÐ½Ð¸Ñı": 6891,
      "ĠÐ±Ð»ÑİÑģÑĤÐ¸": 6892,
      "ĠÐ½Ð°Ð¿ÐµÑĢÐµÐ´ÑĬ": 6893,
      "ĠÐ¸Ð¾ÑģÐ¸ÑĦÐ¾Ð²Ð°": 6894,
      "ĠÐ¿ÑĢÐ¸Ð¸Ð´Ð¾ÑĪÐ°": 6895,
      "ĠÐŁÐ¾Ð²": 6896,
      "ĠÐ¿Ð¾ÐºÐ¾Ñģ": 6897,
      "ĠÑĢÑĥÐ±Ð»Ñ§": 6898,
      "ĠÐ¼Ð¸ÑĤÑĢÐ¾Ð¿Ð¾Ð»Ð¸ÑĤÑĥ": 6899,
      "ĠÑĤÐµÑĢÐ¿": 6900,
      "ĠÐ±Ð¾Ð³Ð¾Ð¼Ð¾Ð»": 6901,
      "ÑĸÐ¼ÑĬ": 6902,
      "ĠÐ¸Ð¼ÐµÐ½Ð°": 6903,
      "ĠÐºÐ¾ÑĤÐ¾ÑĢÐ¾Ð¼Ñĥ": 6904,
      "Ð³Ð¾ÑĢÐ¾Ð´Ñĥ": 6905,
      "ĠÐ´ÑĮÑıÐº": 6906,
      "ĠÐ²Ñ£ÑĢÑĥÐ¹": 6907,
      "ĠÐ²Ð²ÐµÑĢÑħÑĬ": 6908,
      "ĠÐ¿ÑĭÑĤÐ°ÑĤÐ¸": 6909,
      "ĠÑģÐ½Ð¸": 6910,
      "Ð¾Ð³Ñ¡": 6911,
      "Ð¾Ð³Ð´Ñĭ": 6912,
      "ĠÐ¾Ð±Ð»Ðµ": 6913,
      "ĠÐ¼ÐµÐ¶ÑĮ": 6914,
      "Ð¿Ð°ÑĩÐµ": 6915,
      "ĠÑģÑĤÐ°ÑĤÑĮÑİ": 6916,
      "ĠÐ²Ð¸Ð´ÐµÑĤÐ¸": 6917,
      "ÐºÐ¸Ð¸": 6918,
      "ĠÐ¡Ð°Ð»": 6919,
      "ÑģÐ¸ÑĤÑĮ": 6920,
      "ĠÑģÐ¸Ð¼Ð¸": 6921,
      "ĠÑĪÐ°Ð³": 6922,
      "ĠÐºÐ¾ÑĤÐ¾ÑĢÐ°Ð³Ð¾": 6923,
      "Ð²ÑĭÑı": 6924,
      "ĠÐ³Ð»Ð°Ð³Ð¾Ð»ÐµÑĤÑĬ": 6925,
      "ĠÐ½Ð¸ÐºÐ¾Ð»": 6926,
      "ĠÐ»ÐµÐ³": 6927,
      "ĠÐµÐ´Ð¸Ð½Ð¾Ð¹": 6928,
      "ĠÐ¸Ð´Ð¾ÑĪÐ°": 6929,
      "ĠÐºÐ°Ñģ": 6930,
      "ĠÑĢÐ¾Ð¶Ð´": 6931,
      "ĠÐµÐ³": 6932,
      "ĠÑĥÑģÑĤ": 6933,
      "ÑĩÐ¸Ð¼Ð°": 6934,
      "ĠÐ´Ð¾ÑģÑĤÐ¸": 6935,
      "ĠÑĶÑģÑĤÑĮ": 6936,
      "ĠÐ³ÑĢÑ£ÑħÐ¸": 6937,
      "ĠÐ²ÐµÐ»Ð¸ÐºÐ¸Ð¼": 6938,
      "ÑİÑīÐ¸Ñħ": 6939,
      "ĠÐ¾ÑĤÐ´Ð°Ð½Ð¾": 6940,
      "ĠÐ±Ñ¹Ð´ÐµÑĤÑĮ": 6941,
      "ĠÐ¾ÑĤÑĢÐ¾ÐºÑĬ": 6942,
      "ĠÐ¾ÑĥÐ±Ð¾Ð³": 6943,
      "ÑĤêĻ¿": 6944,
      "ĠÐ²ÑģÑĤ": 6945,
      "ĠÐ³Ð»Ð°Ð³Ð¾Ð»Ð¸": 6946,
      "Ð½Ð°Ð´ÑĨÐ°ÑĤÑĮ": 6947,
      "ÑĪÐ°Ð²ÑĬ": 6948,
      "ĠÐ¿ÑĥÑģ": 6949,
      "ĠÑģÑĤÐ°ÑĢÐµÑĨÑĬ": 6950,
      "ĠÐ´Ð¾Ð»Ð³": 6951,
      "ĠÐĳÐ¾Ñı": 6952,
      "Ð¶Ñ¹": 6953,
      "Ð°Ð²Ñ£": 6954,
      "Ð°ÑĤÐ¸ÑģÑı": 6955,
      "ÑģÑĤÐ°Ð³Ð¾": 6956,
      "ĠÑģÑĤÑĢÑ£Ð»ÑĮÐ±Ñĥ": 6957,
      "ĠÑİÑĢÑĮÐ¸": 6958,
      "ĠÑĨÐ°ÑĢÐ¸ÑĨÐ°": 6959,
      "ĠÐ¿ÑĢÑıÐ¼Ð¾Ð¹": 6960,
      "ĠÐ½Ð°Ð¹Ð¼Ñĥ": 6961,
      "ÑģÑĤÑĸÐ¸": 6962,
      "Ð½ÑıÑĤÐ¸": 6963,
      "ÑĢÑĬÐ´": 6964,
      "êĻ¿Ð¶Ðµ": 6965,
      "ĠÐ´ÑĥÑĪÑİ": 6966,
      "êĻĭÐ´êĻĭ": 6967,
      "ĠÑģÐ¿Ð°ÑģÐ°": 6968,
      "ĠÑģÐµÐ»ÑĮÑĨÐ°": 6969,
      "ÑħÐ¾Ð¶Ð´Ð°": 6970,
      "Ñ§ÑĤÑ£": 6971,
      "ĠÐ¿Ð¾ÑĩÐ¸": 6972,
      "ĠÐŁÐ¾ÑĢ": 6973,
      "ĠÐºÐ¾Ð½ÐµÑĨÑĬ": 6974,
      "Ð²ÑĭÐµ": 6975,
      "ĠÐ°Ð½ÑĤÐ¾Ð½": 6976,
      "ĠÐ´Ð½ÐµÑģÑĮ": 6977,
      "ĠÐ±Ð¾Ð»ÑĮÑĪÐ°Ð³Ð¾": 6978,
      "ĠÐ»Ð¸ÑħÐ¾": 6979,
      "ĠÑģÐºÐ¸": 6980,
      "ÑĮÑ§": 6981,
      "ĠÐ²Ð¾Ð½ÑĬ": 6982,
      "Ð¶ÐµÐ½Ñĭ": 6983,
      "ĠÐ¾ÑĥÑĩÐµ": 6984,
      "ĠÐŁÐ°Ð²": 6985,
      "ĠÑģÐ¸Ñĩ": 6986,
      "ĠÐĵÐ¾Ð²Ð¾ÑĢ": 6987,
      "ĠÑģÐ¾Ð±Ñ§": 6988,
      "ĠÑģÑĬÑĤÐ²Ð¾ÑĢÐ¸ÑĤÑĮ": 6989,
      "ÑĤÐ²êĻĭ": 6990,
      "ĠÐ²ÑĭÑģÐ¾ÐºÐ¾": 6991,
      "ĠÐºÐ¾ÑģÑĤÑıÐ½": 6992,
      "Ð°Ð°": 6993,
      "ÑĪÑĤÐ¾Ñĥ": 6994,
      "Ð±Ð°ÑĢ": 6995,
      "ĠÐ¿ÑĢÑĸÑ§": 6996,
      "êĻĭÐ´Ðµ": 6997,
      "Ð¶ÐµÐ½Ð°": 6998,
      "ĠÐ¡Ð°Ð¼ÑĬ": 6999,
      "Ð´Ñ£Ð¸": 7000,
      "Ð¶Ð°ÑĤÑĮ": 7001,
      "ĠÐºÐ¾Ð½ÐµÐ¹": 7002,
      "ĠÐ³Ð¾ÑģÑĥÐ´Ð°ÑĢÑĮÑģÑĤÐ²Ð°": 7003,
      "Ð½ÐµÑģÐµ": 7004,
      "ĠÐ¿ÑĢÐ¸ÑģÑĤÑĥÐ¿Ñĥ": 7005,
      "ĠÑĤÑĢÐ°Ð¿ÐµÐ·": 7006,
      "ĠÑģÑĬÐ¼ÑĢÑĮ": 7007,
      "ĠÑĤÐ¾Ð»ÑĮ": 7008,
      "Ð¿ÑĢÐ¾": 7009,
      "ĠÐ¾Ð±ÑĢ": 7010,
      "ĠÐ¿Ð¾Ð´Ð¿Ð¸Ñģ": 7011,
      "ĠÑĤÐ¾Ð±Ð¸": 7012,
      "ÑĪÑĤÑĥ": 7013,
      "ĠÑĢÐ¾Ð·ÑĬ": 7014,
      "ĠÐľÑĥÑĢÐ¾Ð¼ÑĨÐ°": 7015,
      "ĠÐ³ÑĢÐ¸Ð²ÑĮÐ½Ð¾": 7016,
      "ĠÐ¿Ð¾Ð¼Ð¾Ñī": 7017,
      "ĠÐ¾ÑĤÐ²ÐµÑĤÑĩÐ¸ÐºÐ°": 7018,
      "ĠÑģÐµÑĢÐµÐ±ÑĢÐ¾": 7019,
      "ĠÐºÑĢÐµÑģÑĤÑĮÑıÐ½Ð¸ÑĪÐºÐ°": 7020,
      "ÑĤÐºÐ°": 7021,
      "Ð´Ñ§ÑĤÑĮ": 7022,
      "ĠÐ´Ð°Ð±Ñĭ": 7023,
      "Ð»ÐµÑĪÐ¸": 7024,
      "ĠÐ½Ð¾ÑĩÑĮ": 7025,
      "ĠÐ½Ñ£Ð¼": 7026,
      "ĠÑħÑĢÐ°Ð½Ð¸ÑĤÐ¸": 7027,
      "Ð´Ñ§ÑĤÑĬ": 7028,
      "Ð»Ð¾Ð²Ñ£": 7029,
      "Ð²Ñ«": 7030,
      "ÑģÑĤÐ¾ÑĤ": 7031,
      "ÑĪÑĸÐ¸": 7032,
      "Ð¶ÐµÑĤÑģÑı": 7033,
      "Ð°Ð½Ñ£": 7034,
      "ĠÐĴÑĬêĻģ": 7035,
      "ĠÐµÑģÑĤÐµÑģÑĤÐ²Ð¾": 7036,
      "ÑĩÑ§": 7037,
      "ĠÐ¿ÑĢÐ²": 7038,
      "Ð½Ð¸ÑĨêĻĭ": 7039,
      "ĠÐ²ÑĬÐ·Ð¼": 7040,
      "ĠÐ»ÑİÐ´Ð¸Ð¸": 7041,
      "ÑģÐºÑĭÐ¼": 7042,
      "ĠÐĵÐ¾ÑģÐ¿Ð¾Ð´ÐµÐ½ÑĮ": 7043,
      "ĠÐ³Ð»Ð°Ð²Ð¾Ñİ": 7044,
      "ÑİÑīÐ¸Ð¼": 7045,
      "ĠÐĿÐ¸ÐºÐ¸ÑĤÐ¸": 7046,
      "Ð¾Ð³Ð¸Ð²Ð°": 7047,
      "ÑĨÐº": 7048,
      "ĠÐľÐ¸Ð»Ð¾": 7049,
      "ÑīÐ¸Ðº": 7050,
      "ĠÐ³ÑĢÐ¸Ð²Ð½Ñ£": 7051,
      "ÑģÑĭÐ¿Ð°": 7052,
      "ĠÐ¾Ð±ÑĬÑı": 7053,
      "ĠÑĥÐ´Ð°ÑĢÐ¸": 7054,
      "Ġ1000": 7055,
      "ĠÐ½Ð°Ð¿Ð¸ÑĪÐµÑĤ": 7056,
      "ĠÑģÑĥÐ·Ð´Ð°Ð»": 7057,
      "ĠÑģÐ¾Ð´": 7058,
      "Ð´Ð¾ÑĢ": 7059,
      "Ð¾ÑĥÐ¼Ð¾Ñĥ": 7060,
      "ĠÐĿÐ¾Ð²": 7061,
      "ĠÑĤÑĭÐ¸": 7062,
      "ĠÐ½Ñ£ÑĤÑĥ": 7063,
      "ĠÑĤÐ²Ð¾ÑĢÐ¸ÑĤÑĬ": 7064,
      "ĠÐĴÐ°ÑģÐ¸Ð»": 7065,
      "ĠÑģÐ¸ÑĢÑ£ÑĩÑĮ": 7066,
      "ĠÐºÐ»Ñı": 7067,
      "ĠÑĥÐ¼Ðµ": 7068,
      "ĠÐ¿ÑĢÐ¸ÐµÐ´": 7069,
      "ĠÐ¿ÑĢÐ°Ð²Ð¾Ð¹": 7070,
      "ĠÑģÐ²Ñ£Ð¸": 7071,
      "ĠÐ²Ð»Ð°Ð´Ñ£ÑĤÐ¸": 7072,
      "ĠÑĢÐ°Ð·ÑĥÐ¼Ð¸": 7073,
      "ĠÐ±Ð»Ð°Ð³Ð¾Ð²Ñ£": 7074,
      "ĠÐ±Ð¾ÑıÑĢÑģÐºÐ¸Ð¼": 7075,
      "ĠÐĳÐ¾Ð¶Ð¸Ñİ": 7076,
      "ĠÑĤêĻĭÑĢ": 7077,
      "ĠÐ¿Ð¾Ð»Ð¾Ð¶Ð¸ÑĪÐ°": 7078,
      "ĠÐ´ÑħÐ°": 7079,
      "Ð³Ð½": 7080,
      "ĠÐ¿ÑĢÐ¸ÐµÑħÐ°Ð»ÑĬ": 7081,
      "ĠÑģÑĤÐ°ÑĢÑĨÐµ": 7082,
      "ĠÐ´ÐµÑģÑ§ÑĤÐµ": 7083,
      "ĠÐ·Ð´Ð¾ÑĢÐ¾Ð²ÑĮÐµ": 7084,
      "ÑĨÑ¹": 7085,
      "Ð½Ð°ÑĤÑĨÐ°ÑĤÑĮ": 7086,
      "êĻģêĻĳ": 7087,
      "ÐµÑģÐ¸": 7088,
      "ĠÐ±Ð¾Ñ§": 7089,
      "ĠÐ²ÑĭÑĤÐ¸": 7090,
      "ĠÐ¾ÑĤÑĬÐ²Ñ£": 7091,
      "ĠÑģÐ¼ÑĮ": 7092,
      "Ð¿Ð¾Ñģ": 7093,
      "ĠÐ¸Ð·ÑĮ": 7094,
      "ĠÐ²Ñ£Ð´Ð°ÑĤÐ¸": 7095,
      "ĠÐļÑĥ": 7096,
      "ĠÐºÑĢÑĤ": 7097,
      "ĠÐºÑĥÐ¿Ð»Ñİ": 7098,
      "ĠÑĥÐ±Ð¸Ð¹": 7099,
      "ĠÐ¿ÑĢÐ¸ÐµÐ¼Ð»Ñİ": 7100,
      "ĠÐºÐ¾Ð¶Ð´Ð¾": 7101,
      "Ñ£ÑħÐ°Ð»Ð¸": 7102,
      "ĠÐ½Ð°ÑģÐ»Ð°": 7103,
      "Ð¾Ð¼Ðµ": 7104,
      "ĠÐ¿Ð¾Ñ§": 7105,
      "ÑĪÐ¸Ð¼Ð¸": 7106,
      "Ð´Ð¾ÑģÑĤÐ¸": 7107,
      "ĠÐ¸ÑģÑĨÐ¾Ð²": 7108,
      "ĠÐ½Ð°ÑĪÐ¾Ð³Ð¾": 7109,
      "ĠÐ·ÐµÐ¼Ð»ÑıÑħ": 7110,
      "ĠÑĥÐºÐ»Ð¾Ð½": 7111,
      "ĠÑĪÐ°Ð³Ð¾Ð²ÑĬ": 7112,
      "ĠÐ¸Ð½Ð¸": 7113,
      "ÑħÐ¶Ðµ": 7114,
      "ĠÐ´Ð°Ð¶ÑĮ": 7115,
      "ĠÑĢÐ°Ð´ÑĬ": 7116,
      "ĠÐ¿Ð¾Ð»ÐµÐ·": 7117,
      "ÑĩÐ°Ð´": 7118,
      "ĠÐ²Ð¾Ð·Ð²Ñ£": 7119,
      "ĠÐ²ÐµÐ»Ð¸ÐºÑĭÐ¸": 7120,
      "ĠÐ¼Ð¸Ð»Ð¾ÑģÑĤÑĭÐ½Ñİ": 7121,
      "ĠÐ¶Ð¸Ð²Ð¾Ð½Ð°": 7122,
      "ĠÐ´ÑĢêĻĭÐ³": 7123,
      "ĠÑģÑĬÐºÑĢÑĭ": 7124,
      "ĠÐ±ÐµÑģÑ£Ð´Ñĥ": 7125,
      "ĠÐłÐ°êĻģ": 7126,
      "Ð²Ð¾Ð²Ð°": 7127,
      "ĠÑģÐ¾Ð´ÐµÑĢ": 7128,
      "ÐºÐ¾Ð»": 7129,
      "ĠÐ¾ÑĤÑĢÐ¾": 7130,
      "ĠÑĨÐµ": 7131,
      "êĻ¿Ð½Ð¾": 7132,
      "ĠÐ²ÑĢÐµÐ¼Ðµ": 7133,
      "ĠÐ½Ð°ÑĪÐµÐ¸": 7134,
      "ĠÐ¿ÐµÑĢÐµÑı": 7135,
      "ĠÐ³Ð¾Ñĩ": 7136,
      "ĠÐ¿ÐµÑĢÐ²Ð¾Ð¹": 7137,
      "ÑĮÐ½Ð°": 7138,
      "ĠÐ±ÑıÑħÑĥ": 7139,
      "Ð»Ð¸ÑĤÑĮ": 7140,
      "Ð¾ÑģÐ»Ð¾Ð²": 7141,
      "ĠÑħÐ²Ð¾": 7142,
      "êĻģÐµ": 7143,
      "ĠÑĨÑĢÑĤ": 7144,
      "Ð³Ð¾Ð²Ð°ÑĢÐ¸": 7145,
      "ÑĤÑĢÑĬ": 7146,
      "ÑĩÐ¸ÑĤÑĬ": 7147,
      "ÑĨÐºÐ¾Ð¸": 7148,
      "ĠÐµÑĦ": 7149,
      "ĠÐ¼Ð¸ÑĢÑĥ": 7150,
      "Ð²ÐµÑĢÐ¸": 7151,
      "ĠÐ¿Ð¸ÑģÐ°Ð»ÑĬ": 7152,
      "ĠÐºÑĢÐ°Ð»ÑĮ": 7153,
      "ĠÐ¿Ð¸Ð²Ð°": 7154,
      "ĠÐ¼Ð¾ÑĢÑı": 7155,
      "ÑİÑīÑĥ": 7156,
      "ĠÐºÐ½Ð·ÑĮ": 7157,
      "Ġ50": 7158,
      "ÑģÑĤÑ«Ð¿": 7159,
      "Ð²Ð°ÑİÑĤÑĬ": 7160,
      "ĠÐ¾ÑĤÐ²": 7161,
      "ĠÐ²ÑĭÐºÑĥÐ¿": 7162,
      "âĢĻ": 7163,
      "ĠÐ²ÑģÑ§ÐºÑ¹Ñİ": 7164,
      "ĠÑģÑ£Ð¼Ñ§": 7165,
      "ÑĢÑĤÐ¸": 7166,
      "ĠÑģÐ¾ÑĢÐ¾": 7167,
      "Ð½ÑĭÑ«": 7168,
      "ÑĪÐ°Ð¸": 7169,
      "ĠÐ¡Ð»Ð¾Ð²Ð¾": 7170,
      "ĠÐľÐ°ÑĤ": 7171,
      "ĠÐľÐ°ÑĢÐ¸": 7172,
      "ĠÑģÐ¿Ð¾Ð»": 7173,
      "Ġ16": 7174,
      "ĠÐ¿Ð¾ÑģÑĤÐ°Ð²Ð¸ÑĪÐ°": 7175,
      "ĠÐĨÑģ": 7176,
      "ĠÐ§ÑıÐ´Ð¾": 7177,
      "ĠÐ²Ð½Ñ£": 7178,
      "ĠÐ²ÑĢÑĬ": 7179,
      "Ð½ÑĭÐ¸Ð¼ÑĮ": 7180,
      "ĠÐ·Ð°Ñī": 7181,
      "ĠÐ¿Ð¾Ð»Ð°Ð³Ð°": 7182,
      "ĠÐ²ÑģÑıÐºÐ¾Ð¹": 7183,
      "ĠÐ¿Ð¾Ð³Ñ¹Ð±": 7184,
      "ĠÐ¼Ð¾Ð³ÑĬ": 7185,
      "ĠÐ´ÑĸÐ°Ð²": 7186,
      "ÑİÑĪÑĤÐ°Ð°Ð³Ð¾": 7187,
      "Ð¾Ð±Ð¾ÑĢ": 7188,
      "ÑĩÐ¸Ð¼ÑĬ": 7189,
      "ĠÐ¿Ð°Ð»Ð¸": 7190,
      "ĠÐ¿ÐµÑĩÐ°ÑĤÐ¸": 7191,
      "Ð·Ð°Ð½Ð¾": 7192,
      "ĠÐ¿Ð¾Ð½Ð¾": 7193,
      "ĠÑĤÑ§Ð¶": 7194,
      "Ð´êĻĭÑĤÑĬ": 7195,
      "ĠÐµÐ´Ð²Ð°": 7196,
      "ĠÑĨÐ°ÑĢÐ¸ÑĨÑĭ": 7197,
      "ĠÑħÐ¾ÑĩÐµÑĪÑĮ": 7198,
      "ĠÑĢÐ°Ð´Ð¾Ð²Ð°ÑĤÐ¸ÑģÑı": 7199,
      "ĠÐ´Ð²Ð¾Ñİ": 7200,
      "ĠÐ·Ð¾Ð²Ñĥ": 7201,
      "Ð¶Ð¸ÑĤ": 7202,
      "ĠÐ¾ÑĤÐ²Ñ£": 7203,
      "ĠÑĢÐ°ÑģÐº": 7204,
      "êĻģÐ¾Ñĥ": 7205,
      "ĠÑģÐ²Ð¾ÐµÑ§": 7206,
      "ĠÐ´Ñ£Ð»Ð°ÑĤÑĮ": 7207,
      "ĠÑģÐ»ÑĭÑĪÐ°Ð²ÑĪÐµ": 7208,
      "ĠÐ´Ð¾ÑģÑĤÐ¾Ð¸ÑĤÑĮ": 7209,
      "ĠÐ·Ð°ÑħÐ°ÑĢ": 7210,
      "Ð²Ð¾Ð´Ð°": 7211,
      "ĠÐ¡Ð¸Ñı": 7212,
      "ĠÐ¼Ð¾ÑģÑĤÑĬ": 7213,
      "Ð²Ð¸Ðµ": 7214,
      "ÑĩÐ°ÑħÑĬ": 7215,
      "ĠÐ¢Ð¸": 7216,
      "ĠÐ³ÑĢÐ¸ÑĪÐºÐ°": 7217,
      "ĠÑģÑĤÑĢÐ°Ð´": 7218,
      "ĠÐ¿Ð»Ð°Ñĩ": 7219,
      "ĠÐ±Ð¾ÑıÑĢÐ¾Ð¼": 7220,
      "ĠÐ³ÑĢÐ¸Ð²Ð½Ð¸": 7221,
      "ĠÐ±Ð»Ð¸Ð·ÑĬ": 7222,
      "ĠÐ²ÑĮÑģÑıÐºÐ¾Ð¼Ñĥ": 7223,
      "ĠÐºÐ½ÑıÐ³Ð¸Ð½Ðµ": 7224,
      "ĠÐ»ÑĥÑĩÑĪÐµ": 7225,
      "ĠÐ¡Ð¾Ð·Ð¾Ð¼": 7226,
      "ĠÑģÑĤÐµÑĢ": 7227,
      "ĠÐ¾ÑĤÑĩÐµ": 7228,
      "ĠÑıÐ¼": 7229,
      "ĠÐ¾ÑĥÐ·": 7230,
      "ĠÐ¸ÑģÐ°Ðº": 7231,
      "Ð´ÑĭÐ¹": 7232,
      "ÐµÐ½ÐµÑĢÐ°": 7233,
      "ĠÐĳÐ¾Ð¶Ð¸Ð¸": 7234,
      "ĠÏ": 7235,
      "ĠÐ¸Ð±Ð¾": 7236,
      "ĠÐ½Ð¾Ñĥ": 7237,
      "ĠÐºÐ½Ñ£": 7238,
      "ĠÐ¾Ð»ÑĮ": 7239,
      "Ð¸ÑĤÑ£": 7240,
      "Ð¼Ð¸ÑĢÐ¸": 7241,
      "ĠÐ²ÑģÑ§ÐºÐ°": 7242,
      "ĠÐ¿Ð¾ÑĩÐµÐ»ÑĬ": 7243,
      "Ð³ÑĢÐ°Ð´Ð°": 7244,
      "ĠÐ½Ð¸ÐºÐ°ÐºÐ¾": 7245,
      "ĠÐ¿ÑĢÐ¸Ð²ÐµÐ´Ð¾ÑĪÐ°": 7246,
      "ĠÐ±Ñ«Ð´ÐµÑĤÑĬ": 7247,
      "ĠÑĢÑĮÑĨÐ¸": 7248,
      "Ð¾ÑģÐ»Ð°Ð²Ð°": 7249,
      "ĠÐ¾ÑĥÐ²Ñ£": 7250,
      "Ð²ÑĬÐ·": 7251,
      "ĠÐ²Ð¾Ð·Ð»ÑİÐ±Ð¸": 7252,
      "ĠÐ°Ð»ÐµÑ¯Ð°Ð½Ð´": 7253,
      "ĠÐļÐ¾ÑĤÐ¾ÑĢ": 7254,
      "ĠÐ¿Ð°Ð»": 7255,
      "ĠÐ½Ð°Ð´Ð¾": 7256,
      "êĻģÐ½Ð¸": 7257,
      "ĠÑıÑģ": 7258,
      "ĠÐ¶Ñ§": 7259,
      "ĠÑĤÐ¾ÑĢÐ³Ñ¹": 7260,
      "ĠÐ¿Ð¾ÑĤÑĢÐµÐ±Ñĥ": 7261,
      "ĠÐ½Ð°ÑģÐ»Ñ£Ð´": 7262,
      "ĠÐĿÑ£ÑģÑĤÑĮ": 7263,
      "ĠÐ½ÐµÐµ": 7264,
      "ĠÐ°Ð´": 7265,
      "Ð»Ñ£Ð½ÑĮ": 7266,
      "ĠÑģÐµÐ¼Ð¾Ñĥ": 7267,
      "ĠÐ´ÑĢÐ°Ð³Ð¸": 7268,
      "ĠÐ¿ÑĢÐ¿Ð´Ð±": 7269,
      "ĠÑħÐ¾ÑĩÐµÑĪÐ¸": 7270,
      "ĠÐ¼ÐµÑģÑıÑĨÐ°": 7271,
      "ĠÑģÐµÑģÑĤÑĢÐ°Ð¼Ð¸": 7272,
      "ÑĪÐµÑĤ": 7273,
      "Ð±ÑĢ": 7274,
      "ĠÐµÑģÑĤÐ²Ñĭ": 7275,
      "ĠÐ¡Ðº": 7276,
      "ĠÐ¿Ð¾Ð´Ð¸": 7277,
      "ĠÐ¼Ð°Ð»Ð¾Ðµ": 7278,
      "ĠÐ¼Ð¸Ð»Ð¾ÑģÑĤÑĭÐ½Ð¸": 7279,
      "ĠÐ¿ÑĢÐ¾ÑģÐ²Ñ£": 7280,
      "ĠÑĩÐµÐ»Ð¾Ð²ÐµÐºÐ¾Ð¼": 7281,
      "ĠÐ´ÐµÑĤÐ¼Ð¸": 7282,
      "Ð»Ð¾Ð¶Ð¸ÑĤÐ¸": 7283,
      "ĠÐ²Ð¼Ñ£ÑģÑĤÑ£": 7284,
      "ĠÐ´ÑĢÑĥÐ¶Ð¸Ð½Ð¾Ñİ": 7285,
      "ĠÐ·Ð¾Ð»Ð¾ÑĤÑĭÑħÑĬ": 7286,
      "ÑıÐ½ÑĮ": 7287,
      "êĻĥ": 7288,
      "ĠÐĲÐ½Ð°": 7289,
      "ĠÐĴÐ°ÑĢ": 7290,
      "ĠÑģÑĤÐ¾Ð»Ñ£": 7291,
      "ĠÐ±Ð»Ð°Ð³Ð¾ÑģÐ»Ð¾Ð²Ð¸": 7292,
      "ĠÐ´Ð°Ð²ÑĸÐ´ÑĬ": 7293,
      "ĠÒĩ": 7294,
      "Ð¾ÑĤÐ¸": 7295,
      "ĠÑģÐ°Ð½": 7296,
      "ĠÐ°Ð·ÑĮ": 7297,
      "ĠÑ¡Ð½Ð°": 7298,
      "Ñ«ÑīÐ°": 7299,
      "ĠÐ¿ÑĢÐ¾ÑģÑĤÐ¾": 7300,
      "ĠÑĤÐ°Ð¸": 7301,
      "ĠÐ´ÑĢÑĥÐ¶Ð¸Ð½Ð°": 7302,
      "ĠÈ¥": 7303,
      "ÐºÑĢÑ£Ð¿": 7304,
      "ĠÐ¼Ð°Ð½": 7305,
      "ÑĩÐ½Ð°Ð³Ð¾": 7306,
      "ÐµÐ½ÐµÐ¹": 7307,
      "ĠÐ²ÑĬÐ¿ÑĢÐ°": 7308,
      "ĠÑ¹Ð¶Ðµ": 7309,
      "ÑĥÐ¿Ð°": 7310,
      "ĠÐ½Ð°ÐºÐ°Ð·Ñ¹": 7311,
      "ĠÐ³Ð½Ñ£Ð·": 7312,
      "Ð¿ÑĢÐ°ÑĪÐ¸": 7313,
      "ĠÐ¿ÑĢÐ¾Ð¿Ð¾Ð²Ñ£": 7314,
      "ĠÐ¾ÑĢÑĥÐ¶ÐµÐ¹": 7315,
      "ĠÐ¿Ð¾Ð³ÑĭÐ±": 7316,
      "Ð½ÐµÐ½Ð°Ð²Ð¸Ð´Ñ£": 7317,
      "ÑģÐ¾Ð²": 7318,
      "ÑĢÐ°Ð¼ÑĬ": 7319,
      "ĠÐ¿Ð¾Ð¾Ñĥ": 7320,
      "ÐºÐ°Ð½": 7321,
      "ĠÐ´Ñ£Ð¸": 7322,
      "ĠÐºÐ¾ÑĤÐ¾ÑĢÐ¾Ð¼ÑĬ": 7323,
      "ĠÐ²ÑĬÐ·Ð»ÑİÐ±Ð¸": 7324,
      "Ð»ÑĭÑħ": 7325,
      "ĠÑģÑĤÐ°ÑĪÐ°": 7326,
      "ĠÐ¾Ð½Ð¾Ð¼Ñĥ": 7327,
      "ĠÐ¿Ð¾Ð¶ÑĮ": 7328,
      "ĠÐ²Ð¾Ð·Ð¼Ð¾Ð¶Ðµ": 7329,
      "ĠÐŁÐ¾ÑģÐ»Ð°": 7330,
      "ĠÐ·Ð°Ð¿Ð¾Ð²Ñ£Ð´ÑĮ": 7331,
      "ĠÐ¼ÑĮÑģÑĤÐ¸ÑģÐ»Ð°Ð²": 7332,
      "ÑħÐ¾Ð¶": 7333,
      "ĠÐ½ÐµÐ²Ðµ": 7334,
      "ĠÑĩÐ¸Ð¼ÑĬ": 7335,
      "ĠÐ»ÐµÑĤÐ¾": 7336,
      "ÑĤÐ¾ÑĪÐ°": 7337,
      "ĠêĻĹÐ·ÑĬ": 7338,
      "ĠÐ½ÐµÐ¼Ñ¹": 7339,
      "ÑģÑĭÐ»Ð°": 7340,
      "ĠÑĤÑĢÐµÑħÑĬ": 7341,
      "ÑīÑĭ": 7342,
      "ĠÐ´Ð°ÐµÑĤÑĬ": 7343,
      "ÑĢÐµÑĩÑĮ": 7344,
      "ĠÐ¼Ð¾êĻĹ": 7345,
      "ÑĸÐ¸ÑħÑĬ": 7346,
      "ĠÐ²ÑģÑ£Ð²Ð¾Ð»": 7347,
      "ĠÐ¿Ð¸ÑģÐ°Ð½Ð½Ð¾Ðµ": 7348,
      "ĠÑģÑĬÐ¼ÑĮÑĢÑĤÑĮ": 7349,
      "ĠÐ¼ÐµÐ´ÑĬ": 7350,
      "ÑīÐµÑĤÑĬ": 7351,
      "ĠÐ¾ÑĤÐµÑĨ": 7352,
      "ĠÐ´Ð¾Ð¸Ð´Ðµ": 7353,
      "ĠÐ±ÐµÐ·Ð±Ð¾Ð¶": 7354,
      "Ð½ÑĭÐ¸Ð¼Ð¸": 7355,
      "ĠÐ¿ÑĢÐ¸ÑģÑĤÐ°Ð²Ñĥ": 7356,
      "ĠÐ¸ÑīÐµ": 7357,
      "Ð´ÑĢÑĮ": 7358,
      "ĠÐ¾Ð»ÐµÐºÑģÐ°Ð½Ð´": 7359,
      "Ð½Ð¸ÑĤÐµ": 7360,
      "ÑģÐºÑ«": 7361,
      "ĠÑĢÐµÐºÐ°": 7362,
      "ÑĤÐµÑĨÑĬ": 7363,
      "ÑģÐ»Ð¾Ð²Ð¸": 7364,
      "ĠÐ´Ð¾ÑĢÐ¾Ð³Ð¸": 7365,
      "ĠÐ¶Ð°Ð»Ð¾Ð²Ð°Ð½ÑĮÐµ": 7366,
      "ĠÐ±Ð°Ð³Ð°ÑĤÑĭ": 7367,
      "ÑĩÐ°Ð¸": 7368,
      "ĠÑ³ÐµÐ¾Ð´": 7369,
      "ĠÑĢÑ£ÐºÐ°": 7370,
      "ĠÐ¼Ð°Ð»ÑĭÑı": 7371,
      "ĠÐ½ÐµÐ¿ÑĢÑ£": 7372,
      "ĠÑĤÑĢÐµÐ¿": 7373,
      "ĠÐ¢Ñ£Ð¼": 7374,
      "ĠÑģÑĤÐ°ÑĢÐ¾ÑģÑĤÐ¸ÑĪÐºÐ°": 7375,
      "ĠÐ³ÑĢÐ¾Ð±Ð°": 7376,
      "ĠÑĩÐµÐ»Ð¾Ð±Ð¸ÑĤÑĩÐ¸ÐºÐ¾Ð¼": 7377,
      "ÑīÑĸ": 7378,
      "Ð´Ð¸Ð²": 7379,
      "ÑĩÐ¸Ð²ÑĬ": 7380,
      "ĠÐĿÑĭÐ½Ðµ": 7381,
      "ĠÐ¸Ð·Ð¼ÐµÐ½": 7382,
      "Ð³Ð°Ð¼ÑĬ": 7383,
      "ĠêĻĭÐ¼": 7384,
      "ĠÑĢÑ£ÐºÑĭ": 7385,
      "ĠÐ±ÑĢÐ°ÑĤÐ¾Ð¼": 7386,
      "ĠÐ¼Ð¾ÑģÐºÐ²Ñĭ": 7387,
      "ĠÑģÐºÐ°Ð·ÑĭÐ²Ð°": 7388,
      "Ð³ÑĢÐ°Ð´ÑĬ": 7389,
      "ĠÐ¿Ð¾ÑĢÑĥÐºÑĥ": 7390,
      "ÐµÐ»ÑİÐ±": 7391,
      "Ð½Ð¸Ð¹": 7392,
      "ĠÐ¾Ð±ÐµÑģ": 7393,
      "ĠÑģÑĭÐ½Ñĭ": 7394,
      "ĠÐ²Ð»Ð°Ð´Ðµ": 7395,
      "ĠÐ¶ÐµÐ½Ð°Ð¼Ð¸": 7396,
      "ĠÐ²Ð¾Ð¸ÑģÐºÐ°": 7397,
      "ÑĨÐºÐ¸Ð¸": 7398,
      "ĠÐĴÑĮÑģÐµ": 7399,
      "ÐµÐ½Ñı": 7400,
      "êĻĳÑĪ": 7401,
      "ĠÐ¿ÑĢÐµÑģÑĤÐ°": 7402,
      "Ð¿Ð¸Ñı": 7403,
      "ĠÐ³Ð»ÐµÑĤÑĮ": 7404,
      "ĠÐ±ÑĭÐ²Ð°Ð»Ð¾": 7405,
      "Ð¿Ñ£ÑĤÐ¸": 7406,
      "ĠÐ½ÑĶ": 7407,
      "ĠÐºÑĢÐ¾": 7408,
      "ĠÐ³ÐµÐ½ÐµÑĢÐ°": 7409,
      "Ð»ÑĮÑİ": 7410,
      "ĠÐ¼Ð¾Ð»ÐµÐ±": 7411,
      "ĠÐ²Ð¾Ð´Ñ£": 7412,
      "ĠÑĢÐ°Ð·ÑĥÐ¼Ð°": 7413,
      "ĠÐ½Ð°Ð´Ð¾Ð±Ñ£": 7414,
      "ĠÐ±ÐµÑģÑĩÐµÑģÑĤÑĮÐµ": 7415,
      "ĠÐ´ÑıÐ´": 7416,
      "ÑģÑĤÐ¾Ð¼": 7417,
      "Ð¾Ð±Ð¾": 7418,
      "ĠÐĲÐºÐ¸": 7419,
      "Ð½ÑĥÑĤÐ¸": 7420,
      "Ñ¥Ð²Ð¸": 7421,
      "ĠÑĤÐ°ÐºÐ¸Ñı": 7422,
      "ĠÐ´ÐµÑĢÐµÐ²Ð½ÑıÐ¼": 7423,
      "ĠÐ±Ð»Ð¸Ð·ÐºÐ¾": 7424,
      "ĠÑģÐµÐ»Ð¸ÑĤÑĢÑĥ": 7425,
      "ÑĪÑĸ": 7426,
      "ĠÐ¿ÑĢÐµÑģÐ»Ð°Ð²": 7427,
      "ĠÑģÐ¾ÑĦ": 7428,
      "ĠÐ±Ñ£ÑĪÐ°": 7429,
      "ĠÑĦÐ¸": 7430,
      "ĠÑģÑĤÑĢÐ°ÑħÐ¾Ð¼ÑĬ": 7431,
      "ĠÐ¸Ð¼Ñ£Ð¹": 7432,
      "ĠÐ²Ð¾ÑĤÑĩÐ¸Ð½Ðµ": 7433,
      "ĠÐ¼Ð°ÑĤÐµÑĢÐµ": 7434,
      "ĠÐ¼ÐµÑĢÑĤ": 7435,
      "ÑĪÐ¼Ð¸": 7436,
      "ÑĪâ±ķ": 7437,
      "ĠÐ±ÑĭÐ²ÑĪ": 7438,
      "ĠÐŁÐ°ÐºÐ¸": 7439,
      "ĠÑĤÐ²Ð¾ÐµÑ§": 7440,
      "ĠÐ²Ð¸Ð´Ñ£Ð²ÑĪÐµ": 7441,
      "ĠÑĩÐ°ÑģÐ°": 7442,
      "Ð°ÑīÐµ": 7443,
      "ĠÐ½Ð°ÑģÑĤÐ¾": 7444,
      "ĠÐ°êĻģÑĬ": 7445,
      "ĠÐ·Ð°ÐµÐ¼": 7446,
      "Ð°Ð²Ñĭ": 7447,
      "Ð¾Ð¶ÐµÐ½": 7448,
      "Ñ¥Ð¼": 7449,
      "ĠÐ¿Ð¾Ð¼Ð°Ð³Ð°": 7450,
      "ĠÐ¼Ð¸ÐºÐ¸": 7451,
      "ĠÑĦÐµ": 7452,
      "ĠÐķÐ¼Ñĥ": 7453,
      "ĠÑģÑĥÐº": 7454,
      "ĠÐ¶Ð¸ÑĤÑĸÐµ": 7455,
      "ÑĪÐµÐ´ÑĪÐµ": 7456,
      "ÑħÐ¾Ð²ÑĬ": 7457,
      "ĠÑĩÑĥÐ´": 7458,
      "Ð¶Ñĭ": 7459,
      "ÑģÐºÐ²ÐµÑĢ": 7460,
      "ĠÑĥÐ¼ÑĭÑĪ": 7461,
      "ĠÐ¶ÑĢÐµ": 7462,
      "ĠÐ³Ð¾ÑģÑĥÐ´Ð°ÑĢÑĭÐ½Ðµ": 7463,
      "ĠÐļÐ°Ð·": 7464,
      "ĠÐ¿ÐµÑĢÐ²Ð¾": 7465,
      "ĠÐ±Ð¾ÑĢÑĤ": 7466,
      "ĠÐ¿ÐµÑĢÐµÐ¿Ð¸Ñģ": 7467,
      "ĠÐ½Ð°ÑĩÐ°Ð»": 7468,
      "ĠÐ³ÑĢÑ£ÑħÐ¾Ð²ÑĬ": 7469,
      "ĠÐ½ÐµÐ¼Ð¾Ñī": 7470,
      "ĠÑģÐµÑĢÐµÐ´ÐºÑĥ": 7471,
      "ĠÑĤÑĢÐµÐ±Ñĥ": 7472,
      "ĠÑĤÐ¾Ð²Ð°ÑĢÐ¸ÑīÐ¸": 7473,
      "ĠÐ²ÑĭÐºÑĥÐ¿Ð°": 7474,
      "Ð½ÐµÐ½ÑĬ": 7475,
      "ÐµÐ¼Ñı": 7476,
      "ÐµÐ½ÑĹÐµ": 7477,
      "Ð¶Ð°Ð½ÑĸÐµ": 7478,
      "ÑģÐºÑĮ": 7479,
      "ĠÐ²ÑĬÐ´": 7480,
      "ÑĢÐµÐº": 7481,
      "ĠÐĳÐ»Ð°Ð³": 7482,
      "Ð´ÑĮÑĢ": 7483,
      "ĠÐ½Ð¸ÐºÐ¾Ð»Ñĭ": 7484,
      "ĠÑħÐ¾Ð´Ñı": 7485,
      "ĠÐ³ÑĢÐ¸Ð²ÐµÐ½Ðµ": 7486,
      "ĠÐ°Ð½Ð´ÑĢÑİ": 7487,
      "ĠÐ½Ð¸ÐºÐ°ÐºÐ¾Ð²Ð°": 7488,
      "ĠÐ±Ð¾Ð³Ð¾Ñĥ": 7489,
      "ĠÐ³ÑİÑĢÑĮ": 7490,
      "ĠÐ½Ð°Ð·ÑĭÐ²Ð°ÑİÑĤ": 7491,
      "Ð¸ÑĤÐµÑģÑ§": 7492,
      "ĠÐ²ÑĭÐ´Ð°": 7493,
      "ĠÐ²Ð»Ð°Ð´Ñ£": 7494,
      "Ġ18": 7495,
      "ĠÐ·Ð½Ð°ÑĤÐ¸": 7496,
      "Ġ71": 7497,
      "ĠÐ¿ÑĢÐµÐºÑĢÐ°ÑģÐ½Ð¾Ð¹": 7498,
      "ĠÐºÐ¾ÑĢÐ¾Ð»ÐµÐ²Ð½Ð°": 7499,
      "ĠÐ¸Ð½ÑĭÑı": 7500,
      "Ð·Ð´": 7501,
      "ĠÐ½Ð°ÑĩÐ¸Ð½Ð°": 7502,
      "ĠÐ°Ð»ÑĮ": 7503,
      "ĠÑĨÐ°ÑĢÑģÑĤÐ²Ñĥ": 7504,
      "ĠÐ»Ð¸ÑĪÐ¸": 7505,
      "ĠÐºÐ°Ð·Ð½Ð¸": 7506,
      "ĠÐºÐ½Ñ§Ð¶Ðµ": 7507,
      "ĠÐ´ÑĮÑıÐºÑĥ": 7508,
      "ĠÐ½Ð¸ÑĩÑĤÐ¾": 7509,
      "ÐºÐ°Ð²": 7510,
      "ĠÐ¢ÐµÐ»": 7511,
      "ĠÐ·Ð´ÑĢÐ°Ð²ÑģÑĤÐ²Ñĥ": 7512,
      "ĠÐºÑ¡Ð½": 7513,
      "ÑĢÐµÑĤÑĬ": 7514,
      "ÑģÑģ": 7515,
      "Ð³Ð°Ð½": 7516,
      "ĠÐ¿Ð¾ÐµÐ´": 7517,
      "ĠÐ¸ÑģÑĤÐ°ÑĢÐ¸": 7518,
      "ĠÐ²Ð°ÑģÐ¸Ð»ÑĮÐµÐ²Ð¸ÑĩÑİ": 7519,
      "Ð³ÑĢÐ°Ð´": 7520,
      "Ð´ÐµÐ»": 7521,
      "ĠÐ´Ð²Ð¾Ðµ": 7522,
      "ĠÑĢÐ°Ð½": 7523,
      "ÐµÑĤÑĥ": 7524,
      "ÑĸÑĶ": 7525,
      "ĠÑģÐ²Ð¾Ñ«": 7526,
      "ĠÐ¿ÑĢÐµÑģÑĤÑĥÐ¿": 7527,
      "ĠêĻĬ": 7528,
      "ĠÑģÐµÑĢÑĮ": 7529,
      "ĠÐ¿ÑĢÐ¾ÑģÐ¸ÑĤÑĮ": 7530,
      "ĠÐ¾ÑģÐ¿Ð¾Ð´": 7531,
      "ĠÐ´Ð¾Ð±ÑĢÐ¾Ð³Ð¾": 7532,
      "ĠÐ²Ð¾Ð¸Ð½ÑģÐºÐ¸Ð¼ÑĬ": 7533,
      "ĠÐ¤ÐµÐ´Ð¾ÑĢ": 7534,
      "ĠÐ¼Ð¾Ð»Ð¾Ð´ÐµÑĨÑĬ": 7535,
      "ĠÐ¢ÑĥÐ³Ð°ÑĢ": 7536,
      "ĠÐ³ÐµÐ½Ð²Ð°ÑĢÑı": 7537,
      "ĠÑĩÑĥ": 7538,
      "Ð¶Ð½Ñĭ": 7539,
      "ÑģÐºÑĸÑı": 7540,
      "ĠÑ¡ÑĨÐ°": 7541,
      "Ñ¡Ð´": 7542,
      "ĠÐºÐ¾ÑĤÐ¾ÑĢÐ¾Ð¼": 7543,
      "ĠÐ²ÐµÐ»Ð¸ÐºÑĸÐ¸": 7544,
      "ĠÐºÑĢÐ¾ÑĤÑĬ": 7545,
      "ĠÑĤÐ²Ð¾ÐµÑİ": 7546,
      "ĠÑģÑĤÐ¾Ñ§": 7547,
      "ĠÑģÑĤÐ¾Ð¸ÑĤÑĮ": 7548,
      "ĠÐ²Ð¸Ð´Ñ£ÑħÑĬ": 7549,
      "ĠÐ±Ð¾ÑĢÐ¸": 7550,
      "ĠÑģÐ»Ñ¹Ð³ÑĬ": 7551,
      "ĠÑģÐ¼Ð¸ÑĢ": 7552,
      "ĠÑħÐ»ÐµÐ±Ð°": 7553,
      "ĠÐ¼ÑĢÑĬ": 7554,
      "ĠÐ³êĻĭ": 7555,
      "Ñ¡ÑģÐ¸": 7556,
      "ÑĪÐµÐ³Ð¾": 7557,
      "ĠÐ²ÑĭÑģÑĤÑĢÑ£": 7558,
      "ĠÐ¿ÑĢÑ£Ð¶Ðµ": 7559,
      "ĠÐ»ÑİÐ´ÐµÑħÑĬ": 7560,
      "ĠÐºÑĢÐµÑģÑĤÐ°": 7561,
      "ĠÐ¼Ð°Ð³": 7562,
      "ĠÑģÐµÑĢÐ´Ðµ": 7563,
      "Ð³Ð¾ÑĢÐ¾Ð´Ðµ": 7564,
      "ĠÑħÐ¾Ð»Ð¾Ð¿ÐµÐ¹": 7565,
      "ĠÐ¿Ð¾ÑģÐ»Ñ£Ð´Ð¸": 7566,
      "ĠÑģÐ¼Ð¸ÑĢÐµÐ½": 7567,
      "Ð´ÐµÑģÑ§ÑĤÑĬ": 7568,
      "ĠÐ¾ÑĢÑĥÐ¶Ð¸": 7569,
      "Ð´ÑĢÐ°Ð²": 7570,
      "ĠÐºÐµ": 7571,
      "Ð½Ð¾ÑģÑĤÑĮ": 7572,
      "ĠÑĸÐ·": 7573,
      "ĠÐ¿ÑĥÑģÑĤÑĭÐ½Ð¸": 7574,
      "ĠÐ²ÐµÐ»Ð¸ÐºÐ¸Ðµ": 7575,
      "ĠÐ²ÑĢÐ°Ð³Ð°": 7576,
      "ĠÐ¿ÑĢÐ¸ÑĪÐµÐ»": 7577,
      "ĠÐ¿Ð»Ð¾Ð´ÑĬ": 7578,
      "ĠÐ´Ð¾Ð±ÑĢÐ¾Ðµ": 7579,
      "ĠÐºÐ½Ð·Ñİ": 7580,
      "ĠÑĢÐ°Ð´Ð¾ÑģÑĤÐ¸Ñİ": 7581,
      "ĠÐºÑĢÐµÑģÑĤÑĮÑıÐ½Ð¾Ð¼": 7582,
      "Ð°Ð´Ð¸": 7583,
      "ÑģÑĨÑ£": 7584,
      "ĠÐ¸Ð½ÑĭÐ¼Ð¸": 7585,
      "Ñ§ÑģÑ§": 7586,
      "ĠÑ¡ÑĤÑĬ": 7587,
      "ĠÐ¿Ð¾Ð´ÑĢÐ°": 7588,
      "ĠÐ¼Ð½Ð¾Ð¶Ð°": 7589,
      "ÑīÐ¸Ð¼Ð¸": 7590,
      "ÑģÐºÐ°êĻĹ": 7591,
      "ĠÐ²ÐµÐ»Ð¸ÐºÐ¾Ð¼ÑĬ": 7592,
      "ĠÐ±ÑĭÐ²Ð°ÐµÑĤ": 7593,
      "ĠÐ½ÑĭÐ½ÐµÑĪ": 7594,
      "ĠÑģÑĤÐµÐ¿ÐµÐ½Ð¸": 7595,
      "ĠÐ±Ñ£Ð»ÑĭÑı": 7596,
      "ĠÐ¿Ð¾ÑģÐ»Ñ¹ÑĪÐ°": 7597,
      "ÑĩÐµÑģ": 7598,
      "Ð±Ð¾Ð»": 7599,
      "Ð¿Ð¾ÑģÑĤ": 7600,
      "ĠÐ²Ñ£Ð½ÑĮ": 7601,
      "ĠÐŀÐ¶Ðµ": 7602,
      "ÑĪÑĮÐ´ÑĬ": 7603,
      "ĠÑĤÑĭÑħ": 7604,
      "ĠÐ¿ÑĥÑĪÐºÑĥ": 7605,
      "Ð¼Ð¾ÑĤÑĢÐ¸ÑĤÐ¸": 7606,
      "ĠÐºÐ¾Ð»ÐµÑģ": 7607,
      "ĠÑħÐ»Ñ£Ð±Ñĭ": 7608,
      "ĠÐ¿ÑĥÑĪÐºÑ£": 7609,
      "ĠÑĥÑģÑĤÑĢÐ¾Ð¸ÑĤÑĮ": 7610,
      "ĠÐ¿ÑĢÐµÐ¶Ð½ÐµÐ¼Ñĥ": 7611,
      "ĠÐ±êĻĭÐ´Ð¸": 7612,
      "ĠÑ¡Ð¿Ñ§ÑĤÑĮ": 7613,
      "ĠÐ²ÑĭÐ±Ð¾ÑĢÐ½ÑĭÑı": 7614,
      "Ð°êĻĹ": 7615,
      "ĠÐ¸Ð¾": 7616,
      "ĠÑĤÑĥÑİ": 7617,
      "ÑĢÐ°Ð´Ñĥ": 7618,
      "ÐµÐ´ÑĢ": 7619,
      "ĠÐ²Ñ£Ð½": 7620,
      "ĠÐ³Ð¾ÑģÑĥÐ´Ð°ÑĢÑģÑĤÐ²Ð°": 7621,
      "ÑģÑĤÐ²ÐµÐ½Ñĭ": 7622,
      "ĠÐ¿ÑĢÐ¾ÑģÐ¸ÑĤÐ¸": 7623,
      "ĠÐ½Ð°Ð·Ð°Ð´ÑĬ": 7624,
      "ÑĤÑĸÐµ": 7625,
      "ÑĪÐµÐ½Ñĭ": 7626,
      "Ð±Ñ«": 7627,
      "ĠÐ½Ð°Ð¸Ð¼": 7628,
      "ĠÑħÐ¾Ð´Ð¸ÑĤÑĮ": 7629,
      "ĠÐ·Ð°ÐºÐ¾Ð½Ð°": 7630,
      "ĠÑĢÐ°êĻģÐ¾ÑĥÐ¼Ñ£": 7631,
      "ĠÑĤÐ¸Ð¼Ð¾ÑĦÐµ": 7632,
      "Ñ£Ð¹": 7633,
      "ĠÐ¿Ð¾ÑģÑĤÑĬ": 7634,
      "ĠÐµÐ³Ð¸Ð¿": 7635,
      "ÑīÐµÐ½Ð¾": 7636,
      "Ð²Ð°Ð»Ð°": 7637,
      "êĻģêĻĭ": 7638,
      "Ð»Ñ£Ðµ": 7639,
      "ĠÐ¼Ð¾Ð»Ð²": 7640,
      "Ġ17": 7641,
      "ĠÐºÑĢÐ°ÑģÐ¾ÑĤÑĥ": 7642,
      "ĠÐ²Ð°ÑĢÐ»Ð°": 7643,
      "ĠÐ²ÑĬÐ´Ð°Ð»Ðµ": 7644,
      "ĠÑģÐµÐ»ÑĮÑĨÐ¾": 7645,
      "ĠÑģÑĤÑĢÑĥ": 7646,
      "ĠÐ¿ÑĢÐ¾ÑĩÐ¸Ñħ": 7647,
      "ĠÑĥÐ¼Ð½": 7648,
      "ĠÐ²Ð¾ÑĢÐ¾ÑĤ": 7649,
      "ĠÑħÐ¸ÑĤÑĢÐ¾ÑģÑĤÑĮ": 7650,
      "ĠÑ¡Ð³Ð½ÑĮ": 7651,
      "ÑĮÑĨÐ¸": 7652,
      "ĠÑĩÐ°ÑĢ": 7653,
      "ĠÐºÐ¾ÑģÑĤÐ¸": 7654,
      "ĠÐ²Ð¾Ð»Ð¾Ñģ": 7655,
      "ĠÐ¿ÑĢÑ£ÑģÑĤÐ°Ð²": 7656,
      "ĠÐ¿Ð¾ÑĤÑĢÑ£": 7657,
      "ÑĪÑĤÐµÐ½Ð¸Ðµ": 7658,
      "ĠÐŁÐ¾ÑĩÑĤÐ¾": 7659,
      "ĠÐ·Ð°Ð½ÐµÐ¶Ðµ": 7660,
      "ĠÐ·Ð´Ð¾ÑĢÐ¾Ð²Ðµ": 7661,
      "ĠÐ½Ð¾Ð²ÑĬÐ³Ð¾ÑĢÐ¾Ð´ÑĬ": 7662,
      "ĠÑĥÐ²Ðµ": 7663,
      "ĠÐ½Ð¸ÐºÐ¸ÑĤÐ¸": 7664,
      "ĠÑģÐµÑı": 7665,
      "ĠÐ¸Ð·Ð±Ñĭ": 7666,
      "Ð½ÑĥÑĤÑĮ": 7667,
      "ĠÐ»Ñ£ÑĤÐµ": 7668,
      "ĠÐ·Ð°Ð¿Ð»Ð°": 7669,
      "ĠÐ²ÐµÐ»Ð¸ÐºÑĸÐ¹": 7670,
      "ĠÑģÐµÐ¼Ð¾": 7671,
      "Ð³Ð¾ÑĢÑĮ": 7672,
      "ĠÐ³ÑģÐ´ÑĢÐ¸": 7673,
      "ĠÑģÑĤÐ¾Ð»Ð°": 7674,
      "ĠÑĥÐ·Ð½Ð°": 7675,
      "ĠÐ¿ÑĢÐ¾Ð³Ð½Ñ£": 7676,
      "ĠÐ°Ð¿Ð¾ÑģÑĤÐ¾Ð»ÑĬ": 7677,
      "ĠÐ¶ÐµÐ·Ð»ÑĬ": 7678,
      "ĠÐ½Ð¾ÑıÐ±ÑĢÑı": 7679,
      "ĠÑģÐµÐ»Ñ£": 7680,
      "ĠÐĺÐ±Ð¾": 7681,
      "ĠÐ¸Ð·Ð²": 7682,
      "ĠÐ¼ÐµÐ¶Ñĥ": 7683,
      "ĠÑģÑĥÑħ": 7684,
      "ĠÐ¼êĻĭÐ¶ÑĬ": 7685,
      "ĠÑģÐ²ÐµÑĢÑħÑĬ": 7686,
      "ĠÑģÑĬÐ±Ð»Ð°": 7687,
      "Ð»êĻĳ": 7688,
      "ĠÐ°Ð¶ÑĬ": 7689,
      "ĠÐµÐ²Ð°Ð½Ð³": 7690,
      "Ð´ÑĥÑĤÑĮ": 7691,
      "ĠÐ´Ð²Ð¾ÑĢÐµÑħ": 7692,
      "ĠÑĩÐ°ÑģÑĥ": 7693,
      "ĠÑĥÐºÑĢÑ£Ð¿": 7694,
      "ĠÑĢÑıÐ´Ñĥ": 7695,
      "ĠÐ´ÑīÐµÑĢÑĮ": 7696,
      "ÑģÐ²Ð¾": 7697,
      "ĠÐºÐµÑģ": 7698,
      "ĠÐ·Ð±ÐµÐ¶": 7699,
      "Ð¸Ð½ÑģÐºÐ¾Ð³Ð¾": 7700,
      "ÑģÐµÐ¸": 7701,
      "ĠÐ¿Ð¾ÑģÐ»Ð°Ð½Ð¸Ðµ": 7702,
      "ĠÐ´Ð¾ÑĢÐ¾Ð³Ð°": 7703,
      "ĠÑĤÐ²Ð°ÑĢÑĮ": 7704,
      "ÑģÑĤêĻĭÐ¿Ð¸": 7705,
      "ĠÐ¿ÑĢÐ¸Ð³Ð¾Ð¶Ð°": 7706,
      "ĠÑģÐºÐ²Ð¾Ð·Ñ£": 7707,
      "ĠÐ»ÑİÐ±ÑĬÐ²ÑĮ": 7708,
      "ÑħÐµ": 7709,
      "ÑħÑ£": 7710,
      "ĠÐĺÐ²Ð°": 7711,
      "ĠÐ¿ÑĢÐ¸Ð·ÑĭÐ²Ð°": 7712,
      "ĠÑĢÐ°Ð½Ñĭ": 7713,
      "ĠÐ´Ñ£ÑĤÐµÐ¸": 7714,
      "ĠÐ´Ð¾Ð±ÑĢÐ¾Ð¼": 7715,
      "ĠÑģÐ¾ÑĥÐ´": 7716,
      "ĠÐ²Ð¾Ð»Ñı": 7717,
      "ĠÑĢÑ£ÑĩÑĮ": 7718,
      "ĠÐºÑĢÐ°ÑģÐ½Ð°": 7719,
      "ĠÐ¿Ð¾ÑĢÑĥÑĩ": 7720,
      "ĠÐ¼ÐµÑĢÑĤÐ²Ñĭ": 7721,
      "ĠÐ»Ð¾ÑĪÐ°Ð´ÑĮ": 7722,
      "ÑģÐºêĻĭÑİ": 7723,
      "ĠÐ°Ð¼Ð¸Ð½ÑĮ": 7724,
      "Ð»Ð¾ÑģÑĮ": 7725,
      "ĠÐ¸ÐºÐ¾Ð½": 7726,
      "ÑĥÑģÑĤÐ¸": 7727,
      "ĠÐ½Ð°ÑģÐ°": 7728,
      "ÑĨÐµÐ²": 7729,
      "Ð¹ÑĤÐ°": 7730,
      "ĠÐ¿ÑĢÐ¸ÑģÑĤÐ°Ð½Ð¸": 7731,
      "ĠÐ·Ð°ÑĥÑĤ": 7732,
      "ĠÐ½Ð¸Ð³": 7733,
      "ÑīÐ¸ÐºÐ¾Ð²": 7734,
      "ÑĥÑİÑĤÑģÑı": 7735,
      "ĠÐ½Ñ£ÑĩÑĤÐ¾": 7736,
      "ĠÐ¿Ð¾Ð¶Ð½ÑıÐ¼Ð¸": 7737,
      "ĠÐ¼Ð½Ð¾Ð³Ð¾ÑĨÑ£Ð½": 7738,
      "ĠÐ¿ÑĢÐ¸ÐºÐ°Ð·Ð°Ð½Ð¾": 7739,
      "ĠÑĤÐ°ÑĤÑı": 7740,
      "ĠÑģÑĤÐ°Ð²Ð¸ÑĤÑĮ": 7741,
      "ĠÐ±ÑĢÐ°ÑĤÐ¸Ð¸": 7742,
      "ĠÑĸÑ¡Ð°Ð½": 7743,
      "ĠÐ·Ð²Ñ£ÑĢÐ¸": 7744,
      "ĠÑģÐ²Ñ§ÑīÐµÐ½": 7745,
      "ĠÐ´ÑĥÑħÐ¾Ð²Ð½Ð¾Ð¹": 7746,
      "ĠÐ°ÑĢÑħÐ¸Ð¼Ð°Ð½Ð´ÑĢ": 7747,
      "ĠÐ°Ð¼": 7748,
      "Ð¶ÐµÑİ": 7749,
      "ĠÑħÐ¾Ð¶Ðµ": 7750,
      "ĠÐ¸Ð·Ð³Ð½Ð°": 7751,
      "ĠÐļÐ°Ðº": 7752,
      "ĠÐºÑĢÐ°ÑģÑĮ": 7753,
      "ĠÐ¿ÐµÑĩÐ°ÑĤÑĮ": 7754,
      "ĠÑĤÑĢÐ¸ÑĤ": 7755,
      "ĠÐ½ÑĭÐ½Ñ£ÑĪ": 7756,
      "ĠÐ½Ð°ÑĢÐ¾Ð´Ð°": 7757,
      "Ð²ÐºÑĬ": 7758,
      "Ñ£ÑħÐ°": 7759,
      "ĠÑĤÑĥÑĤ": 7760,
      "Ð»Ð°Ð³Ð¾": 7761,
      "ĠÑĩÑ£Ð¼ÑĬ": 7762,
      "ĠÑħÐ¾Ñĥ": 7763,
      "ÑĩÐ¸ÑģÐ»": 7764,
      "ĠÐ¿Ð¾Ð»Ð¾Ð²Ðµ": 7765,
      "ÑĢÑĬÐ²": 7766,
      "Ð³Ð¾Ð´Ð°ÑĢ": 7767,
      "ĠÑĦÐµÐ´Ð¾ÑĢÐ¾Ð²Ð¸ÑĩÐ°": 7768,
      "ĠÐ¿ÑĢÐ¾Ð´Ð°Ð¶Ñ£": 7769,
      "ĠÐ¿ÑĢÐµÑĩÐ¸ÑģÑĤÐ¾Ð¹": 7770,
      "ĠÐ¼Ð¾Ñ¥Ð³Ð¾": 7771,
      "Ð½Ð¾ÑĢÐ¸": 7772,
      "Ð³Ð½ÑĮ": 7773,
      "ĠÐ½Ð°ÑĩÑĮ": 7774,
      "ĠÐ½Ð°Ð¼Ð°": 7775,
      "ĠÑĥÑĢ": 7776,
      "ÑĩÐ¸Ñı": 7777,
      "Ð¸ÑħêĻ¿": 7778,
      "ĠÐ¿Ð¾Ð¼Ð¸Ð»Ñĥ": 7779,
      "ĠÐ´ÐµÐ»Ñĥ": 7780,
      "ĠÐ½Ð°ÑĩÐ½ÐµÑĤÑĮ": 7781,
      "ĠÐ±Ð¸Ñİ": 7782,
      "Ð¼ÑĢÑĮ": 7783,
      "ĠÐ±Ð°Ñģ": 7784,
      "Ð¾Ð»Ñĥ": 7785,
      "ĠÐ°Ð±": 7786,
      "Ð¶Ð°Ð»ÑĬ": 7787,
      "Ð´Ð°Ð¸": 7788,
      "ĠÐĲÐ²ÑĢÐ°": 7789,
      "ĠÐ¸Ð·Ð±": 7790,
      "ÑĩÐ°ÐµÑĤÑĬ": 7791,
      "ĠÐ²ÑģÐµÑ§": 7792,
      "ĠÑĤÐ°ÐºÐ¾Ð¼Ñĥ": 7793,
      "ĠÑĦÐµÐ²ÑĢÐ°": 7794,
      "ĠÐ¾Ð½Ð´ÑĢÑ£": 7795,
      "ĠÑħÐ¾Ð´Ð¸Ð»ÑĬ": 7796,
      "ÑĪÑĤÐ¸ÑģÑı": 7797,
      "ĠÐ¼Ð¾Ð»Ð¸ÑĤÐ²Ñĭ": 7798,
      "ĠÐ¼Ð¾ÑģÐºÐ¾Ð²ÑģÐºÐ¾Ð³Ð¾": 7799,
      "ÑĪÑĤÑıÑı": 7800,
      "ĠÐļÐ¸ÐµÐ²Ðµ": 7801,
      "ĠÐ¸Ð³ÑĥÐ¼ÐµÐ½ÑĮÐµ": 7802,
      "Ð»Ð°Ð»ÑĬ": 7803,
      "ÑĤÐ¾Ð¸": 7804,
      "ĠÐ²Ð¾Ð»ÐµÑİ": 7805,
      "ĠêĻģÐ°ÐºÐ¾Ð½": 7806,
      "ĠÐķÐ³Ð¸Ð¿": 7807,
      "ĠÐ¸ÑħÐ¶Ðµ": 7808,
      "ĠÑ¡Ð±ÑĢÑ§": 7809,
      "ĠÐĨÐ²Ð°Ð½": 7810,
      "ĠÐ´Ñ£ÑĤÐ¼Ð¸": 7811,
      "ĠÐ¿ÑĢÐ¸ÐºÐ°Ð¶Ð¸": 7812,
      "Ð½Ð¾Ð²ÑĬ": 7813,
      "ÑĤÐ¸Ð½Ñĭ": 7814,
      "Ð»Ð¸Ð¼Ñ£": 7815,
      "Ð°ÐºÐ¾Ð½ÑĮ": 7816,
      "ĠÐ½Ð¸ÐºÐ¾Ðµ": 7817,
      "ĠÑĨÐ²Ñ£ÑĤ": 7818,
      "ĠÑ¿Ð²Ñ£": 7819,
      "Ð°Ð¼Ð¾": 7820,
      "ĠêĻĹÐ²Ñ£": 7821,
      "ĠÑĦÑĢÐ¾Ð»": 7822,
      "ĠÐ½ÐµÐ¿Ð¾Ðº": 7823,
      "ĠÐ´Ð¸êĻĹ": 7824,
      "ĠÑĩÑĮÑģÑĤÐ¸": 7825,
      "ÐµÑĩÐ°ÑĤ": 7826,
      "ÑĪÐ¸Ð»ÑĬ": 7827,
      "Ð¾ÑģÑĥ": 7828,
      "ĠÐ¡ÐºÐ°": 7829,
      "ĠÐºÐ¾ÑĤÐ¾ÑĢÑĭÐ¸": 7830,
      "ĠÐ¿ÑĢÐ°Ð²Ð´Ð¾Ñİ": 7831,
      "ĠÐ¼Ð°ÑģÑĤ": 7832,
      "ĠÑģÐ»Ð°Ð²Ð½Ð°Ð³Ð¾": 7833,
      "ÑģÐºÐ¾Ð¼Ð¾Ñĥ": 7834,
      "ĠÐ¼Ð¸ÑħÐ°Ð¸Ð»Ð¾": 7835,
      "ĠêĻĩÐ»Ð¸": 7836,
      "Ð¾Ð´Ñ£Ð¸": 7837,
      "ĠÐ¼Ð¾Ð¶ÐµÑĪÑĮ": 7838,
      "ĠÐ¼ÑĥÐ´ÑĢÐ¾ÑģÑĤÑĮ": 7839,
      "ÑĤÑĸÐ°": 7840,
      "ĠÐ¿Ð¾ÑīÐ°": 7841,
      "ĠÐ·ÐµÑĢ": 7842,
      "ÑīÐµÐ½Ð°": 7843,
      "ĠÐ»Ñ«": 7844,
      "Ð¸ÑĤÐ¾Ð²": 7845,
      "ÑĩÐ¸ÑģÑı": 7846,
      "ĠêĻģÑ£Ð»Ð¾": 7847,
      "ĠÐ¿ÑĢÑ£Ð»ÑĮ": 7848,
      "ĠÐķÐ²": 7849,
      "ÑĶÐ½ÑĸÑ§": 7850,
      "ĠÐ²Ð°ÑģÑĮ": 7851,
      "ĠÑģÑĤÑĢÐ°Ð½Ñĥ": 7852,
      "ĠÐ¸ÑģÐ¿Ð¾Ð»Ð½Ð¸": 7853,
      "ĠÑĢêĻĭÐºÐ¸": 7854,
      "ÑĢÐºÑĥ": 7855,
      "ĠÐ´Ð¾Ð·": 7856,
      "ÑĨÐµÐ²ÑĬ": 7857,
      "ĠÐ±ÐµÐ³Ð»ÑĭÑħ": 7858,
      "ĠÐ¾ÑģÑĥ": 7859,
      "ĠÐºÐ¾ÑģÑĤÑ§Ð½": 7860,
      "ĠÐ²ÐµÑģÐµÐ»Ð¸Ðµ": 7861,
      "ĠÑ¡ÐºÐ¾Ð»Ð¾": 7862,
      "ĠÑģÐµÑģÑĤÑĢÐ¸": 7863,
      "ĠÐ¿ÑĢÐµÐ»ÑĮ": 7864,
      "ÑīÑ£": 7865,
      "ĠÐĺÐ¼Ñ£": 7866,
      "ÑĢÐµÐ½Ð¸": 7867,
      "ĠÐ¾ÑĥÑĩÐ¸Ð½Ð¸": 7868,
      "ĠÐ¼Ð½ÑģÑĤ": 7869,
      "âĢĲ": 7870,
      "ĠÐµÐ¼Ð»Ð¸": 7871,
      "ĠÑģÐ¿Ð°ÑģÐµÐ½Ð¸Ðµ": 7872,
      "ĠÐŁÐµÑĤÑĢÐ°": 7873,
      "ÐµÑģÐ»Ð°Ð²ÑĮ": 7874,
      "Ġ709": 7875,
      "ĠÐ¢ÑĢÐ¾Ð¸": 7876,
      "ĠÐĲÐ½ÑĤÐ¸Ð¾": 7877,
      "ÑĢÐ³": 7878,
      "ĠÐ¿Ð°Ð½ÑĬ": 7879,
      "ÑĩÐ°ÑĤÑĭ": 7880,
      "ĠÐºÑĢÐ°Ð¹": 7881,
      "ĠÐ»Ð°ÑģÐº": 7882,
      "ĠÐ²ÑĤÐ¾ÑĢÐ¾Ðµ": 7883,
      "ĠÑģÐ»ÑĥÐ¶Ð¸Ð»ÑĭÑħ": 7884,
      "ĠÐ¿Ð¸ÑīÐ°Ð»ÐµÐ¹": 7885,
      "ĠÐ¿ÑĢÐ¸Ð¸Ð¼Ð°": 7886,
      "ĠÑĨÐ¾": 7887,
      "Ð¾ÑĥÐ¼": 7888,
      "ĠÐ¶ÑĶ": 7889,
      "ĠÐ¾Ð±ÑĢÐ¾Ðº": 7890,
      "ĠÐ±Ñ£Ð³Ð°": 7891,
      "Ð½Ñ§ÑĤÐ¸": 7892,
      "ĠÑģÑĤÐ¾Ð¸ÑĤ": 7893,
      "ĠÐ»ÑĥÐºÑĬ": 7894,
      "ĠÑģÑĢÐ°Ð¼": 7895,
      "ÐºÐ¾Ð¶": 7896,
      "ĠÐ½Ð¾Ð²Ðµ": 7897,
      "ĠÐ³Ð°Ð»": 7898,
      "ĠÐµÑģÑĤÐ²Ñ¹": 7899,
      "ÑĩÐµÑģÐºÐ¸": 7900,
      "ĠÐ¿Ð¾Ð»êĻĭ": 7901,
      "ĠÐĳÐ¾ÑĢ": 7902,
      "ĠÑĩÐµÑĤÐ²ÐµÑĢÑĤÑĮ": 7903,
      "ĠÐºÐ¸ÑĢ": 7904,
      "ĠÑĨÑĢÐºÐ²": 7905,
      "ĠêĻĢÐ°": 7906,
      "ĠÑģÑĢÐµÐ±ÑĢÐ¾": 7907,
      "ĠÐ³ÐµÑĢÐ¾Ð½": 7908,
      "ÑĤÑĨ": 7909,
      "ĠÐºÐ´ÑĮ": 7910,
      "Ð´Ð¸Ð²ÑĬ": 7911,
      "ÑģÐºÐ°ÑĤÑĮ": 7912,
      "ĠÑĦÐ°ÑĢ": 7913,
      "ĠÑģÐµÑĢÐ³Ð¸": 7914,
      "ĠÐºÐ°Ð·Ð½ÑĮÑİ": 7915,
      "ĠÐ²ÑĢÐ°Ð³Ð¸": 7916,
      "ĠÐ³ÑĢÐ¸Ð²Ð½Ðµ": 7917,
      "ĠÐºÐ¾ÑĥÐ½Ðµ": 7918,
      "Ð»Ð¾Ð¶Ð¸ÑĤÑĮ": 7919,
      "ĠêĻ©Ð²": 7920,
      "ĠÐ³ÑĢÐ²Ð½Ð°": 7921,
      "ĠÐ½ÐµÐ½Ð°ÐºÐ°Ð·": 7922,
      "ĠÑĩÐµÐ»Ð¾Ð±Ð¸ÑĤÑĮÐµ": 7923,
      "ĠÑıÐºÐ¾Ð²Ð»ÐµÐ²": 7924,
      "ĠÐ±ÑĢÐ°ÑĪÐ½Ð°": 7925,
      "ĠÐ´ÑĮÑģÑ§ÑĤÑĮ": 7926,
      "ĠÐĶÐµÐ²Ð³ÐµÐ½Ð¸Ð¹": 7927,
      "ĠÐ²Ð¸Ð½Ñ£": 7928,
      "ĠÐ²ÑĬÑģÐ¸": 7929,
      "ĠÑģÑĤÐ°Ð»": 7930,
      "ĠÐ³Ð¾ÑģÑĥÐ´Ð°ÑĢÐµÐ²Ð¾": 7931,
      "ĠÐ¿ÑĢÐ°Ð²Ð´Ñ£": 7932,
      "ĠÐ¿ÑĢÐ°Ð²Ð¸ÑĤÑĮ": 7933,
      "ĠÑģÑĥÑīÐ°": 7934,
      "ĠÑģÐ»ÑĭÑĪÐ°Ð²": 7935,
      "ĠÑıÐ²Ð½Ð¾": 7936,
      "ĠÑĢÐµÐºÑĪÐµ": 7937,
      "ĠÐ½Ð°ÑĢÐ¾Ð´": 7938,
      "ĠÐ´ÐµÑĢÐ¶Ð¸ÑĤÑĬ": 7939,
      "ĠÑĦÐ¸Ð»Ð¸Ð¿": 7940,
      "Ð³ÑµÐ¿ÐµÑĤ": 7941,
      "Î·": 7942,
      "ĠÐ¿Ð¾Ð¼Ð°": 7943,
      "ĠÐ±Ñ£Ð´": 7944,
      "ĠÐ¿Ð°Ð½Ð°": 7945,
      "ĠÐ²ÑģÑıÐºÑĬ": 7946,
      "ĠÑģÐ¾Ð±Ð¾Ð»": 7947,
      "ÑİÑĤÑģÑ§": 7948,
      "ĠÑĤÐ¾Ð¼Ð¾": 7949,
      "ĠÐ²Ð¾ÑĢÐ¾ÑĤÐ°": 7950,
      "ĠÐ´Ð°Ð½Ð¸Ð»Ð°": 7951,
      "ĠÑĢÐ¾ÑģÑĤÐ¾Ð²": 7952,
      "ĠÐºÑĢÑĬÐ²ÑĮ": 7953,
      "ĠÐ¸ÑģÑĤÐ¾": 7954,
      "ĠÑĤÐµÑģ": 7955,
      "ĠÐ¿ÑĢÐ¾ÐºÐ¾": 7956,
      "ĠÐµÑģÑĤÐ¸": 7957,
      "ĠÑĥÑĤÐ°": 7958,
      "Ð°Ð²ÑĮ": 7959,
      "ĠÐ¼Ð½Ð¾Ð¶ÑĮÑģÑĤÐ²Ð¾": 7960,
      "ĠÑĤÑıÐ¶Ðµ": 7961,
      "ĠÐ¼ÑĬÐ½Ð¾Ð³Ð¾": 7962,
      "ĠÐ¿êĻĭÑĤÑĮ": 7963,
      "ĠÐ²Ð°ÑĪÐµÐ¸": 7964,
      "Ð½ÐµÐ½Ð¾": 7965,
      "Ñ£Ð¼ÑĮ": 7966,
      "ÑģÑĤÑı": 7967,
      "Ð¾Ð»Ð¾Ð¿": 7968,
      "ĠÐ°êĻģÑĮ": 7969,
      "ÑģÐºÑĮÑĸ": 7970,
      "ĠÑ¡Ð±Ð°": 7971,
      "Ð¾ÑĥÐ¸": 7972,
      "Ð½ÑĥÐ»ÑĬ": 7973,
      "ĠÑĪÐº": 7974,
      "ĠÑģÑĤÐ°ÑĢÑĨÐ¾Ð¼": 7975,
      "ĠÐ±Ð¾Ð³ÑĮ": 7976,
      "ĠÑķÐ°": 7977,
      "ĠÐ±ÐµÑģÐµÑĢ": 7978,
      "ĠÐºÑĥÐ¿Ð¸Ð»ÑĬ": 7979,
      "ĠÑħÑĢÐ¸ÑģÑĤÐ¸Ð°Ð½": 7980,
      "ĠÐ¼Ñ¡ÑµÑģÐµÐ¸": 7981,
      "ĠÐ²Ñ¡": 7982,
      "ĠÐ´Ð¾ÑĢÐ¾": 7983,
      "ĠÐ³Ð²Ð¾Ð·": 7984,
      "ĠÐ»Ñĭ": 7985,
      "ĠÑ¿Ð¿êĻĭ": 7986,
      "ĠÐ¿Ð¾Ð¼Ð¸": 7987,
      "ĠÐ¿Ð¾ÑģÑĤÐ°Ð²Ð¸ÑĤÑĮ": 7988,
      "ĠÑĥÑĩÐ¸Ð½Ð¸ÑĤ": 7989,
      "ĠÑģÐºÐ°Ð·Ð°ÑĤÐ¸": 7990,
      "ĠÐ¿Ð°Ð¼Ñ§ÑĤ": 7991,
      "ĠÐ²ÑĢÑ£Ð¼Ñ§": 7992,
      "ĠÑģÐ½Ð°ÑĢÑıÐ´ÑĬ": 7993,
      "ĠÐºÐ»Ð¸Ð¼": 7994,
      "ĠÐºÐ»ÑİÑĩÐ½Ð¸ÐºÑ¹": 7995,
      "ĠÐ¿ÑĢÐ¾ÑģÑĤÐ¸ÑĢÐ°": 7996,
      "ĠÐ¼Ð°ÑĤÑĥÑĪÐºÐ°": 7997,
      "ÐµÑħÐ°": 7998,
      "ĠÐºÐ»Ð°Ð´": 7999,
      "ĠÐ¿ÑĢÐ¾ÑģÑĤÑĢÐ°": 8000,
      "ĠÐ¿ÑĢÐ¾ÑĩÐµÐµ": 8001,
      "ĠÑģÑĭÐ¸": 8002,
      "ÐµÐ½ÑĮÐ¸": 8003,
      "ĠÑģÐ°Ñħ": 8004,
      "ĠÐ¼Ð°ÑİÑĤÑĮ": 8005,
      "ĠÑĢÐ¾Ð´Ð¸ÑĤ": 8006,
      "ĠÑģÑ¹Ð´": 8007,
      "ĠÑģÐ¾ÑĤÐ²Ð¾ÑĢÐ¸ÑĪÐ¸": 8008,
      "ĠÐ¿Ð¾ÑĩÐ°Ð»ÑĬ": 8009,
      "ĠÑģÐºÐ¾ÑĢÐ±Ð¸": 8010,
      "ĠÐ¾Ð±ÑĢÑ£ÑģÑĤÐ¸": 8011,
      "ĠÑĢÐ¾Ð¼Ð°Ð½": 8012,
      "ĠÐºÐ¾ÑĢÐ°Ð±Ð»Ð¸": 8013,
      "ĠÑģÐ¾Ð´Ñ£": 8014,
      "êĻĭÐ¼Ñ£": 8015,
      "ĠÐľÑĮ": 8016,
      "ĠÐ´ÐµÑĢÐ¶Ð¸": 8017,
      "ĠÑģÐ°êĻĭ": 8018,
      "Ñ³Ðµ": 8019,
      "ĠÑħÐ¾ÑīÑĥ": 8020,
      "ĠÑĢÑ£ÑĨÑ£": 8021,
      "ĠÐ¿Ð¾Ð±Ð¸Ð»ÑĬ": 8022,
      "ĠÑĩÑĮÑĢ": 8023,
      "ĠÐ²Ð¿ÑĢÐ¾Ðº": 8024,
      "ĠÑĪÐ°Ð½ÑĨÑĭ": 8025,
      "ĠÐ´ÑĢÑĥÐ¶Ð¸Ð½Ñĥ": 8026,
      "ĠÐ²Ñ£ÑĤÑĢÑĬ": 8027,
      "ĠÑĩÐ¾Ð»Ð¾Ð²Ðµ": 8028,
      "ĠÐ²Ð¾ÑģÐºÑĢÐµÑģ": 8029,
      "ĠÐ¿ÑĤÐ°": 8030,
      "ĠÐ·ÑĢÑı": 8031,
      "ĠÐ½Ð¸ÑĦÐ¾Ð½": 8032,
      "ĠÐ»ÑİÐ±Ñı": 8033,
      "ĠÐ´Ð¾Ð±ÑĢÑĥ": 8034,
      "ĠÐºÐ¾Ð½Ð´ÑĢÐ°": 8035,
      "ĠÐ±Ð»ÑĥÐ´": 8036,
      "ĠÑĨÑĢÑİ": 8037,
      "ĠÐ±ÐµÑģÑĩÐµÑģÑĤÐ¸": 8038,
      "ĠÐ±ÑĢÐ°ÑĤÑĸÐ¸": 8039,
      "ĠÑĤÐ¸ÑħÐ°Ð½": 8040,
      "ĠÑĤÐ°ÑĢ": 8041,
      "ĠÐºÐ´Ñ£": 8042,
      "Ð²Ð¸Ð´Ñ£": 8043,
      "Ð²ÑĮÑĢÑĮ": 8044,
      "ĠÐ¿Ð¾Ð¿ÐµÑĨ": 8045,
      "ĠÐ»ÑİÐ±Ð¸ÑĤÐ¸": 8046,
      "ĠÐ³Ð»Ð°ÑģÐ¾Ð¼ÑĬ": 8047,
      "ĠÐºÑĢÐ°ÑģÐ½Ð¾": 8048,
      "ĠÐ¦Ð°ÑĢ": 8049,
      "ĠÑĩÐµÐ»Ð¾Ð±Ð¸ÑĤÑĮÑı": 8050,
      "ĠÐ´Ð¾Ð¼Ð¾ÑĩÐ°Ð´": 8051,
      "ÑĢÑĤÑĮ": 8052,
      "ĠÑĩÑĤÐ¸": 8053,
      "Ð¾Ð¿Ð¸Ñģ": 8054,
      "ĠÐ²ÑĭÐ¿": 8055,
      "Ð¾Ð²ÑĭÐ¹": 8056,
      "ĠêĻģÐ»Ð¾Ð±": 8057,
      "ĠÐ²Ð·ÑıÐ²": 8058,
      "ĠÐºÐ¾ÑĤÐ¾ÑĢÑĭÐ¼Ð¸": 8059,
      "ĠÐ²ÐµÑĢÐ²ÑĮ": 8060,
      "ÐºÐ¾Ð¼êĻĭ": 8061,
      "ÑĤÑ£Ð¸": 8062,
      "ĠÐ±Ð°ÑĪ": 8063,
      "ĠÑĨÑ£Ð»": 8064,
      "ĠÐ´Ð°ÑĢÐ¾Ð²Ð°": 8065,
      "ĠÑģÐ¾Ð²Ð¾ÐºÑĥÐ¿": 8066,
      "ĠÑ¡Ð±ÑĢÐ°Ð·": 8067,
      "ĠÐ¡Ð¾Ð»Ð¾Ð²ÑĮÑı": 8068,
      "ĠÐ²Ñ£Ð´Ð¾Ð¼": 8069,
      "ĠÐ²Ð¸ÑĤÐµÐ·": 8070,
      "ĠÐ´Ð»Ð¸Ð½Ñĥ": 8071,
      "ĠÐĶÐ¾Ð±ÑĢÑĭÐ½ÑİÑĪÐºÐ°": 8072,
[...]
