{"<s>":0,"<pad>":1,"</s>":2,"<unk>":3,"<mask>":4,"[CTX_CHURCH]":5,"[CTX_DAILY]":6,"[CTX_LEGAL]":7,"[CTX_LIT]":8,"[CTX_EPIC]":9,"[CTX_SCIENCE]":10,"[GAP]":11,"!":12,"\"":13,"#":14,"$":15,"%":16,"&":17,"'":18,"(":19,")":20,"*":21,"+":22,",":23,"-":24,".":25,"/":26,"0":27,"1":28,"2":29,"3":30,"4":31,"5":32,"6":33,"7":34,"8":35,"9":36,":":37,";":38,"<":39,"=":40,">":41,"?":42,"@":43,"A":44,"B":45,"C":46,"D":47,"E":48,"F":49,"G":50,"H":51,"I":52,"J":53,"K":54,"L":55,"M":56,"N":57,"O":58,"P":59,"Q":60,"R":61,"S":62,"T":63,"U":64,"V":65,"W":66,"X":67,"Y":68,"Z":69,"[":70,"\\":71,"]":72,"^":73,"_":74,"`":75,"a":76,"b":77,"c":78,"d":79,"e":80,"f":81,"g":82,"h":83,"i":84,"j":85,"k":86,"l":87,"m":88,"n":89,"o":90,"p":91,"q":92,"r":93,"s":94,"t":95,"u":96,"v":97,"w":98,"x":99,"y":100,"z":101,"{":102,"|":103,"}":104,"~":105,"¡":106,"¢":107,"£":108,"¤":109,"¥":110,"¦":111,"§":112,"¨":113,"©":114,"ª":115,"«":116,"¬":117,"®":118,"¯":119,"°":120,"±":121,"²":122,"³":123,"´":124,"µ":125,"¶":126,"·":127,"¸":128,"¹":129,"º":130,"»":131,"¼":132,"½":133,"¾":134,"¿":135,"À":136,"Á":137,"Â":138,"Ã":139,"Ä":140,"Å":141,"Æ":142,"Ç":143,"È":144,"É":145,"Ê":146,"Ë":147,"Ì":148,"Í":149,"Î":150,"Ï":151,"Ð":152,"Ñ":153,"Ò":154,"Ó":155,"Ô":156,"Õ":157,"Ö":158,"×":159,"Ø":160,"Ù":161,"Ú":162,"Û":163,"Ü":164,"Ý":165,"Þ":166,"ß":167,"à":168,"á":169,"â":170,"ã":171,"ä":172,"å":173,"æ":174,"ç":175,"è":176,"é":177,"ê":178,"ë":179,"ì":180,"í":181,"î":182,"ï":183,"ð":184,"ñ":185,"ò":186,"ó":187,"ô":188,"õ":189,"ö":190,"÷":191,"ø":192,"ù":193,"ú":194,"û":195,"ü":196,"ý":197,"þ":198,"ÿ":199,"Ā":200,"ā":201,"Ă":202,"ă":203,"Ą":204,"ą":205,"Ć":206,"ć":207,"Ĉ":208,"ĉ":209,"Ċ":210,"ċ":211,"Č":212,"č":213,"Ď":214,"ď":215,"Đ":216,"đ":217,"Ē":218,"ē":219,"Ĕ":220,"ĕ":221,"Ė":222,"ė":223,"Ę":224,"ę":225,"Ě":226,"ě":227,"Ĝ":228,"ĝ":229,"Ğ":230,"ğ":231,"Ġ":232,"ġ":233,"Ģ":234,"ģ":235,"Ĥ":236,"ĥ":237,"Ħ":238,"ħ":239,"Ĩ":240,"ĩ":241,"Ī":242,"ī":243,"Ĭ":244,"ĭ":245,"Į":246,"į":247,"İ":248,"ı":249,"Ĳ":250,"ĳ":251,"Ĵ":252,"ĵ":253,"Ķ":254,"ķ":255,"ĸ":256,"Ĺ":257,"ĺ":258,"Ļ":259,"ļ":260,"Ľ":261,"ľ":262,"Ŀ":263,"ŀ":264,"Ł":265,"ł":266,"Ń":267,"ĠÐ":268,"Ð¾":269,"Ð°":270,"Ðµ":271,"Ð¸":272,"ĠÑ":273,"ÑĤ":274,"Ð¾Ð":275,"ÑĢ":276,"Ð½":277,"Ñģ":278,"ÑĬ":279,"Ð»":280,"Ð²":281,"ĠÑģ":282,"ĠÐ¸":283,"ÑĮ":284,"Ñĥ":285,"Ð¼":286,"ĠÐ¿":287,"Ðº":288,"Ð´":289,"ĠÐ²":290,"Ñ£":291,"Ñĭ":292,"ĠÐ½":293,"CT":294,"čĊ":295,"CTX":296,"Ñı":297,"ĠÐ´":298,"ĠÑĤ":299,"ÑģÑĤ":300,"ĠÐº":301,"Ð³":302,"ĠÐ±":303,"ÑĪ":304,"Ñİ":305,"Ñħ":306,"êĻ":307,"Ð¾Ð²":308,"ĠÐ¼":309,"Ð·":310,"Ñĩ":311,"Ð±":312,"ĠÐ¾":313,"Ñ§":314,"ĠÐ½Ð°":315,"¶Ðµ":316,"ĠÐ¿ÑĢ":317,"Ð¾Ð¼":318,"ÑĤÐ¸":319,"Ð¾ÑĢ":320,"ĠÐ³":321,"Ð¿":322,"Ð¾Ð»":323,"Ð»Ð¸":324,"Ð½Ð¸":325,"ÑĢÐ°":326,"ĠÑĢ":327,"Ð»Ð°":328,"ĠÐ½Ðµ":329,"ÑĨ":330,"ÒĨ":331,"CH":332,"ÐµÑĤ":333,"ÐµÐ¼":334,"ĠÐ¿Ð¾":335,"Ð¾Ð´":336,"ĠÐ°":337,"ĠÐ·":338,"ĠÐµ":339,"ÐµÐ½":340,"Ð³Ð¾":341,"Ð²Ð¾":342,"ÐµÑĢ":343,"GA":344,"Ñī":345,"Ð¾Ð³":346,"ĠÑĩ":347,"Ñĸ":348,"ĠÐ»":349,"Ð°ÑĢ":350,"Ð¶":351,"ÑģÐº":352,"Òĥ":353,"Ð½Ð°":354,"ÑĤÑĮ":355,"êĻĭ":356,"IT":357,"LIT":358,"Ð²Ð°":359,"ĠÑĥ":360,"ĠÐ²ÑĬ":361,"Ð½Ñĭ":362,"Ð¼ÑĬ":363,"ĠÐ¶Ðµ":364,"ÐµÐ»":365,"ÐºÐ°":366,"ĠÐ´Ð°":367,"ĠÑģÑĤ":368,"Ð½Ð¾":369,"ÑħÑĬ":370,"Ñ¹":371,"ÐºÐ¾":372,"ĠÐĺ":373,"Ð¾ÑĤ":374,"Ð¾Ð½":375,"Ð¶Ðµ":376,"Ð¾Ð±":377,"ÑĥÐ´":378,"Ð¾Ñģ":379,"RCH":380,"URCH":381,"CHURCH":382,"Ð¹":383,"Ð¸ÑĤ":384,"EP":385,"IC":386,"EPIC":387,"ĠÐ¿ÑĢÐ¸":388,"Ð¼Ð¸":389,"ĠÐ²Ñģ":390,"ÐµÐ²":391,"Ð´Ð°":392,"ĠÐĲ":393,"AI":394,"DAI":395,"LY":396,"DAILY":397,"Ġ[":398,"GAP":399,"Ð°Ðº":400,"ĠÐ¾ÑĤ":401,"ĠÑģÐ²Ð¾":402,"EGA":403,"LEGA":404,"LEGAL":405,"ĠÑħ":406,"ÑĪÐ°":407,"Ð¸Ð½":408,"ÑģÑĤÑĮ":409,"Ð¸Ð»":410,"ÑĤÐ¾":411,"ÐµÐ´":412,"ĠÐ·Ð°":413,"Ð¾Ð³Ð¾":414,"ÑģÑı":415,"ĠÑĢÐ°":416,"êĻĹ":417,"ĠÑ¡":418,"Ð°Ð½":419,"ĠÐ½Ð¸":420,"Ñ¡":421,"ÑĢÐµ":422,"ĠÑĨ":423,"Ð¾Ðº":424,"ÑĢÐ¸":425,"ÑĪÐµ":426,"Ð´Ðµ":427,"Ð°Ð»":428,"Â·":429,"Ð°Ð²":430,"ÑĪÐ¸":431,"CE":432,"CI":433,"EN":434,"SCI":435,"ENCE":436,"SCIENCE":437,"ĠÑģÐµ":438,"Ð¾Ð¼ÑĬ":439,"ĠÑģÑĬ":440,"ÑĢÑ£":441,"Ð¾Ñĥ":442,"ĠÑ¿":443,"Ð´Ð¸":444,"êĻģ":445,"ĠÐ±Ñĭ":446,"ÑģÑĤÐ¸":447,"ÐºÐ¸":448,"ĠÑı":449,"ÑĩÐ¸":450,"Ð¾Ð¶":451,"ÐµÑģ":452,"Ð¾Ð¹":453,"ÑĤÑĬ":454,"ÑĩÐµ":455,"Ð¾Ð²Ð°":456,"Ñ«":457,"ĠÂ·":458,"êĻĳ":459,"Ð¾Ð·":460,"Ð»Ðµ":461,"Ð¾Ð¿":462,"ÑīÐµ":463,"ĠÐ¶":464,"ĠÐ²Ð¾":465,"ĠÐ±Ð¾":466,"ÐµÐ»Ð¸":467,"Ð½Ðµ":468,"ĠÐ»Ñİ":469,"Ð¸Ð¼":470,"ĠÐ¾Ñĥ":471,"Ð²Ð¾ÑĢ":472,"ĠÑĤÐ¾":473,"Ð¸Ñģ":474,"Ð°ÑĤ":475,"ÐµÐ¼ÑĬ":476,"Ð¾Ð¼Ñĥ":477,"ĠÐ¸Ð»Ð¸":478,"ĠÑģÐ»":479,"Ð²Ñ£":480,"ĠÐ¿Ð¾Ð»":481,"Ð½Ñ£":482,"ĠÐŁ":483,"ĠÐ¡":484,"ĠÐ¿Ð¾Ñģ":485,"Ð¸ÑĤÐ¸":486,"ÑĨÐ°":487,"Ð½Ñı":488,"Ð´Ñ£":489,"ĠÐĴ":490,"ĠÑģÑ§":491,"ĠÐĿ":492,"ÐµÑĤÑĮ":493,"ÑĢÑĥ":494,"ĠÐ¼Ð¾":495,"Ð°Ð¼":496,"Ð»ÑĬ":497,"Ð¾Ð¶Ðµ":498,"ĠÐ¸Ð·":499,"ĠÐ¸Ð¼":500,"ÐµÑĤÑĬ":501,"ÑĢÐ¾":502,"Ð½ÑĬ":503,"Ð²ÑĬ":504,"ĠÑĤÐµ":505,"ÑĤÐ°":506,"ĠÐ¾Ð±":507,"Ġ:":508,"Ð°Ñģ":509,"ĠÐ³Ð¾Ñģ":510,"ĠÐµÐ³Ð¾":511,"ĠÐ²ÐµÐ»Ð¸":512,"Ð²Ð¸":513,"Ð½Ñĥ":514,"ĠÑĢÐµ":515,"ĠÐ±ÑĥÐ´":516,"ĠÐºÑĬ":517,"Ð¸Ñħ":518,"ÐºÑĬ":519,"ĠêĻĹ":520,"ÑģÐ¸":521,"ÑĤÐµ":522,"ÑĩÐ°":523,"ĠÐ¿Ð¾Ð´":524,"Ð»ÑĮ":525,"Ð»Ð¾":526,"ÑĢÑĮ":527,"ÑĸÐµ":528,"Ð¼ÑĮ":529,"ĠÑĩÑĤÐ¾":530,"Ð½ÑĮ":531,"ÐºÐ°Ð·":532,"ÑĢÑĬ":533,"ÐµÐ·":534,"ĠÐ²Ñ£":535,"Ð»Ñ£":536,"ĠÐ´Ð¾":537,"ÐºÑĥ":538,"ĠÐĳ":539,"ĠÐ¿ÑĢÐ¾":540,"ĠÐºÐ°":541,"Ð¾Ð²Ñ£":542,"Ð°ÑĤÐ¸":543,"ĠÑĨÐ°ÑĢ":544,"Ð¼Ñĥ":545,"ĠÑĩÐµÐ»":546,"ĠÐ¢":547,"ĠÑĤÐ²Ð¾":548,"ĠÐĶ":549,"ĠÐŀ":550,"ĠÑĶ":551,"Òĩ":552,"ÑĥÐ´Ð°ÑĢ":553,"ĠÐ²Ñĭ":554,"ĠÑģÐ²Ð¾Ðµ":555,"ĠÐ³ÑĢÐ°":556,"Ð¾Ð²Ð¸":557,"ĠÐºÐ¾":558,"Ñ¥":559,"Ð»Ñı":560,"ĠÐ´Ñ£":561,"ĠÐ»Ð¸":562,"Ð¼Ñ£":563,"âĢ":564,"ĠÑģÑĭ":565,"ĠÐ²ÑģÐµ":566,"Òħ":567,"ĠÑĢÑĥ":568,"ĠÐ·ÐµÐ¼":569,"ĠÐ¼Ð½":570,"ÑĩÑĮ":571,"ĠÑģÐ¸":572,"ĠÐ³Ð¾ÑģÑĥÐ´Ð°ÑĢ":573,"ÑĸÐ¸":574,"ĠÑĪ":575,"Ð»Ñİ":576,"ĠÑĸ":577,"ÑģÑĤÐ°":578,"ĠÐ±ÑĢÐ°":579,"ĠÐļ":580,"ĠÑĢÐ°Ð·":581,"ÑīÐ°":582,"Ð¾Ð²ÑĬ":583,"ÑĦ":584,"ĠÐ¿Ð¾Ð¼":585,"ĠÐľ":586,"ĠÑģÐ²":587,"ĠÐ¿ÑĢÐµ":588,"Ð¶Ð¸":589,"Ð´Ð¾":590,"ÐµÐ½ÑĮ":591,"ÑīÐ¸":592,"ÑģÑĤÐ°Ð²":593,"ÑģÑĤÐ¾":594,"Ð¾ÑĢÐ¾Ð´":595,"Ð±Ñ£":596,"ĠÐ¿ÐµÑĢ":597,"ĠÐºÐ°Ðº":598,"ĠÐ¼Ð¸":599,"ĠÑĤÐ°":600,"ĠÑĤÐ°Ðº":601,"ĠÐ¿Ð¾Ðº":602,"ĠÐºÐ¾ÑĤ":603,"ĠÐ´Ð¾Ð±":604,"ÑģÐºÐ¸":605,"Ð¿Ð¾Ð´":606,"ĠÐºÐ½Ñı":607,"ĠÑ¥":608,"Ð±Ð¾":609,"Ð¼Ð°":610,"ĠÐ²Ð¸":611,"Ð³Ð°":612,"ĠÐºÐ¾ÑĤÐ¾ÑĢ":613,"Ð¾Ð²Ð¾":614,"Ð¾Ð²Ðµ":615,"ĠÐ¸Ñģ":616,"ÑĢÑĭ":617,"ĠÐ²Ð¾Ð·":618,"ÑĪÑĮ":619,"Ð´ÑĬ":620,"ĠÑģÐ¾":621,"ÑĨÐµ":622,"ĠÑĤÑĭ":623,"ĠÐµÑģÑĤÑĮ":624,"Ð½Ð¸Ðµ":625,"ĠÐ¶Ð¸":626,"Ð»Ð°Ð²":627,"Ð¾Ð»ÑĮ":628,"ÑĨÐ¸":629,"Ð´Ñĥ":630,"ĠÑĤÐ¸":631,"ÑģÑĤÐ²":632,"ĠÑĤÐ¾Ð³Ð¾":633,"ÑģÑ§":634,"ÑģÐ»":635,"ĠÐ¼Ñ£":636,"Ð±Ð¸":637,"Ð¶Ð°":638,"ĠâĢ":639,"Ġ,":640,"Ġ.":641,"ÑģÐºÐ°":642,"ÑģÑĤÑĭ":643,"ĠÐºÐ½ÑıÐ·":644,"ĠÐ¾ÑĤÑĬ":645,"ĠÑĦ":646,"ÑĢÑı":647,"ĠÐ±Ñ£":648,"ĠÐºÐ¾Ð½":649,"Ð±Ðµ":650,"ĠÐ»Ñ£":651,"ĠÐ²ÑĮ":652,"ĠÑ¹":653,"Ð¾Ð²Ñĭ":654,"ĠÑĤÑ£":655,"Ð»Ð°Ð³":656,"ĠÐ´ÐµÑĢ":657,"Ð¸ÑĤÑĮ":658,"ĠÐĵ":659,"ÑĥÐ¿":660,"ĠÐ²Ð¾Ð»":661,"â¸":662,"ĠÐ¿Ñĥ":663,"Ð½Ñ§":664,"Ð²ÑĮ":665,"ĠêĻģ":666,"ĠÑģÐ²Ð¾Ð¸":667,"êĻ¿":668,"ÑıÑĤ":669,"ĠÐºÐ¾ÑĢ":670,"ĠÐ¿Ð°":671,"ĠÐ±ÐµÐ·":672,"ĠÐ¿ÑĢÑ£":673,"ĠÐ²ÑģÑ§":674,"ÑĨÑĭ":675,"ĠÐ½Ð¾":676,"Ð´ÑĮ":677,"Ð²ÐµÑĢ":678,"Ð´Ñĭ":679,"ĠÑģÑĤÐ°ÑĢ":680,"ĠêĻ":681,"Ð¾Ð»Ð¸":682,"ĠÐµÐ¼Ñĥ":683,"ĠÑģÐ°":684,"Ð¼Ð¾ÑĤ":685,"ÑģÑĤÐ²Ð¾":686,"ÑĥÑİ":687,"ĠÐ±Ð¾Ð³":688,"Ð²Ñĭ":689,"ÐµÐ¹":690,"ĠÐ²Ð°":691,"ĠÑıÐºÐ¾":692,"ÑħÐ°":693,"Ð¾Ñİ":694,"ĠÑģÑı":695,"ĠÐ¸Ñħ":696,"ĠÐ¸Ð²Ð°":697,"ĠÑģÐº":698,"ÑĹ":699,"ĠÐķ":700,"ĠÑģÐ¿":701,"ÐµÐ²Ð¸":702,"Ð½Ð¾Ðµ":703,"ÐµÐ½Ð¸":704,"Ð»ÐµÐ½":705,"ĠÐ¼Ðµ":706,"ĠÐ³ÑĢÐ¸":707,"Ð½ÑĭÐµ":708,"ĠâĢĶ":709,"Ð±Ñĭ":710,"Ð½ÑĭÑħ":711,"ÐµÑĨ":712,"ÑĶ":713,"ĠÐ²Ð°Ñģ":714,"ÐµÐ¼Ñĥ":715,"Ð¸ÑĤÑĬ":716,"Ð½Ð¸Ðº":717,"ĠÐºÐ°ÐºÑĬ":718,"ĠÐ²ÐµÐ»":719,"ĠÐ·Ð°Ð¿":720,"Ð»Ñ§":721,"ĠÐĿÐµ":722,"ĠÐ²Ð·":723,"ÑģÐµ":724,"ĠÐ²ÑģÑ£":725,"ĠÐ½Ñ£":726,"Ð³Ð¸":727,"ĠÐ´Ðµ":728,"ĠÐ½Ð°Ð¿":729,"ĠÐ²ÐµÐ»Ð¸Ðº":730,"Ð²Ðµ":731,"ÑģÐ°":732,"ÐµÐ¼ÑĮ":733,"Ð¶ÑĮ":734,"ÑħÐ¾Ð´":735,"Ð¸Ð½Ñĥ":736,"ÑĨÑ£":737,"Ð¾Ðµ":738,"Ð¸Ð»ÑĬ":739,"ĠÐ²ÑĬÐ·":740,"Ð¾Ð½Ð°":741,"ĠÐĶÐ°":742,"ĠÐ¼Ð¾Ð»":743,"Ð³Ñ¡":744,"ÐµÐ½ÑĬ":745,"ĠÑĥÐºÐ°Ð·":746,"Ð°Ð»ÑĬ":747,"Ð¾Ð¶Ð¸":748,"ĠêĻĭ":749,"ĠÐ¿Ð¾ÑĢ":750,"Ð¾Ð´Ð°":751,"ĠÐ¿Ð¸Ñģ":752,"ĠÐ±ÑĥÐ´ÐµÑĤ":753,"ÐµÐ½Ðµ":754,"ÑģÑĬ":755,"Ð³Ð´Ð°":756,"Ð½Ð°Ð³Ð¾":757,"Ð¸ÑĤÐµ":758,"ĠÐ¿Ð¾Ð²":759,"ÑĸÐ°":760,"ĠÐºÐ¾ÑĤÐ¾ÑĢÑĭ":761,"ÐµÑĢÐµ":762,"ĠÐ´Ð²Ð¾ÑĢ":763,"ĠÑģÑĤÑĢÐ°":764,"ÑģÑĤÑĬ":765,"Ð¼Ð¾":766,"ĠÐ²ÑģÑı":767,"ĠÐºÑĤÐ¾":768,"ĠÐ¿Ð¾ÑĤ":769,"ÑĢÐ°Ð²":770,"ÑģÑ£":771,"Ð·ÑĬ":772,"ÐµÐ»ÑĮ":773,"ÑĥÑĤ":774,"ĠÑĢÐµÑĩÐµ":775,"ÒĦ":776,"ÐµÐ½Ð°":777,"ĠÑģÐ¾Ð±":778,"ĠÐ¿ÑĢÐ°Ð²":779,"ÐµÑĤÑģÑı":780,"ĠÐ³Ð¾ÑĢÐ¾Ð´":781,"ĠÑ»":782,"ĠÑģÐ¼":783,"Ð¸Ð»Ð¾":784,"ĠÐ»ÑİÐ´Ðµ":785,"Ð»Ñĥ":786,"ÑģÑĮ":787,"Ð³ÑĬ":788,"ĠÐ´ÑĢÑĥ":789,"ĠÐ´Ñĥ":790,"ĠÐºÑĢÐ°":791,"ĠÐºÑĢÐµ":792,"ĠÒĨ":793,"ĠÐ¼Ñĥ":794,"ĠÐ¿Ð¾Ð³":795,"Ð°Ð·":796,"ÑİÑĤ":797,"Ð²Ð°ÑĤÐ¸":798,"Ð¸Ð»ÑĮ":799,"Ð¸ÑħÑĬ":800,"ĠÑİ":801,"ĠÑķ":802,"ĠÐ³Ð¾ÑĢ":803,"Ð³Ñĥ":804,"ĠÑ§":805,"ÐµÑħ":806,"ĠÑģÑ£":807,"ĠÐ±Ð»":808,"ĠÐ¿Ð¸":809,"ĠÐ´ÐµÑĢÐµÐ²":810,"ĠÑģÐ°Ð¼":811,"Ð¸Ð¼ÑĬ":812,"ĠÑģÐ²Ð¾ÐµÐ³Ð¾":813,"ĠÑĤÐ°ÐºÐ¾":814,"ÑĸÑ§":815,"ÐºÐ¾Ð²":816,"ÐºÐ¾Ð¶Ðµ":817,"ĠÐ¼Ð°":818,"Ð½Ð¾Ñİ":819,"ÑĩÑİ":820,"ĠÑĤÐ²Ð¾ÑĢ":821,"Ð±Ð°":822,"Ð»Ð°Ð³Ð¾Ð»":823,"ĠÐ¿Ð»Ð°":824,"ÐºÑĭ":825,"ĠÑģÑĥÐ´":826,"ĠÐµÑģ":827,"ÑĤÑĭ":828,"ĠÑĨÑĢ":829,"Ð´Ð¸Ð½":830,"ÑģÑĤÐµ":831,"ĠÑģÑĥ":832,"Ð°ÑĢÐ¸":833,"ĠÐ¸ÑħÑĬ":834,"Ð¿Ð°":835,"Ð»Ñĭ":836,"ÑĨÑĮ":837,"ĠÐł":838,"ĠÑĤÐ¾Ð¼":839,"Ð¿Ð¸":840,"ĠÐ±ÑĮ":841,"ÑĸÑİ":842,"Ð»ÐµÐº":843,"ĠÑĩÐµ":844,"ĠÐºÑĢ":845,"ĠÑģÑĤÐ°":846,"ÑıÐ½":847,"ĠÐ±Ð¾Ð»":848,"ĠÐ¿Ðµ":849,"ĠÐ¼Ð½Ð¾Ð³":850,"ĠÐ³ÑĢÐ°Ð¼Ð¾ÑĤ":851,"ĠÑĤÑĥ":852,"Ð½Ð¾Ð¹":853,"ÑĢÐµÐ¼":854,"Ð½ÑĭÑı":855,"Ð¾Ð¸":856,"ĠÑĤÐ¾Ð¼Ñĥ":857,"ÑģÑĤÐ²Ð°":858,"â¸±":859,"Ñ³":860,"ĠÐ¿Ð¾ÑģÐ»Ð°":861,"Ð±ÑĢÐ°":862,"Ð·Ñĭ":863,"ÑĮÑı":864,"ĠÐ²ÐµÑĢ":865,"²Ĥ":866,"á²Ĥ":867,"á²ĤÑĥ":868,"Ð¾Ð²Ð¾ÑĢ":869,"ÑĪÐºÐ°":870,"ĠÐĽ":871,"ĠÐ³ÑĢ":872,"Ġá²ĤÑĥ":873,"ĠÐ´Ð¾Ð¼":874,"ÑıÑĤÐ¸":875,"Ð½ÑĭÑħÑĬ":876,"Ð¾ÑģÑĤ":877,"Ð°Ð³Ð¾":878,"ĠÑĤÐµÐ±Ñ£":879,"ĠÐ³Ð»Ð°Ð³Ð¾Ð»":880,"ĠÐ²Ðµ":881,"Ð°Ð½Ð´":882,"ĠÐ´ÑĢ":883,"ĠÑĢÐ¾Ð´":884,"ĠÐ»ÑİÐ´":885,"ĠÐºÑĥ":886,"ĠÑħÐ¾":887,"ĠÑĤÑĢ":888,"ĠÐ³Ð¾ÑģÐ¿Ð¾Ð´":889,"ĠÐ»ÑİÐ´Ð¸":890,"ĠêĻĹÐºÐ¾":891,"Ð¸ÑħÐ°":892,"ĠÑĥÑĩ":893,"ĠÐ°ÑīÐµ":894,"ĠÑĢÐ°Ð´Ð¸":895,"Ð¼Ñĭ":896,"ĠÑģÑĮ":897,"ĠÐ¸Ð¼ÑĬ":898,"ĠÐ·ÐµÐ¼Ð»Ð¸":899,"ĠÐ¿Ð¾Ð¿":900,"ĠÐĳÐ¾Ð³":901,"ĠÐ±Ð¾Ñı":902,"ÐµÐ½Ð¾":903,"Ð½Ñİ":904,"ÑģÐ¿":905,"Ð»ÐµÐ²":906,"ĠÐµÑģÐ¸":907,"ĠÐ³ÑĢÑ£":908,"ĠÐ¼Ñĭ":909,"ĠÑģÐ»Ñĥ":910,"Ð·Ð°":911,"Ð¼Ðµ":912,"Ð²Ñĥ":913,"ĠÑĩÐµÑĢ":914,"ĠÐ³Ñģ":915,"ĠÑĤÐ²Ð¾Ðµ":916,"ĠÑģÑĤÐ¾":917,"ĠÐ¸Ð²Ð°Ð½":918,"ĠÐ¾Ð½":919,"ÑģÐºÐ¾Ð³Ð¾":920,"ÑħÑĥ":921,"ĠÑħÐ¾ÑĤ":922,"ĠÐĵÐ¾Ñģ":923,"ÐºÐ¾Ð¼":924,"Ð¾ÑĤÐ²Ð¾ÑĢ":925,"ÑģÐ»Ð°":926,"Ð»Ð¾Ð½":927,"ĠÐĴÑĬ":928,"ĠÑģÐ²Ñ£":929,"Ġ1":930,"Ð¸Ð»Ð¸":931,"ĠÑĩÐ»":932,"ĠÐ²Ð»Ð°":933,"ĠÑĢÑ£":934,"ÐµÐ»Ñ£":935,"ÑĤÑ£":936,"ĠÐ±Ð³":937,"ĠÐ¿ÑĢÐµÐ´":938,"ĠÐ¸ÑģÐ¿":939,"ĠÑĩÐ°":940,"ÐµÐ²Ð°":941,"ĠÐ¼Ð½Ñ£":942,"ÑĢÐ¾Ñģ":943,"ĠÐ»ÑİÐ´ÐµÐ¹":944,"ĠÐ´ÐµÐ½ÑĮ":945,"ÑĤÐ²Ð¾ÑĢ":946,"Óı":947,"ĠÑĩÑĤ":948,"ĠÐ¸Ð¶Ðµ":949,"Ð½ÑĭÐ¼":950,"ÑĢÑ§":951,"ĠÐ°Ð½":952,"Ð»ÐµÐºÑģ":953,"ĠÑĩÐµÑĤ":954,"ĠÐ¼Ð°Ð»":955,"Ð±Ñı":956,"ĠÐºÐ°ÐºÐ¾":957,"ĠÐ±ÐµÑģ":958,"ĠÑ³":959,"â¸¯":960,"ĠÐ¿Ð¾Ð±":961,"ÑĪÑĤÐµ":962,"ĠÑħÐ¾Ð»":963,"ĠÐ¸Ð¼Ñ£":964,"ĠÐ¼Ð¸Ð»Ð¾":965,"ĠÐ¿Ð¾Ð¶":966,"ĠÐ¼Ð¾Ðµ":967,"ĠÑĨÐ°ÑĢÑĮ":968,"ĠÑĩÐµÐ»Ð¾Ð¼":969,"ĠÑģÐµÐ¼":970,"ÑĢÐ¾Ðº":971,"ĠÐ¸Ð½":972,"ĠÑĩÑİ":973,"ĠÐ²Ð¾ÑĤ":974,"ĠÐ½ÐµÐ³Ð¾":975,"ĠÑģÑĭÐ½":976,"ĠÐ¼Ð½Ð¾Ð³Ð¾":977,"ĠÑģÐ²Ð¾Ñİ":978,"ĠÑĤÐµÑħ":979,"ÑıÑĤÑĮ":980,"ĠÑĩÐ¸":981,"ĠÑģÐ¸Ð»":982,"ÐµÐ½Ñĭ":983,"ĠÑĤÑĢÐ¸":984,"ĠÑĥÐºÐ°Ð·Ñ£":985,"Ð»ÐµÐºÑģÐ°Ð½Ð´":986,"Ð¸ÑĤÐ°":987,"ĠÐ´Ð¾Ð²":988,"Ð½ÑĭÐ¸":989,"ĠÐ¿ÑĢÐ¾ÑĤÐ¸":990,"ĠÐ±ÑĭÑĤÐ¸":991,"ĠÐ±Ðµ":992,"ÑģÐºÑĭ":993,"ĠÑģÐµÐ³Ð¾":994,"ÐµÐ»ÑĬ":995,"ĠÑĤÐµÐ¼":996,"ĠÐ±Ð»Ð°":997,"ĠÐ²Ð¸Ð´Ñ£":998,"Ð³Ð¾ÑĢ":999,"ĠÐ´Ñ£Ð»Ð°":1000,"ĠÐ³ÑģÐ´":1001,"ĠÐ»ÑİÐ±":1002,"ĠÑģÐ»Ð¾Ð²":1003,"ĠÐµÐ¶Ðµ":1004,"ÐµÑĤÐµ":1005,"ĠÐ»Ñĥ":1006,"ĠÐ½Ð¸Ñħ":1007,"ĠÑģÐµÑĢ":1008,"ĠÐ½Ð¸Ðº":1009,"ÐµÐ´Ð¾ÑĢ":1010,"ĠÐ¿Ð°Ðº":1011,"Ñķ":1012,"ĠÑĩÑĤÐ¾Ð±":1013,"Ð½ÑĭÐ¼ÑĬ":1014,"ĠÐ¿ÑĢÐ¾Ñģ":1015,"ĠÑĩÐµÐ»Ð¾Ð²Ðµ":1016,"ĠÐ¸Ð½Ð¾":1017,"Ð½Ð¸Ñı":1018,"ĠÑĤÐ²Ð¾Ð¸":1019,"Ð½ÑĥÑİ":1020,"Ð½Ð°Ñı":1021,"êĻĻ":1022,"ĠÐ»Ñ£ÑĤ":1023,"ĠÑĤÐ¾Ð±":1024,"ĠÐ³Ð»":1025,"Ð¼ÐµÐ½":1026,"Ð¾ÑģÑĤÐ¸":1027,"ĠÐºÐ°Ð·":1028,"ĠÐ¿ÑĢÐ¸ÐºÐ°Ð·":1029,"ĠÐºÐ¾ÑĤÐ¾ÑĢÑĭÐµ":1030,"ÑĨÑĥ":1031,"ĠÐ²ÐµÐ»Ð¸ÐºÐ¸":1032,"Ð¾Ð³Ð´Ð°":1033,"êĻĭÐ´":1034,"ÐºÑ¡":1035,"ÑĪÑĤ":1036,"ĠÐĿÐ°":1037,"ĠÐºÐ½ÑıÐ·ÑĮ":1038,"Ð³Ð¾ÑĢÐ¾Ð´":1039,"ĠÐ³Ð´":1040,"ĠÑģÐ½":1041,"Ð½Ð¸Ð¸":1042,"ĠÐ½Ñĭ":1043,"ĠÐ½Ð°ÑĪ":1044,"ĠÑħÐ¾Ð´":1045,"ÑİÑĤÑĬ":1046,"Ð·ÑĮ":1047,"ĠÐ·ÐµÐ¼Ð»Ñİ":1048,"ĠÎ":1049,"ÑĢÐ¾Ð¼":1050,"ĠÐ±Ð¾ÑĢ":1051,"ĠÐĵÐ¾ÑģÐ¿Ð¾Ð´":1052,"ĠÐ±Ð¶":1053,"ĠÐ²ÑĢÐµÐ¼":1054,"ÐµÐ²ÑĬ":1055,"ĠÐ¾Ð½Ð¸":1056,"ĠÑħÐ¾Ð»Ð¾Ð¿":1057,"ÐºÐµ":1058,"ĠÐ¼ÐµÐ½":1059,"ĠÑģÑĤÐ¾ÑĢ":1060,"Ð¾Ð²ÑĮ":1061,"Ð½Ð¸ÐºÐ°":1062,"ĠÐ¾Ñģ":1063,"Ð¸Ð½Ðµ":1064,"ĠÐºÐ¾Ð³Ð¾":1065,"ĠÐ¿Ð¾Ð½":1066,"Ð°ÑĤÑĭ":1067,"Ð¾Ð²Ñĥ":1068,"ĠÐ³Ð¾Ð´":1069,"ĠÐ³Ð¾Ð»":1070,"ÑĢÐµÐ±":1071,"ĠÑģÑĤÑĢÑ£":1072,"ĠÑĩÐµÐ»Ð¾Ð²Ñ£":1073,"ĠÐ¼Ð¾Ð½Ð°":1074,"ĠÐ½ÐµÐ¿":1075,"Ð¸ÑģÐ°":1076,"ĠÐ²ÑĢÐ°":1077,"ĠÐ½ÐµÐ¼":1078,"ĠÐºÑĥÐ¿":1079,"ĠÐĹ":1080,"ĠÐ½Ð°Ñģ":1081,"Ð³Ð¾Ð´":1082,"ĠÐ¸ÑģÑĤ":1083,"ĠÐ²Ð¾Ð´":1084,"ĠÑ¡Ð±":1085,"Ñµ":1086,"Ð¾ÑĢÐ¾":1087,"ĠÑıÐ·":1088,"ĠÑĢÐ¾Ð·":1089,"ÐµÑĪÐ¸":1090,"ĠÐ¿ÑĢÐ¸ÑĪ":1091,"ĠÐ¶Ð¸Ð²Ð¾":1092,"ĠÐ±ÑĢÐ°ÑĤ":1093,"ĠÐ³Ð¾ÑģÑĥÐ´Ð°ÑĢÑĮ":1094,"ĠÑ¡ÑĤ":1095,"ĠÐ´Ð½":1096,"ĠÑģÐ»Ñĭ":1097,"ĠÐµÐ¼":1098,"ĠÐ³ÑĢÐ¸Ð²":1099,"ĠÑĢÑĥÐ±":1100,"ÑģÑĤÑ£":1101,"ĠÐ¾Ð¿":1102,"ĠÐºÐ°Ð¼":1103,"Ð²ÐµÐ´":1104,"ĠÐ²ÐµÑģ":1105,"ĠÐ½Ð°Ð¼ÑĬ":1106,"ĠÑģÐµÐ±Ðµ":1107,"Ð½Ð¾Ð¼":1108,"ÑĩÐ¸Ð½Ð¸":1109,"ĠÐĲÑīÐµ":1110,"ĠÑģÑ¹":1111,"ĠÑī":1112,"ĠÐ³Ð¾ÑģÑĥÐ´Ð°ÑĢÑİ":1113,"ĠÐ´Ð²Ð°":1114,"ĠÐ¿Ð¾Ð¼Ðµ":1115,"ĠÑĤÑĬ":1116,"ÑģÐºÑĥ":1117,"ĠÐ½ÐµÐ´":1118,"ĠÐ¼Ð¾Ð½Ð°ÑģÑĤÑĭ":1119,"ĠÑģÐ»Ð°":1120,"ĠÑģÐ¾ÑĤÐ²Ð¾ÑĢ":1121,"Ð°Ð´":1122,"ĠÐ³Ð»Ð°":1123,"ÑģÐºÐ¾Ð¹":1124,"Ð·Ð¸":1125,"Ñ§ÑĤÑĮ":1126,"ĠÐºÐ½Ñ§":1127,"ĠÐ·Ð»Ð°":1128,"ĠÐĲÐ»ÐµÐºÑģÐ°Ð½Ð´":1129,"ĠÑĤÑı":1130,"ĠÐ§":1131,"ĠÐ²Ð°ÑģÐ¸Ð»ÑĮ":1132,"Ð½Ð¾Ð³Ð¾":1133,"Ð¾Ð½ÑĬ":1134,"ÑŃ":1135,"Ð½ÑĭÐ¼Ð¸":1136,"ĠÐ»Ðµ":1137,"ĠÐ·Ð½Ð°":1138,"ĠÐ¿Ð¾Ð´Ð¾Ð±":1139,"ÑİÑĤÑĮ":1140,"ÑĢÐ°ÑĤÐ¸":1141,"Ð¾ÐºÑĬ":1142,"ĠÑģÐ»Ð°Ð²":1143,"ĠÐ±ÑĭÐ»Ð¾":1144,"ÐµÑİ":1145,"ĠÐ¼Ð¾ÑĢ":1146,"ĠÐ¿Ð¾ÑģÑĤÐ°Ð²":1147,"ĠÐ°ÑĢ":1148,"ÑģÑĤÑĮÑı":1149,"ÑħÐ¾":1150,"ĠÑħÑĢÐ°":1151,"ĠÐ¼Ð°ÑĤ":1152,"ĠÐºÐ½ÑıÐ·Ñı":1153,"ĠÐ·Ð°Ðº":1154,"ĠÐ´ÑĮ":1155,"ÑģÐºÐ¾Ð¼":1156,"ĠÐ¼Ñ§":1157,"ĠÐ£":1158,"ĠÑģÐµÐ±Ñ£":1159,"ĠÐºÐ¾Ð»":1160,"ĠÐ±êĻĳ":1161,"ĠÐºÐ½Ð¸":1162,"ĠÐ¾Ðº":1163,"Ð°Ð½ÑĬ":1164,"Ð°Ð»ÑĮ":1165,"ĠÑĢÐ°Ð·Ñĥ":1166,"ÐµÐ²Ñĭ":1167,"ĠÑģÐ°Ð¼ÑĬ":1168,"ÑĩÐ¸Ð½":1169,"ĠÐ½Ð°Ð´":1170,"Ð°ÑĢÑĮ":1171,"ĠÐ¥":1172,"ÑīÐµÐ½":1173,"ĠÐ¼Ð»":1174,"ĠÐ¸Ð·ÑĬ":1175,"Ð½Ñ¹":1176,"Ð¾Ð¼ÑĮ":1177,"Ð¿Ñĥ":1178,"ÒĥÂ·":1179,"ĠÐ´Ð¾Ð²ÐµÐ´":1180,"ÑģÑĤÑĥÐ¿":1181,"Ñ§ÑĤ":1182,"Ð½ÑĭÐ¹":1183,"ĠÑĤÐ¾ÑĤ":1184,"ĠÐ±ÑĥÐ´ÐµÑĤÑĬ":1185,"ĠÐ¼Ð¸ÑħÐ°":1186,"ÑģÐºÐ°Ð³Ð¾":1187,"Ð½Ð¸ÐºÑĬ":1188,"ĠÐ²ÑģÐµÐ°":1189,"Ð¸Ð¼Ð°":1190,"ÐµÐ´ÑĬ":1191,"ÑĤÐ¾ÑĢ":1192,"ĠÐ±Ð»Ð°Ð³":1193,"ÐµÐ¸":1194,"ÑħÐ¸":1195,"Ð½êĻĭ":1196,"ÑĪÐº":1197,"ÑīÑĮ":1198,"ĠÐ´Ð»Ñı":1199,"ĠêĻĩ":1200,"ĠÑģÐ»Ð¾Ð²Ð¾":1201,"ÑģÐºÐ¾Ð¼Ñĥ":1202,"ĠÑĢÑĭ":1203,"Ð¸Ð»Ð°":1204,"ĠÐµÐ´Ð¸Ð½":1205,"Ð½Ð¾Ð¼Ñĥ":1206,"ÑİÑīÐµ":1207,"ÑĢÐ¾Ð¿":1208,"ĠÑĢÑĥÑģÐ¸":1209,"ĠÐ¼Ð¾Ð¸":1210,"ÐºÑĢÐ°":1211,"ĠÑģÑĭÐ½Ð°":1212,"ĠÐ¾Ð½ÑĬ":1213,"ĠÐŁÐ¾":1214,"ĠÐ¿Ð»":1215,"ĠÐ±Ð¾ÑıÑĢ":1216,"ĠÐ¾Ð³":1217,"Ġ-":1218,"ÑĸÑı":1219,"Ð¸Ð´Ðµ":1220,"ĠÐ¿Ð¾Ð²ÐµÐ»Ñ£":1221,"Ð¾Ð´Ñ£":1222,"ĠÐ±ÑĭÐ²Ð°":1223,"ĠÐ¿ÐµÑĤ":1224,"Ð±ÑĮ":1225,"ÑģÐºÐ¾Ðµ":1226,"Ð´Ð¾ÑĪÐ°":1227,"ĠÐ·Ð´":1228,"ĠÑģÑĬÑĤÐ²Ð¾ÑĢ":1229,"ĠÑģÐ¾Ð»":1230,"ĠÎ¹":1231,"ĠÐ½Ð°ÑĪÐµ":1232,"ÑĪÑĤÐ¸":1233,"ĠÑģÐ¼ÐµÑĢ":1234,"ĠÑģÑĤÐ°Ð½":1235,"ĠÐ´Ð¾Ð±ÑĢ":1236,"ÑģÑĭ":1237,"Ð¸Ð½Ð°":1238,"ÐµÑĤÐ°":1239,"ĠÐ½Ð°ÑĪÐ¸":1240,"ÐºÐ¾Ð¼ÑĬ":1241,"Ð½Ð¾Ñĥ":1242,"ĠÐ¿Ð¾ÐºÐ»Ð¾Ð½":1243,"ĠÑģÐµÐ»":1244,"ÑģÐºÐ¸Ðµ":1245,"ĠÑģÐ»Ð¾Ð²ÐµÑģ":1246,"ÑĪÑĥ":1247,"ĠÑĨÐ°ÑĢÑİ":1248,"ĠÐ¼ÑĮ":1249,"ÑĢÑ£Ð¿":1250,"ĠÐ´Ð¾Ð²ÐµÐ´ÐµÑĤÑģÑı":1251,"ĠÐ¿Ð¾ÑĪ":1252,"Ð¸Ð´":1253,"Ð¾Ð³Ð°":1254,"Ð°Ð½ÑĮ":1255,"ĠÐ±ÑĭÑģÑĤÑĮ":1256,"Ð¶ÑĬ":1257,"ĠÐ´Ð¸":1258,"ÐµÑĢÐ¸":1259,"Ð½ÑĸÐµ":1260,"ĠÐ¿Ñ£":1261,"ĠÐ¡Ðµ":1262,"Ð¸Ð½ÑĬ":1263,"ĠÐ¿ÐµÑĢÐµ":1264,"ÑĢÐµÐ´":1265,"Ð¿Ñ£":1266,"ĠÐ²ÑģÐµÐ¼":1267,"ÐµÐ²Ñĥ":1268,"ĠÑł":1269,"Ð¾Ð²Ð°ÑĤÐ¸":1270,"Ð½ÑĥÑĤ":1271,"ĠÐ¶ÐµÐ½Ð°":1272,"ĠÐ¼Ð¾ÑģÐº":1273,"ĠÑĤÑ§":1274,"Ð°ÑĪÐµ":1275,"Ð¾Ð²Ð¸Ñĩ":1276,"ĠÐ²ÐµÐ»Ð¸ÐºÐ¾Ð³Ð¾":1277,"ÑĪÐµÐ½":1278,"Ð´Ð°ÑĤÐ¸":1279,"ĠÐ¯":1280,"ÐºÐ¾Ñİ":1281,"ĠÑĤÐµÐ±Ðµ":1282,"ĠÐ³Ð¾Ð²Ð¾ÑĢ":1283,"ÐµÑĨÑĬ":1284,"ÑĤÐ²":1285,"ĠÐ²ÑģÑıÐºÐ¸":1286,"ĠÑ£":1287,"Ð°ÐºÐ¾":1288,"Ð½ÐµÑģ":1289,"ĠÑĦÐµÐ´Ð¾ÑĢ":1290,"ĠÐ´Ð¾Ð»":1291,"Ð±ÑĬ":1292,"Ñ¹Ð´":1293,"ĠÑĤÐ¾Ð¼ÑĬ":1294,"ĠÐ½Ð°ÐºÐ°Ð·":1295,"ĠÐ²Ð¾Ð»Ð¾Ð´":1296,"Ð²ÑĪÐµ":1297,"ĠÐ´ÐµÐ»":1298,"ĠÐ¸Ð¼Ð°":1299,"ĠÐ½ÑĬ":1300,"ÑĩÐµÐ½":1301,"ĠÑĩÐµÑĤÐ²ÐµÑĢ":1302,"ĠÐ¼ÑĬ":1303,"Ð¸Ð¼ÑĮ":1304,"Ð°ÑĢÑı":1305,"ĠÐ±Ð°":1306,"Ð½êĻĳ":1307,"ĠÐ´Ð¾Ð±ÑĢÑĭ":1308,"ÑĤÑĥ":1309,"ÑģÐ»Ð°Ð²":1310,"ĠÑĩÐ¸Ñģ":1311,"ÑİÑī":1312,"ĠÐ½ÐµÐ±":1313,"ĠÑģÐ²ÑıÑĤ":1314,"ÑģÑĤÑĢÐ¾":1315,"ĠÐºÐ¾Ñĥ":1316,"Ð²Ð¾Ð»":1317,"ÐµÑĢÑĮ":1318,"Ð¾Ð½ÑĮ":1319,"ĠÐ²Ð¾Ð·Ð¼":1320,"ĠÑģÐ»ÑĥÐ¶":1321,"ĠÑĥÑĩÐ¸Ð½Ð¸":1322,"ĠÐ¼Ñ¹":1323,"ĠÑģÐ»ÑĭÑĪÐ°":1324,"ĠÐ°Ð½Ð´":1325,"ĠÐĿÐ¾":1326,"ĠÐ±Ð¾Ð»ÑĮ":1327,"Ð´Ñ§":1328,"ĠÐ²ÑĬêĻģ":1329,"ĠÐ¼ÐµÐ½Ðµ":1330,"ÑĨÑĬ":1331,"ĠÐ±ÑĢÐ°ÑĤÑĮ":1332,"Ð¸Ð¼Ð¸":1333,"Ð½Ð¾Ð¸":1334,"Ð½Ð¸ÑĤÐ¸":1335,"ĠÑģÑĤÐ¾Ð»":1336,"ĠÐ¾Ð±Ñĭ":1337,"ÑĪÑĬ":1338,"Òĥ:":1339,"ÐºÑ¹":1340,"ĠÑĤÐ¾Ð²":1341,"ĠÑģÑĤÐµ":1342,"ÑĢÑİ":1343,"ÑģÐºÐ¸Ñħ":1344,"ĠÐ¼Ð°ÑĢ":1345,"ĠÐ¿ÑĢÐ°":1346,"Ð²Ð°ÑĤÑĮ":1347,"Ð²ÐµÑĤ":1348,"ÐºÐ¾Ðµ":1349,"ĠÐ¼ÐµÐ½Ñı":1350,"ÑģÑĤÑĢÐ°":1351,"ĠÑħÑĢÐ¸":1352,"ĠÐ±Ð»Ð°Ð³Ð¾":1353,"Ð¾ÑĪÐ°":1354,"ĠÐ¸Ð³Ñĥ":1355,"ĠÑĥÐ±Ð¾":1356,"ĠÐ¿ÑĢÐ¾Ð´Ð°":1357,"ĠêĻĸ":1358,"ĠÐ½ÑĮ":1359,"ĠÐ¿Ð¾Ð·":1360,"ÑĢÐ¾Ð²":1361,"ÑģÑĤÐ°Ð½":1362,"ÑģÐ»Ð¸":1363,"Ð¶Ð´Ðµ":1364,"ĠÑĩÑĮ":1365,"ĠÑĤÑĮ":1366,"Ð°Ð²ÑĬ":1367,"ĠÐ¶Ð°Ð»":1368,"ÑħÑĮ":1369,"ĠÐ¿Ð¾Ð´ÑĬ":1370,"ĠÑĨÐµÑĢ":1371,"ĠÐ²Ð¾Ñģ":1372,"ĠÑ¥Ð³Ð¾":1373,"ĠÑģêĻĭ":1374,"ĠÐºÐ¾ÑĢÐ¾Ð»":1375,"ĠÑĤÐ¾ÑĢ":1376,"ĠÐ¿Ð¾Ð»Ð¾":1377,"Ð¿Ð¸Ñģ":1378,"Ð¸ÑĪÐ°":1379,"ĠÐ¿Ð¾Ð¶Ð°Ð»":1380,"ĠÐ²ÐµÐ»Ð¸ÐºÐ°":1381,"Ð½Ð¾Ð¼ÑĬ":1382,"Ð¸ÑĤÐµÐ»":1383,"ĠÐ¡ÑĤ":1384,"ĠÐ±Ð¸ÑĤÐ¸":1385,"ĠÐ±ÑĥÐ´ÐµÑĤÑĮ":1386,"Ð¼êĻĭ":1387,"ĠÐ²ÑģÐ¸":1388,"ÐºÐ¾Ð³Ð¾":1389,"ĠÐ½Ð¾Ð²":1390,"Ð»Ð¾Ð²":1391,"Ð¸Ð¸":1392,"ĠÑĨÑ£":1393,"ĠÐ¿Ð¾Ñĩ":1394,"ÑģÐºÐ¾Ð¸":1395,"ĠÐ¾Ð±ÑĢÐ°":1396,"ĠÐ´ÐµÑĤ":1397,"Ð´êĻĭ":1398,"ĠÐ½Ð°Ñĩ":1399,"ĠÐ¼Ð¾Ð¶Ðµ":1400,"ĠÐ½Ð°ÑģÑĬ":1401,"ĠÐ¿Ð¸ÑģÐ°":1402,"ĠÑĨÐ°ÑĢÑı":1403,"Ð¾ÑģÑĤÑĮ":1404,"Ð»Ð°Ð´":1405,"ĠÐ¿ÑĢÐ¾Ð¼":1406,"Ñ§ÑĤÐ¸":1407,"ÐºÑ£":1408,"ĠÐ¼Ñ£ÑģÑĤÐ¾":1409,"ĠÐ¼Ð¾Ð³":1410,"ĠÑģÐ²Ð¾Ð¸ÑħÑĬ":1411,"ÑģÑĥ":1412,"ĠÑĤÐ°Ð¼":1413,"Ð¼Ð¸ÑĤ":1414,"Ð±Ñĥ":1415,"ĠÑģÐºÐ°Ð·":1416,"ĠÑĤÐ¾Ð¹":1417,"Ð¾Ð¶ÑĮ":1418,"ĠÐ¸ÑģÐº":1419,"ĠÑĢÐ¾Ñģ":1420,"Ð³Ñĭ":1421,"Ð¾Ð¶Ð°":1422,"ĠÑģÐ²Ð¾Ð¸Ð¼ÑĬ":1423,"ĠÑĩÐµÐ»Ð¾Ð±":1424,"ĠÓı":1425,"ÑħÐ¾Ð¼ÑĬ":1426,"ĠÐµÐ³Ð´Ð°":1427,"ĠÑĥÐ¼":1428,"ĠÑĪÐµ":1429,"Ð³ÑĢÐ°":1430,"ĠÐ¼êĻĭ":1431,"Ð½Ð¸ÐºÐ¸":1432,"ĠÑĢÐ°êĻģ":1433,"ĠÐµÐ´Ð¸":1434,"Ð½ÐµÐ½":1435,"ĠÑģÐ²Ð¾Ð¸Ñħ":1436,"ĠÐ´Ð¾Ð±ÑĢÐ¾":1437,"ĠÐ¿ÐµÑĩ":1438,"Ð¶Ð°ÑĤÐ¸":1439,"Ð°ÑĢÑĭ":1440,"ÐµÑĢÑĬ":1441,"ĠÑĢÐµÑĩ":1442,"ĠÐ²Ð¾ÐµÐ²":1443,"ĠÐ±êĻĭÐ´":1444,"ĠÐ¿Ð¾ÑģÐ»":1445,"ĠÐ±Ð¾Ð³Ð°ÑĤÑĭ":1446,"ĠÐ¾Ð´":1447,"ĠÑĥÐ±":1448,"ĠÑĤÐ°ÐºÑĬ":1449,"ÑħêĻĭ":1450,"ÑģÐ»Ñģ":1451,"ĠÐ¿Ð°ÑĩÐµ":1452,"ĠÐ±Ð»Ð¸":1453,"ĠÐºÐ¸":1454,"Ð²Ð°Ð½":1455,"ĠÐ²Ð¾Ð»Ð¾Ð´Ð¸Ð¼":1456,"ĠÐµÐ²Ð¾":1457,"ÑĤÐ¸ÑĤÐ¸":1458,"ĠÑĩÐ»Ð¾Ð²Ñ£":1459,"ĠÐ³ÑĢÐ°Ð´":1460,"ĠÐ²Ð°Ð¼ÑĬ":1461,"ĠÐºÑĢÑ£Ð¿":1462,"ĠÐ¿Ð°ÑĤ":1463,"Ð¾ÑĤÐ°":1464,"ĠÐ²Ð¾ÑĢ":1465,"ĠÐ¼Ð¸ÑĤ":1466,"Ð²Ð°Ð»Ð¸":1467,"ÑģÐºÑĥÑİ":1468,"ĠÐºÑĢÐ°Ñģ":1469,"ĠÐºÐ½ÑıÐ·Ñİ":1470,"ĠÐ´Ð²":1471,"Ð±Ð¾ÑĢ":1472,"ĠÐ´ÐµÑĢÐµÐ²Ð½Ñı":1473,"ĠÑģÐ²Ð¾Ñ¥":1474,"ÑĪÐºÐ¸":1475,"ĠÐ½Ð¸Ð¼ÑĬ":1476,"ĠÐ²Ð¿":1477,"ĠÒ":1478,"ĠÐµÑı":1479,"ĠÐºÐ¾Ð¼Ñĥ":1480,"Ð¸ÑĪÐ¸":1481,"Ð½Ñĸ":1482,"ĠÐ¾ÑĩÐ¸":1483,"ÑĢêĻĭ":1484,"Ð¾Ð²Ð°Ð»":1485,"ÐµÐ¶Ðµ":1486,"ĠÐ¿Ð¾Ñħ":1487,"Ð¾Ð²Ð¸ÑĩÐ°":1488,"ĠÐ½Ð¸ÑħÑĬ":1489,"ÐºÐ¾Ð²Ð°":1490,"ĠÑģÐºÐ°":1491,"ĠÑıÐºÐ¾Ð¶Ðµ":1492,"ĠÐ¿Ð¾ÑģÐ»Ñ£":1493,"Ð²Ð¾Ð´":1494,"ĠÐ¼Ð¸Ð»Ð¾ÑģÑĤÐ¸":1495,"Ð¾Ð»ÑĮÐºÐ¾":1496,"Ð¾Ð²Ñ£Ð´Ð°":1497,"ĠÐ»ÑİÐ´ÐµÐ¼":1498,"ĠÐ¿ÑĢÐ¾ÑĤÐ¸Ð²":1499,"ÐºêĻĭ":1500,"Ð½Ð¸Ñİ":1501,"ĠÐ¾ÑĤÐ´Ð°":1502,"ĠÐ¶Ð¸Ð²":1503,"Ð¸Ð½ÑĮ":1504,"ĠÐ½Ð°ÑĩÐ°":1505,"ĠÐ¿ÑĥÑģÑĤÐ¾":1506,"ĠÑĢÑĥÑģÐ¸Ð¸":1507,"ÑĹÐµ":1508,"ĠÐ¸Ð¼Ð°ÑĤÐ¸":1509,"ĠÑıÐ´":1510,"Ð²ÑĢÐ°":1511,"ĠÐ¿Ð¾ÐºÐ°":1512,"ÑģÑĤÐ²Ñĥ":1513,"Ð¸Ð¼Ð¾":1514,"Ð¾Ð»Ñ£":1515,"ĠÒĤ":1516,"ĠÑĢÐ¸":1517,"ÐµÑĨÑĮ":1518,"Ð³Ð¾Ð¶Ðµ":1519,"ĠÑĤÑĢÐµ":1520,"ĠÑģÐ²Ð¾ÐµÐ¼Ñĥ":1521,"ĠÐ²ÑģÑ£ÑħÑĬ":1522,"Ð²Ð¾Ðµ":1523,"ĠÑĤÐ¾Ð»":1524,"ÑĪÑĤÐ°":1525,"00":1526,"ĠÐĿÐ¸":1527,"ĠÐľÑĥ":1528,"ÑĨÑİ":1529,"ĠÐ¼Ð½Ðµ":1530,"ĠÐºÐ½":1531,"ĠÐŁÑĢÐ¸":1532,"ĠÐ´Ð½Ð¸":1533,"Ð½Ð¾Ð²":1534,"Ð¸Ðµ":1535,"ĠÑģÐµÐ±Ñı":1536,"ĠÐºÑĢÑĥ":1537,"Ð°Ð»Ð¸":1538,"ĠÐ¿Ð¾ÑģÐ»Ñĥ":1539,"ĠÐ²Ð°ÑĢ":1540,"ÑħÐ¾Ð²":1541,"ĠÐ°Ð¿":1542,"ĠÐ²ÑĢÐµÐ¼Ñı":1543,"ĠÐ³ÑĢÐ¸Ð³Ð¾ÑĢ":1544,"Ð¸Ñı":1545,"Ð¸ÑĤÑģÑı":1546,"ĠÐ¿Ð°Ð¼":1547,"ÑĨÑ§":1548,"ĠÐ´ÑĬ":1549,"ĠÐ±ÑĬ":1550,"ĠÐ±Ñĥ":1551,"ĠÐ´ÐµÑģ":1552,"ĠÐ¿ÑĢÑı":1553,"ĠÑģÐ²Ð¾ÐµÐ¹":1554,"Ð¶Ð´Ð°":1555,"ĠÐºÐ¾Ð»Ð¸":1556,"Ð½ÐµÑĤ":1557,"Ð½Ð¸ÑĨÐ¸":1558,"Ð°Ñħ":1559,"ĠÑģÐºÐ¾ÑĢ":1560,"ÑĪÑİ":1561,"ĠÐ²ÐµÐ»Ð¸ÐºÐ¾Ð¼Ñĥ":1562,"ĠÐ²Ð¾ÑĤÑĩÐ¸":1563,"ĠÐ½ÐµÐ±ÐµÑģ":1564,"ĠÐ´Ð°ÑĤÐ¸":1565,"ĠÑĢÑ¹":1566,"ÐµÐ½ÑĸÐµ":1567,"ĠÑģÐµÐ»Ð°":1568,"ĠÑģÐ¾Ð±Ð¾Ñİ":1569,"Ð»Ð¾Ð¶":1570,"ĠÐ²Ð¾Ð¸Ð½":1571,"ĠÑĤÐ°ÑĤ":1572,"ĠÐ²ÑĬÑģ":1573,"Ð½Ð°Ñ§":1574,"ÑģÐ»Ð¾Ð²":1575,"ÑĪÐºÐ¾":1576,"Ð¸Ð½Ñ£":1577,"Ð¾ÑĤÑĭ":1578,"ĠÐĴÐ»Ð°":1579,"ĠÐĲÐ¶Ðµ":1580,"ÐºÑĮ":1581,"ĠÐ¼Ñı":1582,"ĠÑģÑĭÐ½ÑĬ":1583,"ĠÑĢêĻĭ":1584,"ĠÐ²ÑĭÑģ":1585,"ÑģÑĤÐ°Ð²Ð¸":1586,"ÑģÐ½Ð¾":1587,"ĠÐ¿ÑĢÑĸ":1588,"ĠÑģÐ²Ð¾Ð¸Ð¼Ð¸":1589,"ĠÐ¤":1590,"ĠÑģÐµÑĢÐ´":1591,"ĠÑģÐ²Ñı":1592,"ĠÐ±Ð¸":1593,"ĠÐ¶Ð¸ÑĤÐ¸":1594,"ĠÑ¾":1595,"Ð½Ñ«":1596,"Ð³Ð½Ð°":1597,"ĠÐ¿Ð°ÐºÑĭ":1598,"ĠÑĤÐ¾Ð³Ð´Ð°":1599,"Ð°ÐºÑĬ":1600,"ĠÑĤÑ£Ð¼ÑĬ":1601,"ĠÐ´Ð°ÑĢ":1602,"ĠÐ±ÐµÑĢÐµ":1603,"ĠÐ¿Ð¾ÑĢÑĥ":1604,"Ð¶Ð´":1605,"ĠÐĺÐ»ÑĮ":1606,"ÑıÐ²":1607,"Ñ§ÑĪÐµ":1608,"ĠÑĤÐµÐ±Ñı":1609,"ĠÐ´Ð¾ÑĢ":1610,"ĠÐ³Ð»Ð°Ð²":1611,"ĠÑģÐ¼Ñ£":1612,"ĠÐ¸Ð´Ðµ":1613,"Ð¾Ð»Ð¾":1614,"ĠÐ³Ð½Ñ£":1615,"ĠêĻģÐ°":1616,"ĠÑĨÐµÐ»":1617,"ĠÑĢÐ°Ð´Ð¾":1618,"ÑĭÑħ":1619,"ĠÑĥÑĩÐ½ÑĥÑĤ":1620,"Ð¼Ñı":1621,"ĠÐ±ÑĥÐ´Ñĥ":1622,"ĠÑģÑ«":1623,"ĠÑĩÐ°Ñģ":1624,"ĠÑĢÐ°Ð±":1625,"ĠÐ²Ð°ÑģÐ¸Ð»":1626,"ĠÐ¸Ð»ÑĮ":1627,"Ð½Ð¸ÑĨÐ°":1628,"ÐµÐ»Ðµ":1629,"ĠÑĤÐ¾Ð¸":1630,"Ð¾Ð½Ñĥ":1631,"ĠÐ¦":1632,"êĻĳÐ¸":1633,"ĠÐ²ÑģÑ£Ð¼ÑĬ":1634,"ĠÐ¿Ð¾Ð±Ñ£":1635,"ĠÐ¿Ð¾Ð¼Ñĭ":1636,"Ð¾ÐºÐ°":1637,"ĠÑħÑĢ":1638,"ĠÐ³ÑĢÐ°Ð´ÑĬ":1639,"Ð¶ÐµÐ½":1640,"Ð´Ñı":1641,"Ð¾Ð²ÑĭÑħ":1642,"ÑĭÐ¸":1643,"ĠÐ¿Ð¾Ð´Ð¾Ð±Ð°":1644,"ĠÐ¿Ð¾ÑģÐ°Ð´":1645,"ÑĪÑı":1646,"Ð¾Ð¶Ð½Ð¾":1647,"Ð»Ð°ÑĤÐ¸":1648,"ĠÑĪÐ¸":1649,"Ð°Ð½Ð°":1650,"Ð½Ð¸ÑĨÑĭ":1651,"ĠÐ¼Ð¾Ð»Ð¸ÑĤ":1652,"Ð¼Ð¾Ñĥ":1653,"ÑĢÐ¾Ð¿Ð¾Ð»":1654,"Ð´ÐµÑĤÑĮ":1655,"Òį":1656,"ĠÐ¶ÐµÐ½Ñĭ":1657,"ĠÐ²Ñ£ÑĢ":1658,"ÐµÐ²Ð¸Ñĩ":1659,"ĠÑģÐ²Ð¾ÐµÑİ":1660,"ĠÑĤÐ²":1661,"ĠÑıÐ²":1662,"Ð´ÐµÑĤÑĬ":1663,"ĠÑĩÑĤÐ¾Ð±ÑĬ":1664,"ĠÐºÐ¾Ð½ÑĮ":1665,"ĠÐ´Ð¾Ð¿":1666,"ĠÑıÐ·Ñĭ":1667,"ĠÐ³ÑĢÐ°Ð´Ð°":1668,"ÐµÐ¼êĻĭ":1669,"ĠÐµÑģÐ¼Ð¸":1670,"Ð¾ÑĤÑĬ":1671,"ĠÐ»ÑİÐ±Ð¾":1672,"Ġ2":1673,"ĠÐ´Ð¾Ð±ÑĢÐ°":1674,"ĠÑħÐ»Ñ£":1675,"ÑģÐºÐ¾":1676,"ĠÐ¿ÑĥÑĪÐº":1677,"ĠÐºÐ¾Ð¿":1678,"ĠÐ¾Ð±ÑĬ":1679,"ĠêĻ©":1680,"ĠÐľÑĥÑĢÐ¾Ð¼":1681,"ĠÐºÑĢÐµÑģÑĤÑĮÑı":1682,"ÐµÐ²Ð¸ÑĩÐ°":1683,"Ð¿ÑĢÐ°":1684,"ĠÑĤêĻĳ":1685,"ÑĨÐ¾Ð²":1686,"ĠÐ¡ÑĬ":1687,"ĠÐŀÑĤ":1688,"Ð¾ÑĤÑ£":1689,"ÐºÐ²Ð¸":1690,"Ð°Ð½ÑĸÐµ":1691,"ĠÐ°Ð·ÑĬ":1692,"ĠÐ½Ð¸Ð¼Ð¸":1693,"Ð³Ð°ÑĢ":1694,"ĠÐ·Ð°Ð¿Ð°Ñģ":1695,"Ñ§Ñī":1696,"ĠÐ¿Ð¾ÑģÐ»Ðµ":1697,"ĠÑĤÑĢÐ¾":1698,"Ð¶Ñĥ":1699,"ĠÑģÑĤÐ²Ð¾ÑĢ":1700,"ĠÐ¿Ð¾ÑĪÐ»Ð¸":1701,"Ð»Ð¾Ð±":1702,"ĠÐ¼Ð°Ð½Ð°":1703,"Ê¼":1704,"ĠÐ±ÑĢÐ°ÑĤÐ°":1705,"ĠÑĥÐµÐ·":1706,"ĠÐ²êĻĳ":1707,"ÐºÐ¾Ð¸":1708,"ĠÐ¿ÐµÑĢÐµÐ´":1709,"ĠÐ´ÑĢÑĥÐ³":1710,"Ð¾Ð½Ð¸":1711,"ĠÐ¸Ð²Ð°Ð½Ð°":1712,"ĠÐ¿ÑĢÐµÑĩÐ¸":1713,"ÑģÐºÐ¸ÑħÑĬ":1714,"Ð¾Ð¼Ð¾":1715,"âĢĲ":1716,"ĠÐ¿ÑĮ":1717,"ĠÐ½Ð±":1718,"ÑĸÐµÐ¼ÑĬ":1719,"Ð³Ð¾Ð²Ð¾ÑĢ":1720,"ÐµÐ²Ð¸ÑĩÑĮ":1721,"ĠÐ³ÑĢÐ¸Ð²ÑĮ":1722,"ÑģÑĤÑĮÑıÐ½":1723,"Ð¾Ð²Ð¸ÑĩÑİ":1724,"Ð¾Ð±ÑĮ":1725,"ĠÑģÑĤÐ°Ð²":1726,"ĠÐĸ":1727,"ĠÐ³Ñĥ":1728,"Ð½Ð°Ð°":1729,"ĠÐ±ÑĥÐ´ÑĥÑĤ":1730,"ĠÐĴÐ»Ð°Ð´Ð¸":1731,"Ð¾Ð·Ð¸":1732,"ĠÑģÑĥÑĤÑĮ":1733,"Ð°Ð»Ð¾":1734,"Ð¾Ð²Ð¸ÑĩÑĮ":1735,"ĠÐ²Ð·Ñı":1736,"ĠÐ³Ð¾ÑģÑĥÐ´Ð°ÑĢÑı":1737,"ĠÐ´Ñ£Ð»Ð¾":1738,"Ð¾Ð¼Ñ¹":1739,"ĠÐĳÐ¾Ð¶Ð¸":1740,"Ð²Ð¾Ñİ":1741,"ĠÐ´Ð°Ð½Ð¸":1742,"Ð¾Ð±Ð¾Ð´":1743,"ÑĭÐ¼ÑĬ":1744,"ĠÑĢÐµÐº":1745,"ĠÐ¢Ð°ÐºÐ¾":1746,"ĠÐ¿ÑĢÐ¸ÑħÐ¾Ð´":1747,"ĠÐ¼Ð°Ðº":1748,"ĠÑģÐ¸ÑĨÐµ":1749,"ĠÐ»ÐµÑģ":1750,"ĠÑģÐ¾Ð²":1751,"ĠÑģÑĢ":1752,"ĠÐºÑ¹":1753,"ĠÐ³Ð´Ñ£":1754,"ĠÐµÐ»Ð¸":1755,"ĠÑģÐ»Ñ¹":1756,"Ð·Ñ£":1757,"ĠÑ¥Ð¼Ñĥ":1758,"Ð°Ð½Ðµ":1759,"ĠÐŁÑĢ":1760,"ĠÐ´Ð¼Ð¸ÑĤ":1761,"ÑĤÑģÑı":1762,"ĠÐ¿Ð¾ÐºÐ»Ð°":1763,"Ð¸Ð»Ñĥ":1764,"ÑĢÐ¾ÑģÑĤÐ¸":1765,"ÑĤÐµÐ»":1766,"ÑģÐ»Ñĭ":1767,"ĠÑģÐµÐ´":1768,"Ð¾Ð´ÑĬ":1769,"ĠÑĢÐ°Ð´":1770,"ĠÐ¾ÑĤÑĨÐ°":1771,"ĠÑĩÑİÐ´":1772,"-.":1773,"ĠÑģÐ²Ð¾Ñı":1774,"ĠÐ³Ð¾ÑģÑĥÐ´Ð°ÑĢÐµÐ²Ñĭ":1775,"ÐµÐ²Ðµ":1776,"Ð¾ÑĢÐ¾Ð´Ð¸":1777,"Ð¾ÑĢÐ°":1778,"ÑĤÑĨÐ°":1779,"ĠÐ¿Ð¾Ð¼Ð¾":1780,"Ð¿Ð¾":1781,"ĠÐ±ÑĭÐ»Ð¸":1782,"ĠÐ¿Ð°ÑĤÑĢÐ¸":1783,"ĠÐ¸êĻģ":1784,"ĠÐľÐ¸ÑħÐ°":1785,"ĠÐ²ÑģÐµÐ³Ð¾":1786,"ĠÑĩÐµÑĤÑĭ":1787,"ÑĥÐ´Ð¸":1788,"ĠÐ¿Ð¾ÑģÐ°":1789,"Ð±Ð°Ð»":1790,"Ð³ÑĢÑ£":1791,"ĠÐ»Ð°":1792,"ĠÐ²Ð¾Ð¸":1793,"ĠÐºÑĢÐ°Ð»ÐµÐ²":1794,"ĠÐĲÐ»ÐµÐºÑģÐ°Ð½Ð´ÑĢÑĬ":1795,"ĠÐ´Ð¾Ð½":1796,"ÐºÐ¾Ñĥ":1797,"Ð±Ð°Ð²":1798,"ÑīÑĥ":1799,"ĠÐ·ÐµÐ¼Ð»Ñı":1800,"ĠÐ´êĻĭ":1801,"ĠÑĤÑĢÐµÑĤÑĮ":1802,"Ð¾Ð»Ñİ":1803,"ĠÐ·Ð´Ñ£":1804,"Ð¿ÑĬ":1805,"ÑĩÐ½Ð¾":1806,"ĠÐ±ÑĭÐ»Ð°":1807,"ĠÐ½ÐµÐ¼Ñĥ":1808,"ĠÑĢÑĥÐ±Ð»ÐµÐ²":1809,"ĠÐ¼Ð¾Ð½Ð°ÑģÑĤÑĭÑĢÑı":1810,"ĠÐ¿êĻĭ":1811,"ĠêĻĹÐºÐ¾Ð¶Ðµ":1812,"ĠÑĤÐ¾Ð±Ð¾Ñİ":1813,"ĠÐľÐ¾":1814,"ÐµÐ¼Ð°":1815,"ĠÑ¡Ñģ":1816,"Ð¼Ñ§":1817,"ĠÑģÐ²Ð¾Ð¹":1818,"ĠÑĤÑ£ÑħÑĬ":1819,"ĠÐºêĻĭ":1820,"ÐºÐ¾Ð¹":1821,"Ð³Ð³":1822,"ÑģÑĤÑĢ":1823,"ĠÐ¾ÑĤÐ¿Ñĥ":1824,"ĠÐ¼Ð¾ÑģÐºÐ¾Ð²":1825,"ĠÐĳÐ¾Ð³Ð°":1826,"ĠÐ´ÑĮÑı":1827,"ĠÑĢÐ°Ð·ÑĥÐ¼Ñ£":1828,"ĠÐ¼Ð¾Ð¹":1829,"ÑĤÑĢ":1830,"ĠÐ´Ð¾Ð¼ÑĬ":1831,"Ð°ÑĤÐ°":1832,"ĠÐ½ÐµÐ¸":1833,"ĠÑĪÑĤÐ¾":1834,"ÑĪÑ«":1835,"ĠÐ¿Ð°ÑĤÑĢÐ¸Ð°ÑĢ":1836,"ĠÐ¼ÑĥÐ´":1837,"ĠÐ½êĻĳ":1838,"ĠÑĤÐ²Ð¾ÐµÐ³Ð¾":1839,".,":1840,"ĠÐ¿Ð°Ð²":1841,"ĠÐ¾ÑĥÐ±Ð¾":1842,"ĠÐ½Ð°ÑĪÐµÐ³Ð¾":1843,"Ð±ÑĭÐ²Ð°":1844,"Ġâ":1845,"ĠÐ¾ÑĤÐ²ÐµÑĤ":1846,"ĠÐ·ÑĬ":1847,"ÑĪÑĤÑı":1848,"ÐºÐ¾Ð²ÑĬ":1849,"Ð¾Ð½Ñĭ":1850,"Ð¼Ñ¹":1851,"ĠÐ¼Ñ£ÑģÑĤÐ°":1852,"Ð³Ñ¹":1853,"ĠÐ²ÑģÐµÐ¼ÑĬ":1854,"ĠÐ³Ð°":1855,"ĠÑģÐ°Ð¼Ð¸":1856,"ĠÑģÐ¾Ñĥ":1857,"Ð²Ð°Ð»ÑĬ":1858,"ĠÑĥÐ³Ð¾Ð´":1859,"ĠÐ½Ð°Ð¼":1860,"ÑİÑīÐ¸":1861,"ĠÐ´Ð¾ÑģÑĤÐ¾":1862,"ÑģÐºÐ¸Ð¼":1863,"ÐµÑĤÐ¸":1864,"ĠÑģÐ½Ð°":1865,"Ð·Ñĥ":1866,"ĠÐ½ÐµÐ¼ÑĬ":1867,"êĻģÐ°":1868,"ĠÑĩÐµÐ»Ð¾Ð¼ÑĬ":1869,"ĠÐ½Ð°Ð´Ð¾Ð±":1870,"--":1871,"ĠÐ´ÐµÐ»Ð°":1872,"ĠÐ¢Ð¾":1873,"ĠÐ¿Ð¾Ð»ÑĬ":1874,"ĠÐ±ÑĥÐ´Ð¸":1875,"ĠÐ´Ð°Ð»":1876,"ĠÐ½Ð°Ð¿Ð¸ÑģÐ°":1877,"ĠÐ¸Ð¼ÐµÐ½":1878,"Ð±Ñ¡":1879,"Ð¾Ð»ÑĬ":1880,"ĠÐ³Ð¾":1881,"ĠêĻģÐµÐ¼":1882,"ĠÐ»ÑİÐ´ÑĮ":1883,"ĠÐ²ÑģÐµÐ³Ð´Ð°":1884,"ĠÐºÑĢÐµÑģÑĤÑĮÑıÐ½":1885,"ĠÐ½Ð¸ÐºÐ°":1886,"Ð»Ð¾Ð¶Ð¸":1887,"Ð°ÑĢÑĬ":1888,"Ð½ÑĸÐ¸":1889,"ĠÐ¢Ñ£":1890,"ĠÑĩÐµÐ»Ð¾Ð±Ð¸ÑĤ":1891,"ÑĤÐ¾Ð¶Ðµ":1892,"ÑİÑĢ":1893,"Ð¾Ð¼êĻĭ":1894,"ĠÑģÐ¼Ð¾ÑĤ":1895,"ĠÐ²Ð½Ð¸":1896,"ĠÐ²Ð´":1897,"ĠÐºÐ»Ð°":1898,"ÑĢÑĤ":1899,"Ð¾ÐºÐ¾":1900,"ĠÐ¶Ð¸ÑĤ":1901,"ĠÐ±ÑĢÐ°ÑĤÐ¸":1902,"ÑģÐºÐ¾ÑĢ":1903,"ĠÐ²Ð°ÑĪÐµ":1904,"âĢĿ":1905,"ĠÐ²Ð°ÑģÑĬ":1906,"ÐºÐ¾Ð¼Ñĥ":1907,"ĠÐµÑīÐµ":1908,"ĠÐºÐ½Ñ§Ð·":1909,"ĠÐ°ÑĢÑħ":1910,"Ð¾Ð½Ðµ":1911,"ĠÐ²ÐµÐ´":1912,"ĠâĢĲ":1913,"ÑĭÐ¹":1914,"ĠÐµÐ´":1915,"ĠÐ°ÑĪÑĤÐµ":1916,"ĠÐ¸Ð¼Ñı":1917,"ĠÐ½Ð¾Ð³":1918,"ÑĨÐºÐ¸":1919,"ĠÐ¿Ð¾Ð¸":1920,"ĠÐĵÐ¾ÑģÐ¿Ð¾Ð´ÑĮ":1921,"ĠÐ²ÑĢÑ£":1922,"Ð½Ð¸ÐºÑĥ":1923,"ĠÑĨÑĢÐº":1924,"ĠÐ³Ð½":1925,"Ñ£Ð¸":1926,"ĠÐ´ÐµÐ²":1927,"Ð¾ÑĢÐ¸":1928,"ĠÐļÐ¸":1929,"ĠÐ¼Ð¾ÐµÐ³Ð¾":1930,"ĠÐ¸Ð³ÑĥÐ¼ÐµÐ½":1931,"ĠÐ¿Ð¾Ð»Ðµ":1932,"ĠÐ´Ð¾Ñģ":1933,"Ð²ÑĢÐ°ÑĤÐ¸":1934,"ÑĢÐ°Ð½":1935,"ĠÐ±ÑĭÐ»ÑĬ":1936,"ĠÐµÑģÐ¼ÑĮ":1937,"ĠÑĥÐºÐ°Ð·Ñĥ":1938,"Ð²ÑĪÐ¸":1939,"ĠÐ¼ÐµÑĢ":1940,"ÑıÑĤÑĬ":1941,"ĠÐ´ÐµÑĢÐµÐ²Ð½Ð¸":1942,"ĠÐ³ÑĢÐ°Ð¼Ð¾ÑĤÑĭ":1943,"ÑĮÑĸ":1944,"ĠÐ¼Ð¸Ð»":1945,"ĠÐ¿Ð¾Ð¼Ñ£":1946,"ĠÑĤÐ°Ð¼Ð¾":1947,"ĠÐºÐ°Ð±Ð°Ð»":1948,"ĠÐ½ÑĭÐ½Ðµ":1949,"ÑĭÑı":1950,"Ð½Ð¾Ð²Ð°":1951,"Ñ£Ð·":1952,"ÑĩÐ¸Ð½Ñĥ":1953,"ĠÐ°Ð½Ð´ÑĢÑ£":1954,"Ġ3":1955,"Ð´ÐµÑĤ":1956,"ĠÐ¼Ð°Ð»Ð¾":1957,"ÑĭÐµ":1958,"ĠÐ¸Ð¼Ñ£ÑĤÐ¸":1959,"ĠÑĩÐµÐ»Ð¾Ð²ÐµÐºÐ°":1960,"ĠÐ¿Ð¾Ð½ÐµÐ¶Ðµ":1961,"Ð¾ÑģÐ¸":1962,"Ð³Ð¾Ð²":1963,"ĠÑģêĻĻ":1964,"ÑģÐºÐ¸Ð¼ÑĬ":1965,"ĠÐ¿Ð¾Ð´Ð°":1966,"ĠÐ¸Ð»ÑĮÐ¸":1967,"Ð½Ð°Ð°Ð³Ð¾":1968,"ÑİÑīÐ°":1969,"Ð»ÑıÑĤÐ¸":1970,"Ð¾Ð¼Ð°":1971,"ÑĥÐ´Ð°":1972,"ĠÑģÐµÐ¼ÑĮ":1973,"Ð½Ð¸Ñ¥":1974,"Ð½Ð¸ÐºÐ¾Ð²":1975,"ĠÐ·Ð°Ð¿Ð¸Ñģ":1976,"ÑģÑĤÑĥ":1977,"ĠÑ«":1978,"ĠÐ¼Ð°Ð½Ð°ÑģÑĤÑĭ":1979,"ÑĹÐ¸":1980,"ĠÐĹÐ°":1981,"ÑĪÐ°Ð³Ð¾":1982,"ĠÑĥÑģÑĤÑĢÐ¾":1983,"ÑĭÐ¼":1984,"ĠÑĢÐ¶Ð¸":1985,"ĠÐ¿ÑĢÐ¸ÑģÑĤÐ°Ð²":1986,"ĠÐŁÐ¾ÑĤ":1987,"Ð±Ð»Ð¸":1988,"ĠÑģÐ¿Ð°Ñģ":1989,"ĠÐ²Ð¾ÑĤÑĩÐ¸Ð½":1990,"Ð´Ñ¹":1991,"ÑĨÐµÐ¼ÑĬ":1992,"ĠÑģÐ»Ð¾Ð²Ð°":1993,"ĠÑģÑĤÐ°ÑĤÑĮ":1994,"ĠÑģÑĤÑ£":1995,"ĠÐ²ÑģÑİ":1996,"ÑĹÑ§":1997,"ĠÐ²ÑĬÐ´Ð°":1998,"ĠÑģÐµÑĢÐµ":1999,"ĠÐ²Ð¸Ð½":2000,"ÐµÐ´Ð¸":2001,"êĻģÑĬ":2002,"ĠÐĳÐ¾Ð³ÑĬ":2003,"Ð½ÑĭÑ§":2004,"Ñ£Ð»Ð¾":2005,"ĠÐ¿ÑĢÑĸÐ¸":2006,"ĠÑħÐ¾Ñī":2007,"ĠÐĶÐ¾Ð±":2008,"ĠÐ³ÑĢÐ°Ð¼Ð¾ÑĤÐ°":2009,"ĠÐ¾ÑģÑĤÐ°Ð²":2010,"ĠÐĳÐ¾Ð³Ñĥ":2011,"ÑĩÐµÑĤ":2012,"ĠÐ±Ð¾Ð³Ð°":2013,"ĠÐŁÐ¾Ñģ":2014,"ĠÐ²Ð·ÑıÑĤÐ¸":2015,"ĠÐ³Ð¾Ð´Ñĥ":2016,"ĠÐ¼Ð¸Ð»Ð¾ÑģÑĤÑĮ":2017,"ÑģÑĤÐ²Ð¸":2018,"ĠÐ³Ð´Ðµ":2019,"ÐµÑĪÑĮ":2020,"ĠÐ´ÑĪ":2021,"ĠÐ¥ÑĢÐ¸":2022,"ĠÐ²Ð¾Ð¹":2023,"ÑıÑĪÐµ":2024,"ĠÑħÐ¾ÑĤÑ£":2025,"ĠÑĤÐ¾Ð±Ñ£":2026,"ĠÐ½Ð¾Ñģ":2027,"ĠÐ¾ÑĤÐ²ÐµÑĤÑĩÐ¸":2028,"ÑĩÐ°Ð»Ð¸":2029,"ĠÑģÑĤÐ°Ð½Ñĥ":2030,"ĠÐ´ÐµÐ½Ðµ":2031,"Ð¾Ð²Ð°Ð½":2032,"Ñ¡Ð²ÑĬ":2033,"Ð´Ð¸ÑĤÐ¸":2034,"ĠÑģÐ¼ÐµÑĢÑĤÐ¸":2035,"ĠÐ¿ÑĢÐ¸ÑģÑĤÑĥÐ¿":2036,"ÑĢÐ¾Ñİ":2037,"ĠÐ¿Ð¾ÑģÑĤ":2038,"ĠÑĥÐµÐ·Ð´Ðµ":2039,"ĠÐ³ÑģÐ´ÑĢÑĮ":2040,"ĠÐ±Ñ¹Ð´":2041,"ĠÑģÐ¾ÑĢ":2042,"ĠÐĨ":2043,"ĠÐ½ÐµÐ´ÑĢÑĥ":2044,"ĠÐ¼Ð½Ñ¡":2045,"ĠÐ°Ð»":2046,"Ð´ÐµÑģÑı":2047,"ĠÐ¼Ð¾Ñı":2048,"ĠÐ´ÐµÑģÑı":2049,"ĠÐ·Ð°Ð½Ðµ":2050,"ĠÐ±ÑĮÐµÑĤ":2051,"Ð¾Ð±Ñĭ":2052,"ĠÑĥÐº":2053,"ĠÐ²Ð¾ÐµÐ²Ð¾Ð´":2054,"Ð¿Ð¾Ð´Ð¾Ð±":2055,"Ð³Ð¾ÑĤ":2056,"ÑĥÐ´Ñĭ":2057,"ÑĢÐµÐ½":2058,"ĠÐ»Ñ£ÑĤÐ°":2059,"Ð¼ÐµÐ½Ð¸":2060,"ÑĢÐ¾ÑģÑĤÑĮ":2061,"ĠÐ²Ð¾Ð´Ð°":2062,"ÑĮÐ¸":2063,"ĠÐ²ÑĬÑģÑ£":2064,"ĠÐ¿ÑĢÐµÑĩÐ¸ÑģÑĤÑĭ":2065,"ĠÑģÐ²Ð¾Ð¸Ð¼":2066,"ÐµÐ²Ñ£":2067,"ĠÑĩÑĤÐ¾Ð±Ñĭ":2068,"ĠÐ·Ð´Ð¾ÑĢ":2069,"ĠÐĴÐ¾":2070,"ĠÐ¿ÑĢÐ¸Ð²ÐµÐ´":2071,"Ð´ÑĢÐµ":2072,"ÑĪêĻĭ":2073,"ĠÐ±ÑĢÐ°ÑĤÑĮÐµÑİ":2074,"ĠÑĥÐ´":2075,"ĠÐ¿ÑĢÐ¾Ð¿":2076,"ĠÐ±ÐµÐ·ÑĬ":2077,"ĠÐ´ÐµÑĢÐµÐ²Ð½Ñİ":2078,"ĠÐ¿ÑĢÐ¾ÑĤÐ¸Ð²Ñĥ":2079,"ĠÐ¿ÑĢÐ¸Ð²":2080,"ĠÐ°ÐºÑĭ":2081,"ĠÑģÑĤÐµÐ¿":2082,"ĠÐ¾Ð²":2083,"ĠÐ¿Ð°ÐºÐ¸":2084,"ÑģÐºÐ¸Ð¸":2085,"ĠÐ¶ÑĬ":2086,"Ġ7":2087,"Ð»Ñ£Ð·":2088,"ĠÐ²Ð¾Ð·Ð¼Ð¾Ð¶Ð½Ð¾":2089,"ĠÐ´ÑĢêĻĭ":2090,"ĠÐĺÐ»ÑĮÑı":2091,"Ð·Ð´Ð°":2092,"ĠÐ¾Ð±ÑĢÑ£":2093,"ĠÐ´Ñħ":2094,"ĠÐºÐ¾Ñģ":2095,"Ð½Ð¸ÐºÐ¾Ð¼":2096,"ÑĢÑ¹":2097,"ĠÐ¼Ð¸ÑĤÑĢÐ¾Ð¿Ð¾Ð»":2098,"Ð³Ð»Ð°":2099,"ĠÐĿÑĬ":2100,"ÐºÑĥÑİ":2101,"ÐµÑĤÐ¾":2102,"ĠÑģÐ¾Ðº":2103,"ĠÐ¾Ð½Ð°":2104,"ĠÐ¼ÐµÐ´":2105,"Ð°Ð»Ðµ":2106,"ĠÐ²ÑĭÑĪÐµ":2107,"ĠÐ¿Ð¾Ð¼ÐµÑģÑĤÑĮÑı":2108,"ĠÐ¿ÑĢÐµÐ¶":2109,"ĠÑģÐµÐ¼ÐµÐ½":2110,"ĠÐ±Ð¾ÑĢÐ¸Ñģ":2111,"ĠÐ³ÑĢÐµ":2112,"ĠÑĥÑĩÐ½ÐµÑĤ":2113,"Ñ£ÑħÑĬ":2114,"ĠÐ³Ð¾ÑĤ":2115,"Ð¸ÑĤÑĥ":2116,"ĠÐ½ÑĭÐ½Ñ£":2117,"ĠÑĤÐµÑĢ":2118,"ĠÐ¿Ð¾Ð»Ð¾Ð¶":2119,"Ð¿Ðµ":2120,"ĠÑģÑĤÑĢÐ¾":2121,"ĠÑĢÐ°Ð·Ð¼Ñ£":2122,"ĠÑģÑĤÑĢÑ£Ð»ÑĮ":2123,"ĠÐķÑĢÑĥ":2124,"ĠÐ¿Ð¾Ñĥ":2125,"ĠÑİÑĢÑĮ":2126,"ĠÐ¿ÑĢÐ¾ÑĢ":2127,"ĠÐ§ÑĤÐ¾":2128,"ÑģÐºÐ°Ñı":2129,"ĠÐ½Ð°ÑĢÐµ":2130,"ÑĪÐ½Ð¸":2131,"ÐµÑ¡":2132,"ĠÑĤÐ°ÐºÐ¾Ð²Ð°":2133,"ÑĩÐµÑģÑĤÐ¸":2134,"Ð¼ÐµÐ½Ð°":2135,"ĠÐºÐ¾Ð½Ñı":2136,"ĠÐ´ÐµÐ½":2137,"ÑģÐ»Ð°Ð²ÑĬ":2138,"Ð¸ÑĪ":2139,"ĠÑ³ÐµÐ´Ð¾ÑĢ":2140,"ĠÐ²ÐµÐ»Ð¼Ð¸":2141,"ĠÐ¸Ð»ÑĮÐ¸ÑĩÑİ":2142,"Ð¾Ð²ÑĭÐ¼":2143,"ÑĩÐµÐ¹":2144,"Ð»Ð¾Ð¼ÑĬ":2145,"ĠÐ¼Ñ£ÑģÑĤÑ£":2146,"ĠÐ»ÑĮ":2147,"ĠÐķÐ³Ð´Ð°":2148,"ÑĢÑĸ":2149,"ÐºÐ°Ð¼Ð¸":2150,"ĠÐ²ÐµÐ»Ð¸ÐºÐ°Ð³Ð¾":2151,"ĠÐķÑĢÑĥÑģÐ»":2152,"ĠÐ¿ÑĢÐµÐ´Ð°":2153,"ĠÐ»ÑİÐ´ÐµÐ¸":2154,"ĠÐľÐ¾ÑģÐº":2155,"ĠÑĢÐ°ÑĤ":2156,"ĠÐ¿Ð¾Ð»Ð¾Ð²":2157,"Ð±Ð¾Ð¹":2158,"ĠÐºÐ¾ÑĤÐ¾ÑĢÐ¾Ð¹":2159,"â±":2160,"ĠÐ±Ð¾Ð³Ð¾ÑĢÐ¾Ð´Ð¸":2161,"ĠÐ½Ð°ÑĢ":2162,"ĠÑģÐ²Ð¾ÐµÐ¸":2163,"ĠÐ½Ð¸Ñĩ":2164,"â±ķ":2165,"ĠÑģÑĢÐ¾Ðº":2166,"ĠÐ¿ÑĢÐ°Ð²ÐµÐ´":2167,"ĠÐ¿ÑĢÐµÐ¼":2168,"ĠÑĩÐ¸ÑģÐ»Ð°":2169,"ĠÑĤÐ¾Ð²Ð°ÑĢÑĭ":2170,"ÐºêĻĳ":2171,"ĠÐ²ÐµÑģÑĮ":2172,"ĠÐ²ÑĮÑģÐµ":2173,"ĠÑģÐµÐ¼ÑĬ":2174,"Ð´Ð¾Ñĥ":2175,"ĠÐ´Ð²Ñ£":2176,"Ð½Ð¸ÑĤ":2177,"ĠÐ¿ÑĢÐ¾Ð¼Ñĭ":2178,"ÑĭÑĤ":2179,"Ð´Ð¸Ð½ÑĬ":2180,"Ð¿Ð¸ÑģÐº":2181,"ĠÑĩÐµÐ»Ð¾Ð²Ñ£ÐºÑĬ":2182,"ÑĮÐ¼Ð¸":2183,"ĠÑĢÑĥÑģ":2184,"Ð²Ð°Ð»":2185,"Ñ§ÑĤÑĬ":2186,"ĠÐ±Ð¾ÑĥÐ´":2187,"ĠÑ¥Ñģ":2188,"ĠÑģÐºÐ¾":2189,"ĠÐ¾Ð±ÑĬÑıÐ²":2190,"ÐºÐ¾Ð²ÑĮ":2191,"ĠÐŁÐµÑĤ":2192,"ĠÐ½ÐµÐ²Ñ£":2193,"ĠÐ½Ð¾Ð²Ð³Ð¾ÑĢÐ¾Ð´":2194,"ĠÐ½ÐµÐ¶Ðµ":2195,"ĠÑģÐ²Ð¾ÐµÐ¼":2196,"Ð¾Ð¿Ð¾Ð»":2197,"ĠÐ³Ð¾ÑĢÐ¾Ð´Ð°":2198,"ĠÑĩÐµÐ»Ð¾Ð²ÐµÐº":2199,"ĠÐºÑĢÐµÐ¿":2200,"Ð°ÑĢÐ°":2201,"ĠÐ²Ð¸Ð´":2202,"Ð²Ñ£ÑīÐ°":2203,"ĠÐ½Ð°Ñĥ":2204,"ÑĥÐ±":2205,"ĠÐºÐ°Ð¼ÐµÐ½":2206,"ÐºÑĢÐ°Ñģ":2207,"ĠÐ¿ÑĥÑģÑĤÐ¾ÑĪÑĮ":2208,"ÑħÑ¹":2209,"Ð¾Ð»Ð°":2210,"Ð¸ÑĤÐµÐ»ÑĮ":2211,"ĠÐ±ÐµêĻģ":2212,"ĠÑĤÑĭÑģÑı":2213,"ĠÐ¿Ð¾Ð¶Ð°Ð»Ð¾Ð²Ð°Ð»":2214,"Ð»Ð¸Ð½":2215,"Ð¾ÑĢÑĥ":2216,"ĠÑĤÐ²Ð¾ÑĢÐ¸ÑĤÐ¸":2217,"ÑĤÐ¸Ð½":2218,"Ð»ÐµÐ½Ð¾":2219,"ĠÐ¼Ñ«":2220,"ÐµÐ½ÑĮÐµ":2221,"Ð½Ð¸Ð½Ð°":2222,"Ñ¯":2223,"ĠÐ½ÐµÐ¹":2224,"ĠÐ¿Ð¾ÑħÐ¾":2225,"ĠÐ´ÐµÑĤÐ¸":2226,"ĠÐ²ÐµÐ»Ð¸ÐºÐ¸Ð¹":2227,"ÑĩÐµÐ½Ð¾":2228,"ĠÑģÐ¾ÑĤÐ²Ð¾ÑĢÐ¸":2229,"ĠÑĨÐ°ÑĢÐ¸":2230,"ĠÑĩÐµÑĤÑĭÑĢÐµ":2231,"ÑĭÑĤÐ°":2232,"ĠÑĤÐ²Ð¾Ñı":2233,"ÑĦÐ¾Ð½":2234,"ĠÐ¿Ð»Ð¾":2235,"ÑħÐ¾Ð¼":2236,"Ð»Ð°Ð²ÑĬ":2237,"Ð¸ÑģÑ§":2238,"ÑĪÐµÐ´":2239,"ÑħÐ°Ð»Ð¸":2240,"ÑĭÑħÑĬ":2241,"ĠÑĤÐ¾Ð»ÑĮÐºÐ¾":2242,"ĠÑĥÐ±Ð¸":2243,"ĠÐ¾Ð³Ð½ÐµÐ½":2244,"ĠÐ´Ñ£Ð»Ð°ÑĤÐ¸":2245,"ĠÑģÐ²Ñ£ÑĤ":2246,"ĠÐ¿ÑĢÐ¸Ð´Ðµ":2247,"ĠÑ¡Ð±ÑĢÐ°":2248,"Ð³êĻĭ":2249,"Ð¸Ð»Ðµ":2250,"ÑģÑĤÐ¸Ñİ":2251,"Ð»ÑİÐ±":2252,"ĠÐ¾ÑĤÑĮ":2253,"ÑİÑĤÑģÑı":2254,"ĠÐ½Ð¸Ð¶Ðµ":2255,"ĠÑĤÐ¾Ð»ÐºÐ¾":2256,"Ð½ÑĮÐµ":2257,"Ð»Ð¾Ð¼":2258,"Ð·Ðµ":2259,"Ñ¥ÑĤÑĮ":2260,"ĠÑģÑĤÑĢ":2261,"ÑĢÐ°Ð²Ð¸":2262,"ÑĨêĻĭ":2263,"ĠÐ¼Ð¾Ð»Ð¾Ð´":2264,"ĠÑģÐµÐ¸":2265,"Ð¾Ð½Ñ£":2266,"ĠÑ¥ÑģÐ¸":2267,"ÐµÐ»Ð°":2268,"ĠÑĥÐ·":2269,"ĠÐµÑģÑĤÐµ":2270,"ĠÐ±êĻĭÐ´ÐµÑĤÑĬ":2271,"ĠÐĴÑ£":2272,"Ñ£Ñħ":2273,"ĠÑĥÑĤ":2274,"ĠÐ´Ð°Ð²Ð°ÑĤÐ¸":2275,"ĠÐ²Ð¾Ð»Ð¾Ð´Ð¸Ð¼ÐµÑĢ":2276,"ĠÐĳÐ¾Ð²Ð°":2277,"ĠÐ´Ð¾Ð¼Ð°":2278,"ÑģÑĤÐ²Ñ£":2279,"ĠÐ¢Ð°Ðº":2280,"ĠÐĴÑĮ":2281,"ĠÑħÐ¾ÑĤÑı":2282,"ÑĩÐ°ÑĤ":2283,"ĠÐ¿Ð¾ÑĢÐ¾":2284,"ĠÑģÑĬÐº":2285,"Ð°Ð³":2286,"Ð°Ð·Ð°ÑĢ":2287,"ĠÐ½Ñ£ÑģÑĤÑĮ":2288,"ĠÐ·Ð¾Ð»":2289,"ÐµÐ¶":2290,"ĠÐ¿Ð¾Ð»Ñĥ":2291,"ĠÐ´ÑĢÑĥÐ³Ð°":2292,"Ð²ÑĢÑĬ":2293,"ĠÑĤÐ¾Ñĥ":2294,"ĠÐ±Ñ¹":2295,"ĠÐ·Ð»Ð¾":2296,"ĠÑĤÐ¾Ð»Ð¸":2297,"ÑģÑĤÐ²êĻĭ":2298,"Ð²Ð¾Ð·":2299,"ĠêĻĸÐºÐ¾":2300,"ĠÐ²Ð¾ÑĤÑĩÐ¸Ð½Ñĭ":2301,"Ð¶ÐµÑĤ":2302,"ĠÐ´Ð¾Ð±ÑĢÑ£":2303,"ĠÐ¿ÑĢÐ¸ÑĤ":2304,"Ð½ÐµÑĤÑĮ":2305,"ÑĤÐ¸Ð½Ð°":2306,"ĠÐ¿Ð¸Ñī":2307,"Ð½Ð¸ÐµÐ¼ÑĬ":2308,"ĠÐ´Ð°Ð»ÑĬ":2309,"ĠÑģÐ¸ÑħÑĬ":2310,"ĠÐ¼ÐµÐ¶":2311,"ĠÐ±Ð»Ð³":2312,"Ð°Ð·Ñĥ":2313,"ĠÐ²Ð¸Ð´Ð¸":2314,"Ñ¡Ð¼ÑĬ":2315,"Ð¾Ð»Ð½Ð¸":2316,"ĠÑĩÐ¸Ð½":2317,"ÑĪÐ¸ÑħÑĬ":2318,"ĠÑ¹Ð±Ð¾":2319,"ĠÐ¾Ð±ÑĭÑĩÐ°":2320,"ĠÐ´Ð°Ð²":2321,"ĠÐºÑĥÐ½ÑĬ":2322,"ĠÑĢÐ¾Ñĥ":2323,"ĠÐ¡Ð¾Ð»":2324,"ĠÐ±ÐµÑģÑ£":2325,"ĠÐ¿Ð¾Ð´Ð²Ð¸":2326,"ĠÑģÐ½Ð°ÑĢÑı":2327,"ĠÐ¾Ð¶Ðµ":2328,"ĠÐ¿ÑĢÐ¾Ðº":2329,"ĠÑĤÑĥÑĤÑĬ":2330,"ĠÐ¿ÑĢÐ¸Ð½ÐµÑģ":2331,"ĠÐ³ÑģÐ´ÑĢÑİ":2332,"ÐµÐ²Ð¸ÑĩÑİ":2333,"Ð°Ð½Ñĥ":2334,"ÑĨÐµÐ¼":2335,"ĠÐ¸Ñİ":2336,"Ð°Ñı":2337,"ĠÐ¸ÑģÐºÑĥ":2338,"Ð¾Ð¼Ñ£":2339,"Ð»ÐµÑĤ":2340,"ÐµÐ»Ñİ":2341,"Ñ¹Ñİ":2342,"Ġ10":2343,"ĠÑĤêĻĭ":2344,"Ñ§ÑīÐµ":2345,"ĠÐ³ÑĢÑ£Ñħ":2346,"ÑĸÐ¹":2347,"Ð´Ð½Ð¾":2348,"ĠÑģÐ»Ð¾Ð²ÐµÑģÐ°":2349,"ĠÐºÐ»Ñİ":2350,"ĠÐ¿ÑĢÐµÐ¶Ð´Ðµ":2351,"ĠÐ´Ð°Ð»Ðµ":2352,"ĠÐµÐµ":2353,"ÐºÐ¾ÑĪÐ°":2354,"Ð¾Ð¶Ð´Ðµ":2355,"Ġ4":2356,"ĠÐ²Ð·Ñ§":2357,"ĠÐ¼Ð½Ð¾Ñİ":2358,"ĠÐ¿Ð»Ð°ÑĤÐ¸ÑĤÐ¸":2359,"ĠÐ¼Ð°ÑĤÐµÑĢÐ¸":2360,"ĠÐ³ÑĢÐ²":2361,"ĠÑĢÐ°Ð·Ð´Ñ£":2362,"ĠÐ¼Ñģ":2363,"ĠÐ¡Ñĭ":2364,"ĠÐ´ÑĢÐ°":2365,"ĠÐ¿ÑĢÐ¾Ð´":2366,"ĠÐ¿ÑĢÐ¾ÑĤ":2367,"ĠÑĩÐµÑģÑĤ":2368,"ĠÐ¿ÑĤÐ¸":2369,"Ð»êĻĭ":2370,"ĠÑģÐ¾Ñģ":2371,"Ð´ÐµÐ¶Ðµ":2372,"ĠÐ¿Ð¾Ð·Ð½Ð°":2373,"Ð»Ð¸ÑģÑı":2374,"ĠÐ±êĻĭ":2375,"ÑĨÑı":2376,"ĠÐ¿ÑĥÑĪÐºÐ°ÑĢ":2377,"Ð±ÑĢÑı":2378,"Ð¶Ð½Ð¾":2379,"ĠÑģÑĬÑĤÐ²Ð¾ÑĢÐ¸":2380,"Ð¼ÐµÑĢ":2381,"ĠÐ²ÑĬÑģÐ¿":2382,"Ð°ÐºÐ¾Ð½":2383,"ĠÐ²Ñ£ÑĢÑĥ":2384,"ĠÑĤÐ¾Ðµ":2385,"ĠÐ¡Ð¸":2386,"ĠÐ±ÑĭÑģ":2387,"ĠÑĢÑı":2388,"ĠÐ²ÑĮÑģÑı":2389,"ĠÐ»Ñ£ÑĤÐ¾":2390,"Ð·Ð´":2391,"Ð½ÑĸÑ§":2392,"ÑĮÑİ":2393,"ĠÐ½Ð¸Ð¼":2394,"ÑĢÐ¸Ð»":2395,"ĠÐ¼Ð¸ÑĢÑĬ":2396,"ĠÑıÐ¶Ðµ":2397,"ĠÑģÐ¼Ð¸":2398,"ĠÑħÑĤÐ¾":2399,"ÑģÐ¿Ð¾Ð´":2400,"ĠÑĭ":2401,"ĠÐ´Ð¾Ñĥ":2402,"ĠÐ´Ñ£ÑĤ":2403,"ĠÑĢÑĥÐºÑĥ":2404,"ĠÐ»Ð¾ÑĪÐ°":2405,"ĠêĻĢ":2406,"ĠÑĩÐµÑĤÐ¸":2407,"ĠÐ²ÑĤÐ¾ÑĢ":2408,"ÑģÑĤêĻĭ":2409,"Ð´ÐµÑĢ":2410,"ĠÑħÐ¸ÑĤ":2411,"ĠÐ¾Ð±Ñ£":2412,"Ð½Ð¾Ð³":2413,"ĠÐ¡Ð²":2414,"ĠÑĸÑ¡":2415,"ĠÐºÐ¾ÑĤÐ¾ÑĢÐ¾Ðµ":2416,"ĠÐ¸ÑģÑĤÐ¸Ð½":2417,"ĠÐºÐ¾ÑģÑĤ":2418,"Ð²Ñ£ÑĤ":2419,"Ð¸Ð´Ñ£":2420,"ĠÐ´Ñ£ÑĤÐ¸":2421,"ĠÐ¢Ñĥ":2422,"ĠÐ´Ð°ÑģÑĤÑĮ":2423,"Ð´ÐµÑģÑ§":2424,"ĠÐ¶ÐµÐ»Ð°":2425,"ĠÐ¿Ñ¹":2426,"ÐµÐ²Ð¾Ð»":2427,"ĠÑĤÐ²Ð¾Ñİ":2428,"ĠÐ»ÐµÑĤÐ°":2429,"ĠÐ¿ÑĢÐ¸Ð¸Ð¼":2430,"ÑĥÐ´ÑĮ":2431,"ĠÐ¢Ñĭ":2432,"ĠÑģÐ²Ð¾ÐµÐ¼ÑĬ":2433,"Ð°Ð±":2434,"ĠÑģÑĭÐ½Ñĥ":2435,"ĠÐ¿ÑĢÐµÐ¶Ðµ":2436,"ÑĤÐ¸ÑģÑı":2437,"ĠÐ°Ð·":2438,"ĠÐ¼Ð¸ÑĢ":2439,"ĠÐ´ÐµÑĤÐµÐ¹":2440,"ĠÐ¼Ð¾ÐµÐ¼Ñĥ":2441,"ĠÐµÐ¹":2442,"ĠÑģÐ¾Ð³":2443,"ÑĨÐ¾Ð¼":2444,"ĠÐ»Ñ¹":2445,"Ð½ÐµÐ¼":2446,"ĠÐ´ÐµÑĢÐ¶":2447,"ĠÐ¿ÑıÑĤÐ¸":2448,"ĠÐ¼ÑĥÐ¶Ð°":2449,"ĠÐ¿Ð»ÐµÐ¼":2450,"ĠÑģÐ²Ð¾Ñ§":2451,"ÐµÐ½Ð¸Ðµ":2452,"ĠÐ´Ð²Ñĥ":2453,"ĠÐ²Ð¾ÑģÐ¿":2454,"ĠÑģÑĬÐ³ÑĢÑ£":2455,"ĠÑģÐºÐ¾ÑĢÐ¾":2456,"ĠÐ²Ð¾Ð¿":2457,"ĠÐ²ÑģÑ§Ðº":2458,"ĠÐ±Ð»Ñİ":2459,"ĠÐ·Ð²Ñ£":2460,"Ð¿ÑĮ":2461,"ĠÐ³Ð¾Ð½":2462,"Ð»Ð°ÑĤ":2463,"ĠÐĵÐ¾ÑģÑĥÐ´Ð°ÑĢ":2464,"ĠÑģÐ¾Ð±Ñ£":2465,"ÑıÐ¼ÑĬ":2466,"ĠÐ¿Ð¾Ð¸Ð´Ðµ":2467,"ĠÐļÐ¾":2468,"ĠÐ¿Ð¾Ð²Ñ£":2469,"ÑģÑĤÐ²ÐµÐ½":2470,"ĠÐµÐ´Ð¸Ð½ÑĬ":2471,"ÐµÑģÐ»Ð°Ð²":2472,"ĠÐ±Ñ«":2473,"ĠÐ½Ð°Ðº":2474,"ĠÑģÑĤÐ¾Ñı":2475,"ĠÑĤÐ¸Ð¼Ð¾":2476,"ÐµÐ»Ð¾":2477,"ĠÑĩÑİÐ´Ð¾ÑĤÐ²Ð¾ÑĢ":2478,"Ð¾Ð²ÑĭÐµ":2479,"ÑĪÐµÐ½Ð¸":2480,"ĠÑĩÐµÐ³Ð¾":2481,"ĠÐ²ÐµÑģÐµÐ»Ð¸":2482,"ĠÐ¿Ð¾ÑģÑĭ":2483,"ĠÑħÑĢÐ¸ÑģÑĤ":2484,"ÐµÐ²Ð¾":2485,"ĠÐ´ÑĢÑ¹":2486,"ÐµÐ¼Ð¸":2487,"Ð¼Ð°Ð½":2488,"ĠÑĢÐ°Ð²":2489,"Ð²Ð°Ñı":2490,"ĠÐ²ÑĮÑģÑ£":2491,"ÐºÐ°Ð³Ð¾":2492,"ĠÐ¿Ð¾Ð»Ð¾Ð¶Ð¸":2493,"ĠÐ·Ð°Ð¿Ð¾Ð²Ñ£":2494,"Ð½ÐµÑİ":2495,"ĠÐ¿ÑĢÐµÐ±ÑĭÐ²Ð°":2496,"ÑģÐºÐ¾Ð¼ÑĬ":2497,"ÑĤÑĮÑģÑı":2498,"Ð¾Ð³Ð¸":2499,"ĠÐ´ÑĢÑĬ":2500,"ĠÑħÐ»Ðµ":2501,"ĠÑģÐ²ÐµÑĢ":2502,"ĠÐ¿ÑıÑĤÑĮ":2503,"Ð·Ð½Ð¸":2504,"ÑĩÑı":2505,"ĠÐļÐ°ÐºÐ¾":2506,"ÑĪÐ°ÑĤÐ¸":2507,"ĠÐ²ÑĭÑĪ":2508,"ĠÑģÐ»Ð°Ð²Ð°":2509,"Ñ§Ð´":2510,"Ð½êĻĹ":2511,"Ð½ÐµÐ¹":2512,"ÑĪÑ§":2513,"ĠÐ¾ÑģÑĤ":2514,"Ð¾ÑĤÑĥ":2515,"ĠÑĩÐµÐ¼ÑĬ":2516,"ÑģÐ¾":2517,"ĠÑĤÑ£Ð»Ð¾":2518,"ÐµÐ½Ð¸Ñı":2519,"Ð½ÑĭÐ¸ÑħÑĬ":2520,"ÑģÐºÑĬ":2521,"ĠÐ¿Ð¸ÑīÐ°":2522,"Ð¾Ð»Ðµ":2523,"âĢĿ.":2524,"ĠÐ´ÐµÐ»Ð¾":2525,"ĠÐĺÐ·":2526,"ÑĩÐ¸ÑĤ":2527,"ĠÑģÑĤÐ°ÑĢÐ¾ÑģÑĤÐ¸":2528,"ÑĥÐ½":2529,"ĠÑģÐ»Ðµ":2530,"ĠÑģÐ²Ð¾Ð±Ð¾Ð´":2531,"ĠÐ¿ÐµÑĢÐ²":2532,"ĠÐµÐ¼êĻĭ":2533,"ÐµÐ´ÑĮ":2534,"ĠÑģÐµÐ»Ð¾":2535,"ÑĤÑı":2536,"Ð²ÑĮÑĢ":2537,"ĠÐ´ÑĢÐ¾Ñĥ":2538,"ĠÐ³ÑĢÐ°Ð¼Ð¾ÑĤÑĥ":2539,"Ð°Ð½Ð¸Ðµ":2540,"ĠÑĤÐ¾Ð¿":2541,"ĠÑĢÐ¾Ð´Ð¸":2542,"ĠÐ¿ÑĢÑĬ":2543,"ĠÑĩÐ¸ÑģÑĤÐ¾":2544,"ĠÑīÐ¾":2545,"ÑĤÐ°Ð³Ð¾":2546,"Ð½ÑĸÐ°":2547,"ĠÐ·ÐµÐ¼Ð»Ðµ":2548,"Ġ(":2549,"ÑĢÐ°Ð²Ð¸ÑĤÐ¸":2550,"Ð²Ð°Ð³Ð¾":2551,"ĠÐ±ÑĭÑĤÑĮ":2552,"ĠÐ¿Ð¾ÑĤÐ¾Ð¼Ñĥ":2553,"ĠÐ¼Ð»Ð°":2554,"ĠÐ³Ð¸":2555,"ĠÐ¿ÑĢÐµÐºÑĢÐ°Ñģ":2556,"Ð¶Ð¸ÑĤÑĮ":2557,"ĠÐµÐ¼Ñ¹":2558,"ĠÐ°Ð½Ð´ÑĢÐµ":2559,"ĠÐ¾ÑĢ":2560,"ĠÐĳÑ£":2561,"ĠÐ¿Ð¾ÑģÑĤÐ°Ð²Ð¸":2562,"ĠÑģÐµÐ»Ð¸":2563,"ĠÐ¿Ð¾ÐºÐ°Ð·":2564,"ÑģÐºÐ¸Ð¹":2565,"ĠÐ¿Ð¸ÑģÐ°Ð½":2566,"Ð»Ð°Ð²Ð°":2567,"ĠÐ¿ÑĢÐ°Ð²Ð¾":2568,"ĠÐ½ÐµÑĤ":2569,"ĠÐ²Ð»":2570,"ĠÑĤÑ¹":2571,"ĠÐ¢Ð°":2572,"ÑĨÐµÑİ":2573,"ĠÐºÐ¾Ð·":2574,"ÑģÐºÐ¸Ñı":2575,"ĠÑģÑĢÐ°":2576,"ÑģÑĤÐ¸ÑĤÐ¸":2577,"ĠÑģÑĤÑĭ":2578,"ÑģÑĤÑĮÐµ":2579,"ĠÐ²ÑģÐµÑı":2580,"ĠÐ±ÐµÑĢ":2581,"ÑģÐ»ÑĭÑĪÐ°":2582,"ÑĢÐ¸ÑĤÐ¸":2583,"ĠÐ´Ð²Ð¾ÑĢÑĬ":2584,"Ð»êĻĹ":2585,"ÑĤÐ¸ÑĤÑĮ":2586,"ĠÐ¿ÑĢÐ¸Ð·":2587,"ĠÑĤÐ¾Ð¼Ñ¹":2588,"Ð»ÐµÑģ":2589,"ĠÑĨÐµÑĤ":2590,"ĠÐ¼Ð¾ÑĢÐµ":2591,"ĠÐ½ÐµÐ½Ð°":2592,"Ð´ÑĢÐ°":2593,"ĠÐºÐ¾Ð¼":2594,"ĠÐ²ÐµÐ»Ñ£":2595,"ĠÐ¿Ð¾ÑĤÐ¾Ð¼ÑĬ":2596,"ĠÐ³Ð¾ÑģÑĥÐ´Ð°ÑĢÐµÐ²Ñĥ":2597,"ĠÐ³ÑĢÐ°Ð¼Ð¾ÑĤÐµ":2598,"ĠÑģÑĥÐ´Ð°":2599,"ĠÐ±Ð°ÑĤ":2600,"ĠÐ°Ð¶Ðµ":2601,"ĠÑ¡ÑĨ":2602,"Ð½Ñ¡":2603,"ĠÐµÐ»Ð¸ÐºÐ¾":2604,"Ð²Ñ£ÑĤÑĬ":2605,"ĠÐłÐ°":2606,"ĠÐ¿ÑĢÐ¾Ð³":2607,"ĠÐ°Ð²":2608,"ĠÐ¿ÑĢÐ¾ÑģÑĤ":2609,"ĠÑĢÑĮ":2610,"ĠÐ¿Ð¾Ð³Ð¸":2611,"Ð»ÐµÐ½Ð¸Ðµ":2612,"ĠÐ¿ÑĢÐµÑĩÐ¸ÑģÑĤÑĭÐµ":2613,"ĠÐ±Ð¾Ð¶Ð¸":2614,"ĠÑĥÐ³":2615,"ÑĨÐ°ÑĤÑĮ":2616,"ĠÐ¾Ð±ÑĢÐ°Ð·":2617,"ÑīÑİ":2618,"ĠÐ½ÐµÐ¼ÑĮ":2619,"ĠÐ²Ñ£Ð´Ð°":2620,"ĠÐ³ÑĢÐ¾Ð±":2621,"Ð²ÑĪ":2622,"ĠÐ¿Ð»ÑĬ":2623,"ĠÐ³ÑĢÐ°Ð´Ñ£":2624,"Ð°Ð¼Ð°":2625,"ĠÑĤÐ¾Ðº":2626,"ĠÐ´Ð¼Ð¸ÑĤÑĢÐµ":2627,"ĠÐµÐ´Ð¸Ð½Ð¾":2628,"ĠÐºÑĢÐ¸":2629,"ÑĪÐ¸Ñħ":2630,"ĠÐ²ÑģÑıÐºÐ¸Ñħ":2631,"ĠÐ½Ð°Ð¼Ð¸":2632,"ÑģÐºÑĭÐ¸":2633,"Ñ¿":2634,"ĠÐºÐ¾ÑĤÐ¾ÑĢÑĭÑħ":2635,"ĠâĢĵ":2636,"ĠÑħÑĢÐ°Ð±":2637,"Ð¿Ð¸ÑģÐºÐ¾Ð¿":2638,"ĠÐ¿ÑĢÑ£Ð´ÑĬ":2639,"ÑĦÐ¸":2640,"Ð»ÐµÐ½ÑĸÐµ":2641,"ÑĤÐµÐ»ÑĮ":2642,"ĠÐ¿ÑĢÐ¸ÑģÐ»Ð°":2643,"ÐºÐ»Ð¾Ð½":2644,"ÑĦÐ°":2645,"Ð¾ÑĢÑĬ":2646,"ĠÐ¿ÑĢÐ°Ð·":2647,"ĠÐ¿Ð¸ÑĤÐ¸":2648,"ĠÑģÐ¾Ð²Ñ£":2649,"ĠÐ¿ÑĢÐ¿":2650,"ĠÑģÐ¸Ð»ÑĮ":2651,"ĠÐ¿Ð°ÑĢ":2652,"ĠÐ²ÐµÑĩ":2653,"ĠÐ´Ð¾Ð¼Ñĥ":2654,"ÑĢÐ¾ÑĤÐ¸":2655,"Ð²ÑĭÐ¸":2656,"ĠÑģÑĤÑĮ":2657,"ĠÐ¼Ð¾Ð³Ñĥ":2658,"Ñ§Ð¸":2659,"ĠÐ¼Ð¾Ñİ":2660,"ĠÑĥÑĩÐ¸Ð½Ð¸ÑĤÐ¸":2661,"ĠÑģÐ»êĻĭ":2662,"ĠÐ°Ð³Ð³":2663,"ÑģÑĤÐ²Ðµ":2664,"ĠÐ±ÑĮÑİÑĤ":2665,"ĠÑ¥ÑģÑĤÑĮ":2666,"ÑıÐ½Ð¸":2667,"ĠÐ¾Ð»":2668,"ĠÑģÑĬÐ±":2669,"ĠÑĤÐ¾ÑĢÐ³":2670,"Ð´ÑĢÑ£":2671,"ĠÐºÑĭ":2672,"ĠÐºÑĢÑĭ":2673,"ĠÐ½Ð°Ð´ÑĬ":2674,"ĠÑĪÐµÑģÑĤÑĮ":2675,"ĠÐ´ÐµÑĢÐ¶Ð°ÑĤÐ¸":2676,"ĠÐ³Ð°Ð²":2677,"ĠÐ¿ÑĢÐ¸Ð½Ð¾":2678,"Ð»Ñ¹":2679,"ĠÐĶÐ¾Ð±ÑĢÑĭ":2680,"ĠÐ¼ÑĤ":2681,"ÐµÐ¼Ð¾":2682,"ĠÑģÑĭÑī":2683,"Î¹":2684,"ĠÐ¯ÐºÐ¾":2685,"Ð½ÐµÐ¼ÑĬ":2686,"ÑĪÐµÐ½ÑĮ":2687,"ÑīÐµÑĪÐ¸":2688,"ĠÑĥÐºÑĢÐ°":2689,"ÑĩÐµÐ³Ð¾":2690,"ĠÐĴÑĭ":2691,"ÑĩÐ¸Ð½Ð°":2692,"ĠÐ¶ÐµÐ»Ñ£Ð·":2693,"ĠÐ±ÑĭÑĪÐ°":2694,"ÑīÐ°Ð³Ð¾":2695,"ĠÑħÑĢÐ¸ÑģÑĤÐ¸":2696,"Ð½ÐµÐ²":2697,"ÐµÑĩÐµ":2698,"Ġ12":2699,"ĠÐ°Ð½Ð´ÑĢÑ£Ñİ":2700,"ĠÑģÐ¾Ð·":2701,"ĠÑĤÑĢÑĮ":2702,"ÑħÑĢÐ°":2703,"ĠÐ¿Ð¾ÑĤÑĢÐµÐ±":2704,"ĠÐ»Ñ£ÑĤÑĬ":2705,"Ð´Ð¾Ð²Ð°":2706,"ÐµÐ»Ñı":2707,"ĠÑĤÐ°ÐºÐ¾Ð¶Ðµ":2708,"ĠÐ¿Ð¾ÐºÐ»Ð°Ð½Ñ§":2709,"Ð²ÐµÑģÑĤÐ¸":2710,"ÑĪÐºÑĥ":2711,"ĠÐ½Ð¸ÐºÐ¾Ð¼Ñĥ":2712,"ĠÐºÑĢÐµÑģÑĤ":2713,"ĠÐŁÑĢÐµ":2714,"ĠÐºÐ»Ð¸":2715,"Ñ»":2716,"ÐµÑģÑ§":2717,"ÑĩÐ¸ÑĤÐ¸":2718,"Ð°ÐºÐ¸":2719,"ĠÑĩÐµÐ¼":2720,"ĠÑĤÐ°ÐºÐ¾Ð²Ð¾":2721,"ĠÐ²Ð»Ð°Ð´Ñĭ":2722,"Ð¾ÑģÑĮ":2723,"ĠÐĽÐ°Ð·Ð°ÑĢ":2724,"ĠÑĢÐ°ÑģÐ¿":2725,"ÑĩÐ¸Ñħ":2726,"ĠÐĵÐ¾ÑģÐ¿Ð¾Ð´Ð°":2727,"ÐºÐ¾Ð½":2728,"ĠÐ¾ÑĢÑĥ":2729,"ÑĤÑĮÑİ":2730,"ÑĢÐ¾Ñĥ":2731,"ĠÑħÐ¾ÑĤÑ§":2732,"ĠÐ°ÑĢÑħÐ¸":2733,"ĠÑĨÐµÑĢÐºÐ²Ð¸":2734,"ĠÑģÐ²Ð¾ÐµÑı":2735,"Ð»ÐµÐ½Ð¸":2736,"ĠÐ²Ð¾Ð»Ð¾ÑģÑĤÐ¸":2737,"ĠÐ¿ÑĢÐ¸ÑĪÐµÐ´":2738,"ÑĪÐ¸Ð¼ÑĬ":2739,"ĠÐ²ÑģÑ§ÐºÐ¸":2740,"ĠÐ¶ÑĮ":2741,"ÑĢÐ¾ÑģÐ»Ð°Ð²":2742,"ĠÐºÐ¾Ð½Ð¸":2743,"ĠÐ³Ð»Ð°Ð³Ð¾Ð»Ð°":2744,"ĠÑĤÑĢÑĥ":2745,"ĠÐ»ÑİÐ´ÐµÐ¼ÑĬ":2746,"ĠÐ±Ð»Ð°Ð³Ð¾ÑģÐ»Ð¾Ð²":2747,"ÑĩÐµÑģÑĤ":2748,"ĠÑģÐ²Ð¸":2749,"ĠÐ½Ð°ÑĢÑı":2750,"Ð³Ð»Ñĭ":2751,"ĠÐ¾ÑĤÑĢÐ¾Ðº":2752,"ĠÑħÐ¾ÑĢ":2753,"ĠÐ³ÑĢÐ¸Ð³Ð¾ÑĢÑĮ":2754,"ĠÑĬ":2755,"ĠÐ´ÐµÐ½Ð³Ð¸":2756,"ĠÐºÐ½Ð¸Ð³":2757,"Ð¾Ð¶Ð´":2758,"ĠÐ²ÑģÑ£Ð¼Ð¸":2759,"ĠÑģÐ¾Ð²ÐµÑĢ":2760,"ĠÐ»ÑİÐ´ÑĮÐ¼Ð¸":2761,"ÑĢÐ¾Ð²Ð°":2762,"ÑĭÐ²Ð°":2763,"ĠÐ¸Ð·Ñ§":2764,"ĠÐ¼Ñ¡":2765,"ÑģÑĤÑĢÑ£":2766,"Ð¿ÑĢÐ°Ð²":2767,"Ñ«Ñī":2768,"ĠÑĢÐ¾ÑģÑĤ":2769,"êĻģÑĮ":2770,"ĠÐ²Ñ£Ð´":2771,"ĠÐ¿ÑĢÐ¸ÑĪÐ»Ð¸":2772,"ĠÐ¼Ð¾Ð½Ð°ÑģÑĤÑĭÑĢÑĮ":2773,"ĠÑģÐµÑĢÐ´ÑĨÐµ":2774,"ÑĨÐ¾":2775,"ĠÐ²ÑģÐµÐ¼Ð¸":2776,"ĠÑģÐ¾ÑĤ":2777,"ĠÐ´Ð°ÑģÑĤÑĬ":2778,"Ð¸Ð»ÑģÑı":2779,"ÑĢÐ°Ð·":2780,"ÑĤÑĸ":2781,"ÑĤÑ§":2782,"ÑģÑ¹":2783,"Ð¾Ð´Ð¸":2784,"ĠÐ»Ð²":2785,"Ð»Ñ¡":2786,"ĠÑĩÐ¸ÑģÑĤ":2787,"Ð·Ð°Ð½":2788,"ĠÐ°ÑĢÑħÐ¸Ð¼":2789,"ĠÐºÐ¾Ð½Ñİ":2790,"ĠÐ²ÑģÐµÑħ":2791,"ĠÐµÐ¼Ð¾Ñĥ":2792,"ĠÐ¼ÑĥÐ¶ÑĮ":2793,"ÑģÑĤÐ¸Ð½":2794,"ÑģÑĤÐµÑĢ":2795,"ĠÐ¿Ð¾Ð¼ÑĭÑĪ":2796,"ĠÐ¼ÑĥÐ¶Ð¸":2797,"ÐµÑħÐ°Ð»":2798,"ĠÐ´ÑĢÐµÐ²":2799,"ÐºÐ¾Ð¿":2800,"ĠÑĩÐµÐ»Ð¾Ð±Ð¸ÑĤÑĮ":2801,"ĠÐ³ÑģÐ´ÑĢ":2802,"ĠÑĪÐ°ÑĤ":2803,"Ð»ÑģÑı":2804,"ĠÐ²Ð¾ÑĤÑĩÐ¸Ð½Ñĥ":2805,"ĠÐ¿Ð¸ÑīÐ°Ð»Ð¸":2806,"Ð½Ð¸Ñĩ":2807,"ÐµÐ»ÐµÐ½":2808,"ÑģÐ¾Ð¼ÑĬ":2809,"ĠÑĮ":2810,"ĠÐ¾Ð±Ð°":2811,"ĠÑĥÑĢÑı":2812,"ĠÑģÑĬÐ¼Ñ£":2813,"ÑıÐ¹":2814,"ĠÐºÐ¾ÑĢÐ¾Ð»ÐµÐ²":2815,"Ð·Ð¾":2816,"ĠÐ·Ð¸Ð¼":2817,"ĠÐ¾ÑĥÐ¼":2818,"ĠÑĤÐ¾ÑĤÑĬ":2819,"ĠÐ½Ð°ÑĪÐ°":2820,"Ð±ÑĢÑ£":2821,"ĠÐ¸Ð¼Ð°ÑĤÑĮ":2822,"ÑĩÐ°ÑĤÐ¸":2823,"ÑĤÐ²Ð°":2824,"ĠÑģÑĤÑĢÑ£Ð»ÑıÑĤÐ¸":2825,"ĠÑģÐ¿Ð¸Ñģ":2826,"ĠÐ´Ð²Ðµ":2827,"ÑĩÑĥ":2828,"Ñ£Ð¼ÑĬ":2829,"Ð¶Ñİ":2830,"ĠÐ¼Ð½Ð¾Ð¶Ðµ":2831,"Ð½Ð¾Ð²Ð¾":2832,"ĠÑħÐ²Ð°":2833,"ĠÐ±ÑĭÐ²Ð°ÐµÑĤÑĬ":2834,"ĠÐ¿Ð°Ð½":2835,"ĠÑĤÐ°ÐºÐ¸Ñħ":2836,"ĠÐ¸Ð²Ð°Ð½Ð¾Ð²Ð¸Ñĩ":2837,"ĠÐ¾Ð±Ð»Ð°":2838,"ĠÐ³Ð¾Ð²Ð¾ÑĢÐ¸ÑĤÑĮ":2839,"Ð¸ÑĢÐ°":2840,"ĠÐ²Ð°Ð¼":2841,"ĠÐ±Ñ¡":2842,"ĠÐ¼Ð¸Ñħ":2843,"ĠÑĤÑĢÐ°":2844,"Ð´Ð²Ð¸":2845,"ĠÐ±Ð¾Ð»ÑĮÑĪ":2846,"ĠÐ´ÑĥÑħÐ¾Ð²":2847,"ĠÐ·ÐµÐ¼Ð»Ñ§":2848,"ĠÑģÐµÐ½":2849,"ÑĸÑģ":2850,"ĠÐ²ÐµÐ»ÐµÑĤÑĮ":2851,"ĠÐ´Ð¸Ð²":2852,"Ð»Ð¾Ð²Ð°":2853,"ĠÐ²Ð¼Ðµ":2854,"Ð³Ð»Ð¾":2855,"ÑĥÐ±Ð¸":2856,"ÑĪÑĤÑĮ":2857,"ÐºÑĥÐ¿":2858,"Ð¾ÑĢÐµ":2859,"ĠÑģÑĤÐ°ÑĢÐ¾":2860,"ĠÐ¿ÑıÑĤ":2861,"ÐµÑħÐ°Ð»ÑĬ":2862,"ĠÑģÐ°Ð¼Ð°":2863,"ĠÐ·Ð°Ð¼":2864,"ĠÐ±Ð¾Ð³Ð°ÑĤ":2865,"ĠÐ°ÐºÐ¸":2866,"Ð½Ñ£Ð¸":2867,"ĠÐ¸Ð¼Ñ§":2868,"Ð±ÑĭÑĤ":2869,"ĠÐ²ÑģÐµÐ²Ð¾Ð»":2870,"ÑģÐºÐ¸Ð¼Ð¸":2871,"Ð¶Ð´ÑĮ":2872,"ĠÑģÐ»Ñ£":2873,"ĠÐ²Ð°ÑĪ":2874,"ĠÐĺÐ½Ð¾":2875,"ĠÑģÐ²Ñ§":2876,"ĠÐ²ÐµÐ»Ð¸ÑĩÐµ":2877,"ĠÑĤÐ°ÐºÐ¾Ð²Ñĭ":2878,"ÑģÑĤÐµÐ¹":2879,"ĠÑģÐ¸Ðµ":2880,"ĠÑģÐ¸Ð»Ñĭ":2881,"ĠÐ²ÐµÑĢÑħ":2882,"ĠÐ¶ÐµÐ½Ñĥ":2883,"ĠÐ±ÑĢÐ°ÑĤÐµ":2884,"ÑĭÐ²Ð°ÑĤÐ¸":2885,"Ð³Ð¾ÑĪÐ°":2886,"ĠÑĤÐ²Ð¾Ð¹":2887,"ĠÑģÑĤÑĢÐ°ÑĪ":2888,"ĠÐºÐ½Ñ§Ð·ÑĮ":2889,"ÑĤÐ¾Ð¼":2890,"ĠÐ³Ð¾ÑģÑĤ":2891,"ÑģÐ»ÑĮ":2892,"Ð³Ð¾Ð¼ÑĬ":2893,"ÑģÐ»Ñĥ":2894,"ĠÐ¸Ð´":2895,"Ð´Ð¸ÑĤÑĮ":2896,"ĠÐ½Ð°Ð¿Ð°":2897,"ĠÐ°Ð»ÑĤÑĭ":2898,"ĠÐºÐ°ÑĢÐ°":2899,"Ġ5":2900,"ĠÐ·Ñ£Ð»Ð¾":2901,"ĠÐ¿ÑĢÐ¸ÐºÐ°":2902,"ĠÐ¿ÐµÑĢÐµÐ´ÑĬ":2903,"ĠÐ²ÐµÐ´Ð°":2904,"ĠÐ»Ð¸Ñħ":2905,"Ð´Ñ£ÑĤÐ¸":2906,"ÑīêĻĭ":2907,"ĠÐ¿Ð¾Ð´Ð¾Ð±Ð°ÐµÑĤÑĬ":2908,"ÑĮÐµ":2909,"ĠÐºÑĢÑĬ":2910,"ĠÑĩÐ¸ÑģÐ»Ð¾":2911,"ĠÑģÐ°Ð²":2912,"ÑĭÐ¼Ð¸":2913,"Ð¶ÐµÐ½ÑĬ":2914,"ÑĤÐ¾Ðµ":2915,"ÑģÑĤÑĭÐ½Ð¸":2916,"ĠÐ¿Ð¾Ð²Ñ£Ð´Ð°":2917,"ĠÐ¿ÑĢÐ¸ÐµÐ¼":2918,"ĠÐ´Ð²Ð¾ÑĢÐ°":2919,"ĠÐ³Ð¾ÑĢÐ¾Ð´ÑĬ":2920,"ĠÐ¼Ð½Ð¸":2921,"ĠÐ¼Ð½Ð¾Ð³Ð°":2922,"ĠÐ¿Ð¾ÐºÐ»Ð¾Ð½ÑĬ":2923,"ĠÐ¿ÑĢÑıÐ¼Ð¾":2924,"Ð¾Ð»ÐºÐ¾":2925,"ĠÑĩÐµÐ²Ð¾":2926,"ĠÐµÑģÐ¼Ñı":2927,"ĠÐ±Ð¾Ð³ÑĬ":2928,"Ð±êĻĳ":2929,"ĠÐ±Ð³ÑĬ":2930,"ÑĤÐµÐ¹":2931,"Ð°ÑĢÑ£":2932,"Ð½ÐµÐ¸":2933,"ĠÐ±ÑĨ":2934,"ĠÐ±Ñ§ÑĪÐµ":2935,"ĠÐ¾Ð±Ð¸":2936,"ĠÑĥÐ¾":2937,"ÑīÐ¾":2938,"ĠÐ¿ÑĢÐ¸Ð¼Ñ£":2939,"ĠÑģÐ²Ð¾Ñ¥Ð³Ð¾":2940,"Ð¿ÑĢÐ¾Ñģ":2941,"ĠÐ·Ð°Ñħ":2942,"ĠÐ²Ð¿ÐµÑĢ":2943,"ĠÐ´ÐµÑĢÐ¶Ð°":2944,"ĠÑģÐ¾Ð±ÑĢÐ°":2945,"Ð°Ð½ÑĮÐµ":2946,"ĠÑĤÐµÐ»":2947,"ÐµÑĩ":2948,"ĠÐĺÐ»Ð¸":2949,"ĠÑĤÐ¾Ð¼ÑĮ":2950,"ÐµÐ¾Ð´":2951,"Ġâģ":2952,"ĠÐ³Ð¾ÑģÑĥÐ´Ð°ÑĢÐµÐ²Ð°":2953,"ĠÐ»ÑĥÐºÐ°":2954,"Ð½ÑĨÐµ":2955,"Ñ§Ð½":2956,"Ð¿Ð¸ÑģÐ°":2957,"ÑĨÐ¾Ð²ÑĬ":2958,"ĠÐ¼ÐµÑģÑĤÐ¾":2959,"ĠÐ»Ð¾Ñĥ":2960,"Ð¼Ð¸ÑĢÐ°":2961,"ÐºÐ¾Ð²Ð¾":2962,"ĠÐ´Ð¾Ðº":2963,"Ð¾Ð³ÑĬ":2964,"ĠÐ¾Ð±ÑĢÑı":2965,"ĠÐ´Ð¾ÑģÑĤ":2966,"ĠÑĩÐµÐ»Ð¾Ð±Ð¸ÑĤÑĩÐ¸":2967,"ĠÐ²Ð°ÑĪÐ°":2968,"ĠÑĨÑĮ":2969,"ĠÐĶÑĢÑĥ":2970,"ÑģÑĤÐ°Ð²ÑĬ":2971,"Ð»Ð¾Ñĥ":2972,"ĠÐĲÐ½":2973,"ÐºÐ»Ð°":2974,"ĠÑĢÐµÐºÑĬ":2975,"Ð»ÐµÐ½ÑĬ":2976,"ĠÐ²Ð¼Ñ£":2977,"ĠÑĤÐ¸Ñħ":2978,"ÑĢÐ¾Ñĩ":2979,"ĠêĻĹÐ²":2980,"ĠÐĴÐµÐ»Ð¸":2981,"ĠÐľÐ°ÑĢ":2982,"Ð½Ð¸Ð½":2983,"ĠÑ¡Ð½":2984,"ÐµÐ¼ÐµÐ½":2985,"ĠÐ¿Ð¾ÑĩÐ¸Ð½":2986,"ÑĢÐµÑĤÐ¸":2987,"ĠÐ¨":2988,"Ð´ÐµÑĪÐ¸":2989,"Ð¸ÑĤÐ¸ÑģÑı":2990,"ĠÐ½ÐµÐ¼Ð¾":2991,"ÑģÑĤÑĮÑİ":2992,"ĠÐ½Ð°ÑĢÐ¸":2993,"Ð½Ð¸êĻĹ":2994,"ÑīÐ°ÑĤÐ¸":2995,"ĠÐ²Ð¾Ð»Ð¾ÑģÑĤ":2996,"ĠÐ¿ÑĥÑĤÐ¸":2997,"Ð½Ñ¹Ñİ":2998,"Ð²ÐµÑģ":2999,"ÑģÑĤÑ¹":3000,"ĠÑĤÑĭÑģÑ§":3001,"Ð³ÑĮ":3002,"ĠÐ¾ÑĥÐ±":3003,"Ð²Ð¾Ð¸":3004,"ÑĤÐ¾Ñĥ":3005,"ĠÐŁÐ¾Ðº":3006,"ĠÐķÐ³Ð¾":3007,"ĠÐ½Ð°Ð¿Ð¸Ñģ":3008,"ĠÐ½ÐµÐ¶ÐµÐ»Ð¸":3009,"Ð»Ð¾Ð¶Ðµ":3010,"ĠÐ½ÐµÐ´Ð¾":3011,"ĠÑıÐ´ÑĢÐ°":3012,"Ð¾ÑĤÐ¾":3013,"Ð»Ð¸Ñĩ":3014,"ÑģêĻĹ":3015,"ĠÑĨÑĤÐ¾":3016,"ĠÐ»Ð¸ÑĤ":3017,"ĠÐ¾Ð½Ð´ÑĢÐµ":3018,"ĠÐ¿Ð¾ÐºÑĢÑĭ":3019,"ĠÐĺÐ²Ð°Ð½":3020,"ĠÑģÐ¸Ð»Ð¾Ñİ":3021,"Â¦":3022,"ĠÐ·Ð°Ð²Ð¸":3023,"ĠÑĢÑĭÑĨ":3024,"ĠÐ²ÐµÑĤ":3025,"Ð¶Ð°Ð½":3026,"ĠÐ²Ð¾ÑģÐº":3027,"ĠÐŁÐ¾Ð´":3028,"ĠÐ¸Ð¼Ð¸":3029,"Ġ6":3030,"ĠÐ²Ð¾Ð´Ñĭ":3031,"ÑĢÐµÐ¿":3032,"ĠÐłÑĥ":3033,"ĠÐŁÑĢÑ£":3034,"ĠÐ²Ð´Ð°":3035,"ÑĨÐºÐ¾Ð³Ð¾":3036,"Ð²Ð°ÐµÑĤÑĬ":3037,"ĠÐ¼Ð¾Ñ¥":3038,"ĠÐ¼ÑĮÑģÑĤÐ¸":3039,"ÑĪÐ¸ÑĤÐ¸":3040,"ÑģÐºÐ¾Ñİ":3041,"ÐµÑĢÐ°":3042,"Ð½Ð¸ÐºÐ¾Ð¼ÑĬ":3043,"ĠÐ¿ÐµÑĩÐ°Ð»Ð¸":3044,"ĠÐĲÑĪÑĤÐµ":3045,"ĠÐ±Ñ£Ð»":3046,"ÑĩÐºÐ°":3047,"ĠÐ¸Ð½ÑĭÐµ":3048,"ÑĥÐ¼":3049,"ĠÐ¿ÑĥÑĪÐºÐ¸":3050,"ĠÐ¼Ð¸ÑħÐ°Ð¹":3051,"Ð²Ð°Ð¹":3052,"ĠÑģÑĤÐ°Ð»ÑĬ":3053,"ĠÐ½Ð°Ð¿ÑĢÐ°Ð²":3054,"Ð¾ÑģÑĬ":3055,"ĠÐ³Ð¾ÑģÐ¿Ð¾Ð´Ð¸Ð½Ðµ":3056,"ĠÐ¿Ð¸ÑģÐ°Ð½Ð¾":3057,"ĠÐ²ÐµÐ»ÐµÑĤÐ¸":3058,"Ð¾Ð·Ñ£":3059,"ĠÐ·Ð´ÑĢÐ°Ð²":3060,"ĠÐ²ÑĭÑģÐ¾Ðº":3061,"ĠÑ¡Ð¿":3062,"ĠÑģÑĬÐ¼":3063,"Ð´ÑĥÑĤ":3064,"Ð²ÑĬÑĪÐµ":3065,"Ð¼ÑĮÐ¶Ðµ":3066,"ĠÑĨÐ°ÑĢÑģÑĤÐ²Ð¾":3067,"ĠÐ¼ÑĥÐ¶Ðµ":3068,"ÐµÑĤÑĨÐ°":3069,"ĠÐ¼ÑĥÐ¶":3070,"ĠÐ²Ð¾ÐµÐ²Ð¾Ð´Ð°":3071,"ĠÐ¼Ð¾Ñ§":3072,"ĠÑĩÐ¸Ð½Ð¸ÑĤÐ¸":3073,"ĠÐ¿Ð¾ÑħÐ²Ð°":3074,"ÑĤÐµÐ¸":3075,"Ð¼Ð¾Ð»":3076,"ĠÐ¿ÑĢÐ¸Ñģ":3077,"ÑĢÑıÐ¼Ð°":3078,"ÐºÐ¾Ð¼Ñ¹":3079,"Ð½Ð¸ÐµÐ¼":3080,"Ð»Ð°Ð³Ð°":3081,"ÐºÐ°Ñı":3082,"Ð¿Ð¾Ð»":3083,"ĠÑģÑĭÑģÐºÑĥ":3084,"ĠÐ»Ð¸ÑĨÐµ":3085,"ĠÐ½ÐµÐ¿ÑĢÐ°Ð²":3086,"ĠÐ±Ð¾Ð³Ð°ÑĤÑĭÑĢ":3087,"ĠÐ´ÑĢÐµ":3088,"ĠÐ¶ÐµÐ½Ðµ":3089,"ĠÑĨÑĢÑĮ":3090,"ĠÐ½Ð°Ð¿ÐµÑĢ":3091,"ĠÐ»Ð¸ÑĨÐ°":3092,"Ð°ÑĤÑĮ":3093,"ĠÑģÑĬÐ²Ñ£":3094,"Ð½ÐµÐµ":3095,"ĠÐŁÐ¾Ð¼":3096,"ĠÐ½Ð°Ð¿ÑĢÐ°":3097,"ĠÑģÐ¸Ð¼":3098,"ÑĥÐ´ÑĬ":3099,"ĠÐ¿ÑĢÐ¾ÑĤÐ¸Ð²ÑĬ":3100,"ĠÐ»Ð¾Ð²":3101,"ĠÐ»Ð°Ð²":3102,"ĠÐ¿Ð»Ñ£":3103,"ĠÐ¼Ð°ÑĤÐ¸":3104,"ĠÐ¿ÐµÑĢÐµÐ²":3105,"ĠÐ¼Ð¸ÑĢÐ°":3106,"ĠÐ¶Ð¸Ð²Ð¾ÑĤ":3107,"ĠÑĤÐ¾Ð³":3108,"ĠÐ¼Ñ¹Ð¶":3109,"ÐµÐ³Ð¾":3110,"ĠÐ³ÑĬ":3111,"ÐºÐ¸ÑĦ":3112,"Ð¾Ð¼Ð¾Ñĥ":3113,"ĠÑıÐºÐ¾Ð²":3114,"ĠÐ±ÑĮÑİ":3115,"ĠÐ¿ÑĢÐ°Ð²ÑĮ":3116,"ÑģÐºÑĸÐµ":3117,"ÑģÑĤÐ²Ð¾Ð¼":3118,"ĠÐ½Ð°ÑĪÑĬ":3119,"Ð³Ð¾Ð²ÑĬ":3120,"ÑıÐ½Ðµ":3121,"ĠÐ³Ð¾ÑĢÐ¾Ð´ÐµÑħ":3122,"ĠÐ¸Ð²Ð°Ð½Ð¾Ð²Ð¸ÑĩÐ°":3123,"ĠÐ²Ð¾ÑĤÑĩÐ¸Ð½Ð°":3124,"ĠÑģÐ²Ñ£ÑĤÑĬ":3125,"ĠÐ¸Ð³Ð½Ð°":3126,"ĠÐ±ÑĭÐ»":3127,"ĠÑģÑĸÑ§":3128,"ĠÐ³Ð¾ÑĢÑ£":3129,"ĠÑĤÐ°ÐºÐ¾Ðµ":3130,"Ð¼ÑĮÑĢ":3131,"ÑģÑĤÐ°Ð½Ð¸":3132,"ĠÐ¼Ð¸ÑħÐ°Ð¸Ð»Ñĥ":3133,"Ð½Ð¸ÑĤÑĮ":3134,"ĠÐ·Ð»Ð°ÑĤÐ°":3135,"Ð´Ð¸ÑĤÐµ":3136,"ĠÐ²ÐµÐ»Ð¸ÐºÑĬ":3137,"ĠÑģÑĭÐ½Ð¾Ð²Ðµ":3138,"Ð½Ð¸ÑħÑĬ":3139,"ÑĢÐ¾Ð¼ÑĬ":3140,"ĠÑģÐµÐ»ÑĮ":3141,"ĠÐºÐ°ÑĢ":3142,"Ð³Ð¾ÑģÐ»Ð¾Ð²":3143,"ĠÐ³ÑĢÐ°Ð´Ñĥ":3144,"ĠÐ²Ñ£Ñĩ":3145,"Ð°Ð¼ÑĬ":3146,"ĠÐĶÐ°ÑĢÐ¸":3147,"Ð¾Ð´Ñĥ":3148,"ĠÐµÐ¸":3149,"Ð¾Ð±Ñ£":3150,"ĠÐ°Ð¿Ð¾ÑģÑĤ":3151,"ĠÐ´Ð¾Ð¿ÑĢÑıÐ¼Ð°":3152,"Ð¸ÑĨÐ°":3153,"ĠÑģÐ¸Ñı":3154,"ĠÐ¶Ð¸Ð²Ð¾ÑĤÐ°":3155,"ÑģÐºêĻĭ":3156,"ĠÐ¿Ð¾Ð¼ÐµÑīÐ¸":3157,"ĠÐµÑģÑĤ":3158,"ĠÐ´Ð°Ð¶Ðµ":3159,"ĠÑģÑĸÐµ":3160,"ĠÐ¸Ð¼Ðµ":3161,"ĠÐ²Ð¾Ð·Ð¼Ð¸":3162,"Ð½Ð¸Ð¼Ð°":3163,"ÑģÐ»ÑĬ":3164,"ĠÑģÐ¸Ð´":3165,"ĠÐ¸Ð·Ñĭ":3166,"ĠÑĢÐ¾Ð¼":3167,"ĠÑĤÐ¾Ð²Ð°ÑĢÑĭÑīÐ¸":3168,"ĠÐ³ÑĮ":3169,"Ð»Ð¸ÑģÑĮ":3170,"ÑĥÑĤÑĮ":3171,"ÑīÐµÑĤ":3172,"ĠÐ¢Ð¾Ð³Ð´Ð°":3173,"ĠÑģÐ¿Ð¸ÑģÐ¾Ðº":3174,"ĠÑĤÐ²Ð¾ÐµÐ¸":3175,"ĠÑĤÐ°ÑĤÐ°ÑĢ":3176,"ĠÑĩÑı":3177,"ĠÐ¶ÐµÑĢÐµÐ±":3178,"ÐºÐ¾ÑĤÐ¾ÑĢ":3179,"ĠÐ»ÑĬ":3180,"ĠÐ±ÐµÐ»":3181,"Ð¿Ð»":3182,"ĠÑģÐµÑĢÐµÐ´":3183,"ĠÑģÑĭÑīÐµÑĤÑģÑı":3184,"ĠÐ½Ð°ÑĪÑĮ":3185,"Ð¼ÐµÑĤ":3186,"ĠÐ²ÑģÐºÐ¾ÑĢ":3187,"ÑĶÐ¼ÑĬ":3188,"ĠÐ²ÑģÑ£Ñħ":3189,"ÑģÐ¿Ñ£":3190,"ĠÐºÐ¾Ð¸":3191,"ĠÑģÑĬÑģ":3192,"ÑĤÑĢÐ°":3193,"Ñ¡Ð¼":3194,"Ð»Ð¸ÑĤÐ¸":3195,"ĠÐ¿Ð¾Ð³Ð¾":3196,"Ð½Ð¸ÑĩÐµ":3197,"ĠÐ¿Ð¾ÐºÐ»Ð¾Ð½Ð¾":3198,"ÑīÑĬ":3199,"Ð±Ð¾Ñİ":3200,"ĠÐ½Ð°Ð´Ðµ":3201,"Ð±Ð»":3202,"Ð±Ñ§":3203,"ĠÐĺÐ¶Ðµ":3204,"êĻĭÑĤÑĬ":3205,"ÑģÐ²":3206,"ĠÑĩÐ»Ð²":3207,"Ð´Ð¾Ð¼ÑĬ":3208,"Ð³Ð»Ð¸":3209,"ÑĩÐµÑĤÑĬ":3210,"ĠÐ°Ð»Ðµ":3211,"ĠÐ½Ð°ÑģÐ»Ñ£":3212,"ĠÐ²Ð¸Ð½Ð¾Ð²Ð°":3213,"ÑģÑĤÐ¸ÑĤÑĮ":3214,"ĠÐ´Ð°Ð¸":3215,"ĠÐ¸Ð·Ð±Ð°Ð²":3216,"ÐµÐ´Ð¾Ð½":3217,"ĠÑĤÑĢÐµÐ±":3218,"ÑĢÐ°ÑĪÐ¸":3219,"ĠÑĢÐ¾Ð´Ñĥ":3220,"ĠÐ²Ð¸Ð´Ñ£ÑĤÐ¸":3221,"ĠÑıÐ²Ð»Ñı":3222,"ÑĦÑĬ":3223,"ĠÐ²Ð¿ÑĢÐµÐ´":3224,"ĠÑĤÐ²ÐµÑĢ":3225,"Ð³Ð¾Ð½":3226,"ĠÐ¶ÐµÐ½":3227,"ĠÐļÐ°ÐºÑĬ":3228,"ĠÐ´ÑĢÑĥÐ³ÑĬ":3229,"ĠÑĥÐ¶Ðµ":3230,"ÑĢÐ¸Ð½Ð°":3231,"ĠÐĴÐ¾Ð»":3232,"Ð¾Ð²Ð¾Ñİ":3233,"Ð»ÐµÐºÑģÐµ":3234,"ÑĩÐºÐ¸":3235,"ĠÐ±ÑĢÐ°ÑĪ":3236,"ĠÐ¼Ð¸ÑħÐ°Ð¸Ð»Ð°":3237,"ĠÐ³ÑĢÑ£ÑĪ":3238,"ÑıÑĤÑģÑı":3239,"ĠÐ±ÑĢÐ°ÑĤÑĥ":3240,"Ð¾Ð´ÐµÑĢ":3241,"ĠÐ³ÑĢÑ£ÑħÑĬ":3242,"Ð°Ð»Ñĥ":3243,"ĠÑİÐ½Ð¾":3244,"ĠÐ¾ÑģÐ¸":3245,"êĻģÑĭ":3246,"ĠÐ¿Ð¾Ð³Ð°":3247,"Ð°ÑħÑ«":3248,"ĠÐĽÐ°Ð·Ð°ÑĢÐµÐ²Ð¸ÑĩÑĮ":3249,"ĠÐ²ÑĬÑģÐµ":3250,"ĠÐºÐ¾ÑĢÐ°Ð±":3251,"Ð¾Ð»ÑİÐ±Ð¸":3252,"Ð¿Ð¾Ð²Ð°":3253,"ĠÐĲÐ·":3254,"ĠÐĴÐ°Ñģ":3255,"ĠÑĢÐ°Ð·ÑĥÐ¼":3256,"ĠÐ¿ÐµÑĤÑĢÐ°":3257,"ĠÐ²Ð·Ñĭ":3258,"ĠÑħÐ¾ÑĩÐµ":3259,"Ð·Ð½Ð°":3260,"ĠÐºÑĮ":3261,"ĠÐµÐ³Ð¾Ð¶Ðµ":3262,"ĠÑĤÐ²Ð¾Ñ§":3263,"Ð½Ð¸ÐºÐ¾Ð²ÑĬ":3264,"ĠÑĢÐ°ÑĤÑĮ":3265,"Ð²Ð¾Ð»Ð¸":3266,"ĠÐ´Ð°Ð»Ð¸":3267,"ĠÑĩÐµÑģÑĤÑĮ":3268,"ĠÐ´Ð½ÑĮ":3269,"ĠÐ»ÐµÑĤ":3270,"ĠÑĨÐ°":3271,"ĠÐĿÑ£":3272,"Ð½Ð°êĻĹ":3273,"ĠÑ§Ð·ÑĬ":3274,"Ð¾ÑĪ":3275,"ĠÐ¿Ð¾Ð´ÑĮÑı":3276,"ĠÐ¸ÑģÑħÐ¾Ð´":3277,"ĠÐ·Ð³Ð¾Ð²Ð¾ÑĢ":3278,"ÑĤÐ²Ð¾":3279,"ĠÐ±ÑĢÐ°ÑĤÑĬ":3280,"ÐµÐ½ÑĮÑİ":3281,"ĠÑĢÐµÐºÑĥ":3282,"ĠÑģÑĮÑĢ":3283,"Ð²Ð¸Ð´Ð¸":3284,"ÑĤÑĮÐµ":3285,"ĠÐ²ÑĬÑģÐº":3286,"Ð¼ÐµÐ½Ðµ":3287,"ĠÐ²Ð¾Ð»Ñİ":3288,"ĠÐ·Ð°ÐºÐ¾Ð½":3289,"ĠÐ±ÑĥÐ´ÐµÑĪÐ¸":3290,"ÐºÐ°Ñħ":3291,"Ð¾Ð²ÑĭÑħÑĬ":3292,"----":3293,"ÐµÑħÐ°Ð»Ð¸":3294,"ĠÑĢÐ¾":3295,"ĠÐ¿Ð¾Ð»Ð¸":3296,"ĠÑĢÑ¹Ðº":3297,"ĠÐ¿ÑģÐº":3298,"ĠÑĤÐ²Ð¾Ð¸ÑħÑĬ":3299,"ĠÐºÑĢÐ°Ð»ÐµÐ²Ð½Ð°":3300,"ĠÐ¾ÑĤÐ´Ð°ÑĤÐ¸":3301,"ĠÐ¡ÐµÐ³Ð¾":3302,"Ð¿Ð°Ñģ":3303,"ĠÑĪÐ°Ð½":3304,"Ġ100":3305,"ĠÐ¿ÑĢÐ¾Ð²":3306,"ÑģÑĤÐ²Ð¾Ð¼ÑĬ":3307,"ĠÐ¼Ð¾Ñĥ":3308,"ĠÐ¿Ñ§ÑĤÑĮ":3309,"êĻ½":3310,"ĠÐ¸Ð·Ð²Ñ£":3311,"ĠÐ´Ñ£Ð»Ñ£":3312,"ÐµÑħÑĬ":3313,"ÑģÑĤÐ¾Ðº":3314,"ĠÐ½Ð°Ð¼Ðµ":3315,"ĠÑĩÐµÑĤÐ²ÐµÑĢÐ¾Ð³":3316,"ĠÑĢÐ°Ð±ÑĬ":3317,"ĠÑģÐ²Ñ£ÑĤÐ°":3318,"ĠÐ±Ð¾Ð³Ð¾ÑĢÐ¾Ð´Ð¸ÑĨÑĭ":3319,"Ð¸Ð²":3320,"ĠÑģÐ¸ÑĢ":3321,"ĠÑĢÑĭÐ±":3322,"ĠÐ¸Ð³ÑĥÐ¼ÐµÐ½Ñĥ":3323,"ĠÐ¿Ñ¡":3324,"ĠÑĤÐ¾ÐºÐ¼Ð¾":3325,"Ð¶Ñ£":3326,"ĠÐŀÑĥ":3327,"ĠÑģÑĤÐ¾Ð»ÑĮ":3328,"Ð½ÑĸÑİ":3329,"ĠÑģÐ¾Ð³ÑĢÑ£":3330,"ĠÐ»ÑİÐ´ÐµÑħ":3331,"ĠÐ²ÑĢÐµÐ¼Ñ§":3332,"Ð½êĻ¿":3333,"ÑĪÐ°ÑģÑı":3334,"ĠÑĢÐ°Ñģ":3335,"ĠÑıÐ´ÑĢÐ¾":3336,"ĠÑģÐ¸Ñħ":3337,"ĠÑģÐ¸Ð»Ñĥ":3338,"ĠÐ»ÑĥÐ³Ð¸":3339,"Ð¸Ð´Ð¾ÑĪÐ°":3340,"ĠÐ¿Ð¸ÑĤ":3341,"ÐºÑĢÑĭ":3342,"ĠÐºÐ¾ÑĢÐ¼":3343,"Ð½Ð¾Ð¼Ñ¹":3344,"ÑĢÐµÐ¹":3345,"ĠêĻĹÐ¶Ðµ":3346,"ÐºÐ°Ñ§":3347,"ĠÐ¼ÐµÐ¶Ð¸":3348,"Ñ¡Ð½Ð°":3349,"ĠÐ´Ñī":3350,"ĠÐ¸Ð½Ð¾Ð³Ð¾":3351,"ĠÐºÐ°Ð¼ÐµÐ½ÑĮ":3352,"ĠÐ´Ð¾Ð½Ð´ÐµÐ¶Ðµ":3353,"ÑĢÐ¼":3354,"ĠÐ¿Ð¾Ð³ÑĢÐµ":3355,"ĠÐķÑģÑĤÑĮ":3356,"ĠÐ¼Ð°Ñģ":3357,"Ð¿Ñģ":3358,"ĠÐ±Ñ£Ñģ":3359,"Ð¹ÑģÑı":3360,"Ð¾Ð²ÑĭÐ¼ÑĬ":3361,"Î±":3362,"Ð³Ð°ÑĢÐ¸":3363,"Ð´ÐµÑģÑıÑĤ":3364,"Ð¿êĻĭ":3365,"ĠÐ´Ð½Ðµ":3366,"ĠÐ¿ÑĢÐ¸ÑģÐ½Ð¾":3367,"Ð´Ñ«":3368,"ĠÐ²ÑģÑ§ÐºÐ¾Ð¸":3369,"ĠÐ¿Ð¸ÑĪ":3370,"ÒĨ.":3371,"ĠÐŁÐµÑĤÑĢÑĬ":3372,"ÑģÑĤÐ²Ð¾Ð²Ð°":3373,"Ð¸ÑĤÑĭ":3374,"ĠÐ½Ð°ÑĪÐµÐ¼Ñĥ":3375,"ĠÑģÐ¸Ð»Ð°":3376,"ÑĤÐ¾Ð½":3377,"Ð²êĻĭ":3378,"Ð¶Ð´Ð¾":3379,"ÑĪÐ¸ÑģÑı":3380,"ĠÐ¼ÑĭÑģÐ»Ð¸":3381,"ĠÐ¸ÑģÐºÐ°ÑĤÐ¸":3382,"ÑģÐ¸Ð¼":3383,"ÑĢÐ°Ð²ÑĮ":3384,"Ð²ÑĢÑĮ":3385,"ÐµÐ¼Ð¾Ñĥ":3386,"ĠÑħÐ»ÐµÐ±":3387,"ÑĭÐ¸ÑħÑĬ":3388,"ĠÐ¼Ð½Ð¾Ð·Ð¸":3389,"ĠÐ²ÐµÐ·":3390,"ÑĢÑ£Ð±":3391,"ĠÑĢÐ¾Ð´Ð¸ÑĤÐµÐ»":3392,"ĠÐ±Ð¾Ð¶":3393,"ÐµÐ½Ñĥ":3394,"ĠÐľÐ¾ÑģÐºÐ²Ðµ":3395,"ĠÐ½Ñ«":3396,"Ð·ÑĭÐ²Ð°":3397,"ĠÐ¿ÑĢÐ¸ÐºÐ°Ð·Ñĥ":3398,"ĠÑģÐ»ÑĥÐ¶Ð¸Ð»":3399,"Ð¿ÑĢ":3400,"ĠÑĢÐµÐµ":3401,"ĠÐ½Ð½":3402,"Ð»ÑİÐ±Ð»ÐµÐ½":3403,"ĠÐ¶ÐµÐ½Ñ£":3404,"ĠÐ¿ÑĢÐ¸ÑıÑĤ":3405,"ĠÐºÐ¾ÑĢÐ¾Ð»ÑĮ":3406,"ĠÐºÑĢÐµÑģÑĤÑĮÑıÐ½Ðµ":3407,"ĠÐ´Ñĸ":3408,"Ð³Ðµ":3409,"Ð»ÑİÐ±Ð¸":3410,"ÑĦÐµ":3411,"ÑĪÐ°ÑģÑ§":3412,"ĠÐ¼Ð»ÑģÑĤÐ¸":3413,"Ð½ÑĮÑĸ":3414,"Ð½Ð¸Ñħ":3415,"ĠÐ¿Ð¾Ð»Ð¾Ð²Ð¸":3416,"ÑĪÑĤÐ°Ð°Ð³Ð¾":3417,"ĠÐ½Ñĥ":3418,"ĠÐºÐ¾Ð¶":3419,"ÑİÑĪÐºÐ°":3420,"ĠÐ´Ð²Ð¾ÑĢÐµ":3421,"ĠÐ¿Ð¾Ð¼Ð¸Ð»":3422,"ĠÐ´ÑĢÑĥÐ¶":3423,"ĠÐĲÐ»ÐµÐºÑģÐ°Ð½Ð´ÑĢÑĥ":3424,"ÑģÐ¼ÑĮ":3425,"ĠÑģÑĸ":3426,"ĠÐ»Ð°ÑĤÐ¸":3427,"ĠÑ¡Ðº":3428,"ÑĩÐ¸Ð¼":3429,"Ð½ÑĮÑİ":3430,"ĠÐºÐ½Ð¸Ð³Ð°":3431,"ĠÐ³Ð»Ð°Ð²Ñĭ":3432,"ĠÐľÑĥÑĢÐ¾Ð¼ÐµÑĨÑĬ":3433,"ĠÐ·Ð¼Ð¸":3434,"ĠÐ¿Ð¾ÑģÐ»Ñ£Ð´":3435,"Ð¼ÐµÐ½ÑĮ":3436,"ĠÑĤÑİÑĢ":3437,"Ð¹ÑĤÐµ":3438,"ĠÐ³Ð¾Ð»Ð¾Ð²Ð°":3439,"ĠÐ¼Ð¸ÑħÐ°Ð¸Ð»":3440,"Ð²ÐµÐ´Ðµ":3441,"ĠÐ½Ð°Ð¼ÐµÑģÑĤ":3442,"ÑĤÐ½Ð¾":3443,"ĠÐºÐ»ÐµÐ²":3444,"ĠÑ¡Ð³":3445,"ĠÑ¿ÑĨ":3446,"ĠÐ³ÑĢÑ£ÑĪÑĮ":3447,"ĠÑĩÐ°Ð´Ð¾":3448,"ĠÑ¡Ð²":3449,"ĠÐºÐ°Ð·Ð½Ð°":3450,"Ð½Ð¸ÐµÐ¼ÑĮ":3451,"Ð¾ÑģÐ»Ð°Ð²":3452,"ĠÐ¼Ð°Ð»Ð°":3453,"ĠÐµÐ·":3454,"ĠÐ²ÐµÐ»ÑĮÐ¼Ð¸":3455,"ĠÐķÑĢÑĥÑģÐ»Ð¾Ð½":3456,"ĠÑĨÐµÑĤÐ²ÐµÑĢ":3457,"ĠÐ²Ð¼ÐµÑģÑĤÐ¾":3458,"ĠÑĥÐ¼ÑĬ":3459,"Ð¾Ð¶Ð´Ð°":3460,"Î¿":3461,"ĠÐ½Ð¾Ð³Ð°":3462,"ĠÑģÐµÑģÑĤ":3463,"ĠÐ²ÑģÐµÐ¼Ñĥ":3464,"ĠÑģÑĥÐ´Ñĥ":3465,"ĠÐºÑĥÐ·":3466,"ĠÐ²Ð»Ð°ÑģÑĤ":3467,"ĠÑģÑĢÐµÐ´":3468,"ĠÑģÑĤÐ°ÑĤ":3469,"ÑģÑĤÐ²Ñ¹":3470,"ĠÐ¿ÑĢÑ£Ð´Ð°":3471,"ĠÐ¸ÑģÐ¿Ð¾Ð»":3472,"ĠÑĩÐµÐ»Ð¾Ð²Ñ£ÐºÐ°":3473,"ĠÐ´ÑĢÑĥÐ¶Ð¸":3474,"ĠÑģÐ¾Ð·Ð´Ð°":3475,"ĠÐ¿ÑĢÑĮ":3476,"Ð½Ð¸Ð¼":3477,"ĠÐ¿Ð¾ÑģÑ£":3478,"ÑĪÑĤÑİ":3479,"ĠÐ¿Ð¾ÑģÐ»ÑĥÑĪÐ°":3480,"ĠÐºÑĢÑĮ":3481,"Ð½ÑĭÐ°":3482,"ĠÐ¿ÑĬ":3483,"ĠÐ¸Ð²Ð°Ð½Ð¾Ð²":3484,"ĠÑģÐ½Ð°ÑĢÑıÐ´Ñĥ":3485,"in":3486,"ĠÐ¿Ð»Ðµ":3487,"ĠÐ½Ð¸ÑĩÑĤÐ¾Ð¶Ðµ":3488,"ĠÐ»ÑİÐ±Ð¸":3489,"ĠÑģÐºÐ¾Ð½":3490,"Ð»Ð¸Ð½Ð°":3491,"ĠÐ¿Ð¾ÑģÑĢÐµÐ´":3492,"ĠÐ»ÐµÐ²":3493,"ĠÐ¿Ð»Ð°ÐºÐ°":3494,"ĠÐ´ÐµÑĤÐµÐ¼":3495,"ĠÐºÐ°Ð¼ÐµÐ½Ð¸":3496,"ÑĩÐ°Ð½":3497,"ĠÐ²Ð¸Ð´Ðµ":3498,"ĠÐ¾Ð´Ð¸Ð½":3499,"ĠÑĢÐ°Ð·Ð±Ð¾Ð¹":3500,"ÑģÐ»Ð°Ð²Ð°":3501,"ĠÐ»ÑİÐ±Ð¾Ð²ÑĮ":3502,"ĠÐ±Ð»Ð¸Ð·":3503,"ĠÐ±ÑĥÐ´Ðµ":3504,"ĠÑĢÑĥÐºÐ¸":3505,"ĠÐ½Ð°Ð´Ñ£":3506,"ĠÑĢÐ¾Ð±":3507,"ĠÑĩÑĢÐµ":3508,"ÑĥÐ´Ñĥ":3509,"ĠÑģÐµÐ¹":3510,"ĠÑĦÑĥÐ½":3511,"ĠÐ°Ð½Ð³":3512,"ĠÐ¸Ð½Ñ£":3513,"ÑıÑģÑı":3514,"ĠÐ³Ð»Ð°Ð³Ð¾Ð»Ð°ÑĤÐ¸":3515,"ĠÑĢÐ¾Ð¶Ðµ":3516,"Ð¸Ð²ÑĬ":3517,"ĠÑģÑĢÐµÐ±":3518,"Ð½Ð¸ÑĨ":3519,"ĠÐ½Ð¾ÑīÑĮ":3520,"ĠÑĹ":3521,"Ð¾ÑĤÐµ":3522,"ÑĩÐ¸ÑĤÑģÑı":3523,"ĠÐ³ÑİÑĢ":3524,"ĠÐ²ÑģÑ§ÐºÐ¾Ðµ":3525,"ĠÑģÐ°Ð¼Ð¾Ð³Ð¾":3526,"ĠÐ¿ÐµÑĩÐ°ÑĤ":3527,"ĠÐ³Ð¾ÑĢÐ°Ð·":3528,"Ġ9":3529,"ĠÐ²ÑĭÐ±Ð¾ÑĢ":3530,"ĠÐ±Ð»Ð°Ð³Ð¾ÑģÐ»":3531,"Ð¿ÑĢÑ£":3532,"ÐµÑģÑĮ":3533,"ĠÐ¿ÐµÑĤÑĢ":3534,"ÑıÐ·":3535,"ÐµÐ¼Ñ¹":3536,"ĠÐ¿Ð¾Ð»Ñı":3537,"ÑħÑ«":3538,"ĠÐ±ÑĢÐ°Ð½ÑĮ":3539,"ĠÐ½Ð¸ÐºÐ¾Ð»Ð¸":3540,"ĠÐĴÐ»Ð°Ð´Ð¸Ð¼":3541,"ĠÐ¾Ñĩ":3542,"Ð½Ð¸Ð°":3543,"ĠÐ¶ÐµÐ½Ð¾Ñİ":3544,"ĠÐ¿ÑĢÐ¸Ð»Ð¾Ð¶":3545,"ĠÐºÐ½Ð¸Ð³Ð¸":3546,"ĠÑĤÐ¾Ð¿Ð¾ÑĢ":3547,"ĠÐ¿ÑĢÐ¸Ð±Ð»Ð¸":3548,"ĠÑĩÐµÐ»Ð¾Ð²Ñ£ÑĩÐµ":3549,"ÑħÐ¾ÑĤÑ£":3550,"ĠÐ°Ð´Ð°":3551,"ĠÐ´Ð¾ÑĢÐ¾Ð³":3552,"Ð¶ÐµÑĤÑĮ":3553,"ÑĩÐ¸ÑĤÑĮ":3554,"êĻģÐ¸":3555,"ĠÑ¡Ð½Ð¸":3556,"ĠÐ½Ñ£Ðº":3557,"ĠÐ±Ð¾Ð»Ð³Ð°ÑĢ":3558,"ÑĤÐ¾Ð¼ÑĬ":3559,"ĠÑģÐ»Ð°Ð²Ñĭ":3560,"ĠÐ´ÑĮÐ½ÑĮ":3561,"ĠÐ½Ð°Ð¿Ð¸ÑģÐ°Ð½Ð¾":3562,"ĠÐºêĻĳ":3563,"Ð±Ð¸ÑĪÐ°":3564,"ĠÐ³ÑĢÑ£ÑħÐ°":3565,"Ð°ÑĢÑ§":3566,"ĠÐ¸Ð²Ð°Ð½Ñĥ":3567,"ĠÑĩÐ°ÑģÑĤÐ¸":3568,"Ġ70":3569,"ĠÑģÑĥÐ¿":3570,"ĠÐĲÐ»Ðµ":3571,"ĠÑ³ÐµÑ¡":3572,"Ð»Ð°Ð²Ð¸":3573,"ĠÐ¸Ð½ÑĭÑħ":3574,"ĠÐ¿ÑĢÐµÑģ":3575,"ĠÐ½ÐµÐ²":3576,"ĠÐºÐ¾ÑĢÐ¼Ð¸":3577,"ÑħÐ°ÑĤÑĮ":3578,"ĠÑģÑĢÑ£":3579,"Ð²Ð¾Ñĥ":3580,"Ð½Ñ£Ðµ":3581,"ĠÐ³Ð¾Ð²Ð¾ÑĢÐ¸ÑĤÑĬ":3582,"ĠÑĩÐ°Ð´Ð°":3583,"ĠÐ¼êĻĳ":3584,"ĠÑĤÐ¾Ñİ":3585,"ĠÐ²Ñ£ÑĤ":3586,"ĠÐĴÐ¸Ð´Ñ£":3587,"ĠÐ¶Ð¸Ð²Ñĥ":3588,"ĠÐ¿ÑĥÑĤÑĮ":3589,"ĠÐ²ÐµÐ»Ð¸ÐºÐ¸Ð¸":3590,"ĠÑ¡ÑģÑĤÐ°Ð²":3591,"ĠÐ²Ð¾Ð»Ð¸":3592,"ĠÑĤÑĢÐµÑĤ":3593,"Ñ©":3594,"ÐµÐ½ÑĸÐ¸":3595,"ĠÐ¿Ð¾ÐºÐ¾ÑĢ":3596,"ĠÐºÑ¡":3597,"Ð´Ð¾Ñİ":3598,"Ð»ÐµÐ½Ð°":3599,"ĠÐ²Ð¸Ð½Ð°":3600,"Ð°ÑĢÐµ":3601,"ĠÐ¿Ð°ÑĤÑĢÐ¸Ð°ÑĢÑħ":3602,"ĠÑģêĻĹ":3603,"Ð½ÑĮÑı":3604,"ĠÐ¸ÑĤÐ¸":3605,"ĠÐ¿ÑĢÑıÐ¼":3606,"ĠÑģÐ¸Ð¼ÑĬ":3607,"Ð¸ÑĤÐµÐ»Ð¸":3608,"ÐºÐ¸ÑĤÐ¸":3609,"ĠÐŁÐµÑĢ":3610,"ĠÑĢÑĥÑģÑĮ":3611,"ĠÐ¿Ð¸ÑīÐ°Ð»ÑĮ":3612,"ÑģÐºÐµ":3613,"ĠÐ¥ÑĢÐ¸ÑģÑĤ":3614,"ÑĩÐµÑİ":3615,"ĠÐ¿Ð¸ÑĤÑĮ":3616,"ÑĢÑ¡":3617,"ĠÐ¼ÐµÑĩ":3618,"ĠÐ¿Ð¾Ð³Ð¸Ð±":3619,"ĪĻ":3620,"ĠÑģÐµÐ¼Ñĥ":3621,"ĠÐ¿ÑĢÐ¸Ð»Ñ£":3622,"ÑĢÐ¸ÑĩÑĮ":3623,"ĠÐ³Ð¾ÑģÐ¿Ð¾Ð´ÑģÑĤÐ²Ð¾":3624,"ĠÐºÐ°Ð·Ð½Ð¸ÑĤÐ¸":3625,"Ñ§ÑĤÐµ":3626,"ĠÐ½Ð°Ð¼Ñ£":3627,"ÑģÐºÑĸÐ¸":3628,"ĠÐĶÑĥ":3629,"ĠÑģÐµÑĢÐµÐ±":3630,"ĠÐ½Ð°ÑĢÐ¸ÑĨÐ°":3631,"ĠÐºÐ»ÑİÑĩ":3632,"ĠÐ¿ÑĢÐ¿Ð±":3633,"ĠÐ²ÑģÑ§ÐºÐ¾Ð¼Ñ¹":3634,"Ð¼ÑĭÑĪ":3635,"ĠÐ½Ð¸Ð¼ÑĮ":3636,"ĠÐ¿Ð¾Ð´Ð¾Ð±Ð½Ð¾":3637,"ÐµÑĢÑĥ":3638,"ÐµÑģÐ°":3639,"ĠÐ³Ð»Ð°Ð²Ñĥ":3640,"ĠÐºÑ¹Ð¿":3641,"ĠÐºÐ¾ÑģÐ°":3642,"ĠÐºÐ¾Ð³Ð´Ð°":3643,"Ð¸Ð»Ð¾Ñģ":3644,"ĠÐ´ÑĥÐ±":3645,"ĠÐ¶Ð°Ð»Ð¾Ð²":3646,"Ð¾Ñĩ":3647,"ĠÐ³ÑĢÑĬ":3648,"ÑĹÑİ":3649,"ĠÐ¿Ð¾ÑģÑĭÐ»Ð°":3650,"ĠÐ¾ÑĥÑĩ":3651,"ĠÐ»ÐµÐ¶":3652,"ĠÑĥÐ³Ð¾Ð´ÑĮÐ¸":3653,"ĠÐ±Ð¾Ð¶Ðµ":3654,"ĠÐºÐ¾ÑĤÐ¾ÑĢÑĭÑı":3655,"Ð·Ð°Ð¼Ð¸":3656,"ĠÑģêĻĳ":3657,"ĠÐµÐ²":3658,"ĠÐ»ÑİÐ´Ð¼Ð¸":3659,"ĠÐ¿Ð¾Ð´Ð¾Ð±Ð°ÐµÑĤ":3660,"ÑĢÐ¸Ð½":3661,"ĠÐºÑĥÐ´Ñĭ":3662,"Ð°Ð²ÑĪÐµ":3663,"ĠÑĩÐ°ÑģÑĤÑĮ":3664,"Ð½Ð¾Ð¼êĻĭ":3665,"ĠÐ¿Ð¾ÑģÐ»êĻĭ":3666,"Ð°Ð½Ð¾Ð²":3667,"ĠÐŀÑĤÑĬ":3668,"ĠÑħÑĢÑģÑĤ":3669,"ÑīÐµÐ¸":3670,"ÐºÑ«":3671,"ĠÐ²ÐµÐ»Ð¸ÐºÐ¾Ðµ":3672,"ÑµÐ¿":3673,"Ð´Ð¾Ð²":3674,"ĠÑģÐ²ÑıÑīÐµÐ½":3675,"ĠÐ±Ð»Ð°Ð³Ð¾Ð´":3676,"ĠÐ²Ð¾Ð»Ð¾Ð´Ð¸Ð¼ÐµÑĢÑĬ":3677,"ĠÐ¿Ð°ÐºÐ¾":3678,"ĠÑĩÐµÐ»Ð¾Ð²ÐµÐºÑĥ":3679,"Ð¾Ð»Ð¾Ð¼":3680,"ĠÐ²Ñ£ÑĢÐ¾Ñİ":3681,"ĠÐ¿Ð¾ÑĪÐ»Ð¸Ð½Ñĭ":3682,"ĠÐ¼ÐµÐ»":3683,"ÑĪÐ¸Ð¼":3684,"ĠÑĢÑĥÐ±Ð»ÑĮ":3685,"Ð½êĻĳÐ¸":3686,"Ð»Ð¾Ñģ":3687,"ÑİÑĩÐ¸":3688,"ĠÑĦÐ¸Ð»Ð¸":3689,"Ð°ÑĤÐµ":3690,"ĠÑĪÐ¸ÑĢÐ¾Ðº":3691,"Ð³Ð¾Ðµ":3692,"ĠÐ¸Ð¼ÑĮ":3693,"ĠÐ¼ÑĨ":3694,"Ð»Ð°ÑģÑĮ":3695,"Ð³Ð´Ñĭ":3696,"ĠÐ¡Ð°Ð¼":3697,"ĠÐ¿ÑĢÑ£Ð¼":3698,"ĠÑĤÑĢÐµÑĤÐ¸":3699,"ĠÐŁÑĢÐ¾":3700,"ĠÐºÐ¾Ð½ÑĨÐ°":3701,"ĠÐ½Ð°ÐºÐ°Ð·Ð°Ð½Ð¸Ðµ":3702,"ÑıÑħÑĥ":3703,"ĠÐĲÐ¼Ð¸":3704,"ĠÐ³Ð»Ðµ":3705,"ĠÐ·Ð»Ð¾Ð±":3706,"ÑĪÐµÑİ":3707,"ĠÐ±ÑĭÐ²":3708,"ĠÐļÑĬ":3709,"ĠÑĤÑ£Ð»ÐµÑģ":3710,"ĠÑģÐ¿Ð¸":3711,"ĠÐ¼Ð½Ð¾Ð¶ÐµÑģÑĤÐ²Ð¾":3712,"ÑĭÐ½Ðµ":3713,"ĠÐ½Ð¾Ð²Ð°":3714,"ĠÑĪÐµÐ»":3715,"Ð´Ð¾Ñħ":3716,"ĠÑģÐ¿ÑĢÐ°ÑĪÐ¸":3717,"ĠÐ³Ð½Ñ£Ð²ÑĬ":3718,"ĠÐ±ÑĢÐµ":3719,"ĠÐ¡Ð»Ñĭ":3720,"Ð²ÑĭÐ¹":3721,"ĠÐºÐ¾ÑĥÐ½Ð¾":3722,"ĠÑĢÑ«":3723,"ĠÑģÐ²Ð¾ÐµÐ¼ÑĮ":3724,"ĠÑ¡Ð½ÑĬ":3725,"ĠÑģÑĤÐ¾ÑĢÐ¾Ð½Ñĭ":3726,"ĠÐ³Ñ¹":3727,"ĠÐ¿ÑĢÐ¸Ð»Ðµ":3728,"ĠÐ¸Ð¼ÐµÐ½Ð¸":3729,"ĠÑģÐ»ÑĭÑĪÐ°Ð²ÑĬ":3730,"ÑģÐºêĻĳ":3731,"ĠÑĢÐ°Ð±Ð°":3732,"È¥":3733,"ÑĢÐ¸ÑĤ":3734,"ĠÑĥÐ¼ÐµÑĢ":3735,"ĠÐ¿Ð°Ð¼ÑıÑĤÐ¸":3736,"ĠÐĴÑģ":3737,"ĠÐ²Ð¾Ð·Ð²ÑĢÐ°ÑĤÐ¸":3738,"ĠÑĤÐ¾Ð²Ð¾":3739,"Ð³Ð½Ñ£":3740,"ÐµÐ·ÑĬ":3741,"ĠÐļÐ½Ñı":3742,"ĠÐ»ÐµÑģÑĭ":3743,"ĠÐ½Ð¾Ð²Ð³Ð¾ÑĢÐ¾Ð´ÑĮ":3744,"ĠÐ¿ÐµÑĢÐµÑģ":3745,"ĠÐ¿Ð¾Ð³ÑĥÐ±":3746,"Ð°Ð³Ð°":3747,"ĠÐ¿Ð¾Ð¶Ð¸":3748,"Ð³Ð°ÑĤÐ¸":3749,"ĠÐ½Ð°Ð¹":3750,"ÑīÐ¸Ð¼ÑĬ":3751,"ĠÑĤÐ°ÐºÐ¾Ð¹":3752,"ĠÑģÑĤÑĢÐµÐ»":3753,"ĠÑĤÐ²Ð¾ÑĢÐ¸":3754,"ĠÐ´ÑĢÑĮ":3755,"ĠÐ°Ð»Ð¸":3756,"Ð¶ÑĥÑĤ":3757,"ĠÐ¿ÑĢÐ¸Ð¸Ð´Ðµ":3758,"ĠÐ½Ð¾ÑīÐ¸":3759,"Ð½Ð¸ÐºÑĭ":3760,"ĠÐ¾ÑģÐ¾Ð±":3761,"ĠÐ´Ñ£Ð»ÑĬ":3762,"Ð»ÐµÐ½Ñĭ":3763,"ĠÐ¶ÐµÐ·":3764,"ĠÐ´ÑĥÑĪÐ¸":3765,"ÐµÐ²ÑĮ":3766,"ĠÐ¶Ð¸ÑĤÑĮ":3767,"ĠÑ¡Ð±ÑĢÑ£":3768,"ĠÐ¾ÑģÐ°":3769,"ĠÐľÑĥÑĢÐ¾Ð¼ÐµÑĨÑĮ":3770,"ĠÐ¿ÑĥÑĪÐµ":3771,"ĠÐ²ÑģÑ§ÐºÐ¾Ð¼ÑĬ":3772,"ĠÐ²Ð°ÑģÐ¸Ð»ÑĮÐµÐ²Ð¸ÑĩÐ°":3773,"ĠÐ¿ÑĢÐ¾Ð¼ÐµÐ¶":3774,"ĠÑħÐ°":3775,"ĠÐ¿Ð¾Ð¿Ð°":3776,"ĠÐ¿ÑĢÐ¸Ð²Ð¾Ð´":3777,"ĠÐ¼Ð¸ÑĤÑĢÐ¾Ð¿":3778,"ĠÐºÐ½Ñ§Ð·Ñİ":3779,"ÑīÐ¸ÑħÑĬ":3780,"ĠÐ»ÑİÐ´ÑĸÐµ":3781,"ĠÐ½Ð°ÑĩÐ°ÑĪÐ°":3782,"ĠÐ³Ð»Ñĥ":3783,"ÑĪÐ°Ñı":3784,"ĠÐ¼Ð¾ÑģÐºÐ²Ðµ":3785,"ĠÐ¾Ð±ÑĭÑģÐº":3786,"ĠÑĢÑĥÐ±Ð»Ñı":3787,"Ð¾Ð±ÑĢÐ°":3788,"ĠÐ¢ÑĬ":3789,"ĠÐ³Ð¾ÑĢÑĭ":3790,"ĠÐŁÐ°":3791,"ĠÐ¸Ð´Ñĥ":3792,"ĠÐ²Ð·ÑıÑĤÑĮ":3793,"êĻģÑ£":3794,"ĠÐ´ÐµÐ½ÐµÐ³":3795,"ĠÐ¼Ð¸Ð¼Ð¾":3796,"ĠÐ³Ð»Ð°Ð³Ð¾Ð»Ñı":3797,"ĠÑģÐ¼ÐµÑĢÑĤÑĮ":3798,"ĠÐ²Ð°Ð²":3799,"ĠÑĤÐ²Ð¾ÐµÐ¼Ñĥ":3800,"Ð¿Ð¸ÑģÐ¸":3801,"ÑīÐ¸Ñħ":3802,"ĠÐ¾Ð³Ð½ÑĮ":3803,"ĠÑĩÑĮÑĤÐ¾":3804,"ĠÑģÐµÑĢÐµÐ±ÑĢÐ°":3805,"ĠÑĢÑĭÑĨÐµÑĢ":3806,"ÑĢÐ¾Ð´":3807,"Ð°ÑĢÑĥ":3808,"Òĩ.":3809,"ÑĩÐ°Ð»":3810,"ĠÐ·ÐµÐ¼Ð»ÑĮ":3811,"ĠÐ¾ÑģÑĤÐ°":3812,"ĠÐ¾Ð±Ðµ":3813,"ĠÐºÐ¾Ðµ":3814,"ĠÐ²ÐµÐ»ÐµÐ½Ð¾":3815,"ĠÑģÐ¼ÐµÑĢÑĤ":3816,"ÑĮÐ¼":3817,"ĠÐ½ÐµÑģ":3818,"ĠÑĩÐµÑĤÐ²ÐµÑĢÐ¾Ð³ÑĢÐ°Ð½":3819,"ĠÑģÐ½Ñ£":3820,"Ð¼Ð¶Ðµ":3821,"ÑĤÐ¸Ð½Ñĥ":3822,"ÑĪÐµÐµ":3823,"ÑĤÐ²Ñĭ":3824,"ÑĪÑ£":3825,"ĠÐ²Ð²ÐµÑĢ":3826,"ĠÐºÐ½ÑıÐ³":3827,"Ð½Ð¸ÑĨÑĥ":3828,"ĠÑģÐºÐ¾Ð»ÐºÐ¾":3829,"Ð½Ð¾Ð²Ðµ":3830,"ĠÐĳÑĭ":3831,"ĠÑĪÑĥ":3832,"ĠÐ»ÐµÐ¶Ð°":3833,"ĠÑĥÐ±Ð¾Ð³":3834,"Ð¸ÑģÑı":3835,"ĠÐ±ÑĢÐ¾Ñģ":3836,"Ð¾Ð»Ñĭ":3837,"Ð¾ÑĥÐ¼Ñ£":3838,"ÐºÐ¾Ð¼ÑĮ":3839,"ĠÐ¿Ð¾Ð¼ÑĭÑģÐ»Ð¸":3840,"ĠÐŁÐ¾Ð»":3841,"ĠÐ²ÐµÐ»Ð¸ÐºÑĥÑİ":3842,"ĠÐ²Ð¸Ð´Ñı":3843,"ĠÐ¿Ð°ÑĪ":3844,"ĠÑĨÐµÑĢÐºÐ¾Ð²":3845,"Ð±Ð»Ð°":3846,"Ð½Ñ£Ð¹":3847,"ÑĤÑģÑ§":3848,"ÑħÑĭ":3849,"ĠÑĢÐ°ÑģÑĤ":3850,"Ð±ÐµÐ¶":3851,"ĠÑĤÑĢÐ¾Ð¸":3852,"ĠÑģÑĢÐ´":3853,"ĠÐ³Ð¾ÑģÑĤÑĮ":3854,"ĠÐ¿Ð¾ÑĪÐ»Ð¸Ð½":3855,"ĠÐ²Ñĸ":3856,"Ð½Ð¸Ð¼ÑĬ":3857,"ĠÑĢÑ£ÑĪÐ°":3858,"ÑĪêĻĻ":3859,"ÑĪÐ¸ÑĤÑĮ":3860,"ĠÑ¡Ð´":3861,"ĠÐ´Ð¾Ð¿ÑĢÐ°Ð²Ð¸ÑĤÐ¸":3862,"ĠÑģÑĤÐ°ÑĤÑĮÐ¸":3863,"ĠÐ¸Ð½Ð°":3864,"ĠÐ±Ñ§":3865,"Ð´Ð¸Ð½Ð°":3866,"ĠÐºÑĢÐ¾Ð¼Ñ£":3867,"ÑĪÐ¾Ñĥ":3868,"Ð°ÑĢÑİ":3869,"ĠÑĢÐµÐºÐ¾ÑĪÐ°":3870,"ĠÑģÐ²Ðµ":3871,"ĠÐ¼ÐµÑģÑı":3872,"Ð½ÐµÐ¼Ñĥ":3873,"ĠÑħÐ¾Ð´Ð¸":3874,"ÑģÑĤÐ½Ð¾":3875,"ĠÐ±Ð³Ð°":3876,"Ð¿Ð¾ÑĢ":3877,"ÑĪÐµÐ½Ð¸Ðµ":3878,"ĠÑ¿Ð´Ð°":3879,"ĠÐ´Ñ£Ð»Ñĥ":3880,"ĠÑıÐ·ÑĭÐºÑĬ":3881,"ĠÑĥÑģÑĤÐ°Ð²":3882,"ĠÐ³Ð¾ÑĢÐµ":3883,"ĠÐ¿ÑĢÐ¸ÐºÐ°Ð·Ðµ":3884,"ĠÐ°Ð±":3885,"Ð¿Ñ¹":3886,"ĠÐ¾Ð±Ð¾Ð·":3887,"ĠÐĽÑİ":3888,"ĠÑħÐ¾Ð»Ð¾Ð¿Ð¸":3889,"ÑħÐ°ÑĤÐ¸":3890,"ÑĩÑĤÐ¾":3891,"Ñ§ÑīÐ°":3892,"ĠÐ¿Ð¾Ð¶Ð°Ð»Ñĥ":3893,"ĠÐ¸Ð³ÑĥÐ¼":3894,"ÑĤÐ°Ð½":3895,"Ð¶Ð´Ñĭ":3896,"Ð¾Ð²Ñ£ÑĢ":3897,"ĠÐ¿ÑĢÐ¾Ð·":3898,"Ð´Ð°Ð²":3899,"ĠÑĢÐ°Ð´Ð¾ÑģÑĤÑĮ":3900,"ÑĩÐ¸Ð½Ñĭ":3901,"ĠÐ³Ð¾Ð»Ð¾Ð²Ñĭ":3902,"ĠÐ´Ð°Ð»ÐµÑĩÐµ":3903,"Ð»Ð³":3904,"ĠÐ·Ð°Ð´":3905,"ĠÑħÐ¸ÑĤÑĢÐ¾ÑģÑĤÐ¸":3906,"ĠÐ´Ð°Ð½ÑĮ":3907,"ĠÐŀÐ½":3908,"ĠÐ¿Ð¾Ð¿ÐµÑĢÐµ":3909,"ĠÐ´Ð²ÐµÑĢ":3910,"ĠÐ³Ð¾ÑģÐ¿":3911,"ĠÐ²Ð¾Ð·ÑĢÐ°":3912,"ĠÐ½Ñ£ÑĤÑĬ":3913,"ĠÐ¿Ð»Ð¾Ð´":3914,"ĠÐ±Ð¾Ñİ":3915,"ĠÑĤÐ°ÑĤÑĮ":3916,"ĠÐºÐ¾ÑĤÐ¾ÑĢÐ°Ñı":3917,"ĠÐĲÐ·ÑĬ":3918,"ĠÑģÐ¾ÑģÑĤÐ°Ð²":3919,"Ð¾Ð±Ð¸":3920,"Ð´Ð°Ð½":3921,"ÑĢÑ£ÑĤÐ¸":3922,"Ð¸Ð·":3923,"ĠÐ¿Ð¾Ð²Ð¸Ð½":3924,"Ð·Ñİ":3925,"ĠÐ¾ÑĨ":3926,"ĠÐ¿Ð¾ÑħÐ¾Ð´":3927,"ĠÐ¸ÑģÐ¿ÑĢÐ°Ð²":3928,"ĠÐ¼Ð¾ÐµÐ¸":3929,"ĠÐ½ÐµÐ±Ð¾":3930,"ĠÑģÐ¾ÑħÐ°":3931,"ÑĢÐµÑĤ":3932,"ĠÐ²Ñ£ÑģÑĤÑĮ":3933,"ĠÐ½Ñ£ÐºÐ¾Ðµ":3934,"ÑĨÑ£ÑħÑĬ":3935,"Ð²Ð°Ð½Ð°":3936,"ĠÐ´Ð°ÑĤÑĮ":3937,"ĠÐ±Ð¾Ð³Ð¾Ð¼":3938,"ĠÐºÐ¾Ð»Ñ£":3939,"ÑĢÐ¾ÑĤÐ¸Ð²":3940,"Ð³ÑµÐ¿":3941,"ĠÐ¿Ð¾Ð»Ñİ":3942,"ĠÑĢÐµÑĩÐ¸":3943,"ĠÑģÑĸÐ°":3944,"ĠÐ²Ñ£ÐºÐ°":3945,"ĠÑĨÐ°ÑĢÑģÑĤÐ²Ð°":3946,"ĠÑģÑĤÐ°ÑĢÑ£":3947,"ĠÐ²ÑĢÐµÐ¼ÐµÐ½Ð¸":3948,"ĠÐ´ÐµÑĢÐµÐ²Ð½ÑıÐ¼Ð¸":3949,"ÑĤÑĨÐ°ÑĤÑĮ":3950,"ÑĩÐµÐ½Ñĭ":3951,"ĠÑĥÑĩÐµ":3952,"ĠÐ¿ÑĢÐ¸Ñı":3953,"ĠÐļÑĤÐ¾":3954,"ĠÐºÑĢÑĥÐ¶":3955,"ĠÐ»Ð¾":3956,"êĻħ":3957,"ĠÐºÐ¸ÐµÐ²":3958,"ĠÑĤÐ¾Ð¶Ðµ":3959,"ÑħÐ¾ÑĤ":3960,"ĠÐµÐ»":3961,"ĠÐ²ÐµÐ»Ð¸ÐºÐ¾":3962,"ĠÐ²Ð°ÑģÐ¸Ð»ÑĮÑı":3963,"ÑģÑĤÑ«":3964,"ĠÐµÑģÑĤÑĬ":3965,"ĠÐ´Ð¾Ñĩ":3966,"ÑµÑģÐµ":3967,"Ð¾ÐºÐ¸":3968,"ĠÑģÐ²Ð¸Ð½":3969,"ĠÑ£ÐºÐ¾":3970,"ĠÐ¾Ð´Ðµ":3971,"ÐµÑģÑĬ":3972,"Ð½ÐµÑĤÑĬ":3973,"ĠÐ±Ð¾ÑĢÐ¸ÑģÐ°":3974,"ĠÑĩÐ¸Ð½Ð¾Ð²":3975,"Ð»Ð¸ÐºÐ°":3976,"Ð´ÑĨÐ°ÑĤÑĮ":3977,"ÑģÑĤÐ°ÑĤ":3978,"ĠÐ¶Ð¸ÑĤÐ°":3979,"ĠÑĤÐµÐ¿":3980,"ĠÐ¿ÑĢÐ¾ÑĪ":3981,"ĠÑĤÐµÐ¼Ð¸":3982,"ĠÐ¶Ð¸Ð²Ð¾ÑĤÑĬ":3983,"Ñ§Ð»ÑĬ":3984,"ÑĦÐ°Ð½":3985,"ĠÐºÐ½ÑĥÑĤ":3986,"ÑĸÐµÐ¼ÑĮ":3987,"ĠÑģÑĤÑĢÐ°ÑħÑĬ":3988,"ÑĤÐ¾Ð²":3989,"ĠÐ½Ð¾Ð²ÑĬ":3990,"ĠÑĢÐ°Ð·êĻĭ":3991,"ĠÐ¿Ð¾Ð¼ÐµÑģÑĤÑĮÐµ":3992,"Ð¸Ð´ÐµÑĤÑĮ":3993,"ĠÐºÑĢÐ¾Ð²":3994,"ĠÐºÐ»Ð°Ð½Ñ§":3995,"Ðµr":3996,"ĠÐ¸Ð¾ÑģÐ¸":3997,"ĠÐ¾Ð¿ÑĢÐ¸ÑĩÑĮ":3998,"ĠÐ´Ð¸Ñı":3999,"ĠÐ¿Ð¾ÐºÐ»Ð°Ð½Ñ§Ð½Ð¸Ðµ":4000,"Ð°ÐºÑĥ":4001,"ÑĪÐ¸ÑĤ":4002,"ĠÐ½ÐµÑİ":4003,"ĠÐ½Ð¸Ð·":4004,"ĠÑ¹Ð¼":4005,"ÑĭÑ§":4006,"ÑĪÐµÐ¸":4007,"ÐµÑĤÑĮÑģÑı":4008,"ĠÐ¾ÑĥÐ±Ñ¡":4009,"ÑģÑĤÑĭÐ½Ñİ":4010,"ĠÐ°ÑĢÑħÐ¸Ðµ":4011,"ĠÐ¿ÑĢÑĸÐ¸Ð´Ðµ":4012,"ĠÐ¿Ð¾Ð¸Ð¼Ð°":4013,"ĠÑħÐ²Ð°Ð»Ð¸":4014,"ĠÐ´ÑĥÐ¼":4015,"ĠÐ±Ð»Ð°Ð¶Ðµ":4016,"ĠÑį":4017,"Ð¶ÐµÑĤÑĬ":4018,"ĠÐ·Ð°Ð¿Ð¾Ð²Ñ£Ð´Ð¸":4019,"ÑīÑ¹":4020,"ĠÐŀÐ½ÑĬ":4021,"ĠÑģÑĮÑĢÐ´ÑĮ":4022,"ÑģÑĤÐ¾Ð²":4023,"ĠÐ²ÐµÐ»Ð¸ÐºÐ¸Ð¼ÑĬ":4024,"ÑĤÐ¾Ð²Ð°":4025,"ĠÑĥÐ²Ð¸":4026,"ĠÐ²ÐµÐ»Ð¸ÐºÐ¾Ð¹":4027,"ĠâĪĻ":4028,"Ġâ¸±":4029,"ĠÐ¿Ð¾Ð»ÑĮ":4030,"ĠÐºÐ°Ð·Ð°ÐºÑĬ":4031,"ĠÐ´Ð¾Ð±ÑĢÐ¾Ð´Ñ£":4032,"ĠÐ¼Ð¾Ð»Ð¸":4033,"ĠÐ²ÐµÐ»Ð¸ÐºÐ¾Ñİ":4034,"ĠÐ²Ð»Ð°ÑģÑĤÑĮ":4035,"ĠÐ¿ÑĭÑĤÐ°":4036,"ĠÐ¾ÑģÑĤÐ°Ð½":4037,"Ð¾Ð±Ð°":4038,"ĠÐ²ÑĮÑģ":4039,"ĠÐ¾ÑĩÐ¸Ð¼Ð°":4040,"ĠÐĴÐ»Ð°Ð´Ð¸Ð¼Ð¸":4041,"ĠÐ½Ð°Ð·Ð°":4042,"ĠÐ°Ð¼Ð¸":4043,"Ð¿ÑĢÐ¸":4044,"ĠÑģÐ¸Ñİ":4045,"ĠÐ¿Ð¾ÑĤÑı":4046,"ĠÑģÑĤÑĥÐ¿":4047,"ĠÐ½Ð°Ð·":4048,"ĠÐ¡ÑĭÐ½Ñĥ":4049,"ĠÑĤÐ°Ð¹":4050,"ĠÐ³Ð»Ñ£":4051,"ĠÐºÑĢÐ¾Ð²ÑĮ":4052,"ĠÐ´Ð¾Ð¼êĻĭ":4053,"ĠÑģÐ¼Ð¾ÑĤÑĢÑı":4054,"ÑĪÐ¾":4055,"Ð½ÐµÑĨÑĬ":4056,"ÑīÐµÐ½ÑĸÐµ":4057,"ĠÐ¾ÑĤÐ²ÐµÑĤÑĩÐ¸Ðº":4058,"ĠÐ²ÑģÐµÐ³Ð´Ñĭ":4059,"ĠÐ±Ñ£Ð»Ñĭ":4060,"ĠÑģÐ¾ÑĤÐ²Ð¾ÑĢÐ¸ÑĤÐ¸":4061,"ĠÐ²Ð°ÑģÐ¸Ð»ÑĮÐµÐ²Ð¸Ñĩ":4062,"ÑģÐµÐ½":4063,"ĠÑĢÐ°Ð´Ð¾ÑģÑĤÐ¸":4064,"ĠÑħÐ¾Ð»Ð¾Ð¿Ð°":4065,"ĠÑģÐ»Ð°Ð´":4066,"ĠÐ¿Ð¾ÑģÐ°Ð´Ð¸":4067,"ĠÐ¸Ð·Ð²Ð¾Ð»":4068,"ĠÑģÑĤÑĢÐ°Ð½Ð°":4069,"ĠÑĩÐµÑĢÐ½Ð¸":4070,"ĠÐ²Ð¸Ð´Ñ£Ð²ÑĬ":4071,"ĠÑģÐºÐ°Ð·Ð°":4072,"Ð½ÑıÐ³Ð¾":4073,"ĠÐºÐ½ÑĥÑĤÐ¾Ð¼":4074,"ÑģÐ¸ÑĤÐ¸":4075,"ÑĥÐ´Ñ£":4076,"Ð¾Ð½Ð¾Ñģ":4077,"ĠÐ½Ð¸Ð¶":4078,"Ð»ÑıÐ¹":4079,"ĠÑģÐ¼Ñĭ":4080,"ĠÑĦÐµÐ´Ð¾ÑĢÐ°":4081,"Ð»Ð¾Ð²Ð¾":4082,"ĠÐ¿Ð¾Ð¹":4083,"ĠÐ¸Ð¼Ð°ÑĪÐ¸":4084,"Ð»Ñģ":4085,"Ð°Ð²Ð¸":4086,"ÐºÑĬÑĢ":4087,"ĠÐ´Ð°Ð²Ñĸ":4088,"ĠÑĥÑģ":4089,"ĠÑģÐ¾Ð½":4090,"Ð¶Ð¸Ðµ":4091,"ÐµÐ½ÑĮÑı":4092,"Ð±Ð¾Ð¸":4093,"ĠÐ¼ÐµÑĩÑĮ":4094,"ĠÐ¼Ð°Ð½Ð°ÑģÑĤÑĭÑĢÑĮ":4095,"Ð´Ñ£Ð¶Ðµ":4096,"ĠÐĳÐ»Ð°":4097,"ĠÑīÐµ":4098,"ĠÐºÐ¾ÑĢÐ¾Ð»Ñı":4099,"Ð°Ð·ÑĥÐ¼Ñ£":4100,"ÑĤÐµÐ½":4101,"ÑīÐµÐ¼ÑĬ":4102,"ÑĢÐµÑĤÑĮ":4103,"Ð¼Ð°ÑĤ":4104,"ĠÐ»Ñ§":4105,"ĠÑģÑĥÐ´Ðµ":4106,"ĠÑ¡Ð±Ð¸Ñħ":4107,"Ð´Ð¾Ð¼":4108,"ĠÐºÐ¾Ð¼Ñ¹":4109,"ĠÐºÐ½ÑıÐ¶Ðµ":4110,"ĠÐ¾ÐºÐ¾Ð»Ð¾":4111,"ĠÐĶÑĢÑĥÐ¶":4112,"ĠÑĤÐ²Ð¾Ð¸Ð¼ÑĬ":4113,"ĠÐķÐ¶Ðµ":4114,"ĠÐ¼ÐµÑģÑĤÐ°":4115,"ĠÐ±Ð»Ð¸Ð¶":4116,"ĠÐľÐ¸ÑħÐ°Ð¸Ð»Ð¾":4117,"Ñ¡Ð½ÑĬ":4118,"ÑĢÐ¸Ð»Ð°":4119,"ĠÐ²ÑĬÐ·Ð´Ð°":4120,"ĠÑģÐ¾Ð»Ð¸":4121,"ĠÐ¼ÑģÑĤÐ¸":4122,"ĠÐ¿Ð¾ÑģÑĬ":4123,"ĠÐºêĻĭÐ¿":4124,"ĠÑĤÐ¾Ð¶":4125,"ĠÐ¿Ð¾Ð¼Ð¸Ð½Ð°":4126,"ĠÐ¼ÐµÑģÑĤ":4127,"ÐµÐ½Ñ£":4128,"Ð°Ð»Ñ£":4129,"ĠÐ²Ð¾ÑģÑĤ":4130,"ĠÑģÐ¾Ð»Ð¾Ð¼":4131,"ĠÐ´ÑĢÑĥÐ³Ð¾Ð¹":4132,"ÑģÑĤêĻĳ":4133,"ÑģÑĤÐ¸Ð¸":4134,"ĠÐļÐ°":4135,"ĠÐĦ":4136,"ÑĨÐºÐ¾Ð¹":4137,"Ð³Ð»":4138,"ĠÑĢÐ¾ÑģÑĤÐ¸":4139,"ÐºÐ°Ð¼ÑĬ":4140,"ÐºÐ°ÑħÑĬ":4141,"ĠÐ¿Ð¾Ð»Ñ£":4142,"ĠÑĸÑģ":4143,"ÑģÐºÐ°Ð°":4144,"ĠÑģÐºÐ¾Ð»ÑĮÐºÐ¾":4145,"ÑģÑĤÑĸÑİ":4146,"ĠÐ¼Ñ£ÑģÑı":4147,"ĠÑĤÑ£Ñħ":4148,"Ð±Ð¸ÑĢÐ°":4149,"ÐµÐµ":4150,"ĠÑ»ÑģÐ¿Ð¾Ð´":4151,"ĠÑĢÐ¾Ð·Ð±Ð¾Ð¹":4152,"ĠÑ¡Ð±Ñĭ":4153,"ĠÐĲÐ»ÐµÐºÑģÐ°Ð½Ð´ÑĢÐµ":4154,"ĠÑĥÑģÑĤÑĢÐ¾Ð¸ÑĤÐ¸":4155,"Ð¶Ñ§":4156,"ĠÐ²Ñ£ÐºÑĭ":4157,"ĠÑ¸":4158,"ĠÐ¿ÑĢÐµÐ²":4159,"ÑīÐµÐ¹":4160,"ÑħÑĸ":4161,"ĠÐ¿Ñ£Ñģ":4162,"ĠÐµÑĥ":4163,"ĠÐ²ÑĬÑģÐ°":4164,"Ð¾Ð¿Ð°":4165,"ĠÐ·ÐµÐ¼Ð»Ñ£":4166,"ĠÐ½Ð°ÑĪÐ¸Ð¼":4167,"ĠÐ¼Ñ£ÑĢÑĭ":4168,"ĠÑĢÐ°Ð·ÑĥÐ¼Ñ£ÑĤÐ¸":4169,"ÑĪÐ¸Ð½":4170,"ÐµÑĤÑģÑ§":4171,"ĠÑħÐ¾ÑĢÐ¾":4172,"ĠÐ½ÐµÐ±ÐµÑģÑĮ":4173,"ĠÑº":4174,"ĠÐ±ÐµÐ´":4175,"ĠÐ¿ÐµÑĤÑĢÑĥ":4176,"ÑĩÐµÐ¼":4177,"ĠÐ¿Ð¾Ð´Ð»Ð¸Ð½":4178,"ĠÐ²ÐµÑĢÑĮ":4179,"ÑĪÐµÐ½ÑĸÐµ":4180,"ĠÐ±Ñ£ÑĪÐµ":4181,"ĠÑħÐ¾ÑīÐµÑĪÐ¸":4182,"ĠÐµÐ¿":4183,"ĠÑ¿ÑĤ":4184,"ÑģÑĤÐ²Ð¾Ð²Ð°ÑĤÐ¸":4185,"ĠÑĢÐ°Ð·Ð¾ÑĢ":4186,"Ð´Ð°Ð»Ð¸":4187,"ĠÐ±Ð»Ð°Ð³Ð°":4188,"ĠÐ¿ÐµÑĩÐ°Ð»ÑĮ":4189,"Ð»Ñĸ":4190,"Ð¾Ð²Ð°ÑĤÑĮ":4191,"Ð¿ÐµÐ·":4192,"Ð¶Ð°Ñģ":4193,"Ð¾Ð½Ð¾":4194,"ĠÐºÐ½ÑıÐ¶":4195,"ĠÐ½Ð°Ð´Ð¾Ð±Ð½Ð¾":4196,"ĠÐ¿ÑĢÑĢ":4197,"ĠÐ³Ð¾ÑĢÐ¾Ð´Ð¾Ð²":4198,"ĠÐ¼Ð¾Ð½Ð°ÑģÑĤÑĭÑĢ":4199,"ĠÐ¸Ð´ÐµÐ¶Ðµ":4200,"ĠÐ¾Ð·":4201,"ĠÑģÑĤÑĢÐ°Ð½Ñĭ":4202,"ĠÐ¼ÑĥÑĢ":4203,"ĠÐ³ÑĢÐ¸Ð²Ð½Ð°":4204,"ĠÐºÐ°Ð±Ð°Ð»Ñĭ":4205,"ĠÐ¼Ð¸ÑĤÑĢÐ¾Ð¿Ð¾Ð»Ð¸ÑĤÐ°":4206,"ĠÐ¡Ð²ÑıÑĤ":4207,"ĠÐĶÑĢÑĥÐ¶Ð½ÐµÐ²":4208,"ĠÐ¾ÑĥÑĤ":4209,"ĠÑħÐ¾Ð´Ð¸ÑĤÐ¸":4210,"ĠÐĵÐ¾ÑģÐ¿Ð¾Ð´Ð¸":4211,"ĠÐ¼Ð°ÐºÐµÐ´Ð¾Ð½":4212,"ĠÐ¿ÑĢÐ°Ð²Ð¾ÑģÐ»Ð°Ð²":4213,"ĠÐ¿Ð¸ÑģÐ¼Ð°":4214,"ĠÐºÑĢÐ¾ÑĤ":4215,"ÐµÐ½Ð¸Ñİ":4216,"Ð²Ð°ÑĢ":4217,"Ð»ÐµÐ·":4218,"ĠÐ³ÑĥÐ±":4219,"Ð´ÐµÐ¸":4220,"ĠÑģÐ¼Ð¾Ð»":4221,"ĠÐºÐ½Ñ§Ð·Ñ§":4222,"ÑĩÑĬ":4223,"ĠÐ¼Ñ£ÑĢÐ°":4224,"Ð³ÑĥÑģÑĤÐ°":4225,"ĠÐ¼Ð½Ð¾Ð³Ð¸Ðµ":4226,"ĠÐ¤Ð¸Ð»Ð¸":4227,"ĠÐ²Ð¸ÑĤ":4228,"ÑģêĻĭ":4229,"ĠÑģÐ²ÐµÑĤ":4230,"ĠÐ¸Ð½ÑĭÑħÑĬ":4231,"ĠÐ»êĻĭ":4232,"ĠÐ¢Ð¾Ð³Ð¾":4233,"ĠÐĶÐµÐ²":4234,"ĠÑĢÐ°Ð·Ð²Ñ£":4235,"Ñ³ÑĬ":4236,"ĠÑģÑĤÐ¾ÑĢÐ¾Ð¶Ðµ":4237,"ĠÐ½Ð°ÑĪÐ¸ÑħÑĬ":4238,"ĠÐķÑĢÑĥÑģÐ»Ð¾Ð½ÑĬ":4239,"ĠÑĤÐ°ÐºÐ¸ÑħÑĬ":4240,"ĠÑ¯":4241,"ĠÐĽÐ¸":4242,"ĠÑĥÑĩÐ¸Ð½":4243,"ĠÑĤÐ¾Ð»Ð¸ÐºÐ¾":4244,"ĠÐ¼Ð»Ð°Ð´ÑĬ":4245,"Ġh":4246,"ĠÐµÐ´Ð°":4247,"ĠÑĢÑ¹ÐºÐ¾Ð´Ñ£":4248,"ĠÐ¿ÑĭÑĤ":4249,"ĠÑħÑ¹":4250,"Ð¸Ð½Ð¾Ð²":4251,"ĠÑĶÐ³Ð¾":4252,"ĠÐ¿Ð¾ÑĢÑ§Ð´":4253,"ĠÐ¿Ð¾Ð³Ñĭ":4254,"ĠÐ½ÐµÐ´ÐµÐ»":4255,"ĠÐ²ÐµÐ½":4256,"ĠÐ·ÐµÐ¼Ð»ÐµÑİ":4257,"ĠÐ¸ÑĤ":4258,"ÑģÑĤÐ¾Ð¼ÑĬ":4259,"ĠÐ±ÑıÑĪÐµ":4260,"ĠÐĶÐ¾":4261,"ĠÐ±Ð¾Ð»ÑĪÐ¸":4262,"ĠÐ¸Ð³ÑĥÐ¼ÐµÐ½Ð°":4263,"ĠÐ´Ñĭ":4264,"ĠÐºÐ¾Ð²":4265,"Ð½Ð¸ÑĩÑĮ":4266,"ĠÐµÐ³Ñ¡":4267,"ÐµÐ´Ðµ":4268,"ĠÂ¦":4269,"ĠÐ±Ð¸Ð»Ð¸":4270,"Ñ¹Ð±":4271,"ĠÂ·:":4272,"ĠÑĤÐ¾Ð±Ðµ":4273,"ÑĪÐµÐ½ÑĬ":4274,"Ð·Ð½ÑĮ":4275,"ÑĪÐ°Ð»":4276,"ĠÑĦÐµÐ´":4277,"ĠÐ´Ð°Ð½Ñĭ":4278,"ĠÑģÐµÑģÑĤÑĢÐ°":4279,"ĠÐľÐ°Ð³":4280,"ĠÐ±Ð¾Ð»Ñ£Ð·":4281,"ĠÐ²ÐµÑĢÑħÑĬ":4282,"ĠÐ¥ÑĢÐ¸ÑģÑĤÐ°":4283,"ÑĬÐ»":4284,"ĠÐ½Ð°ÐºÐ°":4285,"ÑĤÐ°Ñı":4286,"Ñ¥Ð¼ÑĬ":4287,"ĠÑĨÐµÑĢÐºÐ¾Ð²ÑĮ":4288,"ĠÐ³Ñİ":4289,"ĠÐ¿ÑĢÐ¸Ð³":4290,"ÑģÑĤÐ¾Ñĩ":4291,"ĠÑģÐ°Ð¼Ð¾Ð¼Ñĥ":4292,"min":4293,"Ð¸Ð½Ð¾":4294,"ĠÐļÑĸ":4295,"ĠÐ¿Ð¾ÑĤÑıÐ³Ð»Ð¾":4296,"Ð´ÑĢÑĬ":4297,"ĠÑĥÐ±ÑĭÑĤ":4298,"Ð¸Ð»Ñ£":4299,"ĠÐ²Ð¾ÑģÑĤÐ°":4300,"ÑģÑĤÐ²ÑĥÑİ":4301,"ĠÐ±Ð¾Ð³Ð¾":4302,"ĠÑģêĻĭÑĤÑĮ":4303,"ĠÑĢÑĥÑģÑĸÐ¸":4304,"ÑĢÐ¾Ð²Ð¸":4305,"Ð¾Ð²Ð°Ð»ÑĬ":4306,"ÑģÐºÐ°ÑĤÐ¸":4307,"ÑĩÐµÑĤÑĮ":4308,"ĠÑģÑĤÐ°ÑĢÑĨÐ°":4309,"ÑħÐ¾Ð´Ñı":4310,"ĠÑģÑĢÐ¾ÐºÑĥ":4311,"ÑıÑħÑĬ":4312,"ĠÑ¡Ð±Ñ£":4313,"ĠÐ¾ÑĥÑģÑĤÑĢÐ¾":4314,"ĠÐ¿ÑĢÐµÐ±Ñĭ":4315,"ĠÐ²Ð¾Ð¸Ð½ÑģÐºÐ¸ÑħÑĬ":4316,"ĠÐ¿ÑĢÐµÐ´ÑĬ":4317,"ĠÐ²Ð¿ÑĢÐµÐ´ÑĮ":4318,"ĠÐ²Ñ§":4319,"Ð¿Ð°Ð½":4320,"Ð»Ð°Ð¼":4321,"ĠÐ¼Ð°ÑģÑĤÐµÑĢ":4322,"ĠÑģÐµÑĢÐ´ÑĨÐ°":4323,"ĠÐ¾ÑĤÐ¸":4324,"ĠÐ²ÑĬÐ¿":4325,"ĠÑħÐ»Ñ£Ð±":4326,"ĠÐ¸ÑģÑĨ":4327,"ĠÑģÑĤÐ¾ÑĢÐ¾Ð½Ñĥ":4328,"ÑĦÐ¾Ð½Ð°Ñģ":4329,"ĠÐ¼Ð»Ð°Ð´":4330,"ĠÐľÑĭ":4331,"ĠÐ¸Ð³Ð¾ÑĢ":4332,"ĠÐ°Ð²ÑĢÐ°":4333,"ĠÐ»Ð¾Ñģ":4334,"ĠÐŁÐ¾Ð¿":4335,"ĠÐ±ÐµÐ·Ð¾":4336,"ĠÐ³Ð¾ÑĢÐ°Ð·Ð´Ð¾":4337,"ĠÐ¼Ð¸ÑĤÑĢÐ¾Ð¿Ð¾Ð»Ð¸":4338,"ĠÑĥÐ»Ð¸":4339,"ĠÐ´Ð°Ð²Ð°":4340,"ĠÐ¿Ð°Ð´Ðµ":4341,"ĠÐ¿Ð¸ÑģÐ°ÑĤÐ¸":4342,"ĠÑ±":4343,"ĠÐ½Ñ¹":4344,"ĠÐºÐ°ÑĤ":4345,"ĠÑĤÐ¾Ñı":4346,"Ð½êĻĭÑİ":4347,"ÑĢÐµÐ¸":4348,"ĠÐ²Ð¾Ð·Ð»ÑİÐ±Ð»ÐµÐ½":4349,"ĠÐ³ÑĢÑ§":4350,"ĠÐ³Ð¾ÑģÐ¿Ð¾Ð´ÑĮ":4351,"ÑĢÐµÐ²":4352,"ĠÐ¾Ð½Ð¾":4353,"ĠÐ¶Ð°":4354,"ĠÐ²Ð°Ð¼Ð¸":4355,"ĠÑĩÐ»Ð¾Ð²Ñ£ÐºÑĬ":4356,"ĠhÐµr":4357,"ĠÐ¾ÑĤÑĨÑĥ":4358,"ĠÑģÐ°Ð¶Ðµ":4359,"ĠÐ¿Ð¸ÑģÐ°Ð»":4360,"ĠÑģÐºÐ°Ð¶ÑĥÑĤ":4361,"ĠÑģÑĤÐ²Ð¾ÑĢÐ¸":4362,"ĠÐ¼ÑĢÐ°":4363,"ÑģÐ¸Ð¸":4364,"ĠÐ²Ñ£ÐºÑĬ":4365,"ĠÐ¸ÑģÑĨÑĥ":4366,"Ð³Ð¾ÑĢÐ¾Ð´Ð°":4367,"ĠÑĤÐ¾Ð²Ð°ÑĢÑĬ":4368,"Ð³Ð¾Ñĥ":4369,"ÑīÑĸÐ¸":4370,"ĠÐ»Ð¾Ð´":4371,"ĠÑĢÐ°ÑĤÐ¸":4372,"ĠÐ¿ÑĢÐ¾Ñĩ":4373,"ĠÐ¿ÐµÑĢÐµÐ¼":4374,"ĠÐµÑģÐ¼Ð¾":4375,"ĠÐ¾ÑĤÐ¾":4376,"ĠÑıÐ²Ð¸":4377,"ĠÑģÐ»Ð¾Ð±Ð¾Ð´":4378,"ĠÐ±Ð¾Ð»Ñ£":4379,"ĠÐºÐ°Ð´":4380,"ĠÐĶÐ°Ð½Ð¸":4381,"Ñ«ÑĤÑĬ":4382,"ĠÐ¯ÐºÐ¾Ð¶Ðµ":4383,"ĠÐ±ÑĥÐ´ÑĥÑĤÑĮ":4384,"ĠÐ´ÑĢÑĥÐ³ÑĥÑİ":4385,"Ð¾Ð¶ÑĮÑģÑĤÐ²Ð¾":4386,"Î½":4387,"ĠÑĪÑĮ":4388,"ĠÐ¿ÑĥÑĪÐºÐ°":4389,"ĠÐ¿ÑĢÐ¸ÑĪÐµÐ´ÑĬ":4390,"ÑīÐ¸Ð¼":4391,"ÑĢÐ¾ÑģÐ»Ð°Ð²ÑĬ":4392,"ĠÐ¿ÑĢÐ¾ÑģÐ»Ð°Ð²":4393,"ÑĩÐ½Ð¾Ðµ":4394,"ÑĢÐµÑĩÐµÐ½":4395,"ĠÐºÐ½ÑıÐ·Ð¸":4396,"ĠÑģÑĤÐ°Ð²Ð¸ÑĤÐ¸":4397,"ÐºÐ¸ÑĦÐ¾ÑĢ":4398,"ĠÐ¿Ð¾Ð²Ð°ÑĢ":4399,"ĠÑģÑĤÐ¾Ð¸ÑĤÑĬ":4400,"ĠÐ¿Ð¾Ð¼ÐµÑģÑĤ":4401,"ĠÐ²Ð¾ÑĢÐ¾Ð²":4402,"ÑĦÐ°Ð½Ð°":4403,"ĠÐ¿Ð¾ÑĤÐ¾Ð¼":4404,"ĠÐ¿ÑĥÑģÑĤÐ¾ÑĪÐ¸":4405,"Ġâģŀ":4406,"ĠÂ·:Â·":4407,"ĠÐľÐ°Ð³Ð¸Ð»":4408,"Ð½Ð¸ÑĨÐµ":4409,"ÑĩÐ°ÑĤÑĮ":4410,"ÑīÐ½Ð¾":4411,"ĠÑĢÐµÑīÐ¸":4412,"ÑĪÑĤÐ¸Ð¸Ð¼ÑĬ":4413,"ĠÐ±ÑĭÐ²ÑĬ":4414,"ĠÐĳÐ¾Ð»":4415,"Ð½Ð°Ð³Ñ¡":4416,"Ð¾Ð·ÐµÐ¼":4417,"ĠÑģÑĤÐ°ÑĢÐ°":4418,"ĠÑ¡ÑģÐ¿Ð¾Ð´":4419,"ĠÑģÐ¾ÑĢÐ¾Ðº":4420,"ĠÐ¿ÑĤÐ¸ÑĨÐ°":4421,"ĠÐ³Ð¾Ð´Ñĭ":4422,"ÐµÐ±":4423,"ĠÐĳÑĢÐ°":4424,"Ð½ÑĥÑĤÑĬ":4425,"ĠÐ¿ÐµÑĢÐ²Ð¾Ðµ":4426,"ĠÐ²ÐµÑģÑĤÐ¸":4427,"ĠÑģÑİ":4428,"Ð·Ñı":4429,"ĠÐ°Ð»ÐµÐºÑģÐ°Ð½Ð´":4430,"Ð¾Ð¶Ð¸ÑĤ":4431,"ÑĹÐµÐ¼ÑĬ":4432,"ĠÐ½Ð°ÑĪÐ¸Ñħ":4433,"ĠÑģÐ²Ð°":4434,"ĠÐ´Ð¾Ð¼Ñĭ":4435,"ĠÑģÐ»Ð°Ð²Ñĥ":4436,"ĠÐ¿Ð¾ÑģÐ»Ñ¹":4437,"Ð´Ð°Ð¹":4438,"ĠÐ¸Ð¼Ñĥ":4439,"Ð½ÑĮÐ¸":4440,"ĠÐ¼Ð°ÑĤÐµÑĢÑĮ":4441,"Ð±Ð¸ÑĤÐ¸":4442,"ĠÐ¿ÑĢÐµÐ·":4443,"ĠÐ²Ð»Ð°ÑģÑĤÐ¸":4444,"ĠÐ·Ð½Ð°Ð¼ÐµÐ½Ð¸":4445,"êĻĩ":4446,"ĠÐ»ÑĥÑĩ":4447,"ÑīÐµÐµ":4448,"ĠÐ±ÑĮÐµÑĤÑĬ":4449,"ĠÐ¼Ð½Ð¾Ð³Ñĭ":4450,"ÑĤêĻĭ":4451,"Ð²ÐµÐ»Ð¸":4452,"ÑģÑĤÐ²Ð¸Ðµ":4453,"Ð³Ð¾Ñİ":4454,"Ð¶ÐµÐ½ÑĸÐµ":4455,"ĠÐ´Ð¾ÑĩÑĮ":4456,"ĠÐ´Ñ£Ð²Ð¸":4457,"ĠÐ°Ð»ÐµÑ¯":4458,"ĠÐ¿ÑĢÐµÐ»":4459,"ĠÑĢÐµÐºÐ¾":4460,"ĠÐ±ÑĢÐ°Ð½Ð¸":4461,"Ð¾Ð²Ð¾Ð¸":4462,"ĠÐ¿Ð»Ð°ÑĤÐ¸":4463,"ĠÐ²Ð°ÑģÐ¸Ð»ÑĮÐµÐ²":4464,"Ð²Ñ¹":4465,"ĠÑģÐ¾Ð»Ð½ÑĨÐµ":4466,"ĠÐĵÐ¾ÑģÑĥÐ´Ð°ÑĢÑĮ":4467,"ÑĪÐµÐ´ÑĬ":4468,"ĠÐ¿ÑĢÐ¸ÑģÑĬ":4469,"ĠÑĢÐ°Ð·Ð»Ð¸Ñĩ":4470,"ĠÐ±Ð¾Ð³Ð°ÑĤÑĮ":4471,"ĠÐ±Ð¾Ð±Ñĭ":4472,"Ð½Ð¸Ð´Ðµ":4473,"Ð»Ð°Ñı":4474,"ĠÐ¿Ð°ÐºêĻĳ":4475,"Ñ£ÑħÐ°Ð»ÑĬ":4476,"ÑıÐ´":4477,"Ð¿Ð¾Ð²":4478,"ĠÑħÐ¾Ð»Ð¾Ð¿ÑĬ":4479,"ĠÑģÑĤÑĢÑ£Ð»Ñı":4480,"ĠÐ¿ÐµÑĤÑĢÑĬ":4481,"ÑĤÐµÑĢ":4482,"ĠÐ¾Ð²Ð¾":4483,"ĠÐ¿ÑĢÐ¾ÑģÑĤÐ¸":4484,"ĠÐĿÐ¸Ðº":4485,"ÑĩÐµÐ½ÑĬ":4486,"ĠÐ·Ð»":4487,"ĠÐŁÐ¾Ð½":4488,"ĠÐ¼Ð°ÑĢÑĤÐ°":4489,"ĠÐºÐ¾Ð»Ð¸ÐºÐ¾":4490,"ĠÑĢÐµÐºÐ»ÑĬ":4491,"ĠÐºÐ°Ð»":4492,"ÑħÐ°Ð½":4493,"ĠÐ¼Ñ¡ÑµÑģÐµ":4494,"Ð¸Ñİ":4495,"ĠÑģÑĤÐ¾Ð»ÑĬ":4496,"ÑĤÐ¾Ð²ÑĬ":4497,"ÑĢÑ«":4498,"Ð¾Ð²Ð¾Ð»":4499,"ĠÐ·ÐµÐ»":4500,"ĠÐºÐ¾ÑĤÐ¾ÑĢÐ¾Ð³Ð¾":4501,"ĠÐ¢Ñ£Ð¼ÑĮÐ¶Ðµ":4502,"Ð¾Ñı":4503,"ÐºÐ¾Ð²Ðµ":4504,"êĻ¯":4505,"ĠÐ¼Ð¾ÑĩÐ½Ð¾":4506,"ĠÐ¾ÑģÐ¼Ð¸":4507,"ÑĢÐ¾Ð½":4508,"Ð°ÐºÑ¡":4509,"ÑĢÑĭÐ¹":4510,"ĠÐ±Ð¾Ð»ÑĮÑĪÐµ":4511,"ĠÐ¿Ð¾ÑħÐ¾ÑĩÐµ":4512,"ĠÐĶÐµÐ²Ð³":4513,"Ġ8":4514,"ÐµÑĪ":4515,"ĠÑģÑĤÐ¸":4516,"ĠÐ¿Ð¾Ð¸Ð¼":4517,"ĠÐ°Ð³":4518,"ÐºÐ¼Ð¾":4519,"ĠÐ¼Ð¾ÐµÐ¹":4520,"ĠÐ½êĻĳÐ½Ðµ":4521,"ĠÐ°ÑĢÑħÐ¸Ð¼Ð°ÑĢ":4522,"ĠÐ±Ð¾Ð¹":4523,"ĠÑģÐ¾ÑħÑĢÐ°":4524,"ĠÑĢÐ°Ð±Ð¾ÑĤ":4525,"Ð³Ð¾Ð¼":4526,"Ð±êĻĭ":4527,"ĠÑĥÑģÑĤÐ°":4528,"Ð³Ð¾ÑĢÐ¾Ð´Ñ£":4529,"ĠÑģÐ»ÐµÐ·Ð°Ð¼Ð¸":4530,"ĠÐ¸Ð½Ð¾Ðµ":4531,"ÑģÑĤêĻĭÐ¿":4532,"ÑĩÐµÐµ":4533,"êĻĳÑħÑĬ":4534,"ĠÑģÑĥÐ´Ð¸ÑĤÐ¸":4535,"ĠÐ³Ð¾ÑģÐ¿Ð¾Ð´Ð¸Ð½Ð°":4536,"ĠÐµÐ·Ð´":4537,"ĠÑĥÐºÐ°":4538,"ĠÐ¸ÐµÐ²":4539,"ĠÐ¿Ð°Ð¼ÑıÑĤÑĮ":4540,"ĠÑĩÑİÐ´Ð¾ÑĤÐ²Ð¾ÑĢÑĨÐ°":4541,"ĠÐ´Ð²Ð¾ÑĢÑıÐ½":4542,"ĠÐ¾ÐºÐ¾Ð»Ð½Ð¸":4543,"ÐµÑģÐµ":4544,"ĠÑĤÐ°ÐºÑ¡":4545,"ĠÐµÑİ":4546,"ĠÐ¿ÑĢÐ¸Ð´Ð¾ÑĪÐ°":4547,"Ð³Ð¸Ð¿":4548,"ĠÑĩÐ°ÑģÑĤÐ¾":4549,"Ð²Ð¾Ð½":4550,"ĠÐ¿Ð¾ÑģÑĤÑĢÐ°":4551,"ĠÑĢÐ°Ð·Ñģ":4552,"Ð²Ñı":4553,"Ð´Ð°Ð»":4554,"ĠÑģÐ²Ð¾ÐµÐ³Ñ¡":4555,"ÐµÐ½Ð°Ð³Ð¾":4556,"ĠÑģÐ»Ñ¹Ð¶":4557,"ĠÑ¥ÑģÐ¼ÑĮ":4558,"Ð°Ð½Ð¾":4559,"ĠÐ¿Ð»ÑĮ":4560,"ĠÐ·Ð»Ð°ÑĤÐ¾":4561,"Ð²êĻĳ":4562,"ĠÐ²ÑĬÐ¸Ð½Ñĥ":4563,"ĠÑģÑĤÐ°ÑĢÑĭÐ¹":4564,"Ð¾ÑĢÐ¾ÑĤÐ¸":4565,"ĠÑĤÑĬÐ³Ð´Ð°":4566,"ĠÐ¼Ð¾Ð¶ÐµÑĤ":4567,"ĠÐ¿Ð¾Ð»Ð¾Ð²ÑĨÐ¸":4568,"ĠÑĩÐ¸Ð½Ñĥ":4569,"ĠÐ²ÑģÑıÐºÐ¾Ð¼Ñĥ":4570,"ĠÐ²Ð¾Ð´Ñĥ":4571,"ĠÐ´ÑĢÐµÐ²Ð¾":4572,"ĠÐ¾Ð¶Ð¸":4573,"ĠÐ´Ð²Ð´":4574,"Ð´êĻĳ":4575,"ĠÐ¿Ð¾ÑģÑĤÐ¸":4576,"ĠÐ½Ð°Ð¿ÑĢÐ°ÑģÐ½Ð¾":4577,"ĠÐ¿Ð¾ÐµÑħÐ°Ð»ÑĬ":4578,"ÑĸêĻĹ":4579,"ĠÐºÐ¾ÑĢÐ¾Ð±ÑĮ":4580,"ÑģÑĤÐ²Ð¾Ñĥ":4581,"ĠÐ´ÑĥÑĪÑĥ":4582,"ĠÐĴÐ¸":4583,"ĠÑģÐ½ÑĬ":4584,"ĠÐ²ÑĬÑģÑĤ":4585,"Ð¸ÑĤÑĨÐ°":4586,"ĠÑģÑĭÐ½Ðµ":4587,"ĠÐ¾Ð±ÑĭÑĩÐ°ÐµÐ¼ÑĬ":4588,"ĠÐ³ÑĢÑĮ":4589,"ĠÐ¶ÐµÐ½Ð¸":4590,"ĠÐ¾ÑĥÐº":4591,"ĠÐ¿Ð¾ÑĢÐ¾ÑħÑĬ":4592,"ĠÐ¸Ð·Ð¼Ñ£":4593,"ĠÐĳÐ¾Ð¶Ðµ":4594,"ĠÐ²Ð»Ð´":4595,"ĠÐ´Ð»ÑĬ":4596,"ĠÑĢÑĥÐºÐ°":4597,"ĠÐ½Ñ£ÐºÑĭ":4598,"ĠÑģÐ¾Ð±Ð¾ÑĢ":4599,"ĠÐĽÑĥ":4600,"ĠÐ¾ÑģÑĤÐ°Ð²Ð¸":4601,"Ð»Ð°ÑģÑı":4602,"Ð½Ñ£Ð¼ÑĬ":4603,"ĠÐ¼Ð¾Ð¸Ð¼ÑĬ":4604,"ĠÐ³ÑĢÐ°Ð´Ðµ":4605,"ĠÐ·Ð°ÐºÐ¾Ð½ÑĬ":4606,"ÑħÑ¡":4607,"ÑĩÐµÑĢÐ°":4608,"ĠÐºÑĢÐµÑģÑĤÑĮÑıÐ½Ð¸":4609,"ĠÐ¾ÑģÐ¸ÑĦ":4610,"ĠÐ¿ÑĢÐ¸êĻĹ":4611,"ĠÐ´ÐµÐ»Ðµ":4612,"ĠÐ·Ð°ÑĢÑı":4613,"ÑĩÐ¸Ðµ":4614,"Ġmin":4615,"ĠÐ³Ð¾ÑģÐ¿Ð¾Ð´ÑģÑĤÐ²Ð°":4616,"ĠÐļÐ½ÑıÐ·ÑĮ":4617,"ÐºÐ²Ð°":4618,"ĠÐ´Ð²Ð¸":4619,"Ð°ÐºÐ¾Ð²":4620,"ĠÑĨÑĢÑĬ":4621,"ÑĢÐ¸Ñı":4622,"ĠÐ¼Ð¾Ð¸ÑħÑĬ":4623,"Ð»ÐµÐ½Ð¸Ñı":4624,"ĠÐ±Ð¶ÑĤÐ²":4625,"Ð¾Ð¿Ð¾Ð»ÐºÑĬ":4626,"ĠÐ¿Ð¾ÐºÐ°Ð·Ð°":4627,"ĠÐ±Ð»ÑĬ":4628,"ĠÐ¿Ð°Ðµ":4629,"ĠÐ¿Ð¾Ð»ÐºÐ¸":4630,"ĠÐ³ÑĢÐ¾Ð·":4631,"ĠÐ¼Ð¾Ð¶ÐµÑĤÑĮ":4632,"ĠÐ½ÐµÐ½Ð°Ð²Ð¸":4633,"ÐµÑģÑĤ":4634,"ÐºÐ¸Ð½":4635,"ÐºÐ½Ñĥ":4636,"ÐºÐ¸Ð¹":4637,"Ð¸ÑħÑĮ":4638,"Ð¼Ð¾ÑĤÑĢÐ¸":4639,"ÑģÐ»Ð°Ð²Ð¸":4640,"ĠÐ¼Ð°ÑĤÑĥ":4641,"ĠÐ±Ð¾ÑıÑĢÑģÐºÐ¸Ñħ":4642,"Ġ15":4643,"ĠÐ³Ð¾Ð»Ð¾Ð²Ñĥ":4644,"ĠÐºÐµÐ»Ð°":4645,"ÑĦÐ¸Ð¼":4646,"ĠÐ±Ð»Ð³Ð¾":4647,"Ð¼Ñ¡":4648,"ĠÐ´Ð²ÑĮ":4649,"ÑĨÐ¾Ð¼ÑĬ":4650,"ĠÐ¿Ð¾ÑĩÐµ":4651,"ĠÐ¿ÑĢÐ¸Ð³Ð¾Ð¶Ðµ":4652,"ĠÐ½Ð°ÑĪÐ¸Ð¼ÑĬ":4653,"ĠÑĤÐ¾Ð²Ð°ÑĢ":4654,"ĠÐ½Ð¾Ð²ÑĬÐ³Ð¾ÑĢÐ¾Ð´":4655,"Ð´ÐµÐ»Ð¸":4656,"Ð´Ð°ÑĢ":4657,"Ð¿Ð¾Ð¼":4658,"Ð½ÑĭÐ¸Ð¼ÑĬ":4659,"ĠÐ´Ð°Ð²Ð°ÑĤÑĮ":4660,"ĠÐ½Ð¸ÑĩÐµÐ³Ð¾":4661,"ĠÐ¿Ð¾Ð»Ð¾Ð½":4662,"ĠÐĴÐ¾Ð·":4663,"ĠÑĤÐ²Ð¾Ñ¥":4664,"ĠÑĥÐ¼Ð¸":4665,"ĠÐ¼Ð¾ÐµÐ¼êĻĭ":4666,"ĠÐºÑĢÐ¾Ð²Ð¸":4667,"Ð²Ð°Ð½ÑĬ":4668,"ĠÐ²ÑģÑıÐºÐ¾Ð³Ð¾":4669,"ĠÑĢÑĥÑĨÑ£":4670,"Ð¶Ð°Ð²":4671,"ĠÐ¶Ð¸Ð²Ñĭ":4672,"ĠÑģÑĤÐ°ÑĢÐ¾ÑģÑĤ":4673,"ĠÐ³Ð¾ÑĢÐ¾Ð´Ñ£":4674,"ĠÐ¿Ð°Ñģ":4675,"ÑģÑĤÐ¾Ð¹":4676,"Ð½ÐµÑĪÐ¸":4677,"ĠÑĤÑ£Ð¼ÑĮ":4678,"ĠÑķÑĸÑģ":4679,"ĠÐľÐ¸ÑħÐ°Ð¸Ð»Ð°":4680,"ĠÐ¼Ð¸Ð»Ð¾Ñģ":4681,"ĠÑĤÑĢêĻĭ":4682,"ĠÐ³Ð¾Ð»Ð¾Ð²Ñ£":4683,"ĠÐ¿Ð¾Ð¼Ð¾ÑīÐ¸":4684,"Ð¼êĻ¿":4685,"ĠÐ¿ÑĢÐ¾ÑĢÐ¾":4686,"ĠÑħÐ»Ñ£Ð±ÑĬ":4687,"Ð²ÐµÐ½":4688,"ÑģÑĤÐ°Ñģ":4689,"ĠÑģÑĤÐ°Ð½Ð¸":4690,"ĠÐ±Ð¾Ð»ÑĮÑĪÐ¸":4691,"Ð´ÐµÑģÑ§ÑĤÑĮ":4692,"ĠÐ¸ÑģÐºÐ°":4693,"ĠÐºÑ«":4694,"ĠÐºÐ»Ñ§":4695,"ĠÐ¿Ð¾Ñ£":4696,"ÑĢÐ¸Ð¸":4697,"ĠÑģÑĬÐ¿":4698,"ĠÐ·Ð³Ð¾Ð²Ð¾ÑĢÐ¸ÑĤÑĬ":4699,"ĠÑģÑĭÐ½Ñ¡Ð²ÑĬ":4700,"ĠÐ·Ð°Ð¿Ð°ÑģÑĭ":4701,"ĠÐ¸Ð¾ÑģÐ¸ÑĦ":4702,"Ð»Ð¸Ð¼":4703,"ÑīÐ¸ÐºÐ¸":4704,"ĠÑĢÑĬ":4705,"ĠÐĴÑģÐµ":4706,"ĠÐ¶Ð¸Ð²ÑĬ":4707,"ĠÐ·Ð´Ðµ":4708,"ĠÐ¿ÑĢÐ¸Ð±Ñĭ":4709,"ĠÑģÑĬÐ²ÑĢÑĬ":4710,"ĠÐ·Ð°Ð¿Ð¾Ð²Ñ£Ð´Ð°":4711,"ĠÐĲÐ»ÐµÐºÑģÐ°Ð½Ð´ÑĢÐ°":4712,"ĠÐ¿ÑĢÐ°Ð·Ð´":4713,"ĠÐ¼Ð¸ÑħÐ°Ð»":4714,"ĠÐ·Ð°ÑĤÐ²Ð¾ÑĢ":4715,"ĠÐŀÐ½Ð°":4716,"Ð½ÑĨÐ°":4717,"Ð¶ÐµÐ¸":4718,"ĠÐ²Ñ£ÑĢÑĭ":4719,"ĠÐ¿ÑĮÑĢ":4720,"ĠÑĤÑĢÐµÑĤÑĮÑı":4721,"Ð°Ñ§":4722,"ĠÐ´Ð¾ÑģÑĤÐ°":4723,"ĠÐºÐ¾ÑĤÐ¾ÑĢÑĭÐ¼":4724,"ĠÐ¿Ð¾ÑģÐ»Ð°Ð½":4725,"Ð¾Ð¼Ñĭ":4726,"ĠÐ½ÐµÐ²Ð¸Ð´Ð¸":4727,"ĠêĻģÐ°Ðº":4728,"ĠÑģÑĤÐ¾ÑıÑĤÑĮ":4729,"ĠÑ¤":4730,"Ñ§Ð½Ð¸":4731,"ÑĢÐ°Ð³":4732,"ĠÑģÐ¸Ð»Ñ£":4733,"ĠÐ½Ñİ":4734,"ĠÐ´Ñ£Ð»Ñı":4735,"ÑīÐ¸ÐºÐ¾Ð¼":4736,"ĠÑģÐºÐ²Ð¾Ð·":4737,"ĠÐµÐ´Ð¸Ð½Ð°":4738,"ĠÑģâ±ķ":4739,"Ð´ÐµÐ¼ÑĬ":4740,"ĠÐ¾ÑģÑĤÑĢ":4741,"Ð±ÐµÑĢ":4742,"ĠÐ½Ð°Ð¾Ñĥ":4743,"ĠÐ³ÑĢÐ°Ð´Ñĭ":4744,"ÑģÑĤÐ¾Ð¸":4745,"ĠÐ´ÑĢÑĥÐ³Ð¸":4746,"ĠÑģÐ°Ð»":4747,"ÑıÐ¼":4748,"ĠÐ´Ð°Ð½Ð¾":4749,"ĠÐ²Ð¾ÐµÐ²Ð¾Ð´Ñĭ":4750,"ĠÐ²Ð½Ñĥ":4751,"Ð±Ð»Ñİ":4752,"ĠÑģÑĭÑģÐºÐ¸":4753,"Ð±Ð¸Ð»Ð¸":4754,"ĠÐ²ÑģÑ§ÐºÐ¾Ð³Ð¾":4755,"ĠÑģÑ£Ð´Ðµ":4756,"Ð»ÑĤ":4757,"ĠÑģÐ´Ñ£":4758,"ĠÐ¾ÑĤÐµÑĨÑĬ":4759,"ĠÐ¼Ñ£ÑĢÐ¾Ñİ":4760,"ĠÐ¼Ð¾Ð»Ð¸ÑĤÐ¸":4761,"ĠÐ¿ÑĢÐ°Ð²Ð¸ÑĤÐ¸":4762,"ĠÐłÐµ":4763,"ĠÐ°Ð²Ð³ÑĥÑģÑĤÐ°":4764,"ÑĪÐµÐ½Ð¾":4765,"ÑĪÐ½Ð¾":4766,"ĠÐ¼Ð½Ð¾":4767,"ĠÐ³Ð¾ÑĢÐ¾Ð´Ñĭ":4768,"ĠÐ¼Ñ¹Ð¶ÑĮ":4769,"ĠÐ½Ð¾Ð³Ð¸":4770,"Ð¾Ñħ":4771,"ÑģÑĤÐ²ÑĬ":4772,"Ð»Ð¸Ð²Ð°":4773,"ĠÐ´Ð¾Ð±ÑĢÐµ":4774,"ĠÐ²Ð°ÑĪÐ¸":4775,"ĠÐ·Ð°ÐºÐ»Ð°Ð´":4776,"ĠÐ³ÑĢÐ¸Ð²ÑĮÐ½ÑĬ":4777,"ĠÐ±ÐµÑĢÐµÑĩÐ¸":4778,"ÑĤÑıÐ±ÑĢÑı":4779,"ĠÐ°Ð»ÑĤÑĭÐ½":4780,"ĠÐ³Ð¾ÑģÑĤÐ¸":4781,"ÑģÐºÐ¾Ð²Ð¾":4782,"ĠÐºÑĢÑ£Ð¿Ð¾ÑģÑĤÑĮ":4783,"ĠÑĢÐ°Ð²Ð½Ð¾":4784,"ÑģÑĤÐ°ÑĢÐ¸":4785,"Ð½Ð¸ÑĩÐ¸":4786,"ĠÑĪÐ°":4787,"ĠÑģÐ°Ð´":4788,"ĠÐ²ÐµÑīÐ¸":4789,"Ð»ÑĶ":4790,"ĠÐ¿ÑĢÐµÑģÑĤ":4791,"ĠÑģÐ¿Ð°":4792,"ÑģÑ£ÑħÑĬ":4793,"ĠÑģÐ²Ð¾Ñ¥Ð¼Ñĥ":4794,"ÑĤÑĢÐ¾":4795,"ÑĦÑ£":4796,"ĠÐ²ÑģÑ£Ð¼":4797,"ÑıÑīÐµ":4798,"ĠÐ³ÐµÑĢ":4799,"ÑģÐºÑ£":4800,"ĠêĻģÑĬ":4801,"ĠÐ´ÑĥÑĪÑı":4802,"ĠÐ»ÑİÐ´ÑıÐ¼ÑĬ":4803,"ĠÐ±ÑĥÐ´ÑĥÑĤÑĬ":4804,"ÑĮÑĢ":4805,"Ð»Ð°Ð½":4806,"ĠÐµÑģÑĤÐ²Ð°":4807,"ĠÐºÐ°ÐºÐ¾Ð²Ð°":4808,"ĠÐ¿Ð¸ÑģÑĮ":4809,"ĠÑĤÐ²Ð¾ÑĢÑ§":4810,"ÑĪÐµÐ²":4811,"ĠÑĩÐ¾Ð»":4812,"ĠÑ¡Ð»Ðµ":4813,"Ð½Ñ£Ð¼ÑĮ":4814,"ĠÐ¼Ð¸Ðº":4815,"ĠÑĤÐ²Ð¾ÑĢÐ¸ÑĤÑĮ":4816,"ĠêĻĸÐºÐ¾Ð¶Ðµ":4817,"ĠÐ±Ð¶Ð¸":4818,"ĠÑģÑĤÐ°ÑĢÐ¾ÑģÑĤÐ°":4819,"¾¿":4820,"á¾¿":4821,"ÑĢÐ¾Ð²ÑĬ":4822,"ĠÐ±Ð¾Ð±":4823,"Ð¶Ð°Ð»Ð¸":4824,"ĠÐ´Ð²Ð¾ÑĢÑĭ":4825,"ĠÑ§Ð·Ð¾":4826,"ĠÑĩÐ»Ð¾Ð²Ñ£ÐºÑĥ":4827,"ĠÐ¼Ð¾Ð»Ð¸ÑĤÐ²Ð°":4828,"ÑĩÑĮÑİ":4829,"ĠÐľÐ°Ðº":4830,"ĠêĻģÐ½Ð°":4831,"ÏĦ":4832,"ÑĨÐºÐ¾Ð¼Ñĥ":4833,"ÐºÐ¸Ð½Ð°":4834,"Ð½ÑıÑı":4835,"Ð¾Ð²ÑĭÐ¼Ð¸":4836,"ĠÐ¿ÑĢÐ¸ÑĪÐµÐ»ÑĬ":4837,"ĠÐ¼ÑĬÐ½":4838,"ĠÑģÐ¾Ð¿":4839,"ÑıÐ½Ð¸Ðµ":4840,"ÑĢÐ°Ð´":4841,"ĠÑģÑĬÐ¼ÑĮÑĢ":4842,"ĠÑħÐ¾Ð´Ð¸Ð»Ð°":4843,"ĠÐ·Ð°Ð¿Ð¸ÑģÐ¸":4844,"ĠÐ°ÑĢÑħÐ¸ÐµÐ¿Ð¸ÑģÐºÐ¾Ð¿":4845,"ĠÐ¿Ñģ":4846,"ÑıÐ½Ð°":4847,"êĻĭÐ¸":4848,"ĠÐ´Ñ£Ð»Ð¾Ð¼ÑĬ":4849,"ĠÐ²ÐµÐ»ÐµÐ»":4850,"ĠÐĳÐ¾Ð¶Ð¸Ñı":4851,"ĠÐ»Ð¾Ðº":4852,"ÑĤÑĮÑı":4853,"ĠÐ¼Ñ£ÑĢÑĥ":4854,"ĠÑħÑĢÐ¸ÑģÑĤÐ¸ÑıÐ½":4855,"ĠÐ¸Ð³":4856,"ÐºÐ°ÑĤÐ¸":4857,"ĠÐ¼Ð½Ð¾Ð³Ð¸":4858,"ĠÐ¿ÑĢÐ¸Ð·Ð²Ð°":4859,"ĠÑĥÐ³Ð¾Ð»ÑĮ":4860,"ÑĢêĻĳ":4861,"ĠÐ²â¸¯":4862,"ĠÐ²ÑģÐµÐ»ÐµÐ½":4863,"Ñ«ÑīÐµ":4864,"ĠÐ¿Ð¾Ð»Ð¾Ð¶Ðµ":4865,"ĠÑģÑ£Ð´Ñ§":4866,"ĠÐ¿Ð¾Ð¼Ñ£ÑĩÐµÐ½Ð¾":4867,"ĠÐ·Ð¾Ð»Ð¾ÑĤÑĭ":4868,"ĠÐ´Ð½Ñı":4869,"ĠÐ¼ÐµÐ½ÑĮ":4870,"Ð½Ð°Ð¼Ð¸":4871,"ĠÐ¢Ðµ":4872,"ĠÑĤÐ²Ð¾ÐµÐ¹":4873,"ĠÐºÐ¾ÑĤÐ¾ÑĢÑĭÐ¹":4874,"Ð±ÑĢÐ°Ð½":4875,"ĠÐ½ÐµÐ´Ñ£":4876,"ĠêĻ©ÑģÐ¿Ð¾Ð´":4877,"ĠÐ³ÑİÑĢÐ³":4878,"ÑıÑħ":4879,"ĠÐ´ÑĢÑ£":4880,"ĠÑħÑĬ":4881,"Ð¾Ð¶ÑĬ":4882,"ĠÑ³ÐµÑ¡Ð´":4883,"ĠÐ²ÑģÐµÐ¸":4884,"ĠÑģÐ¸Ð¸":4885,"ĠÐ²ÐµÑģÐµÐ»":4886,"ĠÐ¾ÑģÐº":4887,"ÐµÑĢÑ£":4888,"Ð½Ð¾Ñģ":4889,"ĠÐ½Ð°ÑģÑĭ":4890,"Ð²ÐµÑģÐµÐ»Ð¸":4891,"ĠÐ½ÐµÑı":4892,"ĠÐ¿Ð»ÐµÐ¼ÑıÐ½":4893,"ĠÐ´Ð°ÑģÑĤ":4894,"Ð°Ð½Ð½Ð°":4895,"ĠÐ¸Ð¼ÑıÐ½":4896,"ĠÑĤÐ¾Ð²Ð°":4897,"ĠÐ½ÐµÑĩÐ¸":4898,"ĠÑĤÐµÐ»ÐµÑģ":4899,"ĠÐ¼Ñĸ":4900,"ĠÐ´Ð°Ð´Ðµ":4901,"ÑĢÐ¾ÑĪÐ°":4902,"ĠÐ¿Ð¾ÑģÐ»Ð°ÑĤÐ¸":4903,"ĠÐ³Ð½Ñ£Ð²Ð°":4904,"ĠÑĤÑİÑĢÐ¼Ñĥ":4905,"ĠÑħÑĢÐ°Ð½Ð¸":4906,"ĠÐ¿Ð¾ÑĩÐ¸ÑĤÐ°":4907,"ÑĩÐµÐ¼Ñĥ":4908,"ĠÐ¼Ñ¹Ð¶Ñ¹":4909,"ÑĩÐµÐ¼ÑĬ":4910,"ÐºÐ¸Ð¼ÑĬ":4911,"ĠÐĿÑ«":4912,"ĠÐ¸Ð·Ð²Ð¾Ð»Ð¸":4913,"ĠÑĪÐµÐ´":4914,"ĠÑģÐ°Ð¼Ð¾":4915,"ĠÑģÐ²Ð¾Ð¸Ð¼ÑĮ":4916,"ĠÐ¼Ð»ÑģÑĤÑĮ":4917,"ĠÐ¿Ð¾ÑģÐ»êĻĭÑĪÐ°":4918,"ĠÐ°Ð¶ÑĮ":4919,"Ð½ÐµÑģÑĤÐ¸":4920,"Ð°ÑĤÑĥ":4921,"ĠÐ´ÑĢÑĥÐ³Ñĭ":4922,"Ð½ÑĸÐµÐ¼ÑĬ":4923,"Ð³êĻĳ":4924,"Ð±Ð»Ñ§":4925,"ĠÐ¿Ð¾Ð³ÑĥÐ±Ð¸":4926,"ĠÐ¿Ð¾ÑģÐ»Ð°Ð»ÑĬ":4927,"ĠÐ±Ð¾Ð³Ð¾ÑĢÐ¾Ð´Ð¸ÑĨÐ¸":4928,"ĠÐ°Ð½Ð´ÑĢÐµÑİ":4929,"Ð²Ñ£Ðµ":4930,"ĠÐºÐ¾ÑĤÐ¾ÑĢÐ¾Ð¸":4931,"ĠêĻģÐ»Ð°":4932,"ĠÐĽÑ£":4933,"ĠÐ²ÐºÑĥ":4934,"ĠÐ½ÐµÐº":4935,"ĠÐ¿ÑĢÐ¸Ð¸":4936,"ĠÐ½ÐµÐ¼êĻĭ":4937,"ĠÐ·Ð½Ð°Ð¼ÐµÐ½":4938,"ĠÐ³Ðµ":4939,"ĠÐ¿ÑĢÐ¾ÑĩÑĮ":4940,"ĠÐ¿ÑĢÑ£Ð´":4941,"Ð²ÐµÐ´Ð¸":4942,"ĠÑģÑĤÐ°Ð½ÐµÑĤ":4943,"ÑģÑĤÐ¸Ð»ÑĬ":4944,"ÑĤÐ¸Ð½ÑĬ":4945,"ÑĪÐµÑģÑı":4946,"êĻģÐ½Ð°":4947,"ĠÐ¿Ð¾ÑĢÑ¹":4948,"ĠÑĩÑİÐ´Ðµ":4949,"ĠÐ·Ð»Ñĭ":4950,"ĠÑ¡Ð±Ð¸":4951,"ĠÐķÑīÐµ":4952,"Ð¿Ð°Ð½Ð°":4953,"ĠÑģÐ»ÑĥÑĩÐ¸ÑĤÑģÑı":4954,"ĠÐ²Ð¾Ð·Ð´Ð°":4955,"ÑĩÐ¸Ð½Ðµ":4956,"Ð½Ð¸ÑĨÑİ":4957,"ĠÐ¶Ð¸Ð·Ð½Ð¸":4958,"ĠÐ¿Ð¸ÑģÐ¼Ð¾":4959,"ĠÑĢÑĭÐ±Ð°":4960,"ĠÐ²ÑģÑıÐºÐ¸Ðµ":4961,"ĠÐ²Ð·ÑıÐ»ÑĬ":4962,"ÑĨÐ¾Ð²ÑĭÑħ":4963,"ĠÐ¸Ð½Ð¾Ð·ÐµÐ¼":4964,"ĠÑĩÐµÐ»Ð¾Ð±Ð¸ÑĤÑĮÑİ":4965,"ĠÐ²ÐµÑĢÐµ":4966,"ĠÐ¶ÐµÐ»":4967,"ĠÑģÐ¿Ð¾ÑĢ":4968,"ĠÐ²Ð·Ñ§ÑĤÐ¸":4969,"ĠÐ¼Ð½Ð¾Ð³Ð¸Ð¼Ð¸":4970,"ĠÐ´Ð°Ð½Ð¸Ð»":4971,"ÐºÑģ":4972,"ÑģÑĤÐ°Ð²Ð°":4973,"ĠÐ³Ð¾ÑĢÐ¾Ð´Ðµ":4974,"Ð½ÑİÑİ":4975,"ĠÐ³Ð¾ÑģÐ¿Ð¾Ð´Ð¸":4976,"ĠÐ¼Ð¾ÑĢÑİ":4977,"Ð¾Ð»ÑİÐ±":4978,"ĠÐ´ÐµÑģÑıÑĤ":4979,"ÐµÑĢÐ¾":4980,"Ð¶ÑĸÐµ":4981,"ÑĩÐ¸Ñİ":4982,"ĠÐ³Ð¾ÑģÑĥÐ´Ð°ÑĢÐµÐ²Ðµ":4983,"ĠÑĤÐ°ÐºÐ¾Ð¶Ð´Ðµ":4984,"Ð°ÐºÐ°":4985,"ĠÐ¾ÐºÐ°":4986,"ĠÐ¶ÐµÑĢÐµ":4987,"Ñ¹Ð¼":4988,"ĠÐ´ÐµÐ¸":4989,"ĠÐĴÐ¾Ð»Ð¾Ð´":4990,"ĠÐ¸Ð´Ð¸":4991,"ĠÐ¶Ð¸Ð²Ð¾ÑĤÑĭ":4992,"ĠÐĴÐ»Ð°Ð´Ð¸Ð¼ÐµÑĢÑĬ":4993,"ĠÑĢÐµÐºÐµ":4994,"ĠÐºÐ°Ð±Ð°":4995,"ĠÐ¿Ð¾Ð¼Ð¾ÑīÑĮ":4996,"ĠÐ¸Ð½ÑĬ":4997,"ĠÐ³Ð»Ñ§":4998,"ĠÐ·Ð¼Ñ£":4999,"ĠÑĥÑģÐ»ÑĭÑĪÐ°":5000,"Ð´Ð°Ð½Ð°":5001,"ĠÐ²ÑĮÑģÐ¸":5002,"ĠÐ´ÑĥÑĪÐ°":5003,"ĠÐ²Ð°ÑĪÐµÐ³Ð¾":5004,"ĠÐ´Ñ£ÑĤÐµÐ¼ÑĬ":5005,"ÑĩÑĸÑİ":5006,"ĠÑıÑĢÐ¾ÑģÐ»Ð°Ð²":5007,"ĠÑĢÑĥÐºÐ°Ð¼Ð¸":5008,"Ð±Ð¸Ðµ":5009,"ĠÐ·Ð°Ð¿Ð¾Ð²":5010,"ĠÐ¿Ð¾Ð³êĻĭ":5011,"ĠÑģÑĤÐ°Ð»Ð¸":5012,"Ð°Ð·ÑĥÐµÑĤÑĬ":5013,"ĠÐ²Ð¾Ð»ÑĮ":5014,"Ð¾Ð¼Ð¸":5015,"ÐºÐ°ÐºÐ¾":5016,"ĠÐºÐ°Ð·Ð°":5017,"ĠÐ±Ð»Ð°Ð³Ð¾Ð´Ñ£":5018,"ĠÐ±ÑĭÐ²Ð°ÐµÑĤÑĮ":5019,"ĠÐ¿Ð¾Ð±Ñ£Ð´Ð¸":5020,"ÑģÐºÐ¾Ð²Ð°":5021,"ĠÐ´ÐµÐ½ÑĮÐ³Ð¸":5022,"ĠÐ¸Ð½Ð´Ñ£":5023,"ĠÑĩÐµÑĤÐ²ÐµÑĢÑĤÐ¸":5024,"ÑĤÑĢÑĮ":5025,"ĠÐ¿ÑĪÐµÐ½Ð¸":5026,"ĠÐ½Ð°ÑģÑĤÐ°Ð²":5027,"ĠÐ²ÑģÐµÑħÑĬ":5028,"ÑĪÐ¸Ð½Ð°":5029,"ĠÑģÐºÐ²ÐµÑĢ":5030,"ĠÑĤÐ¾Ð²Ð°ÑĢÐ¸":5031,"ĠÐ¡ÑĤÑĢÐ°":5032,"ĠÐ¼Ð¾Ð¶ÐµÑĤÑĬ":5033,"ĠÑģÑĤÑ£Ð½Ñĭ":5034,"ĠÐ´Ð»Ð¸":5035,"ĠÐ±Ð¾Ñĥ":5036,"ĠÐºÑĥÑĢ":5037,"ĠÐ´Ð¾Ð±ÑĢÑĭÐ¹":5038,"ĠÐ¿Ð¾ÑħÐ²Ð°Ð»Ð¸":5039,"ĠÐ¿Ð¾ÑħÐ¾ÑĩÐµÑĪÑĮ":5040,"ÐºÐ»Ð¸":5041,"ĠÑģÐ»ÑĮ":5042,"ÑĢÐ°Ð¼Ð¸":5043,"ÑĨÐµÐ¼ÑĮ":5044,"ÐµÑĢÐµÐ¼":5045,"ĠÐ¾ÑĥÐ¶Ðµ":5046,"Ð¶ÐµÐ¹":5047,"ĠÐ´Ð¾Ð¼Ð¾":5048,"ĠÐ´ÑĮÑĢ":5049,"ĠÐ±Ð¾Ð³Ð°ÑĤÑĭÑĢÑı":5050,"ĠÐ¢Ð°ÐºÐ¾Ð¶Ðµ":5051,"Ð½Ð¾Ð¿":5052,"ĠÐ½Ð¸ÑĩÑĮ":5053,"ĠÐ°ÑĢÑħÐ¸Ð¼Ð°Ð½Ð´":5054,"ĠÐ·Ð¾Ð²":5055,"ĠÑģÐ²Ð¾Ð¸Ð¼Ð°":5056,"ĠÑģÐ²Ð¾ÐµÐ¼êĻĭ":5057,"ĠÐ¿ÑĢÐ¾Ñħ":5058,"ĠÐ±ÑĭÐ²Ð°ÑİÑĤÑĬ":5059,"ÑĩÐ½Ð¾Ð¹":5060,"ĠÐ³Ð°Ð»Ð¸":5061,"ĠÑģÐ»Ð¾Ð²Ñ£":5062,"ĠÐ¶Ð¸Ð²Ð¾ÑĤÑ£":5063,"ĠÑĦÐµÐ´Ð¾ÑĢÐ¾Ð²":5064,"ĠÐºÐ¾ÑĢÐ¾Ð»Ñİ":5065,"Ð±Ð»ÑĮ":5066,"ĠÐ¾ÑĤÐ²Ðµ":5067,"ĠÑĨÐ°ÑĢÑ§":5068,"ĠÐ²Ð¾Ð´Ð¾Ñİ":5069,"ÐµÐ²ÑĭÐ¼":5070,"ĠÐ²Ð·ÑıÐ»":5071,"ÑģÑĤÑ£Ð¸":5072,"ĠÐ½ÐµÐ¸Ð·":5073,"ĠÐ¿Ð¸ÑīÐ°Ð»":5074,"ĠÐ¸Ðº":5075,"ĠÐ¿Ð¾Ð¸ÑĤÐ¸":5076,"ĠÐ¼Ð°Ð»Ñ£":5077,"ĠÐ´ÐµÐ»ÐµÑħ":5078,"Ð´Ð¾Ð±":5079,"ÑĪÐ»Ð¸":5080,"ĠÐ¿ÐµÑĩÐ°Ð»":5081,"ĠÐ¸Ð·Ð¾":5082,"Ð¸Ð´ÐµÑĤ":5083,"ĠÐ¿Ð¾ÑģÑĢÐµÐ´Ñ£":5084,"Ð²Ñ§":5085,"Ð»ÐµÐ¿":5086,"ĠÐºÐ°Ð»Ð¸":5087,"ĠÐ±ÐµÐ·Ð·":5088,"ĠÐ¿Ð¾Ð»Ð¾ÑĨ":5089,"ĠÑģÑĸÐ¸":5090,"ÑĪÐµÐ½Ð°":5091,"Ñ§Ð»Ð¸":5092,"Ð¾ÑĢÑ£":5093,"ĠÐ·Ð´Ñ£Ð»Ð°":5094,"ĠÐ°Ð»ÐµÐºÑģÐµ":5095,"ĠÐ²ÑģêĻĹ":5096,"ÑģÑĤÐ²Ñĭ":5097,"ĠÐ²ÑģÑ§ÐºÐ°Ñ§":5098,"ĠÐ³Ð¾Ð²Ð¾ÑĢÐ¸ÑĤÐ¸":5099,"ĠÐ´Ð¾Ð±ÑĢÑĭÐµ":5100,"ĠÐ¢ÑĥÑĤÑĬ":5101,"Ð½Ð¸Ð½ÑĬ":5102,"Ð°ÑĤÑ£":5103,"Ð¾Ð²ÑĭÑı":5104,"ĠÑģÑ£Ð´":5105,"ĠÐ§Ð°":5106,"ĠÐµÑĢÐµ":5107,"ÐºÐ¸Ð¼":5108,"ĠÐ±Ð¾Ð»ÐµÐ·":5109,"ĠÑĩÐµÑĢÑĤÑĭ":5110,"ĠÑģÐ»Ð¸":5111,"ĠÑģÐºÑĬÑĢ":5112,"ĠÑħÑĢÐµ":5113,"ÑīÐµÐ½Ð¸Ðµ":5114,"ĠÐ¿Ð¾Ð¶Ð½Ð¸":5115,"ĠÐ¶ÐµÐ½ÑĮ":5116,"Ð´Ð¾ÑģÑĤÑĮ":5117,"ĠÐ¿ÐµÑĢÑģÑĤ":5118,"ĠÐ¿Ð»Ð¾ÑĤ":5119,"ĠÐ³Ð¾Ð´Ð°":5120,"ĠÐ²ÑĢÐ°Ð³ÑĬ":5121,"ĠÐ¿ÑĢÑĸÐ¸Ð¼":5122,"ĠÑģÐ¼ÐµÑĢÑĤÐ¸Ñİ":5123,"ÐµÑĤÑ£":5124,"ÑģÐºÐ¾Ð²":5125,"Ð²Ñ£Ñī":5126,"ĠÑģÑĭÐ½Ð¾Ð¼":5127,"ĠêĻĳ":5128,"Ð³Ñ£":5129,"Ð¸Ð½êĻĭ":5130,"ĠÐ²Ñ£ÑĩÑĮ":5131,"ĠÐ¸Ð²Ð°Ð½ÑĬ":5132,"ĠÑĩÐµÐ»Ð¾Ð²ÐµÐºÑĬ":5133,"ĠÑĩÐ°ÑģÑĬ":5134,"ÑĮÐ½Ð¾":5135,"ÑĸÑ«":5136,"ĠÐ¿ÑĢÐµÑģÑĤÐ°Ð²Ð¸":5137,"ĠÐ³Ð¾ÑĢÐ°":5138,"ĠÐ¸ÑģÑĤÐµÑĨ":5139,"ĠÐ£Ð¶ÑĬ":5140,"Ð¾Ð²Ð¸ÑĩÑĬ":5141,"ĠÐ±Ð°Ð³":5142,"ĠÐ½Ð¾Ð²Ñ£":5143,"ĠÐ´Ñ£Ð»Ñ§":5144,"ĠÐ´Ð¾Ð±ÑĢÐ°Ð³Ð¾":5145,"Ð³Ð¾ÑĤÐ¾Ð²":5146,"ĠÐ´Ð°ÑĢÑĭ":5147,"ĠÑĤÐµÐ»Ñ£":5148,"ĠÐ½ÐµÑĢÐ°":5149,"ĠÐ¿Ð¾ÑĩÐ°":5150,"Ð¾Ð³Ñĥ":5151,"ĠÐ±Ð¾Ð»Ðµ":5152,"ĠÑĥÑĢÑıÐ´":5153,"ĠÐ²ÐµÐ»ÐµÐ½ÑĮÑİ":5154,"ĠÐ½ÐµÐ´ÑĢÑĥÐ³Ð¾Ð²ÑĬ":5155,"ĠÑĤÑĢÑĬ":5156,"ĠÐ¼Ð¸ÐºÑĥ":5157,"ĠÐ³ÑĢÐ¸Ð²ÐµÐ½ÑĬ":5158,"ĠÐ²ÑģÑıÐºÐ¸Ð¼Ð¸":5159,"Îµ":5160,"ĠÑĢÑ§":5161,"ĠÐ¿Ð¾Ð»ÐºÑĬ":5162,"000":5163,"ĠÐ»ÑĥÑĤ":5164,"ĠÐ¶ÐµÐ½Ñ¹":5165,"ÐµÐ»Ñĭ":5166,"ĠÐ¿ÑĢÐ¸Ð±Ð°Ð²":5167,"ĠÑħÑĥÐ´":5168,"ÑĢÐ¾ÑģÑĤ":5169,"ĠÐ»ÑİÐ±Ð¸Ð¼":5170,"ĠÐ¿ÑĢÑ§":5171,"ĠÑģÑĤÑĥ":5172,"Ð²Ñ£Ð´Ñ£":5173,"ĠÐ»Ð¸ÑģÑĤÑĬ":5174,"ÑģÐºÐ°Ñ§":5175,"ĠÐ´ÐµÑĢÐ·":5176,"ĠÐ¿Ð»Ð°ÑĤÑĮÐµ":5177,"ĠÐ´ÑĢÐ¾Ð±":5178,"ĠÐ®":5179,"ÑĢÐºÐ¾Ð²ÑĮ":5180,"ĠÑģÑĢÐµ":5181,"Ð»ÐµÐ¹":5182,"ÑīÐµÑĤÑĮ":5183,"Ð²Ð°Ð¸":5184,"ĠÐ´Ð°Ð»Ð°":5185,"ĠÐ¸Ð¼Ð°Ð¼":5186,"Ð°ÑģÐ°":5187,"ĠÑģÑĤÐ¾ÑıÑĤÐ¸":5188,"ĠÑģÐ»ÑĥÐ¶Ð±Ñĥ":5189,"ĠÑĨÑ£Ð»Ð¾Ð²":5190,"ĠÑĥÑĤÐµ":5191,"ĠÐ¿Ð¾ÑģÐ»Ð¾Ñĥ":5192,"ĠÑģÑĤÐµÐ¿Ð°Ð½":5193,"ĠÐ²ÑĮÑģÐµÐ³Ð¾":5194,"ĠÐĶÐ¾Ð±ÑĢÑĭÐ½Ñı":5195,"Ð²ÑģÑı":5196,"ĠÐ³Ð»Ñİ":5197,"Ð¾ÑģÐ»Ð°Ð²ÑĬ":5198,"ĠÐĵÐ»Ð°Ð³Ð¾Ð»":5199,"ĠÑĤÑĢÑ¹":5200,"ĠÐ»ÑİÐ´ÑĮÐµ":5201,"ĠÐ¿Ñ§ÑĤ":5202,"Ð¿Ñĭ":5203,"Ð¸ÑĤÑģÑ§":5204,"ĠÑĥÑĩÐ½ÑĥÑĤÑĬ":5205,"ĠÐ±Ð¾Ð³Ð°ÑĤÑĭÑĢÐ¸":5206,"ĠÐ¼Ð°Ð½Ð°ÑģÑĤÑĭÑĢÑı":5207,"ĠÑĥÐ±ÑĮ":5208,"Ð¾Ð²ÐµÐ¹":5209,"Ð»ÐµÐºÑģÑ£":5210,"ĠÐµÐ´Ð¸Ð½Ð°Ð³Ð¾":5211,"ĠÐĸÐµ":5212,"ĠÐ¿Ð¾ÑģÐ¿Ñ£":5213,"ĠÐ·ÐµÐ¼ÐµÐ»ÑĮ":5214,"Ð½Ð¸ÐºÑĮ":5215,"ĠÐ´ÐµÑĢÐµÐ²ÐµÐ½ÑĮ":5216,"ÑĤÑĭÐ¸":5217,"ĠÐ±êĻĳÑģ":5218,"ÑĤêĻĳ":5219,"ĠÐ¸Ð·ÑģÑĤÐ°ÑĢÐ¸":5220,"ĠÐ²Ð¸Ð½Ñĭ":5221,"ĠÐ²Ð°ÑģÐ¸Ð»ÐµÐ¹":5222,"ĠÐ²ÑħÐ¾Ð´":5223,"ĠÐ½Ñĸ":5224,"ÐºÐ°Ð¼":5225,"ĠÑıÐ²Ð»ÑıÐµÑĤ":5226,"ÑħÐ½Ð¸":5227,"Ð¿ÑĢÐµ":5228,"ĠÑıÐ·ÑĬ":5229,"ĠÐ¿Ð°ÑĪÐ½Ð¸":5230,"ĠÐ¿Ð¾Ð²ÐµÐ»Ð¸":5231,"ĠÐ¿Ð¾ÑĤÑĢÐµ":5232,"ÐµÑĤÐµÐ¸":5233,"ĠÐļÐ°ÑĢ":5234,"ĠÐ´ÐµÑĢÐµÐ²Ð½Ðµ":5235,"ĠÐ³ÑĢÑ£ÑħÑĭ":5236,"ĠÐ¿ÑĢÐ°Ð²ÑĮÐ´ÑĮ":5237,"ÑĢÐ°Ð³Ð¼ÐµÐ½":5238,"ĠÑģÐ»Ð¾Ñĥ":5239,"ĠÐ¶Ð¸Ð»Ð¸":5240,"ĠÐ¶Ð¸Ð·Ð½ÑĮ":5241,"ĠÑģÐ¾Ð±Ðµ":5242,"Î¿Ï":5243,"ĠÐ¿ÑĢÐ¸ÑĪÑĮ":5244,"ĠÐ·Ð°Ð±":5245,"ĠÐ¾Ð±Ð¾":5246,"ĠÐ½Ð°Ð¿Ð¸ÑĪ":5247,"ÑķÑ£":5248,"ĠÐ³Ð»Ð°Ð²Ð°":5249,"ĠÐ´ÑĮÑģÑ§":5250,"ĠÐ±Ð¾ÑıÑĢÑģÐºÐ¾Ð³Ð¾":5251,"ĠÐºÐ¾ÑĥÐ½ÑĬ":5252,"ĠÑģÐºÐ°Ð¶ÐµÑĤ":5253,"Ñ§Ð½Ð°":5254,"ĠÐ¿Ð¾ÑĤÐµ":5255,"ĠÑĦÐµÐ¾Ð´":5256,"ĠÐ»Ð°ÑĤÐ¸Ð½Ðµ":5257,"ÑĤÑ¹":5258,"Ð¾ÑĢÐ¾Ð½":5259,"Ð²Ð°ÑĪÐµ":5260,"ĠÑĨÑģ":5261,"ĠÐ»ÑİÐ±ÑĬ":5262,"ĠÐ²ÐµÐ»Ð¸ÐºÐ¸ÑħÑĬ":5263,"ĠÐ±Ð¾ÑıÑĢÐ¸Ð½Ñĥ":5264,"ĠÐ´Ð°ÑĢÑĬ":5265,"ĠÑĩÐµÑģ":5266,"ĠÐ¸Ð½Ð¾Ð¼Ñĥ":5267,"Ð°Ð½ÑĮÑİ":5268,"ĠÑģÑģÑĭ":5269,"ĠÐ¶ÐµÑĢ":5270,"ĠÐ¶ÐµÐ½ÑĬ":5271,"ĠÑģÑĤÐ¾ÑĢÐ¾Ð½":5272,"ĠÐ¼Ð¾ÑģÐºÐ²Ñ£":5273,"ĠÐļÐ¸ÐµÐ²ÑĬ":5274,"ĠÑģÑĤÑ§":5275,"ĠÐŁÐ¾Ð¸":5276,"Ð´Ñ£ÑĤÐµ":5277,"ĠÑĦÐ°ÑĢÐ°":5278,"ĠÐ¿Ð°Ð³Ñĥ":5279,"ĠÐ¿Ð¾ÑħÐ¾ÑĤ":5280,"Ð¾ÑĦ":5281,"ÑģÑĤÑ§":5282,"Ð¶ÐµÐ¼ÑĬ":5283,"ĠÐ´Ñ£Ð»Ñ£ÑħÑĬ":5284,"ĠÐ±ÑĭÑĤ":5285,"ĠÐ²ÑĭÑħÐ¾Ð´":5286,"ÑĢÐ¾ÑģÐ¸":5287,"Ð´ÑĢ":5288,"ÑĢÐ°Ð²ÑĬ":5289,"Ð²Ð°Ð°":5290,"ĠÑĢÐ°Ð¸":5291,"ĠÐ¿ÑĢÐµÐºÑĢÐ°ÑģÐ½Ð°Ñı":5292,"ĠÑģÑĤÑĬ":5293,"ĠÐ¢Ð²Ð¾ÑĢ":5294,"ĠÐ²ÑĬÐ·Ñ§":5295,"ĠÐ½Ð¸ÐºÐ¾Ð»Ð¸Ð¶Ðµ":5296,"Ð½Ð¾ÑģÑĤÐ¸":5297,"ĠÑģÐ»Ð¾Ð²ÐµÑģÑĬ":5298,"ĠÑģÐ»ÑĥÐ¶Ð±Ñĭ":5299,"Ð¿Ð¸ÑģÑĮ":5300,"ĠÐ¿ÑĢÐµÐ¼ÑĥÐ´":5301,"ĠÐ½ÐµÐ´ÐµÐ»ÑīÐ¸":5302,"ĠÐ²Ð½Ðµ":5303,"Ð¾Ð¿Ð¸":5304,"ĠÑģÑĤÐ°ÑĢÐ¾Ð¼Ñĥ":5305,"ĠÑħÐ¾Ð´Ð¸Ð»":5306,"ĠÐ³Ð¾Ð»Ð¾Ð²":5307,"ĠÐ¾ÑĤÐ´Ð°Ð²Ð°ÑĤÐ¸":5308,"ĠÐ²ÑĢÑ£Ð¼Ñı":5309,"Ð°Ð½ÑĨÑĭ":5310,"Ð½ÑıÑĤÑĮ":5311,"Ð´Ñ£ÑħÑĬ":5312,"Ð²Ð¸Ð¸":5313,"ĠÐ¿Ð¾ÐºÑĢÐ¾Ð²":5314,"ĠÐ²Ð¾Ð·Ð´Ð²Ð¸":5315,"Ð²ÑĭÐ¼ÑĬ":5316,"ĠÐ¼ÐµÐ¶ÑĬ":5317,"Ð³Ð»ÑĭÑħ":5318,"Ð¾ÑĢÑĮ":5319,"ĠÑĢÑĥÐ±Ð»Ð¸":5320,"ĠÑĨÐµÐ»Ð¾Ð²Ð°Ð»":5321,"Ð¼Ð½":5322,"ĠÑĢÐ¾Ð²":5323,"ĠÐ¼Ñ£ÑģÑĤÐµ":5324,"ĠÐłÐ°Ð·":5325,"ĠÐºÐ¾Ð»ÐºÐ¾":5326,"ĠÐ¾ÑĥÐ´":5327,"ĠÑģÐ»êĻĳ":5328,"ĠÐ²ÑģÑ§ÐºÐ¾":5329,"ĠÐ½Ð°ÐºÐ°Ð·Ð°Ð½":5330,"ĠÑĩÐ»Ð¾Ð²Ñ£ÐºÐ°":5331,"ĠÑĢÐ°Ð´Ð¾Ð²Ð°ÑĤÐ¸":5332,"ĠÐ¿ÑĢÐ¸Ð²ÐµÐ·":5333,"ĠÐ½Ð¸ÐºÑĤÐ¾Ð¶Ðµ":5334,"Ð¸ÑĤÐµÐ»Ñı":5335,"ĠÐ¿Ð¾Ð²Ðµ":5336,"ĠÐ½Ð°Ð¸":5337,"ĠÐ¾Ð±ÑĮ":5338,"ĠÐ²Ñ£ÑĢÐ°":5339,"ĠÐ´Ð¾Ð¼Ð¾Ð²":5340,"ĠÐºÐ²Ð°":5341,"ĠÑĤÐ¸Ñĥ":5342,"ĠÐºÑĢÑ£Ð¿ÐºÐ¾":5343,"Ð°ÑĤÐµÐ»ÑĮ":5344,"ĠÐ¡Ð°":5345,"ĠÐ·Ð°Ð¿Ð»Ð°ÑĤÐ¸":5346,"ĠÐ½êĻĳÐ½Ñ£":5347,"ĠÑĤÑĥÑĢ":5348,"Ð±ÑĢÐ°ÑĤÐ¸":5349,"ĠÐ³Ð»Ð°Ð³Ð¾Ð»ÑİÑīÐµ":5350,"Ġ13":5351,"Ð¸ÑģÐ¸":5352,"ĠÑģÐ»Ð¾Ð²Ð¾Ð¼ÑĬ":5353,"ĠÐ±Ð¾Ð³Ð°ÑĤÑĭÑĢÑĮ":5354,"Ð±ÑĢÑ§":5355,"ÑĨÐ¾Ñĥ":5356,"ĠÑĥÑħ":5357,"Ð»ÐµÐ²Ð°":5358,"ĠÐ¢ÑĢÐ¾":5359,"ĠÑĤÐ²Ð¾ÐµÐ¼":5360,"ĠÐ²ÑģÑ§ÐºÑĸÐµ":5361,"Ð³Ð½Ñĥ":5362,"Ð·Ñ§":5363,"Ð¾ÑĥÑĤÑĮ":5364,"ĠÐ¿Ð¾Ð»Ð°ÑĤÑĭ":5365,"ÐºÐ°Ð·ÑĬ":5366,"ĠÐ¿ÑĢÐ¾ÑĩÐ¸":5367,"ĠÐ¼ÑĭÑģÐ»ÑĮ":5368,"ĠÐ½Ð±Ñģ":5369,"ĠÐ»Ð°Ð·":5370,"ĠÐ±Ð¾Ð»ÑĪ":5371,"ĠÐ²Ð°ÑģÐ¸Ð»ÑĮÑİ":5372,"ĠÐ¼ÑĬÐ½Ñ£":5373,"ĠÑģÑĤÑĢÑ£Ð»ÑĮÐ±Ñ£":5374,"ÑĥÐ¼Ñĥ":5375,"ĠÑĪÐ»Ð¾":5376,"ĠÑķÑ£":5377,"ĠÐ±Ð»Ð°Ð¶ÐµÐ½":5378,"ĠÐĴÐ¾Ð»Ð¾Ð´Ð¸Ð¼":5379,"ĠÐ¿Ð¾Ð¶Ðµ":5380,"ĠÐºÐµÐ¼":5381,"ĠÐ¿ÑĢÐ¾Ð¶Ð¸ÑĤ":5382,"ĠÑĥÑģÐ¿":5383,"Ð²Ð¸ÑĤÑĮ":5384,"ĠÐºÑĬÑĤÐ¾":5385,"ĠÑĥÑĩÐ¸Ð½Ð¸ÑĤÑģÑı":5386,"ĠÐ´ÐµÐ½ÐµÐ¶":5387,"Ð³Ð¾ÑĤÐ¾Ð²Ð°":5388,"ĠÐ²ÐµÐ»Ñ£Ð»ÑĬ":5389,"ĠÐ½Ð°Ð·ÑĭÐ²Ð°":5390,"Ð»Ð¸ÐºÐ¾":5391,"ĠÑ¿Ð½Ñİ":5392,"Ð´Ð¸Ð½Ð¾":5393,"ĠÐ¾Ð±Ð»Ð¸":5394,"ÐµÐ½Ð¸Ð¸":5395,"ĠÐ¿Ð¾ÑģÐ»Ð°ÑĪÐ°":5396,"ĠÐ´Ð¾Ð²Ð¾Ð»":5397,"ĠÐ½Ð¸ÐºÑĤÐ¾":5398,"ĠÐ¿ÑĢÐ¾ÑģÐ¸":5399,"ĠÐ·Ð»Ð°ÑĤÑĭ":5400,"ÑĭÐ½Ð¸":5401,"ĠÑħÐ°ÑĢ":5402,"êĻĹÑĤÐ¸":5403,"ĠÐ¼Ð¾ÑīÐ½Ð¾":5404,"ĠÐ²ÑģÐµÑİ":5405,"ĠÐ²Ð¾Ð¹ÑģÐºÐ°":5406,"ĠÐµÑĢ":5407,"Ð²Ð°ÐµÑĤ":5408,"Ñ¹Ð¸":5409,"ÑĤÐ¾Ñİ":5410,"ĠÑ¥Ð¼Ñ¹":5411,"ĠÐ¸Ð²Ð°ÑĪÐºÐ¾":5412,"ĠÐ¿Ð¾ÑģÐ»Ð°Ð»":5413,"Ð»ÐµÐ²ÑĬ":5414,"ĠÐ½Ð°ÑĪÑĥ":5415,"ĠÐ±ÑĭÑħ":5416,"ĠÐ¶Ð¸Ð²ÐµÑĤ":5417,"ĠÐ´Ð¾Ð»Ð³Ð¾":5418,"ĠÑĢÐ¾Ð³":5419,"ĠÑ¡ÑĩÐ¸":5420,"ĠÐ³Ð¾ÑģÑĥÐ´Ð°ÑĢÐµÐ²ÑĭÑħ":5421,"ĠÐºÐ¾Ð±Ñĭ":5422,"ĠÐ¿Ð¾Ð³ÑĢÐµÐ±":5423,"ĠÐ³Ð¾ÑģÐ¿Ð¾Ð´Ð¸Ð½Ñĥ":5424,"ĠÐ²ÑĢÐ°ÑĤÐ°":5425,"ĠÐ·Ð¾Ð»Ð¾ÑĤ":5426,"ĠÐ¸ÑĤÑĤÐ¸":5427,"Ð¼êĻĳ":5428,"ĠÑĢÐ°Ð±Ñĭ":5429,"ĠÑĤÐ¾ÑĩÐ¸Ñİ":5430,"Ð°ÑĤÐµÐ»":5431,"ĠÑ¥Ð¶Ðµ":5432,"Ð¾Ð»Ð¸ÐºÐ¾":5433,"ÑĥÑĤÑģÑı":5434,"Ð¾Ð²ÑĮÐµ":5435,"ĠÐ¾Ð±ÑĢÑ£ÑĤÐµ":5436,"ĠÐłÑĥÑģÐ¸Ð¸":5437,"ÑĥÑģ":5438,"Ð»Ñ£Ð´ÑĬ":5439,"ĠÑĤÐ²Ð¾ÐµÐ³Ñ¡":5440,"ĠÑĢÑ£ÑĩÐ¸":5441,"ĠÐ¾ÐºÐ»Ð°Ð´":5442,"ĠÑĤÐ°Ð¼Ñ¡":5443,"ĠÐ²Ð´Ñ£":5444,"ĠÐ±Ð¾ÑıÑĢÐ¸Ð½Ð°":5445,"ĠÐ¼ÑĮÐ½ÑĮ":5446,"Ð¸Ð½Ñĭ":5447,"Ð³Ð»Ð°Ð³Ð¾Ð»":5448,"ĠÑĢÑĥÐºÐ¾Ñİ":5449,"ĠÑĤÐ°ÐºÐ¸Ð¼ÑĬ":5450,"ĠÐ³Ð»Ð°Ñģ":5451,"ĠÑĢÐ°Ð·ÑĥÐ¼ÑĬ":5452,"ĠÐ¿Ð¾ÑĢÑĥÐºÐ¸":5453,"ĠÐŁÐ¾ÑĤÐ¾Ð¼ÑĬ":5454,"ĠÐ±Ð»Ð°Ð³Ð¾ÑģÐ»Ð¾Ð²Ðµ":5455,"ĠÑģÐµÐ±Ñ§":5456,"ĠÐºÐ°ÑĤÐ¾":5457,"ĠÑĩÐµÑģÑĤÐ¸":5458,"ĠÐºÑĥÐ¿Ð¸Ð»":5459,"ÑģÑĤÑĥÐ¿Ð¸":5460,"ĠÐ¿Ñ£ÑĪÐ¸ÑħÑĬ":5461,"Ð»ÐµÐ¼ÐµÐ½":5462,"ĠÐ¿ÑĢÐ¸Ð³Ð¾Ð´":5463,"Ð´Ð°ÑĤÑĮ":5464,"ĠÐ¿Ð¾ÑĤÐ°":5465,"êĻĹÑĪÐµ":5466,"ĠÐ¿Ð¾Ð»Ð¾Ñĥ":5467,"ĠÐ³Ð»Ð°Ð³Ð¾Ð»Ñ§":5468,"ĠÑĨÐµÐ»Ð¾Ð²Ð°":5469,"ĠÐ²ÑģÑ§ÐºÑĹÐµ":5470,"ĠÐ±Ð¸Ð»ÑĬ":5471,"Ð»Ñ£Ð½":5472,"Ð·Ð¸ÑĢÐ°":5473,"ĠÐ²ÑģÑıÐºÐ¸Ð¼":5474,"ĠÐ¼Ð¾ÑģÐºÐ¾Ð²ÑģÐºÐ¸Ð¸":5475,"ĠÐ´ÐµÐ²Ð¸":5476,"ÑĩÐµÐ½Ð°":5477,"ĠÐ¿ÑĢÐ°Ð²Ð´Ñĥ":5478,"Ð»ÑĥÑĩÐ¸":5479,"ÑģÐºÑĭÑı":5480,"ÑĤÐ¾ÑĢÐ°":5481,"ĠÐ¦Ð°ÑĢÑĮ":5482,"ĠÐ¸Ð·Ñ§ÑģÐ»Ð°Ð²ÑĬ":5483,"ĠÐŁÐ¾Ð½ÐµÐ¶Ðµ":5484,"ĠÐ½Ñ§":5485,"ĠÐ±Ð¾Ð¶ÑĮ":5486,"ÑīÐ°Ð½":5487,"Ð½Ð¸ÐºÑ¹":5488,"ĠÐ´ÑĢÑĥÐ³Ñĥ":5489,"ĠÑĤÐ¾Ð¼êĻĭ":5490,"ĠÐ¸ÑİÐ½Ñı":5491,"ĠÐ´Ð°Ð½":5492,"ĠÑģÑĤÐ°ÑĤÐ¸":5493,"Ð²Ñ£ÑĤÐ°":5494,"ĠÐ¿Ð¾Ð»ÐºÑĥ":5495,"ĠÐĳÐ»":5496,"ĠÐ²Ð¾Ð»Ñħ":5497,"ĠÑİÐ¶Ðµ":5498,"ĠÑģÐ»Ð¾Ð²Ñĥ":5499,"ĠÐ¸Ð¼ÐµÐ½ÐµÐ¼ÑĬ":5500,"ĠÐ¿Ð¾ÑģÑĥ":5501,"ĠÑĶÐ¶Ðµ":5502,"ĠÑĤÐ°ÐºÐ¶Ðµ":5503,"Ð»Ð°Ð³Ð¾Ð»Ð¸":5504,"ĠÑĤÐ¾ÑĢÐ³Ð¾Ð²":5505,"ĠÑĢÐ°Ð±Ð¾ÑĤÐ°":5506,"ĠÑĢÐµÐºÐ»Ð°":5507,"ÑĪÐµÐ½Ð¸Ñı":5508,"ĠÑģÐ²ÑıÑĤÐ°Ð³Ð¾":5509,"Ġ30":5510,"ĠÐ»Ð¾ÑĪÐ°Ð´Ð¸":5511,"ĠÐºÑĢÐµÑģÑĤÐ¸":5512,"ĠÐĽÐµ":5513,"ĠÐ¼Ð½Ñ¡Ð³Ð¾":5514,"ĠÐ¿ÑĢÐ¾ÑĢÐ¾ÐºÑĬ":5515,"ĠÑģÑĥÐ·Ð´Ð°":5516,"ĠÐ²ÑģÑıÐºÐ¸ÑħÑĬ":5517,"ĠÐĺÐ»ÑĮÑİ":5518,"ÑĨÐºÐ¸Ñħ":5519,"ÑģÑĤÑ¹Ð¿":5520,"ĠÐºÐ°ÐºÐ¾Ðµ":5521,"ĠÐ½ÐµÐ¿ÑĢÐ°Ð²ÑĮ":5522,"ÑĪÐµÐ»ÑĬ":5523,"ÑĢÐ¸ÑĤÑĮ":5524,"ĠÐ¶Ð¸Ð»":5525,"ĠÐ³ÐµÐ½":5526,"ĠÐ´Ð°Ð²Ñĭ":5527,"ĠÐ½Ð¸Ð±":5528,"Ð¾Ð²Ð¸Ñİ":5529,"ÑĩÑĮÑģÑĤÐ¸":5530,"ĠÐ¿ÑĢÐµÑģÑĤÐ°Ð²":5531,"ĠÐ¿Ð°Ð»Ð°":5532,"Ñ£Ð·Ð¶Ð°":5533,"ĠÐ¸ÑİÐ»Ñı":5534,"ĠÐ¡Ð»ÑĭÑĪÐ°":5535,"ĠÐºÑĤ":5536,"ĠÑĢÐ¸Ð¼":5537,"ĠÐ¸ÑģÑĤÐ¸Ð½ÑĮ":5538,"ĠÐ²ÑĮÑģÑ£ÑħÑĬ":5539,"ĠÐ¿Ð¾ÑģÐ»Ñĭ":5540,"ĠÐŀÐ½Ð¸":5541,"ĠÑģÐ¸ÑĢÑ£":5542,"ĠÑĤÐ°ÐºÑĥÑİ":5543,"ĠêĻģÐ²Ñ£":5544,"ĠÐ¼Ð¾Ð»Ñİ":5545,"ĠÐ±êĻĳÑģÑĤÑĬ":5546,"ĠÐ·Ð´ÑĢÐ°Ð²Ð¸":5547,"ĠÑĢÐ°Ð·Ð¼Ñ£ÑĢ":5548,"ĠÐ¸Ð½ÑĭÐ¼":5549,"ĠÑģÐ¸Ð±Ð¸":5550,"ĠÐ¿ÑĥÑģÑĤÐ¸":5551,"Ð²Ð¾Ð»ÑĬ":5552,"ĠÐ¿Ð¾Ð»Ð¾Ð²Ð¸Ð½Ð°":5553,"ĠÐ²Ñ£ÐºÐ¸":5554,"ĠÐĶÑ£":5555,"ĠÑģÑĤÑĢÐ°Ð½":5556,"ĠÐºÐ½Ñ§Ð·Ð¸":5557,"ĠÑĢÐ¾ÑĥÑģÐ¸":5558,"ĠÐ¼Ð¸Ð»Ð¾ÑģÐµÑĢ":5559,"ĠÐĲÐ´Ð°":5560,"ĠÑħÑĥ":5561,"ĠÐ¼ÑģÑĨÐ°":5562,"ÒĨ,":5563,"ĠÑĨÐ°ÑĢÐµÐ¼ÑĬ":5564,"ĠÐ¿Ð¾ÑĢÐ°":5565,"ĠÐ¼Ð½Ð¾Ð³Ð¸Ñħ":5566,"ĠÐ´ÐµÑĢÐ¶Ð°Ð²":5567,"ÑĢÐ¾Ð»":5568,"Ð»ÐµÑĤÑĮ":5569,"ÑĤÑĮÑ§":5570,"ĠÑĢÐµÐºÐ¸":5571,"ĠÐ²Ð¸Ð½Ð¾":5572,"ĠÐ¿Ð°ÑĪÐµÐ½":5573,"ĠÐ²Ð°ÑģÐ¸Ð»Ð¸":5574,"Ð´Ð¸ÑĤ":5575,"ĠÐ´Ð°ÑĪÐ°":5576,"Ð¶ÐµÐ½Ð¸":5577,"ĠÑģÐ¼Ð¾Ð»ÑĮ":5578,"ĠÐ±Ð¾ÑıÑĢÐµ":5579,"ĠÐĴÑĬÐ·":5580,"ĠÐ´Ð¾Ð±ÑĢÑĭÑħ":5581,"ĠÐ´Ð°ÑĢÑĥ":5582,"ĠÑĥÑĤÑ£":5583,"Ñ«ÑĤ":5584,"ĠÐ¿Ð¾Ð¼ÐµÑģÑĤÐµÐ¹":5585,"ĠÐ¾ÑĤÑĮÑĨÑı":5586,"êĻģÐ½ÑĮ":5587,"ĠÐ¸ÑģÑĨÑ£":5588,"ĠÐĵÐ¾ÑĢÐµ":5589,"ĠÐ¸ÑħÑĮ":5590,"ÑĥÑĤÑĩÐ¸":5591,"ĠÑģÑĸÑİ":5592,"ĠÐ¸ÑģÑĤÐ¸":5593,"Ð±Ð»Ñı":5594,"ĠÐ¿Ð¾Ð²ÐµÐ»":5595,"ÑĤÑĨÐ°ÑĤÐ¸":5596,"ĠÐºÐ°Ð½":5597,"ĠÐ¿ÑĢÐ¸Ð³Ð¾Ð²Ð¾ÑĢ":5598,"ĠÐ¾ÑĤÐºÑĥÐ¿":5599,"ĠÑĨÐ¸":5600,"ĠÐ¡Ð¿Ð°Ñģ":5601,"ĠÐºÐ°Ð¿":5602,"ĠÐºÐ¾ÑĢÐ°":5603,"ĠÐ¸Ð²Ð°ÑĪÐºÐ°":5604,"ĠÑĤÐ¾Ð¼Ð¾Ñĥ":5605,"ĠÐ¸Ð²Ð°Ð½Ð¾Ð²Ð¸ÑĩÑİ":5606,"ĠÑģÐ²Ð¸Ð´Ñ£":5607,"Ð°ÑħÑĥ":5608,"Ð´Ð¸Ð¼ÑĬ":5609,"ĠÐļÐ¾Ð½":5610,"ĠÐ²Ð·ÐµÐ¼":5611,"ĠÐ´Ð²Ð¾ÑĢÐ¾Ð²":5612,"Ð´Ñĸ":5613,"ĠÐ¼ÑĢÑĮ":5614,"ÑĨÑ«":5615,"ĠÐ¼Ð¾Ðº":5616,"Ð»Ð¸Ð²ÑĬ":5617,"ĠÐ´Ð°Ð¹":5618,"ÑĪÐ°Ð°Ð³Ð¾":5619,"ÐµÐ½ÑĸÐ°":5620,"ÑģÑĤÐ¾Ñı":5621,"ĠÑĤÐ°Ð¼ÑĬ":5622,"Ñ³Ð¾Ð½":5623,"Ð»Ð¸Ð²Ð¾":5624,"ĠÐµÐ¿Ð¸ÑģÐºÐ¾Ð¿":5625,"êĻĭÐ¼":5626,"ĠÐ¿ÑĢÐµÐ¿Ð¾Ð´Ð¾Ð±":5627,"ĠÐ±Ñ£Ð¶Ð°":5628,"ĠÐ½Ñ£ÐºÐ¾":5629,"ÐºÐ¾Ð²Ñĥ":5630,"Ð¾Ð³Ð¾Ð²Ð¾ÑĢ":5631,"ĠÑĸÐ²Ð°Ð½":5632,"ĠÐ¸Ð²Ð°Ð½Ð¾Ð²Ð°":5633,"ĠÐ³Ð¾Ð´ÑĬ":5634,"ĠÐ²ÑģÐµÐ²Ð¾Ð»Ð¾Ð´ÑĬ":5635,"Ð¼Ñĸ":5636,"ÐµÐ¼Ðµ":5637,"ĠÑģÐ¼ÑĢ":5638,"ĠÐ±ÑĮÑĸ":5639,"ĠÐĵÐ¾ÑģÐ¿Ð¾Ð´Ñĥ":5640,"ĠÐ¼Ð°ÐºÑģÐ¸Ð¼":5641,"ĠÐĶÐ¾Ð±ÑĢÑĭÐ½Ñİ":5642,"Ð¸ÑģÐµ":5643,"ĠÐ±ÐµÑģÑĩÐµ":5644,"ÐµÐ½ÑĭÑħ":5645,"ĠÐ´ÐµÑģÑıÑĤÑĮ":5646,"ĠÐ¿Ð¾Ð¶Ð°Ð»ÑĥÐ¸":5647,"ĠÐ¸Ð½Ñĭ":5648,"Ñ¥Ð²Ð°":5649,"ĠÐºÐ¾Ð½Ñ£":5650,"ĠÑĤÑ£Ð¼Ð¸":5651,"ĠÐ´Ð¾Ð¼Ñ¹":5652,"ĠÐ±ÐµÑĢÐµÐ·":5653,"ĠÐ¶ÐµÑĢÐµÐ±Ðµ":5654,"Ð¾ÑĢÑĤÐ¸":5655,"Ð½Ð°ÑħÑĬ":5656,"ĠÐĺÐ½":5657,"ĠÐ²ÑĮÑģÑĮ":5658,"ĠÑĢÐ¸Ð·":5659,"ĠÐ¶Ð¸ÑĤÐ¸Ðµ":5660,"ĠÑħÐ»Ñ£Ð±Ð°":5661,"ĠÐ¼ÐµÐ¶Ð´Ñĥ":5662,"ĠÑĥÐ¼Ñĭ":5663,"ĠÐĳÑĥÐ´":5664,"Ð´ÑĥÑĤÑĬ":5665,"ĠÐ²ÑģÑ§ÐºÐ°Ð³Ð¾":5666,"Ġ14":5667,"ĠÐ¼Ð¸ÑħÐ°Ð¹Ð»":5668,"ĠÐºÐ»Ð°Ð½Ñ§Ñİ":5669,"ĠÐºÑĥÐ´Ð°":5670,"Ð»Ð°Ð´Ñĥ":5671,"ĠÐ²ÑģÐµÑģ":5672,"ĠÐ¿Ð¾ÑģÐ¾Ð»":5673,"ĠÐºÑĬÐ½Ñ§":5674,"ĠÐ¿Ð¾ÐºÐ°Ð¼":5675,"ĠÐ²ÑģÑıÐº":5676,"ĠÐ¿Ð¾Ð»Ð¾Ð²Ð¸Ð½Ñĥ":5677,"ĠÑģÐ¾Ð»ÑĮ":5678,"ĠÐ¿ÑĢÐ¾Ð»":5679,"êĻĭÑİ":5680,"ĠÑģÑĤÑĢÐµ":5681,"ÑĩÐµÐ¸":5682,"ĠÑģÐ°Ð¼Ð¾Ð´ÐµÑĢ":5683,"ĠÑģÐ¾ÑĥÑĤÑĮ":5684,"ĠÐ½Ð°Ð´Ð¾Ð±Ðµ":5685,"ĠÐ²Ð½Ð¸Ð´Ðµ":5686,"ĠÑĤÑĢÑ£":5687,"ĠÐ¾ÑĤÐº":5688,"ĠÐ¸ÑģÑĨÐ¾Ð¼":5689,"ĠÐ³Ð¾ÑģÐ¿Ð¾Ð´Ð¸Ð½ÑĬ":5690,"ĠÑģÐ²ÑıÑĤÑĭÐ¸ÑħÑĬ":5691,"ĠÑĢÐ¸Ð·Ñĭ":5692,"ĠÐ¿ÑĢÑ£Ð¼ÑĥÐ´":5693,"ĠÐ°ÑĤ":5694,"ĠÑĩÐµÐ¼Ñĥ":5695,"Ð¸ÑĤÐ¾":5696,"ĠÑģÑĬÐ²":5697,"ĠÐ¡ÑĮ":5698,"ÐµÑĢÐµÐ¸":5699,"ĠÐ³ÑģÐ´ÑĢÑ§":5700,"ĠÐľÐ¸ÑħÐ°Ð¹":5701,"ĠÐ¾ÑĤÐ¿ÑĥÑģÑĤÐ¸":5702,"ĠÐµÐ´Ð¸Ð½Ñĥ":5703,"ĠÑģÑĤÐ°ÑĢÐ¾ÑģÑĤÐ¸ÑĪÐºÐ¾":5704,"ĠÐ±Ð°ÑĤÑİ":5705,"Ïģ":5706,"ÑģÐºÑ¹":5707,"ĠÐ¾ÑĥÐ¼Ñ£":5708,"ÑĹÐ°":5709,"ĠÐłÐµÑĩÐµ":5710,"ĠÐ±Ð¾Ð»Ð³Ð°ÑĢÐ¸":5711,"ÑĪÑĤÐµÑĪÐ¸":5712,"ÑĪÑ¹":5713,"ÑĨÐ¾Ð²Ð°":5714,"Ñ¹ÑĤÑĬ":5715,"ĠÐ¿ÑĢÐ¸ÑģÐ¿Ñ£":5716,"ĠÐ¿ÑĥÑĤ":5717,"ĠÐµÐ´Ð¸Ð½Ð¾Ð³Ð¾":5718,"ĠÐ´ÐµÑģÑ§ÑĤÑĮ":5719,"Ð¾Ð²ÑĮÑı":5720,"Ð²Ð°ÑİÑĤ":5721,"ĠÑĥÐ²Ñ£":5722,"ĠÐ±ÑĭÐ²ÑĪÐµ":5723,"ĠÑĸÐ²Ð°":5724,"ĠÑĢÐ¾Ð´ÑĬ":5725,"ĠÐ¼Ñ¹Ð¶Ð°":5726,"ĠÐ²Ð°ÑģÐ¸Ð»ÐµÐ¸":5727,"ĠÑĥÐ´Ð°ÑĢ":5728,"ĠÑĦÑĥÐ½ÑĤÐ¾Ð²ÑĬ":5729,"ĠÑģêĻĭÐ´":5730,"ĠÐ¿Ñ§":5731,"ĠÐ½ÐµÑĩÐµÑģÑĤÐ¸":5732,"Ð¶Ñı":5733,"ĠÐ¶Ð¸Ð´":5734,"ĠÑģÑĤÑĢÐ°Ð½Ñ£":5735,"ĠÑģÐ»Ð¾Ð²ÐµÑģÑĭ":5736,"ĠÐ¼ÑĥÐ´ÑĢÑĭ":5737,"ĠÐ²Ð¾ÑģÐºÑĢÐµ":5738,"ÑĢÐµÐ¼ÑĬ":5739,"ÑģÐ¾Ð²":5740,"ĠÐ½Ð¸Ð·ÑĬ":5741,"ĠÐ¿Ð¾Ð±Ð¸":5742,"ĠÑģÑ¹Ð´Ñĭ":5743,"ĠÑĢÑĥÐ±Ð»ÐµÐ²ÑĬ":5744,"Ð¼Ð¾Ð¶Ðµ":5745,"Ð±Ð¾Ð¶":5746,"Ð½Ð¸ÑĨÑ£":5747,"ĠÑıÑĢÐ¾Ð¿Ð¾Ð»":5748,"ĠÐ¿ÑĢÑ£ÑģÑĤ":5749,"ÑĢÐ¾ÐºÑĬ":5750,"Ð½ÐµÐ½Ð°Ð²":5751,"ĠÐ¿Ð¾ÑĩÐ¸Ð½Ð¾Ðº":5752,"ĠÐ½Ð°Ð¼ÑĮ":5753,"ĠÐ°ÑĦ":5754,"ĠÐ¾ÑĤÑĤ":5755,"Ñ«ÑĤÑĮ":5756,"ĠÐ²Ñ£ÑģÑĥ":5757,"ĠÑĨÐ°ÑĢÐµÐ²":5758,"ĠÐ¿ÐµÑĢÐµÐ»":5759,"ĠÐ±ÑĮÑİÑĤÑĬ":5760,"ĠÑģÐ»ÑĥÐ³Ð°":5761,"ĠÑģÑĬÑĤÐ²Ð¾ÑĢÐ¸ÑĤÐ¸":5762,"ĠÐ±êĻĭÐ´êĻĭÑĤÑĬ":5763,"ĠÐ¼Ð¾Ð»Ð¸ÑĤÐ²Ñĥ":5764,"ĠÐ¡Ð¾Ð»Ð¾Ð²ÐµÐ¹":5765,"ĠÐ¿Ð»ÑĬÑĤÑĮ":5766,"ĠÑĢÐµÐ²":5767,"ĠÑĨÐ°ÑĢÐµÐ²Ñĥ":5768,"ĠÐ¿Ð°Ð´":5769,"ĠÐ¿Ð¾ÑģÑĤÐ°Ð²Ð¸ÑĤÐ¸":5770,"ĠÐ²ÑģÐºÐ¾ÑĢÑ£":5771,"ÑĤÐµÐ»Ð¸":5772,"ĠÑĤÑ¡":5773,"ĠÐ²ÑĬÐ¿Ð°":5774,"ĠÑĤÐ²Ð¾Ð¸Ñħ":5775,"ĠÐ¿Ð¾Ð¼Ð¾Ð»":5776,"ĠÐ¿Ð¾ÑĢÑĭ":5777,"ĠÑķÐ²Ñ£":5778,"ĠÑĩÐµÑĢÐµÐ·ÑĬ":5779,"ĠÑĩÐ°ÑģÑĭ":5780,"ÐºÐ¸Ð½Ñĥ":5781,"ÑĪÐµÑĤÑĮ":5782,"Ð²Ð°ÐµÑĤÑĮ":5783,"ĠÐ¶ÐµÐ»Ñ£":5784,"ÑĨÐµÑħ":5785,"ĠÑħÐ¾ÑĤÑĮ":5786,"ĠÐ´ÑĮÐ½Ð¸":5787,"ĠÐ±Ð¾ÑıÑĢÑģÐºÐ¸Ðµ":5788,"ĠÐ¡ÑĤÑĢÐ°ÑĤÐ¸":5789,"Ð¾ÑĥÐ´":5790,"ĠÐ²Ð¿Ð°":5791,"ÐµÑĢÐ¶":5792,"ĠÐ»Ð¶Ð¸":5793,"Ð¶Ð¸ÑĤÐ¸":5794,"ĠÑĥÐ´Ð°":5795,"Ñ¹Ð¼Ñ£":5796,"Ð´Ð¸Ð»Ð¸":5797,"ĠÐĿÑĮ":5798,"ĠÐ³ÑĬÑĢ":5799,"ÑģÑģ":5800,"Ð´ÑĨÐ°":5801,"ĠÐºÑĸ":5802,"ĠÑ¿Ð²ÐµÑĢ":5803,"ĠÐºÐ¾Ð½Ð½ÑĭÑħÑĬ":5804,"Ð¸ÑĤÑĮÑģÑı":5805,"ĠÐ¿ÑĢÐµÐ´Ñ£":5806,"ĠÑģÑĤÐ¾ÑĢÐ¾Ð¶":5807,"Ġ20":5808,"ĠÐĴÐ¾ÐµÐ²":5809,"ÑģÑĤÐµÐ¸":5810,"ĠÑģÐ»Ð¾Ð²ÐµÑģÐ¸":5811,"ĠÐºÑĢÑ£Ð¿Ð¾ÑģÑĤÐ¸":5812,"ĠÑĢêĻĭÐºêĻĭ":5813,"ĠÑĤÐµÐ¼ÑĬ":5814,"ĠÐ¿ÑĢÐ¸ÑĪÐµ":5815,"ĠÐ½Ð¸ÐºÐ¾ÑĤÐ¾ÑĢ":5816,"ĠÐ¡Ñĥ":5817,"ĠÑĤÐ°ÐºÑĸÐµ":5818,"ĠÐ²ÑĬÐ·Ð²ÑĢÐ°ÑĤÐ¸":5819,"ĠÐ´ÑĢÑĥÐ·Ð¸":5820,"ĠÐ¾ÑĤÐ´Ð°ÑĤÑĮ":5821,"ĠÐ¿ÐµÑĢÐµÐ²Ð¾Ð·":5822,"ĠÐ²Ð¾Ð½":5823,"ĠÐĳÐµ":5824,"Ð¼Ð°Ð½Ð°":5825,"ĠÐ·Ð»Ð°ÑĤ":5826,"ĠÑĢÑĭÐ±Ñĭ":5827,"ĠÐ²Ð¾Ð¹ÑģÐºÐ¾":5828,"Ġ40":5829,"iÐµ":5830,"Ð»Ð°Ð´Ñĭ":5831,"ĠÐ²ÐµÐ»Ð¸ÐºÐ¾Ð¼":5832,"ĠÑģÑĤÐ°Ð»Ð°":5833,"ĠÑĩÑİÐ´Ð¾":5834,"ĠÑģÐ»ÑĥÐ¶Ð¸ÑĤÐ¸":5835,"ĠêĻģÐµÐ¼Ð»":5836,"ĠÐ²Ð¾ÑĢÐ¾ÑĤÐ¸":5837,".âĢ":5838,"Ð½ÑĸÑı":5839,"Ð¼Ð°ÑĤÑĮ":5840,"ĠÑĤÐ°ÐºÐ¾Ð²Ð°Ð³Ð¾":5841,"ÑĤÑĢÐ¸":5842,"ĠÐ±Ð¸Ð»":5843,"ĠÐĲÐ²":5844,"ĠÑģÑĬÐ±Ð¾ÑĢ":5845,"ĠÑĤÑ£Ð¼":5846,"ĠÑĩÐµÑĢÑĤÐµ":5847,"ĠÑģÐµÐ´Ð¼ÑĮ":5848,"ĠÐ¼Ð¸Ð½Ñĥ":5849,"ĠÐ¿Ð¾ÐµÑħÐ°Ð»":5850,"Ð¶ÐµÐ½Ð¸Ðµ":5851,"ĠÐ¾ÑĥÐ¿":5852,"ĠÑģÑĤÐ°ÑĢÐ¾Ð¹":5853,"ÑĨÑĮÐ¼ÑĮ":5854,"ĠÐ¼Ð½Ð¾Ð³Ð¾Ðµ":5855,"ĠÐ¥Ð¾":5856,"Ð¾Ð²Ð¸ÑĩÑĥ":5857,"ĠÐ²ÐµÐ»Ð¸ÐºÐ°Ñı":5858,"Ð´Ð°Ð»ÑĬ":5859,"ÐºÐ¸ÑħÑĬ":5860,"ĠÐħ":5861,"ĠÑĤÑĢÑı":5862,"ÑĨÑ£Ð¼ÑĬ":5863,"ĠÐĶÑĢÑĥÐ¶Ð½ÐµÐ²Ð½Ð°":5864,"Ð²Ð»Ñ§":5865,"ÑīÐµÑĢ":5866,"Ð¾Ð³Ð¾Ð¶Ðµ":5867,"ÑĩÐµÐ½Ð¸Ðµ":5868,"ĠÐ³Ð¾ÑĢÐ¾Ð´Ñĥ":5869,"ĠÑĤÐ²Ð¾ÑĢÐ¸ÑĪÐ¸":5870,"ĠÐ´Ð¾Ð±ÑĢÑĭÐ¼ÑĬ":5871,"ĠÐ´Ð¾ÑĢÐ¾Ð³Ð¾":5872,"ĠÐ¿Ð¾Ð´Ð¾Ð±Ð°ÐµÑĤÑĮ":5873,"ĠÐ¿Ð¾ÐºÐ»Ð°Ð½Ñı":5874,"ĠÐºÐ¾Ð½ÑİÑĪ":5875,"ĠÐ¼Ð»Ð°Ð´ÐµÐ½":5876,"ĠÐ´ÐµÑĤÑĮ":5877,"ĠÑĩÐ¸Ð½ÑĬ":5878,"ÑĪÐ¸Ð¸":5879,"ĠÑ¿Ð²Ñ£ÑīÐ°":5880,"ĠÐ²Ð¾Ð·Ð¼Ñĥ":5881,"ĠÐ²ÑģÑ§ÐºÑĬ":5882,"ĠÐ¿ÐµÑĢÐµêĻĹ":5883,"ĠÐ¼Ð¸ÑĤÑĢÐ¾Ð¿Ð¾Ð»Ð¸ÑĤ":5884,"Ð¾Ð¼Ð¸Ð½Ð°":5885,"ĠÑ¥Ð¼Ð¾Ñĥ":5886,"ĠÐ´ÑĥÑĪÐµ":5887,"ĠÐ¿Ð¾Ð¼ÐµÑģÑĤÑĮ":5888,"ĠÐ³ÑĢÐ¸Ð²ÑĮÐ½Ñ£":5889,"ĠÐ·ÐµÐ»Ð¾":5890,"Ñ¡Ð±ÑĢÐ°":5891,"ÑĢÐ¸ÑĪÐ¸":5892,"ĠÐ¿Ð¾ÑģÐ¼Ñ£":5893,"ĠÐĴÐ¸Ð´":5894,"ĠÑģÐ»ÑĥÑĪÐ°":5895,"ĠÐ²Ð´Ð²Ð¾Ðµ":5896,"ĠÐľÐ¾ÑģÐºÐ¾Ð²":5897,"Ð»Ð°ÐºÐ°":5898,"ĠÐ´Ð°Ð»ÑĮ":5899,"ĠÑĤÑ£Ð»Ð°":5900,"ĠÐ²Ð·ÑıÑĤ":5901,"ĠÐ²ÐµÑĢÑħÑĥ":5902,"ĠÐ¿ÑĢÐ¾ÑģÐ»Ð°Ð²Ð¸":5903,"ĠÐ³Ð»Ð°ÑģÑĬ":5904,"ĠÐ²Ð¾Ð»Ð¾Ð´Ð¸Ð¼Ð¸":5905,"ĠÑģÐ²ÑıÑĤÑĭÑħ":5906,"ĠÑĥÑĩÐ¸Ð½Ð¸ÑĤÑĮ":5907,"ĠÑĩÐµÐ»Ð¾Ð±Ð¸ÑĤÑĩÐ¸ÐºÐ¸":5908,"Ð²Ð°ÑĤ":5909,"ĠÐ´Ð°Ð¼ÑĬ":5910,"ĠÐĲÑĢ":5911,"ĠÐĳÑĥÐ´Ð¸":5912,"Ð³Ð°Ñħ":5913,"ĠÐ²Ð¾Ð·Ð¼ÐµÑĤ":5914,"ĠÐ½Ñ£ÐºÐ¾ÐµÐ³Ð¾":5915,"ĠÑģÑĢÐµÐ±ÑĢÐ°":5916,"Ð¼Ð¾ÑĢ":5917,"ĠÐ¿Ð¾Ð´Ð»Ðµ":5918,"ĠÑĩÐ¸Ð½Ð¸":5919,"Ð°ÑĤÑĬ":5920,"ÑģÐ²Ð¸":5921,"ÑıÐ½ÑĬ":5922,"ĠÐ¾ÑĤÐ¿Ð¸":5923,"ÑĢÐµÐ½Ð¸Ðµ":5924,"ĠÐ¿Ð¾Ð»Ðº":5925,"ĠÐŁÐ¸ÑģÐ°":5926,"ÑīÐ¸Ð¸":5927,"ĠÑĤÐ°ÐºÐ¾Ð²":5928,"ĠÐ»ÐµÑģÑĥ":5929,"ĠÐ¿Ð¾Ð¼ÑĭÑĪÐ»Ñı":5930,"ÐµÑĪÑĬ":5931,"ĠÐ³ÑĢÑı":5932,"Ð½ÑıÐ¼Ð¸":5933,"ÑīÐ°Ñı":5934,"ĠÑģÐ¾Ð±Ð»Ñİ":5935,"ĠÐ²Ð¿ÐµÑĢÐµÐ´ÑĬ":5936,"ĠÐ¸Ð½Ð¾Ð¹":5937,"ĠÐ²ÑģÐ¿":5938,"ĠÐĳÐ¾Ð²Ñĥ":5939,"ĠÑĤÐ°ÐºÐ¸Ð¼":5940,"ĠÐºÐ¾ÑĤÐ¾ÑĢÑĥÑİ":5941,"ĠÐ»Ñ£Ð¿":5942,"ĠÐ±Ð¾Ð»Ñ§":5943,"ĠÐµÐ´Ð¸Ð½Ð¾Ð¼Ñĥ":5944,"ĠÐŁÐ¾ÑĤÐ°Ð½ÑĨÑĭ":5945,"ĠÑħÐ¾ÑīÐµÑĤ":5946,"ĠÐĶÐµÐ²Ð³ÐµÐ½Ð¸":5947,"ĠÐ½Ð¾ÑĢ":5948,"Ð»Ð°Ð·":5949,"ĠÐĴÑģÑ§":5950,"ĠÐ²Ð¸Ð´Ñ§":5951,"ĠÐ´Ð¾Ð±ÑĢÐ¾Ð¼ÑĬ":5952,"ĠÑĪÐ¸ÑĢ":5953,"Ð³Ð½Ð¸":5954,"ĠÐ¼ÑĢ":5955,"ĠÐ½ÐµÑĤÑĬ":5956,"ÑĨÐ°ÑħÑĬ":5957,"ĠÐ´Ð¾ÑģÐ¿Ñ£":5958,"ÑħÐ¾Ñĥ":5959,"ĠÐ¿ÑĢÐ¾Ð»Ð¸":5960,"ĠÑģÐµÐ³Ñ¡":5961,"ĠÐ²ÐµÐ»Ð¸ÐºÑĥ":5962,"ÑĸÐµÑİ":5963,"Ð¾Ð²Ð¸ÑĤÑĮ":5964,"ĠÐ·Ð°Ð¿Ð¸":5965,"Ð»Ñ§ÑĤÐ¸":5966,"ÐºÑĭÐ¸":5967,"ĠÐ¿ÑĢÑıÐ¼Ñĭ":5968,"ĠÐ¿Ð¾ÑĢÐ¾ÑħÑĥ":5969,"Ð»Ð°Ð¼Ð¸":5970,"ĠÐµÑµ":5971,"ĠÐ¼Ñ£ÑģÑĤÑĬ":5972,"Ð²ÑĭÑħ":5973,"ĠÎĻ":5974,"ĠÐ²Ð¸Ð´Ð¸ÑĪÐ¸":5975,"ĠÑģÑĤÐ°ÑĤÐµÐ¹":5976,"ÐºÐ»Ð°Ð´":5977,"ÐµÐ½ÑĸÑ§":5978,"Ð²Ð°Ñ§":5979,"Ð¾ÐºÑĥ":5980,"ĠÐ¿Ð¾ÑĢÐ¾Ð·":5981,"ĠÐ·Ð´Ð°ÑĢ":5982,"ĠÐ±ÐµÑĢÐµÐ¶Ðµ":5983,"ĠÐºÐ»ÐµÐ²ÐµÑĤ":5984,"ĠÐ¼Ð¸Ð½":5985,"Ð»ÑİÑĤ":5986,"ĠÐ¾Ð½Ð¾Ð³Ð¾":5987,"ĠÐ»ÑİÐ±Ð²Ð¸":5988,"Ñ£Ðµ":5989,"Ñ¡ÑĤ":5990,"ĠÐ¿ÑĢÐ¾ÑħÐ¾Ð´":5991,"ĠÐ»Ð¸ÑĨÐµÐ¼":5992,"Ð²ÑĭÑħÑĬ":5993,"ĠÐ½ÐµÐ²Ñ£ÑĢ":5994,"ĠÐĲÐ½ÑĤÐ¸":5995,"ĠÐºÐ¾ÑĢÐ°Ð±Ð»ÑĮ":5996,"Ð²ÑĪÐ°":5997,"ĠÑģÐ¸Ð½":5998,"ÑĨÐºÐ¾Ð¼":5999,"Ð¶Ð´Ð¸":6000,"ÑĩÐ°Ñģ":6001,"ĠÐ·Ð°Ð¿Ð¸ÑģÐ°":6002,"ĠÐ¿Ð¸Ð²":6003,"ĠÑģÑĤÐ°Ð½Ñĭ":6004,"ĠÑģÐµÐ¼ÐµÐ½Ð°":6005,"Ð±Ð¾ÑĢÐ¾ÑĤ":6006,"ÑħÐ°Ð»ÑĬ":6007,"Ð¾Ð¶Ð´ÑĮ":6008,"ĠÐ´Ð²Ð¾ÑĢÐµÑĨ":6009,"ĠÑģÑ£Ð¼Ð¾":6010,"ĠÑģÐ»Ð°Ð²Ñ£":6011,"ĠÐ±Ð¾ÑıÑĢÐ¸Ð½":6012,"ĠÐºÐ¾ÑĥÐ½Ñ£":6013,"ĠÐ±êĻĭÐ´êĻĭ":6014,"ĠÐ½ÐµÐ´ÑĢÑĥÐ³Ð¸":6015,"ĠÐ¼ÐµÑĤ":6016,"ÐµÐ½Ñİ":6017,"ÐµÐ½ÑĸÑİ":6018,"ĠÐĺÑģÑĥ":6019,"ĠÑģÐ¿Ñģ":6020,"ĠÑĨÑĮÑĢ":6021,"ĠÑģÐºÐ¾Ð½ÑĩÐ°":6022,"ĠÐ´Ð°Ð¶Ð´ÑĮ":6023,"ĠÐļÐ¾ÑĤ":6024,"ĠÐºÑĥÐ¿Ð¸":6025,"Ð½Ð¾Ð¼Ð¾Ñĥ":6026,"ĠÑģÐ¸Ð¼ÑĮ":6027,"ÑıÐ½Ñĭ":6028,"Ð¿Ð¾Ð²Ñ£":6029,"Ð»Ð¸Ð¼ÑĬ":6030,"ĠÐ¡Ð¾":6031,"ĠÐ²Ñ£ÑĢêĻĭ":6032,"ĠÐľÐ½Ð¾Ð³Ð¾":6033,"ĠÑģÑĤÐ°ÑĢÐ¸Ð½":6034,"ÑģÑĤÑĥÐ¿Ð°":6035,"ĠÐ´ÐµÑĢÐ¶Ð°ÑĤÑĮ":6036,"ĠÐ¸Ð³Ñ¹":6037,"ĠÐºÐµ":6038,"Ð´Ð¸ÑĪÐ¸":6039,"Ð½Ð¸ÐºÐµ":6040,"ĠÑĩÑĮÑģÑĤÑĮ":6041,"ĠÐ½Ð°ÑĩÐ°ÑĤÑĬ":6042,"ĠÐ¿ÑĥÑĪÐµÐºÑĬ":6043,"ĠÐ¸Ð¼Ð°ÑĤ":6044,"ĠÐ¼Ð°ÑĤÑĮ":6045,"ĠÐ½ÐµÐ¿ÑĢÐ¸":6046,"ÑģÐºÐ¾Ð¼Ñ¹":6047,"ĠÐ¸Ð½ÑĭÐ¹":6048,"Ð·Ð°ÑĤÐ¸":6049,"ĠÐ¿Ð¾Ð´ÐºÐ¾Ð¿":6050,"ĠÐ´Ð¾Ð¸":6051,"ĠÐ¿ÑĥÑģÑĤ":6052,"ĠÑģÐ²Ñ£ÑĤÑĮ":6053,"ĠÐĴÐ»Ð°Ð´Ð¸Ð¼ÐµÑĢ":6054,"ĠÐ¾ÑĤÐ¿ÑĥÑģÑĤ":6055,"ĠÑģÐ¼Ð¾ÑĤÑĢÑ§":6056,"Ð»ÐµÐ¼":6057,"Ð´ÑĢÐ¸":6058,"ĠÐ´ÐµÑĤÐµÐ¸":6059,"ĠÐ¿ÑĢÑ£Ð¶Ð´Ðµ":6060,"ĠêĻĨ":6061,"ĠÐ³Ð¾ÑĢÑĥ":6062,"ĠÑģÐ²Ñ£ÑĤÐ¸":6063,"ĠÐ´ÐµÐ½ÐµÐ³ÑĬ":6064,"Ð²Ð¸ÑĤÐ¸":6065,"ÑĪÑĭ":6066,"ÑĦÑĮ":6067,"ĠÑģÐ¿ÑĢÐ°Ð²":6068,"ĠÐ¼ÑĬÐ½Ð¾Ð³":6069,"ĠÐ±Ð°ÑĤÑİÑĪÐºÐ°":6070,"ĠÐ³ÑĢÐ¸Ð³Ð¾ÑĢÑĮÐµÐ²":6071,"Ð²Ð¾Ð¹":6072,"ĠÑģÑĤÐ°Ð»Ð¾":6073,"Ð¾ÑĤÐ¾Ñİ":6074,"ĠÐ³ÑĢÐ¸Ð²Ð½Ñĭ":6075,"Ð¸ÑĤÐµÐ»Ñİ":6076,"Ð²Ñĸ":6077,"ÑĥÑĢ":6078,"Ð¶Ð¸ÑĤÑĬ":6079,"ĠÐ±Ð¾êĻĹ":6080,"Ð½Ñ£ÑħÑĬ":6081,"ĠÑĤÐ°ÐºÐ¸Ðµ":6082,"ĠêĻĭÑĩÐ¸Ð½Ð¸":6083,"ĠÐ½Ð°Ð¿ÑĢÐ°Ð²Ð»ÐµÐ½":6084,"ĠÐ°Ð±ÑĸÐµ":6085,"ĠÐ¾ÑĤÐµÑĩÐµ":6086,"ĠÐľÐ¸":6087,"ĠÑĤÐ²Ð¾ÐµÑı":6088,"ĠÑģÐµÐ¼Ð¸":6089,"ĠÐ½ÐµÐ±ÐµÑģÐ¸":6090,"ĠÐ¸Ð·Ñ§ÑģÐ»Ð°Ð²":6091,"ĠÐ½ÐµÐ¿ÑĢÐ°Ð²ÐµÐ´":6092,"ĠÐ¿ÑĢÐ¸Ð¿Ð°":6093,"ĠÐ¿ÑĢÐ¸ÐµÑħÐ°Ð»Ð¸":6094,"ĠÐ²Ð¾Ðµ":6095,"ĠÐ²ÑĭÑģÐ»Ñĥ":6096,"ĠÑģÑ¹ÑĤÑĮ":6097,"ĠÐ¼Ð»ÑĤ":6098,"ĠÐ¸Ð´Ñ£Ð¶Ðµ":6099,"ÑģÑĤÐ°Ð»ÑĬ":6100,"ĠÐ¼Ð¾Ñģ":6101,"Ð¶Ð´Ñĥ":6102,"ÐºÐ¾Ñģ":6103,"ĠÑĢÑıÐ´":6104,"ĠÐºÐ¾ÑĤÐ¾ÑĢÑĭÑħÑĬ":6105,"ĠÑĩÐ»Ð¾Ð²Ñ£ÑĩÑĮ":6106,"ĠÐ³Ð¾ÑĤÐ¾Ð²":6107,"Ð½ÐµÐ³Ð¾":6108,"ĠÑģÐµÐ»Ðµ":6109,"ĠÑĩÐµÑĤÐ²ÐµÑĢÑĤÐµÐ¹":6110,"ĠÐ´ÐµÑģÑıÑĤÐ¸":6111,"ĠÐ¿ÑĢÐ¾Ð¼ÑĭÑĪ":6112,"ĠÐ²ÐµÐ»Ð¸ÑĩÐµÑģÑĤÐ²Ð°":6113,"Ñ£ÑĤÐµ":6114,"ĠÐ´Ð²Ð¾":6115,"ĠÑĢêĻĳ":6116,"Ð¾Ð´Ðµ":6117,"ĠÐ¿ÑĢÐ¸Ð±Ñ£":6118,"Ñ«Ñ§":6119,"ĠÐ¼Ð¸ÐºÐ¸ÑĦÐ¾ÑĢ":6120,"ĠÐ»ÑİÐ´Ð¸Ðµ":6121,"ĠÑħÑĢÐ¸ÑģÑĤÐ¾ÑģÑĬ":6122,"ĠÐĴÐ»Ð°Ð´Ð¸Ð¼Ð¸ÑĢÑĬ":6123,"Ð¶êĻĭ":6124,"ĠÐ¿Ð¾Ð»ÑĤÐ¸Ð½Ð°":6125,"ĠÑģÐ°Ð¿":6126,"ĠÑģÐºÑĢÑĭ":6127,"ĠÐ½ÐµÐ¼Ð¶Ðµ":6128,"ĠÐ¸Ð¼Ð°Ð¼ÑĬ":6129,"ĠÐ½Ð°ÑĢÐµÑĩÐµ":6130,"ĠÐ½Ð°ÑĢÑıÐ´Ñĥ":6131,"ĠÑģÐ¿Ð¾Ð´Ð¾Ð±":6132,"ĠÐ¿Ñ§ÑĤÐ¸":6133,"ĠÐºÐ¾Ð»ÑĮ":6134,"ĠÐ¼Ð°ÑĢÐ¸":6135,"ĠÑĢÐ¾Ð´Ð°":6136,"ĠÐ²ÑģÐµÐ´":6137,"ĠÐ·Ð°Ð²":6138,"ĠÐļÑĢÐ°":6139,"ÐºÑĮÑĸ":6140,"ĠÐ´Ñ¹":6141,"ÑĢÐ¸Ñİ":6142,"ÑĩÐ°Ð¹":6143,"Ñ§ÑĤÑģÑ§":6144,"ĠÐ¿Ð¾Ð¸Ð´Ð¾ÑĪÐ°":6145,"ÑĩÐ¸Ð»ÑĬ":6146,"ÐµÑĢÐ²Ð°":6147,"Ð»ÑıÑħ":6148,"ĠÐ´Ñ£ÑĤÑĮ":6149,"Ð¾Ð²Ð¾Ðµ":6150,"ĠÐ²ÑĮÐ·":6151,"ĠÐ±êĻĳÐ»Ð¾":6152,"ÐºÑ¹Ñİ":6153,"Ð²ÑĢÐ°ÑīÐ°":6154,"ÑĢÐ³":6155,"ÑģÐºÑĸÑ§":6156,"ĠÐ¶ÐµÐ¼":6157,"ĠÐ±Ð¾Ð¸":6158,"ĠÐļÐ°Ð»Ð¸":6159,"ĠÐ³Ð»Ð°Ð³Ð¾Ð»Ñİ":6160,"ÑĢÑĸÐ°ÑĢ":6161,"ĠÐ·Ð²ÐµÑĢ":6162,"ÑĪÐ¸ÑĪÐ¸":6163,"ĠÐ¡Ð¸ÑĨÐµ":6164,"ĠÐ²Ñ£Ð´Ð¾Ð¼Ð¾":6165,"Ð²Ñ¡":6166,"ĠÐ¼Ð°Ð¼":6167,"ÑĤÑĮÐµÐ²":6168,"Ñ¡Ð±":6169,"ĠÑĪÑĤ":6170,"ĠÐľÐ½Ð¾Ð³":6171,"ĠÐ¼Ð½Ð¾Ð³Ð¸ÑħÑĬ":6172,"ĠÐ²ÐµÐ»Ð¸ÐºÐ¸Ñħ":6173,"ĠÑħÐ¾ÑīÐµÑĤÑĮ":6174,"ĠÑĢÐ°Ð·Ð´Ñ£Ð»Ð¸":6175,"ĠÑħêĻĭ":6176,"ĠÐ½Ð¸ÑħÐ¶Ðµ":6177,"Ð²Ð°Ð½Ð³":6178,"ĠÑĤÐ²Ð°ÑĢÐ¸":6179,"ÑĤÐ°ÑĢ":6180,"Ð»ÐµÐ¼ÑĬ":6181,"Ð¼ÐµÐ½ÑĬ":6182,"ÐºÐ¾Ð±":6183,"Ð°Ð½ÑĸÐ°":6184,"ĠÑģÑĬÐ±ÑĢÐ°":6185,"ĠÐ±ÐµÐ·ÑĥÐ¼":6186,"ĠÐ²Ð·ÐµÐ¼ÑĬ":6187,"ĠÐºÑĥÐ¿Ð»ÐµÐ½":6188,"ĠÐ£ÐºÐ°Ð·ÑĬ":6189,"--------":6190,"ĠÐ´Ð¾Ð»Ð¸":6191,"ĠÐ³Ð½Ðµ":6192,"ÑĢÐ°Ð¼":6193,"ĠÐ¿ÑĢÐ¸ÐµÐ·":6194,"Ð½ÐµÑĨÑĮ":6195,"ĠÐ¿Ð¾ÑģÐ»Ð°Ð»Ð¸":6196,"ĠÐ»ÑİÐ±Ð¾Ð²Ð¸Ñİ":6197,"ĠÑ¡Ð±Ð»Ð°":6198,"ÑĩÐµÐ½Ñ£":6199,"ĠÑĩÐµÑĤÐ²ÐµÑĢÑĤ":6200,"ĠÑħÑĢÐ¸ÑģÑĤÐµ":6201,"ĠÑĨÐµÐ»Ð¾Ð²":6202,"ĠÐ½Ð°ÐºÑĢÐµÐ¿":6203,"ĠÐ¿Ð¸ÑĪÐµÑĤ":6204,"ĠÐ¿ÑĭÑĤÐºÐ¸":6205,"ĠÐ½Ð°ÐºÑĢÐµÐ¿ÐºÐ¾":6206,"ĠÑģÑħÐ¾Ð´":6207,"ÑĩÐ½ÑĭÐ¼":6208,"ĠÐ²Ñ£ÑĢÑ£":6209,"ĠÐ²ÑĮêĻģ":6210,"ĠÐ¿ÑĥÑģÑĤÑĭ":6211,"ĠÐ±ÐµÐ·Ñģ":6212,"ĠÐ±ÐµÐ·Ñĥ":6213,"ĠÐ¸ÑģÐ¿ÑĭÑĤÐ°":6214,"ĠÑģÑĤÐ¾ÑĢÐ¾Ð½Ñ£":6215,"ĠÐ²Ð°Ð»":6216,"ĠÐ¿Ð¾ÑĢÑĥÑĤÑĩÐ¸":6217,"ĠÐ²ÐµÑīÑĮ":6218,"ĠÐ¼Ð¾Ð¶ÐµÑĪÐ¸":6219,"ĠÐ½Ð¸ÐºÐ°ÐºÐ¾Ð¶Ðµ":6220,"ĠÐ¾Ð»Ðµ":6221,"ĠÐ¿ÑĢÐ¸ÑĩÐ°":6222,"ĠÑ¡Ð²Ð¾":6223,"ĠÑĢÑ£Ð·":6224,"ĠÑħÐ¾ÑīÐµÑĤÑĬ":6225,"Ð²Ð¸Ð½":6226,"ÑĩÐ°Ð»ÑĬ":6227,"ĠÐĳÐ¾Ð³Ð¾ÑĢÐ¾Ð´Ð¸":6228,"ĠÐºÑĢÐµÐ¿Ð¾ÑģÑĤÐ¸":6229,"ÐºÑĸ":6230,"ĠÐ´ÑĪÐ°":6231,"ĠÐ¿Ð¾Ð¸Ð´":6232,"ĠÐ¿ÑĢÐ¾Ð¼Ðµ":6233,"Ð±ÑĶ":6234,"ĠÐ²ÑĬÑģÑĤÐ°":6235,"ĠÑ¡Ð¶Ðµ":6236,"Ð½ÑıÐ°Ð³Ð¾":6237,"ĠÐ¿ÐµÑĢÐ²Ð°Ð³Ð¾":6238,"ĠÐ»ÑİÐ±Ð¾Ð²":6239,"ĠÑĤÑĬÐºÐ¼Ð¾":6240,"ĠÐ¿Ð¾ÑģÐ»ÐµÐ´":6241,"ĠÐ±Ñ¹Ð´Ð¸":6242,"Ð¼Ñ«":6243,"ÑģÑĤÑĸ":6244,"ĠÑĢÐ¾Ð¶ÑĮ":6245,"ĠÐ¿Ð¾ÑĤÐ¾Ð¿":6246,"ĠÑĢÐ¾ÑģÐ¿ÑĢÐ¾Ñģ":6247,"ÑģÐºÐ¾ÑĢÑ£":6248,"ĠÐ±Ñ¹Ð´ÐµÑĤÑĬ":6249,"ĠÐºÐ½Ð¸Ð³Ð°Ð¼":6250,"ĠÑĩÐµÑĢÐ½Ð¸Ð³":6251,"ÑģÐºêĻĳÐ¸":6252,"ĠÐ¶ÐµÑģÑĤÐ¾Ðº":6253,"ĠÐ¿Ð¾Ð´Ð»Ñ£":6254,"Ð»Ð¾ÑģÑĤÐ¸":6255,"ĠÐ´Ñ£Ð»Ñĭ":6256,"ĠÑĪÐµÐ´ÑĬ":6257,"Ð¶Ð°ÑĪÐµ":6258,"ĠÐ³ÑĢÐ°Ð´Ð¾Ð¼ÑĬ":6259,"ĠÐ¿ÑĢÑĸÐµÐ¼":6260,"ĠÑ³ÐµÐ´Ð¾ÑĢÐ¾Ð²Ð¸ÑĩÑİ":6261,"Ð³Ð»Ðµ":6262,"ĠÐ¿Ð¾ÑĨ":6263,"ĠÐ½Ñ£ÐºÐ¾ÑĤÐ¾ÑĢ":6264,"Ñ³ÑĮ":6265,"ÐµÐ²ÑĭÑħ":6266,"ĠÑĤÑĢÐµÑħ":6267,"ĠÐ²Ð·ÑıÐ»Ð¸":6268,"ĠÐ¿ÐµÑĢÐµêĻĹÑģÐ»Ð°Ð²":6269,"ÑĤÐ²ÐµÑĢ":6270,"ĠÐ¿ÑĢÐ¾ÑĪÑĥ":6271,"ĠÐ¿Ð¾Ð½Ð¾":6272,"ĠÐ³ÑĢÐ¸Ð²ÐµÐ½":6273,"ĠÐ¼Ð¾Ð½Ð°ÑģÑĤÑĭÑĢÐµ":6274,"ĠÐ§Ñı":6275,"ÑĪÐºÑ£":6276,"ĠÐ´Ð¾Ð¼Ð°ÑĪ":6277,"ĠÑģÑĬÐ±Ð»Ñİ":6278,"ĠÐ¾ÐºÐ¾":6279,"ĠÐ¿Ð¾ÑĤÑĬ":6280,"Ð¾Ð±Ðµ":6281,"Ð¾ÑģÐ°":6282,"ÑĨÐ°Ð¼Ð¸":6283,"Ð³Ð¾ÑĢÑ£":6284,"ĠÑģÑĤÐ¾ÑĢÐ¾Ð¶Ð¸":6285,"ĠÑģÐ¾Ð²Ñ£ÑĤ":6286,"ĠÐ²ÑģÐºÐ¾ÑĢÐµ":6287,"ĠÐºÐ½ÑıÐ³Ð¸Ð½":6288,"ÑİÑģÑı":6289,"ĠÐ½Ð°Ð¼Ð¾":6290,"ĠÐ½ÐµÐ´Ñĥ":6291,"ĠÑĦÑĢÐ°Ð³Ð¼ÐµÐ½":6292,"ĠÐ¿Ð¾Ð³Ð°Ð½":6293,"ĠÐ¿ÑĢÐ¸ÐºÐ°Ð·ÑĬ":6294,"ĠÑĦÐµÐ´Ð¾ÑĢÑĥ":6295,"ĠÑģÐ²ÑıÑĤÐ¾Ð³Ð¾":6296,"ĠÑĥÑĤÐ²ÐµÑĢ":6297,"ĠÐ³Ð»ÑĥÐ±":6298,"Ð½ÑĨ":6299,"Ð´Ð½Ð°":6300,"ĠÐ¿Ð¾Ð¼ÑıÐ½Ð¸":6301,"ĠÐ¿Ð¾ÐºÐ¾":6302,"ĠÑĤÐ²Ð¾ÑĢÐ¸ÑĤ":6303,"ĠÐ¶Ð¸Ð²ÑĥÑĤ":6304,"ĠÑĤÐ¸Ð¼Ð¾Ñ³":6305,"ĠÐľÐ°ÑĢÑĪÐ°Ð»":6306,"ĠÑĢÐ¾Ð¶Ð¸":6307,"ĠÑģÑĤÐ³Ð¾":6308,"ĠÐ¿ÑĢÐ¸Ð²ÐµÑģÑĤÐ¸":6309,"ÐºÐ¸Ð¼Ð¸":6310,"ĠÐ¿ÑĢÐ¾ÑĩÐ°":6311,"ĠÐŀÐ±Ð¾ÑĢÐ¾ÑĤ":6312,"Ð´ÑĭÑħÐ°":6313,"ĠÑģÐ¼Ðµ":6314,"ĠÐ±ÑĮÑĢÐºÐ¾Ð²ÑĮ":6315,"ĠÑģÐµÐ»Ð¸ÑĤ":6316,"ĠÐŁÐ¾ÐºÐ°Ð·ÑĥÐµÑĤÑĬ":6317,"ĠÐ±ÐµÐ·Ð·Ð°ÐºÐ¾Ð½":6318,"Ġ{":6319,"ĠÐ¿ÑĢÐ¸ÐµÑħÐ°Ð»":6320,"ĠÐ´Ð¾Ð±ÑĢÑĬ":6321,"ĠÐ±Ð»Ð°Ð³Ð¾ÑĩÐµÑģÑĤÐ¸":6322,"ĠÐ¿Ð¾Ð»Ð¾Ð¶Ð¸ÑĤÐ¸":6323,"ÐºÐ¾Ð²Ð¸":6324,"ÑıÐ½Ñĥ":6325,"Ð½Ð°Ð¼ÑĬ":6326,"ĠÐ¿Ð¾Ð¸Ð´Ð¸":6327,"ĠÐ²Ð»Ð°ÑģÑĤÐµÐ»Ð¸":6328,"ĠÐ°ÐºÐ¾":6329,"êĻĹÐºÐ¾":6330,"ĠÐ´Ð²Ð°ÑĤÑĨÐ°ÑĤÑĮ":6331,"ÑĪÑĤÐ¸Ð¸ÑħÑĬ":6332,"ĠÐ¼Ð¸Ð»Ð¾ÑģÑĤÐ¸Ñİ":6333,"ĠÐ±Ð»Ð°Ð³Ð¾Ð´Ð°ÑĢ":6334,"ĠÐºÐ¸Ñģ":6335,"ĠÐ»Ñ£Ð¿Ð¾":6336,"ĠÐ¿Ð¸ÑģÐ°ÑĤÑĮ":6337,"Ð³ÑĢÐ°Ð´":6338,"ĠÐ½Ð¾Ð²Ñ£Ð³Ð¾ÑĢÐ¾Ð´Ñ£":6339,"ĠÐ·Ð°Ð¼Ñĥ":6340,"Ð¶Ð¸Ð¼ÑĬ":6341,"ĠÐ¿Ð¾Ð²ÐµÐ»Ðµ":6342,"ĠÐºÐ½Ð¸Ð¶":6343,"ĠÐºÐ¸ÑĢÐ¸Ð»":6344,"ĠÐ½Ð°Ð¿Ð¸ÑģÐ°Ð½Ñĭ":6345,"ĠÑĤÑĭÑģÑıÑĩ":6346,"ĠÐ¡Ð²Ñı":6347,"ÑıÐ»Ð¸":6348,"Ð»Ð°Ñħ":6349,"Ð½Ð¾Ñ¥":6350,"ĠÑ¡ÑģÑĤÐ°":6351,"ĠÐ¶Ð¾Ð½":6352,"ĠÐľÑĬ":6353,"ĠÐ¿ÐµÑĢÑĮ":6354,"ĠÐ¿Ð»Ð°ÑĤÐµ":6355,"Ġ18":6356,"ĠÑĢÑ£ÐºÐ¸":6357,"ĠÐ³ÑģÐ´ÑĢÑı":6358,"ĠÑģÐµÐ»Ñĥ":6359,"Ð°Ð¸":6360,"ÑıÐ¼Ð¸":6361,"ĠÐ½Ð°Ð²Ñĭ":6362,"Ð´Ð°Ð½ÑĬ":6363,"ĠÐ²ÑĬÐ·ÑĮÐ¼Ð¸":6364,"ĠÑģÑĤÑĢÐ°ÑħÐ°":6365,"ĠÐ¿Ð¾ÑģÐ»Ð°Ð½Ð°":6366,"ĠÑĢÐ¸Ð·Ñ£":6367,"ĠÐ¶Ð¸ÑĤÐ¸Ñı":6368,"ĠÑģÐ¾ÑĢÐ¾ÐºÑĬ":6369,"ĠÐ²Ð½ÑĥÑĤ":6370,"ĠÐ°Ñģ":6371,"ĠÑģÐºÐ¾Ð»ÑĮ":6372,"Ð¿ÑĢÐ°Ð²Ð¸":6373,"ĠÐ¿ÑĢÐ¸Ð¸Ð¼ÐµÑĤÑĮ":6374,"ÑĩÐºÑĥ":6375,"Ð²Ð°Ñİ":6376,"Ð°Ð»ÑģÑı":6377,"Ð±Ð¸ÑĤÑĮ":6378,"ĠÐ¼ÑĥÐ¶Ñĥ":6379,"ĠÐ´ÐµÑĤÑĮÐ¼Ð¸":6380,"ĠÐ½ÐµÐ³":6381,"ÐºÐ¸Ðµ":6382,"ÐºÐ¸Ñı":6383,"Ð¾Ð²Ð°Ð»Ð¸":6384,"ÑĨÐ°Ð¼ÑĬ":6385,"ĠÐ¾ÑģÐ¿Ð¾Ð´":6386,"ĠÐ¾Ð±ÑĢÐ°Ð·ÑĬ":6387,"ĠÐ½Ð¸Ð±ÑĥÐ´ÑĮ":6388,"ĠÑĤÑī":6389,"ĠÑģÐ»ÑĬ":6390,"Ñ³Ð¸Ð¼":6391,"ÑģÐºÐ¾Ð¼êĻĭ":6392,"ĠÑĪÐµÑģÑĤ":6393,"ĠÐ²Ð´Ð¾Ð²Ð°":6394,"ÑĸÑĶ":6395,"ÑģÐºÐ¾Ñĥ":6396,"ĠÐ´Ð°Ð½Ð°":6397,"ĠÑĦÐ¸Ð»Ð¾Ñģ":6398,"ĠÑ¹Ð±":6399,"ĠÐ·Ð°Ð¿Ð°":6400,"ĠÐ´Ð¾Ð±ÑĢÐ¾Ð¹":6401,"ÐºÑĤÐ°":6402,"Ð³ÑĢÐ¸":6403,"ĠÐ»Ð¾Ð¶":6404,"ĠÐľÐ¾Ð»":6405,"ĠÐ²Ð¾ÐµÐ²Ð¾Ð´Ð°Ð¼":6406,"ĠÐ¿Ð¾Ð»Ñ¹":6407,"ĠÐ¶Ð°Ð»Ð¾Ð²Ð°Ð½":6408,"ĠÐ¾Ð³Ð½ÐµÐ½Ð½ÑĭÑħÑĬ":6409,"ĠÑĤÐ¾ÑĥÑĢ":6410,"ĠÑģÑģÑĭÐ»":6411,"Ð»ÐµÑĤÑĬ":6412,"ĠÐ½Ð°ÑĢÑ§":6413,"ĠÐ¿Ð¾Ñı":6414,"ĠÐ·Ñĥ":6415,"ÑĢÐ¾ÑģÐ»Ð°Ð²Ð°":6416,"ĠÐºÐ½Ð¸Ð³Ñĭ":6417,"ĠÐ½Ð°ÑĩÐµÑĢ":6418,"ĠÐ±Ð¾Ð³Ð°ÑĤÑĮÑģÑĤÐ²Ð¾":6419,"Ð»êĻĳ":6420,"ĠÐ¾ÑĦÐ¾Ð½Ð°Ñģ":6421,"ĠÑĢÐ°Ð½Ð¾":6422,"ĠÑģÑĬÑģÑĤÐ°Ð²":6423,"Ð³Ð°Ð¼Ð¸":6424,"ĠÑ§ÐºÐ¾":6425,"ÑµÑĢ":6426,"ĠÑĢÐµÑĩÐºÐµ":6427,"ĠÐ·Ð°Ð¿Ð¸ÑģÑĮ":6428,"ĠÐ²Ð»ÑĬ":6429,"ÑģÑĤÐ¾Ñĥ":6430,"ĠÐµÑģÑĮ":6431,"ĠÐ¾ÑĤÑĩÐ¸Ð½Ñĥ":6432,"ĠÐ¡Ñ£":6433,"ĠÐ±Ð»Ð³Ð¾Ð´":6434,"ĠÐºÐ¾ÑĥÐ¿":6435,"ĠÐ¿ÑĢÐ¸Ð²ÐµÐ´Ðµ":6436,"ĠÑĤÑĢÐ°Ð²":6437,"Ð¶Ñ«":6438,"ÑĸÐ¸Ð¼ÑĬ":6439,"ĠÐ²ÐµÐ»ÐµÐ»ÑĬ":6440,"ÑģÐ»Ð°Ð±":6441,"ÑŃÑĤÑĬ":6442,"ĠÐ³ÐµÐ½Ð²":6443,"ĠÐĴÐ»Ð°Ð´Ð¸Ð¼ÐµÑĢÑĥ":6444,"ĠÐºÑ£":6445,"ĠÐ½ÐµÐ³Ñ¡":6446,"Ð¶Ð°ÑĤ":6447,"ĠÐ¿ÑĢÐ¸Ð¿":6448,"ĠÐ¼Ð¾Ð¸Ð¼":6449,"ĠÑĨÐ°ÑĢÐµÐ²Ð¸":6450,"Ð´Ð¾ÑģÑĤÐ°":6451,"ÑĨÑ£Ð½":6452,"ĠÐ»ÑİÐ±ÐµÐ·":6453,"ĠÐ´Ð¾Ð±ÑĢÑĭÑħÑĬ":6454,"ĠÑĥÐ±Ð¾Ð¹":6455,"ĠÐºÐ°Ð±Ð°Ð»Ñĥ":6456,"ĠÐ¿Ð¾Ð´Ð»Ð¸Ð½Ð½Ð¾":6457,"ÑīÐµÐ¼":6458,"ĠÐ¶ÐµÐ»ÐµÐ·":6459,"ÑĪÐµÐ¹":6460,"ĠÐ²ÐµÐ»Ð¸ÑĨÑ£":6461,"ĠÐ¼Ð¸ÑĢÑ£":6462,"ĠÐ±êĻĳÑĤÐ¸":6463,"ĠÐ¿Ð°Ð²Ð»Ð¾Ð²":6464,"ĠÐ¾Ð³Ð½ÐµÐ½Ð½ÑĭÑı":6465,"ĠÐĵÐ¾ÑģÑĥÐ´Ð°ÑĢÑİ":6466,"ĠÐ¿Ð¾ÑģÑĭÐ»Ð°ÑĤÐ¸":6467,"Ð´Ð±":6468,"ĠÑģÐ²Ð¾ÑĶ":6469,"ĠÐ²ÑĭÐºÑĥ":6470,"ĠÐ²ÑģÐµÐ¹":6471,"ĠÑģÑĤÐ°ÑĢÐ¸":6472,"ĠÐ½Ð¾Ð²Ð³Ð¾ÑĢÐ¾Ð´ÑĮÑĨÐ¸":6473,"ĠÑķÑ£Ð»Ñ¡":6474,"Ð¾ÐºÑĥÐ¿":6475,"ĠÐ´ÐµÑĢÐµÐ²Ð½ÐµÑİ":6476,"ĠÐºÑĥÐ½Ñĭ":6477,"ĠÐ¸Ð´ÐµÑĤÑĮ":6478,"Ð½Ð¸ÑĨÑĮ":6479,"ĠÑģÑĤÑĢÑı":6480,"ĠÑħÐ¼":6481,"ĠÐ¾ÑĥÑģ":6482,"Ñ¥Ð¼ÑĮ":6483,"ĠÐ¿Ð¸ÑĢÑĬ":6484,"ĠÐ¸ÑģÐ¿ÑĢÐ°Ð²Ð¸":6485,"ĠÑĩÐµÐ»Ð¾Ð²Ñ£ÐºÐ¾Ð¼ÑĬ":6486,"ĠÑģÑĤÐ°Ð½ÐµÑĤÑĬ":6487,"ĠÐ½Ð°ÐºÐ°Ð·Ð°":6488,"ĠÐ¸Ð³ÑĢÐ°":6489,"ĠÑģÐ²Ð¾Ð°":6490,"ĠÐ¡ÐµÑĢ":6491,"ĠÐ¼Ð¸ÑĢÑĮ":6492,"Ð±Ð°Ð¼Ð¸":6493,"ĠÐ»ÐµÐ¾Ð½":6494,"ĠÐ¿Ð¾ÑĩÑĤÐ¾":6495,"ĠÐ¸Ð´ÐµÑĪÐ¸":6496,"ĠÐ¼ÐµÐ´Ñĥ":6497,"ĠÐ¿ÑĢÑĹ":6498,"ĠÐ»Ð°ÑĢÐ¸":6499,"ĠÑĥÑĪÐ¸":6500,"ĠÐ´Ð¾ÑħÐ¾Ð´":6501,"Ð´ÑĭÐ¸":6502,"ĠÐ¿Ð¾Ð²ÐµÑĢ":6503,"ĠÐ½Ð¾Ð²Ð°Ð³Ð¾ÑĢÐ¾Ð´Ð°":6504,"ĠÐºÐ¾Ð½Ñ§":6505,"ĠÑĢÐ°Ð´Ð¾ÑģÑĤ":6506,"Ð´Ñ¡":6507,"ĠÐ´ÑĢÑĥÐ³Ð¾Ðµ":6508,"ĠÐ¼Ð½Ð¾Ð³Ð¾Ð»Ñ£":6509,"ĠÐ½Ð°ÑģÐ¸Ð»ÑĮ":6510,"ĠÑģÐ»ÑĭÑĪÐ°ÑĤÐ¸":6511,"ÑģÑĤÐ²Ð¸Ñı":6512,"ĠÐ·Ð´Ð¾ÑĢÐ¾Ð²Ð¾":6513,"ĠÑ¡Ð»ÑĮ":6514,"ĠÑıÑģÑĤÐ¸":6515,"ĠÑģÐ²ÑıÑĤÐ¸":6516,"ĠÐ¿ÐµÑĢÐµÑģÐ»Ð°Ð²":6517,"ĠÐ¼Ñ£ÑĢÑ£":6518,"ĠÑģÑĤÐ¾êĻĹ":6519,"ĠÑħÐ¾Ð»Ñ¡":6520,"ĠÐ±ÑĥÐ»Ð°ÑĤ":6521,"ĠÐ¼Ñ£ÑģÑĤÑ£ÑħÑĬ":6522,"ĠÐ²ÑģÑ§ÐºÐ¸Ñħ":6523,"Ġ;":6524,"ÑģÑĸ":6525,"Ð²ÐºÐ°":6526,"Ð²êĻ¿":6527,"ĠÐºÑĥÐ´":6528,"Ð»Ð¸Ð¸":6529,"ĠÐ´Ð°ÑĤ":6530,"ĠÐ¿ÑĢÐ°Ð²ÑĥÑİ":6531,"ĠÐ³Ð¾ÑĢÑĮ":6532,"Ð½ÐµÑģÐµ":6533,"ĠÐ²Ð°ÑĢÑ§":6534,"ĠÑĤÑĢÑ£Ð±":6535,"Ð´ÐµÑģ":6536,"Ð»ÐµÐ¸":6537,"ĠÐ¾Ð±Ð¸ÑĤÐµÐ»Ð¸":6538,"ĠÐ¿Ð¾Ð¼Ð¾Ð»Ð¸":6539,"ĠÑģÐºÐ°Ð·Ð°Ð»ÑĬ":6540,"ĠÑĤÑĢÐµÐ³ÑĢÐ°":6541,"ĠÐ´Ð¾ÑģÐ°":6542,"ĠÐ¾Ð±ÑĬÑıÐ²Ð»ÐµÐ½Ð¾":6543,"ÑĪÐºÐµ":6544,"ĠÐ»ÐµÐ´":6545,"ĠÑģÑĤÐ¾Ð¸":6546,"ĠÐ¿ÑĢÐ¸Ð»Ð¾Ð¶Ð¸":6547,"ĠÐ±ÑĭÐ²ÑĪÐ¸":6548,"ĠÑģÐ°Ð¼ÑĮ":6549,"ĠÑĤÐ²Ð¾ÑĢÑı":6550,"ĠÑĩÑİÐ¶Ðµ":6551,"ÑİÑīÐ¸Ð¼ÑĬ":6552,"ĠÐ¸Ð½Ñ£ÑħÑĬ":6553,"ĠÐ¿Ð°ÐºÐ¾ÑģÑĤÐ¸":6554,"Ð¿Ð¾Ñĥ":6555,"ĠÐ¿ÑĢÐ¸Ð´Ð°":6556,"ĠÑĪÑĤÐ¸":6557,"ĠÑģÐ¿ÑĢÐ¾Ñģ":6558,"ĠÐ»ÑİÐ´ÑĸÐ¸":6559,"ĠÑĩÐµÑĢÑĤÑĥ":6560,"ĠÑ³ÐµÐ´":6561,"ĠÐ±Ñ¹Ð´ÐµÑĤ":6562,"ÐºÐ»Ð¾Ð½Ð¸":6563,"Ð¾Ð´Ñĭ":6564,"ÑīÐµÐ½Ñĭ":6565,"ÑĩÐ°Ñİ":6566,"ĠÐ±Ð¾ÑıÑĢÑĭ":6567,"ĠÑģÐ»ÑĥÐ¶Ð±Ðµ":6568,"ĠÑģÐ½Ð°ÑģÑĤÑĮ":6569,"ĠÐ´Ð¾ÑĩÐµÑĢÐ¸":6570,"ÑģÑ«":6571,"Ð»ÑĸÐ°":6572,"ĠÐ¾Ð´Ð¸Ð½ÑĬ":6573,"ĠÐ°Ð±Ð¸Ðµ":6574,"ĠÐ¿ÑĢÐ¸Ð¸Ð¼Ð¸":6575,"ĠÑĢÐ°Ð´Ñĥ":6576,"ÑĩÐµÐ²Ð¾":6577,"ĠÑģÐºÐ¾ÑĢÐ±":6578,"ĠÐ½Ð°ÑģÐ»Ñ£Ð´":6579,"ĠÐ±Ð¸ÑĤÑĮ":6580,"ÑĪÑĤÐ¸Ð¸":6581,"ĠÐ³Ð°Ð²ÑĢÐ¸Ð»":6582,"Ġ+":6583,"ĠÑĤÐ°Ð²":6584,"ĠÐ¾Ð´Ñ£":6585,"ĠÐ¾ÑĥÐ´Ð°ÑĢ":6586,"ĠÐºÐ°ÐºÐ¾Ð¹":6587,"ÑĤÐ²Ð¾ÑĢÐ¸":6588,"ĠÐ¸Ð¼Ñ£ÐµÑĤÑĬ":6589,"ĠÐ¿ÐµÑĤÑĢÐ¾Ð²":6590,"ĠÐ²ÑģÑıÐºÐ¸Ñı":6591,"ĠÐ·Ð°Ð¿Ð°ÑģÑĬ":6592,"ĠÑĥÐºÐ°Ð¶ÐµÑĤ":6593,"Ð½Ð¸Ñ§":6594,"ÐºÐ¾ÑĥÐ¿":6595,"ĠÐ¿ÑĢÐ¸ÑģÐ»Ð¸":6596,"ĠÑĨÐ¾Ð»":6597,"ĠÐ´Ð²Ð¾ÑĢÑ£":6598,"ĠÐ¿Ð»Ð°ÑĤÐ¸ÑĤÑĮ":6599,"ĠÑģÑĤÐµÐ¿Ð°Ð½Ð°":6600,"ĠÐ´Ð¾ÑģÑĤÐ¾Ð¹":6601,"ÑĤÐ¾Ð»":6602,"Ð»Ñ«":6603,"ĠÑĤÐ°ÑĤÐ¸":6604,"ĠÐ¼Ð¾Ð³Ð¾":6605,"ÑĩÐ½ÑĭÐµ":6606,"Ð´Ð°Ð»Ðµ":6607,"ĠÐ²ÐµÐ»ÑĮÐ¼":6608,"ĠÑĩÐµÐ»Ð¾Ð²Ñ£ÐºÑĥ":6609,"ĠÐ¿Ð°ÑĤÑĢÐ¸Ð°ÑĢÑħÐ°":6610,"ĠÑģÐ½Ð°ÑģÑĤÐ¸":6611,"ÑĢÐºÐ°":6612,"ĠÑģÑĬÐ´Ñ£":6613,"ĠÐ¿Ð»Ð°ÑĩÑĮ":6614,"ĠÐ¼Ð½Ð¾Ð³Ð¸Ñı":6615,"ĠÐ¾ÐºÐ¾Ð»ÑĮ":6616,"ĠÐ¶ÐµÐ½Ð°Ð¼":6617,"ĠÐ±ÑĢÐ°ÑĤÑĮÐ¸":6618,"ĠÐ¶Ð¸Ð²êĻĭ":6619,"ĠÑģÐµÐ¼ÐµÐ½Ð¾Ð²":6620,"ĠÑħÐ¾ÑĢÐ¾ÑĪÐ¾":6621,"ÑģÐ¾Ð¶Ðµ":6622,"Ð¾ÑĢÐ¾ÑĤ":6623,"ĠÐĺÑģÐ¿":6624,"ĠÐ¾ÑĥÐ³Ð¾Ð´":6625,"ĠÐļÐ°Ð½":6626,"Ð³Ð°Ð¹":6627,"ĠÑģÑĥÐ´ÑĮÑı":6628,"ĠÐ½Ð¸ÐºÐ¾Ð³Ð¾":6629,"ĠÑģÑĬÑģâ¸¯":6630,"ÑģÑħÐ¾Ð´":6631,"ĠÐ±Ð¶ÑĮ":6632,"Ð½Ð°ÑĤÐ¸":6633,"ĠÑĥÐ¼Ñ£":6634,"Ð´ÐµÐ¹":6635,"ĠÐ¿Ð¾ÐºÐ¾Ð¸":6636,"ĠÐ²Ð°ÑĪÐ¸ÑħÑĬ":6637,"ĠÐ¸ÑģÐºÑĥÑģ":6638,"ĠÑģÐ°ÑĢ":6639,"Ð·Ð´Ñĭ":6640,"ĠÐ¿Ð¾ÑģÐ»Ð¸":6641,"ĠÐ½Ð°Ð¿Ñĥ":6642,"ĠÑģÑĤÑĢÑ£Ð»":6643,"ĠÐ¿Ð¾ÑģÑĤÑĢÐ¸":6644,"ĠÐ¿Ð»Ð¾ÑĤÐ¸":6645,"ĠÐºÐ¾ÑģÑĤÑĢÐ¾Ð¼":6646,"ĠÐ´Ð¾ÑģÑĤÐ°ÑĤÐ¾":6647,"Ð»ÐµÐ½Ð¸Ð¸":6648,"ĠÐ¿ÑĢÐ¾Ð¼ÑĭÑģÐ»":6649,"ĠÐ¾Ð±Ð¸Ð´Ñĥ":6650,"ĠÐ¼ÑĨÑģÐ°":6651,"ÐºÑĢÐµ":6652,"ĠÐ¿ÑĢÐµÑĤ":6653,"ÐµÑĢÑı":6654,"ĠÐ¾Ð±ÑĢÐ°ÑĤÐ¸":6655,"Ð¾Ð´Ð°ÑĤÑĮ":6656,"ĠÐ¿Ð¸ÑĪÐµ":6657,"ĠÑģÐ°Ð¼Ð¾Ð¼Ñ¹":6658,"ĠÐĴÐ°ÑģÐ¸Ð»Ð¸":6659,"ĠÐºÐ½Ð¸Ð³Ð°Ñħ":6660,"ÑĢÐµÐ½Ñĭ":6661,"Ð²ÐµÐ½Ð¸":6662,"Ð¼Ð°ÑĤÐ¸":6663,"ĠÐºÐ¾Ð±":6664,"Ð¶Ð¸Ð¼":6665,"Ð¾Ð½Ð¾Ð²":6666,"ÐºÐ¸Ñħ":6667,"Ð±Ð¸Ð¸":6668,"ĠÐ²Ð¾Ð»Ð¾":6669,"ĠÐ¿Ð¾Ð½Ðµ":6670,"ĠÐ¿Ð°Ð²Ð»Ð°":6671,"ÑĢÐ¼Ð¸":6672,"ĠÐ¾ÑĤÑĨÐ¾Ð²":6673,"ĠÑĤÑĢÑĥÐ´":6674,"ĠÑģÐµÑĢÐ³":6675,"ĠÐ²ÑĢÐµÐ¼ÐµÐ½Ð°":6676,"ĠÑĢêĻĭÑĨÑ£":6677,"ĠÐļÐ¸ÐµÐ²Ð°":6678,"Ð¾Ð±ÑĢÐ°Ð·":6679,"Ð¾Ð²Ð°Ñı":6680,"ĠÐ²Ñ£Ñģ":6681,"ĠÐĳÐ¾Ñı":6682,"ĠÑĪÑİ":6683,"ĠÐ¿Ð¾Ð¿Ñĥ":6684,"ĠÐ³Ð»Ð°Ð²Ñ£":6685,"Ð³Ð½Ñ£Ð²Ð°":6686,"Ð°Ð»Ð°":6687,"ĠÑ¡Ð»":6688,"ĠÐ¿Ð¾Ð»Ð¾ÑĤ":6689,"ĠÐµÑģÑĤÑĮÐ»Ð¸":6690,"ĠÐĲÐ»ÐµÐºÑģÐ°Ð½Ð´ÑĢ":6691,"ĠÐ¶Ð°Ð»Ð¾Ð²Ð°Ð»":6692,"ĠÐ¿ÑĥÑĪÐºÐ°ÑĢÑı":6693,".âĢł":6694,"ĠÐ¸Ð½ÑĭÐ¼ÑĬ":6695,"ĠÐ²ÑģÑĤÑĢÑ£":6696,"ÑĩÐ½":6697,"ĠÐ½Ð°Ð»Ðµ":6698,"ÑĤÐ¸Ð½Ðµ":6699,"ĠÑĥÐ¼ÑĮ":6700,"ĠÐ¿ÑĢÐ¸ÑģÑĤÐ°Ð²Ð°":6701,"ĠÐ¿Ð¾Ð»ÑĥÑĤ":6702,"ĠÑĪÑĬ":6703,"ĠÐ¿Ð¾Ð»Ð¾ÑĤÑĮ":6704,"ÑģÐºÐ¾ÑĩÐ¸":6705,"ÑİÑīÐ°Ð³Ð¾":6706,"ĠÐŁÐ¾ÑģÐ»Ñĥ":6707,"ĠÑĢÐ°Ð·êĻĭÐ¼Ñ£":6708,"Ð´Ð¾Ð¼Ð¾":6709,"ĠÐ½Ð°ÑģÐ»":6710,"Ð¾Ð¼Ðµ":6711,"Ð´Ð¸Ðµ":6712,"ĠÐºÐ¾Ð½Ðµ":6713,"ĠÐ¸Ð²Ð°Ð½Ðµ":6714,"ÑĶÐ½":6715,"ĠÑĩÐµÑģÑĤÐ¸Ñİ":6716,"ĠÑĩÐ¸ÑģÐ»Ð¾Ð¼ÑĬ":6717,"ĠÑģÑ«ÑĤÑĬ":6718,"ĠÐľÐ°ÑĢÐºÐ¾Ð±":6719,"ĠÐĶÐ°ÑĢÐ¸Ð¹":6720,"ĠÐĲÐ»ÐµÑĪÐ°":6721,"ÐµÐ½ÑĸÑı":6722,"ĠÐ¿ÑĢÐ¸Ð¸Ð¼ÑĬ":6723,"ĠÐ¿Ð¾Ð»ÐºÐ¾Ð²":6724,"Ð½ÑıÑĤÐ¸":6725,"ĠÐ¸Ð·Ð²Ðµ":6726,"ĠÐ²Ñ£ÑģÐ¸":6727,"ĠÐ´Ð¾Ð±Ñĭ":6728,"ĠÑģÑĤÐ°ÑĢÐµÑĨ":6729,"ĠÐ¾Ð±ÑĭÑģÐºÑĥ":6730,"ĠÑģÑī":6731,"ĠÐ¿ÑĢÐ¸Ðº":6732,"Ð¸Ð»Ð¾Ð²Ð°":6733,"ÑģÑĤÐ¸Ðµ":6734,"ĠÐ¼Ð¾ÐµÐ¼ÑĬ":6735,"ĠÐ¼Ð¾ÐµÐ³Ñ¡":6736,"ĠÐ¿Ð¾ÑĪÐµÐ»ÑĬ":6737,"ĠÑģÐºÐ°Ð·Ñĭ":6738,"ĠÐ¶Ð¸Ð²ÐµÑĤÑĬ":6739,"ĠÐ¿êĻĭÑĤÐ¸":6740,"ÑĩÑ£":6741,"Ð»ÑıÑĤÑĮ":6742,"Ð¼Ð¾ÑĤÑĢ":6743,"ĠÐ²ÑĬÐ·Ð´Ð²Ð¸":6744,"ĠÑģÑ£Ð²ÐµÑĢ":6745,"ĠÐµÑģÐ¼Ñĭ":6746,"ÑģÐºÑĭÑħ":6747,"ĠÑĢÐ¾Ð·Ð±Ð¾":6748,"ĠÐ¾Ð¿Ð°Ñģ":6749,"ĠÑģÐ¾ÑĤÐ²Ð¾ÑĢÐ¸ÑĪÐ°":6750,"ĠÐºÐ½Ñ§Ð¶Ðµ":6751,"ÑĩÐµÐ½ÑĸÐµ":6752,"ĠÐ¶Ð°Ð»Ð¾Ð±":6753,"ĠÐ¼ÑĥÐ´ÑĢÑĬ":6754,"ĠÐĶÑĥÑħÐ°":6755,"ÑģÐ»Ñ£":6756,"ĠÐºÐ»Ðµ":6757,"ĠÐ¿ÑĢÑĩ":6758,"ĠÐ²ÐµÐ»Ð¼":6759,"Ð·Ð°Ð½Ð°":6760,"ĠÐ¿ÑĢÐ¾Ð´Ð°Ð¶Ð¸":6761,"ĠÐ´Ð°Ð²êĻĳ":6762,"ÑĪÐµÐ¼ÑĬ":6763,"ĠÐ°Ð»ÐµÐºÑģÑ£":6764,"ÐµÐ»ÐµÐ¼":6765,"Ð¾Ð²Ð¸ÑĩÐ¸":6766,"ĠÐ¿Ð¸ÑĢ":6767,"ĠÐ§ÐµÑĢ":6768,"ĠÐ§Ð°Ð´Ð¾":6769,"ĠÐ©":6770,"ÐµÐ½ÑĸÐµÐ¼ÑĬ":6771,"Ð¶Ð¾":6772,"ĠÐ¸Ð·Ð±":6773,"Ð»Ð¾Ðµ":6774,"ĠÐľÐ½":6775,"ĠÐ²Ð¾Ð»Ð¾Ðº":6776,"ĠÐ½Ð¾Ñı":6777,"ĠêĻĭÐ±Ð¾":6778,"ÑİÑīÐ¸ÑħÑĬ":6779,"ĠÐºÑĢÑĭÐ¼":6780,"ĠÐ½Ð°Ð¿Ð¸ÑģÐ°ÑĤÐ¸":6781,"ÑģÑİ":6782,"ÑĪÐµÐ¼Ñĥ":6783,"ĠÐ¿ÑĢÐ°Ð²Ð´Ð°":6784,"ĠÐ¾Ð¿ÑıÑĤÑĮ":6785,"ĠÐ£Ð¶Ðµ":6786,"ÑĨÐºÐ¸Ðµ":6787,"ĠÐ¼ÑĮÑģÑĤÐ¸ÑģÐ»Ð°Ð²ÑĬ":6788,"ĠÐ´Ð½Ñ£":6789,"ÑīÑĭ":6790,"ĠÐĺÐ¾":6791,"Ñ¡Ð¼ÑĮ":6792,"ÑĢÐµÑĩÐµ":6793,"ĠÑĤÐ²Ð¾ÐµÐ¼ÑĬ":6794,"ĠÑģÐ²Ð¾Ð±":6795,"ĠÐºÐ¾ÑĤÐ¾ÑĢÑĭÐ¼ÑĬ":6796,"ĠÐ±Ñ¹Ð´Ñ¹":6797,"ĠÐ²Ð¿ÐµÑĢÐµÐ´ÑĮ":6798,"ÑģÐ¸Ð¼Ð°":6799,"ĠÐ¿ÑĪÐµ":6800,"ĠÐ¿ÑĤÐµÐ½":6801,"ĠÐºÐ»Ñ£":6802,"ÑĩÑ§":6803,"ĠÐ¡Ð¾Ð·":6804,"ĠÐ²Ñ£ÑģÑĤÐ¸":6805,"ĠÐ»Ð¸ÑĨÐµÐ¼ÑĬ":6806,"ĠÐ¶Ð¸Ð²Ð°":6807,"ĠÐ¿ÐµÑĩÐµÐ½Ñ£":6808,"ĠÑħÑĢÐ°Ð¼ÑĬ":6809,"ĠÑģÐ²ÑıÑĤÑĭ":6810,"ĠÐ¿ÑĢÐ¾Ð¿Ð¾Ð²Ñ£Ð´Ð°":6811,"ĠÐ±Ð¸Ñģ":6812,"ĠÐ²ÑĬÐ¼Ñ£":6813,"ĠÐĺÑħÐ½Ð¸":6814,"ĠÑģÐ²Ð¾êĻĹ":6815,"ĠÑħÐ°Ð»":6816,"ĠÐ¶Ñĭ":6817,"Ð´Ð¾ÑħÑĬ":6818,"Ð»ÐµÐ½ÑĸÐ¸":6819,"ĠÑħÑĢÐ°Ð¼Ð¸":6820,"ĠÐ»ÐµÑģÐ¾Ð¼":6821,"ĠÐ¾ÑĤÐ¿ÑĥÑģÐº":6822,"Ð´ÐµÑĢÐ¶Ð°":6823,"ĠÐ´ÑĢÐµÐ²Ð°":6824,"ĠÐ¿Ð¸ÑĤÑĮÐµ":6825,"ĠÐºÑĢÑĥÐ¶Ð°Ð»ÑĮ":6826,"ĠÐļÑĸÐµÐ²ÑĬ":6827,"ĠÐľÐ°ÑĢÐºÐ¾Ð±ÑĢÑĥ":6828,"ĠÐ½Ð°ÑĢÐ¾":6829,"ĠÐŁÐ°Ðº":6830,"ĠÐ¼Ð°Ð¸Ñı":6831,"Ð¾Ð½ÑĮÐºÐ°":6832,"Ð·ÐµÑĢÐ°":6833,"ĠÐŁÐ°ÑĩÐµ":6834,"ĠÑĥÐ±ÑĭÑĤÐºÐ¸":6835,"Ð³Ð¾Ð¸":6836,"ĠÐ·Ð°Ð±Ñĭ":6837,"ĠÑģÐ¸Ð»Ðµ":6838,",.":6839,"ĠÑģÐ»Ð¾Ð²ÑĬ":6840,"ĠÑģÑĤÐ°ÑĢÐ¾ÑģÑĤÑĮ":6841,"ĠÐ¿Ð¾Ð³ÑĢÑ£":6842,"â¸±.":6843,"ĠÐ²Ð¾ÑģÑħÐ¾ÑĤÑ£":6844,"ĠÐºÑĢÐµÐ¿Ð¾ÑģÑĤ":6845,"ĠÐ·Ð°ÑħÐ°ÑĢÑĮ":6846,"ĠÐ±Ð¾Ð»Ñ£Ð·Ð½Ð¸":6847,"ĠÐ¸Ð´ÐµÑĤÑĬ":6848,"Ð»Ð¸Ð²Ð°ÑĤÐ¸":6849,"ÐµÐ¼Ñĭ":6850,"Ð°ÐºÐ¾Ð²Ð°":6851,"ĠÐ¾ÑĤÐºÐ°Ð·":6852,"ĠÐ¿Ð»Ð°ÑĩÑİ":6853,"ĠÐ¸ÑģÐ¿Ð¾Ð²Ñ£Ð´Ð°":6854,"ĠÐ¤Ð¸Ð»":6855,"ĠÐ²ÐµÐ»Ð¸ÑĩÐµÑģÑĤÐ²Ð¾":6856,"ĠÐ»Ð¸ÑĤÐ¾Ð²":6857,"ĠÑ¡Ð»ÐµÐ³ÑĬ":6858,"ÑĢÐ°Ð²Ð°":6859,"ĠÐ½ÐµÐ²Ð¾Ð»":6860,"ÑĢÐ¸Ð¼":6861,"ÑīÐ¸ÐºÐ°":6862,"ĠÐ²ÑĮÑģÑ§":6863,"ĠÐ²Ð°ÑĪÑĬ":6864,"ĠÐºÑĢÐµÑģÑĤÑĬ":6865,"ĠÐ±ÑĢÐ°ÑĤÐ¸Ñı":6866,"ĠÐ¿ÑĢÐ¾ÑĢÐ°Ð·ÑĥÐ¼Ñ£":6867,"Ð¸Ñī":6868,"ÑīÐ¾Ñĥ":6869,"ĠÐĴÑģÑı":6870,"ĠÐ¿ÑĢÐ°Ð²Ð¾Ð¹":6871,"ĠÐ¸ÑģÐ¿Ð¾Ð²Ñ£":6872,"ĠÐ¸ÑģÑĤÐ¸Ð½Ñ£":6873,"ĠÐ¿Ð°ÑĤÑĢÑĸÐ°ÑĢ":6874,"Ð²Ð¾Ð¼Ñĥ":6875,"ĠÐ½ÐµÑģÑĬ":6876,"ĠÑıÑĢÐ¾ÑģÐ»Ð°Ð²ÑĬ":6877,"ĠÑģÑĥÐ´ÑĬ":6878,"ĠÑĥÐºÑĢÑĭ":6879,"ĠÑģÑĤÑĢÑıÐ¿":6880,"ÑıÐ½Ð¸Ñı":6881,"ĠÐ±Ð»ÑİÑģÑĤÐ¸":6882,"ĠÐ½Ð°Ð¿ÐµÑĢÐµÐ´ÑĬ":6883,"ĠÐ¸Ð¾ÑģÐ¸ÑĦÐ¾Ð²Ð°":6884,"ĠÐ¿ÑĢÐ¸Ð¸Ð´Ð¾ÑĪÐ°":6885,"ĠÐŁÐ¾Ð²":6886,"ÑĦÑĥ":6887,"ĠÐ¿Ð¾ÐºÐ¾Ñģ":6888,"Ð¿Ð°ÑĩÐµ":6889,"ĠÑĢÑĥÐ±Ð»Ñ§":6890,"ĠÐ¼Ð¸ÑĤÑĢÐ¾Ð¿Ð¾Ð»Ð¸ÑĤÑĥ":6891,"ĠÑĤÐµÑĢÐ¿":6892,"ĠÐ±Ð¾Ð³Ð¾Ð¼Ð¾Ð»":6893,"Ð¾Ð³Ñ¡":6894,"ĠÐ¸Ð¼ÐµÐ½Ð°":6895,"ĠÐºÐ¾ÑĤÐ¾ÑĢÐ¾Ð¼Ñĥ":6896,"Ð³Ð¾ÑĢÐ¾Ð´Ñĥ":6897,"ĠÐ´ÑĮÑıÐº":6898,"ĠÐ²Ñ£ÑĢÑĥÐ¹":6899,"ĠÐ²Ð²ÐµÑĢÑħÑĬ":6900,"ĠÐ¿ÑĭÑĤÐ°ÑĤÐ¸":6901,"ÑĤêĻ¿":6902,"ĠÑģÐ½Ð¸":6903,"Ð¾Ð³Ð´Ñĭ":6904,"Ð°Ð½Ð³":6905,"ÑĢÑĬÐ´":6906,"ĠÑģÐ²Ñ§ÑĤ":6907,"ĠÐ¼ÐµÐ¶ÑĮ":6908,"ĠÑģÑĤÐ°ÑĤÑĮÑİ":6909,"ĠÐ²Ð¸Ð´ÐµÑĤÐ¸":6910,"Ð»Ð¾Ð²Ð¸":6911,"ÐºÐ¸Ð¸":6912,"ĠÐ¡Ð°Ð»":6913,"ÑģÐ¸ÑĤÑĮ":6914,"ĠÑģÐ¸Ð¼Ð¸":6915,"ĠÑĪÐ°Ð³":6916,"ĠÐºÐ¾ÑĤÐ¾ÑĢÐ°Ð³Ð¾":6917,"Ð²ÑĭÑı":6918,"ĠÐ³Ð»Ð°Ð³Ð¾Ð»ÐµÑĤÑĬ":6919,"ĠÐ½Ð¸ÐºÐ¾Ð»":6920,"ĠÐ»ÐµÐ³":6921,"ĠÐµÐ´Ð¸Ð½Ð¾Ð¹":6922,"ĠÐ¸Ð´Ð¾ÑĪÐ°":6923,"ĠÑĢÐ¾Ð¶Ð´":6924,"ĠÑĥÑģÑĤ":6925,"ÑĩÐ¸Ð¼Ð°":6926,"ĠÐ²Ñ£Ð´Ñ£":6927,"ĠÐ´Ð¾ÑģÑĤÐ¸":6928,"ĠÑĶÑģÑĤÑĮ":6929,"ĠÐ³ÑĢÑ£ÑħÐ¸":6930,"ĠÐ²ÐµÐ»Ð¸ÐºÐ¸Ð¼":6931,"ÑİÑīÐ¸Ñħ":6932,"ĠÐ¾ÑĤÐ´Ð°Ð½Ð¾":6933,"ĠÐ±Ñ¹Ð´ÐµÑĤÑĮ":6934,"ĠÐ²ÑģÑĤ":6935,"ĠÐ³Ð»Ð°Ð³Ð¾Ð»Ð¸":6936,"Ð½Ð°Ð´ÑĨÐ°ÑĤÑĮ":6937,"ÑĪÐ°Ð²ÑĬ":6938,"ĠÐ¿ÑĥÑģ":6939,"ĠÑģÑĤÐ°ÑĢÐµÑĨÑĬ":6940,"ĠÐĴÑĬêĻģ":6941,"ĠÐ´Ð¾Ð»Ð³":6942,"Ð¶Ñ¹":6943,"Ð°Ð²Ñ£":6944,"Ð°ÑĤÐ¸ÑģÑı":6945,"ĠÐŀÐ»Ðµ":6946,"ÑģÑĤÐ°Ð³Ð¾":6947,"ĠÑģÑĤÑĢÑ£Ð»ÑĮÐ±Ñĥ":6948,"ĠÑİÑĢÑĮÐ¸":6949,"ĠÑĨÐ°ÑĢÐ¸ÑĨÐ°":6950,"ĠÐ¿ÑĢÑıÐ¼Ð¾Ð¹":6951,"ĠÐ½Ð°Ð¹Ð¼Ñĥ":6952,"ÑģÐºÑĸÐ¹":6953,"êĻ¿Ð¶Ðµ":6954,"ĠÐ´ÑĥÑĪÑİ":6955,"êĻĭÐ´êĻĭ":6956,"ĠÑģÐµÐ»ÑĮÑĨÐ°":6957,"ÑģÑĤÑĸÐ¸":6958,"ÑħÐ¾Ð¶Ð´Ð°":6959,"Ñ§ÑĤÑ£":6960,"ĠÐ¿Ð¾ÑĩÐ¸":6961,"ĠÐŁÐ¾ÑĢ":6962,"ĠÐºÐ¾Ð½ÐµÑĨÑĬ":6963,"Ð²ÑĭÐµ":6964,"ĠÐ°Ð½ÑĤÐ¾Ð½":6965,"ĠÐ´Ð½ÐµÑģÑĮ":6966,"ĠÐ±Ð¾Ð»ÑĮÑĪÐ°Ð³Ð¾":6967,"ĠÐ»Ð¸ÑħÐ¾":6968,"ĠÑģÐºÐ¸":6969,"ĠÐ²Ð¾Ð½ÑĬ":6970,"ĠÑģÐ¸Ñĩ":6971,"ĠÐĵÐ¾Ð²Ð¾ÑĢ":6972,"ĠÑģÐ¾Ð±Ñ§":6973,"ĠÑģÑĬÑĤÐ²Ð¾ÑĢÐ¸ÑĤÑĮ":6974,"ĠÐ²ÑĭÑģÐ¾ÐºÐ¾":6975,"ĠÐºÐ¾ÑģÑĤÑıÐ½":6976,"ÑĪÑĤÐ¾Ñĥ":6977,"Ð±Ð°ÑĢ":6978,"ĠÐ¿ÑĢÑĸÑ§":6979,"êĻĭÐ´Ðµ":6980,"ĠÐ¡Ð°Ð¼ÑĬ":6981,"Ð´Ñ£Ð¸":6982,"Ð¶Ð°ÑĤÑĮ":6983,"ĠÐºÐ¾Ð½ÐµÐ¹":6984,"ĠÐ³Ð¾ÑģÑĥÐ´Ð°ÑĢÑĮÑģÑĤÐ²Ð°":6985,"ĠÐ¿ÑĢÐ¸ÑģÑĤÑĥÐ¿Ñĥ":6986,"ĠÑĤÑĢÐ°Ð¿ÐµÐ·":6987,"ĠÑģÑĬÐ¼ÑĢÑĮ":6988,"ĠÑĤÐ¾Ð»ÑĮ":6989,"Ð»ÐµÑĪÐ¸":6990,"ĠÐ¾Ð±ÑĢ":6991,"ĠÐ¿Ð¾Ð´Ð¿Ð¸Ñģ":6992,"ĠÑĤÐ¾Ð±Ð¸":6993,"ÑĪÑĤÑĥ":6994,"ĠÑģÑĤÐ¾ÑĢÐ¾Ð½Ð°":6995,"ĠÑĢÐ¾Ð·ÑĬ":6996,"ĠÐľÑĥÑĢÐ¾Ð¼ÑĨÐ°":6997,"ĠÐ³ÑĢÐ¸Ð²ÑĮÐ½Ð¾":6998,"ĠÐ¾ÑĤÐ²ÐµÑĤÑĩÐ¸ÐºÐ°":6999,"ĠÑģÐµÑĢÐµÐ±ÑĢÐ¾":7000,"ĠÐºÑĢÐµÑģÑĤÑĮÑıÐ½Ð¸ÑĪÐºÐ°":7001,"ÑĤÐºÐ°":7002,"ÑĢÐ°Ð´Ñĥ":7003,"ĠÐ´Ð°Ð±Ñĭ":7004,"ĠÐ½Ñ£Ð¼":7005,"ĠÑħÑĢÐ°Ð½Ð¸ÑĤÐ¸":7006,"Ð´Ñ§ÑĤÑĬ":7007,"Ð°ÑīÐµ":7008,"Ð»Ð¾Ð²Ñ£":7009,"Ð²Ñ«":7010,"ÑģÑĤÐ¾ÑĤ":7011,"Ð³Ð½":7012,"ÑĪÑĸÐ¸":7013,"Ð¶ÐµÑĤÑģÑı":7014,"Ñ³Ð°":7015,"ĠÐ¸Ð½Ð´Ð¸":7016,"ĠÐµÑģÑĤÐµÑģÑĤÐ²Ð¾":7017,"Ð½ÐºÐ°":7018,"ĠÐ¿ÑĢÐ²":7019,"Ð¿ÑĢÐ¾":7020,"Ð½Ð¸ÑĨêĻĭ":7021,"Ð¶ÐµÐ½Ð¾":7022,"ĠÐ²ÑĬÐ·Ð¼":7023,"ĠÐ»ÑİÐ´Ð¸Ð¸":7024,"ÑģÐºÑĭÐ¼":7025,"ĠÐĵÐ¾ÑģÐ¿Ð¾Ð´ÐµÐ½ÑĮ":7026,"ĠÐ³Ð»Ð°Ð²Ð¾Ñİ":7027,"ÑİÑīÐ¸Ð¼":7028,"ĠÐĿÐ¸ÐºÐ¸ÑĤÐ¸":7029,"Ð¾Ð³Ð¸Ð²Ð°":7030,"ĠÑģÐ¾ÑħÑĢÐ°Ð½Ð¸":7031,"ĠÐľÐ¸Ð»Ð¾":7032,"ÑīÐ¸Ðº":7033,"ĠÐ³ÑĢÐ¸Ð²Ð½Ñ£":7034,"ÑģÑĭÐ¿Ð°":7035,"ĠÐ¾Ð±ÑĬÑı":7036,"ĠÑĥÐ´Ð°ÑĢÐ¸":7037,"Ġ1000":7038,"ĠÐ½Ð°Ð¿Ð¸ÑĪÐµÑĤ":7039,"ĠÑģÑĥÐ·Ð´Ð°Ð»":7040,"Ð´Ð¾ÑĢ":7041,"ĠÐºÐ°Ñģ":7042,"Ð¿Ð¾Ñģ":7043,"Ð¾Ð³ÑĢÐ°":7044,"Ð¾ÑĥÐ¼Ð¾Ñĥ":7045,"ĠÑĤÑĭÐ¸":7046,"ĠÐ½Ñ£ÑĤÑĥ":7047,"ĠÑĤÐ²Ð¾ÑĢÐ¸ÑĤÑĬ":7048,"ĠÐ±Ð¾ÑĥÐ´ÐµÑĤÑĮ":7049,"ĠÑģÐ¸ÑĢÑ£ÑĩÑĮ":7050,"ĠÐºÐ»Ñı":7051,"ĠÐµÐ³":7052,"ĠÑĥÐ¼Ðµ":7053,"ĠÐ¿ÑĢÐ¸ÐµÐ´":7054,"ĠÐ¾ÑĥÐ·":7055,"ĠÑģÐ²Ñ£Ð¸":7056,"ĠÐ²Ð»Ð°Ð´Ñ£ÑĤÐ¸":7057,"ĠÑĢÐ°Ð·ÑĥÐ¼Ð¸":7058,"ĠÐ±Ð¾ÑıÑĢÑģÐºÐ¸Ð¼":7059,"ĠÐĳÐ¾Ð¶Ð¸Ñİ":7060,"ĠÐ´ÑħÐ°":7061,"ÑĸÐ¼ÑĬ":7062,"ĠÐ¿ÑĢÐ¸ÐµÑħÐ°Ð»ÑĬ":7063,"ĠÑģÑĤÐ°ÑĢÑĨÐµ":7064,"ĠÐ´ÐµÐºÐ°":7065,"ĠÑłÐ½":7066,"ĠÐ´ÐµÑģÑ§ÑĤÐµ":7067,"Ð½Ð°ÑĤÑĨÐ°ÑĤÑĮ":7068,"ĠÐ±Ð¾Ñ§":7069,"ĠÐ²ÑĭÑĤÐ¸":7070,"ĠÐ¾ÑĤÑĬÐ²Ñ£":7071,"ĠÑĤêĻĭÑĢ":7072,"ĠÐłÐ°êĻģ":7073,"ĠÑģÐ¼ÑĮ":7074,"ÑĩÐ°Ð´":7075,"ĠÐ²Ñ£Ð´Ð°ÑĤÐ¸":7076,"ĠÐºÑĢÑĤ":7077,"ĠÐºÑĥÐ¿Ð»Ñİ":7078,"ĠÑĥÐ±Ð¸Ð¹":7079,"ĠÐ¿ÑĢÐ¸ÐµÐ¼Ð»Ñİ":7080,"ĠÐºÐ¾Ð¶Ð´Ð¾":7081,"ĠÏ":7082,"Ñ£ÑħÐ°Ð»Ð¸":7083,"ĠÐ¿Ð¾Ñ§":7084,"ÑĪÐ¸Ð¼Ð¸":7085,"ÐµÑģÐ¸":7086,"ĠÐ¸Ð·ÑĮ":7087,"Ð´Ð¾ÑģÑĤÐ¸":7088,"ĠÐ¸ÑģÑĨÐ¾Ð²":7089,"ĠÐ½Ð°ÑĪÐ¾Ð³Ð¾":7090,"ĠÐ·ÐµÐ¼Ð»ÑıÑħ":7091,"ĠÑĥÐºÐ»Ð¾Ð½":7092,"ĠÐ´ÑĢêĻĭÐ³":7093,"ĠÑĪÐ°Ð³Ð¾Ð²ÑĬ":7094,"ĠÐ¸Ð½Ð¸":7095,"ÑħÐ¶Ðµ":7096,"ĠÐ³ÑĢÐ¾":7097,"ĠÐ´Ð°Ð¶ÑĮ":7098,"ĠÑĢÐ°Ð´ÑĬ":7099,"ĠÐ¿Ð¾Ð»ÐµÐ·":7100,"ĠÐ¾Ð±Ð»Ðµ":7101,"ĠÐ²Ð¾Ð·Ð²Ñ£":7102,"ĠÐ²ÐµÐ»Ð¸ÐºÑĭÐ¸":7103,"ĠÐ¼Ð¸Ð»Ð¾ÑģÑĤÑĭÐ½Ñİ":7104,"ĠÐ¶Ð¸Ð²Ð¾Ð½Ð°":7105,"ĠÑģÑĬÐºÑĢÑĭ":7106,"ĠÐ±ÐµÑģÑ£Ð´Ñĥ":7107,"Ð²Ð¾Ð²Ð°":7108,"ĠÑģÐ¾Ð´ÐµÑĢ":7109,"ĠÐ¾ÑĤÑĢÐ¾":7110,"êĻ¿Ð½Ð¾":7111,"ĠÐ²ÑĢÐµÐ¼Ðµ":7112,"ĠÐ½Ð°ÑĪÐµÐ¸":7113,"ĠÐ¿ÐµÑĢÐµÑı":7114,"ĠÐ³Ð¾Ñĩ":7115,"ĠÐ¿ÐµÑĢÐ²Ð¾Ð¹":7116,"ÑĮÐ½Ð°":7117,"ĠÐ±ÑıÑħÑĥ":7118,"ĠÑħÐ²Ð¾":7119,"êĻģÐµ":7120,"Ð²ÐµÑĢÐ¸":7121,"ĠÑĨÑĢÑĤ":7122,"ĠÐ²ÑĢÐ°Ð³Ð°":7123,"Ð³Ð¾Ð²Ð°ÑĢÐ¸":7124,"ĠÐ¾ÑĤÑĢÐ¾ÐºÑĬ":7125,"ĠÐ¾ÑĥÐ±Ð¾Ð³":7126,"ÑĩÐ¸ÑĤÑĬ":7127,"ÑĨÐºÐ¾Ð¸":7128,"ĠÐµÑĦ":7129,"Ð¾ÑģÐ»Ð¾Ð²":7130,"Ñ«Ð´":7131,"ĠÐ¼Ð¸ÑĢÑĥ":7132,"ĠÐºÑĢÐ°Ð»ÑĮ":7133,"ĠÐ¿Ð¸Ð²Ð°":7134,"ĠÐ¿Ð¾Ð¿ÑĬ":7135,"ĠÐ¼Ð¾ÑĢÑı":7136,"ÑİÑīÑĥ":7137,"ĠÐºÐ½Ð·ÑĮ":7138,"Ġ50":7139,"ÑģÑĤÑ«Ð¿":7140,"Ð²Ð°ÑİÑĤÑĬ":7141,"Ð½ÑĭÐ¸Ð¼ÑĮ":7142,"ÐµÐ²ÑĢÐ°":7143,"ĠÐ¾ÑĤÐ²":7144,"ĠÐ²ÑĭÐºÑĥÐ¿":7145,"âĢĻ":7146,"ĠÐ²ÑģÑ§ÐºÑ¹Ñİ":7147,"ĠÑģÑ£Ð¼Ñ§":7148,"ĠÐ¼Ð°Ð¸":7149,"ÑĢÑĤÐ¸":7150,"ĠÑģÐ¾ÑĢÐ¾":7151,"Ð¶Ð¸ÑĤ":7152,"Ð½ÑĭÑ«":7153,"Ð¶ÐµÐ½Ð°":7154,"ÑĪÐ°Ð¸":7155,"ĠÐ¡Ð»Ð¾Ð²Ð¾":7156,"ĠÑģÐ¿Ð¾Ð»":7157,"Ġ16":7158,"ĠÐ¿Ð¾ÑģÑĤÐ°Ð²Ð¸ÑĪÐ°":7159,"ĠÑģÐ¿Ð°ÑģÐ°":7160,"ĠÐ§ÑıÐ´Ð¾":7161,"ÐºÑĸÐ¸":7162,"ĠÐ²Ð½Ñ£":7163,"ĠÐ²ÑĢÑĬ":7164,"ĠÑħÑĢÑĮ":7165,"ĠÐ·Ð°Ñī":7166,"ĠÐ¿Ð¾Ð»Ð°Ð³Ð°":7167,"ĠÐ¿Ð°Ð»Ð¸":7168,"ĠÐ½Ð¾Ñī":7169,"ĠÐ²ÑģÑıÐºÐ¾Ð¹":7170,"ĠÐ¿Ð¾Ð³Ñ¹Ð±":7171,"ĠÐ¼Ð¾Ð³ÑĬ":7172,"Ð°Ð°":7173,"Ð½ÑĤ":7174,"ĠÑģÐ°Ð½":7175,"ÑİÑĪÑĤÐ°Ð°Ð³Ð¾":7176,"Ð¾Ð±Ð¾ÑĢ":7177,"ÑĩÐ¸Ð¼ÑĬ":7178,"ĠÐ¾ÑĥÑĩÐµ":7179,"ĠÐ¿ÐµÑĩÐ°ÑĤÐ¸":7180,"Ð·Ð°Ð½Ð¾":7181,"ĠÑĤÑ§Ð¶":7182,"ÑĤÐ²êĻĭ":7183,"Ð´êĻĭÑĤÑĬ":7184,"ĠÐµÐ´Ð²Ð°":7185,"ĠÑĨÐ°ÑĢÐ¸ÑĨÑĭ":7186,"ĠÑħÐ¾ÑĩÐµÑĪÑĮ":7187,"ĠÐĶÐ°Ð½Ð¸Ð»":7188,"ĠÑĢÐ°Ð´Ð¾Ð²Ð°ÑĤÐ¸ÑģÑı":7189,"ÑĮÑ§":7190,"ĠÐ´Ð²Ð¾Ñİ":7191,"ĠÐ·Ð¾Ð²Ñĥ":7192,"ĠÐ¾ÑĤÐ²Ñ£":7193,"ĠÑĢÐ°ÑģÐº":7194,"êĻģÐ¾Ñĥ":7195,"ĠÑģÐ²Ð¾ÐµÑ§":7196,"ĠÐ¿Ð¾Ð¿Ðµ":7197,"ĠÐ´Ñ£Ð»Ð°ÑĤÑĮ":7198,"ĠÑģÑ¹Ð´":7199,"ĠÑģÐ»ÑĭÑĪÐ°Ð²ÑĪÐµ":7200,"ĠÐ·Ð°ÑħÐ°ÑĢ":7201,"Ð²Ð¾Ð´Ð°":7202,"Ð½ÑĭêĻĹ":7203,"ĠÐ¡Ð¸Ñı":7204,"ĠÐ¼Ð¾ÑģÑĤÑĬ":7205,"ÑĩÐ°ÑħÑĬ":7206,"ĠÐ³ÑĢÐ¸ÑĪÐºÐ°":7207,"ĠÑģÑĤÑĢÐ°Ð´":7208,"ĠÐ±Ð¾ÑıÑĢÐ¾Ð¼":7209,"ĠÐ³ÑĢÐ¸Ð²Ð½Ð¸":7210,"ĠÑ£Ð·":7211,"ĠÐ±Ð»Ð¸Ð·ÑĬ":7212,"ĠÐ´Ð¾ÑģÑĤÐ¾Ð¸ÑĤÑĮ":7213,"ĠÐ²ÑĮÑģÑıÐºÐ¾Ð¼Ñĥ":7214,"ĠÐºÐ½ÑıÐ³Ð¸Ð½Ðµ":7215,"ĠÐ»ÑĥÑĩÑĪÐµ":7216,"ĠÐ¡Ð¾Ð·Ð¾Ð¼":7217,"ĠÑģÑĤÐµÑĢ":7218,"ĠÐ¾ÑĤÑĩÐµ":7219,"ĠÑıÐ¼":7220,"ĠÐ¸ÑģÐ°Ðº":7221,"ĠÐ½Ð¾ÑĩÑĮ":7222,"Ð´ÑĭÐ¹":7223,"ÐµÐ½ÐµÑĢÐ°":7224,"ĠÐĳÐ¾Ð¶Ð¸Ð¸":7225,"ÑģÑĸÐ¸":7226,"ĠÐºÐ½Ñ£":7227,"ĠÐ¾Ð»ÑĮ":7228,"Ð¸ÑĤÑ£":7229,"Ð¼Ð¸ÑĢÐ¸":7230,"Ñ¥Ð¼":7231,"ĠÐ²ÑģÑ§ÐºÐ°":7232,"ĠÐ¿Ð¾ÑĩÐµÐ»ÑĬ":7233,"ĠÐ½Ð¸ÐºÐ°ÐºÐ¾":7234,"ĠÐ¿ÑĢÐ¸Ð²ÐµÐ´Ð¾ÑĪÐ°":7235,"ĠÐ±Ñ«Ð´ÐµÑĤÑĬ":7236,"ĠÑĢÑĮÑĨÐ¸":7237,"Ġâģĺ":7238,"ĠÐ¼Ð°Ð½":7239,"Ð±Ð¸Ð»ÑĬ":7240,"Ð¾ÑģÐ»Ð°Ð²Ð°":7241,"ĠÐ¾ÑĥÐ²Ñ£":7242,"ĠÐ²Ð¾Ð·Ð»ÑİÐ±Ð¸":7243,"ĠÐ°Ð»ÐµÑ¯Ð°Ð½Ð´":7244,"ĠÐļÐ¾ÑĤÐ¾ÑĢ":7245,"ĠÐ¸Ð±Ð¾":7246,"êĻĥ":7247,"ĠÐ½Ð°Ð´Ð¾":7248,"êĻģÐ½Ð¸":7249,"ĠÑıÑģ":7250,"ĠÐ¶Ñ§":7251,"ĠÑĤÐ¾ÑĢÐ³Ñ¹":7252,"ĠÐ¿Ð¾ÑĤÑĢÐµÐ±Ñĥ":7253,"ĠÐĿÑ£ÑģÑĤÑĮ":7254,"ĠÑģÐ¾Ð´":7255,"ĠÐ°Ð´":7256,"ĠÐ°Ð½Ð°":7257,"ĠÐĿÐ¾Ð²":7258,"Ð»Ñ£Ð½ÑĮ":7259,"ĠÑģÐµÐ¼Ð¾Ñĥ":7260,"ĠÐ´ÑĢÐ°Ð³Ð¸":7261,"ĠÐ¿ÑĢÐ¿Ð´Ð±":7262,"ĠÐĴÐ°ÑģÐ¸Ð»":7263,"ĠÑħÐ¾ÑĩÐµÑĪÐ¸":7264,"ĠÐ¼ÐµÑģÑıÑĨÐ°":7265,"ĠÑģÐµÑģÑĤÑĢÐ°Ð¼Ð¸":7266,"ÑĪÐµÑĤ":7267,"ĠÐµÑģÑĤÐ²Ñĭ":7268,"ĠÐ¿Ð¾Ð´Ð¸":7269,"ĠÐ¼Ð°Ð»Ð¾Ðµ":7270,"ĠÐ¼Ð¸Ð»Ð¾ÑģÑĤÑĭÐ½Ð¸":7271,"ĠÐ¿ÑĢÐ¾ÑģÐ²Ñ£":7272,"ĠÑĩÐµÐ»Ð¾Ð²ÐµÐºÐ¾Ð¼":7273,"ĠÐ±Ð»Ð°Ð³Ð¾Ð²Ñ£":7274,"ĠÐ´ÐµÑĤÐ¼Ð¸":7275,"Ð»Ð¾Ð¶Ð¸ÑĤÐ¸":7276,"ĠÐ¿Ð¾Ð»Ð¾Ð¶Ð¸ÑĪÐ°":7277,"ĠÐ²Ð¼Ñ£ÑģÑĤÑ£":7278,"ĠÐ´ÑĢÑĥÐ¶Ð¸Ð½Ð¾Ñİ":7279,"ĠÐ·Ð¾Ð»Ð¾ÑĤÑĭÑħÑĬ":7280,"ÑıÐ½ÑĮ":7281,"êĻģêĻĳ":7282,"ĠÑģÑĤÐ¾Ð»Ñ£":7283,"ĠÐ·Ð´Ð¾ÑĢÐ¾Ð²ÑĮÐµ":7284,"ĠÐ´Ð°Ð²ÑĸÐ´ÑĬ":7285,"ÑĨÑ¹":7286,"ĠÑ¡Ð½Ð°":7287,"Ñ«ÑīÐ°":7288,"ĠÐ¿ÑĢÐ¾ÑģÑĤÐ¾":7289,"ĠÑĤÐ°Ð¸":7290,"ĠÐ¿Ð»Ð°Ñĩ":7291,"ĠÐ¿Ð¾Ð¼Ð¾Ñī":7292,"ĠÐ´ÑĢÑĥÐ¶Ð¸Ð½Ð°":7293,"ĠÈ¥":7294,"ÑĩÐ½Ð°Ð³Ð¾":7295,"ÐµÐ½ÐµÐ¹":7296,"ĠÐ¡Ðº":7297,"ĠÑ¹Ð¶Ðµ":7298,"ÑĥÐ¿Ð°":7299,"ĠÐ½Ð°ÐºÐ°Ð·Ñ¹":7300,"ĠÐ¿Ð°Ð¼Ñ§ÑĤÑĮ":7301,"ĠÐ³Ð½Ñ£Ð·":7302,"Ð¿ÑĢÐ°ÑĪÐ¸":7303,"ĠÐ¾ÑĢÑĥÐ¶ÐµÐ¹":7304,"ĠÐ¿Ð¾Ð³ÑĭÐ±":7305,"Ð½ÐµÐ½Ð°Ð²Ð¸Ð´Ñ£":7306,"ÐµÐ´Ð°":7307,"ĠÐ½Ð°ÑģÐ»Ð°":7308,"ÑĢÐ°Ð¼ÑĬ":7309,"ĠÐ¿Ð¾Ð¾Ñĥ":7310,"ĠÐ´Ñ£Ð¸":7311,"ĠÐºÐ¾ÑĤÐ¾ÑĢÐ¾Ð¼ÑĬ":7312,"ĠÐ²ÑĬÐ·Ð»ÑİÐ±Ð¸":7313,"Ð»ÑĭÑħ":7314,"ĠÑģÑĤÐ°ÑĪÐ°":7315,"ĠÐ¾Ð½Ð¾Ð¼Ñĥ":7316,"ĠÐ¿Ð¾Ð¶ÑĮ":7317,"ĠÐ²Ð¾Ð·Ð¼Ð¾Ð¶Ðµ":7318,"ĠÐŁÐ¾ÑģÐ»Ð°":7319,"ĠÐ·Ð°Ð¿Ð¾Ð²Ñ£Ð´ÑĮ":7320,"ĠÐ¼ÑĮÑģÑĤÐ¸ÑģÐ»Ð°Ð²":7321,"ÑħÐ¾Ð¶":7322,"ĠÐ½ÐµÐ²Ðµ":7323,"ĠÑĩÐ¸Ð¼ÑĬ":7324,"ĠÐ»ÐµÑĤÐ¾":7325,"ĠÐ²ÑĬÐ¿ÑĢÐ°":7326,"ÑĤÐ¾ÑĪÐ°":7327,"êĻģÐ´Ð°":7328,"ĠêĻĹÐ·ÑĬ":7329,"ĠÐ½ÐµÐ¼Ñ¹":7330,"ÑģÑĭÐ»Ð°":7331,"ĠÑĤÑĢÐµÑħÑĬ":7332,"ÐºÐ¾Ð»":7333,"ĠÐ°Ð·ÑĮ":7334,"ĠÐ´Ð°ÐµÑĤÑĬ":7335,"ÑĢÐµÑĩÑĮ":7336,"ĠÐ´Ñ£Ð»":7337,"ĠÐ²ÑģÑ£Ð²Ð¾Ð»":7338,"ĠÐ¿Ð¸ÑģÐ°Ð½Ð½Ð¾Ðµ":7339,"ĠÑģÑĬÐ¼ÑĮÑĢÑĤÑĮ":7340,"ĠÑģÑĩ":7341,"ĠÐ¼ÐµÐ´ÑĬ":7342,"ÑīÐµÑĤÑĬ":7343,"ĠÐ¾ÑĤÐµÑĨ":7344,"ĠÐ´Ð¾Ð¸Ð´Ðµ":7345,"ĠÐ±ÐµÐ·Ð±Ð¾Ð¶":7346,"Ð½ÑĭÐ¸Ð¼Ð¸":7347,"ĠÐ¿ÑĢÐ¸ÑģÑĤÐ°Ð²Ñĥ":7348,"ĠÐ±Ð»Ð°Ð³Ð¾ÑģÐ»Ð¾Ð²Ð¸":7349,"ÑĤÑĢÑĬ":7350,"Ð½ÐµÐ½ÑĬ":7351,"ĠÐ¸ÑīÐµ":7352,"ĠÐ¾Ð»ÐµÐºÑģÐ°Ð½Ð´":7353,"Ð»Ð¸ÑĤÑĮ":7354,"Ð¾Ð±Ð¾":7355,"Ð½ÐµÑĨ":7356,"ĠÑĢÐµÐºÐ°":7357,"ÑĤÐµÑĨÑĬ":7358,"ĠÐ¿Ð¸ÑģÐ°Ð»ÑĬ":7359,"ĠÐ´Ð¾ÑĢÐ¾Ð³Ð¸":7360,"ÐµÐ»ÑİÐ±":7361,"ĠÐ¶Ð°Ð»Ð¾Ð²Ð°Ð½ÑĮÐµ":7362,"ĠÐ±Ð°Ð³Ð°ÑĤÑĭ":7363,"ÑĩÐ°Ð¸":7364,"ĠÑĢÑ£ÐºÐ°":7365,"ĠÐ¼Ð°Ð»ÑĭÑı":7366,"ĠÑ³ÐµÐ¾Ð´":7367,"ĠÐºÐ°Ð·Ð½Ð¸":7368,"ĠÐ½ÐµÐ¿ÑĢÑ£":7369,"ĠÐ¢Ñ£Ð¼":7370,"ĠÑģÑĤÐ°ÑĢÐ¾ÑģÑĤÐ¸ÑĪÐºÐ°":7371,"ĠÑĩÐµÐ»Ð¾Ð±Ð¸ÑĤÑĩÐ¸ÐºÐ¾Ð¼":7372,"Ð´Ð¸Ð²":7373,"ÑĩÐ¸Ð²ÑĬ":7374,"ĠÐĿÑĭÐ½Ðµ":7375,"ĠÐ¸Ð·Ð¼ÐµÐ½":7376,"Ð³Ð°Ð¼ÑĬ":7377,"ĠÑĢÑ£ÐºÑĭ":7378,"ĠÐ±ÑĢÐ°ÑĤÐ¾Ð¼":7379,"ĠÐ¼Ð¾ÑģÐºÐ²Ñĭ":7380,"ĠÑģÐºÐ°Ð·ÑĭÐ²Ð°":7381,"Ð³ÑĢÐ°Ð´ÑĬ":7382,"ĠÐ¿Ð¾ÑĢÑĥÐºÑĥ":7383,"Î·":7384,"ÐºÑĢÑ£Ð¿":7385,"Ð½Ð¸Ð¹":7386,"ĠÑħÑģ":7387,"ĠÐ¾Ð±ÐµÑģ":7388,"ĠÑģÑĭÐ½Ñĭ":7389,"ĠÐ²Ð»Ð°Ð´Ðµ":7390,"ĠÐ¶ÐµÐ½Ð°Ð¼Ð¸":7391,"ĠÐ²Ð¾Ð¸ÑģÐºÐ°":7392,"ĠÐĴÑĮÑģÐµ":7393,"ÐµÐ½Ñı":7394,"ĠÐŁÐ°Ð²":7395,"ĠÐ¿ÑĢÐµÑģÑĤÐ°":7396,"Ð¿Ð¸Ñı":7397,"ĠÐ±ÑĭÐ²Ð°Ð»Ð¾":7398,"Ð¿Ñ£ÑĤÐ¸":7399,"ĠÐ½ÑĶ":7400,"ĠÐºÑĢÐ¾":7401,"ĠÐ³ÐµÐ½ÐµÑĢÐ°":7402,"êĻĳêĻĹ":7403,"Ð»ÑĮÑİ":7404,"ĠÐ¼Ð¾Ð»ÐµÐ±":7405,"ÑĥÑĤÑĥ":7406,"ĠÐ³Ð»ÐµÑĤÑĮ":7407,"ĠÐ²Ð¾Ð´Ñ£":7408,"ĠÑĢÐ°Ð·ÑĥÐ¼Ð°":7409,"ĠÐ½Ð°Ð´Ð¾Ð±Ñ£":7410,"ĠÐ±ÐµÑģÑĩÐµÑģÑĤÑĮÐµ":7411,"ĠÐ´ÑıÐ´":7412,"ÑģÑĤÐ¾Ð¼":7413,"ĠÐĲÐºÐ¸":7414,"Ð²Ð¸Ðµ":7415,"ĠÐ¢Ð¸":7416,"ĠÑĤÐ°ÐºÐ¸Ñı":7417,"ĠÐ´ÐµÑĢÐµÐ²Ð½ÑıÐ¼":7418,"ĠÐ±Ð»Ð¸Ð·ÐºÐ¾":7419,"ĠÑģÐµÐ»Ð¸ÑĤÑĢÑĥ":7420,"ĠÐ¿Ð°Ð»":7421,"ÑĪÑĸ":7422,"ĠÐ¿ÑĢÐµÑģÐ»Ð°Ð²":7423,"ĠÐĶÐ¼Ð¸ÑĤ":7424,"ĠÑģÐ¾ÑĦ":7425,"ĠÐ±Ñ£ÑĪÐ°":7426,"ĠÑģÑĤÑĢÐ°ÑħÐ¾Ð¼ÑĬ":7427,"ĠÐ¸Ð¼Ñ£Ð¹":7428,"ĠÐ²Ð¾ÑĤÑĩÐ¸Ð½Ðµ":7429,"ĠÐ¼Ð°ÑĤÐµÑĢÐµ":7430,"ĠÐ¾Ð´Ð½Ð°":7431,"ĠÐ¼ÐµÑĢÑĤ":7432,"ÑĪÐ¼Ð¸":7433,"ÑĪâ±ķ":7434,"ÐºÐ°Ð½":7435,"ĠÐ±ÑĭÐ²ÑĪ":7436,"ĠÐŁÐ°ÐºÐ¸":7437,"Ð¾Ð¶ÐµÐ½":7438,"ĠÑĤÐ²Ð¾ÐµÑ§":7439,"ĠÐ²Ð¸Ð´Ñ£Ð²ÑĪÐµ":7440,"Ð³ÑĢÐ°Ð´Ð°":7441,"ĠÑĩÐ°ÑģÐ°":7442,"ĠÐ½Ð°ÑģÑĤÐ¾":7443,"ĠÐ·Ð°ÐµÐ¼":7444,"Ð°Ð²Ñĭ":7445,"ĠÐ¿Ð¾Ð¼Ð°Ð³Ð°":7446,"ĠÐ¼Ð¸ÐºÐ¸":7447,"ĠÐķÐ¼Ñĥ":7448,"ĠÑģÑĥÐº":7449,"ĠÐ¶Ð¸ÑĤÑĸÐµ":7450,"ÑĪÐµÐ´ÑĪÐµ":7451,"ÑħÐ¾Ð²ÑĬ":7452,"ĠÑĩÑĥÐ´":7453,"Ð¶Ñĭ":7454,"ÑģÐºÐ²ÐµÑĢ":7455,"ĠÑĥÐ¼ÑĭÑĪ":7456,"ĠÐ¶ÑĢÐµ":7457,"ĠÐ³Ð¾ÑģÑĥÐ´Ð°ÑĢÑĭÐ½Ðµ":7458,"ĠÐļÐ°Ð·":7459,"ĠÐ¿ÐµÑĢÐ²Ð¾":7460,"ĠÐ±Ð¾ÑĢÑĤ":7461,"ĠÐ¿ÐµÑĢÐµÐ¿Ð¸Ñģ":7462,"ĠÐ½Ð°ÑĩÐ°Ð»":7463,"ĠÐ³ÑĢÑ£ÑħÐ¾Ð²ÑĬ":7464,"ĠÐ½ÐµÐ¼Ð¾Ñī":7465,"ĠÑģÐµÑĢÐµÐ´ÐºÑĥ":7466,"ĠÑĤÑĢÐµÐ±Ñĥ":7467,"ĠÑĤÐ¾Ð²Ð°ÑĢÐ¸ÑīÐ¸":7468,"ĠÐ²ÑĭÐºÑĥÐ¿Ð°":7469,"ĠÐ½ÐµÐµ":7470,"ÐµÐ¼Ñı":7471,"ĠÐ°êĻģÑĬ":7472,"ÑģÐºÑĮ":7473,"ÑĢÐµÐº":7474,"ÑĸÐ¸ÑħÑĬ":7475,"Ð´ÑĮÑĢ":7476,"ĠÐ½Ð¸ÐºÐ¾Ð»Ñĭ":7477,"ĠÑħÐ¾Ð´Ñı":7478,"ĠÐ³ÑĢÐ¸Ð²ÐµÐ½Ðµ":7479,"ĠÐ°Ð½Ð´ÑĢÑİ":7480,"ĠÐ½Ð¸ÐºÐ°ÐºÐ¾Ð²Ð°":7481,"ĠÐ³ÑİÑĢÑĮ":7482,"ĠÐ±Ð¾Ð³Ð¾Ñĥ":7483,"ĠÐ½Ð°Ð·ÑĭÐ²Ð°ÑİÑĤ":7484,"Ð¼ÑĢÑĮ":7485,"ĠÐ²ÑĬÐ´":7486,"Ð¸ÑĤÐµÑģÑ§":7487,"Ð°Ð½Ñ£":7488,"ĠÐ²ÑĭÐ´Ð°":7489,"ĠÐ¼ÐµÑģÑĤÐµ":7490,"ĠÐ²Ð»Ð°Ð´Ñ£":7491,"ĠÐ·Ð½Ð°ÑĤÐ¸":7492,"Ġ71":7493,"ĠÐ¿ÑĢÐµÐºÑĢÐ°ÑģÐ½Ð¾Ð¹":7494,"ĠÐºÐ¾ÑĢÐ¾Ð»ÐµÐ²Ð½Ð°":7495,"ĠÐºÑ¡Ð½":7496,"ĠÐ¸Ð½ÑĭÑı":7497,"Ð´Ñ§ÑĤÑĮ":7498,"ĠÐ½Ð°ÑĩÐ¸Ð½Ð°":7499,"ĠÐ°Ð»ÑĮ":7500,"ĠÐĲÐ½Ð°":7501,"ĠÐĴÐ°ÑĢ":7502,"ĠÑĨÐ°ÑĢÑģÑĤÐ²Ñĥ":7503,"ĠÐ»Ð¸ÑĪÐ¸":7504,"ĠÐ´ÑĮÑıÐºÑĥ":7505,"ĠÐ½Ð¸ÑĩÑĤÐ¾":7506,"ĠÐ¢ÐµÐ»":7507,"ÑģÐ»Ð¾Ð²Ð¸":7508,"Ð½Ñ§ÑĤÐ¸":7509,"ĠÐ·Ð´ÑĢÐ°Ð²ÑģÑĤÐ²Ñĥ":7510,"ÑĢÐµÑĤÑĬ":7511,"ĠÐ¿Ð¾ÐµÐ´":7512,"ĠÐ¸ÑģÑĤÐ°ÑĢÐ¸":7513,"ĠÐ²Ð°ÑģÐ¸Ð»ÑĮÐµÐ²Ð¸ÑĩÑİ":7514,"ĠÐ¿ÑĢÐ¾Ð¿Ð¾Ð²Ñ£":7515,"Ð»Ð²":7516,"ĠÐ´Ð²Ð¾Ðµ":7517,"Ð¶Ð°Ð½ÑĸÐµ":7518,"Ñ¡Ð´":7519,"ĠÐ¿ÑĢÐµÑģÑĤÑĥÐ¿":7520,"ĠÑģÐµÑĢÑĮ":7521,"ĠÐ¿ÑĢÐ¾ÑģÐ¸ÑĤÑĮ":7522,"ĠÐ´Ð¾Ð±ÑĢÐ¾Ð³Ð¾":7523,"ĠÐ²Ð¾Ð¸Ð½ÑģÐºÐ¸Ð¼ÑĬ":7524,"ĠÐ¼Ð¾Ð»Ð¾Ð´ÐµÑĨÑĬ":7525,"ĠÐ¢ÑĥÐ³Ð°ÑĢ":7526,"ĠÐ³ÐµÐ½Ð²Ð°ÑĢÑı":7527,"Ñ±":7528,"ĠÑĩÑĥ":7529,"Ð¶Ð½Ñĭ":7530,"ÐºÐ°Ð²":7531,"ĠÑģÐ²Ð¾Ñ«":7532,"ĠÑ¡ÑĨÐ°":7533,"Ñ«Ñ«":7534,"ĠÐºÐ¾ÑĤÐ¾ÑĢÐ¾Ð¼":7535,"ĠÐºÑĢÐ¾ÑĤÑĬ":7536,"ĠÑĤÐ²Ð¾ÐµÑİ":7537,"ĠÑģÑĤÐ¾Ð¸ÑĤÑĮ":7538,"ĠÐ²Ð¸Ð´Ñ£ÑħÑĬ":7539,"ĠÐ±Ð¾ÑĢÐ¸":7540,"ĠÑģÐ»Ñ¹Ð³ÑĬ":7541,"ĠÑĥÐºÑĢÑ£Ð¿":7542,"ĠÑģÐ¼Ð¸ÑĢ":7543,"ĠÑħÐ»ÐµÐ±Ð°":7544,"ĠÐ¼ÑĢÑĬ":7545,"Ð±Ð¾Ð³":7546,"ĠÐ³êĻĭ":7547,"ÐµÐ½Ð¾Ðµ":7548,"ĠÑĨÐµ":7549,"ÑĪÐµÐ³Ð¾":7550,"ĠÐ¼Ð¾êĻĹ":7551,"ĠÐ²ÑĭÑģÑĤÑĢÑ£":7552,"ĠÐ¿ÑĢÑ£Ð¶Ðµ":7553,"ĠÐ²ÐµÐ»Ð¸ÐºÑĸÐ¸":7554,"ĠÐ»ÑİÐ´ÐµÑħÑĬ":7555,"ĠÐ¼Ð°Ð³":7556,"ĠÑģÐµÑĢÐ´Ðµ":7557,"Ð³Ð¾ÑĢÐ¾Ð´Ðµ":7558,"ĠÑħÐ¾Ð»Ð¾Ð¿ÐµÐ¹":7559,"ĠÐ¿Ð¾ÑģÐ»Ñ£Ð´Ð¸":7560,"ĠÑģÐ¼Ð¸ÑĢÐµÐ½":7561,"ĠÐ¾ÑĢÑĥÐ¶Ð¸":7562,"Ñ§Ð»Ð¾":7563,"Ñ§ÑģÑ§":7564,"Ð½Ð¾ÑģÑĤÑĮ":7565,"ĠÐ¿ÑĥÑģÑĤÑĭÐ½Ð¸":7566,"ĠÐ²ÐµÐ»Ð¸ÐºÐ¸Ðµ":7567,"ĠÐ¿ÑĢÐ¸ÑĪÐµÐ»":7568,"ĠÐ¿Ð»Ð¾Ð´ÑĬ":7569,"ĠÐ´Ð¾Ð±ÑĢÐ¾Ðµ":7570,"ĠÐºÐ½Ð·Ñİ":7571,"ĠÑĢÐ°Ð´Ð¾ÑģÑĤÐ¸Ñİ":7572,"ĠÐºÑĢÐµÑģÑĤÑĮÑıÐ½Ð¾Ð¼":7573,"Ð°Ð´Ð¸":7574,"ÑģÑĨÑ£":7575,"ĠÐ¸Ð½ÑĭÐ¼Ð¸":7576,"Ð´ÐµÐ»":7577,"ĠÑ¡ÑĤÑĬ":7578,"ĠÐ¿Ð¾Ð´ÑĢÐ°":7579,"ĠÐ¼Ð½Ð¾Ð¶Ð°":7580,"ÑīÐ¸Ð¼Ð¸":7581,"ĠÐ²ÐµÐ»Ð¸ÐºÐ¾Ð¼ÑĬ":7582,"ÑĢÐ¾ÐºÐ°":7583,"ĠÐ±ÑĭÐ²Ð°ÐµÑĤ":7584,"ĠÐ½ÑĭÐ½ÐµÑĪ":7585,"ĠÑģÑĤÐµÐ¿ÐµÐ½Ð¸":7586,"ĠÐ±Ñ£Ð»ÑĭÑı":7587,"ĠÐ¿Ð¾ÑģÐ»Ñ¹ÑĪÐ°":7588,"Ð´ÑĢÐ°Ð²":7589,"Ð±ÑĢ":7590,"ĠÐ²Ñ£Ð½ÑĮ":7591,"ĠÐŀÐ¶Ðµ":7592,"ÑĪÑĮÐ´ÑĬ":7593,"ĠÑĤÑĭÑħ":7594,"ĠÐ¿ÑĥÑĪÐºÑĥ":7595,"Ð¼Ð¾ÑĤÑĢÐ¸ÑĤÐ¸":7596,"ĠÐºÐ¾Ð»ÐµÑģ":7597,"ĠÐ¾Ð´Ð½Ð¾Ð³Ð¾":7598,"ĠÑĤÑĢÐµÐ¿":7599,"ĠÑħÐ»Ñ£Ð±Ñĭ":7600,"ĠÐ¿ÑĥÑĪÐºÑ£":7601,"ĠÑĥÑģÑĤÑĢÐ¾Ð¸ÑĤÑĮ":7602,"ĠÐ¿ÑĢÐµÐ¶Ð½ÐµÐ¼Ñĥ":7603,"ĠÐ±êĻĭÐ´Ð¸":7604,"ĠÐºÐ¾ÑģÑĤÑ§Ð½":7605,"ĠÑ¡Ð¿Ñ§ÑĤÑĮ":7606,"ĠÐ²ÑĭÐ±Ð¾ÑĢÐ½ÑĭÑı":7607,"Ð¾ÑĤÐ¸":7608,"ÑĤÑĸÐµ":7609,"ĠÑĤÑĥÑİ":7610,"Ð¿Ð¾ÑģÑĤ":7611,"ÐµÐ´ÑĢ":7612,"ĠÐ²Ñ£Ð½":7613,"ĠÐ³Ð¾ÑģÑĥÐ´Ð°ÑĢÑģÑĤÐ²Ð°":7614,"ĠÐľÐ°ÑĤ":7615,"ĠÐľÐ°ÑĢÐ¸":7616,"ÑģÑĤÐ²ÐµÐ½Ñĭ":7617,"ĠêĻħ":7618,"ĠÐ¿ÑĢÐ¾ÑģÐ¸ÑĤÐ¸":7619,"ĠÐ½Ð°Ð·Ð°Ð´ÑĬ":7620,"ÑĪÐµÐ½Ñĭ":7621,"Ð±Ñ¹":7622,"ĠÐ½Ð°Ð¸Ð¼":7623,"ÐµÑĤÑĥ":7624,"ÑīÑĸ":7625,"Ð²ÑĬÐ·":7626,"ĠÑħÐ¾Ð´Ð¸ÑĤÑĮ":7627,"ĠÐ·Ð°ÐºÐ¾Ð½Ð°":7628,"ĠÑĢÐ°êĻģÐ¾ÑĥÐ¼Ñ£":7629,"ÑĨÐºÐ¸Ð¸":7630,"ĠÑĤÐ¸Ð¼Ð¾ÑĦÐµ":7631,"ĠÐ¿Ð¾ÑģÑĤÑĬ":7632,"ĠÐµÐ³Ð¸Ð¿":7633,"ÑīÐµÐ½Ð¾":7634,"Ð²Ð°Ð»Ð°":7635,"êĻģêĻĭ":7636,"Ð»Ñ£Ðµ":7637,"ĠÐ¼Ð¾Ð»Ð²":7638,"Ġ17":7639,"ĠÐºÑĢÐ°ÑģÐ¾ÑĤÑĥ":7640,"ĠÐ²Ð°ÑĢÐ»Ð°":7641,"ĠÐ²ÑĬÐ´Ð°Ð»Ðµ":7642,"ĠÑģÐµÐ»ÑĮÑĨÐ¾":7643,"Ð±Ð¾Ð»":7644,"ĠÑģÑĤÑĢÑĥ":7645,"ĠÐ¿ÑĢÐ¾ÑĩÐ¸Ñħ":7646,"ĠÑĥÐ¼Ð½":7647,"ĠÐ²Ð¾ÑĢÐ¾ÑĤ":7648,"ĠÑħÐ¸ÑĤÑĢÐ¾ÑģÑĤÑĮ":7649,"ĠÑ¡Ð³Ð½ÑĮ":7650,"ĠÐ¸Ð¾":7651,"ÑĮÑĨÐ¸":7652,"ĠÑĩÐ°ÑĢ":7653,"Ð½ÑĥÑĤÐ¸":7654,"ĠÐºÐ¾ÑģÑĤÐ¸":7655,"ĠÐ²Ð¾Ð»Ð¾Ñģ":7656,"ĠÐ¿Ð¾ÑĤÑĢÑ£":7657,"ÑĪÑĤÐµÐ½Ð¸Ðµ":7658,"ĠÐŁÐ¾ÑĩÑĤÐ¾":7659,"ĠÐ·Ð°Ð½ÐµÐ¶Ðµ":7660,"ĠÐ·Ð´Ð¾ÑĢÐ¾Ð²Ðµ":7661,"ĠÐ½Ð¾Ð²ÑĬÐ³Ð¾ÑĢÐ¾Ð´ÑĬ":7662,"ĠÑĥÐ²Ðµ":7663,"ĠÐ½Ð¸ÐºÐ¸ÑĤÐ¸":7664,"ĠÑģÐµÑı":7665,"ĠÐ¸Ð·Ð±Ñĭ":7666,"Ð½ÑĥÑĤÑĮ":7667,"ĠÐ»Ñ£ÑĤÐµ":7668,"ĠÐ·Ð°Ð¿Ð»Ð°":7669,"ĠÑģÐµÐ¼Ð¾":7670,"ĠÐ³ÑģÐ´ÑĢÐ¸":7671,"ĠÑģÑĤÐ¾Ð»Ð°":7672,"ĠÑĥÐ·Ð½Ð°":7673,"ĠÐ¿ÑĢÐ¾Ð³Ð½Ñ£":7674,"ĠÐ°Ð¿Ð¾ÑģÑĤÐ¾Ð»ÑĬ":7675,"ĠÐ¶ÐµÐ·Ð»ÑĬ":7676,"ĠÐ½Ð¾ÑıÐ±ÑĢÑı":7677,"ĠÑģÐµÐ»Ñ£":7678,"Ñ£Ð¹":7679,"ĠÐĺÐ±Ð¾":7680,"êĻĳÑĪ":7681,"ĠÐ¸Ð·Ð²":7682,"ĠÐ¼ÐµÐ¶Ñĥ":7683,"ĠÑģÑĥÑħ":7684,"ĠÐ¼êĻĭÐ¶ÑĬ":7685,"ĠÑģÐ²ÐµÑĢÑħÑĬ":7686,"ĠÑģÑĬÐ±Ð»Ð°":7687,"ĠÐ°Ð¶ÑĬ":7688,"ĠÐµÐ²Ð°Ð½Ð³":7689,"Ð´ÑĥÑĤÑĮ":7690,"ĠÐĵÑĢÐ°":7691,"ĠÐ´Ð²Ð¾ÑĢÐµÑħ":7692,"ĠÑĩÐ°ÑģÑĥ":7693,"ĠÑĢÑıÐ´Ñĥ":7694,"ĠÐ´ÑīÐµÑĢÑĮ":7695,"ĠÑĤÑĥÑĤ":7696,"ĠÐºÐµÑģ":7697,"ĠÐ·Ð±ÐµÐ¶":7698,"Ð°ÐºÐ¾Ð½ÑĮ":7699,"Ð¸Ð½ÑģÐºÐ¾Ð³Ð¾":7700,"ĠÐ¿Ð¾ÑģÐ»Ð°Ð½Ð¸Ðµ":7701,"ĠÐ´Ð¾ÑĢÐ¾Ð³Ð°":7702,"ĠÑĤÐ²Ð°ÑĢÑĮ":7703,"ÑģÑĤêĻĭÐ¿Ð¸":7704,"ĠÐ¿ÑĢÐ¸Ð³Ð¾Ð¶Ð°":7705,"ĠÑģÐºÐ²Ð¾Ð·Ñ£":7706,"ĠÐ»ÑİÐ±ÑĬÐ²ÑĮ":7707,"ÑħÐµ":7708,"ÑħÑ£":7709,"ÐµÐ½ÑĹÐµ":7710,"ĠÐ¿ÑĢÐ¸Ð·ÑĭÐ²Ð°":7711,"ĠÑĢÐ°Ð½Ñĭ":7712,"ĠÐĳÐ»Ð°Ð³":7713,"ĠÐ´Ñ£ÑĤÐµÐ¸":7714,"ĠÐ´Ð¾Ð±ÑĢÐ¾Ð¼":7715,"ĠÑģÐ¾ÑĥÐ´":7716,"ĠÐ²Ð¾Ð»Ñı":7717,"ĠÑĢÑ£ÑĩÑĮ":7718,"ĠÐºÑĢÐ°ÑģÐ½Ð°":7719,"ĠÐ¿Ð¾ÑĢÑĥÑĩ":7720,"ĠÐ¼ÐµÑĢÑĤÐ²Ñĭ":7721,"ĠÐ»Ð¾ÑĪÐ°Ð´ÑĮ":7722,"ÑģÐºêĻĭÑİ":7723,"ĠÐ¾ÑģÐ°Ð´":7724,"ĠÐ°Ð¼Ð¸Ð½ÑĮ":7725,"Ð»Ð¾ÑģÑĮ":7726,"ÑĥÑģÑĤÐ¸":7727,"ĠÐ½Ð°ÑģÐ°":7728,"ÑĨÐµÐ²":7729,"ÑģÐºÑĸÑı":7730,"Ð¹ÑĤÐ°":7731,"ĠÐ¿ÑĢÐ¸ÑģÑĤÐ°Ð½Ð¸":7732,"ĠÐ½Ð¸Ð³":7733,"ÑīÐ¸ÐºÐ¾Ð²":7734,"ÑĥÑİÑĤÑģÑı":7735,"ĠÐ½Ñ£ÑĩÑĤÐ¾":7736,"ĠÐ¿Ð¾Ð¶Ð½ÑıÐ¼Ð¸":7737,"ĠÐ¼Ð½Ð¾Ð³Ð¾ÑĨÑ£Ð½":7738,"ĠÐ¿ÑĢÐ¸ÐºÐ°Ð·Ð°Ð½Ð¾":7739,"ĠÐ¾ÑģÐ½Ð¾Ð²":7740,"ĠÑĤÐ°ÑĤÑı":7741,"ĠÑģÑĤÐ°Ð²Ð¸ÑĤÑĮ":7742,"ĠÐ±ÑĢÐ°ÑĤÐ¸Ð¸":7743,"ĠÑĸÑ¡Ð°Ð½":7744,"ĠÐ·Ð²Ñ£ÑĢÐ¸":7745,"ĠÐ´ÑĥÑħÐ¾Ð²Ð½Ð¾Ð¹":7746,"ĠÑģÐ²Ñ§ÑīÐµÐ½":7747,"ĠÐ°ÑĢÑħÐ¸Ð¼Ð°Ð½Ð´ÑĢ":7748,"Ð¶ÐµÑİ":7749,"ĠÑħÐ¾Ð¶Ðµ":7750,"ĠÐ¸Ð·Ð³Ð½Ð°":7751,"ĠÐļÐ°Ðº":7752,"ĠÐºÑĢÐ°ÑģÑĮ":7753,"ĠÐ¿ÐµÑĩÐ°ÑĤÑĮ":7754,"ĠÑĤÑĢÐ¸ÑĤ":7755,"ĠÐ½ÑĭÐ½Ñ£ÑĪ":7756,"ĠÐ½Ð°ÑĢÐ¾Ð´Ð°":7757,"ĠÒĩ":7758,"Ñ£ÑħÐ°":7759,"Ð»Ð°Ð³Ð¾":7760,"ĠÑĩÑ£Ð¼ÑĬ":7761,"Ð´Ð°Ð¸":7762,"ĠÐ·Ð°ÑĥÑĤ":7763,"ÑĩÐ¸ÑģÐ»":7764,"ĠÐ¿Ð¾Ð»Ð¾Ð²Ðµ":7765,"Ð³Ð¾Ð´Ð°ÑĢ":7766,"ĠÑĦÐµÐ´Ð¾ÑĢÐ¾Ð²Ð¸ÑĩÐ°":7767,"ĠÐ¿ÑĢÐ¾Ð´Ð°Ð¶Ñ£":7768,"ĠÐ¿ÑĢÐµÑĩÐ¸ÑģÑĤÐ¾Ð¹":7769,"ĠÐ¼Ð¾Ñ¥Ð³Ð¾":7770,"Ð½Ð¾ÑĢÐ¸":7771,"Ð¼ÑĢÐµ":7772,"Ð³Ð½ÑĮ":7773,"ĠÐ½Ð°ÑĩÑĮ":7774,"ĠÐ½Ð°Ð¼Ð°":7775,"ĠÑĥÑĢ":7776,"ÑĩÐ¸Ñı":7777,"Ð¸ÑħêĻ¿":7778,"ĠÐ´ÐµÐ»Ñĥ":7779,"ĠÐ½Ð°ÑĩÐ½ÐµÑĤÑĮ":7780,"ĠÐ±Ð¸Ñİ":7781,"ĠÐ±Ð°Ñģ":7782,"Ð¾Ð»Ñĥ":7783,"Ð¶Ð°Ð»ÑĬ":7784,"ĠÑħÐ¾Ñĥ":7785,"ÑĩÐ°ÐµÑĤÑĬ":7786,"ĠÐ²ÑģÐµÑ§":7787,"ĠÑĤÐ°ÐºÐ¾Ð¼Ñĥ":7788,"ĠÐ¾Ð½Ð´ÑĢÑ£":7789,"ĠÑħÐ¾Ð´Ð¸Ð»ÑĬ":7790,"ÑĪÑĤÐ¸ÑģÑı":7791,"ĠÐ¼Ð¾ÑģÐºÐ¾Ð²ÑģÐºÐ¾Ð³Ð¾":7792,"ÑĪÑĤÑıÑı":7793,"ĠÐļÐ¸ÐµÐ²Ðµ":7794,"ĠÐ¸Ð³ÑĥÐ¼ÐµÐ½ÑĮÐµ":7795,"ÑĩÐµÑģ":7796,"Ð»Ð°Ð»ÑĬ":7797,"ÑĤÐ¾Ð¸":7798,"ÑĢÑĬÐ²":7799,"ĠêĻģÐ°ÐºÐ¾Ð½":7800,"ĠÐ¸ÑħÐ¶Ðµ":7801,"ĠÐķÐ³Ð¸Ð¿":7802,"ĠÑ¡Ð±ÑĢÑ§":7803,"ĠÐ´Ñ£ÑĤÐ¼Ð¸":7804,"ĠÐ¿ÑĢÐ¸ÐºÐ°Ð¶Ð¸":7805,"ÑģÑĤÐ¾ÑĢ":7806,"ÑĤÐ¸Ð½Ñĭ":7807,"Ð»Ð¸Ð¼Ñ£":7808,"ĠÐ½Ð¸ÐºÐ¾Ðµ":7809,"Ñ¡ÑģÐ¸":7810,"ĠÑĨÐ²Ñ£ÑĤ":7811,"ĠÑ¿Ð²Ñ£":7812,"Ð°Ð¼Ð¾":7813,"ĠÑĦÑĢÐ¾Ð»":7814,"ĠÐ½ÐµÐ¿Ð¾Ðº":7815,"ĠÐ´Ð¸êĻĹ":7816,"ĠÑĩÑĮÑģÑĤÐ¸":7817,"ĠÐ¼Ð¾Ð»Ð¸ÑĤÐ²Ñĭ":7818,"ÐµÑĩÐ°ÑĤ":7819,"ÑĤÐ¾Ð³Ð¾":7820,"ÑĪÐ¸Ð»ÑĬ":7821,"ĠÐ¡ÐºÐ°":7822,"ĠêĻĹÐ²Ñ£":7823,"ĠÑĸÐ·":7824,"ĠÐºÐ¾ÑĤÐ¾ÑĢÑĭÐ¸":7825,"ĠÐ¿ÑĢÐ°Ð²Ð´Ð¾Ñİ":7826,"ĠÑģÐ»Ð°Ð²Ð½Ð°Ð³Ð¾":7827,"ÑģÐºÐ¾Ð¼Ð¾Ñĥ":7828,"ĠÐ¼Ð¸ÑħÐ°Ð¸Ð»Ð¾":7829,"ĠêĻĩÐ»Ð¸":7830,"Ð¾Ð´Ñ£Ð¸":7831,"ĠÐ¼Ð¾Ð¶ÐµÑĪÑĮ":7832,"ĠÐ¼ÑĥÐ´ÑĢÐ¾ÑģÑĤÑĮ":7833,"ĠÐ¿Ð¾ÑīÐ°":7834,"ĠÐ·ÐµÑĢ":7835,"ÑīÐµÐ½Ð°":7836,"ĠÐ»Ñ«":7837,"ÑĩÐ¸ÑģÑı":7838,"ÑģÐºÐ°êĻĹ":7839,"ĠêĻģÑ£Ð»Ð¾":7840,"ĠÐ¿ÑĢÑ£Ð»ÑĮ":7841,"ÑĶÐ½ÑĸÑ§":7842,"ĠÐ²Ð°ÑģÑĮ":7843,"ĠÑģÑĤÑĢÐ°Ð½Ñĥ":7844,"ĠÐ¸ÑģÐ¿Ð¾Ð»Ð½Ð¸":7845,"ĠÑĢêĻĭÐºÐ¸":7846,"ÑĢÐºÑĥ":7847,"ĠÐ´Ð¾Ð·":7848,"ÑĨÐµÐ²ÑĬ":7849,"ĠÐ±ÐµÐ³Ð»ÑĭÑħ":7850,"ĠÐ¾ÑģÑĥ":7851,"ĠÐ²ÐµÑģÐµÐ»Ð¸Ðµ":7852,"ĠÐ³ÑĢÐ¾Ð±Ð°":7853,"ĠÑ¡ÐºÐ¾Ð»Ð¾":7854,"ĠÑģÐµÑģÑĤÑĢÐ¸":7855,"ĠÐ¿ÑĢÐµÐ»ÑĮ":7856,"ÑīÑ£":7857,"ĠÐĺÐ¼Ñ£":7858,"ÑĢÐµÐ½Ð¸":7859,"Ð¾ÑĥÐ¼":7860,"ĠÐ¾ÑĥÑĩÐ¸Ð½Ð¸":7861,"ĠÐ¼Ð½ÑģÑĤ":7862,"ĠÐ²ÐµÐ»Ð¸ÐºÑĸÐ¹":7863,"ĠÐµÐ¼Ð»Ð¸":7864,"ĠÑģÐ¿Ð°ÑģÐµÐ½Ð¸Ðµ":7865,"ĠÐŁÐµÑĤÑĢÐ°":7866,"ÐµÑģÐ»Ð°Ð²ÑĮ":7867,"Ġ709":7868,"ĠÐ¢ÑĢÐ¾Ð¸":7869,"ĠÐĲÐ½ÑĤÐ¸Ð¾":7870,"ĠÐ¿Ð°Ð½ÑĬ":7871,"ÑĩÐ°ÑĤÑĭ":7872,"ĠÐºÑĢÐ°Ð¹":7873,"ĠÐ»Ð°ÑģÐº":7874,"ĠÐ²ÑĤÐ¾ÑĢÐ¾Ðµ":7875,"ĠÑģÐ»ÑĥÐ¶Ð¸Ð»ÑĭÑħ":7876,"ĠÐ¿Ð¸ÑīÐ°Ð»ÐµÐ¹":7877,"ĠÐ¿ÑĢÐ¸Ð¸Ð¼Ð°":7878,"ĠÑĨÐ¾":7879,"ĠÐ¶ÑĶ":7880,"ĠÐ±Ñ£Ð³Ð°":7881,"ĠÐ»ÑĥÐºÑĬ":7882,"ĠêĻĢÐ°":7883,"ĠÑģÑĢÐ°Ð¼":7884,"ÑĤÑĨ":7885,"ÐºÐ¾Ð¶":7886,"ĠÐ³Ð°Ð»":7887,"ĠÐµÑģÑĤÐ²Ñ¹":7888,"ÑĩÐµÑģÐºÐ¸":7889,"ÑİÑĤÑģÑ§":7890,"ĠÑĩÐµÑĤÐ²ÐµÑĢÑĤÑĮ":7891,"ĠÑĨÑĢÐºÐ²":7892,"ĠÐ´ÑĸÐ°Ð²":7893,"ĠÑģÑĢÐµÐ±ÑĢÐ¾":7894,"ĠÐ³ÐµÑĢÐ¾Ð½":7895,"ÐºÑĸÐµ":7896,"ĠÐºÐ´ÑĮ":7897,"Ð´Ð¸Ð²ÑĬ":7898,"ĠÐ¾Ð±ÑĢÐ¾Ðº":7899,"Ñ¥Ð²Ð¸":7900,"ÑģÐºÐ°ÑĤÑĮ":7901,"ĠÑĦÐµ":7902,"ĠÑĦÐ°ÑĢ":7903,"ĠÑģÑĤÐ¾Ð¸ÑĤ":7904,"ĠÑģÐµÑĢÐ³Ð¸":7905,"ĠÐºÐ°Ð·Ð½ÑĮÑİ":7906,"ĠÐ²ÑĢÐ°Ð³Ð¸":7907,"ĠÐ³ÑĢÐ¸Ð²Ð½Ðµ":7908,"Ð»Ð¾Ð¶Ð¸ÑĤÑĮ":7909,"ĠêĻ©Ð²":7910,"ĠÐ³ÑĢÐ²Ð½Ð°":7911,"ĠÐ½ÐµÐ½Ð°ÐºÐ°Ð·":7912,"ĠÑĩÐµÐ»Ð¾Ð±Ð¸ÑĤÑĮÐµ":7913,"ĠÑıÐºÐ¾Ð²Ð»ÐµÐ²":7914,"ĠÐ±ÑĢÐ°ÑĪÐ½Ð°":7915,"ĠÐ´ÑĮÑģÑ§ÑĤÑĮ":7916,"ĠÐĶÐµÐ²Ð³ÐµÐ½Ð¸Ð¹":7917,"Ð´ÑĢÑĮ":7918,"ĠÐ²Ð¸Ð½Ñ£":7919,"ĠÐ²ÑĬÑģÐ¸":7920,"ĠÑģÑĤÐ°Ð»":7921,"ĠÐ¿Ð¾Ð»êĻĭ":7922,"ĠÐ³Ð¾ÑģÑĥÐ´Ð°ÑĢÐµÐ²Ð¾":7923,"ĠÐ¿ÑĢÐ°Ð²Ð´Ñ£":7924,"ĠÐ¿ÑĢÐ°Ð²Ð¸ÑĤÑĮ":7925,"ĠÑģÑĥÑīÐ°":7926,"ĠÑģÐ»ÑĭÑĪÐ°Ð²":7927,"ĠÑıÐ²Ð½Ð¾":7928,"ĠÑĢÐµÐºÑĪÐµ":7929,"ĠÐ½Ð°ÑĢÐ¾Ð´":7930,"ĠÐ´ÐµÑĢÐ¶Ð¸ÑĤÑĬ":7931,"ĠÑĦÐ¸Ð»Ð¸Ð¿":7932,"ĠÐ°Ð¼":7933,"Ð°ÑģÑĬ":7934,"Ð²Ð¸Ð´Ñ£":7935,"ĠÐ±Ñ£Ð´":7936,"ĠÐ¿Ð°Ð½Ð°":7937,"ĠÐ²ÑģÑıÐºÑĬ":7938,"ĠÑģÐ¾Ð±Ð¾Ð»":7939,"ĠÑĤÐ¾Ð¼Ð¾":7940,"ĠÐ²Ð¾ÑĢÐ¾ÑĤÐ°":7941,"ĠÐ´Ð°Ð½Ð¸Ð»Ð°":7942,"ĠÑĢÐ¾ÑģÑĤÐ¾Ð²":7943,"ĠÐºÑĢÑĬÐ²ÑĮ":7944,"ĠÐ¸ÑģÑĤÐ¾":7945,"ĠÑĤÐµÑģ":7946,"ĠÐ¿ÑĢÐ¾ÐºÐ¾":7947,"Ð¾ÑĢÐ¾Ð²":7948,"ĠÐµÑģÑĤÐ¸":7949,"ĠÑĥÑĤÐ°":7950,"Ð°Ð²ÑĮ":7951,"ĠÐ¼Ð½Ð¾Ð¶ÑĮÑģÑĤÐ²Ð¾":7952,"ĠÑĤÑıÐ¶Ðµ":7953,"ĠÐ¼ÑĬÐ½Ð¾Ð³Ð¾":7954,"ĠÐ¿êĻĭÑĤÑĮ":7955,"ĠÐ²Ð°ÑĪÐµÐ¸":7956,"Ð½ÐµÐ½Ð¾":7957,"ÑģÑĤÑı":7958,"Ð³Ð°Ð½":7959,"Ð¾Ð»Ð¾Ð¿":7960,"ĠÐ°êĻģÑĮ":7961,"ÑģÐºÑĮÑĸ":7962,"ĠÑ¡Ð±Ð°":7963,"Ð½ÑĥÐ»ÑĬ":7964,"ĠÑĪÐº":7965,"ĠÑģÑĤÐ°ÑĢÑĨÐ¾Ð¼":7966,"ĠÑķÐ°":7967,"ĠÐ±ÐµÑģÐµÑĢ":7968,"ĠÐºÑĥÐ¿Ð¸Ð»ÑĬ":7969,"ĠÑħÑĢÐ¸ÑģÑĤÐ¸Ð°Ð½":7970,"ĠÐ¼Ñ¡ÑµÑģÐµÐ¸":7971,"ĠÐ²Ñ¡":7972,"ĠÐ´Ð¾ÑĢÐ¾":7973,"ĠÐ³Ð²Ð¾Ð·":7974,"ĠÐ»Ñĭ":7975,"ĠÐĺÐ²Ð°":7976,"ĠÑ¿Ð¿êĻĭ":7977,"ĠÐ¿Ð¾ÑģÑĤÐ°Ð²Ð¸ÑĤÑĮ":7978,"ĠÑĥÑĩÐ¸Ð½Ð¸ÑĤ":7979,"ĠÑģÐºÐ°Ð·Ð°ÑĤÐ¸":7980,"ĠÑģÐ½Ð°ÑĢÑıÐ´ÑĬ":7981,"ĠÐºÐ»Ð¸Ð¼":7982,"ĠÐºÐ»ÑİÑĩÐ½Ð¸ÐºÑ¹":7983,"ĠÐ¼Ð°ÑĤÑĥÑĪÐºÐ°":7984,"ÐµÑħÐ°":7985,"ĠÐ¸ÐºÐ¾Ð½":7986,"Ñ£Ð¼ÑĮ":7987,"ĠÐºÐ»Ð°Ð´":7988,"êĻĭÐ¼Ñ£":7989,"ĠÐ¿ÑĢÐ¾ÑģÑĤÑĢÐ°":7990,"ĠÐ¿ÑĢÐ¾ÑĩÐµÐµ":7991,"ÐµÐ½ÑĮÐ¸":7992,"ĠÐ±Ð¾Ð³ÑĮ":7993,"ĠÐ¼Ð°ÑİÑĤÑĮ":7994,"ĠÑĢÐ¾Ð´Ð¸ÑĤ":7995,"ĠÑģÐ¾ÑĤÐ²Ð¾ÑĢÐ¸ÑĪÐ¸":7996,"ĠÐ¿Ð¾ÑĩÐ°Ð»ÑĬ":7997,"ĠÑģÐºÐ¾ÑĢÐ±Ð¸":7998,"ĠÐ¾Ð±ÑĢÑ£ÑģÑĤÐ¸":7999,"ĠÑĢÐ¾Ð¼Ð°Ð½":8000,"ĠÐºÐ¾ÑĢÐ°Ð±Ð»Ð¸":8001,"ĠÑģÐ¾Ð´Ñ£":8002,"ĠÑģÑĭÐ¸":8003,"ĠÐ´ÐµÑĢÐ¶Ð¸":8004,"ĠÑģÐ°êĻĭ":8005,"ĠÑħÐ¾ÑīÑĥ":8006,"ĠÑĢÑ£ÑĨÑ£":8007,"ĠÐ¿Ð¾Ð±Ð¸Ð»ÑĬ":8008,"ĠÑĩÑĮÑĢ":8009,"ĠÐºÐ¸ÑĢ":8010,"ĠÐ²Ð¿ÑĢÐ¾Ðº":8011,"ĠÐ²ÑĢÑ£Ð¼Ñ§":8012,"ĠÑĪÐ°Ð½ÑĨÑĭ":8013,"ĠÐ´ÑĢÑĥÐ¶Ð¸Ð½Ñĥ":8014,"ĠÐ²Ñ£ÑĤÑĢÑĬ":8015,"ĠÑĩÐ¾Ð»Ð¾Ð²Ðµ":8016,"ĠÐ²Ð¾ÑģÐºÑĢÐµÑģ":8017,"ĠÐ¿ÑĤÐ°":8018,"ĠÐ½ÐµÐ·":8019,"ĠÐ·ÑĢÑı":8020,"ĠÐ½Ð¸ÑĦÐ¾Ð½":8021,"ĠÐ»ÑİÐ±Ñı":8022,"ĠÐ´Ð¾Ð±ÑĢÑĥ":8023,"ĠÐºÐ¾Ð½Ð´ÑĢÐ°":8024,"ĠÑģÐ°Ñħ":8025,"ĠÐ±Ð»ÑĥÐ´":8026,"ĠÑĨÑĢÑİ":8027,"ĠÐ±ÐµÑģÑĩÐµÑģÑĤÐ¸":8028,"ĠÐ±ÑĢÐ°ÑĤÑĸÐ¸":8029,"ĠÑĤÐ¸ÑħÐ°Ð½":8030,"ĠÑĤÐ°ÑĢ":8031,"ĠÐºÐ´Ñ£":8032,"ĠÐĴÑĤÐ¾ÑĢ":8033,"Ð²ÑĮÑĢÑĮ":8034,"ĠÐ¿Ð¾Ð¿ÐµÑĨ":8035,"ĠÐ»ÑİÐ±Ð¸ÑĤÐ¸":8036,"ĠÐ³Ð»Ð°ÑģÐ¾Ð¼ÑĬ":8037,"ĠÐºÑĢÐ°ÑģÐ½Ð¾":8038,"ĠÐ¦Ð°ÑĢ":8039,"ĠÑĩÐµÐ»Ð¾Ð±Ð¸ÑĤÑĮÑı":8040,"ĠÐ´Ð¾Ð¼Ð¾ÑĩÐ°Ð´":8041,"ĠÑĩÑĤÐ¸":8042,"Ð¾Ð¿Ð¸Ñģ":8043,"ĠÐ²ÑĭÐ¿":8044,"Ð¾Ð²ÑĭÐ¹":8045,"ĠêĻģÐ»Ð¾Ð±":8046,"ĠÐ²Ð·ÑıÐ²":8047,"ĠÐºÐ¾ÑĤÐ¾ÑĢÑĭÐ¼Ð¸":8048,"ĠÐ²ÐµÑĢÐ²ÑĮ":8049,"ÐºÐ¾Ð¼êĻĭ":8050,"ÑĤÑ£Ð¸":8051,"ÑģÑĤÑ£ÑħÑĬ":8052,"ĠÐ±Ð°ÑĪ":8053,"ĠÐ¤ÐµÐ´Ð¾ÑĢ":8054,"ĠÑģÐ¾Ð²Ð¾ÐºÑĥÐ¿":8055,"ĠÑ¡Ð±ÑĢÐ°Ð·":8056,"ĠÐ¡Ð¾Ð»Ð¾Ð²ÑĮÑı":8057,"ĠÐ²Ñ£Ð´Ð¾Ð¼":8058,"ĠÐ²Ð¸ÑĤÐµÐ·":8059,"ĠÐ´Ð»Ð¸Ð½Ñĥ":8060,"ĠÐĶÐ¾Ð±ÑĢÑĭÐ½ÑİÑĪÐºÐ°":8061,"ĠÐŁÐ¾ÑĤÐ°Ð½ÑĨÑĭÑıÐ½Ð°":8062,"ĠÑģÑģ":8063,"ÑħÐ¾Ð½":8064,"ĠÐ½ÐµÑĥ":8065,"ĠÐ²Ñ£ÑģÐ¾Ð¼ÑĬ":8066,"ĠÐ¿ÑĢÐ¾ÐµÐ·":8067,"ĠÐ²Ð¾Ð»ÐµÑİ":8068,"ĠÐ¿Ð°Ð´Ð°":8069,"ĠÑģÐ¾Ð±Ð°ÐºÐ°":8070,"ĠÑģÑĥÐ¶Ð´Ð°":8071,"ĠÑĨÑ£Ð»":8072,"ĠÑıÐ·ÑĭÐºÐ¸":8073,"ĠÐĳÐ¾Ð¶Ð¸Ð¹":8074,"ĠÐ·ÑĬÐ»Ð¾":8075,"ĠÐĨÐ²Ð°Ð½":8076,"Ñ¿Ð²Ñ£":8077,"ĠÑĤÑĢÐµÑĤÐµÐ¹":8078,"ĠÑģÑĤÐ°ÑĢÑ£Ð¸ÑĪÐ¸":8079,"Ð¸ÑħÐ¾Ð¼":8080,"ĠÑĩÐµÐ»Ñ§":8081,"ĠâĢĻ":8082,"ĠÐºÐ½ÑıÐ·ÐµÐ¼ÑĬ":8083,"ĠÐ½Ð¾ÑĩÐ¸":8084,"ĠÐ²ÑģÑıÐºÐ°Ð³Ð¾":8085,"ĠÐ³ÑĢÑ£ÑħÐ¾Ð¼ÑĬ":8086,"ĠÑģÐµÐ¼êĻĭ":8087,"ĠÐºÐ°Ð·Ð½Ñĭ":8088,"ĠÐ¿ÑĢÐ¸ÑĪÐ»Ð°":8089,"ĠÐ½ÐµÐ±ÑĢÐµ":8090,"ĠÐ²Ð¾Ð¹ÑģÐºÑĥ":8091,"Ð´ÐµÑģÑ§ÑĤÑĬ":8092,"ĠÐ¿ÐµÑĢÐµÑıÑģÐ»Ð°Ð²":8093,"Ð·ÐµÐ¼":8094,"Ð½Ð¸ÑĤÐµ":8095,"ÐµÑĤÑģÐµ":8096,"Ð¾Ð´Ñ¹":8097,"ĠÐ·ÐµÐ»ÑĮ":8098,"ÑĢÑ£Ð²ÑĬ":8099,"ĠÐµÐ»Ð¸ÐºÐ°":8100,"ĠÑģÑĭÑģÐºÐ¸Ð²Ð°ÑĤÐ¸":8101,"ÐµÑģÑı":8102,"Ð»ÑŃ":8103,"ĠÐ¿ÑĢÐµÐ»Ðµ":8104,"ÑĸÑĸ":8105,"Ð¸ÑĤÐ¾Ð²":8106,"ĠÑıÐ¼Ñĭ":8107,"êĻĳÑģÐ»Ð¸":8108,"ĠÐ¸Ð·Ð¼Ð°":8109,"ĠêĻĭÐ¼":8110,"ĠÐ¼ÑĥÑĩÐµ":8111,"ĠÑĩÐ¸ÑģÑĤÑĭ":8112,"ÑģÐºÑĭÐµ":8113,"ĠÐ¿Ð¾ÑħÐ²Ð°Ð»Ð°":8114,"ĠÐ´Ð¾ÑĢÐ¾Ð³Ðµ":8115,"ĠÐ»Ð¾Ð¿":8116,"Ð¶ÐµÐ²":8117,"ĠÐ¾Ð±ÑģÑĤÐ¾":8118,"ĠêĻģÐ´Ðµ":8119,"ĠÐ´ÐµÐ»Ð°ÑĤÐ¸":8120,"ĠÑģÑĮÐ´Ðµ":8121,"ĠÑģÑĮÑĤÐ²Ð¾ÑĢ":8122,"ĠÐºÐ½Ð¸Ð³ÑĬ":8123,"ĠÐ²ÑĢÑ£Ð¼Ðµ":8124,"ĠÐ´ÑĢÑĥÐ³Ð°Ñı":8125,"ĠÐ¸Ð´ÑĤÐ¸":8126,"ĠÐ´Ð¾ÑĢÐ¾Ð³Ð¾Ñİ":8127,"ĠÐµÑħÐ°ÑĤÐ¸":8128,"ĠÐ»Ð°Ð·Ð°ÑĢ":8129,"ĠÐ¾ÑĤÐ²Ð¾Ð´":8130,"ÑĪÐ°Ð¹":8131,"Ð¾Ð²Ð°ÑĤ":8132,"ĠÑĢÐ°Ð·Ð±Ð¾Ð¸":8133,"ÑģÐºÑĭÐ¹":8134,"ĠÐ¿Ð¾Ð½Ð¸":8135,"ĠÑłÑĤ":8136,"ĠÐ´Ð¾ÑģÑĤÐ¾Ð¸Ð½ÑĬ":8137,"ĠÐ¿Ð¾Ð»Ð¾Ð¶Ð¸ÑĤ":8138,"ĠÑĤÐ¾Ð³Ñ¡":8139,"ĠÑĢÐ°Ð·Ð±Ð¾Ð¹Ð½Ð¸ÐºÑĬ":8140,"ĠÐ¸ÑģÐºÐ°ÑĤÑĮ":8141,"ĠÐ´Ñı":8142,"ĠÐ»Ñı":8143,"ĠÐ»ÐµÐ²Ð°":8144,"ÑĢÐ¸Ð»Ð¸":8145,"ĠÐ¼Ð¾ÑģÑĤÐ¾Ð²":8146,"ĠÐ¿Ð¸Ð²Ð¾":8147,"ĠÐ³Ð»Ð°Ð³Ð¾Ð»ÐµÑĤÑĮ":8148,"ĠÑģÐ½Ð¾Ð²Ð¸":8149,"ĠÐ½Ð°ÑĩÐ°Ð»ÑĮ":8150,"ĠÐ²ÐµÑĩÐµÑĢ":8151,"Ġ000":8152,"ÑĤÑĸÐ°":8153,"ÑĪÐ°Ð°":8154,"ÑģÑĤÐ°Ñı":8155,"ĠÐ²Ð¾Ð·Ð½ÐµÑģ":8156,"ĠÑģÑĥÑģÑ£":8157,"ĠÐĴÐ¾Ð»Ð¾Ð´Ð¸Ð¼ÐµÑĢÑĬ":8158,"ĠÐ¿Ð¸ÑĤÐ°":8159,"ĠÑĤÐµÐ»ÑĮ":8160,"Ð¸ÑĤÐ°ÑĤÐ¸":8161,"Ð°ÐºÐ¾Ð¼":8162,"ĠÑ¿Ð¸Ð´Ðµ":8163,"ÑĩÐ°ÑĪÐµ":8164,"ĠÑĨÑĢÑ§":8165,"ĠÐ³ÑĢÐ¾Ð¼":8166,"ĠÐ´ÑĢÑĥÐ·Ð¸Ð¸":8167,"Ð¼ÐµÑĤÑĮ":8168,"ÑģÑĤÐ¸ÑĤ":8169,"ĠÐ¾ÑĢÐ°":8170,"ÑĤÐ¸Ð¸":8171,"ĠÐ³ÐµÑĢÐ°":8172,"ÐµÐ½Ñ§":8173,"ĠÐ¡Ð²Ñ£":8174,"ÑĩÑĮÑı":8175,"ĠÑģÐ°Ð¼Ðµ":8176,"ĠÐ´ÑĢÐ¾Ð²Ð°":8177,"ĠÑĢÑĭÐ´Ð°":8178,"ĠÐ¾Ð³Ð¾Ð²Ð¾ÑĢ":8179,"ĠÐ±ÑĥÐ´ÑĥÑĩÐ¸":8180,"ĠÐ»Ñ¹ÑĩÐ¸ÑĤ":8181,"ĠÐ±Ð¾Ð»ÑĮÑĪÐ¾Ð¼Ñĥ":8182,"ĠÐ¿Ñ£ÑģÐ½Ð¸":8183,"ĠÐ¿Ð¾ÑĢÑ§Ð´Ð½Ñ§":8184,"ĠÑģÑĤÑĢÑ£Ð»ÑıÑİÑĤÑĬ":8185,"ĠÐºÐ°Ð±Ð°Ð»Ð°Ð¼":8186,"ĠÑĤÑĢÐµÐ¼":8187,"ĠÐ¼Ð¾Ð»ÑĮ":8188,"ĠÑ¡Ð»Ð³":8189,"ĠÑĤÐµÐº":8190,"ÑĤÑĭÐ¹":8191,"Ð³Ð¾ÑĢÑĮ":8192,"ĠÐ»ÑİÐ±Ð²Ðµ":8193,"ĠÐ²ÐµÑģÑĥ":8194,"ĠÐ¼êĻĭÐ¶Ð°":8195,"ĠÑĥÐ±Ð¸ÑĤ":8196,"ĠÐºÑĢÐµÑģÑĤÑĮÑıÐ½Ð¸Ð½Ð°":8197,"ĠÑģÑĤÐ²Ð¾ÑĢÐ¸ÑĤÐ¸":8198,"ĠÐ²Ð°Ð²Ñµ":8199,"Ð³ÑµÐ¿ÐµÑĤ":8200,"ĠÐ½Ð°Ð¸Ð¿Ð°ÑĩÐµ":8201,"ÑģÐ°Ð½":8202,"ĠÐ¸Ð´ÐµÑĤ":8203,"ĠÐ½ÐµÐ¿Ð¾Ð´Ð¾Ð±":8204,"ÑĩÐµÐºÑĬ":8205,"Ð¸Ð¼Ðµ":8206,"ĠÐ¾ÑĥÐ³":8207,"Ñ¥ÑĪÐ¸":8208,"ĠÐ¶Ð¸Ð²Ð¸":8209,"ĠÐ½Ð°Ð¿Ð¾Ñģ":8210,"ĠÐ¼ÑĮÑĢÑĤ":8211,"ĠÐ¿ÑĢÑĸÐ¸Ð´Ð¾ÑĪÐ°":8212,"ÑģÑĤÐ²Ð¸Ð¸":8213,"Ð´ÐµÑģÑıÑĤÑĬ":8214,"ĠÑģÑĥÐ¿Ð¾ÑģÑĤ":8215,"ĠÐ²ÐµÑĢÑĮÑħ":8216,"ĠÑģÑ¡":8217,"ĠÐ½Ð¾Ñĥ":8218,"ÑħÐ°Ð»":8219,"ĠÐ³Ð¾Ð²Ñ£":8220,"ĠÑĢÑĨÑĭ":8221,"Ð¶Ð´êĻĭ":8222,"Ð¾ÑģÑĥ":8223,"ĠÑĢÐ°Ð±Ð¸":8224,"Ð½Ñ§Ñ§":8225,"ĠÐķÐ»Ð¸ÐºÐ¾":8226,"ĠÐ³Ð¾ÑĢÐ¾Ð´Ð¾Ð¼":8227,"Ð»ÐµÐ²ÑĭÑħÑĬ":8228,"ĠÐºÑĥÐ¿Ð¸Ð»Ð¸":8229,"ĠÐ¼Ñ§Ñģ":8230,"Ð¸ÑĪÐ°ÑģÑı":8231,"ĠÐĸÐ¸":8232,"ĠÑģÐµÐ´Ð¼Ð¸":8233,"ĠÐ´ÑĢÑĮÐ·":8234,"ĠÐ½Ð°Ð·Ð°Ð´Ð¸":8235,"Ð¸Ð¼Ñ£":8236,"ĠÑĤÐµÐºÑĥ":8237,"Ð´ÑĮÑİ":8238,"ĠÑĢÑ£ÑħÑĬ":8239,"ÑĪÑĤÐµÐ¸":8240,"ĠÐ±ÑĢÐ°ÑĤÑĸÐµ":8241,"ĠÐ¾Ð±Ð°ÑĩÐµ":8242,"ĠÐ°Ð»ÑĤÑĭÐ½Ð°":8243,"ÑģÐ²Ð¾":8244,"ĠÐ¿ÐµÑģ":8245,"Ð½Ð¸ÑĩÐ°":8246,"ÑīÐµÐ¼Ñĥ":8247,"ÑĩÐ¸ÑħÑĬ":8248,"Ð¸ÑģÑĮ":8249,"ÑĨÐ°Ð¼":8250,"ĠÐ¿Ð¾Ð¼Ð¸":8251,"ĠÑĤÐ°Ð±":8252,"ĠÐºÐ¾ÑĤÐ¾ÑĢÐ¾Ñİ":8253,"ĠÐºÐ°Ð·Ð°ÐºÐ¸":8254,"ĠÑģÑĤÐ¾ÑĢÐ¾Ð¶Ð°":8255,"ĠÐ³Ð¾Ð»ÑĥÐ±Ð¸":8256,"ĠÐ³ÑĢÐ¸Ð²ÐµÐ½Ð¾":8257,"ĠÐ¼Ñ§ÑģÐ¾":8258,"ÑĤÐ²Ñ¹":8259,"ĠÐ¿Ð°Ð¼Ñ§ÑĤ":8260,"ĠÐ¸Ð¼ÐµÐ½ÐµÐ¼":8261,"ĠÐ²ÑģÑ§ÐºÐ¸Ð¼ÑĬ":8262,"ĠÐ¿ÑĢÐ¾ÑģÑĤÐ¸ÑĢÐ°":8263,"ÐµÑı":8264,"Ð¸Ð¹":8265,"Ð½Ð¸Ð¼Ð¸":8266,"Ð»Ð°Ð´Ð°":8267,"ÐµÑĢÐ´":8268,"ÐºÐ°Ð°":8269,"ĠÐ¿ÑĢÐ¸ÐºÐ»Ð°":8270,"ĠÐ·Ð°Ð³":8271,"ĠÑĤÐ²Ð¾ÐµÐ¼êĻĭ":8272,"ÑĢÐ¾ÑģÑĤÐ¸Ñİ":8273,"ĠÐ½Ð¾Ð³Ð°ÑĤÑ£":8274,"ĠÐ¿ÑĢÐ¾Ð¼ÑĭÑģÐ»ÑĬ":8275,"ĠÑĩÐ¸ÑģÑĤÐ¾Ð¼ÑĬ":8276,"ĠÐ¿Ð¾ÑĢÐ¾Ð´":8277,"ĠÑĤÐ¾Ð³Ð°":8278,"Ð±Ñ«":8279,"ĠÐ»ÐµÑĤÑĬ":8280,"ĠÐ²ÑĬÑģÐºÐ¾ÑĢÑ£":8281,"Ð¸Ð»Ñĭ":8282,"ĠÐ¿Ð¾Ð»Ð°ÑĤÑĥ":8283,"ĠÐ¸Ð¼Ð¶Ðµ":8284,"ĠÑĪÐ»Ð¸":8285,"ĠÐ¼ÑĥÑĢÐ¾Ð¼":8286,"ĠÐ¼ÑĭÑĤ":8287,"ĠÐ¿Ñ£ÑĤÐ¸":8288,"ĠÐ¼Ð°Ð½Ð°ÑģÑĤêĻĳ":8289,"ĠÐ²ÑģÑ§ÐºÐ¸ÑħÑĬ":8290,"ĠÐ»ÐµÐ²Ð¾Ð½":8291,"ĠÐ¸Ð¼ÑĮÐ¶Ðµ":8292,"ĠÑĤÑĢÑıÐ¿ÐµÐ·":8293,"ÂŃ":8294,"Ð¿Ð»ÑĬ":8295,"ĠÐ·Ð»Ñ£":8296,"ÐµÐ½ÑģÐºÐ¾Ð³Ð¾":8297,"ĠÐ²ÑĬÐ²ÐµÐ´Ð¸":8298,"Ð¾ÑģÑı":8299,"ĠÐ½Ð¸ÐºÐ¸":8300,"Ð°Ð¼ÐµÑĤ":8301,"ĠÐ¢ÑĢÐ¸":8302,"ĠÐ²ÑĭÑĪÑĮ":8303,"ĠÐ±ÑĢÐ°Ð½":8304,"ĠÑ¹ÐºÑĢÐ°":8305,"ĠÑģÑĤÐ°ÑĢÑĭÐµ":8306,"ĠÐ¿Ð»Ð°Ð²Ð°":8307,"ĠÐ¿ÐµÑĩÐ¸":8308,"ĠÐ³Ð¾Ð²Ð¾ÑĢÐ¸ÑĤ":8309,"Ð¶Ð´ÐµÐ½":8310,"ĠÑģÐ²Ð¾ÐµÐ¼Ñ¹":8311,"ÑģÐ¾Ñĥ":8312,"ĠÐ²Ð»Ð¾Ð¶Ð¸":8313,"ĠÐ¿Ð¾Ð¼Ð¸Ð»Ñĥ":8314,"ĠÑħÐ¾ÑīÐµ":8315,"ĠÐ»ÑĥÐº":8316,"ĠÐ²Ð¾ÑĢÐ¾Ð½":8317,"ĠÐ¾ÑĤÐ´Ð°Ð½Ñĭ":8318,"ĠÐ½Ð¾Ð²Ð³Ð¾ÑĢÐ¾Ð´ÑĨÐ¸":8319,"ĠÑħÐ¾ÑĢÐ¾Ð¼":8320,"ÑĢÑĤÑĮ":8321,"ĠÐ¿Ð¾Ð²Ð¸":8322,"Ð·Ð±Ð°Ð²":8323,"ĠÐ³Ð¾Ð¹":8324,"ĠÐ¿Ð¾ÑĩÑĮ":8325,"Ñ¹Ð¿":8326,"Ð¾Ð·Ð½Ð°":8327,"ĠÐĴÐ¾Ð»ÑĮ":8328,"ĠÐ²Ñ£Ð¶":8329,"ĠÑģÑĭÑĢÑĥ":8330,"Ð±Ð¾ÑĪÐ°":8331,"ĠêĻĬ":8332,"ĠÐ¿Ð¾Ð±Ðµ":8333,"ĠÐ¼ÐµÐ½ÑĶ":8334,"ĠÐ¿ÑĢÐ¸Ð¸Ð¼ÐµÑĪÐ¸":8335,"ĠÐ¿ÑĢÐ¾Ð³Ð½Ð°":8336,"Ð»Ð¸Ð¼Ð¿Ð¸Ñı":8337,"ĠÑģÐµÐ½Ð°":8338,"ĠÐ²Ð¸Ð½Ñĥ":8339,"ĠÐ½ÐµÐ²Ð¾":8340,"ĠÐ·Ð¸":8341,"ĠÑĥÐ¿":8342,"ĠÐ²ÑĬÐ½Ð¸":8343,"ÑĩÐµÐ²Ð°":8344,"Ð»ÑıÐ½":8345,"ĠÐ¿Ð¾Ð¼Ð¾Ð¶Ðµ":8346,"ÑĢÑĭÐ¸":8347,"ĠÐ¿Ð¾ÑĢÐ°Ð·":8348,"ĠÐ±Ð¾Ð»Ñı":8349,"ĠÐ±Ð¾ÑıÑĢÑĬ":8350,"ĠÐ½ÐµÐ¿ÑĢÐµ":8351,"ĠÑģÑ¹Ð´Ð°":8352,"ĠÐ¼Ð¾Ð¶ÐµÐ¼ÑĬ":8353,"ĠÐ³ÑģÐ´ÑĢÐ½Ð¸":8354,"ĠÐ²ÐµÐ·Ð´Ñ£":8355,"ĠÐ±Ð»Ð°Ð³Ð°Ñı":8356,"ĠÐ¸Ð¼ÑıÐ½Ð½Ð¾":8357,"ÑģÑĨ":8358,"ÑĮÑĤÐ¾":8359,"Ð¾Ð²Ð»Ð°":8360,"ĠÐ¾ÑĤÐ²ÐµÑĢ":8361,"ĠÑĢÐ°Ð¶Ð´Ð°":8362,"Ð¶Ð¸ÑĪÐ¸":8363,"ĠÑģÑĤÑĢÐ°Ð½ÑĬ":8364,"ĠÑĤÐ²Ð¾ÑĢÑıÑĤ":8365,"ĠÐ³ÑĢÑ¹":8366,"ĠÑĢÐ¾Ð·Ð´Ð°":8367,"ĠÐ´Ð½ÑĸÐ¸":8368,"ĠÐ½ÐµÐ´ÐµÐ»ÑĮ":8369,"ĠÑĨÑ£Ð»Ð¾Ð²Ð°":8370,"ĠÐ½Ð°Ð¿Ð°ÑģÑĤÑĮ":8371,"Ð¼ÐµÐ½Ñĭ":8372,"ĠÐ½ÐµÐ²ÐµÑĢ":8373,"ÑīÐµÐ½ÑĬ":8374,"Ð°Ð¼ÑĮ":8375,"ÑĤÐ°Ð°":8376,"ĠÐ½Ð°Ð¿Ð¾":8377,"ĠÑĨÑĢÑģÑĤÐ²Ð¾":8378,"ĠÐ³Ð»Ð°Ð³Ð¾Ð»Ð°ÑĪÐµ":8379,"ĠÐ¿ÑĢÐ¾ÑĤÐ¸Ð²êĻĭ":8380,"Ð½Ñ«Ñ§":8381,"ĠÐ¼ÐµÐ¶Ð´êĻĭ":8382,"ĠÑģÐ¸ÑĢÐ¾ÑĤÐ°":8383,"ĠÑħÑĢÑģÑĤÑĹÑ§":8384,"ĠÐ½Ð¾Ð³Ð¾":8385,"ĠÑĤÑ«":8386,"ÑħÐ¾Ð²ÑĮ":8387,"ÑĤÐ¸Ñ§":8388,"ĠÐ±Ð¾Ð³Ð´Ð°":8389,"ĠÐ³Ð»Ð°ÑģÐ°":8390,"ĠÐ±Ð»Ð°Ð³Ð¾Ð´Ð°ÑĤÑĮ":8391,"ĠÑģÐ¿ÑĢÐ°ÑĪÐ¸Ð²Ð°ÑĤÑĮ":8392,"Ð´ÑĨÐ°ÑĤÐ¸":8393,"ÑĢÐº":8394,"ĠÐ»Ð°Ð´":8395,"ĠÑĥÐ²":8396,"ĠÐ¿ÑĢÐ¸ÑıÑĤÐ¸":8397,"ĠÐ¡Ð¼":8398,"ĠÐ¿ÑĢÐ°Ð¿Ð¾ÑĢ":8399,"ĠÑĢÐ¾ÑģÑħÐ¾Ð´":8400,"ĠÐ´Ð°ÑĢÐ¾Ð²Ð°":8401,"ĠÐŁÑĢÑĸ":8402,"ĠÐºÐ°Ð±Ð°Ð»Ðµ":8403,"ĠÑģÑĤÑĢÑ£Ð»ÑĮÐ±Ð¾Ñİ":8404,"ĠÐ¿ÑĥÑĪÐºÐ°ÑĢÑģÐºÐ°Ð³Ð¾":8405,"ĠÐ±ÑĢÐ¾ÑģÐ°ÑĤÐ¸":8406,"ĠÐ¿ÑĥÑĪÐºÐ°Ð¼ÑĬ":8407,"Ð¾Ð²Ð¸Ð½":8408,"Ð½Ð¸ÑĨÑ§":8409,"ĠÐ½ÐµÑīÐ°":8410,"ĠÐ²ÑģÐµÐ»Ð¸":8411,"ĠêĻĹÐ²Ð¸":8412,"ĠÐ¿Ð¾Ð´ÑĢÑĥ":8413,"ĠÐ¿ÑĢÐ¾êĻģ":8414,"ĠÐ±Ñ£ÑģÐ¸":8415,"ĠÐ¸Ð¼Ñ£ÑİÑĤÑĬ":8416,"ĠÐ²Ð¾Ð»Ð¾Ð´Ð¸Ð¼ÐµÑĢÐ¸":8417,"ĠÐ·Ð´Ñ£ÑģÐµ":8418,"ĠÐ¿ÑĢÐµÑĩÐ¸ÑģÑĤÑĭÑı":8419,"ĠÐ¼ÑĥÐ¶Ñı":8420,"ĠÐ¶ÐµÐ¼ÑĩÑİ":8421,"Ð½ÐµÐ½Ñĭ":8422,"Ñ£ÑĪÐµ":8423,"ÑĭÐ½Ñı":8424,"ĠÐ¼Ð¾Ð°":8425,"ĠÐºÐ¾Ñı":8426,"ĠÑĤÐ°ÐºÐ°":8427,"ÑģÐºÑĭÑ§":8428,"ĠÐ¼ÐµÐ½ÑĪÐ¸":8429,"ĠÑ³ÐµÐ´Ð¾ÑĢÐ°":8430,"ĠÐ·Ð¾Ð»Ð¾ÑĤÐ°":8431,"ĠÐ½Ð°Ð¿Ð¸ÑģÐ°Ð½":8432,"ĠÐ¶ÐµÑģÑĤÐ¾ÐºÐ¾Ðµ":8433,"Ð°êĻĹ":8434,"ÑĢÐ³Ð¸":8435,"ĠÐ½Ñ¥":8436,"ĠÐºÐ¾Ð´":8437,"ÑĪÐºÐ¾Ñİ":8438,"Ð±ÑĸÐµ":8439,"ÑĤÐ¸Ðµ":8440,"Ð»Ð°Ñ§":8441,"Ð¶Ð¸Ñħ":8442,"ĠÐ¶ÑĢÑĬ":8443,"ÑģÐ¸Ñİ":8444,"Ð¼Ð°Ð³Ð¾":8445,"ÑĥÑİÑĤ":8446,"ĠÐ±Ð»Ñ¹Ð´":8447,"ĠÐ¼Ð¾ÐµÑİ":8448,"ĠÑģÑĤÐ¾ÑĢÐ¸":8449,"Ð½Ð¸ÑĨÐ°ÑħÑĬ":8450,"ĠÐ±êĻĭÐ´Ðµ":8451,"ĠÐ¶ÐµÐ»Ñ£Ð·Ð¾":8452,"ĠÐ½Ð°Ð¿ÐµÑĢÐµÐ´Ð¸":8453,"ĠÐĴÐ»Ð°Ð´Ð¸Ð¼ÐµÑĢÑĮ":8454,"ĠÑĥÑħÐ²Ð°ÑĤÐ¸":8455,"Ð²ÑĪÑİ":8456,"ÐºÐ°ÑĢ":8457,"ĠÐ½Ð¾Ð²Ðµ":8458,"ÑİÑĢÐ¸":8459,"ÑĤÐ¸ÑģÑ§":8460,"Ð²ÑĬÑĪÐ¸":8461,"ĠÐ´ÐµÑĢÐµÐ²Ð¾":8462,"ÐµÐ½Ð¸êĻĹ":8463,"Ð³Ð¸Ð½Ð°":8464,"ĠÐ³Ð¾ÑĢÐ¾Ð´Ð¾Ð¼ÑĬ":8465,"Ð¿Ð°Ð»Ð¸":8466,"ĠÐ²ÐµÐ»Ð¸ÐºÐ¸Ñı":8467,"ĠÐ²Ð¾Ð»Ð¾Ð´Ð¸Ð¼ÐµÑĢÑĮ":8468,"Ð¾Ð»ÑİÐ±ÑĮ":8469,"ĠÐ»Ð°Ð²ÐºÐ¸":8470,"ĠÑħÑĢÑģÑĤÑĸÑ§":8471,"ÑĭÐ½Ñ£":8472,"ÑĪÐµÐ»":8473,"ÑĪÑıÑĤÐ¸":8474,"ĠÐ¼Ð°ÑĢÑĮ":8475,"ĠÐ¿ÑĢÐ¸ÑĤÐ¸":8476,"ĠÐ¿Ð¾Ð»ÑĤÐ¸Ð½":8477,"ĠÑĤÐ°ÐºÐ¾Ð³Ð¾":8478,"ĠÐ²Ð¾Ð·Ð°":8479,"ĠÑģÐºÑĢÑĬ":8480,"ĠÐ¼Ð¾Ð»Ð¾Ð²Ð¸":8481,"ĠÐ¼Ð°ÑģÑĤ":8482,"ĠÑĩÐµÑĢÐºÐ°":8483,"ĠÐ±ÐµÑĪÑĤÑĮ":8484,"ĠÐ¼Ð°ÑĤÐµÑĢ":8485,"ĠÐºÐ¾ÑĥÐ½Ðµ":8486,"ĠÑģÐºÐ¾ÑĢÐ±ÑĮ":8487,"ĠÐ²ÑĬÑģÑħÐ¾ÑĤÑ£":8488,"ĠÐ³ÑĢÐ¸Ð²ÑĮÐ½Ð¾Ñĥ":8489,"ĠÐ¿ÑĢÐ¾ÐºÐ»Ñı":8490,"ĠÐ¿Ð¾Ð»Ð¸ÑĩÐ½Ð¾Ðµ":8491,"ĠÑ»ÑģÐ¿Ð¾Ð´Ð¸Ð½Ðµ":8492,"ĠÐļÐ°ÑĢÑĤÐ°":8493,"Ð´Ð¸ÑĤÑĬ":8494,"ÑĭÐ¼Ð°":8495,"ÑĩÐ°Ð»ÑĮ":8496,"Ñ§Ð½ÑĬ":8497,"ÑīÑ«":8498,"Ð¼Ð¸Ð½":8499,"Ð´ÐµÑĨÑĮ":8500,"Ð´Ð¸ÑĪÐ°":8501,"Ð°ÑģÐ¸":8502,"ĠÑĤÐ°ÐºÐ¾Ð²ÑĬ":8503,"ĠÑĦÐ¸":8504,"ĠÑģÐ°Ð²Ð°":8505,"ĠÐ·Ð°Ð¿Ð°Ð´":8506,"ÑİÑĤÑĨÐ°":8507,"ĠÐ³Ð¾ÑģÐ¿Ð¾Ð´Ð¸Ð½ÑĮ":8508,"ĠÑĨÑ£Ñģ":8509,"ĠÑĥÐ¼ÑĢÐµÑĤ":8510,"ĠÐ¿ÑĢÐ¾Ð´Ð°ÑĤÐ¸":8511,"ĠÐ½ÐµÐ¼Ð¾ÑīÐ¸":8512,"ĠÐ½Ð°Ð¼Ñ£ÑģÑĤ":8513,"ĠÑĤÐ¸ÑĤÑĥ":8514,"ĠÐºÐ¾Ð³Ð°":8515,"ĠÐ³ÑģÑĮ":8516,"Ð½Ð¸ÑĨÐµÑİ":8517,"ĠÐ¿ÑĢÐ¸Ð»Ñĥ":8518,"Ð´Ð¸Ð¼":8519,"ÑĩÐ°ÑĤÑĬ":8520,"ĠÐ¿Ð¾Ð¼Ð°":8521,"Ð¶Ð°Ñħ":8522,"ĠÐ±Ñ£Ð»Ð¾":8523,"ĠÐ³Ð¾ÑĢÐ¾":8524,"ĠÐµÑģÐ¼ÑĬ":8525,"ĠÐļÐ¸ÐµÐ²Ñĥ":8526,"ĠÐ³ÑĢÐ¾Ð±ÑĬ":8527,"Ð¿ÑģÐ²Ð°":8528,"Ïĥ":8529,"ĠÐ´Ð½ÐµÐ¹":8530,"ĠÑĤÐ²ÑĮÑĢ":8531,"ĠÐ¼Ð¸Ð»Ñĥ":8532,"Ñ§ÑģÐ»Ð°Ð²":8533,"ĠÐ·Ð±":8534,"ĠÑħÐ°Ð½Ð°":8535,"ÑĩÐ¸Ð¼Ð¸":8536,"ĠÐ¿ÑĢÐ¾Ðµ":8537,"Ð¼Ñ£ÑĢ":8538,"ÑİÑīêĻĭ":8539,"ĠÑĤÑĮÑĢ":8540,"Ð²ÑĢÐ°ÑĤ":8541,"ĠêĻģÐµÐ¼Ð»Ñİ":8542,"ĠÐ»ÑĮÑģÑĤÐ¸":8543,"ĠÐ¿Ð¾Ð»ÑĥÐ½Ð¾":8544,"ĠÐºÐ¾ÑĢÐ¼Ð¸ÑĤÐ¸":8545,"ĠÐ±ÑĢÑĥ":8546,"ĠÐ±ÑĥÑĤ":8547,"ÑĩÐµÑĢ":8548,"ĠÐµÐ´Ñĥ":8549,"Ð²Ð°ÑħÑĬ":8550,"Ð½Ð¾ÑĥÑİ":8551,"ĠÐ¡ÑĤÐµ":8552,"ÑĤÐ°ÑĤÐ¸":8553,"ĠÑ¥Ð³Ð¾Ð¶Ðµ":8554,"ĠÐ´ÑĥÑĪÐµÑİ":8555,"Ñ³Ðµ":8556,"ĠÑģÑĤÐ¾ÑıÑĤÑĬ":8557,"ĠÑģÐµÐ¼Ñ¹":8558,"ĠÑģÐºÐ°Ð·Ð°Ð»":8559,"ĠÐ²Ð½Ð¸Ð·ÑĬ":8560,"ĠÐ¿ÑĢÐ¸Ð½ÐµÑģÐµ":8561,"ĠÐ²Ð·Ñ§ÑĪÐ°":8562,"Ð¿Ð¸ÑģÐ°Ð½Ð¾":8563,"ĠÐ¿Ð¾Ð´ÑĮÑıÑĩÐµÐ¼Ñĥ":8564,"ĠÐ¢ÑĬÐ³Ð´Ð°":8565,"ni":8566,"ÑĤÐµÐ¼":8567,"Ð´Ð¾Ð²Ð°ÑĤÐ¸":8568,"ÑħÑĢÐ¸":8569,"ĠÐ¼Ð°Ð»ÑĬ":8570,"ĠÐ¾ÑĤÐ¿Ð¸Ñģ":8571,"ĠÐ¾ÑĥÐ±Ð¸":8572,"ĠÑĤÐµÐ±ÑĶ":8573,"ĠÐ²Ñ£Ð´Ñĥ":8574,"ĠÐºÐ°ÐºÐ¾Ð²Ð¾":8575,"ĠÑģÐ¼ÐµÐ½Ð°":8576,"ĠÑģÑĤÐ¾Ñ§":8577,"ĠÐ½Ð¸ÐºÐ¾Ð³Ð´Ð°":8578,"ĠÑģÐ²ÑıÑĤÐ¾Ð¼Ñĥ":8579,"ĠÐ¿Ð¾ÑħÐ¾ÑĩÐµÑĤ":8580,"ĠÑģÐ»Ñ£Ð´ÑĬ":8581,"ĠÐ´ÑīÐµÑĢÐ¸":8582,"ĠÐ¸Ð³ÑĥÐ¼ÐµÐ½ÑĬ":8583,"ÑĤÐºÐ¾":8584,"ÑĩÐ°ÑĢ":8585,"ĠÑĢÐ¾Ð¶":8586,"ĠÑĢÐ¾ÑĤÑ£":8587,"ĠÐµÑĢÐ¼":8588,"ĠÑĥÐ¿Ð¾Ð²Ð°":8589,"ĠÐ·Ð°ÑģÑĤÑĥÐ¿":8590,"ĠÐ²ÑĭÑĤ":8591,"ÐºÐ¾Ð¼Ð¾Ñĥ":8592,"ĠÐ´ÐµÑĤÐ¾":8593,"Ð½Ñ«ÑŃ":8594,"ĠÐ³Ð½Ñ£Ð²":8595,"ĠÐ¿Ð¾ÑģÑĬÐ»Ð¸":8596,"ĠÐ½Ð°ÑģÐ»ÐµÐ´":8597,"ĠÑĤÑĢÐ¸ÑĤÑĨÐ°ÑĤÑĮ":8598,"ĠÑģÑĢÑĮ":8599,"ÑģÐºÑ¹Ñİ":8600,"ĠÐľÑĮ":8601,"ĠÐ²Ð¾Ð»Ð¾ÑģÑĤÑĮ":8602,"ĠÑģÑĥÑīÐµ":8603,"ĠÐ²Ð»Ð°Ð´":8604,"ÑīÐµÐ½ÑĸÐ°":8605,"ĠÑģÐ¾Ð»Ð½":8606,"ĠÐ¿Ð¸ÑģÐ°Ð»Ð¸":8607,"ĠÑģÐ¾ÑĢÐ¾ÐºÐ°":8608,"ĠÐĺÐ²Ð°Ð½Ð¾Ð²Ð¸ÑĩÑĮ":8609,"ĠÐŁÑĢÑ£Ð¼":8610,"ĠÐ¿Ð¾Ð¼Ð¸Ð»Ð¾Ð²Ð°":8611,"ĠÐ½Ð°ÑĢÐ¸ÑĨÐ°ÐµÐ¼":8612,"ĠÐºÑĤÐ¾Ð¼êĻĭ":8613,"ĠÐ¼êĻĭÐ´":8614,"ĠÐ¼Ð¾Ð¶Ð½Ð¾":8615,"ĠÐ½Ð°êĻĭ":8616,"ĠÐ½ÐµÐ±Ñĭ":8617,"ÑīÐ¸Ð½Ñĥ":8618,"ĠÐ¿ÑĢÐ¸Ð·Ñĭ":8619,"Ð°Ð²ÑĪÐ¸":8620,"ĠÐŁÑĢÐ°Ð²":8621,"ĠÐ¿ÑĢÐ¾ÑģÑ§":8622,"ĠÐ±ÑĢÐ°ÑĤÑĮÑı":8623,"ĠÐ½Ð°ÑĢÐ¾Ð´ÑĬ":8624,"ĠÐºÑĢÑĭÐ»ÑĮ":8625,"ĠÑģÐ¸Ð±Ð¸ÑĢ":8626,"ĠÐ²Ð½":8627,"ĠÐ½Ð±Ð¾":8628,"ĠÐ·Ð¾Ð±":8629,"ÑĸÑĤ":8630,"Ð¾Ð½Ñ§":8631,"Ð¾ÑģÐ¸Ð¸":8632,"Ð¸Ð½Ñ¹":8633,"Ð¸ÑģÑĥ":8634,"ĠÐºÐ°ÐºÐ¸Ñħ":8635,"ĠÐĵÐ¾ÑĢ":8636,"ÑķÐ¸":8637,"ĠÑģÐ²ÑıÑĤÑĭÑħÑĬ":8638,"ĠÐŁÐ¾ÑĤÐ¾ÐºÑĬ":8639,"Ð·Ð°Ð½Ñ£":8640,"ĠÐºÐ°Ð·Ð½Ð°ÑĩÐµ":8641,"Ð°Ð½Ð¸":8642,"ĠÐ»Ð¾Ð³":8643,"ĠÐ¿ÑĢÐ¸Ð»Ð°Ð³Ð°":8644,"Ð¼Ð¸Ð½Ð°":8645,"ÑĩÑĮÐµ":8646,"ĠÐ±Ð¾Ð³Ñĥ":8647,"ĠÐķÐ´Ð°":8648,"ĠÐ¿ÑĢÐ°Ð²Ð´Ñĭ":8649,"ĠÑħÐ¾Ð»Ð¾Ð¿ÑģÑĤÐ²Ð¾":8650,"ĠÐ½Ð°ÑģÐ¸Ð»":8651,"ĠÐ±Ð¸ÑĤÐ¸ÑģÑı":8652,"ĠÐ¤ÐµÐ¾Ð´":8653,"ĠÑĥÐµÐ·Ð´":8654,"ĠÐ¿ÑĢÐ¾ÐºÐ»Ñ§":8655,"ÑĤÐ²Ð°Ð¼Ð¸":8656,"ĠÐĴÑģÐµÑģÐ»Ð°Ð²ÑĮ":8657,"ĠÐ±Ñ§ÑħêĻĭ":8658,"ĠÐľÐ°Ð³Ð¸Ð»ÐµÐ½Ð°":8659,"Ïī":8660,"ÑĢÑģ":8661,"Ð»ÐºÐ¸":8662,"ĠÐ¾ÑģÐ»Ñĥ":8663,"ĠÑĨÐ°ÑĢÐµÐ¹":8664,"ĠÐ¼Ð¸Ð»Ð¾ÑģÑĤÑĭ":8665,"ĠÐĹÐ»Ð°":8666,"Ð¿ÑĥÑģÑĤÐ¸":8667,"ĠÐ´Ð¾Ð±ÑĢÐ¾Ð¸":8668,"ĠÑĩÑĢÐµÐ·ÑĬ":8669,"ÑĤÐ²ÑĮ":8670,"ĠÑģÐ±Ð¾ÑĢ":8671,"ĠÐ¿Ð¾Ð²Ð°":8672,"ĠÑĢÐµÑĩÐµÐ½":8673,"ĠÐ²ÑĬÐ·ÑĬ":8674,"Ð»ÑĭÑħÑĬ":8675,"ĠÐ²ÐµÑĩÐµÑĢÐ°":8676,"ĠÑģÑĮÐ¼ÑĮ":8677,"ĠÐ¼ÑĭÑĪ":8678,"ĠÐ¸Ð¼ÐµÐ½Ð¾Ð²Ð°Ð½":8679,"ĠÐ³Ð¾ÑĤÐ¾Ð²Ð¾":8680,"ĠÐ²ÑĬÑģÐ¿ÑĢÐ¸":8681,"Ð´Ð¾Ðº":8682,"Ð·Ð½Ð¾":8683,"Ð»Ð¸Ð²Ñĭ":8684,"ĠÑģÑĤêĻĳ":8685,"ĠÑ¡ÑģÑĤÐ°ÑĤ":8686,"ĠÐ¿Ð¾Ð¼Ð¾Ð³Ð°":8687,"ĠÑĦÐµÐ²ÑĢÐ°":8688,"ĠÐ²Ð¾Ð»Ñ§":8689,"ĠÐ´Ð¸Ð²Ð¸":8690,"ĠÑłÐ½Ð¸":8691,"Ð½êĻĳÑ§":8692,"ÑİÑīÑ¹":8693,"ĠÑģÐºÐ°Ð¶Ð¸":8694,"ĠÑĩÑİÐ´Ð¾Ð²":8695,"ĠÐ¼ÐµÐ¶Ñİ":8696,"ĠÐºÐ°ÑĢÐ°Ñĥ":8697,"ĠÐ¿ÐµÑĤÑĢÑĥÑĪÐºÐ°":8698,"ĠÐ½Ð½Ñ£":8699,"Ð³Ð°Ð»":8700,"ĠÐ±Ð¸Ð»Ð¾":8701,"ÑĩÐµÐ½ÑĮ":8702,"ĠÐ¿Ð¾ÑģÑĢÑ£":8703,"ĠÐºÐ¾ÑģÑĤÐ°Ð½":8704,"ĠÐ»Ð¸ÑĪ":8705,"ĠÐķÐ²":8706,"ĠÐºÑĥÐ½":8707,"Ð½Ð¾Ð¼ÑĮ":8708,"ĠÑĤÑıÐ³Ð»Ñĭ":8709,"ĠÐ¼êĻĭÐ¶ÑĸÐµ":8710,"ĠÐºÑĢÑĥÐ³Ð¾Ð¼ÑĬ":8711,"ÑģÑĤÐ²êĻĭÐ¸":8712,"ĠÐ±ÐµÐ·ÑĥÐ¼ÑĮ":8713,"ÑħÐ²Ð°":8714,"Ð¶Ð¸ÑĤÐµ":8715,"ĠÑĤÐµÑħÑĬ":8716,"ĠÐ²ÑĭÐ´Ð°ÑĤÐ¸":8717,"ĠÐºÐ¾Ð½ÐµÑĨÑĮ":8718,"ĠÐ¿ÑĢÑ£Ð·ÑĮ":8719,"ÑģÑĤÐ°Ð½ÐµÑĤÑĮ":8720,"ĠÐ½ÐµÐ±ÐµÑģÐµ":8721,"ĠÐ¿ÑĢÐ¾ÑĢÐ¾Ðº":8722,"ĠÐ½Ð°Ð¿ÐµÑĢÐµÐ´ÑĮ":8723,"ĠÐ²Ð¾ÑĤÑĩÐ¸Ð½Ð°Ñħ":8724,"ĠÑħÐ¾ÑĩÐµÑĪÑĬ":8725,"ĠÐ½ÑĥÐ¶":8726,"ĠÐ¿ÑĢÐ¸ÑģÑĬÐ»Ð¸":8727,"ĠÐ»Ð¸ÑĨÐµÐ¼Ñ£":8728,"ÑĤÐ°Ð½ÑĬ":8729,"ÑģÐµÐ´":8730,"ÐºÐ¾ÑĢ":8731,"ĠÐ²Ð¸Ð½Ðµ":8732,"ĠÐ½Ð°Ð³":8733,"ĠÐ°Ð±Ñĭ":8734,"ĠÑģÑĤÑĢÐµÐ¼":8735,"Ð¶ÐµÐ½Ñĭ":8736,"Ð°Ð½ÑĸÐ¸":8737,"ĠÑģÑĬÑħÑĢÐ°":8738,"ĠÑĢÐ°Ð·Ð»Ð¸":8739,"ĠÐºÐ°ÐºÑĥÑİ":8740,"ĠÑģÐ¿Ñĥ":8741,"ĠÐ´ÑĥÑħÐ°":8742,"ĠÐłÑ£":8743,"ĠÐ¸ÑģÐ¿Ð»ÑĬ":8744,"ĠÐ£ÑģÐ»ÑĭÑĪÐ°":8745,"ĠÐ¿Ð»Ð¾Ð´Ð°":8746,"ĠÐ±Ð¸ÐµÑĤ":8747,"ĠÑħÑĢÐ°Ð±ÑĢÑĭ":8748,"ĠÐĴÐ»Ð°Ð´Ð¸Ð¼Ð¸ÑĢÑĥ":8749,"ĠÑģÐ°Ð»Ð´Ð°":8750,"Ð±Ð»Ðµ":8751,"Ð¾ÑģÐ»Ð°":8752,"ÑĤÐ°Ð¸":8753,"ĠÑĢÐ°Ð·Ð´":8754,"ĠÑģÑĤÐ°ÑĢÑ£Ð¸":8755,"ĠÐ¿Ð¾ÑĤÑĢÑ£Ð±":8756,"ĠÐłÑĭ":8757,"ĠÑģÑĤÐ°Ð´Ð¾":8758,"ĠÑģÐµÐ»ÑĨÐ¾":8759,"ĠÐ¼êĻĭÐ¶ÐµÐ¸":8760,"ĠÐ¼Ð¾ÑģÐºÐ¾Ð²ÑģÐºÐ¾Ð¼":8761,"ĠÐ±Ð¾ÑĢÐ¸ÑģÑĥ":8762,"ÑĢÐ¾ÑĩÐ½ÑĭÐµ":8763,"ĠÐ¿Ð¾ÑģÑĢÐµÐ´Ð¸":8764,"ĠÐ´Ð²ÐµÑĢÐ¸":8765,"ĠÐ¿Ð¾ÑģÑĤÑĢÐ°Ð´Ð°":8766,"ĠÐ¿Ð¾ÑĩÐµÐ»Ð°":8767,"),":8768,"Ð²ÑĢ":8769,"Ð½Ð¸Ð»Ð¸":8770,"ĠÐ°ÑģÑ£":8771,"ĠÐ·êĻĭ":8772,"êĻĭÐ´Ð¸":8773,"ĠÑĨÑĢÐ°":8774,"ĠÐ¿Ð¾Ð»ÑĤÐ¸":8775,"Ð´Ð¾ÑħÐ¾Ð¼ÑĬ":8776,"ĠÐ¿ÑĢÑ£ÑģÑĤÐ°Ð²Ð¸":8777,"ĠÐ¼Ð¾Ð»Ñ§":8778,"Ð´Ð¸Ð½ÑĮ":8779,"ĠÐ²ÑĢÐµÐ¼ÐµÐ½":8780,"ĠÐ´ÐµÐ»Ð¾Ð¼":8781,"ĠÐ¿Ð¾ÐºÐ°êĻģÐ°":8782,"ĠÐ±ÑĥÐ¹":8783,"ĠÐ²Ð·Ñ§Ð»ÑĬ":8784,"ĠÐºÑĭÑ¥":8785,"Ð»ÑĶÐ²Ñĭ":8786,"ĠÐ¶Ð¸Ð²Ð¾Ð½Ð°ÑĩÐ°Ð»":8787,"ĠÐ¿Ð¾Ð½Ð°":8788,"Ð³Ð½êĻĭ":8789,"ÑĩÐ½Ð¾Ñİ":8790,"ĠÐ¾ÑĨÐ°":8791,"ÑĨÐ°ÑĢ":8792,"ĠÑĥÐ¶Ð°Ñģ":8793,"ĠÑģÑĤÐ¾Ð¿":8794,"ĠÑĢÐ°Ð´Ð°":8795,"ÑĪÐµÐ²Ð¾":8796,"ĠÐ¶Ð²Ð¾":8797,"ĠÐ²Ð°Ñİ":8798,"ÑħÐ¾Ð´Ð¸ÑĤÑĬ":8799,"ĠÐ´Ð¾Ð²Ð¾Ð»ÑĮ":8800,"ĠÐĵÐ¾ÑģÐ¿Ð¾Ð´Ð½Ñı":8801,"ĠÐ²Ð°ÑģÐ¸Ð»ÑĮÐµÐ²Ð°":8802,"ĠÐ¿Ð¾Ð·Ð²Ð°":8803,"ĠÐ¾Ð±ÑĢÑ£ÑĤÐ°":8804,"ĠÑĤÑĭÑģÑıÑĩÑĮ":8805,"ĠÐ¿Ð¾Ð¼Ð¸Ð»Ð¾Ð²":8806,"ĠÐ³ÑİÑĢÐ³Ð¸":8807,"ĠÐ´Ð¾Ð±ÑĢÐ¾Ð´Ñ£ÑĤÐµÐ»":8808,"ĠÑģÑĤÐ°ÑĢÐ°Ð³Ð¾":8809,"ÑīÑĭÐ¼ÑĬ":8810,"Ð°Ð½êĻ¿":8811,"ĠÑ¿Ð¿Ð°":8812,"ĠÐ²ÑĭÐ¼Ñĭ":8813,"ĠÑĢÑĥÑħ":8814,"ĠÑģÐ¸Ð¹":8815,"ĠÐ²Ð¾Ð·Ð´Ñĥ":8816,"ĠÐ²ÑĬÐ·Ð½ÐµÑģ":8817,"ÑİÑīÑĸÐ¸":8818,"ĠÐºÑĢÐ°Ð»ÐµÐ²Ð½Ñĭ":8819,"ĠÑģÐ²Ð¾ÐµÐ¼Ð¾Ñĥ":8820,"ĠÐ±Ð¾Ð¶Ð¸Ñı":8821,"ĠÐ±Ð¾Ð»ÑĮÑĪÐ¾Ð¹":8822,"ĠÐŁÐ¾Ð»ÐºÐ°":8823,"ĠÐĵÐ»Ð°Ð³Ð¾Ð»ÐµÑĤÑĮ":8824,"Ð½Ð¾Ð²ÑĬ":8825,"ĠÑģÐ¾Ð¼":8826,"ĠÐ¿Ð¾Ð¶Ð°Ð»êĻĭÐ¸":8827,"ĠÐ²Ð·ÑıÑĤÐ¾":8828,"ĠÐ¾ÑĤÑĮÑĨÑĮ":8829,"ÑħÐ¾Ð¼ÑĮ":8830,"ĠÐ¾ÑĨÑ£":8831,"ĠÐ½Ð°Ð³Ð°":8832,"ÑĪÐ°Ñ§":8833,"ÑĪÐ°ÑĪÐµ":8834,"ĠÐ³Ð¾ÑģÑĥÐ´Ð°ÑĢÐµÐ²":8835,"ĠÐ¿Ð¾ÐºÑĥÐ¿":8836,"ĠÐ½Ð°Ð¿Ð¾Ð»Ð½Ð¸":8837,"ĠÑģÑĬÑĤÐ²Ð¾ÑĢÐ¸Ð»ÑĬ":8838,"Ð°Ð½ÑĮÐ¸":8839,"ĠÐ±Ð¾Ð³Ð°ÑĤÑĭÑĢÐµÐ¹":8840,"ĠÐ¼Ð°ÐºÐ°ÑĢ":8841,"ĠÐ¼Ð»Ð°Ð´Ð°":8842,"ĠÐ¾Ð±Ð¸Ð´Ð¸":8843,"ĠÐ´Ð¾ÐºÐ»Ð°Ð´Ñĥ":8844,"ĠÐ¿ÑĢÐ¸Ð±Ð»Ð¸Ð¶Ð¸":8845,"ÏĤ":8846,"ÑĤÐ¾Ð¼Ñĥ":8847,"ĠÐ¿Ð¾ÑģÑĤÐ°":8848,"ĠÐ·Ð´Ð°":8849,"ĠÑĥÑħÐ¾":8850,"ĠÐ²Ð¾Ñİ":8851,"ĠÐ¾ÑĥÐºÑĢÐ°":8852,"ĠÑģÐ»Ð¾Ð²Ñĭ":8853,"ĠÐ¿ÑĢÐ¾ÑģÑĤÑĮ":8854,"ĠÑĶÑģ":8855,"ÑīÐ°Ñ§":8856,"ĠÐ¿ÑĢÑ£Ð±ÑĭÐ²Ð°":8857,"ÑħÐ¾Ð´Ñ§":8858,"ĠÐ¸Ð¼Ñ£Ñı":8859,"ĠÐºÐ¾Ð»Ð°":8860,"ĠÐ¿ÑĢÐ°êĻģ":8861,"ĠÐ¸Ð¼ÐµÐ½ÑĥÑİÑĤÑģÑı":8862,"ĠÐ»Ñ¹Ñĩ":8863,"ĠÐ²Ð»Ð°Ð´ÑĭÐºÐ°":8864,"ĠÐ¿Ð¾Ð³ÑĢÐµÐ±Ðµ":8865,"ĠÐ¿Ð¸ÑģÑĮÐ¼Ð°":8866,"ÐºÑĢÐµÑģÑĤÑĬ":8867,"Ð¼Ð¾Ð¶Ð½Ð¾":8868,"ĠÐ²ÑĬÐ¿ÑĢÐ¾Ñģ":8869,"ĠÐ¿ÑĢÐ¸Ð¿Ð¸Ñģ":8870,"Ð¾ÐºÐ¾Ð²":8871,"ÑĢÑ£Ð»Ñı":8872,"ĠÐºÐ¾Ð½ÐµÑĩ":8873,"ĠêĻĭÐ·":8874,"ĠÑ§ÐºÐ¸":8875,"ĠÑĩÐµÑĢÐ²":8876,"ĠÐ°Ð½ÑĤÐ¸":8877,"ĠÐ»ÐµÐ±":8878,"ĠÐºÐ¸ÐµÐ²ÑĬ":8879,"ĠÐ¼Ð¸ÑĤÑĢÐ¾":8880,"ĠÑģÐ¾ÐºÑĢÐ¾Ð²Ð¸":8881,"ĠÐ²ÑĮÑģÑ£Ð¼ÑĬ":8882,"ĠÐ¿ÑĢÐ¾ÑģÑĤÐ¾ÑĢ":8883,"Ð»Ð¾ÑģÑı":8884,"ĠÐ¿Ð°ÑĪÐ½Ñİ":8885,"Ð»Ð¾Ð²ÑĬ":8886,"ĠÐ¿Ð¾ÐµÑħÐ°Ð»Ð¸":8887,"ĠÑıÐºÑĥ":8888,"Ð½ÐµÑĪÑĮ":8889,"ĠÐºÐ°Ð¿Ñ¹":8890,"Ð¼ÑĭÐ¸":8891,"ĠÐºÐ°Ð·Ð½Ñĥ":8892,"ĠÐ¾ÑģÐ¼ÑĮ":8893,"Ð¾Ð½Ð¸Ñİ":8894,"ĠÐ²Ð¾Ð»Ð¾Ð´Ð¸Ð¼ÐµÑĢÑĥ":8895,"ĠÑģÐµÐ½ÑĤÑıÐ±ÑĢÑı":8896,"ĠÑ¿Ð½ÑİÐ´":8897,"ĠÐ²Ð·ÐµÐ¼ÑĪÐµ":8898,"ĠÑģÐ¾ÑĤÑĬ":8899,"ĠÐ½Ð¾Ð²Ñĥ":8900,"Ð³Ð°Ð»ÑĬ":8901,"Ð³Ð½ÐµÑĤÑĮ":8902,"Ð¾Ð´ÑĢÑĬ":8903,"ÑĥÐ´Ð¸ÑĤÐ¸":8904,"ĠÑ¡ÑģÑĤÑĢ":8905,"ĠÐ¿Ð¾Ð»ÑĥÐ´":8906,"Ð¾Ð²Ð¸ÑĨÐ°":8907,"ĠÐļÐ½Ñ§":8908,"ĠÐºÐ½ÑıÐ·Ðµ":8909,"ĠÐ²ÑĬÐ·Ð´ÑĭÑħÐ°":8910,"ĠÐ¼ÐµÐ½Ð¾Ð²":8911,"ĠÐ·Ð»Ð°Ñı":8912,"ĠÐºÐ¾Ð»Ð¾Ð´":8913,"ÑĤÐ²ÑĢÑĬ":8914,"ĠÐ¾Ð´Ð½":8915,"ĠÐ²Ñı":8916,"Ð¾Ð²Ð¾Ð¹":8917,"ĠÐ³Ñĭ":8918,"ÐµÐ´Ð¸Ð½":8919,"ĠÐ¿Ð¾Ð´Ð²Ð¾Ð´":8920,"ĠÑĶÑģÐ¼ÑĮ":8921,"ĠÐ»Ñ£Ð½Ð¸":8922,"ĠÐ¼ÑĥÐ¶ÑĬ":8923,"ĠÐ¼Ð½Ð¾Ð³ÑĬ":8924,"ĠÐ½Ð¸ÑħÑĤÐ¾":8925,"ĠÐ³Ð»ÑĤÑĮ":8926,"ÑĪÑĤÐµÑĤÑĮ":8927,"ĠÐ¸ÑģÑĤÐ¾ÑĢ":8928,"ĠÐ¼Ð°ÐºÐµÐ´":8929,"ĠÐ¼Ð¾ÑģÐºÐ¾Ð²ÑģÐºÐ¸Ñħ":8930,"ĠÐ¾Ð»ÑĤ":8931,"ĠÐ¿ÑĢÐ¸Ð½Ð¾Ñģ":8932,"ĠÐ¾ÑĤÑĢÐ¾ÐºÐ°":8933,"ĠÐ¾Ð±Ð»Ð°Ð´Ð°":8934,"ĠÑĤÐ¸ÑĤÑĥÐ»ÑĬ":8935,"ÑĢÐ»":8936,"ÑĢÐ¸ÑĤÐµ":8937,"ÑģÐ¾Ð²ÑĬ":8938,"Ð»ÑĸÐµ":8939,"Ð²ÑĥÑİ":8940,"ĠÐ²êĻģ":8941,"ĠÐ¿ÑĢÐ¾Ð±":8942,"Ð¾ÑĢÑĭ":8943,"ĠÐ»Ð¾Ð²Ñ£":8944,"ĠÐ·Ð°ÑīÐ¾":8945,"Ð»ÐµÐ¶Ð°":8946,"ĠÐ±ÑĥÐ´ÑĮ":8947,"ĠÐ²ÐµÑĢÑħÐ¾Ð²":8948,"ĠÐ¿Ð¾Ð½Ð¾Ñģ":8949,"ĠÐ·Ð½Ð°ÑĤÑĮ":8950,"ĠÐºÐ¾ÑĥÐ½":8951,"ĠÐ´ÐµÑģÑ§ÑĤÐ¸":8952,"Ð¶Ð´Ñ«":8953,"ĠÐºÐ»Ð°ÑģÑĤÐ¸":8954,"ÑĨÐºÐ¸Ð¼":8955,"ĠÐ·Ð´ÑĢÐ°Ð²ÑĸÐµ":8956,"ĠÐ¿Ð¾ÑħÐ¾ÑĤÑıÑĤ":8957,"ÑĪÐºÐ¾Ð²":8958,"ÑĤÐ¸Ñİ":8959,"ĠÐ½ÐµÐ¸Ñģ":8960,"ĠÐ¼Ð¾ÐµÐ¼":8961,"ĠêĻĹÑĢÐ¾ÑģÐ»Ð°Ð²":8962,"ĠÑģÐ¸ÑĢÐµÑĩÑĮ":8963,"ÑģÑĤÐ²ÑĮ":8964,"ĠÐ¼Ñ£Ð´":8965,"ĠÑ¡Ð±ÑĮ":8966,"ÑģÑĭÐ»Ð°ÑĤÐ¸":8967,"Ð¸Ð´ÐµÑĤÑĬ":8968,"ĠÐ¿Ð¾Ð±Ñ£Ð´":8969,"ĠÐ·ÑĬÐ»Ñĭ":8970,"ĠÐ¼Ð½Ñ¡Ð³Ð°":8971,"ĠÐ¿ÑģÐºÐ¾Ð²":8972,"ĠÑģÐ»ÑĥÐ¶Ð¸Ð»ÑĭÐµ":8973,"ĠÐ±Ð»Ð°Ð¶ÐµÐ½Ð½ÑĭÑı":8974,"ĠÐ¸ÑģÑĤÐ¾Ñĩ":8975,"ĠÐ¾Ð³Ð¾ÑĢÐ¾Ð´":8976,"ĠÐ·Ð³":8977,"Ð²Ð°ÑİÑĤÑĮ":8978,"ĠÐ¿ÑĢÐ¸Ð´ÐµÑĤÑĮ":8979,"ĠÐĲÐ²ÑĢÐ°":8980,"êĻĳÑĢÐ¸":8981,"Ð¸Ð¼Ð¸ÑĤ":8982,"Ð»ÑıÐ´Ð¸":8983,"ĠÐ¼Ñ£Ð´Ñ§":8984,"ĠÐ²ÐµÑĢÑģÑĤÑĬ":8985,"ĠÑ£ÑħÐ°ÑĤÐ¸":8986,"Ð°Ð²ÑĬÑĪÐµ":8987,"ĠÑģÐ²ÑıÑĤÐµÐ¹":8988,"ĠÐ²Ð°ÑĪÐµÐ¼Ñĥ":8989,"ĠÐ¶ÐµÑĢÐµÐ±ÐµÐ¹":8990,"ĠÑģÐ°Ð¼Ð¾Ð´ÐµÑĢÐ¶":8991,"ĠÐŁÐ°ÐºÑĭ":8992,"ĠÐ¸Ñī":8993,"ÑıÐ·Ð¸":8994,"âĢĵ":8995,"ĠÐ²Ð¾Ð·ÑĮÐ¼Ð¸":8996,"ÑģÐ°Ð½Ð°":8997,"ĠÑĥÐºÐ°Ð·Ð°Ð»ÑĬ":8998,"ĠÑģÑĥÐ½":8999,"ĠÑģÐ¾ÑĤÐ²Ð¾ÑĢÑİ":9000,"ĠÐ»ÐµÑµ":9001,"ĠÐ²ÑģÑıÐºÐ¸Ð¼ÑĬ":9002,"ĠÑģÐµÑĢÐ´ÑĨÐµÐ¼ÑĬ":9003,"ĠÑĢÐ°Ð±Ð¾ÑĤÑĭ":9004,"ĠÑĥÐ³Ð¾Ð´ÑĮÑı":9005,"ĠÑģÑĤÐ¾ÑıÐ»Ð¸":9006,"ĠÐ´ÑĢÐ¾ÑĥÐ³Ð°":9007,"ĠÑĤÑĢÑĮÐ¿Ñ£":9008,"ĠÑģÐ¾Ð²ÐµÑĢÑĪÐµÐ½":9009,"ĠÐ¿ÑĢÐ¸Ð»Ð¾Ð¶Ð¸Ð»":9010,"ĠÐ¤Ð¸Ð»Ð¸Ð¿":9011,"ĠÐ·Ð°Ð¿Ð¾Ð²ÐµÐ´Ð¸":9012,"âģ":9013,"ÑģÐ½Ð°":9014,"ÑĩÐµÐ²":9015,"ÑĢÐ°Ð·Ñĥ":9016,"ĠÐ¿ÑĢÐ¸Ð½ÐµÑģÑĤÐ¸":9017,"Ð°Ð½ÑĸÑİ":9018,"ĠÑģÐ¾Ð±Ñı":9019,"ĠÐºÑĢÐµÑģÑĤÐ°":9020,"Ð±Ð°ÑħÑĬ":9021,"ĠÐ²ÐµÑī":9022,"ĠÐºÐ½Ð·":9023,"ĠÐ¢Ñ£Ð¼Ð¶Ðµ":9024,"ĠÑģÐ¾ÐºÐ¾Ð»ÑĬ":9025,"ĠÐ¡Ð»ÑĭÑĪÐ¸":9026,"ĠÐĳÐ¾Ð»Ð³Ð°ÑĢ":9027,"Ð»ÐµÑĤÐµ":9028,"ÑĮÐ¼ÑĬ":9029,"ÐºÑĪÐ¸":9030,"Ð´ÑĢÑİ":9031,"ÑģÑĤêĻ¿":9032,"ĠÑĢÐµÐ´":9033,"ĠÐ´Ð°Ñİ":9034,"ĠÑģÑĤÑĥÐ´":9035,"ĠÐ¾ÑĤÑģ":9036,"ĠÐºÐ¾ÐµÐ¼Ñĥ":9037,"ĠÐ²ÐµÐ»Ðµ":9038,"ĠÐ¿Ð¾Ð¿Ð¾ÑĢÑĤÐ¸":9039,"ĠÑĤÑĬÑĢ":9040,"Ð´ÑıÑĤÑĬ":9041,"ĠÐ½ÐµÐ´ÑĢÑĥÐ¶":9042,"Ð²Ð»Ñı":9043,"ÐµÑĢÑĭ":9044,"ĠÑ¡ÐºÐ°":9045,"ÑĢÑĥÐ¶ÑĮ":9046,"ĠÐºÐ°Ð¶Ðµ":9047,"ĠÐĶÐµÑĢ":9048,"ÑīÐ¸ÑģÑı":9049,"ĠÐ³Ð¾ÑĢÐ´Ñĭ":9050,"ĠÑĥÐ±Ð¸ÑĤÐ¸":9051,"ĠÐ³Ð¾ÑģÑĥÐ´Ð°ÑĢÐµÐ²ÑĭÐ¼":9052,"ĠÐºêĻĭÐ½Ð¸ÑĨÐ¸":9053,"ĠÐ´ÑĢêĻĭÐ³Ð°":9054,"ĠÐºÑĢÐµÑģÑĤÐ½Ð¾Ð¼Ñĥ":9055,"ĠÑģÑĬÐ¼Ñ£ÑĢÐµ":9056,"ĠÐĴÐ¸Ð´Ñ£Ð²ÑĬ":9057,"ĠÐ¿Ð¾ÐºÐ°Ð¼Ñ£":9058,"ÑĥÑĤÑĬ":9059,"Ñ£Ð»Ð¸":9060,"ĠÐ¿ÑĢÐ¸ÑĤÑĬ":9061,"ĠÐ²ÑģÐµÐ¼ÑĮ":9062,"Ð¾Ð·ÐµÑĢ":9063,"ĠÑĤÐ°ÑĢÐ°":9064,"ĠÐ±Ñ£Ð»ÑĬ":9065,"ĠÑģÑĤÑĢÐ°ÑĪÑĮ":9066,"ÑģÐºÑĭÐ¼Ð¸":9067,"ĠÐ¸Ð½Ð¾ÑĩÐµ":9068,"ĠÑĨÐµÑĢÐº":9069,"ĠÑĦÑĥÐ½ÑĤÐ°":9070,"ĠÐ¿ÑĢÐ¿Ð±Ð½Ð°Ð³Ð¾":9071,"ĠÑģÑĢÐ´ÑĨÐµ":9072,"Ð°ÑħÑĬ":9073,"Ð½ÐºÑĬ":9074,"ĠÑģÐ½Ð¾":9075,"ĠÐ¸Ð½ÑĭÐ¸":9076,"Ð³Ð¾Ð²Ð°":9077,"ÑĨÐµÐ²Ð¸":9078,"Ð¾Ð±ÑĬ":9079,"ĠÐ½Ð¸ÑĪÑĤ":9080,"ĠÑ¿Ðº":9081,"Ð½ÐµÑħ":9082,"ĠÐĴÐ¾Ñģ":9083,"ĠÐ¼Ð½Ð¾Ð¶ÑĮ":9084,"ĠÑģÐ¸Ð°":9085,"ĠÐļÑĢ":9086,"ĠÐļÑĥ":9087,"ĠÐľÐµÐ´":9088,"ÑģÑĤÐ°Ð²Ð¸ÑĤÐ¸":9089,"ÑģÐµÐ¸":9090,"ĠÐ¿ÑĢÐ°Ð²ÑĬ":9091,"ĠÑħÐ¾ÑĩÐµÑĤÑĮ":9092,"ĠÐ³Ð¾ÑģÐ¿Ð¾Ð´Ð°":9093,"ĠÐ½ÐµÐ´Ñ¹":9094,"ĠÐ¼Ð¾ÑĢÑĮ":9095,"ĠÐ¾Ð±ÑĬÑıÐ²Ð»Ñı":9096,"Ð½Ð¸ÑĩÐµÐ¼Ñĥ":9097,"ĠÐ¶Ð¸Ð²Ð¾ÑĤÐ¾Ð²":9098,"ĠÑĢÐ¾Ð¼Ð°Ð½Ð°":9099,"ĠÐ¿Ð»Ð¾Ð´Ñĭ":9100,"ÑĩÐ¸ÑīÐ°":9101,"ÑĤÐ°Ð°Ð³Ð¾":9102,"ĠÑĸÐµÑĢ":9103,"ĠÐ¿Ð¾ÑģÐ»Ð°ÑĤÑĮ":9104,"ĠÑħÐ¾ÑĤÐ¸":9105,"ĠÐ¾ÑĩÐ¸Ñİ":9106,"ĠÐ²Ð°ÑĢÑĪÐ°":9107,"ĠÐ²Ð°Ð²ÑµÐ»Ñ¡":9108,"ĠÐ¸Ð½Ð¸Ð¸":9109,"ĠÐ´Ð¾Ð³Ð¾Ð²Ð¾ÑĢ":9110,"ÑħÐ¾Ð¶Ð´":9111,"Ð±Ð¾Ð²":9112,"ĠÐ½ÐµÐ²Ð¾Ð·":9113,"ĠÐ·ÑĢÐ°":9114,"ĠÐ·Ð¾Ð»Ð¾":9115,"ĠÐ»ÐµÐ²ÑĬ":9116,"ÐºÐ°Ð»ÑĬ":9117,"ĠÑģÑĤÑĭÐ¸":9118,"ÑĢÑĥÑİ":9119,"ĠÐ¢Ð¾Ð¼ÑĮ":9120,"ĠÐ¶Ð¸Ð²Ðµ":9121,"ĠÑģÑĤÐ°ÑĢÐ¸Ð½Ðµ":9122,"ĠÐ¿Ð¾ÑĢÐ¾Ñĥ":9123,"Ð²Ð°ÑĤÐ¸ÑģÑı":9124,"Ð·ÑĭÐ´Ðµ":9125,"Ð·ÑĭÐºÑĬ":9126,"ĠÐ¥Ð¾Ð»Ð¾Ð¿":9127,"ĠÐ¿ÐµÑĢÐµÐ¿Ñĥ":9128,"ĠÑģÐºÐ¾ÑĤÐ°":9129,"ĠÐºÑĭÐµÐ²Ñ£":9130,"ĠÐŁÐ¾Ð´Ð¾Ð±Ð°":9131,"ĠÐ¿Ð¾Ð¼ÐµÑīÐ¸ÐºÐ¾Ð²":9132,"ĠÐ¿ÑĢÐ¾Ð²Ð¾Ð´":9133,"ĠÐ¼Ñ£ÑģÑıÑĨÑĮ":9134,"ĠÑģÐ´Ñ£Ð»Ð°":9135,"ĠÑģÐºÑĬÑĢÐ±Ð¸":9136,"Î»":9137,"ÑĩêĻĭ":9138,"ĠÐ·Ð¼Ðµ":9139,"Ð½Ð°ÑĤÑĨÐ°ÑĤÐ¸":9140,"êĻģÑ¹":9141,"ÑĤÐµÑħÑĬ":9142,"ĠÐ¿Ð¾Ð¼Ð¸Ð½":9143,"ĠÑ¹Ð±Ñ¡":9144,"ĠÐ¿Ð¾ÑĢêĻĭ":9145,"ĠÑħÐ¾Ð´Ð¸ÑĤ":9146,"ĠÐ¼ÑĬÐ»":9147,"ĠÐ´êĻĭÑĪêĻĭ":9148,"ĠÐ·Ð¼Ð¸Ð°":9149,"ĠÑĦÑĢÐ°Ð³Ð¼ÐµÐ½ÑĤ":9150,"ĠÑģÐ¿Ð¾Ð»Ð½Ð°":9151,"ĠÐ¿ÑĮÑı":9152,"Ð¾Ð²Ñı":9153,"ÐµÐ½Ð·":9154,"ĠÐ»ÑİÑĤÑĭ":9155,"ĠÐ¼Ð¾ÑīÐ¸":9156,"ĠÐ¼Ð¸ÑĪÐºÐ°":9157,"ĠÐ²ÐµÐºÐ¸":9158,"ĠÐ³ÑĢÐ¸Ð²Ð½ÑĮ":9159,"ĠÐ³ÑĢÐ¸Ð²ÐµÐ½Ð°":9160,"ĠÐ¿Ð¾Ð·ÐµÐ¼Ð°":9161,"ĠÐ¿Ð¾ÑħÐ²Ð°Ð»":9162,"ĠÐºêĻĭÐ½Ðµ":9163,"ĠÐ²Ð¾ÑĤÑĩÐ¸Ð½Ð½Ð¸ÐºÐ¾Ð²":9164,"ĠÑģÑĬÐºÐ¾Ð½ÑĮ":9165,"ĠÐ¢Ð°Ð¶Ðµ":9166,"ĠÐ±Ð¾Ð¶Ð¸Ð¸":9167,"ĠÑĢÑ¹ÐºÐ¾Ð´":9168,"ĠÑĨÐµÑĤÐ²ÐµÑĢÑĤÐµ":9169,"ĠÑĩÐµÑĤÐ²ÐµÑĢÐ¾Ð³ÑĢÐ°Ð½ÑĨÐ°":9170,"ĠêĻ©ÑģÐ¿Ð¾Ð´Ð¸Ð½Ðµ":9171,"ĠÐ¿ÑĢÐ¾Ð¶Ð¸ÑĤÐ¾Ñĩ":9172,"ĠÐľÐ°ÑĢÑĪÐ°Ð»ÐºÑĥ":9173,"ĠÐ¾Ð±ÐµÑģÑĩÐµÑģÑĤ":9174,"ĠÐŁÑĢÑ£Ð¼ÑĥÐ´":9175,"ĠÐ¿Ñĸ":9176,"ĠÐ¾Ð¶ÑĮ":9177,"ĠÐ½ÐµÑĩÑĮÑģÑĤÐ¸":9178,"ĠÐ¾ÑĤÑħÐ¾Ð´":9179,"ÑĩÐ¸Ð¸":9180,"ĠÐ¿Ð¾Ð»Ð¾Ð½ÑĬ":9181,"ĠÐ±ÑĥÐ´ÐµÑĪÑĮ":9182,"Ð¸ÑħÐ¾Ð¼ÑĬ":9183,"ĠÐ¿Ð¾Ð´Ð¾ÑĪ":9184,"ĠÐºÐ½ÑıÐ·ÐµÐ¹":9185,"ĠÐ²Ð¾Ð»ÑĬ":9186,"ĠêĻģÐ»Ð¾":9187,"ĠÐ¿Ð°Ð´Ð¾ÑĪÐ°":9188,"ĠÐ²Ð°ÑĪÑĥ":9189,"ĠÑħÐ¾ÑĤÑ§Ñī":9190,"Ð¾ÑģÑĤÐ¸Ñİ":9191,"ĠÐ·Ð°ÐºÐ¾Ð½Ñĥ":9192,"ĠÐ±Ð»Ð°Ð³Ð¾Ð²Ð¾Ð»":9193,"ĠÐ¿Ð¾ÑĩÐµÑĢ":9194,"ĠÐ¿Ð¾ÑģÐ°Ð´Ð½Ð¸ÐºÐ°":9195,"ĠÐ¿ÐµÑĢÐµÐ´Ñ£":9196,"ĠêĻģÐµÐ¼Ð»Ð¸":9197,"ĠÐ²Ð½Ð¸Ð¼Ð°":9198,"ĠÐ²Ð¸Ð´Ð¸ÑĤÑĮ":9199,"ĠÐ²ÐµÐ»Ð¸ÑĩÐµÑģÑĤÐ²Ñĥ":9200,"ĠÑĩÑİÐ´ÐµÑģÐ°":9201,"ÑĢÐµÐ½ÑĬ":9202,"ÑģÐ»Ñı":9203,"ĠÐ¸Ð»":9204,"ĠÐ½êĻĭ":9205,"ĠÑĤÐµÑĢÐµ":9206,"ÑģÑĤÑ¡":9207,"ĠÐ¾Ð»Ð¸":9208,"Ñ§Ð½Ðµ":9209,"ĠÐ¿Ð¾ÑĩÐµÑģÑĤ":9210,"Ð¾ÐºÐµ":9211,"ÑīÐµÐ½Ð¸Ñı":9212,"ĠÐ¼Ð¾ÑģÑĤÑĭ":9213,"ÑĤÐ°Ð¹":9214,"Ð¾Ð²Ð¸ÑĨÐ¸":9215,"ĠÑģÐºÐ¾Ð±Ðµ":9216,"ÑĶÑĤÑĮ":9217,"Ð¼ÐµÑĢÐ°":9218,"ĠÐºÐ½Ð¸Ð¶ÑĮ":9219,"ĠÐ¿Ð»Ð¾ÑĤÑĮ":9220,"ĠÒĦ":9221,"ÑĤÐ½Ð°":9222,"ĠÐ¿Ð°Ð½Ñĥ":9223,"ĠÐ¿ÑĢÑ¡":9224,"ĠÑĩêĻĭ":9225,"ĠÐ·Ð°Ð¹":9226,"Ð½ÑıÐ»":9227,"ĠÐ¢Ð°ÐºÑĬ":9228,"ÑģÑĤÐ²ÑĸÐµ":9229,"Ð¸ÑĤÐµÑģÑı":9230,"ÑģÑ£Ð¼ÑĬ":9231,"ĠÑĤÐ²Ð¾ÑĢÐ¸ÑĤÐµ":9232,"ÑĤÑ£ÑħÑĬ":9233,"ĠÑĩÐ¸Ð½Ð¸ÑĤÑĮ":9234,"ĠÑģÑ«Ð´":9235,"ĠÑģÐµÐ»ÑĬ":9236,"Ñ£ÑĤÑĮ":9237,"ĠÑĢÑ¡":9238,"ĠÐ¸Ð¼ÑĥÑĤÑĮ":9239,"ĠÐ³ÑĢÐ°Ð±Ðµ":9240,"ĠÑģÐ¸êĻĹ":9241,"Ð½Ð¸ÐºÑ£":9242,"ĠÐ±Ð»Ð¶":9243,"Ġ11":9244,"ĠÑħÑĢÐ¸ÑģÑĤÐ°":9245,"ĠÐµÐ´Ð¸Ð½Ð¾Ñİ":9246,"ĠÐĶÐ¾Ð±ÑĢÐ¾":9247,"ĠÐ¿ÑĢÐ¸ÑĤÑĩÐµÑİ":9248,"ĠÐŁÐ¾ÐºÐ»Ð¾Ð½":9249,"ĠÐ²ÐºÐ¸Ð½Ñĥ":9250,"ÑĪÐ¸ÑĤÐµ":9251,"Ð·êĻĭ":9252,"ĠÐ¾Ð²ÑĮ":9253,"ĠÐ¾ÑĤÑĨÑĭ":9254,"ĠÐºÐ¾ÑĢÐ¾Ð±":9255,"Ð³Ð¸Ð½Ð¸":9256,"ÑıÑĤÐ¸ÑģÑı":9257,"ĠÐ½Ð¸ÐºÐ¾Ð³Ð¾Ð¶Ðµ":9258,"ĠÑģÐ»Ð°Ð²ÑĮ":9259,"ĠÐ´Ð¾Ð²ÐµÐ´ÐµÑĤÑĨÐ°":9260,"ĠÐ³ÑĢÐ¸Ð³Ð¾ÑĢÐµÐ¹":9261,"Ð½Ñ«Ñ«":9262,"Ġ24":9263,"ĠÑĥÑģÑĤÑĢÐ¾ÐµÐ½Ñĭ":9264,"ĠÐ¿Ð»Ð¾ÑīÐ°":9265,"ĠÐ±ÐµÑģÑ£Ð´Ñĭ":9266,"ĠÐ½Ð¸ÐºÐ¾Ð¼ÑĥÐ¶Ðµ":9267,"ĠÑģÑĤÑĢÐ°ÑĪÐ½Ð¾":9268,"Î¼":9269,"Ð¿ÑĢÑĬ":9270,"ÐµÑĤêĻ¿":9271,"ĠÐ»Ð°ÑĢ":9272,"ÐºÑĬÐ²ÑĮ":9273,"ĠÐ¿Ð¾Ð´Ð²Ð¾ÑĢ":9274,"ĠÐ¿ÑĢÐ¾Ð¸Ð·":9275,"ĠÑĤÐ°ÐºÐ¸Ð¼Ð¸":9276,"ĠÐ¼Ð¾Ð»ÑĩÐ°Ð½":9277,"ĠÑģÑ£Ð´Ñı":9278,"ĠÐ½ÐµÐ¿Ð¾ÑĤ":9279,"ĠÐŁÑĢÐ¸ÐºÐ°Ð·":9280,"ĠÐ²ÑĬÑģÑħÐ¾":9281,"ĠÐ²Ñ£ÑĢÐ¾Ð²Ð°":9282,"ĠÐ½Ð°ÑĥÑĩÐ¸":9283,"ĠÐ²ÑĮÑģÑ£Ð¼ÑĮ":9284,"ĠÐĴÐµÐ»Ð¸ÐºÐ¸Ð¹":9285,"ĠÐ³Ð¾ÑĩÐºÐ¾Ð¼ÑĮ":9286,"Ġi":9287,"ÑģÑĢ":9288,"ĠÐ¸ÑģÑĤÑĮ":9289,"ĠÐ¸ÑģÐºÐ¸":9290,"ÑģÑĤÐ¸ÑĤÑĬ":9291,"ÑİÑĪÑĤÑİ":9292,"Ð±Ð¸Ñ¥":9293,"ĠÑģÑĥÐ´Ð¾Ð¼":9294,"ĠÐ³ÑĢÐ°Ð¼Ð¾ÑĤÑ£":9295,"ĠÑĩÑİÐ¶Ð¸":9296,"ĠÐ±ÐµÑģÐº":9297,"ÑķÐ°":9298,"ĠÐ°ÑĢÑħÐ¸Ð¼Ð°ÑĢÐ¸ÑĤÑĥ":9299,"ĠÑĥÐ¼Ð°":9300,"ĠÑģÑĤÑĢÐ¾Ðº":9301,"êĻģÑ«":9302,"ĠÐ±ÑĭÑħÑĬ":9303,"ĠÐĳÐµÐ·":9304,"ĠÐľÐµ":9305,"ĠÐ±Ñ£Ð´Ñĥ":9306,"ĠÐĵÐ¾":9307,"ĠÑģÑĤÑĢÐ°ÑģÑĤÐ¸":9308,"ĠÐ¼Ð¾ÑĢÑ§":9309,"ĠêĻģÐ°Ð¿Ð¾Ð²Ñ£":9310,"Ð½Ð¸ÑĨÐ°Ñħ":9311,"ĠÐĹÐ°ÑīÐ¾":9312,"ĠÑģÐ¼ÑĭÑģÐ»":9313,"ĠÑģÐ°Ð¶ÐµÐ½ÑĮ":9314,"ĠÑħÐ¾Ð»Ñ¡Ð¿ÑĬ":9315,"ĠÑģÑµ":9316,"ĠÐ¸Ð³êĻĭ":9317,"ĠÑĤÐ¾Ð³Ð¸Ð²Ð°":9318,"ĠÐ±Ð°ÑĢ":9319,"ĠÐ±ÐµÐ»Ðµ":9320,"ĠÐ¶ÐµÐ½êĻĭ":9321,"ĠÐ´Ð°Ð´ÑĥÑĤ":9322,"ĠÐ¸Ð·Ð±ÑĢÐ°Ð½":9323,"ĠÑĤÐ²Ð¾Ð°":9324,"ÑģÐ»êĻĳ":9325,"Ð±Ð¸ÑĢÐ°ÑĤÐ¸":9326,"ĠÐºÐ¾ÑĢÐ¾ÑĤ":9327,"ÐµÐ½Ð°Ñ§":9328,"ĠÐ¿Ð¾ÑģÐ»Ð°Ð½Ñĭ":9329,"ĠÑģÐ¸Ð»ÐµÐ½ÑĬ":9330,"ĠÐ±êĻĭÐ´ÐµÑĤÑĮ":9331,"ĠÐ²Ñ£Ð´Ð°Ñİ":9332,"ĠÐ¾ÑĢÑĥÐ¶Ð¸Ðµ":9333,"ĠÑĤÐ¸ÑħÐ¾":9334,"ĠÑģÑĥÐ¿ÑĢÐ¾ÑĤÐ¸Ð²":9335,"ĠÐ±ÑĢ":9336,"ÑĪÐ½Ð¾Ðµ":9337,"ĠÐ·Ð°ÑĤ":9338,"Ð°Ð½Ñĸ":9339,"Òĩ,":9340,"ĠÐ´Ñ£Ð»Ðµ":9341,"ĠÑĢÐ°Ð·Ð³Ð½Ñ£Ð²Ð°":9342,"ÑĢÑıÐ¹":9343,"ĠÐ²Ð·Ð³Ð¾Ð²Ð¾ÑĢ":9344,"ĠÑģÑĭÐ½Ñ¡Ð¼ÑĬ":9345,"ĠÐºÑĥÐ¿ÑĩÐµÐ¹":9346,"ĠÐĹÐµÐ½Ð·":9347,"ĠÑĢÐ°Ð·ÑĥÐ¼ÑĮ":9348,"Ð½ÐµÑģÐ¾ÑĪÐ°":9349,"ĠÐ¾ÑĤÐ´Ð°Ð²Ð°ÑĤÑĮ":9350,"ĠÐĴÐ»Ð°Ð´Ñĭ":9351,"ĠÐľÐ¸ÑħÐ°Ð¸Ð»":9352,"ĠÐ¿Ð°ÑĤÑĢÐ¸Ð°ÑĢÑħÑĥ":9353,"ĠÐ³ÑĢÐµÑĩÐµ":9354,"ĠÐ¿ÑĤÐ¸ÑĨÑĮ":9355,"ĠÐļÐ¾ÑīÐµ":9356,"ĠÑĩÐ¸ÑģÑĤÐ¾Ðµ":9357,"ÑĪÐµÐ½ÑĮÐºÐ°":9358,"ĠÐ½Ð°Ð¿ÑĢÐ°Ñģ":9359,"ĠÐ¿ÐµÑĩÐ°ÑĤÐ½ÑĭÑħ":9360,"ĠÐ·ÐµÐ¼Ð»ÑĮÐ½ÑĭÐ¸ÑħÑĬ":9361,"ĠÐ½ÐµÐ¿ÑĢÐ°Ð²ÑĮÐ´Ñĭ":9362,"ĠÐ·Ð¾Ð²ÑĥÑĤÑĬ":9363,"ĠÑĥÑģÑĤÑĮ":9364,"ĠÐ¿Ð¾ÑģÐ¾Ð»ÑĮ":9365,"Ð´Ñ£ÑĤÐµÐ»ÑĮ":9366,"ĠÐ²Ñ£ÐºÐ¾Ð¼ÑĬ":9367,"ĠÑģÑĭÑģÐº":9368,"ĠÐ¿Ð¾ÐºÐ»ÐµÐ¿":9369,"Ð»ÐµÐ½ÑĸÑı":9370,"ÑģÐµÑħ":9371,"ĠÑ»Ð½":9372,"ĠÐ²Ð»Ð°Ð´ÐµÑĤÑĮ":9373,"ĠÐ¸Ð½Ð¾Ð³Ð´Ñĭ":9374,"ĠÐ·Ð»Ð°ÑĤÐ¾Ð¼":9375,"ĠÐ¾ÐºÑĤÑıÐ±ÑĢÑı":9376,"ÑĪÐºÐ¾Ð¼ÑĬ":9377,"ĠÐµÐ»Ð¸Ð·":9378,"ĠÐ¿ÑĢÐ¾Ð´Ð¾Ð»":9379,"ĠÐ°Ð´Ð°Ð¼Ð°":9380,"ÑĢÐ¸ÑĤÑĬ":9381,"Ð»Ð½Ð¾":9382,"ĠÑģÐ±":9383,"ĠÐ¿Ð¾ÑģÑĤÑĭ":9384,"ĠÐ·Ð°Ð¸Ð¼":9385,"Ð´ÐµÐ»Ð°":9386,"ĠÐŁÑĥ":9387,"ĠÐºÐ°Ð´ÑĮ":9388,"ĠÑģÑĤÐ°ÑĢÑĨÑĭ":9389,"ĠÑģÑĤÐ°ÑĢÑĭÐ¼":9390,"Ð½ÑĭÑħÑĮ":9391,"ĠÐºÑĢÐ¾Ð²Ðµ":9392,"ÑĩÐ¸Ð½ÑĬ":9393,"ĠÐ´Ð¾Ð»Ð¶":9394,"ĠÐ¿ÑĭÑĤÐ°ÑĤÑĮ":9395,"Ð¼Ð°ÑĤÑĢÐ¸":9396,"ĠÐ¶Ð°Ð»Ð¾Ð²Ð°Ð½ÑĮÑı":9397,"ÑĤÐ²Ð¾Ñİ":9398,"Ð½ÐµÐ¼ÑĮ":9399,"Ð²ÑĸÐ¸":9400,"Ð¾ÑĢÐ¼Ð¸":9401,"ĠÐ´Ð°ÑģÐ¸":9402,"ÑĢÐµÐµ":9403,"ĠÐ²Ð¾Ñ¥":9404,"ĠÐ¿Ð¾ÑģÐ¼Ð¾ÑĤ":9405,"ĠÐ´Ñ£Ð²":9406,"ĠÐ¼Ð½Ð¾Ð¶":9407,"ĠÐ¿Ð¾Ð¼Ð°Ð·":9408,"ĠÐºÐ¾ÑĤÐ¾ÑĢÐ°Ñ§":9409,"ÑĢÑıÑĤÑĮ":9410,"ĠÑģÐ¼ÐµÐ½":9411,"ĠÑĤÑĢÑĥÐ´Ð°":9412,"ĠÐ´ÐµÑĢÐµÐ²Ð½ÑıÑħ":9413,"ĠÑģÑĢÑĨ":9414,"ĠÑģÑĢÐ¾Ð´":9415,"ĠÐ²ÐµÐ»Ñ£ÑĤÐ¸":9416,"ĠÐ³Ð»Ñ£Ð±Ð°":9417,"ĠÐ¿Ð¾Ð¼ÐµÑģÑĤÑĮÐµÐ¼":9418,"ĠÐ´ÐµÐºÐ°Ð±ÑĢÑı":9419,"ĠÑĤÐµÑĤ":9420,"Ð·Ð²Ð°":9421,"ĠÑģÑĬÐ²ÑĢÑĮ":9422,"ÑĢÑĮÑģ":9423,"ĠÐ»Ð¸ÑģÑĤÑĮ":9424,"ĠÑĩÐµÑĢÑĤÐ°":9425,"ĠÑĩÐµÑĢÐ½ÑĭÑħ":9426,"ÐºÑ¡Ð¼ÑĬ":9427,"ÑĪÑĤÐµÐ¼ÑĬ":9428,"ĠÐ·Ð½Ð°Ð¼Ñı":9429,"ĠÑĥÐ¼ÑĢÐµÑĤÐ¸":9430,"ĠÑıÐ·ÑĭÐºÐ°":9431,"ĠÐ¾Ð±ÑĭÑĩÐ°Ð¹":9432,"ĠÐ¡ÑĭÐ½Ð°":9433,"ĠÑģÑĢÐ°Ð¼Ð¾ÑĤ":9434,"Ð²ÑıÑīÐµÐ½":9435,"ĠÐ°Ð»ÐµÐºÑģÐµÑİ":9436,"ĠÐºÑĸÐ¸":9437,"Ñ§Ð½ÑĮ":9438,"ĠÐ¾ÑĤÐ²Ñ£ÑīÐ°":9439,"ĠÑ¡ÑĤÐ¸":9440,"Ð°ÑģÐ»Ñģ":9441,"ĠÐ²ÐµÐ»Ð¸ÑĤ":9442,"Ð¶Ð¸Ð¾":9443,"ÑģÑĤÐ¾Ðµ":9444,"ĠÑħÐ¾ÑĪÑĤÐµÑĪÐ¸":9445,"ĠÑĢÑ£ÐºÑĥ":9446,"ĠÐ¼Ð¾ÐµÑı":9447,"ÐºÑ¡Ð²ÑĬ":9448,"ĠÑĩÐ»Ð¾Ð²Ñ£ÐºÐ¾Ð¼ÑĬ":9449,"ĠÐ´ÑĬÐ²Ñ£":9450,"ĠÐ²Ñ£ÑĢÑ¹":9451,"ĠÐ¼ÐµÑĢÑĭ":9452,"ĠÑĭÐ²Ð°":9453,"ĠÐ´ÑĢÑĬêĻģ":9454,"ĠÐ³ÑģÐ´ÑĢÐ½Ñ§":9455,"ĠÐ±Ð¾Ð¶ÐµÑģÑĤÐ²ÐµÐ½":9456,"ĠÐ¿Ð¾Ð¼ÐµÑģÑĤÐ½ÑĭÑħ":9457,"ĠÐ°ÑĦÐ¾Ð½ÑĮÐºÐ°":9458,"Ð±Ð¾Ñĥ":9459,"Ð»Ð°ÑĤÑĬ":9460,"ĠÐĺÑģ":9461,"ĠÐ¼Ð¾Ð¸Ñģ":9462,"ĠÐ¼Ð¾Ð¸Ñħ":9463,"ĠÑĤÐ°ÐºÐ°Ñı":9464,"ĠÐ¸ÑģÑĨÐ°":9465,"Ð´ÑĥÐ¼":9466,"Ð»ÐµÐ²ÐµÑĤÐ°":9467,"ĠÐ±ÐµêĻģÑĬ":9468,"ĠÐ½ÐµÐ¼ÐµÑĨ":9469,"ÑģÑĤÑĢÐ¾Ð¸":9470,"ĠÐ²Ñ£ÑĢÐ¾Ñĥ":9471,"ĠÐ¿Ð¾Ð¼Ð¾ÑĩÑĮ":9472,"ĠÑģÑĤÐµÐ¿Ð°Ð½Ð¾Ð²":9473,"ÐµÑ¡Ð´":9474,"ĠÐĶÐ°ÑĢÐ¸Ñİ":9475,"ĠÑİÐ½Ð¾ÑģÑĤÐ¸":9476,"Ð²ÑĪÑĥ":9477,"ÐºÑĤÐ¾":9478,"ĠÐ´ÐµÐ½Ð¸":9479,"Ð¿Ð¸ÑĤÑĮ":9480,"ĠÐ½ÐµÐ»Ð¸":9481,"ĠÐ»Ð°Ðº":9482,"ĠÑģÑĤÐ¾Ð»ÑĮÐºÐ¾":9483,"ĠÐ·Ð°Ð»Ð¾Ð¶Ð¸":9484,"êĻĹÐ²":9485,"ĠÑ¡Ð´Ñ£":9486,"ĠÐ²ÑĭÐ¼":9487,"ĠÐ¿ÑĢÐµÐ¿":9488,"Ð»Ñ§ÑĪÐµ":9489,"ĠÐłÐ¾Ðº":9490,"ĠÐ±êĻĳÐ²ÑĬ":9491,"ĠÐ±Ð»Ð°Ð³Ð¾ÑĢÐ¾Ð´":9492,"ĠÐ¡ÑĤÐ°ÑĢ":9493,"ĠÐ¾Ð´Ð½Ð¾Ð¹":9494,"ĠÑĥÐ±Ð¸Ð»ÑĬ":9495,"ĠÐ²Ð°ÑģÐ¸Ð»Ñİ":9496,"ĠÐºÑĢÐµÑģÑĤÑĮÑıÐ½Ð¸Ð½":9497,"ĠÐ·ÐµÐ¼Ð»ÑıÐ¼Ð¸":9498,"ĠÐ¼Ð¾ÑģÐºÐ¾Ð²ÑģÐºÐ¾Ð¼Ñĥ":9499,"ĠÐ²Ð¸Ð´Ð¸ÑĤ":9500,"ĠÐ½Ð°Ð¿Ð°ÑģÑĤÐ¸":9501,"ĠÐ°Ð½Ð´ÑĢÑİÑĪÐºÐ°":9502,"ĠÑģÐºÑĥ":9503,"ĠÐ¶ÐµÑĢÑĤ":9504,"Ð¾Ð½Ð¾Ð²Ð°":9505,"ĠÑģÐ»Ð¾Ð¶":9506,"ĠÑĢÐµÐºêĻĭ":9507,"ÐµÐ·Ð¶Ð°":9508,"ĠÐ»Ð¸Ð¿ÑģÐ²Ð°":9509,"ĠÐľÐ°Ð¼Ð°":9510,"ÑģÑĤÑĭÐµ":9511,"ĠÑĤÑ£ÑģÐ½Ð¾":9512,"ĠÑģÐºÐ¾Ð¿":9513,"ĠÐ²ÐµÐ»Ð¸ÐºÑĸÑı":9514,"ÑĤÑĭÑħÑĬ":9515,"ĠÐ²ÐµÑĢÑĥ":9516,"ĠÐ¿Ð¾Ð¿ÑĢÐ°Ð²":9517,"ĠÐ½Ð°ÑĪÐµÐ¼ÑĬ":9518,"ĠÑģÐ»Ð°Ð²êĻĭ":9519,"ĠÐ¥Ð¾Ð´":9520,"ĠÐ±ÑĢÐ°ÑĤÑĮÐµ":9521,"ĠÐĸÐµÐ½Ð°":9522,"ĠÐ¿ÑĢÐµÐ¼êĻĭÐ´":9523,"ÐµÑĢÑĥÑģÐ°":9524,"ĠÐĳÐ»Ð°Ð³Ð¾ÑģÐ»Ð¾Ð²":9525,"ĠÑģÑĬÐ¼ÑĮÑĢÑĤÐ¸":9526,"ĠÐ½ÐµÐ´Ñ£Ð»Ñİ":9527,"ĠÐ¿ÐµÐ½ÑĮ":9528,"ĠÐ¼ÐµÑģ":9529,"ĠÐ¼Ð»ÑĬ":9530,"Ð»Ð¸Ð¼Ð°":9531,"Ð½Ð¸ÐºÐ¾Ñĥ":9532,"ĠÑĥÑģÑĤÑĢÐ°":9533,"ĠÑģÑĬÐ²ÑĮÑĢ":9534,"ĠÐ²Ñ£ÑĢÑĮ":9535,"ĠÐ¼Ð¸ÑĢÐ¾":9536,"ĠÑĤÐ°Ð¶Ðµ":9537,"ÑĶÐ¼":9538,"ÑħÑĥÑĤÑĮ":9539,"ĠÐ¼Ð°ÑĤÐ²Ðµ":9540,"ĠÑģÑĤÐ²Ð¾ÑĢÐ¸ÑĪÐ°":9541,"ĠÑĤÐ²Ð¾Ñ¥Ð³Ð¾":9542,"ĠÐ¢ÐµÐ±Ñ£":9543,"Î¿ÏĤ":9544,"us":9545,"Ð¿Ð»ÑĮ":9546,"ĠÑĢÐ¾Ð³ÑĬ":9547,"ĠÐ¿Ð¾êĻģÐ½Ð°":9548,"ÐµÐ½Ñĸ":9549,"ĠÐ»Ð¾Ð½ÑĮ":9550,"ĠÐĲÐ¼Ð¸ÑĢÐ°":9551,"ĠÐĳÐµÐ»":9552,"ĠÐŀÐ¹":9553,"ĠÐ¸ÑģÑĨÑĭ":9554,"ĠÐºÐ½ÑıÐ·ÐµÐ¼":9555,"ĠÑĦÐ¾Ð¼":9556,"ĠÐºÑĢÐ°Ð»ÐµÐ²Ð½Ðµ":9557,"ĠÐ¿ÑĢÐ¸Ð²ÐµÐ´ÑĥÑĤ":9558,"ĠÑĥÐ´Ð¾Ð±ÑĮ":9559,"ĠÑĢÐ°ÑĤÐ¼Ð°Ð½":9560,"ĠÐ´Ð¼Ð¸ÑĤÑĢÐµÑı":9561,"ĠÑģÑĤÐ°ÑĢÐ¾ÑģÑĤÐ°Ð¼":9562,"ĠÐ°ÑĢÑħÐ¸Ð¼Ð°Ð½Ð´ÑĢÐ¸ÑĤ":9563,"ĠÐĺÑħÐ½Ð¸Ð»Ð°ÑĤ":9564,"ĠÐĶÐ°Ð½Ð¸Ð»Ð¾Ð²Ð¸ÑĩÑĮ":9565,"Ð¾ÑĦÐ°":9566,"Ð²êĻĳÐ¸":9567,"ÑıÐ»ÑĬ":9568,"ĠÑĤÐ¾Ñ§":9569,"ÑĩÐ°Ñı":9570,"ĠêĻģÑĭ":9571,"ĠÑģÑĤÑĢÐ°Ñħ":9572,"ĠÑ£ÑħÐ°ÑĤÑĮ":9573,"ĠÑĥÐ³Ð¾Ð´ÑĮ":9574,"ĠêĻģÐµÐ¼Ð»Ñ§":9575,"ĠÑĤÐ¾Ð³Ð´Ñĭ":9576,"ĠÐ¼Ð°ÑģÐ»Ð¾":9577,"ĠÑĢÐ¾ÑģÑĤÐ¸ÑģÐ»Ð°Ð²":9578,"ĠÑĸÐ²Ð°ÑĪÐºÐ¾":9579,"ĠÑ©":9580,"ÑĤÑ¡":9581,"ÑģÐ¾Ðº":9582,"ĠÑģÐµÐ½ÑĮ":9583,"ÑĢÐ°Ð³Ð¾":9584,"ĠÑħÑĭÑĤ":9585,"ĠÑģÐµÐ¶Ðµ":9586,"ĠÐ¡ÑĤÐ¾":9587,"ĠÐ¸Ð·Ð»Ð¸":9588,"ĠÑĤÐ°ÐºÐ¾Ð¼ÑĬ":9589,"ĠÐ¿Ð¸ÑĪÑĥ":9590,"ĠÐ¿Ð»Ð°ÑĩÐ°":9591,"ĠÐ½Ð°ÑĪÐµÐ¹":9592,"Ð´Ñ§ÑĪÐµ":9593,"ĠÑĩÑĮÐ¸":9594,"ĠÐ¡ÑĤÑĢ":9595,"ĠÐ³ÑĢÐ¸Ð³Ð¾ÑĢÑĮÑı":9596,"ĠÐ´ÐµÑģÑ§":9597,"ĠÐ½Ð¾Ð³Ñĥ":9598,"ĠÐ¼ÑģÑĤÐ¸ÑģÐ»Ð°Ð²ÑĬ":9599,"ĠÐĳÑĥÐ´ÐµÑĤÑĮ":9600,"Ð°Ð½Ñĭ":9601,"ÑĤÑ«":9602,"Ð»êĻ¿":9603,"Ð²ÐµÐ·":9604,"ĠÐ²Ð¾Ð½ÑĮ":9605,"ĠÐ´Ð¾Ð»ÑĮ":9606,"ÑģÑĤÑĢÑĬ":9607,"ÑĪÐ¸ÑĤÑĬ":9608,"ĠÐ¼Ð¾Ð¶Ð°":9609,"ÑĩÐ½ÑĭÐ¼ÑĬ":9610,"ÑĢÐ°ÑĤÑĮ":9611,"ĠÑĢÑĥÐ´":9612,"ÐµÐ¼Ð»Ñİ":9613,"ĠÑĨÐµÑģ":9614,"Ð¼ÑĥÑİ":9615,"ÑģÐ»Ð¾Ð²Ðµ":9616,"ĠÐĵÐ°Ð²":9617,"ĠÐ¿Ð¾ÑĤÐ¾Ð¼ÑĮ":9618,"ĠÐ½Ð¸ÐºÐ¾Ð»Ð°":9619,"ĠÐ²ÑĢÐ°Ð·Ð¸":9620,"ĠÐ¾Ð¿Ñĭ":9621,"ĠÐºÑ¹Ð¿Ð¸":9622,"ĠÐºÑĢÐµÐ¿Ð¾ÑģÑĤÑĮ":9623,"ĠÐ¿ÑĪÐµÐ½Ð¸ÑĨÐ¸":9624,"ĠÐ²ÑģÑĤÑĢÐµ":9625,"ĠÑģÐ¾Ð¶":9626,"ĠÐ´Ð¾Ð²Ðµ":9627,"ÑĪÐ¸Ð½Ðµ":9628,"ĠÐ¾Ð½ÑĮ":9629,"ĠÐ½Ð°Ð³Ð¾":9630,"ĠÐ·Ð²Ð°ÑĤÐ¸":9631,"ĠÐĺÐ²Ð°Ð½Ð°":9632,"Ð¾ÑĤÑ«":9633,"ÑĢÐµÐ²Ð°":9634,"Ð´ÐµÑħ":9635,"ÑĪÐ¸Ðµ":9636,"ĠÐ¿Ð¾Ð»ÐºÐ¾Ð¼ÑĬ":9637,"ĠÑĨÐ°ÑĢÑģÑĤÐ²":9638,"ĠÐĵÑĢÐ¸":9639,"Ð»ÐµÐ½ÑĸÐ°":9640,"ÑĶÐ²ÑĬ":9641,"ĠÐºÑĥÐ·ÑĮ":9642,"ĠÑģÐ»ÑĥÐ¶Ðµ":9643,"ĠÐ¸Ð²Ð°Ð½ÐºÐ°":9644,"ĠÐ¿Ð¾Ð½Ð¾Ð¼":9645,"ĠÑ¡Ð±ÑĢÐµ":9646,"ĠÐºÐ°Ð¼ÐµÐ½Ðµ":9647,"ĠÑģÐ»Ð°Ð´ÑĬ":9648,"ĠÐ¿ÑĢÐ¾Ð´Ð°Ð¸":9649,"ĠÑĤÑĮÐ¼ÑĮ":9650,"Ñ¯Ð°Ð½Ð´":9651,"ĠÑģÐ»êĻĭÐ¶":9652,"ĠÑģÑĤÐ°ÑĢÐ¾ÑģÑĤÐµ":9653,"ĠÐºêĻĳÑ¥":9654,"ĠÐľÐ°ÐºÐµÐ´Ð¾Ð½":9655,"ĠÑĤÐ¸ÑĥÐ½Ð¾Ð¼":9656,"Ð´Ð¾Ð»Ð¸":9657,"Ð´ÐµÐ»ÑĬ":9658,"ĠÐ²Ð¾Ð¶":9659,"ÑıÑīÐ°":9660,"ÑĩÐ½ÑĭÑħ":9661,"ĠÐ½Ð°Ð²ÐµÐ´":9662,"ÑĢÐ°Ð±":9663,"ÑģÐºÑ«":9664,"ĠÐ·Ð°ÑģÐ²Ð¸":9665,"ĠÐ²ÑĭÐ²ÐµÐ´":9666,"ĠÑĤÑĭÐµ":9667,"ĠÑħÐ¾ÑĨÐµ":9668,"ĠÑĢÑ£Ð·Ð°Ð½Ñ£":9669,"ĠÑħÐ¾Ð»Ð¾Ð¿Ñĥ":9670,"ĠÐºÐ¾Ð»Ð¾Ð¼":9671,"ĠÐ´êĻĭÑĪÐ°":9672,"ĠÑ¥ÑģÐ¼Ðµ":9673,"ĠÐ²ÐµÑĩÐµÑĢÑĬ":9674,"ĠÐ²ÐºÑĥÐ¿Ñ£":9675,"ÑĤÐ½Ð¾Ðµ":9676,"Ð¼Ð°Ð½ÑĬ":9677,"ĠÐ¿Ð¾Ð²Ñĭ":9678,"ĠÐ½Ð¾Ð²Ð¾":9679,"ĠÐ¾ÑģÑĮ":9680,"Ð¾ÑģÐ¾Ð¼ÑĬ":9681,"ĠÑģÑĬÐ´":9682,"Ð»ÐµÐ½Ðµ":9683,"ĠÑĤÑĥÑĢÐµ":9684,"Ð¼ÐµÐ½Ð¸Ðµ":9685,"ĠÐ¯Ð·":9686,"ĠÐ¸Ð¼Ð°ÑĤÑĬ":9687,"ĠÑĢÐ¾ÑģÐ¿ÑĢÐ°ÑĪÐ¸":9688,"ĠÐ²Ð¾Ð¸Ð½ÑģÐºÑĸÐµ":9689,"ĠÑģÐµÐ¼ÐµÐ½Ð¾Ð²Ð°":9690,"ĠÐ¼ÑĥÐ¶ÐµÐ¹":9691,"ĠÐ´Ð¾Ð¶":9692,"ÑħÐ¾Ð¶Ðµ":9693,"ĠÑĥÑĤÑĢ":9694,"ĠÐ²Ð¾Ð¸Ð½ÑĬ":9695,"Ð¸Ð¼Ñĥ":9696,"Ð¾Ð²Ð¸ÑĩÐµ":9697,"âĢ¦":9698,"ĠÐľÐ½Ñ£":9699,"ĠÐ²ÑĮÑĢÑĮ":9700,"ĠÐ±Ð³Ñ¹":9701,"ĠÐ±ÑĢÐ°ÑĤÑĸÑ§":9702,"ĠÐ¿Ð¾ÑĪÐ»Ð°":9703,"ĠÐ±ÑĢÐ°ÑĤÑĮÑİ":9704,"ĠÐ¼êĻĭÐ¶Ðµ":9705,"Ð½ÐµÐ½ÑĸÐµ":9706,"ĠÐ±Ð»Ð¸Ð¶ÑĮ":9707,"ĠÐ´ÑĬÐ»":9708,"ĠÐ¼Ð¸Ð»Ð¾ÑģÑĤÑĮÑİ":9709,"ĠÐ½Ð¾ÑģÐ¸ÑĤÐ¸":9710,"ĠÐ¿ÑĢÐ¸ÑģÑĤÑĥÐ¿Ð°ÑĤÐ¸":9711,"ĠÐ¼Ð½Ñ¡Ð³Ñĭ":9712,"ĠÐ¿ÑĢÐ¾Ð´Ð°Ð»":9713,"ĠÐ±ÑĢÐ°ÑĪÐ¾Ð²":9714,"ĠÐ½Ñ£ÐºÑĤÐ¾":9715,"ĠÑĥÐ¼ÐµÑĢÑĪÐ¸Ñħ":9716,"ĠÐ¾ÑģÐ¸ÑĦÐ¾Ð²":9717,"ĠÐ¿Ð¾Ð³ÑĥÐ±Ð¸ÑĤÑĮ":9718,"ĠÑģÐ»ÑĮÐ·Ñĭ":9719,"ĠÑĢÐ¾Ð·Ð±Ð¾Ðµ":9720,"ĠÑĤÐ¾Ð½":9721,"ĠÑĤÑĸÐ¸":9722,"ÐµÐ¼ÑģÑı":9723,"ĠÑģÑĤÐ°Ð½ÑĬ":9724,"ĠÑ¡ÑĢ":9725,"Ð¸ÑģêĻĭ":9726,"ĠÑĨÐ°ÑĢÐµÐ²Ð°":9727,"ĠÐ´Ñ£Ð¹":9728,"ÑģÑĤÐ¾Ñİ":9729,"ĠÐµÐ¼ÑĥÐ¶Ðµ":9730,"ÑħÐ¾Ð´Ñ§Ñī":9731,"ĠÑģÑĤÐ°Ð³":9732,"ĠÐºÐ°Ð·Ð°ÐºÐ¾Ð²":9733,"ĠÐ¾Ð¿Ñ§ÑĤÑĮ":9734,"ÑģÑĤÐ°Ð½Ð½Ð¾":9735,"ĠÐ¿ÐµÑĢÐµÐ´Ð¸":9736,"ĠÐ½Ð¾Ð³Ð°Ð¼Ð°":9737,"ĠÐ°Ð½Ð´ÑĢÑ£Ð¸":9738,"ĠÑģÑĤÐ°ÑĢÐ¾ÑģÑĤÑĭ":9739,"ĠÐ¸Ð½Ð°ÐºÐ¾":9740,"ĠÑģÐºÐ²Ð¾Ð·ÑĮ":9741,"ĠÐ»Ð¾ÐºÑĤÐ¸":9742,"ĠÐ¿Ð¾Ð³êĻĭÐ±":9743,"ĠÑģÐ¸ÑĩÐºÑĭ":9744,"Ð°ÐµÑĤÑĮ":9745,"ĠÑģÐ¾Ð½ÑĬ":9746,"Ð¾Ð²Ñ¹":9747,"ÑĢÐ°Ð²Ñ£":9748,"ĠÐ°Ñ³Ð¾Ð½":9749,"ĠÐ¿Ð¾Ð»ÑĤÐ¾ÑĢÐ°":9750,"Ð´Ñ£Ð»ÑĬ":9751,"Ð½ÑĮÑĨÐµ":9752,"ĠÑģÐºÐ¸Ð½":9753,"ĠÐ±Ð»Ð°Ð³Ð¾Ð²Ðµ":9754,"ĠÐ¿ÑĢÐ°Ð²Ð°":9755,"ĠÐ¿ÑĢÐ¸ÑħÐ¾Ð´Ð¸ÑĤÐ¸":9756,"ĠÐ²ÑĢÑ£Ð¼ÐµÐ½Ðµ":9757,"ĠÐ¿ÑĢÐ¸Ð½ÐµÑģÐ¾ÑĪÐ°":9758,"ĠÐ¾Ð±Ñ£ÑīÐ°":9759,"ĠÐ²ÐµÑĤÑĪÐ°":9760,"ĠÐºÐ½ÑıÐ³Ð¸Ð½Ñı":9761,"ÑĩÑĭ":9762,"Ð¿Ð°ÑĤ":9763,"ĠÑĥÐ¼Ð¸ÑĢÐ°":9764,"ÐµÐ»Ð¾Ð¼ÑĬ":9765,"ĠÑħÑ£":9766,"ĠÑħÐµÑĢ":9767,"ĠÐ·Ð°Ð¾Ñĥ":9768,"ĠÐ¸Ð·Ð¾Ð±":9769,"Ð½Ñ§Ð³Ð¾":9770,"ĠÐ´ÐµÐ¶Ðµ":9771,"ĠÐ¼Ð¾Ð»Ð²Ð¸":9772,"ĠÑģÑĤÐ°Ð³Ð¾":9773,"ĠÑģÑĤÐ°Ð´Ð°":9774,"ĠÑĥÑĩÐ¸Ð½Ð¸Ð»Ð¸":9775,"ĠÐ¿Ð¾Ð¶Ð°Ð»Ð¾Ð²Ð°ÑĤÐ¸":9776,"ĠÑĪÐµÑģÑĤÐ¸":9777,"ĠÐºÐ¾Ð¿ÑĮÐµ":9778,"ĠÐ¿Ð¾Ð¼ÐµÑģÑĤÑĮÑıÑħ":9779,"ĠÐ¡Ð¾Ð»Ð½Ñĭ":9780,"ĠÐļÐ¾ÑīÐµÐ¹":9781,"ĠÐ¿ÑıÑĤÑĮÐ´ÐµÑģÑıÑĤ":9782,"ĠÐ½Ð°ÑĢÑıÐ´ÑĬ":9783,"ĠÑĩÐ»Ð²ÐºÑĬ":9784,"ĠÐ¸Ð·Ð²Ñ£ÑģÑĤ":9785,"ĠÐ¼ÐµÑĩÐµÐ¼ÑĬ":9786,"ĠÑ¡Ð±Ð¸ÑħÐ¾Ð´ÑĬ":9787,"ĠÑĢÐ¾Ð·Ð±Ð¾Ð¹Ð½Ð¸ÐºÐ¸":9788,"ĠÐ½ÐµÐ¸Ð·ÑĢÐµÑĩÐµÐ½":9789,"Ð²Ñ£ÑīÐ°Ð²ÑĬ":9790,"ĠÐ²ÑģÐ¿Ð¾Ð»Ð¾":9791,"ĠÐ§ÐµÑĢÐ½Ð¸":9792,"Ð¼Ð½Ñ£":9793,"ÑĩÐ½Ð°":9794,"ĠÐ¾ÑĥÑĩÐ¸ÑĤÐ¸":9795,"ĠÐ¿ÑĢÐ¾Ð¸":9796,"ĠÐºÐ°ÐºÑ¡":9797,"Ð¶Ð°Ð¸":9798,"ĠÐ³Ð¾Ð»Ð¾Ð²Ð¾Ñİ":9799,"Ð³Ð¾Ð´Ð½Ð¾":9800,"ĠÑĤÑĮÑĩÑĸÑİ":9801,"ĠÐ¿Ð¾ÑģÐ»Ð¾Ð²ÑĬ":9802,"ĠÐºÑĢÑĥÐ³ÑĬ":9803,"ĠÑģÐ²Ñ£ÑĤÐ»Ð¾":9804,"ĠÐ´Ð²ÑĥÑħÑĬ":9805,"ĠÑģÐ»Ñ£Ð¿":9806,"ĠÐŁÑĢÑ£Ð´ÑĬ":9807,"ĠÑĢÐ¾Ð´Ð¸ÑĤÐµÐ»ÐµÑħ":9808,"ĠÐ²Ð½ÐµÐ³Ð´Ð°":9809,"ĠÑģÑīÐµÐ½":9810,"ÑĢÐ°Ð½Ð¸":9811,"ĠÑ¡ÑģÑĤ":9812,"Ð´ÐµÑĪÑĮ":9813,"ĠÐ²Ð¾ÑģÑĤÐ°Ð²ÑĬ":9814,"ĠÑģÐ»ÐµÐ´":9815,"ĠÐ¡Ð¸Ð¼":9816,"ÑĢÑĮÑİ":9817,"ÑīÐ°ÐµÑĤ":9818,"ÑĨÐ¸Ð¸":9819,"ĠÐºÐ¾ÑĢÐµÐ½ÑĮ":9820,"ĠÐ¿Ð¾ÑĤÑĢ":9821,"ĠÑİÐ´Ðµ":9822,"Ð³ÑĥÐ±":9823,"ĠÐ¿ÐµÑī":9824,"Ð¼ÑĭÑģÐ»Ð¸":9825,"êĻĻÑĤÑĬ":9826,"ĠÐĹÐ°Ð½Ðµ":9827,"ĠÐ±êĻĭÐ´ÐµÑĤ":9828,"ĠÐ¼Ð¾Ð»Ð¸ÑĤÐ²Ñ£":9829,"ĠÑħÐ¾ÑĤÑ£Ð»ÑĬ":9830,"ĠÐ½Ð°Ð¼Ñ£Ñģ":9831,"ĠÐ»êĻĭÐºÐ°":9832,"ĠÐ¿ÑĥÑĤÐµÐ¼ÑĬ":9833,"ĠÐ²ÑĢ":9834,"ĠÐ´ÐµÐ¼ÐµÐ½":9835,"ĠÐºÐ¾Ð¼êĻĭ":9836,"ĠÑģÑĤÐµÐ½Ð°":9837,"ĠÑħÐ²Ð°Ð»":9838,"ĠÑ¡ÑģÑĤÐ°Ð²Ð¸":9839,"ĠÐ¶êĻĭ":9840,"ĠÐ²ÑĭÐ¿Ñĥ":9841,"ĠÐ±Ñ£Ð´Ñĭ":9842,"ĠÐłÐ°Ñħ":9843,"ĠÑ³Ðµ":9844,"ĠÐ´Ð¾ÑĢÐ¾Ð¶":9845,"ĠÐ³Ð¾ÑģÑĤÑ§":9846,"ĠÐ¾ÑĤÐ¸Ð´Ðµ":9847,"ĠÐ¡ÑĤÑĢÐ°ÑħÑĬ":9848,"ĠÐ¿ÑĢÐ¸ÐºÐ»Ñİ":9849,"ĠÑģÑĥÐ½Ð´Ñĥ":9850,"Ð½Ð¾Ð¶":9851,"ÐºÐ¾Ð»ÑİÐ±Ð¸":9852,"ĠÐ²êĻ¿":9853,"ĠÐ±Ð¶Ðµ":9854,"ĠÐ¾Ð»ÐµÐºÑģÐµ":9855,"ĠÐ¿ÑĢÑĪÐµ":9856,"Ð¾Ð½Ð¾Ð²ÑĬ":9857,"ÑĩÐ¸Ð»Ð¸":9858,"ĠÐ¼Ð¾ÑģÑĤÑĥ":9859,"ĠÑĤÐ²Ð¾Ð¸Ð¼":9860,"ĠÐ³Ð¾ÑģÑĥÐ´Ð°ÑĢÑģÑĤÐ²Ð¾":9861,"ÑĦÐµÐ¹":9862,"ĠÑģÐ²Ð¸Ð½ÑĮ":9863,"ĠÑģÐ¾ÑĪ":9864,"ĠÐºÑĢÐ°Ð»Ð¸":9865,"ĠÐ¿Ð»Ð°ÑĩÐ¸":9866,"ĠÑģÑĤÑĢÑ£Ð»Ñĭ":9867,"ĠÐ·Ð´ÑĢÐ°Ð²ÑĬ":9868,"ĠÑĦÐµÐ´Ð¾ÑĢÐ¾Ð²Ð°":9869,"ĠÐ´Ð¾Ð»Ð³Ð¸":9870,"ĠÐ¿Ð¾Ð»Ð¾ÑĨÐºÐ¾Ð³Ð¾":9871,"ĠÐ²Ð¾Ð»Ð¾Ð´Ð¸Ð¼ÐµÑĢÐ°":9872,"ĠÐºÑĢÑ£Ð¿Ð¾ÑģÑĤ":9873,"ĠÐ¿Ð¾ÑģÐ»Ñ£Ð´ÑĮ":9874,"ĠÐ±ÑĢÐ°ÑĤÐ¸Ðµ":9875,"ĠÑĢÐ°ÑĤÐ½ÑĭÑħ":9876,"ĠÐºÑĭÐµÐ²Ñĥ":9877,"ĠÐĴÐ°ÑģÐ¸Ð»ÑĮ":9878,"ĠÑ¦":9879,"ÑĮÑĨÑĮ":9880,"Ð´ÑıÑĤÑĮ":9881,"ÑģÑĤÑĢÐ°ÑĤÐ¸":9882,"Ð³Ð¾Ð²Ñ£ÑĢ":9883,"ÑĤÐ¸ÑĤ":9884,"Ñ¹ÑĤÑĮ":9885,"Ð¶ÐµÑĪÐ¸":9886,"ĠÑ¿ÑĨÑĮ":9887,"ĠÐ¸Ð¼ÐµÑĤÑĮ":9888,"Ð²ÑĬêĻģ":9889,"ĠÐºÐ¾Ð½Ð½ÑĭÐ¼ÑĬ":9890,"ÑĶÑĤ":9891,"ĠÐ·Ð°Ð¿Ð¸ÑģÑı":9892,"ĠÐ¿Ð¸ÑģÑĨÐ¾Ð²ÑĭÑħ":9893,"ĠÐłÐ¾ÑģÑĤ":9894,"ĠÐ±Ð¶ÑĸÐ¸":9895,"ĠÐ²ÑģÐµÐ¼Ñ¹":9896,"ĠÑĦÐµÐ´Ð¾ÑĢÐ¾Ð²Ð¸Ñĩ":9897,"ĠÐ´Ð¾ÑģÑĤÐ¾Ð¸Ð½":9898,"ÑĢÐ°Ð½ÑĨÑĥ":9899,"ĠÐ¾ÑģÑĤÐ°Ð²Ð»Ñı":9900,"ĠÑģÑĤÑĢÐ¾Ð¸ÑĤÐ¸":9901,"ĠÑİÑĢÑĮÑİ":9902,"ĠÐ»Ð²ÐºÑĬ":9903,"ĠÐ¿Ð¾Ð¼ÐµÑīÐ¸ÐºÐ¸":9904,"ĠÐ½Ð°Ð¼ÐµÑģÑĤÐ½Ð¸ÐºÐ¾Ð¼":9905,"ĠÐ±ÐµÑĢÐµÐ¶ÐµÐ½ÑĮÐµ":9906,"ĠÑŃ":9907,"ĠÐ¿ÑĥÐ´":9908,"Ð¾Ð³Ñĭ":9909,"Ð½Ð°Ð¸":9910,"ĠÑħÐ¾Ð¼Ñĥ":9911,"ĠÑĢÐ°Ñĥ":9912,"Ð¸Ð¼Ð°ÑĤÐ¸":9913,"ĠÑĤÐ²Ð¾ÐµÐ¼ÑĮ":9914,"ĠÐ³ÑĢÐ°Ð½Ð¸":9915,"Ð¼Ð°Ñı":9916,"ĠÑģÐ¾Ñĩ":9917,"Ð¶Ð°ÐµÑĤ":9918,"ĠÐ¼Ð½Ð¾Ð³Ð¸Ð¼ÑĬ":9919,"ĠÑĤÑĢÑ¹Ð´":9920,"ĠÐ´Ð²Ð°ÑĤÑĨÐ°ÑĤÐ¸":9921,"ĠÐ²Ð°ÑģÐ¸Ð»ÐµÐ²Ð¸ÑĩÑİ":9922,"Ð½Ð¸Ñ¥Ð¼ÑĮ":9923,"ĠÑĢÐµÐºÑĥÑīÐµ":9924,"ĠÐ½Ñ£ÐºÑĭÐ¹":9925,"ĠÐ·Ð´ÑĢÐ°Ð²Ð¸Ðµ":9926,"ĠÐºÐ»Ð°Ð½Ñ§ÑİÑģÑ§":9927,"ÐºÐ½Ñ¹":9928,"ĠÑĤÑİ":9929,"ĠÐºÐ½Ð¾":9930,"Ð»Ð°Ñģ":9931,"ĠÐ½ÐµÐ¼Ð¸":9932,"Ð¾ÑĥÑİ":9933,"ĠÑĢÐ°Ð·Ð¼ÑĭÑĪ":9934,"ĠÑģÐ²ÐµÑĤÐµ":9935,"Ð¶Ð¸Ð³Ð°":9936,"ÑĨÐ¸Ð½Ð°":9937,"ĠÑģÑĤÐ°ÑĢÑĨÑĥ":9938,"ĠÐ¿Ð¾Ð²Ð¾Ð»":9939,"ĠÑĩÐµÑĢÐµÐ·":9940,"Ð¸Ð»Ð¸ÑģÑı":9941,"ĠÑģÑ¹ÑīÐ°":9942,"ĠÑģÐ¾ÑĤÐ²Ð¾ÑĢÐ¸ÑĤÑĬ":9943,"ÑİÑīÑİ":9944,"ĠÑĤÑĢÐµÑĤÑĮÑİ":9945,"ĠÑħÐ¾ÑĤÑ£Ð½Ð¸Ðµ":9946,"ĠÐ¿ÑĢÐ¾Ð¿Ð°":9947,"ĠÐ´Ð¾ÐºÐ»Ð°Ð´":9948,"Ð·Ð½Ð°Ð¼ÐµÐ½":9949,"ĠÐ³Ð¾Ð»Ð¾Ð²Ð°Ð¼ÑĬ":9950,"ĠÐ¿ÑĢÐ¾Ð¶Ð¸ÑĤÐ¾Ðº":9951,"Ã·":9952,"ĠÐ¿Ð»Ñĥ":9953,"ĠÐ´Ñ¡":9954,"ÑĢÐ°êĻģ":9955,"ĠÑ¡Ñĩ":9956,"ÐºÐ¸Ð½Ð¾":9957,"Ð½ÐµÑħÑĬ":9958,"ĠÑģÐ»Ð½":9959,"ĠÑģÐ²ÐµÑĤÐ°":9960,"ĠÐ²ÑģÑıÐºÑĥÑİ":9961,"ĠÐ¼Ð¾Ð½Ð°ÑģÑĤÑĭÑĢÐ¸":9962,"ĠÐ½Ð°ÑĪÐµÐ³Ñ¡":9963,"ÑĤÐ²ÑĢÑĮ":9964,"ĠÑĢÑ¹ÑģÑĮ":9965,"ĠÐ¾Ð±ÑĭÑĩÐ°Ñİ":9966,"ÑģÑĤÐ¸Ð½Ð½Ñĥ":9967,"ĠÐ¿ÑĢÐµÐ²Ð¾Ð·":9968,"ĠÐºÐ°ÑĤÐ¾ÑĢ":9969,"ĠÑģÐ»êĻĳÑĪÐ°":9970,"ĠÐļÐ°Ð½Ð´Ð°Ð²":9971,"ÐµÑħÐ°ÑĤÑĮ":9972,"ÑĤÑĸÐ¸":9973,"Ð½Ð¸ÑĨÑĬ":9974,"ÑĪÐ°ÐµÑĤÑĬ":9975,"ĠÐ²Ð¾Ð¾ÑĢÑĥ":9976,"ĠÐ¾ÑĥÑĤÑ£":9977,"ĠÐ¿Ð¾Ð»Ñĭ":9978,"ĠÐ¡ÑĥÐ´":9979,"ĠÐĿÐ°Ñģ":9980,"ĠÐ¿Ð¾Ð´Ð°ÑĤÐ¸":9981,"ĠÐĳÐ¾ÑĢ":9982,"ĠÐ¿ÑĢÐ¾ÑģÑĤÐ°":9983,"ĠÐ±ÐµÐ·Ð°ÐºÐ¾Ð½":9984,"ĠÐ¿ÑĢÐ°Ð²Ð¸":9985,"ĠÐ¶Ð¸Ð²Ð¾ÑĤÐ²Ð¾ÑĢ":9986,"ĠÐ¡ÑĤÐµÑĢ":9987,"ĠÐ²Ð¾ÐµÐ²Ð¾Ð´Ñ£":9988,"ĠÑĤÐ°ÐºÑĬÐ¶Ðµ":9989,"ĠÐ¤Ð°ÑĢÐ°":9990,"ĠÐ´ÑĮÑıÐ²Ð¾Ð»ÑĬ":9991,"ĠÐ·Ð¸Ð¼Ñ£":9992,"ĠÐºÐ°Ð¼ÐµÐ½Ð¸ÐµÐ¼ÑĬ":9993,"ĠÐ¾ÑĥÑģÑĤÑĢÐ¾Ð¸ÑĤÐ¸":9994,"ĠÐ¿ÐµÑĢÑģÑĤÐµÐ½ÑĮ":9995,"ĠÐ·Ð°Ð¿Ð¸ÑģÐ°ÑĤÑĮ":9996,"ĠÐ½Ð¾Ð¶":9997,"ÑıÐ½Ð¸Ð½Ð°":9998,"ÑĪÐ¸ÑĤÑģÑı":9999,"Ñ§Ñħ":10000,"ĠÐ½ÐµÑĢÐ°Ð·":10001,"ĠÐĲÐ»Ð¸Ð¼Ð¿Ð¸Ñı":10002,"ÑģÑĤÐ¸ÑĪÐ°":10003,"Ð²Ñ£ÑģÑĤ":10004,"ĠÐºÐ°ÑĪÐ¸Ð½":10005,"ĠÐ»Ð¸ÑģÑĤÐ°":10006,"ĠÐľÐµÐ´Ðµ":10007,"ĠÑĤÐ°ÐºÐ¾Ð²ÑĭÑħ":10008,"ĠÐ´ÐµÐ¶Ð¸":10009,"ĠÑģÑĤÑĢÐ°ÑħÑ¹":10010,"ĠÑģÑĥÑīÑİ":10011,"Ð¿Ð°Ð´Ð°":10012,"ĠÐ¿ÑĢÐ¸ÐºÐ°Ð·Ð½ÑĭÐ¼":10013,"ĠÑģÐ¾ÑĤÐ²Ð¾ÑĢÐ¸Ð»ÑĬ":10014,"ĠÐ¿Ð¾ÐºÐ°Ð¶ÐµÑĤÑģÑı":10015,"ĠÑĨÐµÐ»Ð¾Ð¼ÑĬ":10016,"ÐµÐ²Ð¸ÑĩÑĥ":10017,"ĠêĻ©Ð½":10018,"ĠÐ´ÐµÐ»Ð°Ð¼":10019,"ÑĪÐµÐ½ÑĮÐºÐ¾":10020,"ĠÐºÑĢÑĬÐ²Ð¸":10021,"ĠÐ¼Ð°ÑģÐ»Ð°":10022,"ĠÐ¼Ð¸ÐºÐ¸ÑĤ":10023,"ĠÑĪÐ¸ÑĢÐ¸Ð½Ñĥ":10024,"ĠÐ³Ð»ÑĥÐ±Ð¾Ðº":10025,"ĠÐ±ÑĮÑĢÐºÐ¾Ð²ÑĮÑģÐºÐµ":10026,"ĠêĻ©Ð²ÑģÐ°":10027,"ĠÐļÐ°Ð½Ð´Ð°Ð²Ð»Ñĥ":10028,"ĠÐ¿Ñı":10029,"ĠÐ½Ð°Ð²Ð¾Ð´":10030,"ÑĸÑĤÐ¸":10031,"ĠÐ½Ð¸ÐºÐ¸ÑĦÐ¾ÑĢ":10032,"ÐµÑģÑ£":10033,"ĠÑģÑĭÑģÐºÐ°ÑĤÐ¸":10034,"ĠÐ³ÑģÐ´ÑĮ":10035,"ĠÐ¸ÑģÐ¿Ð¾ÑĢÑĤÐ¸":10036,"ĠÐ½ÐµÐ´ÐµÐ»Ñİ":10037,"ĠÐ±Ð»Ð°Ð³Ð¾Ð²":10038,"ÑĪÐµÐ½ÑĸÐ°":10039,"ĠÐ¾Ð±ÑĢÐ°Ð·Ð°":10040,"ĠÑĥÐ±Ð¾Ð³Ð°":10041,"ĠÐ¸Ð¼Ð¸Ð¶Ðµ":10042,"Ð½Ð¸ÑĨÑ«":10043,"ĠÐ¥ÑĢÐ¸ÑģÑĤÐ¾Ñģ":10044,"ĠÑĤÐ°Ð¹Ð½Ð¾":10045,"Ð°Ð¼Ð¸":10046,"ÑĢÑĸÐ¸":10047,"ĠÐ²ÐºÑ¹":10048,"ÑĩÐ½ÑĭÑħÑĬ":10049,"ĠÐ¿ÑĢÐ¾ÐºÐ°":10050,"ĠÐ³ÐµÑ¡":10051,"ÑĨÑĸÐ¸":10052,"ÐµÑĤÑĭ":10053,"ĠÑĢÐ°ÑģÐºÐ°":10054,"ÑĩÐ¸ÑĪÐ¸":10055,"ĠÐ¾ÑĥÑģÑĤÐ°Ð²":10056,"ĠÐ¿Ð¾ÑģÐ¾Ð±":10057,"ĠêĻĹÑĢÐ¾ÑģÐ»Ð°Ð²ÑĬ":10058,"ĠÐŀÑĤÑĮ":10059,"ĠÐ²ÑĭÐ¸":10060,"ĠÐ¿Ð¾Ð¼Ð¾Ð·Ð¸":10061,"ĠÐ²Ð¸Ð¶Ñĥ":10062,"Ð¶Ð°Ð¹":10063,"ÑĶÑİ":10064,"ĠÐ¿Ð¸ÑģÑĨÑĭ":10065,"ĠÑģÐ¾Ð»Ð¾Ð´Ñĥ":10066,"ĠÐ½Ð°ÐºÐ°Ð·ÑĭÐ²Ð°ÑĤÐ¸":10067,"ĠÐ´ÑĬÐ¼Ð¸ÑĤ":10068,"ĠÐ¢Ñ£Ð¼ÑĬ":10069,"ĠÐ¶Ð¸ÑĤÐµÐ»ÑĮ":10070,"ĠÐľÐ¾ÑģÐºÐ²Ñĭ":10071,"ĠÐ¿Ð¾Ð´Ð²Ð¸Ð·Ð°":10072,"ĠÐ¶Ð°Ð»Ð¾Ð²Ð°Ð»ÑĮ":10073,"ĠÐ³Ð»Ñ£Ð±ÑĬ":10074,"ĠÐ²Ð½ÐµÐ·Ð°":10075,"Ð¸êĻĹ":10076,"Ð¸Ð´Ð¸":10077,"ÐºÑĢ":10078,"ÑĭÑĪ":10079,"ĠÐºÐ¾Ð²Ð¾":10080,"Ð½Ð¸ÑĤÑĬ":10081,"ĠÐ°Ð±Ð¾":10082,"ĠÑģÐ²ÐµÐ´":10083,"Ð³Ð°ÑħÑĬ":10084,"ĠÑģÐ¾ÑĦÐ¸":10085,"ĠÐ¼ÐµÑĩÐ¸":10086,"ĠÐ¿Ð¾ÑģÐ»Ð°Ð½Ð¾":10087,"ĠÑģÐ¸Ð»Ð½Ð¾":10088,"ĠÑģÐ»Ð¾Ð²Ð¾Ð¼":10089,"ĠÐ¼Ð°ÑĢÑĤÐ¸Ð½":10090,"ĠÐ°Ð¿ÑĢ":10091,"ĠÐ²Ð¸Ð´Ð¸ÑĤÐµ":10092,"ĠÑģÐ¾ÑģÑĥÐ´Ñĭ":10093,"ĠÑĤÑĭÑģÑ§ÑīÑĬ":10094,"ĠÐ¸Ð·ÑĭÐ´Ðµ":10095,"ĠÐºÑĢÐµÑģÑĤÑĮÑıÐ½ÐµÑħ":10096,"ĠÑĦÐ°ÑĢÐ°Ñ¡":10097,"ĠÐ²Ð·ÑıÑĤÑĭ":10098,"ĠÐ³Ð½Ñ£Ð·Ð´Ð¾":10099,"Ð»ÐºÐ°":10100,"ĠÐ¸Ð²ÐµÑĢ":10101,"Ñ£Ñı":10102,"ĠÑĢÐ¾ÑĤ":10103,"ĠÐµÑ§":10104,"ĠÐ·Ð°Ð²Ñ£ÑĤÑĬ":10105,"ÑīÐµÐ²Ð°":10106,"ĠÐŁÐ¸Ñģ":10107,"Ġ:-":10108,"ĠÑĪÐ»Ð°":10109,"ĠÐĵÐ»":10110,"ĠÐ¿ÑĢÑ£Ð¿":10111,"ĠÐ¿ÑĢÑ£ÑģÑĤÐ°":10112,"ĠÐ²ÑĬÐ·Ð¼Ð¸":10113,"ĠÑĥÑĩÐ½ÐµÑĤÑĬ":10114,"ĠÑģÐ»ÑĥÐ¶Ð¸ÑĤÑĮ":10115,"ĠÑģÐ²Ñ£ÑĤÑĥ":10116,"ĠÐ¼Ð¾ÑĢÐ¸":10117,"ĠÐ°Ð¿ÑĢÑ£Ð»Ñı":10118,"Ð´ÐµÑģÑ§ÑĤ":10119,"ĠÐ¿ÑıÑĤÐ¸Ð´ÐµÑģÑıÑĤ":10120,"ĠÐ¸ÑģÑħÐ¾Ð´Ñ£":10121,"ĠÑģÑĢÐµÐ´Ð¸":10122,"Ġ708":10123,"ĠÐ¾Ð±ÐµÑīÐ°":10124,"ĠÐĴÐ°ÑĢÑĦ":10125,"Ð²Ð½Ð¾":10126,"ĠÐ²Ð¸Ñģ":10127,"Ð¸Ð½Ð¾Ð²Ð°":10128,"ÑīÐµÐ½Ð¸Ð¸":10129,"ĠÐļÑĢÐµ":10130,"ÑģÐºÑĭÐ°":10131,"ĠÐ²ÐµÐ»Ð¸ÐºÐ¸Ð¼Ð¸":10132,"ĠÐ±êĻĳÐ»ÑĬ":10133,"ĠÑĢÐ°Ð·ÑĥÐ¼Ñ£Ð¹":10134,"ĠÐ²ÐµÐ´Ð¾Ð¼Ð¾":10135,"ĠÑĢÐ°Ð·Ð¼Ñ£ÑĢÑĥ":10136,"ĠÐ¾Ð³Ð½ÐµÐ½Ð½ÑĭÐ¼ÑĬ":10137,"ĠÐĴÑ£Ð´Ð¾Ð¼Ð¾":10138,"ĠÐ²ÑĭÑĪÐ¸Ð½Ñĥ":10139,"ĠÐºÑĥÐ·Ð½Ðµ":10140,"ĠÐ¿ÑĢÐ¾Ð¼ÐµÐ¶ÑĥÑĤ":10141,"ĠÐ½Ð°Ð¿ÑĢÐ°Ð²Ð»ÐµÐ½ÑĸÑİ":10142,"ĠÐ½ÐµÑīÐ°Ð´Ð½Ð¾":10143,"ÑĭÐ²Ð°ÑĤÑĮ":10144,"ĠÑĤÐµÐ»Ðµ":10145,"ĠÐ³Ð»Ð¸":10146,"Ð»Ð°Ð½Ñı":10147,"ÐµÐ½Ð½Ð¾":10148,"ĠÑĥÐ¿ÑĢÐ°":10149,"Ð½Ð¾ÑģÐ¸":10150,"êĻĳÐ¼ÑĬ":10151,"Ð»ÐµÑİ":10152,"ĠÐ¿Ð¾ÑģÑĢÐ°Ð¼Ð¸":10153,"ÑīÐ°Ð°":10154,"ÑĦÐ°Ð½ÑĬ":10155,"ĠÐ±Ñ£Ð´Ð°":10156,"ĠÐ½Ñ£Ñģ":10157,"ĠÑģÑĤÐ°Ñ³ÑĮ":10158,"ĠÑĤÑĥÑĢÐ°":10159,"ĠÑħÐ¾ÑĩÑĥ":10160,"ĠÑīÑĮ":10161,"ĠÑģÐ¾Ð»Ð½Ðµ":10162,"ĠÐ¾Ð´Ð½Ð¾Ð¼Ñĥ":10163,"ÑĤÐµÐ»Ñİ":10164,"ĠÑħÐ¾ÑīÐµÑĤÐµ":10165,"ĠÐ±ÐµÑģÑ£Ð´Ð¾Ð²Ð°":10166,"ĠÐ½ÐµÐ´Ð¾ÑģÑĤÐ¾":10167,"ĠÐ½Ñ£ÐºÐ¾Ð³Ð´Ð°":10168,"ĠÐºÑĥÐ½Ð³Ñĥ":10169,"ĠÐ²ÑĢÑĮ":10170,"ĠÐ´Ð¸Ð¼Ð¸ÑĤ":10171,"Ð·Ñ¹":10172,"Ð»Ð¸ÑĨÐ¸":10173,"ĠÐ½ÐµÐ¿Ð¾Ð´":10174,"ĠÐµÑĢÐµÐ¼":10175,"Ð°Ð½Ð¾Ð²Ð°":10176,"ĠÑĨÑĢÐ¸":10177,"ÑģÑĤÐ¸êĻĹ":10178,"ĠÑıÐ±":10179,"ĠÑĢÐµÐ±ÑĢÐ°":10180,"ĠÐĳÐ¾":10181,"ĠÐ²ÑģÑıÐºÐ¾Ðµ":10182,"ĠÐ¼Ð°ÑģÑĤÐµ":10183,"ÑģÐ¿Ð¾Ð»":10184,"ĠÑĩÐ¸ÑģÑĤÐ°":10185,"ĠÐ½ÐµÐ¼Ð¾Ñĥ":10186,"ĠÐ¾Ð¿Ð¾Ð»":10187,"ĠÑģÐ»Ð¾Ð²ÐµÑģÐµ":10188,"ĠÐ½Ð°ÑĩÐ°Ð»Ð¾":10189,"ĠÐĴÑĭÑĪÑĮ":10190,"ĠÐ¼ÑĥÑĢÐ·Ð°":10191,"ÑģÐ½Ð¸":10192,"ĠÑģÐ¾Ð¹":10193,"ÑħêĻ¿":10194,"ÑĩÐµÐ²ÑĬ":10195,"ĠÐ½Ð°Ñ¹":10196,"ĠÐ·ÑĥÐ±":10197,"ĠÐ»Ð°ÑĤÑĭ":10198,"Ð¶ÑıÑĤÐ¸":10199,"êĻĭÑĤÑĮ":10200,"Ð²Ð°ÑĪÐ°":10201,"Ð°ÐºÐ¾Ð²ÑĬ":10202,"ĠÐ²Ñ£ÑģÑĤÐµ":10203,"ĠÑĨÐ°ÑĢÐµÐ²Ð¸Ñĩ":10204,"ĠÐ¸ÑģÐ°":10205,"ĠÐºÐ¾ÑĢÐ¾Ð²Ð°":10206,"ĠÑģÐ°Ð¼Ð¾Ð¸":10207,"ĠÑħÐ¾ÑĤÐµ":10208,"ĠÐ¾Ð¿ÑĢÐ°Ð²ÑĮ":10209,"ĠÐ¥Ð¾ÑĤ":10210,"ĠÑģÐ¼ÐµÑĢÑĤÑĮÑİ":10211,"ĠÐ¢Ñ£Ð¼ÑĮ":10212,"ĠÐ²Ð¾Ð¿ÑĢÐ¾ÑĪÐ°":10213,"ĠÐłÐ°Ð´Ñĥ":10214,"ĠÐ¿ÑĢÐ¾Ð³Ð¾Ð²Ð¾ÑĢ":10215,"Ð³Ð°ÑĢÐ¸Ð½Ð°":10216,"ÑģÐµÐ¼ÑĬ":10217,"Ð²ÑģÑ§":10218,"ÑħÐ¾Ð²Ð°":10219,"ÑħÐ²Ð°ÑĤÐ¸":10220,"ĠÐ·ÑĢÑ§":10221,"ĠÐ·Ð±Ð¾ÑĢ":10222,"Ð¾ÑĥÐ¸":10223,"ĠÐ¸Ð·Ð±Ð¸":10224,"ĠÑĢÑĥÐºÐ¾Ð¿":10225,"ĠÑĤÑ£Ð»Ñĥ":10226,"ĠÐĵÑĢÐµÑĩÐµ":10227,"ĠÐ¿Ð°ÑģÑĤÑĭ":10228,"ĠÐ²ÑĬÐ·Ð´ÑĬ":10229,"ĠÐ¿Ð¾Ð³Ð½Ð°":10230,"ĠÐ¿Ð¾ÑģÑĤÐ°Ð²Ð¸Ð»Ð¸":10231,"ĠÐ²Ð°ÑĢÐ¸ÑĤÐ¸":10232,"ĠÐĳÐ¾Ð¶Ð¸Ðµ":10233,"ĠÐ¿Ð»ÑĬÑĤÐ¸":10234,"ĠÐ´Ð¾ÑĢÐ¾Ð³Ñĥ":10235,"ĠÑĩÐ¾Ð»Ð¾Ð¼ÑĬ":10236,"ĠÐ¿ÑĢÐ¾ÑĩÐ¸Ð¸":10237,"ĠÐ¡Ð²ÑıÑĤÐ°Ð³Ð¾":10238,"ĠÐ·Ð´ÑĢÐ°Ð²ÑģÑĤÐ²ÑĥÐ¸":10239,"Ð°Ð»Ð¾Ð¼ÑĬ":10240,"ĠÑģÐ¸ÑĨ":10241,"ĠÑĢÐ°Ð·Ð±":10242,"ĠÑ¹ÑģÑĤÐ°Ð²":10243,"Ð»Ñ§Ð½Ðµ":10244,"ĠÐ¼Ð°Ð»Ñĭ":10245,"ĠÑĩÐ¸ÑģÑĤÑĬ":10246,"ĠÑĤÑĢÐ¸ÑģÑĤÐ°":10247,"ĠÐ±ÐµÐ³Ð°Ñħ":10248,"ĠÑħÐ¾Ð»Ð¾Ð¿ÑģÑĤÐ²Ðµ":10249,"ĠÐ³Ð¾Ð»Ð¾ÑģÐ¾Ð¼ÑĬ":10250,"ĠÐµÐ´Ð¸Ð½ÑĮ":10251,"ĠÐ±ÐµÑģÑ£Ð´Ð¾Ð²Ð°ÑĤÐ¸":10252,"ĠÑĤÑĭÑģÑ§Ñĩ":10253,"ĠÐĨÐ²Ð°Ð½Ð¾Ð²Ð¸ÑĩÑĮ":10254,"ĠÐ´ÑĢÑĮÐ·Ð½Ð¾Ð²Ðµ":10255,"ĠÐ¢Ð¾Ð¼ÑĮÐ¶":10256,"Ð²ÐµÐ½ÑĬ":10257,"ĠÑģÐ¿Ð¾Ð´":10258,"ĠÐ±Ð´":10259,"ÑĩÐºÐ¾":10260,"ĠÐ¾Ð·ÐµÑĢÐ°":10261,"Ð»Ð¸Ñħ":10262,"ÑģÑĤÐ¸Ð»Ð¸":10263,"ĠÑĤÐ¾ÑĩÑĮ":10264,"ĠÐ¾Ð±Ð¾Ð»":10265,"ĠÑĨÐ°ÑĢÑ£":10266,"ĠÐŀÐ±":10267,"ĠÐłÐ¾Ñģ":10268,"Ð¿Ð¸ÑĪÐ¸":10269,"ĠÐĽÐµÐ²":10270,"ĠÐ³Ð¾ÑģÐ¿Ð¾Ð´ÑģÑĤÐ²êĻĭ":10271,"ĠÐ³Ð¾Ð»Ñĥ":10272,"ĠÐºÐ¾Ð»Ð¾Ðº":10273,"ĠÐ¶Ð°Ð»Ð¾ÑģÑĤ":10274,"ĠÐ·Ð´Ñ£ÑģÑĮ":10275,"ĠÐ´ÑĢÐµÐ²Ð»Ðµ":10276,"ĠÐ³ÑĬÑĢÐ°Ð´Ñĥ":10277,"ĠÐ¿Ð¾Ð³Ð¸Ð±Ð»Ð¾":10278,"ĠÑģÑĤÑĢÐ°ÑħÑĬÐ¼ÑĮ":10279,"ĠÐ²ÑģÐµÐ´ÐµÑĢÐ¶":10280,"ÑĢÑĸÐµ":10281,"Ð½ÑĹ":10282,"ĠÐ¿Ñ«":10283,"ÑĩÐµÐ»":10284,"Ñ§Ð½ÑĸÐµ":10285,"Ð¿ÐµÑĢ":10286,"ĠÐ·ÑĮ":10287,"ĠÑ¡ÑĢÑĥÐ¶ÑĮ":10288,"ÑĪÐµÐ²Ð°":10289,"ĠÑĢÐµÐ´Ð°":10290,"ĠÐ²Ñ£ÑĤÑĢ":10291,"ĠÐ³ÑĢÐ°Ð±":10292,"Ð»ÑİÑĤÑĮ":10293,"ĠÐ¿Ð¾Ð¼ÐµÑĢ":10294,"ĠÐ¼Ñ£ÑģÑĤ":10295,"ĠÐ´Ð²Ð¾ÑĢÑĨÐ¾Ð²ÑĭÑħ":10296,"ĠÐ±Ð»Ñ¹":10297,"ĠÑĨÑĢÐºÐ²Ð¸":10298,"ĠÐ¼Ð½Ð¾Ð³ÑĸÐµ":10299,"ĠÐ¿ÑĢÐµÐ´Ð¾":10300,"ĠÑĩÐ°Ð´":10301,"ĠÐ½ÐµÐ´Ð¾Ð±":10302,"ĠÑħÑĢÐ°Ð±ÑĢÐ°":10303,"ĠÑģÐ²Ð¾Ñ¥Ð¸":10304,"ĠÐ¿ÑĥÑģÑĤÐ¾ÑĪÐ¼Ð¸":10305,"ĠÐ·ÑĬÐ»Ñ£":10306,"ĠÐ°ÑĢÑħÐ¸ÑģÑĤÑĢÐ°ÑĤÐ¸":10307,"Î¿Ïħ":10308,"Ð»Ð¾Ð´":10309,"Ð²Ð°ÑĢÐ¸":10310,"ĠÐ²Ð½Ð¸ÑĤÐ¸":10311,"ĠÐ½Ñı":10312,"ĠÐºÐ´Ðµ":10313,"Ð¾Ð²êĻĭ":10314,"ĠÐºÐ°ÐºÐ°Ñı":10315,"Ð±Ñ£Ð³":10316,"ĠÐ³Ð¾ÑĢÐºÐ¾":10317,"Ð²Ð¾Ð»Ð°":10318,"ĠÐ¼Ñ¹Ð¶Ðµ":10319,"ĠÐ¿Ð¸ÑģÐ°Ð½Ð°":10320,"ĠÐ¼Ñ«Ð¶ÑĮ":10321,"ĠÑģÐ¾ÑģêĻĭ":10322,"ĠÐ¿Ð¾Ð³ÑĥÐ±Ð¸ÑĤÐ¸":10323,"ĠêĻģÐ½Ð°Ð¼ÐµÐ½":10324,"Ð¾ÑĤÑĮ":10325,"Ð½Ð¾Ð±":10326,"ĠÐºÐ»ÑĮ":10327,"ĠÐ±Ð¸ÑĤ":10328,"ĠÐ°Ð¶Ð½Ð¾":10329,"Ð¾Ð³ÑĢÑ£":10330,"Ð²Ð°Ð°Ð³Ð¾":10331,"ĠÐ¾ÑĤÐ½Ñİ":10332,"ĠÐ¾Ð±Ð²Ð¸":10333,"ĠÐ»Ð¸ÑĪÐµ":10334,"ĠÐ¿ÑĢÐµÐ±":10335,"ĠÑģÑĤÐ°ÑĢÑĨÐµÐ¼":10336,"ĠÐ´ÑĢÑĥÐ³Ð¾Ð¸":10337,"ĠÑģÐ²ÑıÑĤÑĭÑı":10338,"ĠÐ¾Ð±ÑĭÑģÐºÐ¾Ð¼":10339,"ĠÑĤÐ¾ÑĢÐ³Ñĥ":10340,"ĠÑĢÐ¾ÑģÐ¿Ð¸ÑģÐ¸":10341,"ĠÐ±Ð»Ð¸Ð¶Ðµ":10342,"ĠÐ¿Ð¸ÑĤÐ¸Ðµ":10343,"ĠÐ´Ñ£Ð²Ð¸ÑĨÐ°":10344,"Ð»ÐµÐ½ÑĮÐµ":10345,"ÑĮÑģÑĤÐ²Ð¾":10346,"ĠÐ¾Ð½Ñ£":10347,"ĠÐ¾Ð½Ñĥ":10348,"ĠÐ³Ð»ÑĮ":10349,"ĠÐ½ÐµÐ·Ð½Ð°":10350,"ĠÐ¿Ð¾ÑĤÐ¾":10351,"ĠÐ²ÑĬÐ»ÑĬ":10352,"ÐºÐ°êĻģÐ°":10353,"Ð¾Ð±Ñĥ":10354,"êĻĹÐºÐ¾Ð¶Ðµ":10355,"ÑīÐµÐ½Ð¸":10356,"ĠÐ¶Ñı":10357,"ĠÐ¸Ð·Ð±ÑĢÐ°":10358,"ĠÐ¾Ð±Ð¾ÑĢÐ¾ÑĤ":10359,"ÑīÐ°ÐµÑĤÑĬ":10360,"ĠÐ²Ð¾Ð·Ð´ÐµÑĢ":10361,"ĠÐ±Ñ£ÑģÑĬ":10362,"ĠÐ²Ð°ÑģÐºÐ°":10363,"ÐµÐ½Ð¸Ñ¥":10364,"Ð½Ð¸ÐºÐ¾Ð²Ð°":10365,"ĠÐ²ÐµÐ»Ð¸ÐºÑĭ":10366,"ĠÐ¿Ð¸ÑģÐ°Ð½ÑĸÐµ":10367,"Ð±Ð°ÑĩÐµ":10368,"ĠÑĨÐ°ÑĢÑĮÑģÑĤÐ²Ð°":10369,"ĠÐ³Ð¾Ð²Ð¾ÑĢÐ¸Ð»Ð¸":10370,"ĠÐ¿ÑĢÐ¾Ð´Ð°Ð²Ð°ÑĤÐ¸":10371,"ĠÑĨÑ£Ð»Ð¸":10372,"ĠÑĨÑĢÐºÐ²ÑĮ":10373,"ĠÐ´ÐµÐ²Ñı":10374,"ĠÑģÐ¾ÐºÑĢêĻĭ":10375,"ĠÐ¾Ð»ÑĦ":10376,"ĠÑ¡Ð½Ð´ÑĢÑ£":10377,"ĠÐ³Ð¾ÑģÐ¿Ð¾Ð¶Ðµ":10378,"ÑģÐ¾Ð²Ð°":10379,"ĠÐ¿Ð°Ð½ÑĮ":10380,"ĠÐ´ÑħÑĬ":10381,"ÑĪÐµÐ¼":10382,"ĠÐ¿ÑĢÑĥ":10383,"ĠÐ¿ÑĢÐ¾Ð²Ñ£":10384,"Ð¿Ð¾Ð»ÑĮ":10385,"ÐºÐ°Ð¼Ð°":10386,"Ð´Ð¸ÑģÑı":10387,"ĠÐŁÐ»Ð°":10388,"ĠÐ¾Ð±Ð¸Ð´":10389,"Ð²Ð¸ÑģÑı":10390,"ÑīÐ°ÑĪÐµ":10391,"Ð³Ð°Ð»Ð¸":10392,"ĠÐĵÐ´Ñ£":10393,"ĠÐ³ÑĢÑĨÐ¸":10394,"ÑħÑĥÑģÑı":10395,"ĠÐ´Ð¾Ð»Ñĥ":10396,"Ð»Ð¾Ð²ÐµÑģ":10397,"ĠÐ²Ð¾Ð»Ð¾ÑģÑĤÐµÐ»Ð¸":10398,"ĠÐ¼Ð¸ÑħÐ°Ð¹Ð»Ð¾":10399,"ĠÑĢÐ°Ð·Ð±Ð¾Ð¹Ð½Ð¸ÐºÐ°":10400,"ĠÐ»ÐµÐ¶Ð¸ÑĤÑĬ":10401,"ĠÐ¿Ñ£ÑģÐ½ÑĮ":10402,"ĠÐ¸Ð³Ð¾ÑĢÑĮ":10403,"ĠÐ¿ÐµÐ»":10404,"ĠÐ´ÑħÐ¾Ð²":10405,"ĠÐ¼Ð¾Ð¶":10406,"Ð·Ð´ÑĬ":10407,"Ð¾Ð³Ð°ÑĤÐ¸":10408,"ĠÐ²ÑģÐ»Ñ£Ð´ÑĬ":10409,"Ñ«ÑīÐ¸":10410,"Ð½Ñ£Ð¸ÑĪÐ¸":10411,"ĠÑĢÐµÐ·Ð°Ð½":10412,"ĠÐºÑĬÐ½Ð¸":10413,"ĠÐ¿Ð¾ÐºÑĢÐ¾Ð²Ð°":10414,"ÑĢÑıÐ´":10415,"ÐµÐ½Ð¸ÐµÐ¼ÑĬ":10416,"ÑĶÑĢ":10417,"ĠÐ´ÐµÐ±":10418,"ĠÑģÑĥÐ±":10419,"ĠÐłÐ°Ð·ÑĥÐ¼Ñ£":10420,"ĠÐ¸ÑģÑĤÐ¸Ð½Ñĥ":10421,"ĠÑģÐ»Ð°Ð²Ð¾":10422,"ĠÐ¿Ñ£ÑĪÐ¸Ð¼ÑĬ":10423,"ĠÑĩÐ¸ÑģÐµÐ»ÑĬ":10424,"ĠÐŁÐ¾ÑĤÐ¾Ð¼":10425,"Ð´ÐµÑģÑıÑĤÑĮ":10426,"ĠÐ½Ñ¹Ð¶":10427,"ĠÐ°ÑĤÐ°Ð¼":10428,"Ð½Ð½Ð°":10429,"Ð²Ð¸ÑĤ":10430,"Ñ§Ð½Ñĥ":10431,"ĠÐ»Ñĸ":10432,"ĠÑĥÑģÐ»Ñĭ":10433,"ĠÐ²ÑģÐ¸Ð¼ÑĬ":10434,"ĠÐ¾ÑĤÑģÐµ":10435,"Ð¾Ð²Ð°ÑĪÐµ":10436,"ĠÐ¿Ð¾Ð´Ð¿Ð¸ÑģÐ¸":10437,"ĠÐ²Ñ£ÑģÑĤ":10438,"Ð»Ñ§ÑĤ":10439,"ĠÐ³Ð»Ð°Ð³Ð¾Ð»Ñĭ":10440,"ĠÐ¸ÑģÐ¿Ð¾ÑĢ":10441,"ÐµÑĪÐ¸ÑģÑı":10442,"ĠÐ¶Ð¸ÑĤÐ¸Ð¸":10443,"ĠÐºÐ»Ð°Ð½Ñı":10444,"ĠÑĩÐµÑģÑĤÐ½Ð°Ð³Ð¾":10445,"ĠÐ²Ð¾ÑģÐ¿Ð¾Ð¼Ð¸Ð½Ð°":10446,"ĠÐ¿ÑĢÑĬÐ³Ð°ÑĢ":10447,"ĠÐ¾Ð±ÑĢÑıÑīÐµÑĪÐ¸":10448,"ĠÐ¿ÑĢÐ¸Ð±Ð»Ð¸Ð¶Ð°":10449,"ĠÐ¼ÑģÑĤÐ¸ÑģÐ»Ð°Ð²":10450,"ĠÐ¿Ð¾ÑĩÐµÐ»Ð¸":10451,"ĠÑ¿Ð½ÑİÐ´ÑĬ":10452,"ĠÐ¿ÑĢÐ¸Ð³Ð¾Ð´Ð¸ÑĤ":10453,"Ð»ÐºÐ¾":10454,"ÑĭÐ½":10455,"ĠÐ½Ð°ÐµÐ¼":10456,"Ð½Ð¸ÑĪÐºÐ¾":10457,"ĠÐ¿ÑĢÐ¸Ð¾Ð±ÑĮ":10458,"ÑĩÐ¸Ð»Ð°":10459,"Ð²Ñ£ÑĢ":10460,"ĠÐľÐ¸Ð»Ð¸":10461,"ĠÑģÐ²êĻĻ":10462,"ĠÑ¹ÑĤ":10463,"ĠÑĩÐµÑĢÑĤÑ£":10464,"ĠÑħÐ¾ÑĤÑ§ÑīÐµ":10465,"ĠÐ¾ÑģÐ½Ð¾Ð²Ð°":10466,"ĠÑĦÐµÐ´Ð¾ÑĢÐ¾Ð²Ð¸ÑĩÑİ":10467,"ĠÑĢÑ¹Ð±Ð°":10468,"ĠÑģÐ»Ñ¹Ð³Ð¸":10469,"ĠÐ±Ð¾Ð¶Ð¸Ñİ":10470,"ĠÑģÐ¾Ð²ÐµÑĢÑĪÐ¸":10471,"ĠÑĪÐ°ÑĤÑĢÑĭ":10472,"ĠÐºÐ¸ÐµÐ²ÑģÐºÐ¾Ð¼Ñĥ":10473,"ĠÐ½Ð¸Ð·ÐºÐ¾":10474,"ĠÐ½Ð¸ÑĩÑĮÑĤÐ¾Ð¶Ðµ":10475,"ĠÑħÑĢÐµÑģÑĤÐ¸":10476,"Ð²ÐºÑĬ":10477,"Ð²ÑĪêĻĭ":10478,"ĠÐ²ÐºêĻĭ":10479,"ĠÐ´Ð¾Ð²Ð°":10480,"ÑİÑĪÑĤÐ°":10481,"ĠÐ¾ÑĦÐ¾Ð½":10482,"ĠÐ¿Ð¾êĻĹ":10483,"ĠÐ´Ð°Ð²ÑĬ":10484,"ĠÑģÐµÑģÑĤÑĢ":10485,"Ð¾Ð¿ÑĬ":10486,"ĠÐ¾Ð±ÐµÑĢÐµ":10487,"ĠÐĿÐµÐºÑĤÐ°":10488,"ĠÐ¿Ð¸ÑīÑĥ":10489,"ĠÑģÐ°Ð¼Ð¾Ð¿":10490,"ĠÐłÐµÐ·":10491,"ĠÐ¼ÑĭÑģÐ»":10492,"ĠÐ²Ð»Ð°ÑģÑĭ":10493,"ĠÑĩÐ°ÑģÑĤÐµÐ¹":10494,"ĠÑĤÑĢÐ¸Ð´ÑĨÐ°ÑĤÑĮ":10495,"ĠÑĩÐµÐ»Ð¾Ð²ÐµÐºÐµ":10496,"ĠÐ¾ÑģÑĥÐ´Ð°ÑĢ":10497,"Ð±ÑĮÑĢÐ°":10498,"ĠÐ¶Ð°Ð»Ñĥ":10499,"ĠÑģêĻĭÐ´ÑĬ":10500,"ĠÐ¸ÑģÐºÐµÑħ":10501,"ĠÐ¿Ð¾ÑģÐ»ÑĥÑĪÑı":10502,"ĠÐ¿Ð¾Ð±Ñ£Ð¶Ðµ":10503,"ĠÐ¼Ð¾Ð»Ð¸ÑĤÐ²Ð¾Ñİ":10504,"ĠÑģÐµÐ´Ð¼":10505,"ĠÐ¾ÑĤÐ²ÐµÑĤÑĥ":10506,"ĠÑģÑĤÑĢÑ£Ð»ÑĮÐ±Ñĭ":10507,"ĠÐ½Ð°ÑĥÐºÐ°":10508,"ĠÐĴÑĮÑģÑı":10509,"ĠÑĨÐµÑĤêĻĳÑĢÐ¸":10510,"ĠÑģÐ¾Ð²Ñ£ÑĤÑĬ":10511,"Ð±ÑĢÑ£ÑĤÐµ":10512,"ĠÑģÐ²Ð¸Ð½ÑĩÐ°ÑĤ":10513,"ĠÑĢÑ¹ÐºÐ¾Ð´Ñ£Ð»ÑĮ":10514,"ĠÑĥÐ±ÑĮÐµÑĤ":10515,"ĠÐ²ÑĭÑģÐ»ÑĥÐ¶Ðµ":10516,"ĠÐ¿ÑĥÑĪÐºÐ°ÑĢÑıÐ¼ÑĬ":10517,"ĠÐ¾Ð±ÐµÑģÑĩÐµÑģÑĤÐ¸ÑĤ":10518,"ÑĤÐ²Ñ£":10519,"ÑģÐ¾ÑĤ":10520,"ĠÐ¾ÑĩÐµÐ¹":10521,"ĠÑĢÑ§Ð´":10522,"ĠÐ°Ð½Ð¾":10523,"ĠÐ¿ÑĢÐ¸Ð½Ñı":10524,"ĠÑĢÐ°Ð¶Ð°":10525,"ĠÐ½Ð¸Ð·Ñĥ":10526,"ĠÐ¶Ð°ÑĤ":10527,"ĠÐ²Ð¾ÑģÑĤÐ¾Ðº":10528,"ĠÐ¾ÑĥÐ²":10529,"ĠÐĿÑĭÐ½Ñ£":10530,"ÑĩÐ°ÑģÑĤ":10531,"Ð»ÑĮÑĪÐµ":10532,"ĠÐ¿Ð¾ÐºÐ¸Ð½Ñĥ":10533,"ĠÐ²Ð°ÑĪÑĮ":10534,"ĠÐ²Ð°ÑĪÐ¸Ð¼ÑĬ":10535,"ĠÐ³Ð¾ÑĢÑĬ":10536,"ĠÐ°Ð¿ÑĢÐ¸Ð»":10537,"ÑĨÐºÐ¸Ð¼ÑĬ":10538,"ĠÐ²Ð¸Ð½Ð¾Ð²Ð°ÑĤ":10539,"ĠÑĢÐ¾ÑģÐ¿ÑĢÐ¾ÑģÐµ":10540,"ĠÑ¡Ð»ÑĮÐ³Ð°":10541,"Ð°ÑĢÐ¾Ð´":10542,"Ð¶ÐµÐ½ÑĮ":10543,"ĠÑĢÐ°Ñı":10544,"ĠÐ¿ÑĢÐ°Ð²Ð¸Ð»Ð°":10545,"ĠÑķÑ£Ð»Ð¾":10546,"ĠÑģÐ»ÑĥÐ¶Ð¸":10547,"ĠÐ¸Ð½Ð¾Ð¼ÑĬ":10548,"ĠÐ³Ð¾Ð´ÐµÑħ":10549,"ĠÐ¼Ñ§ÑģÐ°":10550,"ĠÑĢÐ°êĻģÑ¹Ð¼Ñ£":10551,"ĠÐ´êĻĭÐ¼Ð°":10552,"ÑĤÑĢÐµÑĤÑĮ":10553,"ĠÐ´ÑĢÑ¹Ð³Ð°":10554,"ĠÐ´Ð¾ÑģÑĤÐ°Ð»":10555,"ĠÐ±Ð¾Ð¶ÑĮÑģÑĤÐ²":10556,"ĠÐ½Ð°ÑĢÐ¾ÑĩÐ¸ÑĤ":10557,"ĠÐºÑĸÐ¸Ð¶Ð´Ð¾":10558,"Ð¸Ð½Ð¸":10559,"ÑĢÐ·":10560,"ĠÐ¸ÐµÑĢ":10561,"ÐºÐ¾Ð²Ñ£":10562,"ĠÐºÐ»ÐµÐ½":10563,"ÐµÐ»ÐµÐ¹":10564,"ÑĪÐ°Ñİ":10565,"ÑĪÐ°ÐµÑĤÑĮ":10566,"Ð°Ð½Ð¾Ð¼ÑĬ":10567,"ĠÐ½Ð¸ÐºÐ¾":10568,"ĠÐ»ÑİÑĤÑ£":10569,"ĠÐŁÑĢÐ¾Ñģ":10570,"ĠÐ¸Ð·Ð±Ð¸ÑĪÐ°":10571,"ĠÑĤÐµÐ±Ñ§":10572,"ĠÑģÑĭÐ¹":10573,"ĠÐ²Ð¸Ð¶Ð´ÑĮ":10574,"ĠÑĤÑ£ÑħÑĮ":10575,"êĻ¿ÑĪÐµ":10576,"Ð²ÑĭÐ¼":10577,"ĠÐ¸ÑģÐ¿ÑĭÑĤ":10578,"ĠÐ²Ð¸Ð´Ñ£ÑĪÐ°":10579,"ĠÐ·Ð»Ð°ÑĤÐ¾Ð¼ÑĬ":10580,"ĠÐ±ÑĭÐ²Ð°ÑİÑĤÑĮ":10581,"ĠÐ²Ð¾Ð·Ð¼ÐµÑĤÑĮ":10582,"ÑħêĻĭÑģÑ§":10583,"ĠÐ¿êĻĭÑģÑĤÑĭÐ½Ð¸":10584,"ĠÐ³Ð°Ð²ÑĢ":10585,"ĠÑĤÐ²ÐµÑĢÐ´Ð¾":10586,"ĠÐ¿Ð¾Ð¼ÐµÑģÑĤÑĮÐ¸":10587,"ĠÐ·Ð°Ð¿Ð»Ð°ÑĤÐ¸ÑĤÐ¸":10588,"ĠÐ¼Ð°ÐºÐµÐ´Ð¾Ð½ÑĮ":10589,"Ð´ÐµÑĤÐµ":10590,"ĠÑĤÐ¼Ð°":10591,"ÑģÑĤÐ¸ÑĤÐµ":10592,"ĠÐ±ÑĢÑ£":10593,"ÑħÐ¸ÑĤ":10594,"Ð»Ð¸Ð²Ñĥ":10595,"ĠÐµÑħÐ°ÑĤÑĮ":10596,"ĠÑĩÑģ":10597,"Ð¶Ð¾Ñĥ":10598,"ÑĥÐ´Ð¾Ñĥ":10599,"Ð´Ð°Ð¼ÑĬ":10600,"Ñ¡Ð²Ñĭ":10601,"Ð°Ð¼ÐµÐ½":10602,"Ð»ÑıÑı":10603,"ĠÑĢÐ°Ð·Ð±Ð¸":10604,"ÑīÐ¸ÐºÑĥ":10605,"ĠÑĨÑ£Ð»Ð¾":10606,"Ð»Ð¾Ð¶Ð¸ÑĤ":10607,"ĠÐ´ÑĢÑĥÐ³Ð¾Ð¼ÑĬ":10608,"ĠÐ²Ð¾Ð»Ð¾Ð´Ð¸Ð¼ÐµÑĢÑģÐºÐ¾Ð¼":10609,"ĠÐ·Ð¸Ð¼Ñ¹":10610,"ĠÐ¿ÑĢÐ¾ÑĢÐ¾ÑĩÐµ":10611,"ĠêĻģÐ»Ð°ÑĤÐ¾":10612,"ĠÐ¿Ð¾ÐºÑĢÐ¾Ð²ÑģÐºÐ¾Ð³Ð¾":10613,"ĠÐ±Ð³Ð¾":10614,"ĠÐ¿Ð¾ÑĩÐ¸Ð½Ð¸":10615,"ĠÐ¿Ð¾Ð»Ð·Ñĥ":10616,"ĠÐ¡Ð²Ñ£ÑĤÑĬ":10617,"ĠÐºÑĬÐ´Ðµ":10618,"Ð»Ñ£Ð·Ñĥ":10619,"ĠÑģÐ²Ð¾ÐµÐ²Ð¾":10620,"ĠÑĤÑ£Ð¼ÑĮÐ¶Ðµ":10621,"êĻ¿ÑĤÐ¾":10622,"ĠÐºÐ¾ÑĢÐ¾Ð±Ð¸":10623,"ĠÐ¼Ð¸Ð»Ð¾ÑģÑĤÑĸÑİ":10624,"ĠÑĩÑİÐ¶":10625,"ĠÐ²Ð¸Ð´Ñ£Ð»ÑĬ":10626,"ĠÐ²ÑĢÐ°Ð³Ñĭ":10627,"ĠÐ¼Ð¾ÑĢÐ¾Ð·":10628,"ĠÑħÑĢÐ°Ð½Ð¸ÑĤ":10629,"ĠÐ½Ð°ÑĪÐ¸Ð¼Ð¸":10630,"Ð¶Ð´ÐµÑİ":10631,"ĠÐ¿Ð¸ÑģÐ°Ð½Ð¸Ðµ":10632,"ĠÐ³ÑĢÐ¸Ð²ÑĮÐ½ÑĮ":10633,"ĠÐ¿ÑĢÑĸÐ¸Ð´ÐµÑĤÑĬ":10634,"Ð¸ÑĪÑĸÐ¸":10635,"ĠÐ¿ÑĢÐµÐ¼Ñ£":10636,"ĠÐ´ÑĢÑĬÐ¶Ð°":10637,"ĠÐĺÐ·Ñ§ÑģÐ»Ð°Ð²":10638,"Ð½Ð¸Ð¼Ð°Ð¹":10639,"ĠÐ¿Ð¾ÑĨÐµÐ»":10640,"ĠÐ¸ÐµÐ²Ð°":10641,"ĠÐ´ÐµÐ¼":10642,"ÑĩÐ½ÑĭÑı":10643,"ĠÑĢÐ¶ÐµÐ²":10644,"ĠÐ½ÐµÐ¶":10645,"ĠÐ»Ð¾Ð±":10646,"êĻģÐ°Ð½":10647,"ĠÑĪÐ»ÑıÑħ":10648,"ĠÐļÐ¾Ðµ":10649,"ĠÑĢÐ°Ð·Ð´Ð°":10650,"ÑĦÐ»ÑıÐ½":10651,"ĠÑģÑĤÐ°ÑĢÑĬ":10652,"ĠÑģÑĭÐ½Ð¾Ð¼ÑĬ":10653,"ĠÑĩÐµÐ»Ð¾Ð²Ñ£ÑĩÑĮ":10654,"ĠÐ½ÐµÐ¿Ð¾Ð²Ð¸Ð½":10655,"ĠÐ´Ð²Ð°Ð½Ð°":10656,"ĠÑģÐºÐ°Ð·Ð°Ð»Ð¸":10657,"ĠÐ±Ð¾Ð³Ð°ÑĤÑĬ":10658,"Ð³Ð»Ð°Ñģ":10659,"ĠÐ¿ÑĢÐ¸ÑģÐ»Ð°Ð»ÑĬ":10660,"ĠÑĤÐ°ÐºÐ¾Ð²Ð¾Ðµ":10661,"ĠÐ²ÐµÐ´Ð°ÑĤÑĮ":10662,"ĠÐ½ÐµÐ´Ð¾ÑģÑĤÐ¾Ð¸":10663,"ĠÐľÐ°ÐºÐµÐ´":10664,"ĠÑħÑĢÐµÑģÑĤÑĮÑıÐ½":10665,"ÑĪÐ½Ð°":10666,"ĠÐ³Ð°Ñģ":10667,"ĠÐ½ÐµÐ³Ð¾Ð¶Ðµ":10668,"ĠÐ·Ð²Ð°":10669,"ĠÐ²ÑĬÑģÑ§":10670,"Ð¶ÐµÐ¼":10671,"ĠÑħÐ²":10672,"ĠÐ·Ð°Ð±ÑĭÐ²Ð°":10673,"ĠÐ¡ÐºÐ°Ð·":10674,"Ð»ÑĬÐ¼ÑĮ":10675,"ĠÐ²Ñ£Ð²ÐµÑĢÐ¸":10676,"ĠÐ²Ð¾Ð·Ð»Ð¾Ð¶Ð¸":10677,"ĠÐ±Ñ£Ð»Ñ£":10678,"ĠÑģÑĤÐ°ÑĢÑĭÑħ":10679,"ĠÐ¼ÐµÑĩÐ°":10680,"ĠÐ´Ð²Ð¾ÑĢÑıÐ½Ðµ":10681,"ĠÑģÑ£Ð´Ñ£":10682,"ĠÐ³ÑĢÐ°Ð¼Ð¾ÑĤÐ¾Ñĥ":10683,"ĠÐ²Ð»Ð°Ð´Ð¸":10684,"ĠÑģÐ»Ð°Ð²Ð¾Ñİ":10685,"ĠÐ¼ÑĮÐ½Ñ£":10686,"ĠÐ´Ð°Ð½Ð¸Ð»Ð¾":10687,"ĠÐ¾Ð²Ð¾Ð³Ð´Ð°":10688,"ĠÐ½Ð°ÑĥÐºÐ¸":10689,"ĠÐ¾Ð±ÑĢÐ°Ð·Ð¾Ð¼ÑĬ":10690,"ĠÑģÑĬÐ¼ÑĢÑĬ":10691,"ĠÐ¿ÑĢÐ¾ÑĪÐ»ÑĭÑħ":10692,"ĠÐ¡Ð²ÑıÑĤÑĭÑħ":10693,"ĠÐ½Ð¾Ð·Ñ£":10694,"ÐµÑĢÑ§":10695,"ÐµÐ»ÐµÐ¼ÑĬ":10696,"ĠÑģÐ²Ð¾Ñ£":10697,"ĠÑģÑĬÐ¿Ð°Ñģ":10698,"Ð¸ÑģÑĬ":10699,"ĠÐĴÐ¾Ð¸":10700,"ĠÐ¢Ð¾Ð»ÑĮÐºÐ¾":10701,"ĠÑ¥Ð³Ð´Ð°":10702,"ÑģÑĤÐ²Ð¾Ð¼ÑĮ":10703,"Ð¶Ð°Ð»Ð°":10704,"Ð»ÐµÐ½ÑĸÑ§":10705,"ĠÐ²ÑĬÐ·Ñĭ":10706,"ĠÐ²ÑĬÐ·Ñ§ÑĤÐ¸":10707,"ĠÑĤÐ°ÐºÐ¾Ñİ":10708,"ĠÑĤÐ²Ð¾ÑĢÑ§ÑĤÑĮ":10709,"ĠÑģÑĥÐ´Ð¸":10710,"ĠÐ³Ð¾ÑģÐ¿Ð¾Ð´Ð¸Ð½":10711,"ĠÐ³Ð»Ñģ":10712,"ĠÑģÐ¾ÑĤÐ²Ð¾ÑĢÐ¸ÑĤ":10713,"ĠÑģÑĤÐ°Ð½Ð¾Ð²ÑĬ":10714,"ĠÐ¿ÐµÑĢÐµÐ¿":10715,"ĠÐ³ÑĢÐ¸Ð³Ð¾ÑĢÐµÐ¸":10716,"ĠÐ±ÐµÑĢÐµÐ¶Ð½Ð¾":10717,"ÐµÐ²Ð¸ÑĩÑĬ":10718,"ĠÑĩÐ¸Ð½Ñ¹":10719,"ĠÐ¿ÑĢÐ¸ÑĪÐµÐ´ÑĪÐµ":10720,"ĠÐ°Ð¿Ð¾ÑģÑĤÐ¾Ð»":10721,"ĠÑģÐµÑģÑĤÑĢÑĭ":10722,"ĠÐ»ÑİÐ±Ð¸ÑĤÑĮ":10723,"ĠÑĦÐ¸Ð»Ð¾ÑģÐ¾ÑĦ":10724,"ĠÐŁÐ¾Ð²ÐµÐ»Ñ£":10725,"ÑĤÐµÐ¼ÑĬ":10726,"ĠÐ¸ÑĨÑ£":10727,"Ð³Ð¸Ð½":10728,"ĠÐ¿ÑĢÐ¾Ð½":10729,"ÑĨÐºÑĥÑİ":10730,"ÑĸÐ½Ð°":10731,"ĠÐĺÐµÑĢÑĥÑģÐ°":10732,"ĠÐ²Ð¾Ð¸Ð½ÑĮ":10733,"ĠÐļÐ¾Ð»Ð¸":10734,"ĠÐ¼Ñ£ÑģÑ§":10735,"Ð²ÑĮÑĸ":10736,"ÑĶÐ¸":10737,"ĠÐ¼Ð¾Ð¸Ð¼Ð¸":10738,"ĠÐ¼Ð°ÑĢÑĤÑĭ":10739,"ĠÐ½Ð°ÑĩÐ°ÑĤ":10740,"ĠÐ²ÑĬÑģÑ£ÑħÑĮ":10741,"ĠÐ¿ÑĢÐ¸Ð²Ð¾Ð·":10742,"ĠÐ¾Ð²ÑģÐ°":10743,"ĠÑģÑĤÑĢÑ£Ð»ÑĮÐ±Ð°":10744,"ĠÐ¿Ð¾ÑħÐ¾ÑĤÑĮ":10745,"ĠÑĥÑĩÐ¸Ð½ÑıÑĤ":10746,"ĠÐ´Ð²Ð¾ÑĢÑıÐ½Ð¾Ð¼":10747,"Ð¸Ð²Ð°":10748,"ĠÑģÐ½Ð¸Ð´Ðµ":10749,"ĠÐ²Ð»ÑĮ":10750,"ÑĪÐ½Ñĭ":10751,"Ð»Ð°Ð¼ÑĬ":10752,"ĠÐ°ÑĦÐ¾Ð½Ð°Ñģ":10753,"ĠÐµÑģÑĤÐ²Ð¾":10754,"ĠÐ¶ÐµÑģÑĤ":10755,"ĠÐĲÐ´Ð°ÑĢ":10756,"ÑĪÐ°ÐµÑĤ":10757,"ĠÑĢÐ°Ð±Ñĥ":10758,"ĠÐ½Ð¸ÑīÐ°":10759,"Ð°ÑĤÐµÐ»Ñİ":10760,"Ð´Ñ£ÑĤÑĮ":10761,"ĠÐ²ÑĭÑĪÐ¸":10762,"ĠÑĸÑħÑĬ":10763,"ĠÐ²ÑĮÑĢ":10764,"ĠÐ¿ÑĥÑģÑĤÐ°":10765,"ÑħÐ°Ð¶Ð¸":10766,"ĠÐ´Ð²Ð¾ÑĢÑĨÐ¾Ð²":10767,"ĠÑĢÐµÑĩÐµÑĪÐ¸":10768,"ĠÐ³Ð¾ÑĢÐ¾Ð´Ð¾":10769,"ĠÐµÑģÐµÐ¼Ð¾":10770,"ĠÐ´Ð¾Ð¼Ð¾Ð¼":10771,"ĠÐ³ÑĢÑ£ÑģÑ£ÑħÑĬ":10772,"ĠÐ²ÑģÐµÐ¼êĻĭ":10773,"ĠÐºÑĢÑĥÐ³Ñĥ":10774,"ĠÐ¿ÑĢÐ¸ÑħÐ¾Ð´Ð¸ÑĤ":10775,"ĠÐ²Ð¾ÑĤÑĩÐ¸Ð½Ð½Ð¸ÐºÐ¸":10776,"ĠÐ¾ÑĢÐ´Ñĭ":10777,"ĠÐºÐ°ÑĢÐ°Ð±Ð»ÑĮ":10778,"ĠÐ¿Ð¾Ð³Ð¾ÑģÑĤÐ°":10779,"ĠÑĥÐ¼ÐµÑĢÑĪÐ°Ð³Ð¾":10780,"ĠÐľÐ°Ð³Ð¸Ð»ÐµÐ½Ñĭ":10781,"ĠÐ´Ð²ÑĮÑĢÐ¸":10782,"ĠÐ¿Ð¸ÑģÑĮÐ¼Ð¾":10783,"ĠÐľÐ°ÑĢÐºÐ¾Ð±ÑĢÑĥÐ½ÑĬ":10784,"ĠÐ²ÐºÐ¸Ð½ÑĥÑĤÐ¸":10785,"ĠÐĿÐµÐºÑĤÐ°Ð½Ð°":10786,"Ð¾ÑŃ":10787,"Ð°Ð²Ð°":10788,"Ð»Ð¼Ð°":10789,"Ð»Ð¾Ð¼ÑĮ":10790,"Ð³Ð¾Ð»":10791,"Ð³ÑĢÐµ":10792,"Ð¾Ð²Ð°Ð²":10793,"Ð¿Ð¾ÑĤ":10794,"ĠÐ·ÑĢÑ£":10795,"Ð¶Ð½Ð¸":10796,"êĻĭÐ´Ð°":10797,"ĠÐ¡Ð»Ð°Ð²Ð°":10798,"ĠÐºÑĬÐ½Ñı":10799,"ĠÑĢÑĥÑģÐºÐ¾Ð¹":10800,"ĠÐ±ÐµÐ·Ð´":10801,"ĠÐ·Ð°Ð¿Ð°Ð»Ñĥ":10802,"ĠêĻĭÐ±Ñ¡":10803,"ĠÐ¿Ð¾Ð²ÐµÐ´":10804,"ĠÑģÑĤÑĢÐ°Ð½ÑĮ":10805,"ĠÑĤÐ²Ð¾ÑĢÑ§ÑīÐµ":10806,"ÑĢÑ§ÑĤÐ°":10807,"ĠÐ»ÑĥÐ³Ñĥ":10808,"ĠÑģÑ¹ÑīÐµ":10809,"ĠÐ¿Ð¾ÑĪÐµÐ»":10810,"ĠÑģÐ°Ð¼Ð¸Ð¼":10811,"ĠÐ·Ð¸Ð¼Ñĭ":10812,"ĠÐ¿Ð»Ñ£Ð½":10813,"ĠÑĢÑĥÐºÐ°Ð¼Ð°":10814,"ÑĦÐ¸Ð¼Ð¾Ð²":10815,"ÐµÑĢÐµÐ¼ÐµÑĤ":10816,"ÑĤÑĢÐµ":10817,"Ð²Ð¾Ð²ÑĬ":10818,"ĠÑģÐ½Ðµ":10819,"Ð´Ð¸Ð»ÑĬ":10820,"ĠÐºÑĢÑ£":10821,"ĠÐºÑµ":10822,"ÑĩÐ½Ð°Ñı":10823,"Ð»Ð°Ð»Ð¸":10824,"ĠÐ¿Ð¾Ð¸Ð´ÐµÑĤÑĮ":10825,"Ð²Ð°Ð¼Ð¸":10826,"ĠÑĢÐ°Ð³":10827,"ĠÐŁÐ¾Ð¶":10828,"ĠÐ¿Ð¾Ð´Ð½Ñı":10829,"Ð½ÑĮÑĸÐ¸":10830,"ÑĢÑĬÐ¼Ð¸":10831,"ĠÐºÐ¾Ñİ":10832,"ĠêĻģÐ°ÑĤ":10833,"ĠÑĨÑĢÑĤÐ²":10834,"ĠÐ¸Ð²Ð°Ð½Ð¾Ð²Ñĥ":10835,"ĠÐ¸Ð½Ð½ÑĭÑħÑĬ":10836,"ĠÐ½Ð¸ÐºÐ¸ÑĤÐ°":10837,"ĠÐ¿Ð°ÐºÑĮÑĸ":10838,"ÑĪÐµÐ½ÑĸÐ¸":10839,"Ð°ÑħÐ¾Ñĥ":10840,"ĠÑģÐµÑĢÐ´ÑĨÑĭ":10841,"ĠÐ¿Ð¾Ð´Ð°ÑģÑĤÑĬ":10842,"ĠÐ±Ñ«Ð´Ñ«":10843,"Ð¶Ð°Ð½ÑĸÐµÐ¼ÑĬ":10844,"ĠÐ´ÑĢÑĥÐ¶Ð¸Ð½Ñ£":10845,"ĠÐ¿Ð¾ÑģÐ»Ð¾ÑĥÑĪÐ°":10846,"ĠÑģÐ¼Ð¾Ð»ÑĮÐ½ÑĮ":10847,"ĠÐĴÐ¾ÐµÐ²Ð¾Ð´Ð°":10848,"ĠÑĩÐµÑĢÑĤÐµÐ¶ÑĬ":10849,"ĠÐ´Ð¾ÑģÑĤÐ°ÑĤÐ¾ÑĩÐ½Ð¾":10850,"ĠÑĤÑĢÐµÐ±ÑĥÐµÑĤÑĬ":10851,".:":10852,"ĠÐ²ÑĪÐµÐ´":10853,"ÑģÑĤÐ¾Ð²ÑĬ":10854,"ĠÐ¿ÑĢÐµÐ»ÑİÐ±":10855,"ÑĤÐ¸Ð»ÑĬ":10856,"Ð¾Ð³Ð¾Ð´":10857,"Ð´Ð°Ð»Ð°":10858,"ĠÐĲÑĦÐ°Ð½Ð°":10859,"ĠÑĨÐ²Ñ£":10860,"ĠÐ¾Ð±Ð¾Ðµ":10861,"ĠêĻĹÐ·":10862,"ĠÐ¼Ð½Ñİ":10863,"ÑīÐ¸Ðµ":10864,"ĠÐ²ÑĬÐ·Ð¸":10865,"ĠÑģÑ£Ð´Ð¸":10866,"ĠÐ¿Ð¾Ð¿Ð¾Ð²":10867,"ĠÑģÐ»ÑĭÑĪÐ¸":10868,"ĠÐ¾Ð±ÑĭÑģÐºÐ¸":10869,"ĠÑģÐµÐ´Ðµ":10870,"ĠÐ¾ÑģÑĤÐµÑĢÐµ":10871,"Ð½Ð¸Ð¼Ð°ÑĤÑĮ":10872,"ĠÑģÑĤÑĢÐµÐ»ÐµÑĨ":10873,"ĠÐ¸Ð·ÑģÑĤÐ°ÑĢÐ¸Ð½Ñĭ":10874,"ĠÐºÐ¾ÑģÑĤÑıÐ½ÑĤÐ¸":10875,"Ð³Ð¾Ð²Ñ£":10876,"ĠÐĺÐ·ÑĬ":10877,"ĠÐ¿ÑĢÐ¸ÐµÑħ":10878,"ÐµÐ´ÑĢÑĬ":10879,"ĠÑĨÑĭ":10880,"ĠÐ¶Ð°Ð´":10881,"ĠÐĴÐµÐ»":10882,"Ñ¥Ñİ":10883,"ĠÐļÐ¾ÑģÑĤ":10884,"ĠÐ±Ð¾Ð³Ð¾Ð¼ÑĬ":10885,"ĠÐ¿ÐµÑīÐµÑĢ":10886,"ĠÐ¿Ð°ÐºÑĮ":10887,"Ð±ÑĮÐµ":10888,"ĠÐ´Ð¾Ð±ÑĢÑĭÐ¼Ð¸":10889,"ĠÐ¿ÑĢÐ°Ð²Ð°Ñı":10890,"ĠÐ²Ñ£ÑĢÐ¾Ð²Ð°ÑĤÐ¸":10891,"ĠÐºÑ¹Ð´Ñĭ":10892,"ĠÐ´ÐµÑĢÐ¶Ð°Ð»ÑĬ":10893,"ĠÐ½ÐµÐ¼ÑĮÐ¶Ðµ":10894,"ĠÑħÐ²Ð°Ð»Ñı":10895,"ĠÐ²Ð¿ÐµÑĢÐµÐ´":10896,"ĠÑĢÐ¾Ð¼Ð°Ð½Ð¾Ð²":10897,"ĠÑĤÑĢÐ¾Ð¸ÑĨÑĭ":10898,"ÐºÐ²Ð°Ð¼ÑĬ":10899,"ĠÐºÐµÐ»Ð°ÑĢÑİ":10900,"ĠÐ¿Ð¾Ð½Ð¾ÑĪÐµÐ½Ð¸Ðµ":10901,"ĠÑ²":10902,"ÑĢÐ¾Ð±":10903,"Ð²Ð¸Ð»":10904,"ĠÑģÐ¾Ð²Ðµ":10905,"Ð´êĻ¿":10906,"Ñ§ÑħÑĬ":10907,"ĠÐ³Ð¾Ð»Ð¸":10908,"ĠÐ½ÐµÐ»":10909,"Ð²Ð°ÐµÑĤÑģÑı":10910,"ĠÐ¿ÑĢÐ¸Ð¸Ð´ÐµÑĤ":10911,"ĠÐ²Ð¾ÐµÐ²Ð°":10912,"ĠÐ¾ÑĥÐ¿ÑĢÐ°":10913,"ĠÐ²ÐµÐ»Ð¸ÐºÐ¾Ð¸":10914,"ĠêĻĹÑĢÐ¾Ð¿Ð¾Ð»":10915,"ĠÐºÐ°Ð¿Ð¸":10916,"ĠÑ¹Ð¼ÑĬ":10917,"ĠêĻģÐ»":10918,"ĠÐ¼Ð¾Ð»Ð¾ÑĤ":10919,"ĠÐ¿Ð¾ÑģÐ»Ð°Ð»Ðµ":10920,"ÑĢÐ¾Ð¼ÑĮ":10921,"ĠÐ½ÐµÐ¿ÑĢ":10922,"Ð°ÑĢÑĮÑİ":10923,"ĠÎ¹Ð»Ð¸":10924,"ĠÐ²Ð¾Ð·Ð¼ÐµÑĤÑĬ":10925,"Ð¾Ð¶Ð°ÑĤÑĮ":10926,"ĠÐ¾ÑĤÐ´Ð°Ð»Ð¸":10927,"ĠÐ²Ð¾Ð¸Ð½ÑģÐºÐ¾Ð¼Ñĥ":10928,"ĠÐ´ÑĮÑıÐºÐ°":10929,"ĠÐ²ÑĬÐ´Ð°Ð¸":10930,"ĠÐ¿Ñ¹ÑĤÐ¸":10931,"ĠÑħÑĢÐ¸ÑģÑĤÐ¾Ð²Ð°":10932,"ĠÐ³ÑĢÐ¾Ð±Ñ£":10933,"ĠÐ¼Ð¸ÑħÐ°Ð¹Ð»Ð¾Ð²":10934,"ĠÑģÑĤÑĥÐ¿ÐµÐ½ÐµÐ¹":10935,"ĠÐ¿Ð¾Ð¼Ð¸Ð½Ð°Ð¹":10936,"ĠÐ¼Ð¾Ð»Ð¸ÑĤÐ²Ð°Ð¼Ð¸":10937,"ĠÐ·Ð°Ð¿Ð¾Ð²ÐµÐ´":10938,"ĠÐ±Ð¾Ð»Ñ§ÑĢÐµ":10939,"ĠÐ·Ð´Ð°ÑĢÐ¾Ð²Ð°":10940,"ĠÐ°Ð¿ÑĢÐµÐ»Ñı":10941,"Ð°Ð³Ð³":10942,"Ð¼ÑĢÐ°":10943,"ĠÐ½Ð¾Ð½Ñ£":10944,"ĠÐ´Ð¾Ð·Ð¸":10945,"ĠÐµÐ³Ð°":10946,"ÐµÐ½Ð¾Ñİ":10947,"ÑĸÑ¡":10948,"ĠÐ»Ð¾Ð²Ð¸":10949,"ĠÐ»Ð¾Ð²Ðµ":10950,"ĠÐĲÑĢÐ¸":10951,"ÑĪÐ°Ñħ":10952,"ÑĩÐ¸Ð½Ð¾Ñİ":10953,"ĠÐ±Ð¾ÑĩÐºÐ°":10954,"ĠÐ¡Ð¸Ðµ":10955,"ĠÐ¸Ð·Ð²Ð°":10956,"ĠÑħÐ¾Ñĩ":10957,"ĠÐ¸ÑģÐ¿ÐµÑĢÐ²Ð°":10958,"ĠÐ¿Ð¾Ð¶Ð½Ñİ":10959,"ĠÐ±ÑĢÐ°ÑĤÑı":10960,"ĠÐ§Ñİ":10961,"ĠÐ´Ð½Ð¸Ð¹":10962,"ĠÐ¿Ð¾ÑģÐ°Ð´Ð½Ð¸ÐºÑĬ":10963,"ĠÐ´Ð¼Ð¸ÑĤÑĢÐ¾Ð²":10964,"ĠÑģÐµÑĢÐµÐ±ÑĢÑı":10965,"ĠÐ²Ð¾ÐµÐ²Ð¾Ð´Ðµ":10966,"ĠÐ¿ÑĥÑģÑĤÐ¾ÑĪÑĮÑİ":10967,"ĠÐ¿Ð¾Ð¼ÑĭÑĪÐ»ÑıÐ¹":10968,"ĠÑģÐ²Ñ§ÑĤÑĭ":10969,"ĠÐ¾ÑģÐ¾Ð±Ð½Ð¾":10970,"ĠÐ´Ð¾Ð²Ð¾Ð»ÑĮÐ½Ð¾":10971,"Ïħ":10972,"Ñĳ":10973,"ĠÐ½Ñ¡":10974,"ĠÐ½ÑĢÐ°Ð²":10975,"Ð¿Ð¾Ðº":10976,"ĠÐ»Ð¾Ð¶Ð½Ð¾":10977,"ĠÐ¢Ð¸Ð¼Ð¾":10978,"ĠÑģÐºÑĥÐ´":10979,"ĠÐ´Ð²Ð¾ÑĢÐ¸":10980,"ĠÑģÐ»ÑĥÐ³Ð¸":10981,"ĠÐ»ÑĥÐ³":10982,"ĠÐ·Ð½Ð°Ñİ":10983,"ĠÐ°ÑĢÑĪÐ¸Ð½":10984,"ĠÐ¿ÑĢÐ¾Ð´Ð°ÑĤÑĮ":10985,"ĠÑĢÐµÑĩÐµÑĤÑĮ":10986,"ĠÑĢêĻĭÐºÐ¾Ñİ":10987,"ĠÑģÐ¼Ð¾ÑĤÑĢÐ¸ÑĤÐ¸":10988,"ĠÐµÐ´Ð½Ð¾":10989,"ĠÐ¿Ð¾Ð»Ð¾Ð¶Ð¸Ð»ÑĬ":10990,"ĠÐ´Ð²Ñ£Ð¼Ð°":10991,"ĠÑģÐºÐ¾ÑĤÑĬ":10992,"ĠÐ¿Ð°ÑĢÐ¾Ð±":10993,"ĠÑĪÑĮÑģÑĤÑĮ":10994,"ĠÐ»Ð°Ð·Ð¾ÑĢ":10995,"Ð²Ð½Ñ£":10996,"ÐºÐ²ÑĮ":10997,"Ð´Ð½Ð¸":10998,"ĠÐ²ÑģÐº":10999,"ĠÐ¼Ð°Ð½Ñĥ":11000,"ĠÐµÐ»Ðµ":11001,"ĠÑ¡Ð·":11002,"ÑĢÐµÐ¶":11003,"ĠÐºÐ¾ÑĢÐ½Ð¸":11004,"ĠÐ±Ð¾Ð³Ð´Ð°Ð½":11005,"ĠÐ²Ð·Ð¸Ð¼Ð°":11006,"ĠÐ½Ñ£ÐºÐ°ÐºÐ¾":11007,"ĠÑĥÐºÐ°Ð·Ð°Ð»":11008,"ĠÐºÑĢÐ°Ð»ÑĬ":11009,"ĠÑģÑĥÐ´Ð¸Ð¸":11010,"ĠÐ´Ð¾Ð±ÑĢÐ¾Ð¼Ñĥ":11011,"ĠÐ´Ð¾Ð±ÑĢÑĭÑı":11012,"ĠÐºÑĢÐ°ÑģÐ¾ÑĤÑĭ":11013,"ĠÐ¿ÑĢÐ¸ÑħÐ¾Ð´Ð¸ÑĤÑĮ":11014,"ĠÑĨÑĢÐºÐ²Ð°":11015,"ĠÐ²ÑĬÑģÑ£Ð¼ÑĮ":11016,"ĠÐ¿Ð¾ÑĥÑģÑĤÐ¸":11017,"ĠÐ´ÑĢÑĥÐ³Ð°Ð³Ð¾":11018,"ĠÐ²Ð·Ñ§Ð»Ð¸":11019,"ĠÐ±Ð»Ð°Ð³Ð¾ÑģÐ»Ð¾Ð²Ð»ÐµÐ½Ð¸Ðµ":11020,"ĠÑĪÐ°ÑĤÑĢÐ°":11021,"Ð¿Ð¸ÑģÐ°ÑĤÑĮ":11022,"ĠÐ¿Ð°ÐºÐ¾ÑģÑĤÑĮ":11023,"ĠÑĤÑ£Ð»ÐµÑģÑĮ":11024,"ĠÐĴÑģÐµÐ²Ð¾Ð»":11025,"ĠÐ¾ÑģÑĤÐ°Ð½ÐµÑĤÑģÑı":11026,"ĠÑĪÐµÐ´ÑĪÐµ":11027,"Ð½Ð¾Ð¿Ð»ÐµÐ¼ÐµÐ½":11028,"ĠÐ²ÑģÐµÑģÐ¾Ð¶":11029,"Ð»ÑĸÑ§":11030,"ÑģÑĤÐµÐ½ÑĬ":11031,"ÑħÐ¸ÑĤÐ¸":11032,"ĠÐ¿Ð¾ÑħÑĥ":11033,"ĠÐµÑģÑĤÐ°":11034,"ĠÑĩÑģÑĤ":11035,"ĠÑģÑĤÐ¾Ñİ":11036,"Ð¾ÐºÐ¾Ñĥ":11037,"Ð¸Ð¼ÐµÑĤÑĮ":11038,"ĠÐ¡Ð²Ð¾":11039,"ĠÐ¸Ð·Ð¼ÐµÐ½Ð¸":11040,"ĠÐĶÐ¸":11041,"ĠÑģÐ²Ð°ÑĢÐ¸":11042,"ĠÑĤÐ°ÐºÐ¾Ð¼":11043,"ĠÑĤÐ¸Ð²Ñĥ":11044,"ĠÐ¿ÑĢÐ°Ð²Ð¸Ð»":11045,"ĠÐ³Ð¾ÑĢÐ¾Ð´Ð¾Ð²ÑĭÐµ":11046,"ĠÐ±ÑĮÐµÐ¼":11047,"Ġ19":11048,"ĠÐ´Ð¾Ð±ÑĢÐ¾ÑĤÑĭ":11049,"Ð½Ð¸ÑĤÐ¸ÑģÑı":11050,"Ð¿Ð¸ÑģÐ°Ð½":11051,"ĠÐ¿Ð¾Ð±Ñ£Ð³Ð¾ÑĪÐ°":11052,"ĠÐ´Ð¾ÑģÑĤÐ¾Ð¸Ð½Ð¾":11053,"ĠÐ¿Ð¾ÑħÐ¾ÑĤÐ¸":11054,"ĠÐµÑģÑĤÐµÑģÑĤÐ²Ð°":11055,"ĠÐ²Ð¾ÑģÐ¿Ð¾Ð¼":11056,"ĠÐ±Ñ£ÑģÐ¾Ð²":11057,"ĠÑĪÐ°Ð¿":11058,"ĠÐ³ÑĢÐ¾ÑĪÐµÐ¸":11059,"ĠÐ²Ð»Ð°Ð´ÐµÑĤÐ¸":11060,"âŁ":11061,"Ł¦":11062,"ĠÐ½Ð°ÑģÑĮ":11063,"ĠÐ¿Ð¾Ñ£ÑħÐ°Ð»ÑĬ":11064,"ĠÐµÐ²Ð°Ð½Ð°":11065,"ĠÑĥÐ±Ðµ":11066,"Ð½ÑĭÐ¼ÑĮ":11067,"ÐµÐ²ÐµÐ¹":11068,"ĠÐ¾ÑĤÐµÑĨÑĮ":11069,"ĠÐ·Ð°Ð²Ð¾Ð´":11070,"ĠÑĢÐ°Ð½Ð¸ÑĤ":11071,"êĻĳÑħÐ¾":11072,"ĠÐ²Ð¾Ð·Ð»Ðµ":11073,"ĠÐ³ÑĢÐ¸Ð²ÑĬ":11074,"ĠÐ½Ð°Ð¿Ð¾Ð¸":11075,"ĠÑģÑ£Ð½Ð¾":11076,"ĠÐ¼Ð½Ð¾Ð³Ð¾Ñİ":11077,"ĠÐ³ÑĢÐ¸Ð²Ð½êĻĳ":11078,"ĠÐ±êĻĳÑĪÐ°":11079,"ĠÐ³Ð»Ð°Ð²êĻĭ":11080,"Ð»Ð¾Ð±Ñĭ":11081,"ĠÐ´êĻĭÑĪÐ¸":11082,"ĠâŁ¦":11083,"ĠÐ½Ð¾Ð³Ð°ÑĤÐ°":11084,"ĠÐ²Ð¾ÑĤÑĩÐ¸Ð½Ð½Ð¸ÐºÐ¾Ð¼":11085,"ĠÐ¾ÑĤÐ²ÐµÑĤÑĩÐ¸ÐºÐ¾Ð¼":11086,"ÑĤÐ¸Ð½ÑĥÐ´ÑĮ":11087,"ĠÐ¢ÑĥÐ³Ð°ÑĢÐ¸Ð½Ð°":11088,"ĠÑģÐ²ÐµÑĢÑħ":11089,"ĠÑģÑĢÐ°ÑĩÐ¸":11090,"ĠÐ¿Ð¾Ð¼ÐµÑīÐ¸ÐºÐ¾Ð¼":11091,"ĠÑĢÑĭÑĨÐµÑĢÑİ":11092,"ĠÑģÐ¼ÐµÑĢÑĤÐ½Ð¾Ðµ":11093,"ĠÐ¼Ð°ÐºÐµÐ´Ð¾Ð½ÑıÐ½Ðµ":11094,"ĠÐ»Ð¾ÑģÐ¾ÑģÐ¸":11095,"ĠÑ¡ÑģÐ¿Ð¾Ð´Ð¸Ð½Ðµ":11096,"ĠÐ½ÐµÐ´ÐµÐ»ÑīÐ¸ÐºÑĥ":11097,"ĠÐ²Ð¾Ð»Ð¾ÐºÐ¸ÑĤÑĭ":11098,"ĠÐ·Ð°Ð¿Ð¸ÑģÑıÐ¼":11099,"ĠÐľÐ¸Ð»Ð¸ÑĤÑĢÐ¸":11100,"âŁ§":11101,"Îº":11102,"Ð¾Ñ«":11103,"ĠÐ¸Ð²":11104,"Ð¼Ð¾Ñİ":11105,"Ð´Ð¾Ð²ÑĬ":11106,"ĠÐ²ÑģÑĤÐ°":11107,"Ð·ÑĢÑ£":11108,"Ð¾ÑĢÐ°Ð·":11109,"ĠÐ·Ðµ":11110,"ÑīÑĶ":11111,"Ð¾ÑĤêĻĭ":11112,"ÑĪÐ¸Ð¹":11113,"ĠÐ¡Ð¾Ð±":11114,"ĠÐ¿Ð¾Ð´Ð°ÑĤ":11115,"Ð»Ñ£ÐµÑĤÑĬ":11116,"ĠÑĢÐ°Ð·ÑģÑ¹":11117,"ĠÑĦÑĸ":11118,"ĠÐ»Ñ£Ñģ":11119,"ĠÑģÑĥÐ´Ð¸Ñı":11120,"ĠÐ¸ÑħÑĬÐ¶Ðµ":11121,"ĠÐ¾Ð½ÑĤÐ¾Ð½":11122,"ĠÐ¼Ð°Ð»Ðµ":11123,"ĠÐ¼Ð°ÑĢÐºÐ°":11124,"ĠÑĩÐµÐ»Ð¾Ð±Ð¸ÑĤÐ½ÑĥÑİ":11125,"ĠÐ¼Ð½Ñ¡Ð³Ð¸":11126,"ĠÐ¾Ð±ÑĭÑĩÐ°Ð¸":11127,"ĠÐºÐ°ÑĢÐ¿":11128,"ĠÑĢÐ¾ÑģÑĤÐ¸ÑģÐ»Ð°Ð²Ð¸":11129,"ÑĤÐ¾Ð»Ð¾Ð¼Ñ£":11130,"ĠÑĦÐµÐ²ÑĢÐ°Ð»Ñı":11131,"ÑıÐ¶Ðµ":11132,"Ð¿Ð°ÑĤÐ¸":11133,"Ð»Ð¸Ñģ":11134,"ĠÐ·Ð°ÑĢ":11135,"ĠÑĩÐµÐ¹":11136,"ĠÑģÑĬÐ·Ð´Ð°":11137,"ĠÐ¾ÑĥÑģÑĤ":11138,"ĠÐ¾ÑĤÑĬÐ¿Ð°":11139,"ĠÐ¿Ð¾ÑģÐ»Ð°Ð½ÑĬ":11140,"ĠÐºÐ°Ð·Ð½ÑĮ":11141,"ĠÐ¿Ð¾Ð½Ð¾ÑģÐ¸":11142,"ĠÐ¿Ð¾ÐºÐ°Ð¶Ð¸":11143,"ĠÐ´Ð¾Ð¼Ð°Ð¶Ð¸":11144,"ĠÐ²Ð¸Ð½Ð¾Ð²Ð°ÑĤÑĬ":11145,"ĠÑĤÑĢÐµÐ±ÑĥÑİ":11146,"ĠÐ¿ÑĢÐ¸Ð»Ñ£Ð¶Ð½Ð¾":11147,"ĠÐ·ÐµÐ»ÐµÐ½Ð°":11148,"ĠÑģÐ²Ð¸Ð´Ñ£ÑĤÐµÐ»ÑĮ":11149,"ĠÑĨÐµÐ»Ð¾Ð²Ð°Ð»ÑĮ":11150,"ĠÐ¿Ð¾ÐºÐ¾ÑģÑĭ":11151,"Ð¾ÑħÑĬ":11152,"Ð²â¸¯":11153,"ĠÐ½Ð½Ðµ":11154,"ÑģÑĤÐ¾Ð»":11155,"ÑħÐ½Ñĥ":11156,"Ð¾ÑĢÐ³Ð¸":11157,"ÑĨÐ¾Ð²Ð¾":11158,"Ð»ÐµÐ±":11159,"ĠÐ¿Ð¾Ð»ÐºÐ¾Ð²ÑĬ":11160,"ĠÑĸÑİ":11161,"Ð´Ð¾ÑģÑĤÐµ":11162,"ĠÐ²Ð¾Ð·ÑĬ":11163,"ĠÐºÐ¾ÑĢÐ¼ÑĬ":11164,"ĠÐ¿Ð¾Ð¿Ñĭ":11165,"ĠÐ¸ÑģÐ¿ÑĬÐ»":11166,"ĠÐ°Ð½ÑĤ":11167,"ĠÐ¿ÑĢÐ¸ÐºÐ°Ð·Ð½ÑĭÑħ":11168,"ĠÑģÑĤÐ¾ÑĢÐ¾Ð½Ðµ":11169,"ĠÐ½Ð°ÐºÐ°Ð·Ð°Ð½ÑĸÐµ":11170,"Ð¶Ð´ÐµÐ½Ð¸Ñı":11171,"ĠÐ¿Ð¾Ð¶Ð°Ð»Ð¾Ð²Ð°Ð»ÑĬ":11172,"ĠÐ¾Ð±ÑĢÐ°Ð·Ñĥ":11173,"Ð³ÑĭÐ¸":11174,"ĠÑĢÐµÑĩÐµÑĤÑĬ":11175,"ĠÑģÐ²Ð¾Ñ¥Ð¼ÑĮ":11176,"ĠÐ´Ð¾Ð±ÑĢÐ°Ñ§":11177,"ĠÐºÑĢÐµÑģÑĤÑĮÑıÐ½Ñĭ":11178,"ĠÑĨÐ°ÑĢÐ¸ÑĨÐµ":11179,"Ð»ÐµÑĤÑ£":11180,"ĠÐ¼ÑĥÑĢÐ·Ñĭ":11181,"ĠÐºÑĥÑĢÐ±":11182,"ĠÐ¿Ð°Ð³ÑĥÐ±Ñĥ":11183,"ĠÑĢÐ¾Ð²Ð½Ð¾":11184,"ĠÐ½Ð¾Ð²ÑĥÐ³Ð¾ÑĢÐ¾Ð´Ñĥ":11185,"ÒĨÒĨ":11186,"ĠÑĢÐ°Ð¹":11187,"ĠÑ¡Ð³Ñ¹":11188,"ĠÑģÑĬÐ¿Ð¾Ð´Ð¾Ð±":11189,"Ñ«Ð±":11190,"ĠÐ²Ñ£Ð»Ð¸":11191,"ĠÑģÐ²Ð°ÑĢ":11192,"ĠÐ²Ð¾Ð·Ð²ÐµÑģÐµÐ»Ð¸":11193,"ĠÐ±Ñ£Ð»Ð°":11194,"ĠÐ¿ÑĢÑ£ÑģÑĤÐ°Ð²":11195,"ÑĶÑĢÐ¸":11196,"ÑħÐ¾Ð´Ð¸ÑĤÑĮ":11197,"ĠÐ³Ð¾ÑĢÐ¾Ð´Ð¾Ð²ÑĭÑħ":11198,"ĠÐºÑĢÐ°Ð»Ñİ":11199,"ĠÐ¼Ð°Ð»ÑĭÐ¼ÑĬ":11200,"ĠÑīÐµÑĢ":11201,"ĠÐ¿Ð¾Ð»Ð¾ÑĨÑĬ":11202,"ĠÐ¿Ð¾ÑģÐ»Ð¾Ð¼ÑĬ":11203,"ĠÐ¸Ð¼ÐµÐ½Ñĥ":11204,"ĠÐ¿ÑĢÐ¾ÑĤÐ¾Ð¿":11205,"ĠÑģÐµÑĢÐµÐ±ÑĢÐ¾Ð¼ÑĬ":11206,"ĠÑģÐ¿Ð°ÑģÑĤÐ¸":11207,"Ð²Ð»ÑĮ":11208,"ÑĮêĻĹ":11209,"ÑĪÐ½ÑĭÐµ":11210,"ĠÐ³Ð½Ð°":11211,"Ð½Ð¸Ð½Ð¾":11212,"ĠÑĢÐº":11213,"ĠÐ¿Ð¾ÑģÑĤÐ¾":11214,"ĠÐ·ÑĢÐ¸":11215,"ÐµÐ½ÐµÑĨÑĬ":11216,"Ð¶ÑģÐºÐ¾Ð¹":11217,"ÐºÐ°ÑĤÑĮ":11218,"ÑĪÐ°ÑĤÑĮ":11219,"ĠÐ·Ð°Ñģ":11220,"Ð°Ð½Ð½ÑĬ":11221,"ÑĪÐµÐºÑĬ":11222,"Ð´Ð¸Ð»Ð°":11223,"Ð½ÐµÐ²Ð°":11224,"ĠÐĳÐ»Ð³":11225,"ĠÑĤÐ°ÐºÐ¾Ð¶":11226,"ĠÑ¥Ð´Ð¸Ð½":11227,"ĠÐ²ÑĮÑģÐ°":11228,"ĠÐºÐ¾ÑĢÐ¾Ð²Ñĭ":11229,"Ð½Ð¸ÐºêĻĭ":11230,"ĠÑģÑ£ÑĩÐ°":11231,"ĠÑģÑ£Ð¼ÐµÐ½Ð°":11232,"Ð¼ÑĭÑģÐ»":11233,"ĠÐ±ÐµÑģÑĬ":11234,"ĠÐ¼Ð¾Ð½Ð°ÑģÑĤÐ¸":11235,"ĠÑĤÑıÐ³Ð»ÑĭÑħ":11236,"ĠÐ§Ð»Ð¾Ð²Ñ£":11237,"ĠÐ»ÐµÐ¶Ð¸ÑĤÑĮ":11238,"ĠÐ·Ð°ÐºÐ»Ñİ":11239,"ÑĪÐºÐ¾Ð²Ð°":11240,"ĠÐ´Ð¸Ð°ÐºÑĥ":11241,"ĠÑģÑĤÐ¾Ð»ÐºÐ¾":11242,"ĠÑģÑĤÐ¾Ð»Ð¿ÑĬ":11243,"ĠÐ¼Ð°ÐºÑģÐ¸Ð¼Ð°":11244,"ĠÑİÑĢÑĮÐµÐ²":11245,"ĠÐ¿Ð¾Ð¼Ð¸Ð½Ð°ÑĤÐ¸":11246,"ĠÐ´Ð¾Ð¼Ð¾Ð²Ð¸ÑĤ":11247,"ĠÐ´Ð¾Ð²Ð¾Ð»Ð½Ð¾":11248,"ĠÐľÐ¸ÑħÐ°Ð¹Ð»":11249,"ĠÐ½Ð°Ð²ÑĭÐº":11250,"ĠÐĴÐ°ÑĢÑĦÐ¾Ð»Ð¾Ð¼":11251,"ÑĤÑĸÑİ":11252,"ÑģêĻĳ":11253,"ĠÐ´Ð²Ð¾Ð¸":11254,"ÑĪÐµÐ²ÑĮ":11255,"ĠÐ¼ÐµÑģÐµ":11256,"ĠÐµÐ¿Ñģ":11257,"Ð¾Ð³Ð¾Ð¶":11258,"ĠÐ²Ñ£Ð¼ÑĬ":11259,"ĠÐºÐ°Ð±":11260,"ĠÐ·ÐµÐ¼ÑĮ":11261,"Ð½Ñ§Ñħ":11262,"ĠÑĤÐ²Ð¾ÑĢÑ§Ñī":11263,"ÑĢÐ°ÑĤÐ¸ÑģÑı":11264,"ĠÐ½Ð°ÐºÐ°Ð·Ñĥ":11265,"ĠÐ¼ÑĬÐ½Ð¾Ñİ":11266,"ĠÐ´ÑĢÑĥÐ³Ð¾Ð¼Ñĥ":11267,"ĠÐ²Ð·ÑĭÑīÐµÑĤ":11268,"ĠÑģÐ²ÐµÑīÐµÐ½":11269,"ĠÐĽÑİÐ±":11270,"ĠÐ¿ÑĢÐ¸Ð±ÑĭÐ»ÑĮ":11271,"ĠÐ®ÑĢÑĮ":11272,"ĠÐ±ÐµÑĢÐµÐ·Ñ£":11273,"ĠÑĤÐ¾ÑĥÑĢÐºÑĭ":11274,"ĠÑĤÑĢÐ°Ð²Ñĥ":11275,"ĠÐ´Ð¸ÑĤ":11276,"Ñ§Ð½Ñ¹":11277,"ĠÐ¿ÑĢÐ¸Ñ£Ñħ":11278,"ĠÐĲÑĩÐµ":11279,"ĠÐ²Ð¾ÑģÑĤÐ¾Ñĩ":11280,"ĠÐ¾ÑĥÐ±ÑĮ":11281,"ĠÐŁÐ¸":11282,"ĠÐ¸Ð·ÑĢÐµ":11283,"ĠÐ±ÑĢÐ°ÑĪÑĮ":11284,"ĠÑ¥Ð¸":11285,"ĠÑ¥Ð´Ð¸Ð½ÑĬ":11286,"ĠÐ¾ÑĤÑĬÐ¸Ð´Ðµ":11287,"ĠÑģÑĤÑĢÐ°ÑģÑ£":11288,"ĠÑģÐ¾Ð±ÑĢÐ°Ð²":11289,"ĠÐ´ÑĥÐ³Ð¾Ñİ":11290,"ĠÐºÑĥÐ¿Ð»Ð¸":11291,"Ð²Ð¾Ð»Ð¾":11292,"ĠÐ¡ÑĤÐ°Ð²":11293,"ĠÐ¸ÑģÐºÐ¾Ñĥ":11294,"ĠÐ·Ð°Ð¿Ð°ÑģÐµ":11295,"ĠÐ¼ÑĥÐ´ÑĢÐ¾ÑģÑĤÐ¸":11296,"âĢĿ,":11297,"ĠÐ¿ÑĢÐµÐ¶Ð½Ð¸Ñħ":11298,"ĠÑĢÐ¾ÑĥÑģ":11299,"Ð½Ð¸Ð¼Ð°ÐµÑĤÑĬ":11300,"ĠÐ±Ñ£ÑģÐ¾Ð²ÑĮ":11301,"ĠÑĨÐ°ÑĢÐµÐ²Ð½Ð°":11302,"ĠÐĵÐ¾Ð²Ð¾ÑĢÐ¸ÑĤÑĬ":11303,"Ð¶Ð´ÑĬ":11304,"Ð½ÑĭÐ¸Ñħ":11305,"Ð¾ÑģÐµ":11306,"ÑĪÐ°ÑİÑĤ":11307,"ĠÐ½Ð¸ÐºÐ¾Ð¼Ð¾Ñĥ":11308,"ĠÑĨÑİ":11309,"ĠÑģÐ»Ð½ÑĨÐµ":11310,"ĠÐĴÑģÑ£":11311,"ĠÐŀÐ±ÑĢÐ°":11312,"ÑģÑĤÐ²ÐµÐ½Ð°Ð³Ð¾":11313,"ĠâĢ¦":11314,"ĠÑ¹Ð´Ð°ÑĢ":11315,"ĠÐ³Ð¾ÑĢÐ¾Ð´Ð¸":11316,"ĠÐ¿Ð¾ÑģÐ»Ð°Ð²ÑĬ":11317,"ĠÐ¼Ð¾ÐµÐ²Ð¾":11318,"ĠÑĩÑİÐ²ÑĮ":11319,"ĠÑģÑĤÑĢÑ£Ð»Ð¸":11320,"ĠÑ¡ÑĤÑĨÐ°":11321,"ĠÐ¾Ð±ÑĢÐ°Ð·Ñĭ":11322,"ĠÐ´ÐµÑģÐµÑĤÐ¸":11323,"ĠÐĴÐ»Ð°Ð´Ð¸Ð¼ÐµÑĢÐ°":11324,"ĠÐ²Ð´Ð¾Ð²Ñĭ":11325,"ĠÐ²ÑĬÐ´Ð°ÑģÑĤÑĮ":11326,"ĠÐ¥ÑĢÐ¸ÑģÑĤÑĥ":11327,"ĠÐ¿Ð¾ÑħÐ¾ÑĩÐµÑĤÑĬ":11328,"ĠÐ±Ñ¹Ð´Ðµ":11329,"ĠÐ±Ñ¹Ð´ÐµÑĪÐ¸":11330,"ĠÐºÑĢÐµÑģÑĤÐ½Ð¾Ðµ":11331,"ĠÐ¸Ð·Ð±Ð°Ð²Ð¸":11332,"ĠÑģÐµÑģÑĤÑĢÑĥ":11333,"ĠÑĤÑĢÐµÑĤÐ¸Ð¸":11334,"ĠÐ³Ð»ÐµÐ±":11335,"ĠÐ¼ÐµÑģÑĤÐµÑħ":11336,"ĠÐ´ÑĢÑ£Ð²Ð¾":11337,"ĠÐ²ÑĭÑħÐ¾Ð´Ñĭ":11338,"ĠÑĩÐµÑĢÐ½Ð¸Ð³Ð¾Ð²Ñĥ":11339,"ĠÑģÑĥÐ´ÑĮÑıÐ¼":11340,"ĠÐ¿ÑĢÐ¸ÐºÐ»Ð°Ð´Ñĭ":11341,"Ð½Ð½Ð¾":11342,"ĠÐ²Ð½êĻĭ":11343,"ĠÐ²ÑĩÐµÑĢÐ°":11344,"Ñ£Ð»":11345,"ÑīÐµÐ´":11346,"Ð²Ð°ÑİÑīÐµ":11347,"ÐºÐ¾ÑĪÐµ":11348,"ÐµÐ²Ñ¹":11349,"ĠÑĢÐ°Ð²ÑĬ":11350,"ÑĢÐ¸Ñ§":11351,"Ð´Ð¸Ñı":11352,"ĠÑıÐ½":11353,"ÐºÑĬÐ¼Ð¾":11354,"ĠÐ±ÐµÐ·ÑģÑĤÑĢÐ°":11355,"ĠÐ¿Ð°ÐºÑĬ":11356,"ĠÐ¾ÑģÐµÐ½ÑĮ":11357,"ĠÐ±ÑĢÐ°ÑĤêĻĭ":11358,"ĠÑĩÐµÑĤÐ²ÐµÑĢÑĤÑı":11359,"ĠÐ¿ÑĢÑıÐ¼ÑĥÑİ":11360,"ĠÐ³ÑĥÐ¼":11361,"ĠÐ²Ð¾Ð»Ð¾Ð´Ð¸Ð¼ÐµÑĢÑİ":11362,"ĠÐ²ÐµÑĩÐµÑĢÐµ":11363,"ĠÐ¾Ð±Ð»Ð°ÐºÑĬ":11364,"ĠÐ²ÑĬÑģÐºÑĢ":11365,"ĠÐ¿Ð¾ÑģÑĬÐ»Ð°":11366,"ĠÐ¼Ñ£ÑĢÐ°ÑħÑĬ":11367,"ĠÑģÑĤÐ°ÑĢÐ¾ÑģÑĤÑ£":11368,"ĠÐ¸ÑģÑĤÐ¸Ð½ÑĮÐ½Ð¾":11369,"ĠÑģÐ²ÑıÑĤÐ¸ÑĤÐµÐ»":11370,"Ð½Òį":11371,"Ð¼Ð°Ð¼":11372,"ĠÐ´Òį":11373,"ĠÐ±ÑĢÐµÐ²":11374,"ÑħêĻĳ":11375,"Ð·Ð½Ñ£":11376,"ÑīÐµÑĤÐµ":11377,"ĠÐ»Ð²Ð°":11378,"êĻĭÐ²Ð°":11379,"ĠÑģÑĬÐ²ÑĬ":11380,"Ð´Ð¸Ð¸":11381,"ĠÐ²Ð¾ÑģÐºÑĥ":11382,"ĠÐ²ÑĭÑģÐ»Ð°":11383,"ĠÐ»Ð¸ÑĨÑı":11384,"ĠÑĢÑĥÐ·":11385,"ĠÐ¼Ð½Ð¾Ð·Ñ£":11386,"Ð¶Ð¸ÑħÑĬ":11387,"ĠÐ¿ÐµÑĢÐ²Ñĥ":11388,"ĠÐ¿Ð¾ÐºÑĢÐ°":11389,"Ð³Ð°Ñ§":11390,"ĠÐ¼ÐµÐ¶Ðµ":11391,"ĠÐ²ÐµÑĢÐ²Ð¸":11392,"ĠÐ¸Ð½Ð½ÑĭÐ¼ÑĬ":11393,"ĠÑĤÐ¾Ð±Òį":11394,"ĠÑħÑĢÐ°Ð¼":11395,"ÑģÑĤÑĥÐ¿Ð¸ÑĤÐ¸":11396,"ĠÑģÐ¾Ð»Ð½ÑĨÐ°":11397,"ĠÐ¶ÐµÐ½Ð°Ð¼ÑĬ":11398,"ĠÐ´ÐµÐ»Ñĭ":11399,"ĠÐ¼Ð°ÑĢÑĩÐºÐ°":11400,"ĠÐ´ÑĬÐ²Ð°":11401,"ĠÑĤÑĢÐ¾ÐµÑĨ":11402,"ĠÐºÐ½Ñ§Ð·ÐµÐ¼ÑĬ":11403,"ĠÑģÑĤÐµÐ¿ÐµÐ½ÑĮ":11404,"ĠÑĢÐ°Ð·Ð¼Ñ£ÑĩÐµÐ½Ð¾":11405,"ĠÐ²ÑĮÑģÐµÑİ":11406,"ĠÐ±Ð¾ÑĥÐ´Ðµ":11407,"ĠÐ¿ÑĥÑĪÐºÐ°ÑĢÑģÐºÐ¾Ð¼Ñĥ":11408,"ĠÐ´Ð¼Ð¸ÑĤÑĢÐµÐµÐ²":11409,"ĠÐ·Ð°Ð¼Ð¾ÑĢ":11410,"ĠÐ¾Ð½Ð´ÑĢÐµÑı":11411,"ĠÐ¿Ð¾Ð¼ÐµÑīÐ¸Ðº":11412,"ĠÐĲÐ¼Ð¸ÑĢ":11413,"ĠÐ¿ÑĢÐ¸Ð»ÐµÐ¶Ð°":11414,"ĠÐ¿ÑĢÐ¾Ð·Ð²Ð¸":11415,"ĠÐļÑĸÐµÐ²Ñĥ":11416,"ĠÑģÐ´Ñ£Ð»Ð°ÑĤÐ¸":11417,"ĠÐ´Ð¾Ð¼Ð¾ÑĩÐ°ÑĤ":11418,"ĠÐ³Ð¾ÑĢÐ°ÑħÑĬ":11419,"ĠÐ²ÑĬÐ·Ñ§Ð»Ðµ":11420,"ĠÐºÐ¾Ð½ÑİÑĪÐ½Ñİ":11421,"ĠÐ·Ð°Ð¼ÑĥÐ¶ÑĮ":11422,"ĠÑħÐ¼ÐµÐ»":11423,"ĠÑģÑĩÐµÑĤÐµ":11424,"ĠÐ³ÑİÑĢÑĮÐ³":11425,"ĠÐĴÐ¾Ð»ÑĮÑĦÐ°Ð½":11426,"ĠÐľÐµÐ´ÐµÑı":11427,"ĠÐ¿Ð°Ð½ÑĮÐºÐ°":11428,"Ð²ÑĪÐ°Ð³Ð¾":11429,"ĠÐ¿Ð¾ÑĩÑĮÑģÑĤÐ¸":11430,"ĠÑĥÐ»Ð¾Ð¶Ðµ":11431,"Ð½ÑıÐµÑĤÑĮ":11432,"ĠÐ¿Ð¾Ð´Ð°ÑĢ":11433,"ĠÐ¿ÑĢÐ¾ÑģÑĤÑĭ":11434,"ĠÐ²ÑĭÑĤÑĮ":11435,"ĠÐºÐ¾ÐµÐ¹":11436,"ĠÐºÐ°ÐºÐ¾Ð²ÑĬ":11437,"ĠÐ¼Ñ£Ð´Ð¸":11438,"ĠÑ¹Ñģ":11439,"ĠÑ»Ð±":11440,"ÑĩÑİÑİ":11441,"ĠÑģÐµÐ¼Ñ£":11442,"ĠÐ§ÑĤ":11443,"ĠÐºÐ¾Ð»Ðµ":11444,"ĠÐ¿Ð¾ÐºÐ°Ð¶ÐµÑĤÑĬ":11445,"ĠÐ¿Ð¾Ð¸Ð´Ð¾Ñħ":11446,"ĠÐºÑĢÐ¸Ð²":11447,"Ð¿ÑĢÐ°Ð²Ð´Ð°":11448,"ĠÐ¶ÐµÑĢÐµÐ±ÑĮÑı":11449,"ĠÑģÐ¼Ð¾Ð»ÑĮÐ½Ðµ":11450,"ĠÑıÑĢÐ¾Ð¿Ð¾Ð»ÐºÑĬ":11451,"ÑĤÑĢÐ¾Ðº":11452,"ÑĮÑģÐºÑĭ":11453,"ÑĩÐ¸Ð»":11454,"ĠÐ¾Ð½Ðµ":11455,"Ð¾ÑĢÐ¾Ð²Ð°":11456,"ĠÑĢÐ¾Ð²ÑĬ":11457,"Ð°ÑĢÐ¸Ð½":11458,"ĠÑ¡Ð±Ð¾":11459,"ĠÐ¢Ð¾Ð¸":11460,"Ð¼Ð°Ð»Ð¸":11461,"ĠÑħÐ¾ÑĤÑ§ÑĪÐµ":11462,"ĠÑħÐ¾Ð´Ð°ÑĤÐ°":11463,"ĠÐ¾Ð³ÑĢÐ°":11464,"ĠÐ¾Ð³Ð½ÐµÐ¼ÑĬ":11465,"Ð½ÐµÑģÑĬ":11466,"ĠÐ±Ð»Ð°Ð³Ð¾Ñĥ":11467,"ĠÐ½Ð¾Ð²Ñ¹":11468,"ĠÑıÐ·ÑĭÐºÐ¾Ð¼":11469,"ĠÑģÑĤÐ²Ð¾ÑĢÐ¸Ð»ÑĬ":11470,"ĠÐ¿Ð¾ÑģÐ°Ð´Ð¸ÑĤÑĮ":11471,"ĠÐ½ÐµÐ´ÑĢÑĥÐ³Ð°":11472,"ĠÐŁÑĢÐµÑĩÐ¸":11473,"ĠÑģÑĤÑĢÐ°ÑĪÐ½Ð°Ð³Ð¾":11474,"ĠÐ¿Ð¾Ð´ÑĮÑıÑĩÐµÐ³Ð¾":11475,"ĠÐ¸Ð·Ð¼Ñ£Ð½":11476,"ĠÐĳÐ¾Ð¶ÐµÑģÑĤÐ²ÐµÐ½":11477,"ĠÐ»Ð°ÑĤÐ¸Ð½ÐµÑģÐºÐ¾Ð¼Ð¾Ñĥ":11478,"ĠÑĨÐµÐ»Ð¾Ð²Ð°Ð½Ð¸Ðµ":11479,"ĠÐºÑĸÐ²Ñ¡":11480,"ĠÐ½Ð¾ÑĢÐ¾Ð²Ñĭ":11481,"ĠÐ²ÐµÐ»Ð¼Ð¾Ð¶Ð¸":11482,"ĠÑģÐ°ÑħÐ°ÑĢ":11483,"ÑĥÑģÐ°":11484,"ÑģÑĤÑĢÑĥ":11485,"ĠÑĥÐ¿ÑĢÐ°Ð²":11486,"Ð´Ð°ÑĪÐµ":11487,"Ð°Ð½ÑĸÐµÐ¼ÑĬ":11488,"ĠÐ¸Ð·Ð²ÐµÑģÑĤÐ¸":11489,"ĠÐºÐ¾ÑĢÑĭ":11490,"ĠÐ¿Ð°ÑħÐ°":11491,"ĠÐ¸ÑģÐ¿ÑĢÐ°Ð²Ð¸ÑĤÐ¸":11492,"ĠÑģÐ»Ð°Ð²Ð¸":11493,"ĠÐºÐ½Ñ§Ð¶ÑĮ":11494,"ĠÐ±Ð»Ð°Ð³Ð¾Ð²Ñ£ÑĢ":11495,"ĠÑĤÑĮÐ¼Ð°":11496,"ĠÑĩÐµÑĤÑĭÑĢÐµÐ´":11497,"ĠÐ¿ÑĢÐ¾Ð¿Ñĥ":11498,"ĠÐ³Ð¾ÑĤÐ¾Ð²Ð°":11499,"ĠÑĩÐµÑĤÑĭÑĢÐµÑħÑĬ":11500,"ĠÐ¿Ð¾ÑħÐ²Ð°Ð»Ñĭ":11501,"ĠÐŁÐ¾Ð¼ÐµÑģÑĤ":11502,"ĠÐ¼Ñ£ÑģÑıÑĨÐ°":11503,"ĠÐ¸ÐºÐ¾Ð½Ð°":11504,"ĠÑģÑĤÐ¾ÑĢÐ¾Ð¶Ñ£":11505,"ĠÐ¿ÑĢÐ¸ÑģÑĤÐ°Ð½Ð¸ÑīÐµ":11506,"ĠÐ¼Ð°ÑģÑĤÐµÑĢÐ°":11507,"ÑĢÐ¾Ð·":11508,"Ð¼ÐµÑĤÐ°":11509,"ĠÐ¿ÑĢÐ¸Ð´ÐµÑĤÑĬ":11510,"ĠÐĲÐ¹":11511,"ĠÑħÐµ":11512,"ĠÑģÑĬÐ½Ñ£":11513,"ÑĩÐµÐ½Ð¸":11514,"ĠÐŁÑĢÐ¾Ðº":11515,"ÑĨÐ°Ñħ":11516,"ĠÐ¿Ð¾Ð´ÑĭÐ¼Ð°":11517,"ĠÐ±ÑĢÐ°ÐºÑĬ":11518,"ĠêĻģÑĮ":11519,"ĠÐºÐ¾ÑĢÐ¼Ð¸ÑĤ":11520,"ĠÑģÐ¿Ð°ÑĤÑĮ":11521,"ĠÐ·Ð°Ð¿ÐµÑĩÐ°ÑĤ":11522,"Ñ³Ñ£":11523,"ĠÐĽÐ°Ð·":11524,"ĠÐ²Ð»Ð°Ð´êĻĳ":11525,"ĠÐ³Ð¾Ð´Ð½Ð¾":11526,"ĠÑĩÐµÐ»Ð¾Ð²Ñ£ÐºÐ¸":11527,"ĠÐ¾Ð¿ÑĢÐ°Ð²":11528,"ĠÑīÐ°":11529,"ĠÐ±êĻĳÐ²Ð°":11530,"ĠÑĢÐ°êĻģÐ´Ñ£":11531,"ĠÐ²ÑĬÑģÐ°Ðº":11532,"Ð²ÑĪÐ¸Ð¼":11533,"ĠÐ²ÑģÑ§ÐºÑĸÑ§":11534,"ĠÐ¿ÑĢÐ¸ÑģÐ»Ð°Ð»":11535,"ĠÐ¸Ð´Ð¾Ð»":11536,"ĠÐ²Ð¼Ñ£ÑģÑĤÐ¾":11537,"ĠÐ±ÑĢÐ°ÑĪÐ½Ð¾":11538,"ĠÑĢÑ«ÑĨÑ£":11539,"ĠÐ¾ÑģÐ¼Ð¸Ð½Ð¾Ñİ":11540,"ÑĥÐ±Ð¾":11541,"ĠÐ¼ÑĢÐµ":11542,"ÐµÐ¼Ð¾Ðµ":11543,"ĠÑĩÐ°ÑĢÑĥ":11544,"ĠÐ¿ÑĢÐ¸ÐºÐ»Ð¾Ð½":11545,"Ñ¡Ð²":11546,"ĠÐ¸Ð·Ð³Ð¾ÑĤÐ¾Ð²":11547,"ĠÑĤÐ°ÐºÑĸÑı":11548,"ĠÑĦÑĢÐ°Ð½ÑĨÑĥ":11549,"ĠÐ¿ÑĥÑģÑĤÑĭÐ½Ñİ":11550,"ĠÑģÑĤÑĢÐ°ÑģÑĤÑĮ":11551,"ĠÒĨÒĨ":11552,"ĠÑİÑĢ":11553,"ĠÐ²ÐµÑĢÐ¸ÑĤÐ¸":11554,"Ð·Ð°Ð¹":11555,"ĠÐ¿Ð¾Ð±Ð¾Ð¸":11556,"Ġ26":11557,"ĠÑĢÐ°Ð´Ñĸ":11558,"ĠÐŁÐ¾ÑģÐ»Ñ£":11559,"ĠÐ¾Ð±ÑĬÑıÐ²ÑıÑĤÑģÑı":11560,"ĠÐ´ÑĢÑĬÐ¶Ð°Ð²":11561,"ĠÐ¶ÐµÐ»Ñ£Ð·Ð½Ð¾Ðµ":11562,"ĠÑħÐ¾ÑĢÐ¾Ð¼Ñĭ":11563,"ĠÑĪÐ°ÑĤÑĢÑĥ":11564,"ĠÐ¸Ð½Ñ£Ð¼ÑĬ":11565,"ĠÐºÐ»ÑİÑĩÐ½Ð¸ÐºÐ°":11566,"ĠÐ±ÑĢÐµÐ³Ñĥ":11567,"ĠÑĢÐ°Ð·Ð»Ð¸ÑĩÐ½ÑĭÐ¼Ð¸":11568,"ĠÑĤÐµÐ»Ñ£Ð³Ð¸":11569,"ĠÐ¿ÑĢÑ£Ð¼ÑĥÐ´ÑĢÐ¾ÑģÑĤÐ¸":11570,"ÐµÑģÑĤÑĮ":11571,"ĠÑģÑĢÑĬÐ´":11572,"ĠÐ¿Ð»ÐµÐ½":11573,"ÑıÐ·Ñĭ":11574,"ĠÑĤÐ»Ñ£Ð½":11575,"ÑĪÐ¸Ð»":11576,"ĠÐ¾ÑħÐ¾ÑĤ":11577,"Ð¶Ð°Ð½Ðµ":11578,"ĠÑĥÐ±Ñ£":11579,"ĠÐ·Ð°Ð´Ñ£":11580,"ĠÑģÐµÑİ":11581,"ĠÑıÐºÐ¾Ð²Ð°":11582,"ĠÐ¾Ð±Ñĥ":11583,"Ð²Ð¸Ð½Ð°":11584,"ĠÑĢÐµÐºÑĭ":11585,"ĠêĻĹÐº":11586,"Ð»Ð¾Ñİ":11587,"ĠÑĢÐ°Ð·ÑĢÑĥ":11588,"ĠÑ¥ÑģÑĤÐµ":11589,"ĠÑĤÑĭÐ¼ÑĬ":11590,"ĠÐµÑģÑĤÑĮÑģÑĤÐ²Ð¾":11591,"ÑĨÐ¸Ñİ":11592,"Ð´ÑĮÑĸ":11593,"ĠÐ½Ñ£ÑģÑĤÑĬ":11594,"ĠÐ¿Ð¾Ð±ÐµÐ´":11595,"ĠÐ²ÑĢÐ°ÑĤÑĬ":11596,"ĠÐĹÐµÐ¼":11597,"ĠÐ´Ð²Ð°Ð´ÐµÑģÑ§ÑĤÑĮ":11598,"ĠÑĤÑıÐ¶":11599,"ĠÑģÑĬÑĤÐ²Ð¾ÑĢÐ¸ÑĪÐ¸":11600,"ĠÐ±Ð°ÑĢÐ°":11601,"ĠÐ½ÐµÐ±ÐµÑģÑĬ":11602,"ĠÐ²ÑĭÑģÐ¾":11603,"ĠÐ½Ð°ÑĢÐµÑĩ":11604,"ĠÐ¿Ð»ÐµÐ¼ÐµÐ½Ðµ":11605,"ĠÑħÑĢÐ°Ð±ÑĢÑĭÐ¹":11606,"ĠÐ³Ð°Ð²ÑĢÐ°":11607,"ĠÑĤÑĢÑĥÐ±":11608,"ĠÐ¿ÑĬÐ»":11609,"ĠÑĩÑĢÐµÐ·":11610,"ĠÐĳÐ»Ð°Ð³Ð¾":11611,"ĠÐ½ÐµÐ±ÐµÑģÑĮÐ½Ð°Ð°Ð³Ð¾":11612,"ĠÑģÐ»Ð¾Ð±Ð¾Ð´Ñĭ":11613,"ĠÐ²ÑģÑ£Ð²Ð¾Ð»Ð¾Ð´ÑĬ":11614,"ÑĢÐ°Ð·ÑĥÐ¼Ñ£":11615,"ÑĮÑģÑĤÐ¸":11616,"ÑģÑĤÐ½Ð¾Ðµ":11617,"Ð³Ð¾Ð²Ð¾":11618,"ĠÐ¼Ð½Ð¸ÑĤ":11619,"Ð±Ð¸ÑĤÐ°":11620,"ĠÑĩÐ¾":11621,"ĠÐ»ÐµÐ½Ð¸":11622,"ĠÐ¿ÑĢÐ¸Ð½":11623,"ĠÐ¿ÑĢÐ¸Ð»":11624,"ĠÐ¾ÑĤÐºÑĢÑĭ":11625,"ÑĢÑ£ÑħÑĬ":11626,"ĠÐ»ÑİÑĤÐ°":11627,"ĠÐ¿Ð¾Ð»ÑĥÐ¿":11628,"ĠÐĿÐ¾Ð²Ð°":11629,"ĠÐ¸Ð·ÑĭÐ¼":11630,"ÑĤÐµÑħ":11631,"ÑĩÐ°ÐµÑĤ":11632,"ĠÐ´Ð¾Ð¸ÑĤÐ¸":11633,"ĠÐ²ÑĭÐ»Ð°Ð·":11634,"ĠÐ»Ð¸Ð±Ð¾":11635,"ĠÐ²Ð°Ð»Ð°":11636,"ĠÐ²ÑģÑıÐºÐ¾":11637,"ĠÐ¿Ð¾ÑĤÐ²ÐµÑĢ":11638,"ĠÐ³Ð¾ÑĢÑı":11639,"ĠÐ²ÐµÑĢÐ¸ÑĤÑĮ":11640,"ÑģÑĤÑĥÐ¿Ð¸ÑĪÐ°":11641,"ĠÐ±Ð¾ÑıÑĢÑģÐºÐ¾Ð¼Ñĥ":11642,
[...]
