{"<s>":0,"<pad>":1,"</s>":2,"<unk>":3,"<mask>":4,"[CTX_CHURCH]":5,"[CTX_DAILY]":6,"[CTX_LEGAL]":7,"[CTX_LIT]":8,"[CTX_EPIC]":9,"[CTX_SCIENCE]":10,"[UNK]":11,"!":12,"\"":13,"#":14,"$":15,"%":16,"&":17,"'":18,"(":19,")":20,"*":21,"+":22,",":23,"-":24,".":25,"/":26,"0":27,"1":28,"2":29,"3":30,"4":31,"5":32,"6":33,"7":34,"8":35,"9":36,":":37,";":38,"<":39,"=":40,">":41,"?":42,"@":43,"A":44,"B":45,"C":46,"D":47,"E":48,"F":49,"G":50,"H":51,"I":52,"J":53,"K":54,"L":55,"M":56,"N":57,"O":58,"P":59,"Q":60,"R":61,"S":62,"T":63,"U":64,"V":65,"W":66,"X":67,"Y":68,"Z":69,"[":70,"\\":71,"]":72,"^":73,"_":74,"`":75,"a":76,"b":77,"c":78,"d":79,"e":80,"f":81,"g":82,"h":83,"i":84,"j":85,"k":86,"l":87,"m":88,"n":89,"o":90,"p":91,"q":92,"r":93,"s":94,"t":95,"u":96,"v":97,"w":98,"x":99,"y":100,"z":101,"{":102,"|":103,"}":104,"~":105,"¡":106,"¢":107,"£":108,"¤":109,"¥":110,"¦":111,"§":112,"¨":113,"©":114,"ª":115,"«":116,"¬":117,"®":118,"¯":119,"°":120,"±":121,"²":122,"³":123,"´":124,"µ":125,"¶":126,"·":127,"¸":128,"¹":129,"º":130,"»":131,"¼":132,"½":133,"¾":134,"¿":135,"À":136,"Á":137,"Â":138,"Ã":139,"Ä":140,"Å":141,"Æ":142,"Ç":143,"È":144,"É":145,"Ê":146,"Ë":147,"Ì":148,"Í":149,"Î":150,"Ï":151,"Ð":152,"Ñ":153,"Ò":154,"Ó":155,"Ô":156,"Õ":157,"Ö":158,"×":159,"Ø":160,"Ù":161,"Ú":162,"Û":163,"Ü":164,"Ý":165,"Þ":166,"ß":167,"à":168,"á":169,"â":170,"ã":171,"ä":172,"å":173,"æ":174,"ç":175,"è":176,"é":177,"ê":178,"ë":179,"ì":180,"í":181,"î":182,"ï":183,"ð":184,"ñ":185,"ò":186,"ó":187,"ô":188,"õ":189,"ö":190,"÷":191,"ø":192,"ù":193,"ú":194,"û":195,"ü":196,"ý":197,"þ":198,"ÿ":199,"Ā":200,"ā":201,"Ă":202,"ă":203,"Ą":204,"ą":205,"Ć":206,"ć":207,"Ĉ":208,"ĉ":209,"Ċ":210,"ċ":211,"Č":212,"č":213,"Ď":214,"ď":215,"Đ":216,"đ":217,"Ē":218,"ē":219,"Ĕ":220,"ĕ":221,"Ė":222,"ė":223,"Ę":224,"ę":225,"Ě":226,"ě":227,"Ĝ":228,"ĝ":229,"Ğ":230,"ğ":231,"Ġ":232,"ġ":233,"Ģ":234,"ģ":235,"Ĥ":236,"ĥ":237,"Ħ":238,"ħ":239,"Ĩ":240,"ĩ":241,"Ī":242,"ī":243,"Ĭ":244,"ĭ":245,"Į":246,"į":247,"İ":248,"ı":249,"Ĳ":250,"ĳ":251,"Ĵ":252,"ĵ":253,"Ķ":254,"ķ":255,"ĸ":256,"Ĺ":257,"ĺ":258,"Ļ":259,"ļ":260,"Ľ":261,"ľ":262,"Ŀ":263,"ŀ":264,"Ł":265,"ł":266,"Ń":267,"ĠÐ":268,"Ð¾":269,"Ð°":270,"Ðµ":271,"Ð¸":272,"ĠÑ":273,"ÑĤ":274,"Ð¾Ð":275,"ÑĢ":276,"Ð½":277,"Ñģ":278,"ÑĬ":279,"Ð»":280,"Ð²":281,"ĠÑģ":282,"ÑĮ":283,"ĠÐ¸":284,"Ð¼":285,"ĠÐ¿":286,"Ðº":287,"ĠÐ²":288,"Ð´":289,"Ñĥ":290,"Ñ£":291,"CT":292,"čĊ":293,"CTX":294,"ĠÐ½":295,"Ñĭ":296,"êĻ":297,"ĠÐ´":298,"ĠÑĤ":299,"Ñ§":300,"ÑģÑĤ":301,"Ð³":302,"ĠÐ±":303,"ĠÐº":304,"ÑĪ":305,"Ñħ":306,"Ñİ":307,"ĠÐ¼":308,"CH":309,"ÒĨ":310,"Ñı":311,"Ð±":312,"Ð¾Ð²":313,"¶Ðµ":314,"Ð·":315,"ĠÐ¾":316,"Ñĩ":317,"ĠÐ½Ð°":318,"ĠÐ¿ÑĢ":319,"ĠÐ³":320,"Ð¿":321,"ÑĤÐ¸":322,"Ð¾ÑĢ":323,"Ð¾Ð»":324,"Ð¾Ð¼":325,"ĠÐ½Ðµ":326,"Ð½Ð¸":327,"ÑĢÐ°":328,"Ð»Ð°":329,"ĠÑĢ":330,"Ð»Ð¸":331,"Òĥ":332,"ÑĨ":333,"êĻĭ":334,"Ñĸ":335,"ĠÐ°":336,"Ñī":337,"Ð¾Ð´":338,"ĠÐ¿Ð¾":339,"ÐµÐ¼":340,"Ñ¹":341,"ÐµÑĤ":342,"ĠÐ·":343,"RCH":344,"URCH":345,"CHURCH":346,"ÐµÐ½":347,"ĠÐµ":348,"ĠÐ»":349,"Ð²Ð¾":350,"Ð¶":351,"Ð³Ð¾":352,"Ð¾Ð³":353,"IT":354,"LIT":355,"Ð½Ð°":356,"ÐµÑĢ":357,"AI":358,"DAI":359,"LY":360,"DAILY":361,"ĠÐ¶Ðµ":362,"ÑĤÑĮ":363,"Ð²Ð°":364,"ÐºÐ°":365,"ÐºÐ¾":366,"ĠÑĩ":367,"ĠÐ²ÑĬ":368,"ĠÐ´Ð°":369,"EP":370,"IC":371,"EPIC":372,"Ð´Ð°":373,"Ð¼ÑĬ":374,"Ð½Ð¾":375,"ĠÐĺ":376,"Ð¶Ðµ":377,"ÐµÐ»":378,"Â·":379,"Ð¾Ð±":380,"Ð½Ñĭ":381,"ĠÑģÑĤ":382,"ÑħÑĬ":383,"Ð¾Ð½":384,"êĻĹ":385,"ĠÐĲ":386,"Ñ¡":387,"Ð¸ÑĤ":388,"Ð¾ÑĤ":389,"Ð¾Ñĥ":390,"ĠÑ¡":391,"Ġ[":392,"NK":393,"UNK":394,"Ð¾Ñģ":395,"ĠÐ²Ñģ":396,"ÑĢÐ¸":397,"ĠÐ¿ÑĢÐ¸":398,"ÑĪÐ°":399,"ĠÑĥ":400,"ĠÑ¿":401,"ĠÂ·":402,"Ð´Ð¸":403,"Ð¼Ð¸":404,"ÑĢÐµ":405,"ÐºÐ¸":406,"êĻĳ":407,"ÑĪÐµ":408,"ĠÑħ":409,"ĠÐ·Ð°":410,"Ð´Ðµ":411,"êĻģ":412,"ÑĤÐ¾":413,"ĠÑģÐ²Ð¾":414,"Ñ«":415,"Ð²Ð¸":416,"Ð¾Ðº":417,"Ð½Ðµ":418,"ÑģÑĤÑĮ":419,"ĠÑĨ":420,"ĠÐ½Ð¸":421,"Ð°ÑĢ":422,"ĠÐ¾Ñĥ":423,"ĠÑĢÐ°":424,"Ð»Ðµ":425,"ĠÑģÐµ":426,"ÑĪÐ¸":427,"Ð¹":428,"ÑĤÑĬ":429,"Ð¾Ð³Ð¾":430,"ÑģÑĤÐ¸":431,"AL":432,"EG":433,"LEG":434,"LEGAL":435,"ĠÑģÑĬ":436,"Ð°Ðº":437,"ÑģÑĤÐ°":438,"ÑīÐµ":439,"ĠÐ±Ñĭ":440,"ÑģÐº":441,"Ġ:":442,"Ð»ÑĬ":443,"ÑĩÐ¸":444,"Ð²ÑĬ":445,"ÑĢÑ£":446,"Ð¾Ð²Ð°":447,"ÑĩÐµ":448,"ĠÑģÑ§":449,"Ð¾Ð¼ÑĬ":450,"Ð¾Ð¶":451,"ÑģÐ°":452,"Ð»Ð¾":453,"Ð¼Ð°":454,"Ð½Ñ£":455,"Ð¾Ð·":456,"ĠÐ²Ð¾":457,"ÑģÐ¸":458,"ĠÐ¶":459,"Ð½ÑĬ":460,"ĠÐ²Ðµ":461,"ĠêĻĹ":462,"Ð²Ñ£":463,"ÑģÑı":464,"Ð²Ð¾ÑĢ":465,"ĠÐ¾ÑĤ":466,"ĠÑĶ":467,"ĠÐŁ":468,"Ð½ÑĮ":469,"ÑĤÐ°":470,"Ð¾Ð¿":471,"ÐµÐ¼ÑĬ":472,"ĠÐ¡":473,"ĠÐ»Ñİ":474,"ĠÐĴ":475,"Òħ":476,"ĠÐĿ":477,"Ð´Ñ£":478,"ĠÑĤÐ¾":479,"ĠÐ±Ð¾":480,"Òĩ":481,"ĠÑģÐ»":482,"ĠÐ¿Ð¾Ð»":483,"ĠÑģÐ¸":484,"Ð¼ÑĮ":485,"ÑĩÐ°":486,"Ð»ÑĮ":487,"ĠÐ¸Ð»Ð¸":488,"Ð¾Ð¶Ðµ":489,"ÑģÑ§":490,"ÑĨÐ°":491,"ÑĢÑĮ":492,"ÐµÐ´":493,"ĠÐºÐ°":494,"ĠÑĢÐµ":495,"ĠÐ¼Ð¸":496,"ÑĸÐµ":497,"Ñ¥":498,"ÑĤÐµ":499,"ÑĸÐ¸":500,"ĠÐĶ":501,"Ð½Ñĥ":502,"ĠÐ¿Ð¾Ñģ":503,"ĠÑı":504,"ÑĥÐ´":505,"ĠÑĤÐ°":506,"ĠÐ¼Ð¾":507,"Ð¾Ð¹":508,"ĠÑĤÐµ":509,"ÑĢÐ¾":510,"ÐµÑĤÑĮ":511,"ĠÐºÑĬ":512,"ÐºÑĬ":513,"ÑĢÑĬ":514,"Ð»Ñ£":515,"Ð¾Ð´Ð¸":516,"ĠÐ±Ðµ":517,"ĠÑģÐ°":518,"ĠÐ¸Ð·":519,"Ð¶Ð°":520,"Ð¿Ð¸":521,"ĠÐ¢":522,"ĠÐ²Ñ£":523,"ĠÐ²Ð°":524,"ÑīÐ°":525,"ĠÐ»Ð¸":526,"ĠÐµÐ³Ð¾":527,"Ð¶Ð¸":528,"ĠÑ¥":529,"ĠÐºÐ¾":530,"ĠÐ¿Ð°":531,"ÐµÑĤÑĬ":532,"ÑħÐ°":533,"Ð±Ð¸":534,"âĢ":535,"Ð¾Ð²Ñ£":536,"Ð¼Ñ£":537,"Ð²Ðµ":538,"ÑīÐ¸":539,"ĠÐ¿ÑĢÐ¾":540,"ÑĢÑĥ":541,"ĠÐ¼Ð°":542,"ĠÐ²Ð¸":543,"ĠÑĸ":544,"Ð¿Ð°":545,"Ð³Ð°":546,"Ð·Ð°":547,"ĠÐ´Ð¾":548,"Ð»Ñİ":549,"ĠÐ²ÐµÐ»Ð¸":550,"ÑģÐµ":551,"Ð´Ð¾":552,"ĠÐ¼Ð½":553,"ĠÑĤÐ²Ð¾":554,"Ð¾Ð²Ðµ":555,"ĠÐ±ÑĢÐ°":556,"Ð¾Ð²Ð¸":557,"ÐµÑĢÐµ":558,"Ð±Ðµ":559,"ĠÐ¿Ð¾Ð´":560,"ĠÐ²ÑģÑ§":561,"Ð²Ñĭ":562,"ĠÑĤÐ¸":563,"Ð¾Ð¼Ñĥ":564,"ĠÐ¿ÑĢÐµ":565,"ĠÐĳ":566,"Ð±Ð¾":567,"Ð¼Ñĥ":568,"Ð²ÑĮ":569,"ĠÐ¿Ð¾Ðº":570,"ĠÐ³Ð¾Ñģ":571,"ĠÐ¶Ð¸":572,"ĠÐļ":573,"ÐºÑĥ":574,"ÑģÐ¿":575,"ĠÐ²ÑģÐµ":576,"ĠÐ´Ñ£":577,"Ð½Ñ§":578,"ĠÐ²Ñĭ":579,"ĠÐ³ÑĢÐ°":580,"ĠêĻ":581,"ÑģÑĬ":582,"ĠÐ´Ð¾Ð±":583,"ĠÐŀ":584,"ĠÑģÐ²Ð¾Ð¸":585,"Ð±Ñ£":586,"ĠÑģÐ²Ð¾Ðµ":587,"ÑĹ":588,"ĠÐ²Ð¾Ð·":589,"Ð½Ñı":590,"ÑģÐ»":591,"ĠÐĶÐ°":592,"ĠÑ¹":593,"ĠÑĪ":594,"ĠÑĩÑĤÐ¾":595,"ĠêĻģ":596,"ÑĨÐ¸":597,"ÑĨÐµ":598,"ÑģÐºÐ¸":599,"ĠÐ·ÐµÐ¼":600,"ÐµÐ½ÑĮ":601,"ĠÐ¿Ð¸":602,"Ð¾Ð´Ð°":603,"Ð¼Ð¾":604,"â¸":605,"Ð´ÑĬ":606,"Ð»Ñ§":607,"ĠÐ³Ð¾ÑĢ":608,"ÑĶ":609,"ÑģÑĤÐ¾":610,"ÑĢÑĭ":611,"ĠÐ¾Ð±":612,"Ð¼Ðµ":613,"ĠÐľ":614,"ĠÐ¿Ð¾Ð¼":615,"Ð´ÑĮ":616,"êĻ¿":617,"ĠÐ²ÑĮ":618,"Ð³Ñ¡":619,"ÑĦ":620,"ĠÐ³Ð»Ð°":621,"ĠÐ±Ñ£":622,"ĠÑģÑĭ":623,"Ð¾Ð»Ð¸":624,"ĠÑĤÑĭ":625,"Ġ.":626,"ĠÑĢÑĥ":627,"ĠÐ´Ðµ":628,"Ð¾Ð³Ð°":629,"ÑģÑĮ":630,"ÑģÐºÐ°":631,"ĠÑĩÐµÐ»":632,"ÑĪÑĮ":633,"ĠÐ±ÑĥÐ´":634,"ÑĩÑĮ":635,"ĠÑģÐ¾":636,"ĠÑģÐ²":637,"Ð¾Ð²Ð¾":638,"ĠÑ»":639,"Ð¾Ð²ÑĬ":640,"Ð¸ÑĤÐµ":641,"ĠÑĨÐ°ÑĢ":642,"ÒĦ":643,"ÑĸÐ°":644,"Ð±Ð°":645,"ÑģÐ»Ð°":646,"ĠÐ¿ÑĢÐ°":647,"ĠÐ¿ÑĢÑ£":648,"ĠÑĢÐ°Ð·":649,"Ð²Ð¾ÑĢÐ¸":650,"ĠÑģÑĤÐ°":651,"ÑĤÑĭ":652,"ÑĥÐ´Ð°":653,"ÑģÑ£":654,"ĠÐ³ÑĢÐ¸":655,"ÑĸÑ§":656,"ĠÐ»Ñ£":657,"ĠÑ§":658,"Ð´Ñĭ":659,"ÑģÑĤÐ²":660,"Ð¾Ð¶Ð¸":661,"ĠÐºÐ¾ÑĢ":662,"ĠÐºÐ°Ðº":663,"ÑĥÑĤ":664,"ĠÐºÐ¾Ð½":665,"ĠâĢ":666,"Ð½Ð¸Ðµ":667,"ĠÐ½Ð¾":668,"ĠêĻĭ":669,"Ð¼ÐµÐ½":670,"ĠÑĤÐ¾Ð³Ð¾":671,"Ð·ÑĬ":672,"²Ĥ":673,"á²Ĥ":674,"á²ĤÑĥ":675,"ĠÐĵ":676,"ÑĨÑĭ":677,"Ġá²ĤÑĥ":678,"ÑģÑĤÐ²Ð¾":679,"ĠÐ±Ð»":680,"CE":681,"CI":682,"EN":683,"SCI":684,"ENCE":685,"SCIENCE":686,"Ð±Ñĭ":687,"ĠÑģÐº":688,"Ð²ÐµÑĢ":689,"Ð»Ñı":690,"ĠÐºÐ¾ÑĤ":691,"ĠÑĤÐ°Ðº":692,"ĠÐ½Ñ£":693,"ĠÐµÑģÑĤÑĮ":694,"ÑģÑĤÐµ":695,"ĠÐ²Ð¾Ð»":696,"ĠÐ¼Ð¾Ð»":697,"ĠÑĤÑ£":698,"Ð¼Ð¾ÑĤ":699,"ĠÐĿÐµ":700,"Ð»ÐµÐ½":701,"Ð»Ñĭ":702,"ĠÐ¼Ñ£":703,"ĠÐ±ÐµÐ·":704,"ĠÐ³Ð¾ÑģÑĥÐ´Ð°":705,"ÑģÑĤÑĬ":706,"ĠÐ±Ð³":707,"ÑĨÑ£":708,"ĠÑĢÐµÑĩÐµ":709,"Ð¾Ð»ÑĮ":710,"ÑĢÑ§":711,"Ð½Ð¸Ðº":712,"ĠÐºÐ¾ÑĤÐ¾ÑĢ":713,"ĠÐºÑĥ":714,"ĠÐ¸Ñħ":715,"Ð³Ð¸":716,"Ð·Ñĭ":717,"ĠÑģÑĤÑĢÐ°":718,"Ð¶ÑĮ":719,"ÑĨÑĮ":720,"Ð½ÑĭÑħ":721,"Ð¾ÑĢÐ¸":722,"ĠÑĩÐ¸":723,"Óı":724,"Ð¾Ð²Ñĭ":725,"ĠÐ¼Ðµ":726,"Ð»Ñĥ":727,"ÑģÑĤÑĭ":728,"ÐµÐ½Ðµ":729,"ĠÑķ":730,"ĠÒĨ":731,"Ð³Ð´Ð°":732,"ÐµÐ»ÑĮ":733,"ĠÐķ":734,"Ð½Ð¾Ðµ":735,"ĠÑĨÑĢ":736,"Ð²Ñĥ":737,"ĠÑĦ":738,"ÐµÐ¼ÑĮ":739,"ĠÐ¿ÐµÑĢ":740,"ÐºÐ¾Ð¶Ðµ":741,"ÑģÐºÐ¾":742,"Ð¾Ð¼Ñ¹":743,"Ð³Ð¾Ð»":744,"Ð´Ñĥ":745,"Ð±ÑĢÐ°":746,"Ð³Ð¾ÑĢ":747,"ĠÑģÑ£":748,"Ð¸ÑĤÑĬ":749,"ĠÐºÑĤÐ¾":750,"ĠÑģÐ¾Ð±":751,"ĠÐ¸Ð¼":752,"ĠÐ²ÑģÑ£":753,"Ð·ÑĮ":754,"ĠÑģÐ»Ð°":755,"ĠÑıÐºÐ¾":756,"ĠÐ±Ð»Ð°":757,"ĠêĻĹÐºÐ¾":758,"Ð½ÑĭÐµ":759,"ĠÐºÐ½Ñı":760,"êĻĻ":761,"ĠÑİ":762,"ÐµÐ½ÑĬ":763,"ĠÐ¿Ð¾ÑĢ":764,"ĠÐ¾ÑĤÑĬ":765,"ĠÐµÐ¼Ñĥ":766,"ÐµÑĤÐµ":767,"ĠÐ³Ð´":768,"ĠÑĩÐ°":769,"Ñ³":770,"ĠÐ²Ð·":771,"ĠÐ²ÐµÐ»":772,"Ð²Ð°ÑĤÐ¸":773,"ÑĸÑİ":774,"ÑĢÑı":775,"ĠÐ¿Ðµ":776,"â¸±":777,"ĠÐ¾Ð½":778,"Ð»Ð¾Ð½":779,"ÐºÑ¡":780,"ĠÑĤÐ°ÐºÐ¾":781,"ĠÑģÑĮ":782,"ĠÐ¿Ð»Ð°":783,"Ġ,":784,"Ð½ÑĭÐ¸":785,"ĠÐ¿Ð¾Ð³":786,"ÐºÐ¾Ð²":787,"ĠÐ±Ð¾Ð»":788,"ĠÐ²ÑĬÐ·":789,"ĠÑģÑĥ":790,"ÐºÑĭ":791,"Ð¾Ð½Ð°":792,"Ð½Ñ¹":793,"ĠÐºÑĢ":794,"Ð¿ÑĢÐ°":795,"ĠÐ¿Ð¾Ð²":796,"ÑħÐ¾Ð´":797,"ĠÑģÐ¼":798,"ÐµÐ²":799,"ĠÎ":800,"Ð½êĻĭ":801,"Ð¾Ñİ":802,"Ð¸ÑĤÐ¸":803,"Ð¼êĻĭ":804,"â¸¯":805,"ĠÐ¸Ñģ":806,"ĠÐ´Ð²Ð¾ÑĢ":807,"ĠÐł":808,"ÑģÑĤÐ°Ð²":809,"ĠÐ±ÑĥÐ´ÐµÑĤ":810,"Ð¿Ð¾Ð´":811,"Ð½Ð°Ð³Ð¾":812,"ĠÐ´Ð¾Ð¼":813,"ĠÐºÑĢÐ°":814,"ÑĤÑ£":815,"ĠÐ¼Ñĥ":816,"ĠÐ³Ð»Ð°Ð³Ð¾Ð»":817,"ĠÐ³ÑĢ":818,"ĠÐ°ÑīÐµ":819,"ÐµÐ½Ð°":820,"ÑİÑĤ":821,"Ð³ÑĬ":822,"ĠÐ¿Ð¾ÑĤ":823,"ÑŃ":824,"ĠÐ³Ð»":825,"ÐµÐ½Ð¾":826,"êĻĭÐ´":827,"Ð¼Ñĭ":828,"ĠÐ±Ð¶":829,"Ð½ÑĸÐµ":830,"ÑģÑĤÐ°Ð²Ð¸":831,"ĠÑĩÐµ":832,"ĠÐ³ÑĢÑ£":833,"ĠâĢĶ":834,"ÑģÑĤÐ²Ð°":835,"Ð¾Ð¼ÑĮ":836,"Ñµ":837,"ĠÑĢÐ°Ð´Ð¸":838,"ĠÐ»ÑİÐ´Ðµ":839,"ĠÐ¿Ð¾ÑģÐ»Ð°":840,"Ð½Ð´":841,"ĠÑģÐ¾ÑĤ":842,"ÐµÐ»Ðµ":843,"ĠÐ¸Ð¼Ð°":844,"ĠÐ´ÑĢÑĥ":845,"ĠÑģÑĤÐ°ÑĢ":846,"ĠÐµÑģÐ¸":847,"ÑıÑĤ":848,"ÑĥÑİ":849,"ĠÐĿÐ°":850,"ĠÐ´ÑĢ":851,"ĠÑĤÑĢ":852,"ĠÐ¿Ð¾Ð¿":853,"ĠÐ¸Ð½Ð¾":854,"ĠÐĽ":855,"ÐºÐ°Ð·Ð°":856,"Ð¿Ð¾":857,"ĠÑģÑ¹":858,"Ð½Ñİ":859,"ĠÐ±êĻĳ":860,"ÒĥÂ·":861,"ĠÐ¼Ñ§":862,"ÐµÐ¼Ñĥ":863,"ĠÐ»ÑİÐ´":864,"ĠÑģÐ²Ñ£":865,"ĠÐ´ÑĮ":866,"Ð¸Ð¼":867,"Ð¸ÑĤÐ°":868,"ĠÑħÐ¾ÑĤ":869,"ĠÑĤÐ¾Ð±":870,"ĠÑģÐ¿":871,"ĠÐ»Ðµ":872,"ĠÐ³ÑĢÐ¸Ð²":873,"Ð½êĻĳ":874,"ĠÐºÑĢÐµ":875,"Ñĳ":876,"ĠÐ³ÑĢÐ°Ð¼Ð¾ÑĤ":877,"Ð½Ð¾Ñİ":878,"ÑĢÐµÐ¼":879,"ĠÑħÐ¾":880,"ĠÑĢÑ£":881,"ÐºÐ°Ð·":882,"ĠÐ¿ÑĢÐµÐ´":883,"ĠÐµÑģ":884,"ĠÐ¼Ð¾Ðµ":885,"ĠÑĤÐ²Ð¾Ðµ":886,"ĠÎ¹":887,"ĠÑģÐ²Ð¾ÐµÐ³Ð¾":888,"ĠêĻĩ":889,"Ð´Ñ§":890,"ĠÐ¼Ð¾Ð¸":891,"Ð·Ð¸":892,"Ð½Ð¾Ð³Ð¾":893,"ÑĭÐµ":894,"Ð¾Ð´Ñ£":895,"Ð¾ÑĢÐ¾":896,"Ñķ":897,"ĠÐºÐ°ÐºÐ¾":898,"ĠÑģÑĤÐ¾":899,"ĠÐĴÑĬ":900,"ĠÑĩÐ»":901,"ĠÐ²ÑģÑ§Ðº":902,"ÐµÐ»Ñ£":903,"ĠÐ·ÐµÐ¼Ð»Ð¸":904,"ĠÑ³":905,"ĠÐ¸ÑģÐ¿":906,"Ð²ÐµÐ´":907,"ĠÐ»ÑİÐ´Ð¸":908,"Ð½Ð¾Ð¼":909,"ĠÑģÑı":910,"ÑģÑĭ":911,"Ð¾Ð³Ð¸":912,"ĠÐ¸Ð¶Ðµ":913,"ĠÐµÐ´Ð¸":914,"Ð¾Ð½Ðµ":915,"ĠÐ±ÑĢÐ°ÑĤ":916,"Ð±ÑĮ":917,"Ð¾ÑģÐ»Ð°":918,"ĠÐ²Ð¸Ð´Ñ£":919,"ÑĢÐ¾Ðº":920,"ĠÐ¼Ñĭ":921,"ĠÐ»Ð°":922,"ĠÐ¿ÐµÑĢÐµ":923,"ÐºÐµ":924,"ĠÑĤÐ²Ð¾Ð¸":925,"Ð¾Ð³Ð´Ð°":926,"ĠÐ³Ð¾ÑĢÐ¾Ð´":927,"Ð½Ð¸Ð¸":928,"Ð²ÑĢÐ°":929,"ĠÐ¿Ð¾Ð±":930,"ĠÑĤÑĥ":931,"ĠÐ¸ÑħÑĬ":932,"Ð¼Ð¾Ñĥ":933,"Ð¾Ð¶Ð°":934,"ĠÑĤÑĢÐ¸":935,"ĠÐ²ÐµÐ»Ð¸Ðº":936,"Ð°Ð½":937,"ĠÐ²ÑģÑı":938,"ĠÑī":939,"Ð»ÐµÐº":940,"Òĥ:":941,"ĠÐ±ÑĮ":942,"ĠÑĤÑĬ":943,"ĠÐ²Ð»Ð°":944,"ÑĨÑĬ":945,"ĠÐºÐ¾Ñĥ":946,"Ð½Ð¾Ñĥ":947,"ĠÐ½ÐµÐ³Ð¾":948,"ĠÐ´Ñĥ":949,"ĠÐ¿Ð¾Ð¸":950,"ĠÐ³Ð¾":951,"ĠÐ¿Ð¸ÑģÐ°":952,"ÑģÐºÑĭ":953,"ĠÑĤÐµÐ±Ñ£":954,"ĠÑĤÑ§":955,"ÐµÐ½ÑĸÐµ":956,"ÑħÐ¾":957,"Ð¾Ð²ÑĮ":958,"ĠÑģÐ°Ð¼":959,"ÑħÑĮ":960,"ĠÐ¸Ð¼ÑĬ":961,"ĠÐŁÐ¾":962,"ĠÐ¿Ð¾ÐºÐ»Ð¾Ð½":963,"ĠÐ¼Ð½Ð¾Ð³Ð¾":964,"ĠÐ´Ð½":965,"ĠÐ²ÑĢÐ°":966,"ĠÑĤÐ²Ð¾ÑĢ":967,"ĠÐ±Ð¸":968,"Ġ-":969,"ĠÐ»Ñ£ÑĤ":970,"ÑİÑīÐµ":971,"Ð´êĻĭ":972,"ĠÐĲÑīÐµ":973,"Ð¾ÑģÐ¸":974,"ĠÑĤÐ¾Ð¼":975,"ĠÑģÐµÐ³Ð¾":976,"ĠÐ¼Ð½Ñ£":977,"Ñ§ÑĤ":978,"ĠÑ¡ÑĤ":979,"ĠÐ¼Ñ¹":980,"Ð¼Ñ¹":981,"Ð³Ñĥ":982,"Ð²Ð¾Ð»":983,"ĠÐ·Ð°Ð¿":984,"Ð²Ð°Ð½":985,"ÑħÐ¸":986,"ĠÐ³Ñģ":987,"ÑīÑĮ":988,"Ð°Ð³Ð¾":989,"ĠÐĹ":990,"ĠÐ½Ð°Ð¼ÑĬ":991,"ĠÐ´ÐµÐ½ÑĮ":992,"ĠÐ±Ð°":993,"ĠÐ¼Ð»":994,"ĠÑģÐµÑĢ":995,"ĠÑģÐ²Ð¾Ñİ":996,"ÑĢÐµÐ±":997,"Ñ§ÑĤÑĮ":998,"ĠÐ½Ð¸Ðº":999,"Ð½Ð¸ÐºÐ°":1000,"ĠÑ¡Ð±":1001,"Ð½Ð¾Ð¹":1002,"ĠÐ½Ð¸Ñħ":1003,"ĠÑĨÐ°":1004,"ĠÓı":1005,"ĠÐºÐ½Ñ§":1006,"ĠÑģÐµÐ±Ðµ":1007,"ĠÐ¶Ð¸Ð²Ð¾":1008,"ĠÑģÐµÐ¼":1009,"ĠÐ²ÐµÑĢ":1010,"ĠÑĢÑĥÐ±":1011,"Ð½ÑĭÐ¼":1012,"Ð»Ð¾Ð²Ð°":1013,"ĠÑĩÑİ":1014,"ÑħÑĥ":1015,"Ð²ÑĪÐµ":1016,"ĠÐ´Ð¾Ð±ÑĢ":1017,"ĠÐ½Ð°ÑĪ":1018,"ÑĭÑĪÐ°":1019,"ĠÐ¿Ñĥ":1020,"ĠÐ²Ð¾Ñģ":1021,"ĠÐ±Ð¾Ð³Ð°":1022,"ĠÐ¾Ð½Ð¸":1023,"ĠÐ»ÑİÐ±":1024,"ĠÑģÐµÐ±Ñ£":1025,"Ð½Ñĸ":1026,"ĠÐ¿ÑĢÐ¾Ð´Ð°":1027,"ÐºÑ¹":1028,"ĠÐ±Ð¾Ð³":1029,"Ð¿Ð¸ÑģÐ°":1030,"ÑıÑĤÐ¸":1031,"ĠÐµÐ¶Ðµ":1032,"ĠÑĤÐµÑħ":1033,"ĠÑģÐ»Ñĥ":1034,"ĠÐ±Ñĥ":1035,"ĠÑĨÐ°ÑĢÑĮ":1036,"ÑģÑĤÑ£":1037,"ĠÐºÐ¾Ð³Ð¾":1038,"ĠÐ·ÐµÐ¼Ð»Ñİ":1039,"ĠÐ±Ñ¹":1040,"ĠÑĢÐ¾Ð´":1041,"ĠÑł":1042,"ÑĪÐ»Ð¸":1043,"ĠÐ±Ð¾Ñı":1044,"Ð½ÑĭÑħÑĬ":1045,"ĠÐ½Ð°Ñģ":1046,"ĠÑĤÐµÐ¼":1047,"ĠÑĤÐµÐ±Ðµ":1048,"ĠÐ²ÑĢÐµÐ¼":1049,"ĠÐ½Ñĭ":1050,"ĠÐ¼Ð¸Ð»Ð¾":1051,"ĠÐºÐ°ÐºÑĬ":1052,"ĠÑģÐ½":1053,"ĠÐ¼ÐµÐ½":1054,"ĠÐ§":1055,"Ð¾ÑĢÐ°":1056,"Ð½Ð¸ÐºÑĬ":1057,"Ð´Ð¾ÑĪÐ°":1058,"ĠÐ±ÑĭÑģÑĤÑĮ":1059,"ĠêĻĸ":1060,"ĠÐ¿Ð»":1061,"ĠÑģÑĭÐ½":1062,"ÑıÐ½":1063,"ĠÐ´Ð²Ð°":1064,"ĠÐ£":1065,"ĠÐºÐ½ÑıÐ·":1066,"ĠÐ½ÑĮ":1067,"ĠÐ¼êĻĭ":1068,"ĠÐ´ÐµÑĢ":1069,"Ð¼ÐµÑĢ":1070,"ĠÑģêĻĭ":1071,"Ð¿Ñ£":1072,"Ð½Ð¸Ñı":1073,"ÐºÐ¾Ð½":1074,"Ð¾ÑĢÐµ":1075,"ĠÐ·Ð»Ð°":1076,"ĠÐ¡Ðµ":1077,"ĠÐ¿Ð°Ðº":1078,"ĠÐ±ÑĭÑĤÐ¸":1079,"Ð´Ñ¹":1080,"ÐµÐ½Ñĭ":1081,"ĠÐºÐ¾Ð»":1082,"ĠÐ²ÑĬêĻģ":1083,"ĠÐ¼ÑĮ":1084,"ĠÐ¿ÑĢÐ¾ÑĤÐ¸":1085,"ĠÑħÑĢÐ°":1086,"ĠÐ³Ð¾ÑģÐ¿":1087,"ÐµÐ»ÑĬ":1088,"ĠÐ·Ð½Ð°":1089,"ĠÑģÑĬÑĤ":1090,"ĠÐ±ÑĭÐ»Ð¾":1091,"ĠÐ¼ÐµÐ½Ðµ":1092,"ĠÑĢÐ¾Ð·":1093,"ÐµÐ·":1094,"ÐµÐ²Ð¸":1095,"Ð³Ð¾ÑĢÐ¾Ð´":1096,"ÑĢÑİ":1097,"Ð»êĻĭ":1098,"Ð»ÐµÐºÑģÐ°":1099,"ÑĤÐ²":1100,"ĠÐ²ÑģÐ¸":1101,"Ð½Ð¸ÑĤÐ¸":1102,"ĠÐ´Ð¸":1103,"ĠÐ²Ð¾Ð´":1104,"ĠÐ³Ð°":1105,"ĠêĻģÐ°":1106,"ĠÐ±êĻĭÐ´":1107,"Ð½Ñ«":1108,"ÑĹÐµ":1109,"ĠÐ½Ð°ÑĪÐµ":1110,"ĠÑĩÐµÐ»Ð¾Ð²Ðµ":1111,"Ð°ÑĪÐµ":1112,"ĠÐ³ÑģÐ´":1113,"Ð¾Ð½Ð¸":1114,"ĠÐ½Ð°ÑĩÐ°":1115,"ĠÐ²Ð¾ÑĤ":1116,"ĠÐ¼ÑĬ":1117,"ĠÑĤÐ¾Ð¼Ñĥ":1118,"ĠÑģÐ¾ÑĤÐ²Ð¾ÑĢÐ¸":1119,"ÐµÑĤÑģÑı":1120,"ÑİÑĤÑĮ":1121,"ĠÐ½Ð°Ð´":1122,"ÑĤÐµÑĢ":1123,"ĠÐ¿Ð¾Ð²ÐµÐ»Ñ£":1124,"ĠÑģÐ¾Ð»":1125,"ÑģÑĤÑĥ":1126,"ĠÐ¶Ð°":1127,"ĠÑĩÐµÐ»Ð¾Ð²Ñ£":1128,"ÑĤÑĥ":1129,"ÑĪÐºÐ°":1130,"Ð²ÐµÑĤ":1131,"ĠÐ¿Ð¾ÐºÐ°":1132,"ÑħêĻĭ":1133,"ĠÐ¸Ð¼Ñ£":1134,"ĠÐ¥":1135,"Ð¾ÐºÑĬ":1136,"êĻĳÐ¸":1137,"ÑĪÑĤÐµ":1138,"ĠÑĤÑĥÑĤ":1139,"ĠÑģÐ»Ð¾Ð²Ð¾":1140,"ÑĨÑĥ":1141,"ÑħÐ¾Ð¼ÑĬ":1142,"Ð½Ð°Ñ§":1143,"ĠÐ²Ð¾ÑĤÑĩÐ¸":1144,"Ð»ÐµÐºÑģÐ°Ð½Ð´":1145,"Ð½Ð°Ñı":1146,"ĠÑ¥Ð³Ð¾":1147,"ĠÐ¶ÐµÐ½Ð°":1148,"Ñ§ÑĤÐ¸":1149,"ĠÐ³Ð¾ÑģÑĥÐ´Ð°ÑĢÐµ":1150,"Ð¾Ð±Ð¸":1151,"Ð±Ñı":1152,"ĠÑģÐ°Ð¼ÑĬ":1153,"êĻģÐ°":1154,"ĠÑ£":1155,"Ð½ÑĸÐ¸":1156,"ĠÑģÐ»Ð¾Ð²Ðµ":1157,"ÑīÐµÐ½":1158,"Òį":1159,"ĠÑĥÑĩ":1160,"Ð½Ð¾Ð¸":1161,"ÐµÐ»Ð¾":1162,"ĠÐ³Ð¾Ð»":1163,"ÑĢêĻĭ":1164,"ĠÐ»ÑİÐ´ÐµÐ¹":1165,"ĠÑĢÐ°êĻģ":1166,"ÑģÐ»Ð°Ð²":1167,"ĠÑģÑĥÐ´":1168,"ĠÐ´Ñ£Ð»Ð°":1169,"ĠÑĩÑĤ":1170,"ĠÐ½Ð°ÑĪÐ¸":1171,"ĠÐ¿Ð¾Ð»Ð¾":1172,"ĠÐ²Ð¾Ð¸":1173,"Ð¾Ð¶ÑĮ":1174,"ĠÑĢÐ¸":1175,"ÐµÑħÐ°":1176,"ĠêĻ©":1177,"ÐºÑĢÐ°":1178,"ĠÑĢÑ¹":1179,"Ð³Ð¾Ð´":1180,"ÑģÑĥ":1181,"Ð±ÑĬ":1182,"Ð¾Ð²Ñ£Ð´Ð°":1183,"ĠÑĢÑĭ":1184,"ĠÐ¿Ð¾ÑģÐ°":1185,"ĠÐ½ÑĬ":1186,"Ð³ÑĢÐ°":1187,"ĠÐĵÐ¾Ñģ":1188,"ÑģÐ»Ð¸":1189,"ÑģÐ»Ñģ":1190,"Ð´ÐµÑĤÑĮ":1191,"ĠÐ¿ÑĢÐ¾Ñģ":1192,"Ð´Ð¾Ñĥ":1193,"ĠÐ¿ÑĢÑĸÐ¸":1194,"ĠÐ¿ÑĢÐ°Ð²":1195,"ÐºêĻĭ":1196,"ĠÑģÑĤÐ¾Ð»":1197,"ĠÑĤêĻĳ":1198,"ĠÐ»Ñĥ":1199,"ĠÐ±ÐµÑģ":1200,"Ð½ÑĥÑİ":1201,"ĠÑĤÑĮ":1202,"ĠÑģÐ¼ÐµÑĢ":1203,"ĠÑĩÐµÑĢ":1204,"ĠÑĩÐµÑĤ":1205,"ÐºÐ¾Ð¼":1206,"ĠÑĤÐ¾ÑĤ":1207,"Ð½Ð¾Ð²Ð°":1208,"ÑĢÐ°Ð²":1209,"ĠÐ°ÑĢ":1210,"ĠÐ½ÐµÐ¿":1211,"Ð³Ð¾Ð²":1212,"ĠÑģÐ²Ð¾Ñ¥":1213,"Ð¾Ð½ÑĮ":1214,"ÐºÐ¾Ðµ":1215,"ÑĤÑĢ":1216,"ĠÐºÐ¾ÑĤÐ¾ÑĢÑĭÐµ":1217,"ĠÐ³Ð¾Ð´":1218,"ĠÑģÐºÐ°":1219,"ĠÐ²Ð°Ð¼ÑĬ":1220,"Ð´ÐµÑĤ":1221,"ĠÐŁÑĢÐ¸":1222,"ĠÐ¯":1223,"ĠÐ¿Ð¾Ð·":1224,"ÑĩÑİ":1225,"Ð½ÑĭÑı":1226,"ÐºÐ¾Ñĥ":1227,"ĠÐ³Ð¾Ð²":1228,"ĠÑħÐ¾Ð»":1229,"Ð°ÑĢÑĮ":1230,"ĠÐ²ÐµÐ»Ð¸ÐºÐ¸":1231,"Ð¼Ñ§":1232,"ĠÐ¿Ñ£":1233,"ÑģÐºÑĥ":1234,"ĠÐ¢Ð°":1235,"Ð¿Ñĥ":1236,"ĠÑĤÐ²Ð¾ÑĢÐ¸":1237,"Ð¾Ð±Ñĭ":1238,"ĠÑĢêĻĭ":1239,"Ð¾Ð¸":1240,"ÑİÑĤÑĬ":1241,"ĠÑĤÐ¾ÑĢ":1242,"Ð¾ÑĤÐ°":1243,"Ð½Ð¾Ð²":1244,"Ð»Ð¾Ð¶Ð¸":1245,"ĠÐ³ÑĢÐ¸Ð²ÑĮ":1246,"ĠÐ½Ð¾Ð²":1247,"ĠÑģÐ»ÑĭÑĪÐ°":1248,"ĠÐļÐ°":1249,"Ð½Ð¸ÑĨÐ¸":1250,"ÐºÐ»Ð°":1251,"ÐºÑĮ":1252,"ĠÑģÐ²Ñı":1253,"ĠÑģÑ«":1254,"ÑİÑī":1255,"ĠÐ¼Ð½Ð¾Ð³":1256,"ĠÐ´Ð¾Ð±ÑĢÑĭ":1257,"ĠÐ³Ð¾ÑģÐ¿Ð¾Ð´":1258,"ĠÑħÑĢ":1259,"ĠÐ²êĻĳ":1260,"ĠÑģÐ»Ñ¹":1261,"ĠÐ¿ÐµÑĩÐ°":1262,"ĠÐºÐ°Ð·":1263,"Ð¸Ð¼ÑĬ":1264,"Ð¾Ð½ÑĬ":1265,"ĠÑģÐ¾Ñĥ":1266,"ĠÐºÐ½Ð¸":1267,"ĠÐĿÐ¾":1268,"ĠÐ¿Ð¾Ð¼Ðµ":1269,"âĢĲ":1270,"Ð»ÐµÐ²":1271,"ÑģÐ½Ð¾":1272,"ĠÐĲÐ»ÐµÐºÑģÐ°Ð½Ð´":1273,"ĠÐ½Ð°ÑģÑĬ":1274,"ÑģÐºÐ¾Ðµ":1275,"ĠÐ¹":1276,"ĠÐ½êĻĳ":1277,"ĠÐ´Ð²":1278,"Ð»Ñ¹":1279,"Ð¾ÑĪÐ°":1280,"Ð´ÐµÑĤÑĬ":1281,"ÐµÑĪÐ¸":1282,"ÑģÑĤÑĢÐ°":1283,"ÐºÐ¾Ð»":1284,"ÑĪÑĤ":1285,"ĠÐĿÐ¸":1286,"ÑĩÐµÐ½":1287,"ĠÑ¾":1288,"Ð½ÑĭÐ¼ÑĬ":1289,"ÑħÐ¾Ð´Ð¸":1290,"ĠÐ²Ð°ÑģÐ¸":1291,"Ð²Ð¸ÑĤÐ¸":1292,"ĠÐ¿ÐµÑĤ":1293,"Ð³Ð¾ÑģÐ»":1294,"Ð½ÑĸÑ§":1295,"Ð¾Ð¿Ð¾Ð»":1296,"Ð³Ñĭ":1297,"Ð½Ð¸Ñ¥":1298,"Ð½Ð¸ÑĨÐ°":1299,"ĠÐ³Ð¾ÑģÐ¿Ð¾Ð´Ð¸":1300,"Ð½Ð¾Ð¼ÑĬ":1301,"ĠÐºÑ¹":1302,"ÐºÐ¾Ñİ":1303,"ĠÐ´ÑĬ":1304,"ÐºÑ£":1305,"ĠÑĨÑ£":1306,"ÑĪÑĬ":1307,"Ð²Ð°ÑĤÑĮ":1308,"Ð½ÐµÑĤ":1309,"ÑĨÑ§":1310,"ĠÐ¼Ð½Ðµ":1311,"Ð¾Ð¼Ð°":1312,"Ð½ÑĥÑĤ":1313,"ÑĪÐµÐ½":1314,"Ð¿ÑĢ":1315,"Ð¾ÐºÐ°":1316,"Ġâ":1317,"Ð½ÑĭÐ¼Ð¸":1318,"ĠÑħÑĢÐ¸":1319,"ĠÑĤÐ¾Ð¸":1320,"ÐºÐ¸Ñħ":1321,"ĠÐ¼Ð¸ÑħÐ°":1322,"Ð²Ð°Ð»Ð¸":1323,"ĠÐ¼Ð¾ÑĢ":1324,"ĠâĢĲ":1325,"ÑĨÑİ":1326,"Ð¾Ð±Ð°":1327,"ÑĢÑ¹":1328,"ĠÐ´Ð¾Ð±ÑĢÐ¾":1329,"Ð³Ð¾Ð¶Ðµ":1330,"ÑģÑ¹":1331,"Ð½Ð¸ÐºÐ¸":1332,"ĠÐĳÐ¾Ð³":1333,"ĠÑĤÑı":1334,"ĠÐ³Ð¾ÑģÑĥÐ´Ð°ÑĢÑĮ":1335,"ÑģÐºÐ¾Ð³Ð¾":1336,"ÐµÐ¼êĻĭ":1337,"Ð»Ð°Ð½Ñ§":1338,"Ð½Ð¸Ñİ":1339,"Ð²ÑĪ":1340,"ĠÐĹÐ°":1341,"ĠÐ½Ð±":1342,"Ð´Ð°ÑĤÐ¸":1343,"ÐºÐ¾Ð¸":1344,"ÑĤÐ¸ÑĤÐ¸":1345,"ÑİÑīÐ¸":1346,"ĠÑģêĻĻ":1347,"Ð¿Ðµ":1348,"ÑĤÐ¾ÑĢ":1349,"ĠÐ¸Ð½":1350,"ĠÐ´Ð¾Ð»":1351,"ĠÐ¾Ñģ":1352,"Ð½Ð¸ÑĤ":1353,"ĠÐ¼Ð¾Ð½Ð°":1354,"Ð¾Ð±ÑĮ":1355,"Ð¶Ð´Ðµ":1356,"ÐºÐ¾Ð¼ÑĬ":1357,"ĠÐ±Ð¾Ñĥ":1358,"ĠÐ¼ÐµÐ½Ñı":1359,"ĠÐ¶Ð¸Ð²":1360,"ĠÑģÐ²Ð¾Ð¸ÑħÑĬ":1361,"ÑĹÐ¸":1362,"ĠÐ¿êĻĭ":1363,"ĠÐ´êĻĭ":1364,"ÐµÑĤÐ°":1365,"Ñ§ÑĪÐµ":1366,"ÑıÑĤÑĮ":1367,".,":1368,"ĠÐ¿ÑĮ":1369,"ĠÐ½Ð¸Ð¼ÑĬ":1370,"ĠÐ¾ÑĥÐ±Ð¾":1371,"Ð»Ð¾Ñĥ":1372,"ÑĦÐ°":1373,"ĠÑģÐºÐ¾ÑĢ":1374,"ĠÑģÐ»Ð°Ð²":1375,"Ð¾Ð²Ñĥ":1376,"ĠÑ«":1377,"ĠÐ¿Ð¾Ñħ":1378,"ĠÑĤÐ¾Ð»":1379,"ĠÐºÐ¸":1380,"ĠÐºÐ¾Ð»Ð¸":1381,"âĢĶ":1382,"ĠêĻĹÐºÐ¾Ð¶Ðµ":1383,"ÑĹÑ§":1384,"ĠÐ¼Ð¾Ð¶Ðµ":1385,"Ð³Ñ¹":1386,"Ð¾Ð²Ð°ÑĤÐ¸":1387,"ĠÑħÐ»Ñ£":1388,"ÑģÐºÐ°Ð³Ð¾":1389,"ĠÐ·Ð´":1390,"ÐµÐ¼Ð°":1391,"ĠÐ¼Ñ£ÑģÑĤÐ¾":1392,"ĠÐ¸ÑģÑĤÐ¸":1393,"Ð½Ð¸ÑĨÑĭ":1394,"Ñ¡Ð²ÑĬ":1395,"ĠÐ±ÐµÑĢÐµ":1396,"Ð»ÑģÑı":1397,"ÑģÑĤÑĮÑı":1398,",âĢĶ":1399,"ĠÐ¿Ð¾Ð»ÑĬ":1400,"ĠÑħÐ¾Ð»Ð¾Ð¿":1401,"ÐµÑĤÐ¾":1402,"ĠÑĤÐ¾Ð³Ð´Ð°":1403,"ĠÐ¼Ð¾Ñģ":1404,"ĠÑĢÐµÑĩ":1405,"ĠÑĪÐµ":1406,"ÑĭÑĪ":1407,"ĠÑĤÐ¾Ð¼ÑĬ":1408,"Ð¾Ð¼êĻĭ":1409,"ĠÐ½ÐµÐ¼":1410,"Ð½Ð°Ð°":1411,"ĠÐ·Ð°Ð¿Ð°":1412,"ĠÐºÐ¾ÑĢÐ¾Ð»":1413,"ĠÑģÑĤÐ¾ÑĢ":1414,"ĠÐ²Ð¾Ð»Ð¾Ð´Ð¸":1415,"ĠÐ´ÐµÑĢÐ¶Ð°":1416,"ĠÐ´Ñħ":1417,"ĠÑĨÐµÑĢ":1418,"ĠÐ¿Ð¾Ñĩ":1419,"ĠÐ½ÐµÐ´":1420,"ÑģÐºÐ¸Ðµ":1421,"ĠÐºêĻĭ":1422,"ĠÐºÐ½ÑıÐ·ÑĮ":1423,"Ð¾Ð²Ð¸Ñĩ":1424,"ĠÐºÐ½":1425,"Ð¾Ð¼Ð¸":1426,"ĠÒ":1427,"ĠÐ±Ð¸ÑĤÐ¸":1428,"ĠÐ³Ð½":1429,"ĠÑģÐµÑĢÐ´":1430,"ĠÐ¿ÑĢÐ¸ÐºÐ°Ð·":1431,"ÑĭÐ¸":1432,"ĠÐ¿Ð¾Ð´Ð°":1433,"Ð½Ð¾Ð¼Ñĥ":1434,"ĠÐ´ÑĪ":1435,"ĠÑĩÑĮ":1436,"Ð»Ð¾Ñģ":1437,"ÑĤÐµÐ»":1438,"ĠÑģÑĤÐµ":1439,"ĠÑħÐ¾Ð´Ð¸":1440,"ĠÐ¿Ð¾Ð½Ðµ":1441,"ÑĤÑĮÐµ":1442,"ĠÐ¡Ð°":1443,"Ð¸Ð´Ðµ":1444,"ĠÑģÐ¸ÑĨÐµ":1445,"êĻģÑĬ":1446,"ĠÑģÐ²Ð¾Ð¸Ñħ":1447,"ĠÑĢÐ¾Ñģ":1448,"ĠÑĢÐ¶Ð¸":1449,"ĠÐ²ÐµÐ»Ð¸ÐºÐ°":1450,"ĠÐ¼Ð½Ð¾Ð³Ð¸":1451,"Ð¶Ð´Ð°":1452,"Ð¸ÑĤÐµÐ»":1453,"ÑģÑĤÑĢÐ¾":1454,"ĠÐ½ÐµÐ¸":1455,"ĠÐľÐ¸":1456,"ÐµÑĢÑĮ":1457,"ĠÐ²Ð¾Ð´Ð°":1458,"ĠÒĤ":1459,"ĠÐ¸Ð²Ð°Ð½":1460,"ĠÑĢÐ°Ð±":1461,"â±":1462,"Ð·Ðµ":1463,"ĠÐ°Ð½":1464,"â±ķ":1465,"ĠÐ¿ÑĢÐ¾Ð¼":1466,"ĠÑĢÐ¾":1467,"ĠÐ¸Ð´Ðµ":1468,"ĠÐ¼Ð¾Ð³":1469,"Ð³Ð³":1470,"ĠÐ½Ð°ÐºÐ°Ð·Ð°":1471,"ĠÑģÐµÑĢÐµ":1472,"ĠÐĶÐ¾Ð±":1473,"ĠÐ¸Ð²Ð°":1474,"ĠÐ¿ÑĢÐ¾ÑĤÐ¸Ð²":1475,"ÐµÑħ":1476,"ÑĪÑĤÐ¸":1477,"ĠÐ¿Ð°ÑĩÐµ":1478,"ĠÐ²ÑĬÑģ":1479,"ÐµÐ½Ð¸":1480,"ĠÐµÐ³Ð´Ð°":1481,"Ð½ÑĸÐ°":1482,"ĠÐ´Ð¾Ð±ÑĢÐ°":1483,"ĠÐ¼Ð¾Ð½Ð°ÑģÑĤÑĭ":1484,"Ñ§Ñī":1485,"ÑģÐºÐ¾Ð¸":1486,"ĠÐłÐ°":1487,"Ð¾Ð¼Ð¾":1488,"Ð¿ÑĬ":1489,"Ñ£Ð¸":1490,"ĠÐ²Ñ£ÑĢ":1491,"ĠêĻģÐµÐ¼":1492,"ĠÐ¿Ð¾ÑģÐ»Ðµ":1493,"Ð½ÑĭÑ§":1494,"ĠÐ´Ð½Ð¸":1495,"ĠÐĸ":1496,"ĠÐºÑĢÑ£":1497,"ĠÑģÐ²Ð¾Ð¸Ð¼ÑĬ":1498,"Ð¶ÑĬ":1499,"ĠÐ²ÑĬÐ´Ð°":1500,"Ð¾Ð·Ð¸":1501,"Ð²Ñ£ÑīÐ°":1502,"ĠÑĢÐ¾Ð´Ð¸":1503,"ĠÑĥÑĩÐ¸":1504,"ĠÐ²Ð¾ÑĢ":1505,"ĠÐ°Ð·ÑĬ":1506,"ĠÐ±ÑĭÐ²Ð°":1507,"ÐºêĻĳ":1508,"Ð¾Ð»Ñ£":1509,"ÑģÑĤÐ¾Ð¸":1510,"ĠÐŀÑĤ":1511,"ĠÑĨÐ°ÑĢÑİ":1512,"ĠÐ²ÑģÑ£ÑħÑĬ":1513,"ĠÑģÐ¿Ð°":1514,"ĠÑģÑĢ":1515,"ĠÐ³Ð½Ñ£":1516,"ĠÑģÑĬÑĤÐ²Ð¾ÑĢÐ¸":1517,"ĠÐŁÑĢ":1518,"ĠÐ±ÑĢÐ°ÑĤÐ°":1519,"ĠÐ½Ð¸ÑħÑĬ":1520,"ĠÐ¡Ð¸":1521,"ĠÐ¿Ð¾Ð±Ñ£":1522,"Ð½ÑĭÐ¹":1523,"ĠÑĥÐ±Ð¾":1524,"Ð²Ð¾Ðµ":1525,"ĠÐ±Ð»Ð¸":1526,"ĠÐ¿Ð°ÐºÑĭ":1527,"Ð¾Ðµ":1528,"ĠÐ´Ð°ÑĤÐ¸":1529,"ĠÐĴÐ°":1530,"Ð½ÑĮÐµ":1531,"ĠÐ±ÑĬ":1532,"ĠÐ¼Ð°ÑĢ":1533,"--":1534,"ÑģÐ¿Ð¾Ð´Ð¸":1535,"Ê¼":1536,"ĠÑĢÐ°Ð´Ð¾":1537,"ÑħÑ«":1538,"ĠÐ¸êĻģ":1539,"ÐºÐ²Ð¸":1540,"ĠÐºÑĥÐ¿":1541,"ĠÐ±êĻĭÐ´ÐµÑĤÑĬ":1542,"ĠÐ»ÑİÐ´ÐµÐ¼":1543,"ĠÐ¿Ð¾Ð»Ð¾Ð¶Ð¸":1544,"ĠÐ½Ð°Ð¿Ð¸ÑģÐ°":1545,"ĠÐ³ÑĢÐ°Ð´":1546,"ĠÐ»ÑİÐ±Ð¾":1547,"ÑģÐºÐ¸Ñħ":1548,"ĠÐ¿Ð¾ÑģÑĤÐ°Ð²Ð¸":1549,"ÑģÐºÐ¾Ð¼Ñĥ":1550,"ĠÐºÐ½ÑıÐ·Ñı":1551,"Ð±Ñ¡":1552,"Ð²Ð°Ð»":1553,"ĠÐºÐ¾Ð½ÑĮ":1554,"Ð³Ð½Ð°":1555,"Ð²ÑĪÐ¸":1556,"Ð·Ð¾":1557,"ÑĪÐµÐ´":1558,"ĠÐ¾Ð±ÑĢÐ°":1559,"ĠÐ¢Ð¾":1560,"ÑĭÑħ":1561,"Ð¼ÐµÐ½Ð¸":1562,"ĠÑĤÐ¾Ð²":1563,"ĠÐºÑĢÐ°Ñģ":1564,"ĠÐ³Ð¾Ð²Ð¾ÑĢÐ¸":1565,"Ð´ÐµÑģÑ§":1566,"ĠÐ²Ð°ÑĢ":1567,"ĠÐ¼Ð¾Ð»Ð¾Ð´":1568,"ĠÐ´Ð¾Ð¼ÑĬ":1569,"ĠÑĤÑĢÐµ":1570,"ĠÐ¶ÐµÐ½Ñĭ":1571,"Ð¼Ð¸ÑĢ":1572,"ĠÐ¿Ð¾Ð½":1573,"ÑĪÑĤÐ°":1574,"Ð±Ð¾ÑĢ":1575,"Ð¸ÑħÑĬ":1576,"ĠÐ¾Ð¿":1577,"ĠÐ´Ð¾Ð¼Ð°":1578,"ĠÐ±Ð¾ÑĢ":1579,"ĠÐ¼Ð½Ñ¡":1580,"ĠÐ´ÑĢêĻĭ":1581,"ÑĦÐ¸":1582,"ĠÐ¾Ð±Ñĭ":1583,"ĠÐ±ÐµÐ»":1584,"ĠÐ²ÑģÐµÐ¼":1585,"ĠÐĿÑĬ":1586,"Ð»Ñ¡":1587,"Ð½ÐµÑģ":1588,"ĠÐ³ÑĢÐ²":1589,"Ð¾Ð´ÑĬ":1590,"Ð´Ð¸ÑĤÐ¸":1591,"ĠÐ¶Ð¸ÑĤÐ¸":1592,"ĠÐ²Ð°ÑģÑĬ":1593,"Ð¾ÑĤÑ£":1594,"ĠÐ±Ð»Ð°Ð³":1595,"Ð·Ð´":1596,"ĠÑģÐ²Ð¾Ð¸Ð¼Ð¸":1597,"ĠÑĨÐµÐ»":1598,"ĠÐ¿Ð°Ð¼":1599,"Ð¶ÐµÐ½":1600,"ÑģÑĤÐ°Ð½":1601,"Ð¾Ð¿Ð°":1602,"ĠÐ¿Ð¾Ð¼Ð¾":1603,"ĠÐ±Ð¾ÑıÑĢ":1604,"ĠÑ¥ÑģÐ¸":1605,"Ð³Ð»Ð°":1606,"ĠÐ¾Ð´":1607,"ÑħÑ¹":1608,"ĠÑĩÐµÐ»Ð¾Ð¼":1609,"ĠÐ¸Ð¼Ð°ÑĤÐ¸":1610,"ĠÐ½Ð°Ð¿":1611,"ĠÑĤÐ¾Ñĥ":1612,"Ð¿ÑĢÐ°Ð²":1613,"ÑĪÑ«":1614,"ÐµÐ»Ð¸":1615,"ĠÑĤÐµÑĢ":1616,"ĠÐ½Ð°Ð¼":1617,"ĠÐ¿Ð¾ÑĪÐ»Ð¸":1618,"-.":1619,"ĠÑ¥Ñģ":1620,"Ð´Ñ«":1621,"ĠÐŀÐ½":1622,"ĠÐľÐ°":1623,"Ð¾Ð¿Ð¸":1624,"ĠÐ¶Ð¸ÑĤ":1625,"ÑĤÑĢÐ°":1626,"ĠÑĥÐºÐ°Ð·":1627,"ĠÐ±ÑĥÐ´ÐµÑĤÑĮ":1628,"ÑĤÑĢÐ¸":1629,"Ð·Ñ£":1630,"ĠÐ·Ð°ÐºÐ¾Ð½":1631,"ĠÑĪÐ¸":1632,"ĠÐ¼Ñ«":1633,"ĠÐ¿ÑĢÐ¸ÑĪ":1634,"ÐµÑĨ":1635,"ÐµÐ¸":1636,"ÑĢÐ¾ÑģÐ»Ð°":1637,"ĠÐºÐ°Ð±Ð°":1638,"ĠÑģÐ¼Ñ£":1639,"Ð¸Ð»Ð¸":1640,"ĠÐ·Ð°Ð¿Ð¸":1641,"Ñ§ÑĤÑĬ":1642,"ĠÐ¼Ð¾Ð»Ð¸ÑĤ":1643,"ĠÐ±Ð»Ð³":1644,"ÑİÑīÐ°":1645,"ÑĤÐ¾Ð¶Ðµ":1646,"ĠÐ±Ð¾ÑĢÐ¸":1647,"ĠÑģÐµÐ¸":1648,"ÑģÑĤÑĢ":1649,"Ð±Ñĥ":1650,"ĠÑ¥Ð¼Ñĥ":1651,"ĠÐ³ÑĢÐ°Ð´Ð°":1652,"ĠÑģÑĭÐ½Ð°":1653,"ĠÑħÐ¾Ñī":1654,"ĠÑģÐ¾Ð±Ð¾Ñİ":1655,"ĠÐĴÐ»Ð°":1656,"ĠÑĤÐ¾Ð²Ð°ÑĢ":1657,"ĠÐ´Ð¾ÑĢ":1658,"ĠÑħÐ°":1659,"ÐºÐ¾Ð²Ð°":1660,"ĠÑĤÐ¾Ð±Ñ£":1661,"ĠÐ¼Ð¸Ð»Ð¾ÑģÑĤÐ¸":1662,"ĠÐ¿ÐµÑĢÐµÐ´":1663,"ĠÐ³Ð»Ð°Ð³Ð¾Ð»Ð°":1664,"ÑģÐºÐ¾Ð¹":1665,"Ð¼Ð¸ÑĤ":1666,"ĠÑģÐµÐ´":1667,"ĠÐ²ÑĭÑģ":1668,"ĠÐ´ÑĢÐµ":1669,"ĠÐ¿Ð¾ÑģÐ»Ñ£":1670,"ĠÐ¾Ð½Ð°":1671,"Ð¼ÐµÐ½Ð°":1672,"ÑĢÑĤ":1673,"Ð¼Ñ¡":1674,"ĠÑģÐ¾Ð²":1675,"Ð²Ð¾Ð´":1676,"Ñ¹Ñİ":1677,"ĠÐļÐ°Ðº":1678,"ĠÑĨÑĢÐº":1679,"ĠÐ´ÐµÑģÑ§":1680,"ÑĮÑĸ":1681,"ĠÐºÐ¾Ð¼Ñĥ":1682,"ĠÐ²ÐµÐ´ÑĮ":1683,"ĠÐ¼Ð¾Ð»Ð¸":1684,"ĠÐ¿Ð¾ÑģÐ»Ñĥ":1685,"ĠÐ¡ÑĬ":1686,"ÑĢÐ¾Ñĥ":1687,"ĠÐ¢Ñĭ":1688,"ĠÐ±ÑĭÐ»Ð¸":1689,"ĠÐ½Ð¸Ð¼Ð¸":1690,"ĠÐ½Ð¾Ð³Ð°":1691,"ĠÐ²Ð¾Ð»Ð¾Ð´Ð¸Ð¼ÐµÑĢ":1692,"Ð²Ð¾Ñİ":1693,"ĠÑģÐ²Ð¾Ñ§":1694,"ÑģÐºÑĥÑİ":1695,"Ð½Ñ¡":1696,"ÑĭÐ¼ÑĬ":1697,"ÑĪÐºÐ¸":1698,"ĠÐ¦":1699,"ĠÑĤÐ¾Ð±Ð¾Ñİ":1700,"Ð»Ð¾Ð²":1701,"ÑĤÐ¸ÑģÑı":1702,"ĠÐ²ÑģÑ£Ð¼ÑĬ":1703,"Ð³Ð¾ÑģÐ»Ð¾Ð²":1704,"ĠÐ¿Ð¾Ð¼Ð¸":1705,"Ð¼ÐµÐ½ÑĮ":1706,"ÑģÐ»Ð°Ð²ÑĬ":1707,"ĠÐ·Ð´Ñ£":1708,"ĠÑĪÑĤÐ¾":1709,"ĠÐ´Ð°Ð²":1710,"ĠÐ²Ð¾ÐµÐ²":1711,"ÑģÑĤÐ²Ñĥ":1712,"ĠÐ½Ð°ÑĢ":1713,"Ð²ÑĭÐ¸":1714,"ĠÑ¡Ð±Ð¸":1715,"ĠÑĨÐµÑĤ":1716,"ÑĤÐ°ÑĢ":1717,"ĠÐ´ÐµÑĢÐµ":1718,"ĠÑıÐºÐ¾Ð¶Ðµ":1719,"ĠÐĲÐ¶Ðµ":1720,"ĠÐ²Ð½Ð¸":1721,"Ð¸Ð¼Ð°":1722,"ĠÐ´Ð¾Ñĥ":1723,"ĠÑ¡Ð±ÑĢÐ°":1724,"ĠÐ»Ñ¹":1725,"Ð¾Ð¼Ñ£":1726,"ĠÐ±Ð¾Ð»ÑĮ":1727,"Ð»Ð°Ð´":1728,"ĠÐ²ÑĬÑģÑ£":1729,"ĠÐ¼Ñı":1730,"ĠÐ½ÐµÐ±Ðµ":1731,"ĠÐĶÐ¾Ð±ÑĢÑĭ":1732,"Ð´Ð¾Ð²Ð°":1733,"Ð¾Ð¼Ð¾Ñĥ":1734,"ĠÐ±Ñ«":1735,"ĠÑĥÑĩÐ½ÑĥÑĤ":1736,"ĠÐ½Ð°ÑĪÐµÐ³Ð¾":1737,"ĠÑĤÐ¾Ð¹":1738,"ĠÐ¾ÑĩÐ¸":1739,"ĠÐ´Ð¾Ñģ":1740,"ĠÐ¿ÑĢÐ°Ð²ÐµÐ´":1741,"Ñ§Ð¸":1742,"Ð²Ð¾Ð·":1743,"Ð´Ð¸ÑĤÐµ":1744,"ÑħÐ¾Ð¼":1745,"ĠÐ¤":1746,"Ð½Ð¸êĻĹ":1747,"Ð¾ÐºÐ¾":1748,"ĠÐ½ÐµÐ¼ÑĬ":1749,"ĠÐ²ÑģÑ§ÐºÐ°":1750,"ĠÐ´Ð»Ñı":1751,"ĠÐ²Ð·Ñı":1752,"ÐµÐ¹":1753,"ÑĪÑ§":1754,"ÐµÐ¼Ñ¹":1755,"ĠêĻĸÐºÐ¾":1756,"ÑĸÐµÐ¼ÑĬ":1757,"ĠÐµÑīÐµ":1758,"ĠÐ¼Ð°Ð»Ð¾":1759,"ÑĪÑĥ":1760,"ÑģÐµÐ»Ð¸":1761,"ĠÐĵÐ¾ÑģÐ¿Ð¾Ð´":1762,"ÐµÑĢÐ¸":1763,"Ñ§ÑīÐµ":1764,"Ð½êĻĹ":1765,"ĠÐ±ÐµêĻģ":1766,"Ð±Ð»Ð¸":1767,"ĠÐ»ÑİÐ´ÐµÐ¸":1768,"ĠÐ¿Ð¾Ð½ÐµÐ¶Ðµ":1769,"ĠÐ²Ð¿":1770,"âĢĿ":1771,"ĠÐ²ÑģÐµÐ³Ð´Ð°":1772,"ÐµÐ²Ð°":1773,"ĠÐ¾Ð½ÑĬ":1774,"ĠÑĢÐ°Ð·Ñĥ":1775,"ÑģÑĤêĻĭ":1776,"Ð»Ð°ÑĤÐ¸":1777,"ĠÐ¿Ð¾Ñĥ":1778,"Ð½Ñ£Ð¸":1779,"ĠÐ±Ð¾Ð³Ð°ÑĤÑĭ":1780,"ĠÐ¿Ð¾ÑĢÑĥ":1781,"ĠÐ¿Ð¾ÑģÐ°Ð´":1782,"ĠÐ±ÑĢÐ°ÑĤÐ¸":1783,"ĠÑģÐºÐ°Ð·Ð°":1784,"Ġ1":1785,"ĠÐ¼Ð°ÑĤÐµÑĢ":1786,"ĠÐ²Ð¾Ð·Ð¼":1787,"ĠÐ²Ð¾Ð»Ð¾":1788,"ĠÐ²Ð·Ñ§":1789,"ĠÐ´Ð¾Ð½":1790,"ĠÐµÑı":1791,"ĠÑĤÐ¾Ð¼Ñ¹":1792,"ÑģÑĤÑ§":1793,"Ð²ÑĢÐ°ÑĤÐ¸":1794,"Ð²ÑĢÑĬ":1795,"ĠÐ¿ÑĢÐ¿":1796,"ĠÑĪÐ°":1797,"ĠÐ¼ÐµÐ´":1798,"ĠÐ»ÑĮ":1799,"ĠÑ¹Ð±Ð¾":1800,"ÐºÐ¾Ð³Ð¾":1801,"Ð´ÐµÑĪÐ¸":1802,"Ð´ÐµÑĢ":1803,"ÑĨêĻĭ":1804,"ĠÐ²ÑģÐµÐ¼ÑĬ":1805,"ĠÐ´Ð¾Ð¿":1806,"ĠÑģÐ²Ð¾ÐµÐ¼Ñĥ":1807,"ĠÐ¿Ð¾ÐºÐ»Ð°Ð½Ñ§":1808,"Ð³Ð°ÑĢ":1809,"Ð³êĻĭ":1810,"ĠÑĤÐ¾Ð»ÐºÐ¾":1811,"ĠÐ´Ð½Ðµ":1812,"ÑģÐ¾":1813,"ĠÑĨÐ°ÑĢÑı":1814,"ĠÐ´Ð¾Ð²":1815,"ĠÐ¾Ð³":1816,"Ð´Ð½Ð¾":1817,"ĠÐ¢Ñ£":1818,"ĠÐ´Ñ£Ð»Ð¾":1819,"ĠÐ¿Ð¾Ð¶Ð°":1820,"ĠÐ»ÑİÐ±Ð¸":1821,"ĠÑģÐ°Ð¼Ð¸":1822,"ĠÐ¿Ñ¹":1823,"ĠÐµÐ¼Ñ¹":1824,"ĠÐ¸ÑģÐº":1825,"ĠÑĤÐ°Ð¼Ð¾":1826,"ÑĮÑı":1827,"ĠÑģÐ¾Ðº":1828,"ĠÐ¼Ð¾Ð¹":1829,"ÑģÑĤÐ¾Ð»":1830,"ĠÐ·Ð°Ð½Ðµ":1831,"ÑĤÐµÐ»ÑĮ":1832,"Ð¶Ñĥ":1833,"Ð¾ÑĤÑĬ":1834,"ĠÐ²ÑĢÑ£":1835,"ÑıÑĪÐµ":1836,"ĠÐ³Ñİ":1837,"Ð¾Ð±Ñ£":1838,"ĠÐ´ÑĢÑ¹":1839,"ÑĩÐµÑĤ":1840,"ĠÐ´ÑĢÑĥÐ¶Ð¸":1841,"ĠÐ²ÐµÐ»Ð¸ÐºÐ¾Ð³Ð¾":1842,"ĠÐµÑģÐ¼ÑĮ":1843,"ĠÐ¾Ð¶Ðµ":1844,"Ð´Ð¸ÑĤ":1845,"Ð³ÑĢÑ£":1846,"ÑģêĻĹ":1847,"ĠÑģÐ¼Ð¾ÑĤ":1848,"ĠÑĢÐµÐº":1849,"ĠÐ¿Ð¾Ð´ÑĬ":1850,"ĠÑĨÐ°ÑĢÐµ":1851,"ÑĨÐµÐ¼ÑĬ":1852,"ĠÑħÐ¾Ð´":1853,"ĠÐ¿Ð¾ÑĪ":1854,"ĠÑģÐ»Ðµ":1855,"ĠÐ¿ÑĢÑĸ":1856,"ÑĤÑĨÐ°":1857,"ĠÐ½Ð¾Ð²Ð³Ð¾ÑĢÐ¾Ð´":1858,"ĠÐ½Ð¸ÐºÐ°":1859,"ÐºÐ¾Ð²ÑĮ":1860,"ĠÑģÐ²Ð¸":1861,"Ñ¥ÑĤÑĮ":1862,"ĠÐ¿Ð¸Ñģ":1863,"Ð±ÑĭÐ²Ð°":1864,"Ð±êĻĳ":1865,"ĠÐ»Ð¾Ñĥ":1866,"ĠÐĴÐ»Ð°Ð´Ð¸":1867,"Ð¾Ð±Ð¸ÑĤ":1868,"ĠÑģÐµÐ±Ñı":1869,"Ð¾Ð²ÑĭÑħ":1870,"ĠÑģÐºÐ¾":1871,"ĠÐ¾ÑĤÐ´Ð°":1872,"ĠÐ±ÑĥÐ´ÑĥÑĤ":1873,"Â¦":1874,"Ð½Ñ¹Ñİ":1875,"ĠÑĤêĻĭ":1876,"ĠÐ²ÑģÑİ":1877,"ĠÐ¿ÑĢÐµÐ´Ð°":1878,"ĠÐ¿Ð¾ÑģÑĤ":1879,"ĠÐ¢Ð°Ðº":1880,"Ð¶Ð´":1881,"Ñ¡Ð¼ÑĬ":1882,"ÑģÑĤÐ¸Ñİ":1883,"ĠÐ³ÑĢÐ°Ð¼Ð¾ÑĤÐ°":1884,"Ġ(":1885,"ĠÐ¿Ð°ÐºÐ¸":1886,"ĠÐ½Ð°ÑĢÐµ":1887,"ÐµÐ¼Ð¸":1888,"ĠÑĤÐµÐ±Ñı":1889,"ÑĪÑİ":1890,"ĠÐ´ÐµÑĢÐµÐ²":1891,"ĠâĢĵ":1892,"ĠÐ´ÑĢÐ¾Ñĥ":1893,"ÑĤÑ§":1894,"ĠÑģÑĤÑĢ":1895,"ĠÐ¿Ð¾Ð»Ðµ":1896,"ĠÐºÐ»Ñİ":1897,"ĠÐ¼Ð¾ÐµÐ³Ð¾":1898,"Ð´Ð¸Ð½ÑĬ":1899,"ĠÑģÑĤÐ°ÑĢÐ¾":1900,"ĠÐ´ÐµÐ²":1901,"ĠÐ¢Ð°ÐºÐ¾":1902,"ĠÑģÐ¾Ð³":1903,"ÑģÑĤÐ²Ð¸":1904,"ĠÐ·Ð¾Ð»":1905,"ÐµÑİ":1906,"ĠÑģÐ¾ÑĤÐ²Ð¾ÑĢ":1907,"ĠÑĬ":1908,"ĠêĻĢ":1909,"ĠÑģÐ¾ÑĢ":1910,"ĠÑģÑĤÐ²Ð¾ÑĢÐ¸":1911,"ĠÐ¼Ð¸ÑħÐ°Ð¸":1912,"ĠÐ¿ÑĢÐ¾Ðº":1913,"ĠÐºÐ½Ñ§Ð·":1914,"ĠÐ³Ð´Ðµ":1915,"ĠÐ±êĻĭ":1916,"ĠÑģÐµÐ¼ÑĬ":1917,"Ð»êĻĹ":1918,"ĠÑģÐµÐ¼ÑĮ":1919,"ĠÑĢÐ¾Ñĥ":1920,"ĠÐµÐ»Ð¸":1921,"ĠÐ»ÑİÐ´ÑĮ":1922,"ÐµÑ¡":1923,"ĠÐ¿Ð¾Ð¶":1924,"ĠÑģÐµÐ»Ð°":1925,"ĠÑģÑĭÐ½ÑĬ":1926,"ÑĤÐ²Ð¾ÑĢ":1927,"ĠÐ³Ñĥ":1928,"ĠÐ½Ð¸Ñĩ":1929,"ĠÐ²Ð°ÑĪÐµ":1930,"ĠÐĴÐ°ÑģÐ¸":1931,"ĠÐłÐµ":1932,"ĠÑģÐ²Ð¾ÐµÑİ":1933,"Ð½Ð¾Ð³":1934,"Ð²êĻĭ":1935,"ĠÑ¡Ñģ":1936,"ĠÐĴÐ¸":1937,"ÑħÐ¾Ð²":1938,"ÑĤÐ¾Ð²Ð°":1939,"ĠÑĤÑ¹":1940,"ĠÑĥÐ¾":1941,"Ð¿ÑĮ":1942,"ĠÐ¼Ð°Ð½Ð°":1943,"ÑĢÐ¸ÑĤÐ¸":1944,"ĠÐŁÐ°":1945,"ÑĩÐ¸ÑĤ":1946,"ĠÑĢÐ°Ð´":1947,"ĠÐ²ÑģÐµÐ³Ð¾":1948,"ÑģÑĤÐ²êĻĭ":1949,"ĠÑıÐ·Ñĭ":1950,"Ð¾ÑĤÐ¾":1951,"ÐµÑģ":1952,"ÑĤÐ²Ð°":1953,"ÑīêĻĭ":1954,"ÐµÐ¼Ð¾Ñĥ":1955,"ĠÑģÑĤÑĮ":1956,"Ð»Ð¾Ð±":1957,"ĠÐ²Ð»":1958,"ĠÐµÐ²Ð¾":1959,"ÑĩÐµÑģÑĤÐ¸":1960,"ĠÑĩÐµÑĤÐ²ÐµÑĢ":1961,"ĠÐ¿ÑĢÐ¸Ð²Ðµ":1962,"ĠÐ¿ÑĢÐ¸Ð´Ðµ":1963,"Ð´ÐµÐ¶Ðµ":1964,"Ð·Ñĥ":1965,"ÑĨÐ¾Ð²":1966,"ĠÐ¿Ð»Ð¾":1967,"ĠÑģÐ¸ÑħÑĬ":1968,"ĠÑģÐ²Ð¾Ð±":1969,"ÑħÑĢÐ°":1970,"Ð¾ÑĤÑĭ":1971,"ĠÐ±ÑĭÐ»Ð°":1972,"ĠÑĩÐ»Ð¾Ð²Ñ£":1973,"ĠÑĩÑĤÐ¾Ð±":1974,"ĠÑģÐ²Ð¾ÐµÐ¹":1975,"ÑĪÐ°ÑģÑ§":1976,"Ð´ÑĢÐ°":1977,"ĠÐ¼Ð°Ðº":1978,"ĠÐ±ÑĢÐ°ÑĤÑĮ":1979,"ĠÐ³ÑĢÐ°Ð´ÑĬ":1980,"Ð²ÑĬÑĪÐµ":1981,"ÑģÑĤÑ¹":1982,"ĠÑĨÑĤÐ¾":1983,"ĠÑĤÑĢÐ¾":1984,"Ð¸Ñħ":1985,"Ñ¿":1986,"Ð»Ð¾Ð¼ÑĬ":1987,"ĠÐ¾ÑĤÐ²ÐµÑĤ":1988,"ĠÐ°Ð¿":1989,"ĠÑģÑĥÑĤÑĮ":1990,"ĠÐŁÐ¾Ñģ":1991,"ĠÐ²Ð´":1992,"ÑģêĻĭ":1993,"ĠÐ¸Ð·ÑĬ":1994,"ÑĪÐ°Ð³Ð¾":1995,"ĠÐ´ÑĢÑĥÐ³":1996,"ĠÐºÐ¾Ð½Ñı":1997,"Ð½êĻ¿":1998,"Ð¾ÑĢÐ¸ÑĤ":1999,"ĠÐ´Ñ£ÑĤÐ¸":2000,"ĠÐµÐ¼Ð¾Ñĥ":2001,"Ñ§Ð´":2002,"ĠÐ¼Ñ¡":2003,"ĠÐ¼Ð½Ð¾Ñİ":2004,"ÑĤÐ¸Ð½Ð°":2005,"ĠÐ½ÐµÐ²Ñ£":2006,"ĠÐ³ÑĢÐµ":2007,"ÑĪÐ°ÑĤÐ¸":2008,"ĠÑĥÐ±Ð¸":2009,"ĠÐ¿Ð¾Ð³Ð¸":2010,"ĠÑĮ":2011,"Ð±Ð»Ð°":2012,"Ñ¯":2013,"Ð¶Ð°ÑĤÐ¸":2014,"ĠÐ¿Ð¾ÐºÐ»Ð¾Ð½ÑĬ":2015,"ĠÑĤÑĢÐµÑĤÑĮ":2016,"ÑĢÐ¾Ð²Ð°":2017,"ÑĪêĻĭ":2018,"ĠÐ½Ð°Ñĩ":2019,"ĠÐ½ÐµÐ¼Ñĥ":2020,"ĠÑĥÐ¼":2021,"ĠÐ¿Ð°Ð²":2022,"ĠÐ¿ÑĢÐ¸Ð¸":2023,"ĠÐ²ÑĢÐµÐ¼Ñı":2024,"ĠÐ²ÐµÑģ":2025,"ĠÑĩÐµÐ²Ð¾":2026,"ĠÐ³Ð¾ÑģÑĥÐ´Ð°ÑĢÑİ":2027,"ĠÑĩÐµÐ»Ð¾Ð±Ð¸ÑĤ":2028,"Ñ£Ð»Ð¾":2029,"ĠÑģÐ²ÑıÑĤÑĭ":2030,"ĠÐºÐ»Ð°":2031,"ĠÐĴÑĭ":2032,"Ñ»":2033,"Ð¾Ð²Ð¸ÑĩÐ°":2034,"ĠÑĩÐ¸ÑģÑĤÐ¾":2035,"ĠÑĤÐ²Ð¾ÐµÐ³Ð¾":2036,"ÑĢÐ¾Ð²":2037,"ĠÐ¿ÑĢÐµÐ¼":2038,"ĠÑ¥ÑģÑĤÑĮ":2039,"ĠÑĸÑ¡":2040,"Ð²Ñı":2041,"ĠÑĩÐµÐ»Ð¾Ð²ÐµÐºÐ°":2042,"ĠÑħÐ¾ÑĢ":2043,"ĠÐ´ÐµÐ»Ð°":2044,"ĠÑħÐ¾ÑĤÑ£":2045,"Ð»Ð¸Ñĩ":2046,"ĠÐ³Ð´Ñ£":2047,"ĠÑģÐ°Ð¼Ð°":2048,"ĠÐ»Ñ£ÑĤÐ°":2049,"ÑĭÐ¼":2050,"ÑīÐ¾":2051,"Ð°ÐºÐ¾Ð½":2052,"êĻģÑĮ":2053,"ÑģÐ¸Ð¸":2054,"ĠÑĤÐ²Ð¾ÑĢÐ¸ÑĤÐ¸":2055,"ĠÐ¼Ð¾Ñ§":2056,"ĠÐ²ÐµÑģÑĮ":2057,"Ð½êĻĳÐ¸":2058,"ÑĢÐ¸ÑĨÐ°":2059,"Ġâģ":2060,"Ð±ÑĢÑ£":2061,"ĠÐµÑģÑĤÐµ":2062,"ÑĢÐ¾Ð¼":2063,"êĻģÐ¸":2064,"ĠÑģÐ²Ð¾ÐµÐ¸":2065,"ÑĪÐµÐ½ÑĮ":2066,"ĠÑīÐ¾":2067,"ĠÐĴÐ¾":2068,"Ð²Ð»Ñ§":2069,"ÐµÐ²Ð¸Ñĩ":2070,"ĠÑĦÐµÐ´":2071,"ĠÑĩÐµÑĤÑĭ":2072,"ĠÐ¸Ð¼ÐµÐ½":2073,"ĠÐ¼ÑĤ":2074,"Ð½Ð¸ÐºÐ¾Ð²":2075,"ĠÐ³ÑĢÑ£Ñħ":2076,"ÑĩÐºÐ¸":2077,"ÐºÐ¾Ð²ÑĬ":2078,"ĠÐ²ÐµÐ»Ð¼Ð¸":2079,"Ð±Ð»ÐµÐ½":2080,"ÐºÑĢÐµ":2081,"ĠÐ¾ÑĤÐ¿Ñĥ":2082,"ĠÑģÐ¼ÐµÑĢÑĤÐ¸":2083,"ĠÐ¼Ð¾Ñı":2084,"ĠÑħÐ¾ÑĤÑ§":2085,"ĠÑģÑĸÑ§":2086,"ĠÐ³Ð¸":2087,"ĠÐ½Ð¾Ñģ":2088,"Ð¶Ð¸ÑĤ":2089,"ÑĢÐ¾ÑĤÐ¸":2090,"ĠÐµÐ¼êĻĭ":2091,"ĠÐ±ÑĭÑģ":2092,"ĠÐ¿Ð¾ÐºÐ»Ð¾Ð½Ð¾":2093,"Î¹":2094,"ĠÐ´Ð°Ð»ÑĬ":2095,"ÐµÐ¼Ð¾":2096,"ĠÐĺÐ·":2097,"ĠÑĢÑĮ":2098,"ĠÐ¿ÑĢÐ¾Ð¿":2099,"ĠÑģÐ»êĻĭ":2100,"ÑĢÐ¸Ð½":2101,"ĠÐ¼Ð¾Ñ¥":2102,"ĠÐ²Ð°ÑĪÐ¸":2103,"ÑĩÐµÑĢ":2104,"ĠÐ±Ð»Ð°Ð³Ð¾":2105,"ÑĢÐ¾Ð¿Ð¾Ð»":2106,"ĠÑħÐ²Ð°":2107,"ĠÐĴÑĮ":2108,"ÑģÐºÐ¸ÑħÑĬ":2109,"ÑĸÑı":2110,"ÐºÐ²Ðµ":2111,"Ð¾Ð½Ñĥ":2112,"ÐºÐ¸Ðµ":2113,"ĠÐ¿Ð¾Ð´Ð¾Ð±":2114,"ĠÐ½ÐµÑĤ":2115,"ĠÐ·Ð»Ð¾":2116,"Ð¾ÐºÐ¸":2117,"ĠÐ¶Ð°Ð»Ð¾Ð²Ð°":2118,"ĠÐµÑģÑĤ":2119,"ÐµÑħÐ°Ð»":2120,"Ð³Ð½":2121,"ĠÐºÐ¾Ð¿":2122,"ĠÐļÐ°ÐºÐ¾":2123,"ĠÐºÑĢÐµÑģÑĤÑĮÑı":2124,"ĠÐ¿ÑĢÐ¸ÑĪÐ»Ð¸":2125,"ÑĢÐ°ÑĤÐ¸":2126,"Ð»Ð¸ÑģÑı":2127,"ĠÐ³Ð¾ÑģÑĥÐ´Ð°ÑĢÐµÐ²Ñĭ":2128,"ĠÐ´ÑĢÑĬ":2129,"Ð½Ð°Ð°Ð³Ð¾":2130,"ĠÐ´Ð¾Ð±ÑĢÑ£":2131,"ÐºÐ¾ÑĢ":2132,"ĠÐ¼Ð¾Ñİ":2133,"ĠÐ±ÑĥÐ´Ñĥ":2134,"ĠÑģÐ²Ñ§":2135,"Ð¶ÐµÑĤ":2136,"ĠÐļÐ¸":2137,"ĠÐ½Ð°ÐºÐ°":2138,"ĠÐ¾ÑĤÐ²ÐµÑĤÑĩÐ¸":2139,"ĠÐ±ÑĭÐ»ÑĬ":2140,"ĠÐ¿Ð¾ÑģÑĤÐ°Ð²":2141,"ÑĪÐµÐ´ÑĬ":2142,"ÑĭÑĤÐ°":2143,"ÐºÐ»Ð¾Ð½":2144,"ĠÐ¿ÑĢÐ¸ÑħÐ¾Ð´":2145,"Ð·Ð½Ð¸":2146,"ÑĢÐ¾ÑģÑĤÐ¸":2147,"ĠÐ´ÑĮÑı":2148,"ĠÐ¾ÑĤÑĢÐ¾Ðº":2149,"ÑĶÐ¼ÑĬ":2150,"ĠÑĢÑ¹Ðº":2151,"ĠÐ¶ÑĮ":2152,"ÑĤÐµÐ¸":2153,"ĠÐºÑĢÐ¸":2154,"ĠÐ»Ñ£ÑĤÐ¾":2155,"Ð¾Ð»ÑĮÐºÐ¾":2156,"ĠÐ¾ÑģÑĤÐ°":2157,"ĠÐ²ÑĮÑģÑ£":2158,"Ð±Ñ§":2159,"ĠÑĢÐ°ÑĤ":2160,"ĠÐ¼Ñ£ÑģÑĤÐ°":2161,"ÑģÑĤÐµÑĢ":2162,"ĠÐ²ÑĬÑģÐ¿":2163,"ĠÐ¿Ð»ÐµÐ¼":2164,"ĠÐ¿Ð¾Ð³Ð°":2165,"ÑĪÐºÐ¾":2166,"ĠÐ±ÑĭÑĪÐ°":2167,"ÐºÐ¾Ð¹":2168,"Ð±ÑĢ":2169,"ÑīÑİ":2170,"ĠÑĤÑ£ÑħÑĬ":2171,"ĠÐ²Ð¸Ð´Ð¸":2172,"Ð½Ð¾Ð¼Ñ¹":2173,"ĠÐ±Ð»Ñİ":2174,"ĠÐ¸Ð¼Ðµ":2175,"ĠÐºÐ°Ð¼ÐµÐ½":2176,"ĠÐ°Ð³Ð³":2177,"Ð½ÐµÐ¸":2178,"ĠÑĩÑĤÐ¾Ð±Ñĭ":2179,"ĠÐ¼ÐµÑĢ":2180,"ĠÑģÐ²Ð¾Ñı":2181,"ĠÐ½Ñ£ÑģÑĤÑĮ":2182,"ĠÐ½ÑĭÐ½Ðµ":2183,"ĠÐĲÐ»ÐµÐºÑģÐ°Ð½Ð´ÑĢÑĬ":2184,"ĠÐ²ÑĬÑģÐº":2185,"ĠÑģÐ»Ð¾Ð²":2186,"ĠÑĤÐ²Ð¾Ñ§":2187,"ĠÑħÑĢÐ¸ÑģÑĤ":2188,"ĠÐ¿Ð¸ÑĤÐ¸":2189,"ĠÐ·ÐµÐ¼Ð»Ñ§":2190,"ĠÐ¿Ñ§ÑĤÑĮ":2191,"ĠÐ²ÑģÑ§ÐºÐ¾Ð¸":2192,"ĠÐºÑĢÐ°Ð»ÐµÐ²":2193,"Ð½Ð¸Ð½Ð°":2194,"ĠÑģÑĬÑĤÐ²Ð¾ÑĢ":2195,"ĠÑĤÐ¾Ð»Ð¸":2196,"ĠÐ±Ð¾Ð»Ñ£":2197,"ĠÐ§ÑĤÐ¾":2198,"ĠÐ¼Ñ¹Ð¶":2199,"ĠÑĥÐ´Ð°":2200,"ĠÑģÐ¾Ð·":2201,"ĠÐĺÐ½Ð¾":2202,"ÑĤÐºÐ¸":2203,"Ð´Ñı":2204,"ĠÑģÑĤÑĢÐ¾":2205,"ĠÐĽÐ°":2206,"ĠÐ½Ð¸Ð¶Ðµ":2207,"Ð¾Ð²ÑĭÐµ":2208,"ĠÑĤÐ°Ð¸":2209,"ĠÑĤÑĢÑĮ":2210,"ÑĤÑģÑ§":2211,"Ð¾ÑĤÐ²Ð¾ÑĢ":2212,"ĠÑĤÐ²Ð¾Ñİ":2213,"ĠÐ¿Ð¾Ð»Ð°":2214,"ĠÐºÑĢÑ£Ð¿":2215,"ĠÐ¼Ð¸ÑĢÑĬ":2216,"ĠÐĳÐ¾Ð¶Ð¸":2217,"ÑĤÑĮÑİ":2218,"ĠÑĢÐµÐºÐ¾":2219,"ĠÐ¾ÑĥÐ¼":2220,"00":2221,"ĠÑ¡ÑĨ":2222,"ĠÐ²Ð°ÑģÐ¸Ð»ÑĮ":2223,"ĠÐ´Ð¾ÑģÑĤÐ¾Ð¸":2224,"ĠÑģÐ»Ð¾Ð²Ð°":2225,"ĠÐ¿Ð¾Ð´Ð¾Ð±Ð°":2226,"ĠÐ½ÐµÐ½Ð°":2227,"ĠÐ¿Ð¾Ð·Ð½Ð°":2228,"Ð²Ñ§":2229,"ĠÑģÐ¾Ð±Ñ£":2230,"ĠÑģÐ²Ñ£ÑĤ":2231,"ĠÑ§Ð·ÑĬ":2232,"ĠÐ²Ð¾ÑĤÑĩÐ¸Ð½":2233,"ĠÐ½Ð½":2234,"ĠÐ±ÐµÑģÑ£":2235,"Ð¶Ñİ":2236,"ĠÐµÐ´":2237,"ĠÐ¿ÑĢÐ¸ÐºÐ°":2238,"ĠÐºÑĥÐ½ÑĬ":2239,"ĠÐ¿ÑĢÑĬ":2240,"ĠÑģÐ½Ð°":2241,"ĠÐ²Ñ£Ñĩ":2242,"ÑĪêĻĻ":2243,"ĠÑĩÐµÐ»Ð¾Ð²Ñ£ÐºÑĬ":2244,"ĠÑģÑĤÑĭ":2245,"ĠÐľÐ¾Ñģ":2246,"ÑīÑĥ":2247,"ĠÐ´Ñ£ÑĤ":2248,"ĠÑģÑĢÐµ":2249,"ĠÑĥÑĩÐ½ÐµÑĤ":2250,"ĠÑĤÑĢÐ°":2251,"ĠÐ¼Ð¾Ñĥ":2252,"ĠÐĳÐ¾Ð³Ð°":2253,"ÑģÐºÐ¸Ð¼":2254,"Ð²Ð¸ÑĤÑĮ":2255,"Ð·ÑĭÐ²Ð°":2256,"ĠÐ¿Ð¾Ð²Ðµ":2257,"ÑİÐ±Ð¸":2258,"ĠÐ¿ÑĢÐ°Ð²Ð¾":2259,"ĠÐ³ÑĢÑ£ÑĪ":2260,"ĠÐ¿Ð¾Ð²Ð¸":2261,"ĠÑģÐ²Ð¾ÐµÐ¼ÑĬ":2262,"ĠÐ¾Ð±Ð¸":2263,"ĠÑĦÐ°":2264,"ÑģÑĤÐ²Ñ£":2265,"ĠÑģÐ¾Ð²Ñ£":2266,"ĠÐºÐ½ÑıÐ·Ñİ":2267,"ĠÐ³ÑĢÐ°Ð¼Ð¾ÑĤÑĥ":2268,"ĠÐ¾ÑĤÑĨÐ°":2269,"ĠÐ·ÐµÐ¼Ð»Ñı":2270,"ĠÐ¿Ð¾Ð²Ñ£":2271,"ĠÑģÐ²Ð¾Ð¸Ð¼":2272,"ĠÐºÐ¾ÑĢÐ°":2273,"ĠÐ»Ð²":2274,"ĠÑĩÑİÐ´":2275,"ĠÐ¿Ð¾Ð²Ñ£Ð´Ð°":2276,"Ð²Ñ£ÑĤ":2277,"ĠÑĤÐ°ÐºÑĬ":2278,"ĠÐ±Ñ¡":2279,"ĠÐ¿ÑĢÐµÐ¶Ðµ":2280,"ĠÐ¼Ð¸Ð»Ð¾ÑģÑĤÑĮ":2281,"ĠÑģÐ»Ð¾Ð²ÐµÑģÐ°":2282,"ĠÐ¼Ð¾ÑĢÐµ":2283,"ÑģÐºÑĭÐ¸":2284,"ĠÐ¸ÑģÐºÐ°":2285,"Ð³ÑĮ":2286,"ĠÐ¾Ð±ÑĢÑ£":2287,"ÑģÐ»Ð°Ð²Ð°":2288,"Ð·Ð½Ð°":2289,"ĠÐ¼Ð½Ð¾Ð³Ð°":2290,"ĠÑģÑĭÐ½Ð¾Ð²Ðµ":2291,"ĠÐ´ÐµÐ½Ðµ":2292,"Ð¾Ð¶Ð´Ðµ":2293,"ĠÑĤÑĭÑģÑ§":2294,"ĠÐ¿Ð¾Ð¸Ð´Ðµ":2295,"ĠÑĤÐ¾Ðº":2296,"ĠÐ³ÑĮ":2297,"ĠÐ¼Ð¸ÑĢ":2298,"ÑģÐ»ÑĭÑĪÐ°":2299,"Ñ¹Ð´":2300,"ĠÐ²ÑģÑ§ÐºÐ¾Ðµ":2301,"ÐºÑĢ":2302,"ĠÐ¿ÑĢÐ¸Ð½Ð¾":2303,"ĠÐºÐ¾Ð½Ð¸":2304,"ĠÑĤÑ£Ð»Ð¾":2305,"ĠÐ´ÑĢÐ°":2306,"Ð¼Ð¸ÑĢÐ°":2307,"ĠÐ³Ð¾ÑģÑĥÐ´Ð°ÑĢÑı":2308,"ĠÐ´ÐµÐ½":2309,"Ð·Ð´Ð°":2310,"ÑĤÑĸ":2311,"ĠÑ¿ÑĨ":2312,"ĠÐ¿Ð¾ÑĢÐ°":2313,"Ð½ÐµÐµ":2314,"ĠÑĥÐºÐ°Ð·Ñĥ":2315,"ĠÑĢÑĥÐºÑĥ":2316,"ÐºÑĢÑĭ":2317,"ĠÐ²Ð·ÑıÑĤÐ¸":2318,"ÑģÑĤÑĮÑıÐ½":2319,"ÑģÐºÐ°Ñı":2320,"ĠÑĢÐµÐµ":2321,"ĠÐ²Ð¾ÑģÐ¿":2322,"ÑģÑĤÐ²Ð¾Ð²Ð°":2323,"ĠÐ²ÐµÑĤ":2324,"ĠÐĴÑ£":2325,"ĠÐ¸Ð¼Ñı":2326,"ĠÐ¼ÑĥÐ¶Ð°":2327,"ÐµÑĢÐµÐ´":2328,"ĠÐ·Ð°Ð¿Ð¾Ð²Ñ£":2329,"ĠÐ½Ð°Ð¼Ð¸":2330,"ĠÑĤÐ°ÐºÐ¾Ð²Ð¾":2331,"ĠÑĢÐ°ÑģÐ¿":2332,"ÑĢÐ¾ÑģÑĤÑĮ":2333,"ÑĪÐµÐ½Ð¸":2334,"ĠÐŁÐµÑĤ":2335,"Ð½ÐµÐ¼":2336,"Ð¼Ð¾Ð»":2337,"ĠÐµÐ¼":2338,"ĠÐŀÑĥ":2339,"ĠÐ³ÑĢÐ°Ð¼Ð¾ÑĤÑĭ":2340,"ĠÑģÐ»ÑĥÐ¶":2341,"Ð¿Ð¾Ð´Ð¾Ð±":2342,"ĠÐ¶ÐµÐ»Ð°":2343,"ĠÐ²Ð¾Ð·Ð¼Ð¸":2344,"ĠÑģÐ²Ðµ":2345,"ĠÐ¸Ð³Ñĥ":2346,"Ð»Ñĸ":2347,"Ð³Ðµ":2348,"ĠÐ¿Ð¾Ð»Ñĥ":2349,"ĠÐ¿Ð¾ÑģÑĭ":2350,"ĠÑģêĻĹ":2351,"ĠÐ±ÑĥÐ´Ð¸":2352,"ĠÑĢÑĥÐ±Ð»ÐµÐ²":2353,"ĠÑģÐºÐ¾ÑĢÐ¾":2354,"Ð»Ð¾Ð¼":2355,"ĠÐ²Ð¾Ð¿":2356,"ĠÐ»Ð¾ÑĪÐ°":2357,"ÑīÐ°Ð³Ð¾":2358,"Ð½Ð¸ÑĤÑĮ":2359,"ĠÑģÐ»ÑĥÐ¶Ð¸":2360,"ĪĻ":2361,"Ð·Ð²Ð°":2362,"Ð½Ð¾Ð¼êĻĭ":2363,"Ð²ÑĢÑĮ":2364,"Ð½Ð¸ÐºÑĥ":2365,"ĠÐ´Ð°Ð²Ð°ÑĤÐ¸":2366,"ĠÐ²ÑĮÑģÐµ":2367,"ĠÐŁÑĢÐµ":2368,"ĠÑģÐ¸Ð»":2369,"ÑģÐºÐ¸Ð¸":2370,"ĠÑģÐ»Ð°Ð²Ð°":2371,"ĠÑĤÐ°ÐºÐ¾Ð²Ð°":2372,"ĠÐ¸Ð¼Ñ§":2373,"ĠÐ½Ð¸Ð¼":2374,"ĠÐ¿Ð¾Ð´Ð²Ð¸":2375,"ĠÑĹ":2376,"ĠÐ½Ð°Ð¿Ð°":2377,"Ñ©":2378,"ĠÐ±ÑĨ":2379,"ĠÐ´Ð°Ð¸":2380,"ĠÑģÑĢÐ°":2381,"ĠÑģÐµÐ»":2382,"ĠÐ²ÑģÑ§ÐºÐ¾Ð¼Ñ¹":2383,"ĠÑģÑĤÑ£":2384,"ĠÐĵÐ¾Ð²":2385,"ĠÐ³Ð¾ÑĤ":2386,"Ð¿Ð¾Ð»":2387,"ĠÐ¥ÑĢÐ¸":2388,"ĠÐľÐ¸ÑħÐ°":2389,"ÑģÐºêĻĭ":2390,"ĠÐ´Ð°Ð»Ðµ":2391,"ĠÐ¸ÑģÑĤÐ¸Ð½":2392,"ĠÐ±Ñ£Ñģ":2393,"ÑĤÐ²Ð¾ÑĢÐ¸":2394,"Ð¾Ð½Ð¾Ñģ":2395,"Ñ³Ð°":2396,"Ð´Ð¸Ð½":2397,"ĠÑģÑĢÐ¾Ðº":2398,"ĠÐ¼êĻĳ":2399,"Ð»ÑĭÑħ":2400,"ĠÑĩÐµÑģÑĤ":2401,"ÐµÑĪÑĮ":2402,"ĠÐĳÐ¾Ð³ÑĬ":2403,"ĠÐ´Ð°Ð¶Ðµ":2404,"ĠÑĤÐ°ÐºÐ¾Ð¶Ðµ":2405,"ĠÐ¿ÑĢÐ¿Ð±":2406,"ÑģÑĤÐ²Ñ¹":2407,"Ð½ÐµÑĤÑĮ":2408,"Ð½Ð°êĻĹ":2409,"ĠÑĩÐ¸ÑģÑĤ":2410,"Ð²Ð¾Ñĥ":2411,"Ð±Ð»":2412,"ĠÐ²Ð¾ÑģÑĤÐ°":2413,"ĠÐ¼Ð¸ÑĤ":2414,"ĠÐ½Ð°ÑĪÐ°":2415,"ĠÐ¿Ð»Ð°ÑĤÐ¸ÑĤÐ¸":2416,"ĠÐ±Ñ§ÑĪÐµ":2417,"ÑģÐºÐ¾Ð¼":2418,"ĠÑģÐ²ÐµÑĤ":2419,"ĠÐ£Ð¶":2420,"Ð°ÑħÑ«":2421,"ÑģÐ¿Ð¾Ð´Ð¸Ð½Ðµ":2422,"ĠÐºÐ¾ÑĥÐ½Ð¾":2423,"ĠÑĨÐµÑĤÐ²ÐµÑĢ":2424,"ÑĩÐ°ÑĤ":2425,"ĠÐ¼Ñģ":2426,"ÐµÐ»Ñİ":2427,"ĠÑĤÐ°ÐºÐ¾Ð²Ñĭ":2428,"Ð³Ð´Ñĭ":2429,"Ð¾ÑĢÑĥ":2430,"ĠÐ½ÑĭÐ½Ñ£":2431,"ĠÑĩÐµÐ¼ÑĬ":2432,"ÐºÐ¸Ð¼":2433,"ĠÐ±ÑĭÐ»":2434,"ÑģÐ¾Ñĥ":2435,"ÑīÐµÑĪÐ¸":2436,"ĠÐ²ÑĢÐµÐ¼Ñ§":2437,"ĠÑģêĻĳ":2438,"êĻ½":2439,"ĠÐ±Ð¾Ð³ÑĬ":2440,"ĠÐ´Ð²Ñ£":2441,"ÑģÐ¿Ñ£":2442,"ÑĢÐµÐ½":2443,"ĠÐ¶ÐµÐ½":2444,"ĠÐ´Ð°Ð½Ð¸":2445,"ĠÐ¿ÑĢÐ¸Ð²ÐµÐ´":2446,"ĠÐºÐ¾Ð½Ðµ":2447,"ĠÑģÐ¾Ð±ÑĢÐ°":2448,"Ð¶Ð½Ð¾":2449,"ĠÑģÑĸÐµ":2450,"Ð²ÑĮÑĢ":2451,"Ð½Ð¸ÑĨ":2452,"ÑģÑĤÑĥÐ¿Ð¸":2453,"Ð³Ð»Ð¸":2454,"ĠÐºÐ»Ðµ":2455,"ĠÐ³ÑĢÑ§":2456,"Ð¾ÑĤÐµ":2457,"ÑĩÐ¸ÑĤÐ¸":2458,"ĠÑĥÐ±":2459,"ĠÑĨÑĢÑĮ":2460,"ĠÐ±êĻĭÐ´êĻĭ":2461,"ÑīÑĸÐ¸":2462,"ĠÐ¡Ñĭ":2463,"ĠÐ»Ð¸ÑĨÐ°":2464,"Ð´Ð²Ð¸":2465,"ÑĩÐ¸Ð½":2466,"ĠÐ´ÐµÐ»Ð¾":2467,"ĠÐ´ÐµÐ»":2468,"Ð²êĻĳ":2469,"ĠÑĪÐµÑģÑĤÑĮ":2470,"ĠÐĴÐ¾Ð»":2471,"Ð²ÑĭÑħÑĬ":2472,"ĠÐ¿Ð¾ÑħÐ²Ð°":2473,"ĠÐ¸Ñİ":2474,"ĠÐ¸Ð·Ñ§":2475,"ÐºÑĥÑİ":2476,"Ð¿êĻĭ":2477,"Ð±Ð»Ñİ":2478,"ÑĩÐ½Ð¾":2479,"ĠÐ³Ð¾ÑĢÐ°":2480,"ĠÐ¼Ñ£ÑģÑĤÑ£":2481,"Ð¾Ð½Ñ£":2482,"ĠÐ¿Ð¾ÑģÐ»êĻĭ":2483,"Ð»Ð¾Ñİ":2484,"ĠÐ²ÐµÐ»Ðµ":2485,"Ð½ÑĸÐµÐ¼ÑĬ":2486,"ĠÐ¿Ð°ÑĢ":2487,"ĠÐ¿Ð¾ÑĤÑĢÐµÐ±":2488,"ÑģÐµÐ¸":2489,"ĠÐ¸ÑģÑĤ":2490,"ÑĪÐºÑĥ":2491,"Ð¾Ð´Ñĥ":2492,"ĠÑģÑĤÑĢÑ£":2493,"ÐºÐ°Ð¼Ð¸":2494,"ĠÐŁÐ¾ÑĤ":2495,"ĠÐ²Ñ£Ð´Ð°":2496,"ĠÐĵÐ¾ÑģÐ¿":2497,"Ð´ÐµÐ¸":2498,"ĠÐºÑĢÑĮ":2499,"ĠÐ²ÑģÐµÐ°":2500,"ĠÐ´ÐµÑĤÐ¸":2501,"ĠÐ¼Ð°ÑĤÐµÑĢÐ¸":2502,"ÑĩÐµÑģÑĤ":2503,"Ð¼ÑĮÐ¶Ðµ":2504,"ĠÐ¼Ð°ÑĤ":2505,"ĠÐ¿ÑĢÐ¾ÑģÐ»Ð°":2506,"ĠêĻĹÐ¶Ðµ":2507,"Ð²Ð¸ÑĤ":2508,"ĠÑĤÐ¾Ð¿":2509,"Ð¾Ð³ÑĬ":2510,"Ñ¡Ð½Ð°":2511,"âĢĿ.":2512,"Ð²Ñ¹":2513,"ĠÐ±Ð¾Ð¶Ð¸":2514,"ĠÑģÑĸ":2515,"ĠÐ¿Ð»ÑĬ":2516,"Ð¿Ð»":2517,"Ð¶Ð´ÑĮ":2518,"ĠÑĤÑ£Ð¼ÑĬ":2519,"Ð¿Ð¾Ð²Ð°":2520,"Ð¾ÑģÑĬ":2521,"ÐµÐ³Ð¾":2522,"ĠÐºÐ»Ð¸":2523,"ĠÐ°Ð»":2524,"Ð¾Ð´Ñĭ":2525,"ĠÐ·ÑĬ":2526,"Ð»ÐµÐ½Ð¸":2527,"ÐºÐ»Ð°Ð´":2528,"êĻģÑ£":2529,"ÑģÑĤÐ¸ÑĤÐ¸":2530,"ĠÑģÐ»Ñ£":2531,"ĠÐ¿Ð»Ñ£":2532,"ĠÑĢÐ°Ñģ":2533,"ĠÐºÑĮ":2534,"ĠÐ¶ÐµÐ½Ðµ":2535,"ĠÐ·Ð°Ð¼":2536,"ĠÑģÐ²Ð¾Ñ¥Ð³Ð¾":2537,"Ð²Ð»ÐµÐ½":2538,"ĠÐ¶ÐµÑĢÐµ":2539,"ÑĢÐ¸Ð½Ð°":2540,"ÑĢÐ¾Ñİ":2541,"Ð·êĻĭ":2542,"ĠÐºÐ¾Ð·":2543,"ĠÐ¿ÑĢÐµÐ¶":2544,"Ð»Ð¾Ð¶":2545,"ĠÐ´Ñī":2546,"ÑĭÑģÐ»":2547,"ĠÐ´ÐµÑĤ":2548,"ÑģÐºÑĬ":2549,"ĠÑģÑĤÑĢÐ°ÑĪ":2550,"ĠÐ´Ð°ÑģÑĤÑĮ":2551,"ĠÐ¾ÑĤÐµ":2552,"ĠÐ²ÐµÐ»ÑĮ":2553,"ĠÑĨÐ°ÑĢÐ¸":2554,"Ð²Ð¾Ð¸":2555,"ÐºÑĢÐ°Ñģ":2556,"êĻģÑĭ":2557,"Ð¿Ð¸ÑģÐº":2558,"Ġ3":2559,"Ð½ÑĸÑİ":2560,"Ð¾Ð½Ñĭ":2561,"ĠÐ¿ÑĢÐµÐ±ÑĭÐ²Ð°":2562,"ÑģÐºÐ¸Ð¼ÑĬ":2563,"ĠÐ²ÑģÑ§ÐºÐ¾Ð¼ÑĬ":2564,"ĠÐ¾ÑĥÐ±":2565,"ĠÐ¿ÑĤÐ¸":2566,"ĠÐ¿Ð¸ÑĤ":2567,"ĠÐºÑĢÑĬ":2568,"ĠÐºÑĥÐ¿Ð¸":2569,"Ð¾Ð»Ðµ":2570,"ÑĢÐµÑĤÐ¸":2571,"ĠÐ¿ÑĢÐ¾ÑģÐ¸":2572,"ĠÑĩÐµÑĤÑĭÑĢÐµ":2573,"ÑģÐµÐ½":2574,"Ð²Ñ£ÑĤÑĬ":2575,"ĠÐ²ÑģÑ§ÐºÐ¸":2576,"ĠÑģÐ²Ð¾Ð¹":2577,"ĠÐ°ÑĢÑħ":2578,"ĠÑģÑĥÐ´Ð°":2579,"ĠÐ½ÐµÐ¼Ð¾":2580,"Ð»Ð°ÑĤ":2581,"ÑĪÑ£":2582,"ĠÐ¿Ð¾ÐºÐ»Ð°Ð½Ñ§Ð½Ð¸Ðµ":2583,"ĠÑĤÐ¾ÑĢÐ³":2584,"ĠÐ³Ð¾ÑģÐ¿Ð¾Ð´Ð¸Ð½Ðµ":2585,"ĠÐµÐ¹":2586,"Ð²Ð¸Ð´Ð¸":2587,"Ð¼ÐµÐ½Ðµ":2588,"Ð¸Ð¸":2589,"ĠÐ¿ÑĢÑĮ":2590,"ĠÑĨÑĮ":2591,"Ð¼Ñı":2592,"Ð½ÑĮÑİ":2593,"ĠÐ¼Ð°Ð½Ð°ÑģÑĤÑĭ":2594,"ĠÐ²Ð·Ñĭ":2595,"ĠÐºÐ¾Ñģ":2596,"ĠÑ£ÐºÐ¾":2597,"ÑĨÐµÐ¼":2598,"ĠÑģÐµÑĢÐ´ÑĨÐµ":2599,"ĠÐ²ÑģÐµÐ³Ð´Ñĭ":2600,"ĠÐ»ÑİÐ´ÐµÐ¼ÑĬ":2601,"ĠÐ´ÐµÑĤÐµ":2602,"ÑģÑĤÐ²Ðµ":2603,"ÑĹÑİ":2604,"ĠâĪĻ":2605,"Ð½Ð¾Ð²Ð¾":2606,"ĠÐ½Ð°ÑĪÑĮ":2607,"Ð¾ÑĢÑĬ":2608,"Ð½Ð¸ÑĩÐµ":2609,"ĠÑģÐ²ÐµÑĢ":2610,"ĠÑħÑĢÐ¸ÑģÑĤÐ¸":2611,"ĠÐ¼Ð¾ÑģÐºÐ¾Ð²":2612,"Ð¶Ñ§":2613,"Ð½Ð¸ÐºÐ¾Ð¼":2614,"ĠÑģÐ¾Ð³ÑĢÑ£":2615,"ĠÐ¼Ð»Ð°Ð´":2616,"ĠÐºÐ¾Ð½Ñİ":2617,"ÑĪÐ½Ð¸":2618,"ĠÐºÑĢÐµÑģÑĤÑĮÑıÐ½":2619,"Ð»ÐµÐ²ÑĬ":2620,"ĠÐ½Ñ«":2621,"ĠÐ¾Ð²":2622,"ĠÐ¾ÑĤÑĮ":2623,"ĠÑĤÐ¾Ð²Ð°":2624,"ÐºÑ«":2625,"ĠÐķÑĢÑĥ":2626,"ĠÐ¿Ð¾Ð¼ÐµÑģÑĤÑĮÑı":2627,"Ð¿Ñ¹":2628,"Ð¶Ñ£":2629,"ÑģÐ¼ÑĮ":2630,"Ð³Ñµ":2631,"ÑĤÑı":2632,"ĠÐ¨":2633,"Ð»Ð°Ð³Ð°":2634,"ĠÑĤÑĢÑĥ":2635,"Ð¿ÑĢÑ£":2636,"Ð¾Ð´ÑĮ":2637,"ĠÑģÑĤÐ¾Ñı":2638,"Ð¾Ð±Ðµ":2639,"ĠÑį":2640,"ĠÑ¡ÑģÑĤÐ°":2641,"ĠÐĳÑ£":2642,"ĠÐ´Ð°Ð²Ñĸ":2643,"ĠÐ¼Ð°Ð»":2644,"ĠÐķÑīÐµ":2645,"ĠÑģÐ¾Ð²ÐµÑĢ":2646,"ĠÑģÐ¾Ñģ":2647,"ĠÐ¿ÑĢÐ¸ÑģÐ»Ð°":2648,"Ð½ÑĮÑĸ":2649,"ĠÐ¸Ð·Ð±Ð°":2650,"ĠÐ»ÑİÐ´ÑĸÐµ":2651,"ĠÐ°Ð»Ð¸":2652,"ĠÐĺÐ»ÑĮ":2653,"ĠÐ¿Ð¾ÐºÑĢÑĭ":2654,"ĠÐ¿ÑĢÐ¸ÑĪÐµÐ´":2655,"ĠÑĨÐµÐ»Ð¾Ð²Ð°":2656,"ĠÐ¼Ð½Ð¸":2657,"ĠÐ¿Ð¾Ð³ÑĢÐµ":2658,"ĠÐºÐ½Ñ§Ð·ÑĮ":2659,"ĠÐºÐ»ÑİÑĩ":2660,"ĠÐ¾ÑģÑĤÐ°Ð²Ð¸":2661,"ĠÐ²Ð¾Ð·Ð»Ñİ":2662,"ĠÑ¿Ð´Ð°":2663,"ĠÐ´Ð²Ð¾ÑĢÑĬ":2664,"ĠÐ¿ÑĢÐ¾ÑĢ":2665,"ĠÑĤÑĭÑģÑı":2666,"ĠÐºÑĢÐµÑģÑĤ":2667,"Ð²Ð½Ð¾":2668,"ĠÐ²ÐµÐ»Ð¸ÑĩÐµ":2669,"ĠÐµÐ¸":2670,"Ð½Ð°Ð³Ñ¡":2671,"ĠÐ¡ÑĤÐ°":2672,"ĠÐ»Ð¸ÑĨÐµ":2673,"ĠÐ²ÑģÐµÐ²Ð¾Ð»":2674,"ĠÐ±ÐµÐ·ÑĬ":2675,"ÑīÑĬ":2676,"ĠÐķÐ³Ð´Ð°":2677,"ĠÑģÑĤÐ¾Ð»ÑĮ":2678,"ĠÐ³Ñ¹":2679,"ĠÐ¿Ð¾ÑģÑĬ":2680,"Ð°ÑĢÑĬ":2681,"ĠÑ¡Ð±Ð¸ÑħÐ¾Ð´":2682,"ÑĤÐ²Ð¾":2683,"Ð´êĻĳ":2684,"ĠÐ¿ÑĢÐ¾Ð³":2685,"ĠÐ²Ð´Ð°":2686,"Ð½ÑĮÑı":2687,"ÑģÐ»ÑĮ":2688,"Ð¶Ð´Ð¾":2689,"Ð¶ÐµÐ½ÑĬ":2690,"ĠÐ²Ð¸Ð½Ð¾Ð²Ð°":2691,"ÐµÑĤÑģÑ§":2692,"ĠÑĩÐµÐ³Ð¾":2693,"ĠÐķÑĢÑĥÑģÐ»":2694,"ÑĢÑĸ":2695,"ÑĢÑ¡":2696,"ĠÑĤÐ¾Ð¼ÑĮ":2697,"ĠÐ»Ð¸ÑĤ":2698,"ĠÑħÐ»Ðµ":2699,"ÑĨÐµÑİ":2700,"ĠÑĩÐ°Ð´Ð¾":2701,"ÑĢÐ¾ÑģÐ¸":2702,"ĠÐºÐ»Ð°Ð½Ñ§":2703,"Ð¾Ð¶Ð´Ð°":2704,"ĠÑĤÐµÐ»Ðµ":2705,"ĠÑģÐ°Ð¼Ð¾":2706,"ĠÐ²Ð°Ñģ":2707,"ĠÐ»Ñ£ÑĤÑĬ":2708,"ĠÐ´Ð¾Ð¼êĻĭ":2709,"ĠÑĢÑ«":2710,"ĠÐ´Ð°ÑģÑĤÑĬ":2711,"Ð±Ð¸ÑĤÐ¸":2712,"Ð´ÐµÑģÑ§ÑĤÑĮ":2713,"Ð¼Ð¶Ðµ":2714,"ĠÐĺÐ»Ð¸":2715,"ĠÑĤÐ¾Ð³":2716,"Ð¸ÑĤÐµÐ»ÑĮ":2717,"Ð¿ÑĢÐ¸":2718,"ĠÐ¿ÑĢÑ£Ð´Ð°":2719,"ĠÐ²ÐµÐ»Ð¸ÐºÐ°Ð³Ð¾":2720,"ÑĩÐºÐ°":2721,"ÑĤÐ¸Ð½":2722,"ĠÐ³ÑĢÐ°Ð´Ñ£":2723,"Ð¸ÑĤÑĮ":2724,"Ð¾ÑĤÑĥ":2725,"ĠÐ·Ð°Ðº":2726,"Ð½ÐµÐ²":2727,"Ð²ÐµÐ´Ðµ":2728,"ĠÑĢÐ°Ð·êĻĭ":2729,"Ð²ÐºÐ°":2730,"ĠÐ·Ð´Ð¾ÑĢ":2731,"ĠÐ¸Ð²Ð°Ð½Ð°":2732,"ĠÐĴÑģÐµ":2733,"ĠÐ½Ð°ÑģÐ»Ñ£":2734,"ĠÐ¼Ñ¡Ñµ":2735,"Ð½Ð¸ÐµÐ¼ÑĬ":2736,"ĠÐºÐ°Ð·Ð°":2737,"ĠÐ¿ÑĬ":2738,"ĠÐ¶Ð¸ÑĤÐ°":2739,"ĠÐºÐ¾Ð¼Ñ¹":2740,"Ð²ÐµÑĢÐ¸":2741,"ĠÐµÐ´Ð¸Ð½ÑĬ":2742,"ÑģÐ½Ð¸":2743,"Ð½Ð¸ÐµÐ¼":2744,"ĠÐ¿ÑĢÑĸÐ¸Ð´Ðµ":2745,"Ð¾ÑĢÑ£":2746,"Ð³Ð¾ÑĪÐ°":2747,"ĠÑħÐ¾ÑĤÑı":2748,"ĠÐ°Ð·":2749,"ĠÐ¿Ð¾Ð¼Ð°":2750,"ĠÐºêĻĳ":2751,"ĠÐ¿ÑĢÐ¸ÑĤ":2752,"ĠÐ°Ð¶Ðµ":2753,"ĠÐ²Ð¾ÑĤÑĩÐ¸Ð½Ñĭ":2754,"ÑīÐ¸ÑħÑĬ":2755,"ĠÐ³ÑģÐ´ÑĢ":2756,"ĠÑģÐµÑĢÐµÐ±ÑĢÐ°":2757,"ĠÐ¾Ð±Ñ£":2758,"ÑģÑĤÑ«":2759,"ĠÑĢÑ¹ÐºÐ¾Ð´Ñ£":2760,"ĠÂ¦":2761,"ĠÂ·:":2762,"ĠÐ¸ÑģÐ¿Ð¾Ð»":2763,"êĻħ":2764,"Ð¾ÑĢÐ¾Ð´Ð¸":2765,"ÑģÐºÐ¸Ð¹":2766,"Ð³ÑµÐ¿":2767,"Ð»Ð¸ÑģÑĮ":2768,"Ð²Ð°Ð³Ð¾":2769,"ĠÐĵÐ¾ÑģÐ¿Ð¾Ð´ÑĮ":2770,"ÑĸÑģ":2771,"Ð¾Ð½Ð¾":2772,"ĠÐºÐ¾Ð¸":2773,"ĠÐ¿ÑĢÐ¾ÑĤÐ¸Ð²Ñĥ":2774,"ĠÑħÑĢÑģÑĤ":2775,"ĠÐ°ÐºÑĭ":2776,"ĠÐ½Ð°ÐºÐ°Ð·":2777,"ÐµÐ²ÑĬ":2778,"ÑģÐ»Ð¾":2779,"Ð²ÐµÐ½":2780,"Ð½Ñ£Ð¼ÑĬ":2781,"ĠÑģÐ¸Ð»Ð°":2782,"ĠÑıÐ¶Ðµ":2783,"ĠÐ¾Ð±Ð°":2784,"ĠÐ¶Ð¸Ð²Ð¾ÑĤ":2785,"ĠÑĩÐµÐ»Ð¾Ð²ÐµÐº":2786,"ÑĢÐ°Ð²Ð¸":2787,"Ð½ÐµÐ¼ÑĬ":2788,"ÑīÐµÑĤ":2789,"ĠÐ¿ÑĢÐ°Ð²Ð¸":2790,"ÐºÑĭÐ¸":2791,"ĠÐ¿Ð¸ÑģÐ°Ð½Ð¾":2792,"ĠÐĦ":2793,"ĠÐ¾ÑĥÑĩ":2794,"ĠÐ²ÑĭÑĪÐµ":2795,"ĠÐ¿Ð¾Ð³Ñĥ":2796,"ÒĨ.":2797,"ĠÐ¿ÑĢÐ¾ÑĤ":2798,"ĠÐ·Ð°Ð²Ð¸":2799,"ĠÐ´Ð°Ð»":2800,"Ð»ÐµÑĤ":2801,"ĠÑ³ÐµÐ´":2802,"Ð¼ÐµÑĤ":2803,"ĠÐ½ÐµÐ´Ð¾":2804,"ĠÐĴÐ°ÑģÐ¸Ð»Ð¸":2805,"Ð¾Ð±ÑĢÐ°":2806,"Ð¼êĻ¿":2807,"ĠÐ¿Ñ§":2808,"ĠÐ¾Ðº":2809,"ĠÐ¼ÑĮÑģÑĤÐ¸":2810,"----":2811,"ĠÐµÐµ":2812,"ĠÐ¿Ð¾Ð»Ð¸":2813,"ĠÐ³Ð¾Ð´Ñĥ":2814,"ĠÑīÐµ":2815,"ĠÐ½ÐµÐ¿ÑĢÐ°":2816,"ÐµÐ·Ð¶Ð°":2817,"ĠÑĩÐµÐ»Ð¾Ð¼ÑĬ":2818,"Ð³ÑĢÐ°Ð´":2819,"ÑĪÐ¾Ñĥ":2820,"ĠÐ¿Ð°ÑĤÑĢÐ¸":2821,"ÑĩÐµÐ½Ð¾":2822,"Ð´ÐµÑĢÐ¶Ð°":2823,"ĠÐ½ÐµÐ¼ÑĮ":2824,"ĠÐ²Ð°ÑĪÐ°":2825,"ĠÐ±ÑĥÐ´Ðµ":2826,"ÑĪÑı":2827,"Ð´Ð¸ÑĤÑĮ":2828,"ĠÑħÐ¾ÑĢÐ¾":2829,"ÑģÐºÑĸÐ¸":2830,"Ð½Ð´ÑĢÑ£":2831,"ĠÐ¿Ð¾Ð»Ð¾Ð²":2832,"ÑīÐ¸Ñħ":2833,"ĠÐ¡ÑĤ":2834,"ĠÐ¿Ð¾ÑĢÑ§Ð´":2835,"ĠÐ¸Ð¼Ð°ÑĤÑĮ":2836,"Ð»Ð¾Ð¶Ðµ":2837,"ĠÐ´Ð¼Ð¸ÑĤ":2838,"ĠÑ¡Ð²":2839,"ĠÐ¿Ð¾Ð¿Ðµ":2840,"Ð»Ð¸ÐºÐ°":2841,"ĠÑģÑĬÐ¼":2842,"Ġâģŀ":2843,"ĠÂ·:Â·":2844,"ĠÑģÐ²Ð°":2845,"ĠÐ¿ÑĢÐ¸ÑģÑĤÐ°Ð²":2846,"ÑĪÐ¸Ñħ":2847,"ĠÐŁÐ¾Ð»":2848,"ĠÑĢÐµÐºÑĬ":2849,"ĠÑİÑĢÑĮ":2850,"ĠÐŁÐ¾Ð´":2851,"ĠÐĳÐ¾Ð²Ð°":2852,"ĠÐ²Ð¾Ð¹":2853,"ĠÐ¿ÑĢÐ¸Ð»Ð¾Ð¶Ð¸":2854,"ĠÐ°ÑĢÑħÐ¸":2855,"ÑĨÐ¾Ð¼":2856,"ĠÐ²ÐµÐ»Ñ£":2857,"ĠÑģÑĤÐµÐ¿Ð°":2858,"ĠÐ´Ð½ÑĮ":2859,"ĠÐ²ÑĬÑģÑĤÐ°":2860,"ĠÐ¿ÑĢÑ£Ð´ÑĬ":2861,"ĠÐ¿Ð»Ð°ÐºÐ°":2862,"ĠÐ¿ÑĢÐµÐºÑĢÐ°Ñģ":2863,"ĠÐ¿Ð¾Ð¶Ð°Ð»Ð¾Ð²Ð°":2864,"ĠÑĩÐµÐ¼":2865,"ĠÐ¿Ð¾ÐºÐ°Ð·Ð°":2866,"Ð±Ð»ÑĮ":2867,"ĠÑħÑĤÐ¾":2868,"Ð´ÑĨÐ°":2869,"ĠÐ´Ð°Ð²Ð°":2870,"ĠÑĤÐ¾Ðµ":2871,"ĠÐ²Ð¸Ð´Ðµ":2872,"ĠÐ½Ð¾ÑīÑĮ":2873,"Ð¸Ð»ÑĬ":2874,"Ð½ÐµÑİ":2875,"ĠÐĶÐ¾Ð±ÑĢÑĭÐ½Ñİ":2876,"ĠÑģÐ¿Ð¸":2877,"ÑĭÑ§":2878,"Ð·Ð½ÑĮ":2879,"ÑĢÐµÐ¸":2880,"ĠÑ³ÐµÑ¡":2881,"ĠÐŁÐ¸":2882,"ĠÐ²ÑģÐµÑħ":2883,"ĠÐ¿Ð¾Ð¿Ð°":2884,"ĠÐ½Ð°Ð´Ñ£":2885,"ÑģÐºêĻĳ":2886,"ĠÐ½ÐµÐ¶Ðµ":2887,"ÑĤÐ²ÐµÑĢ":2888,"ÑĭÐ¼Ð¸":2889,"ĠÐ´ÐµÐ»Ðµ":2890,"ĠÐ±ÐµÑĢ":2891,"ĠÐ¿ÑĢÐ¸Ð½Ðµ":2892,"ĠÐ±ÑĢÐµ":2893,"Ð¾Ð¼Ðµ":2894,"Ð±Ð¾Ð¸":2895,"Ð·Ð°Ð¼Ð¸":2896,"ĠÑĤÐ²Ð¾Ð¸ÑħÑĬ":2897,"Ð»Ð¾Ð²Ð¸":2898,"Ð²Ð¾Ð»Ð¸":2899,"ĠÐ¿ÑĢÐ¸ÑģÑĬ":2900,"ĠÑģêĻĭÑĤÑĮ":2901,"Ð¾Ð·Ñ£":2902,"ĠÐ³Ð¾ÑĢÐ¾Ð´Ð°":2903,"Î±":2904,"ĠÐ½Ñ¹":2905,"ĠÐ¶ÐµÐ»Ñ£":2906,"ĠÐĳÐ»Ð°":2907,"ĠÑģÐµÑģÑĤ":2908,"ĠÐµÑģÑĤÑĬ":2909,"ĠÐ³Ð¾ÑĢÑ£":2910,"ĠÐ´Ð²Ð¾ÑĢÐ°":2911,"ĠÐ²Ð¾Ð´Ñĭ":2912,"ÑīÑ¹":2913,"ĠÑģÑĬÑģ":2914,"ĠÐ±ÑĢÐ°ÑĤÐµ":2915,"ĠÑģÐ¾Ð·Ð´Ð°":2916,"ÐºÐ¾Ð¼Ñĥ":2917,"ĠÑĤÐ°ÐºÐ¸Ñħ":2918,"ĠÐ²ÐµÐ»Ð¸ÐºÐ¾Ð¼Ñĥ":2919,"ÑĤêĻĳ":2920,"Ð´ÑĢÑĬ":2921,"êĻ¯":2922,"ĠÐ½Ð°Ð¿ÑĢÐ°":2923,"ĠÑ¡Ð±ÑĢÑ£":2924,"ĠÐµÐ»Ð¸ÐºÐ¾":2925,"ĠÐ²Ð¾ÐµÐ²Ð¾Ð´Ð°":2926,"ĠÐłÑĥ":2927,"ĠÑĢÑĥÐ±Ð»ÑĮ":2928,"Ñ§Ð½Ð¸":2929,"ÑĪÐµÑĤ":2930,"Ð¾Ð½ÑĩÐ°":2931,"ĠÑģÑĬÐ³ÑĢÑ£":2932,"ÑĢÑ£Ð±":2933,"ĠÐļÐ¾":2934,"ÑģÑĤÐ²ÐµÐ½":2935,"ĠÐ¾ÐºÐ¾Ð»":2936,"ÐµÐ½ÑĮÐµ":2937,"ĠÐºÐ¾ÑĤÐ¾ÑĢÑĭÑħ":2938,"ĠÐ½êĻĳÐ½Ðµ":2939,"ĠÐ¿ÑĢÐ¸ÑģÑĤÐ°":2940,"ÑĢÐµÐ²Ð¸":2941,"ÑĪÐ¸ÑĤÐ¸":2942,"ĠÐ¼Ð½Ð¾Ð¶Ðµ":2943,"ĠÐ¼ÑĥÐ¶Ð¸":2944,"ĠÐ¿Ð¾Ð¸Ð¼Ð°":2945,"ĠÑĭ":2946,"Ñ¡Ð½ÑĬ":2947,"ĠÐ¾ÑĥÑģÑĤÑĢÐ¾":2948,"Ð½Ð¾Ð²Ð¸":2949,"ÑģÐ¾Ð¼ÑĬ":2950,"ĠÐ´ÐµÑĢÐ¶Ð°ÑĤÐ¸":2951,"Ð²ÑĭÑħ":2952,"ĠÐ³Ð¾ÑģÑĤÑĮ":2953,"ĠÐ¾ÑģÑĤÐ°Ð²":2954,"ĠÐ³Ðµ":2955,"ĠÐ¿ÑĢÐ¸Ñģ":2956,"ÑĪÐ°ÑģÑı":2957,"ĠÑĤÐ°ÑĤÐ°ÑĢ":2958,"ĠÐ³ÑģÐ´ÑĢÑĮ":2959,"ĠÐºÐ¾ÑĢÐ¾Ð»ÐµÐ²":2960,"Ð´Ñ£ÑĤÐ¸":2961,"ĠÐĴÐ»Ð°Ð´Ð¸Ð¼Ð¸ÑĢ":2962,"ĠÐ²ÑģÑĳ":2963,"ĠÑģÐ¸Ð´":2964,"ĠÑĩÐµÑģÑĤÑĮ":2965,"ĠÐ»Ð¾Ñģ":2966,"ĠÐ¿Ð¾Ð¼ÑĭÑĪ":2967,"ĠÑĢÑ£Ð·Ð°":2968,"ÑģÑĤÑı":2969,"ĠÐ¸Ð´":2970,"ĠÑ¡Ð½ÑĬ":2971,"ÑĤÐ¾Ðµ":2972,"ĠÐºÐ¾ÑĢÐ¾Ð±ÑĮ":2973,"ĠÐ´Ð¾Ð½Ð´ÐµÐ¶Ðµ":2974,"ĠÐ½ÐµÐ¹":2975,"ÐµÐ»ÐµÐ½":2976,"ĠêĻģÑĬ":2977,"ÑģÑĤÐµÐ¹":2978,"ĠÐºÐ½Ð¸Ð³Ð°":2979,"ĠÐ°ÑĪÑĤÐµ":2980,"ĠÐ·Ð¸":2981,"ĠÐĳÐ¾Ð³Ñĥ":2982,"ĠÐ¼ÑĥÐ´":2983,"ÑĢÐ¾Ð²Ð¸":2984,"ĠÐ¿Ð»Ðµ":2985,"ĠÑĤÐ°ÐºÑ¡":2986,"ĠÑĩÑİÐ´Ð¾ÑĤÐ²Ð¾ÑĢ":2987,"ĠÐ½Ð°Ð¿Ð¸":2988,"ĠÐ±ÑĢÐ°ÑĪ":2989,"ĠÑº":2990,"ĠÐ´Ð¾Ðº":2991,"Ð³Ð¾Ñĥ":2992,"ĠÑĪÐµÐ»":2993,"ÐºÐ¸Ñı":2994,"ĠÐ¼Ð¾Ð³Ñĥ":2995,"ĠÐ¿Ñ¡":2996,"ĠÐ½Ñ£Ðº":2997,"ĠÐºÐ¾ÑĤÐ¾ÑĢÐ¾Ð¹":2998,"ĠÐ¿Ð»Ð°ÑĤÐ¸":2999,"ĠÐ»ÐµÐ¶Ð°":3000,"ĠÑģÑĢÐµÐ±":3001,"ĠÐ±ÑĢÐ°ÑĤÑĬ":3002,"ĠÑģÐ²Ñ£ÑĤÑĬ":3003,"ĠÐľÑĥ":3004,"ÑģÑĤêĻĳ":3005,"Ð±ÑĸÐµ":3006,"ĠÐĳÐ»":3007,"ĠÑĨÐµÑĢÐºÐ²Ð¸":3008,"ĠÐ¿ÑĢÐ¸ÑħÐ¾Ð´Ð¸":3009,"ĠÐ±Ñ£ÑĪÐµ":3010,"Ð±Ð»Ñ§":3011,"ĠÐ¾ÑĨ":3012,"Ð½Ð¸ÑħÑĬ":3013,"ĠÑĪÑĮ":3014,"Î¿":3015,"Ð½Ð¸Ð¼Ð°":3016,"Ð»Ð¸Ð½":3017,"ĠÐ¿Ð¾ÐºÐ»Ð°":3018,"ÑģÐ¿Ð¾Ð´":3019,"ĠÐ´ÐµÑģ":3020,"ĠÐ¿ÑĢÐ°Ð·":3021,"ĠÐ¿Ð°ÐºêĻĳ":3022,"ÑĹÐµÐ¼ÑĬ":3023,"Ð»ÐµÐ¼":3024,"ÑĤÐºÐ°":3025,"Ð»Ð¸Ð²Ð°":3026,"ĠÐ¿ÑĢÐ¸ÐºÐ°Ð·Ð°":3027,"ÑĩÐ¸Ñħ":3028,"ĠÐ¿Ð¸ÑĢ":3029,"ĠÐ¾Ð±Ð»Ð°":3030,"ĠÑģÐ¸Ð»Ñĭ":3031,"ĠÐ¢Ð¾Ð³Ð´Ð°":3032,"Ð½Ð¸ÐºÐ¾Ð¼ÑĬ":3033,"ÑĤêĻĭ":3034,"ĠÑģÑĢÑ£":3035,"Ð±Ð¸ÑĪÐ°":3036,"ĠÐ²ÐµÐ»ÐµÑĤÑĮ":3037,"ĠÐ´ÑĢÑĥÐ³Ð°":3038,"ĠÐ»ÑİÐ±Ð¾Ð²ÑĮ":3039,"Ð·Ñ¹":3040,"Ñ§Ð»ÑĬ":3041,"ĠÑĩÑĢÐµ":3042,"ĠÑĪÐµÐ´":3043,"ÑģÑĤÑĭÐ½Ð¸":3044,"ĠÐ¿ÐµÑĤÑĢÐ°":3045,"Ð»ÐºÐ°":3046,"ĠÐ¶ÐµÐ½Ñ£":3047,"ĠÐ²ÑĬÑģÐµ":3048,"Ð»ÐµÐ½ÑĸÐµ":3049,"ĠÐºÐ¾ÑĢÐ¼Ð¸":3050,"ĠÑģÐ¼Ð¸":3051,"Ñ§ÑīÐ°":3052,"ÑĤÐ¸Ð½Ñĥ":3053,"ÑīÐµÑĤÑģÑı":3054,"Ð»ÐµÐ¸":3055,"ĠÐ¼ÐµÑģÑĤÐ¾":3056,"ĠÑĢÐ°Ð±ÑĬ":3057,"ĠÐ¼Ð°ÑĤÐ¸":3058,"ĠÐĺÐ²Ð°Ð½":3059,"ĠÐ²ÑģÑ£Ñħ":3060,"ĠÑģÑĭÐ½Ñ¡Ð²ÑĬ":3061,"Ð¼Ñ«":3062,"ĠÐ»ÐµÑĤ":3063,"ĠÐ´ÐµÐ½Ð³Ð¸":3064,"ÑĤÑĢÐ¾":3065,"ĠÐ·Ð²Ñ£":3066,"ĠÐ¸Ð¼Ñ£ÑĤÐ¸":3067,"ĠÐºÑĢÑĭ":3068,"ĠÐŁÑĢÑ£":3069,"ĠÑģâ±ķ":3070,"ĠÐ¾ÑĢ":3071,"ĠÑĤÐ¸Ð¼Ð¾":3072,"ÐµÐ»Ð°":3073,"Ð³Ð»":3074,"ĠÑħÑ¹":3075,"ĠÐ²ÐµÑģÐµÐ»Ð¸":3076,"Ð¹ÑĤÐµ":3077,"ÑĤÐ°Ð³Ð¾":3078,"ĠÐŀÐ½Ð°":3079,"ĠÐ¼ÑĥÑĢ":3080,"ĠÐ¸ÑģÐºÑĥ":3081,"ĠÐ»êĻĭ":3082,"Ð¿Ð¸ÑĤÐ¸":3083,"ÑģÐ»ÑĬ":3084,"ĠÐ²ÑĤÐ¾ÑĢ":3085,"Ð´ÐµÑģÑı":3086,"ĠÑģÐ¸Ð¼ÑĬ":3087,"ĠÐ²Ð¸Ð´":3088,"ĠÑĩÐ°Ð´Ð°":3089,"Ð¾Ð»Ð¾":3090,"ĠÐ²ÑĭÑĪ":3091,"ĠÑĢÐ¾Ð¶":3092,"ĠÐ¿Ð¾ÑģÐ»Ñ¹":3093,"ĠÐ½ÐµÐ±":3094,"ĠÐ¼ÐµÐ¶":3095,"ÑĤÑĢÑĮ":3096,"ĠÐ²Ñĸ":3097,"ĠÑ¿Ð²Ñ£ÑīÐ°":3098,"ĠÐ¾Ð±ÑĬ":3099,"ĠÐ¿Ð°ÑĤÑĢÐ¸Ð°ÑĢ":3100,"Ð²ÑĪÐ°":3101,"ĠÐ²Ð¼Ðµ":3102,"ĠÐ°Ð²":3103,"ĠÐ°Ð¿Ð¾":3104,"ĠÐºÐ°Ð¼ÐµÐ½ÑĮ":3105,"ĠÑģÐ²Ð¾ÐµÐ³Ñ¡":3106,"ĠÐ°Ð¼Ð¸":3107,"ÐµÐ¼Ðµ":3108,"ĠÐ»ÑĬ":3109,"Ñ¥Ð¼ÑĬ":3110,"ĠÐ·ÐµÐ¼Ð»Ðµ":3111,"ĠÑģÐ²Ð¾Ð±Ð¾Ð´":3112,"ĠÑģÐ½Ñ£":3113,"ĠÐ±Ñ§":3114,"ÑİÑĢ":3115,"ĠÑ¡Ð´":3116,"ĠÑģÐ¸Ð»Ð¾Ñİ":3117,"ĠÑĤÐ¾Ð²Ð°ÑĢÑĭ":3118,"Ñ£ÑħÐ°":3119,"ĠÐ¼ÑĨ":3120,"ÑĤÑĮÑ§":3121,"ĠÐºÑĢÐ¾Ð¼Ñ£":3122,"ÑĢÐ¾Ñģ":3123,"ĠÑĤÐ²":3124,"Ð»ÐµÐ½Ð¸Ðµ":3125,"ÑģÐºÐ¾Ð¼ÑĬ":3126,"ÑİÑĤÑģÑı":3127,"¾¿":3128,"á¾¿":3129,"ĠÑ§Ð·Ð¾":3130,"ĠÐ»ÑİÐ´ÐµÑħ":3131,"Ð¸Ð»Ð°":3132,"ĠÐµÐ¿":3133,"Ð¾Ð¶Ð½Ð¾":3134,"ÐµÑħÐ°Ð»Ð¸":3135,"Ð½Ð¸Ñĩ":3136,"ĠÐ²Ñ£ÑĢÑĥ":3137,"ÑģÐºÐ¸Ñı":3138,"ĠÐ²Ð»Ð°Ð´Ñĭ":3139,"ĠÑģÐ¿ÑĢÐ°":3140,"ĠÐ¿ÑĢÐ¸Ð½ÐµÑģ":3141,"ĠÐ°ÐºÐ¸":3142,"ĠÐ¿Ð¾ÑģÑ£":3143,"ĠÑĶÐ³Ð¾":3144,"ĠÐºÐ¾Ð¶":3145,"ĠÑĤÐ²Ð¾Ñı":3146,"ĠÑĢÑĥÑģÐ¸Ð¸":3147,"ĠÐºÑĢÐµÐ¿Ð¾":3148,"Ð¾Ð»Ð°":3149,"ÑĢÐ¸Ð¸":3150,"ÑģÑĤÐ²Ð¾Ð¼":3151,"ĠÑĢÑ£ÑĪÐ°":3152,"ÑĢÐ°Ð³":3153,"ÑīÐµÐ½ÑĸÐµ":3154,"ĠÐĨ":3155,"Ð¾Ð»ÑĬ":3156,"Ð¾Ð»ÐºÐ¾":3157,"ĠÐ±Ð»Ð°Ð¶Ðµ":3158,"ĠÑģÐµÑĢÐµÐ±":3159,"ĠÑĤÐ¾ÐºÐ¼Ð¾":3160,"ĠÐ½Ñĥ":3161,"ĠÐ°Ð´Ð°":3162,"ÑģÐ»Ñĥ":3163,"ĠÐ¼ÑĥÐ¶Ðµ":3164,"ĠÑģÐµÐ»Ð¾":3165,"ĠÐĿÑ£":3166,"ĠÐ¼Ð½Ð¾Ð·Ð¸":3167,"ĠÑ¡Ð½Ð¸":3168,"ĠÐ²Ð¸Ð½Ð°":3169,"ĠÐ¾ÑĤÐ¾":3170,"ĠÐ³Ð¾ÑģÐ¿Ð¾Ð´ÑĮ":3171,"ĠÐ·Ð´ÑĢÐ°Ð²":3172,"ĠÐ¸Ð³ÑĥÐ¼ÐµÐ½":3173,"ĠÑģÐ¾Ð»Ð¸":3174,"ĠÐºÐ¾Ð¼":3175,"ÑĥÐ´ÑĮ":3176,"ĠÐ¿Ð°ÐºÐ¾":3177,"ĠÐ³ÑĢÑ£ÑħÑĬ":3178,"ÑĩÐ¸Ð½Ð°":3179,"ÑīÐ¸Ð¼ÑĬ":3180,"ĠÐ´ÐµÑģÑı":3181,"Ð½Ð¸ÐºÐ¾Ð²ÑĬ":3182,"ĠÐ½Ð°Ð´Ðµ":3183,"ĠÐ¢ÑĥÑĤ":3184,"ĠÑİÐ½Ð¾":3185,"ĠÐµÑģÐ¼Ð¸":3186,"ĠÐ¿Ð¾Ð»Ð¾ÑĨ":3187,"ĠÐºÑ«":3188,"ĠÐ¸Ð·Ñĭ":3189,"Ð¶Ð¸ÑĤÑĮ":3190,"ÑĨÐ¾":3191,"ÑĭÑħÑĬ":3192,"ĠÐ¾Ð»":3193,"ĠÑħÑĢÐ°Ð±":3194,"ĠÐ½Ð¸ÑĩÑĤÐ¾Ð¶Ðµ":3195,"Ð»ÑĶ":3196,"Ð´ÐµÐ½":3197,"ÑģÑĤÐ¾Ðº":3198,"ĠÐ±ÑĢÐ°Ð½ÑĮ":3199,"Ð¸ÑĤÐ¾":3200,"Ð°ÐºÑ¡":3201,"ÑģÐºÐµ":3202,"ĠÑģÐ»Ñĭ":3203,"ĠÐ³ÑĢÐ¾Ð±":3204,"Ġ2":3205,"Ð½ÑĤÐ¸":3206,"ĠÐ²Ð¼Ñ£":3207,"Ð¿Ð°ÑĤÐ¸":3208,"Ð³Ð¾ÑĢÑĮ":3209,"Ð½Ð¾Ð²Ðµ":3210,"ĠÑĤÐ¾Ð±Ðµ":3211,"ĠÑ¡Ð±Ñĭ":3212,"ĠÑĤÐ²Ð¾Ñ¥":3213,"ĠÐ¿Ð¾ÑĤÐ¾Ð¼Ñĥ":3214,"Ð½Ð¸ÑĤÐµ":3215,"ĠÑģÑĤÐ²Ð¾ÑĢ":3216,"ÑīÐµÐ¸":3217,"ĠÐ²Ð°ÑĪ":3218,"ĠÐ´Ð¾Ð±ÑĢÐ¾Ð´Ñ£":3219,"ĠÐ²ÐµÐ»Ð¸ÐºÐ¸Ð¹":3220,"ĠÐ²ÑĭÑģÐ¾Ðº":3221,"ĠÐ³Ð¾ÑģÑĥÐ´Ð°ÑĢÐµÐ²Ñĥ":3222,"ĠÐ»ÑĥÐºÐ°":3223,"ĠÑħÐ»Ñ£Ð±":3224,"ÑħÑ¡":3225,"ĠÐ¼Ñ¹Ð¶Ñ¹":3226,"ĠÐµÑģÑĤÐ²Ð°":3227,"Ð´Ñ£ÑĤÐµ":3228,"ĠÐ½Ð°Ð¸":3229,"ÑģÑĤÐ²Ð¾Ñĥ":3230,"ĠÐ²ÐµÐ»Ð¸ÐºÑĬ":3231,"ĠÐ¿ÑĢÐ¾Ð²":3232,"ÑĤÑĮÑı":3233,"ĠÐµÐ´Ð¸Ð½Ð¾":3234,"ĠÐ¿ÑĢÐ¸ÑģÐ½Ð¾":3235,"ÑĩÐµÐ³Ð¾":3236,"ĠÐ¡Ð»Ñĭ":3237,"ÑģÑĤÐ²Ð¾Ð¼ÑĬ":3238,"ĠÑĩÐµÐ»Ð¾Ð±Ð¸ÑĤÑĩÐ¸":3239,"ÑħÑĸ":3240,"ĠÐ·Ð»":3241,"ÑĪÐµÐµ":3242,"ĠÑĩÐµÐ»Ð¾Ð±Ð¸":3243,"Ð»ÐµÐ½ÑĬ":3244,"ĠÐ²ÑĬÐ·ÑĮ":3245,"Ð»ÐµÑ¯":3246,"ĠÐ²Ñ£ÐºÐ°":3247,"Ð³Ð°ÑĢÐ¸":3248,"ĠÐ½Ð¸ÐºÐ¾Ð¼Ñĥ":3249,"ĠÐµÐ³Ñ¡":3250,"ĠÐ´Ð¾Ð¼Ð¾":3251,"ĠÐ²ÑģÑıÐºÐ¸Ñħ":3252,"ĠÑĤÑĢÐµÐ±":3253,"Ð¶ÐµÐ¸":3254,"ĠÐŁÑĢÐ¾":3255,"ĠÐĵÐ»Ð°":3256,"ĠÐ³Ð¾ÑĢÐ¾Ð´ÑĬ":3257,"ĠÐ³Ð¾ÑģÑĤÐ¸":3258,"ĠÐ½Ð°ÑĪÑĬ":3259,"ÑĭÑı":3260,"ĠÐºÐ¾Ðµ":3261,"ĠÐ¿ÑĢÐµÐ¶Ð´Ðµ":3262,"Ð·ÑĭÐ²Ð°ÑĤÐ¸":3263,"Ð¼Ñĸ":3264,"ĠÐ½ÐµÑĢÐ°":3265,"Ð¾ÑĥÐ¼Ñ£":3266,"ÑģÐ¸ÑĤÐ¸":3267,"ĠÐ¿Ð¾Ð¶Ð¸":3268,"ĠÐºÑ¡":3269,"ĠÐ¶Ð¸Ð²Ð¾ÑĤÐ°":3270,"ĠÑĢÐ°Ð±Ð°":3271,"ÑĢÐ°Ð²Ð¸ÑĤÐ¸":3272,"ĠÐ´Ð°Ð½ÑĮ":3273,"ĠÐ¿ÑĢÐ¸ÐµÐ¼":3274,"Ñ«Ñī":3275,"ĠÑģÑĸÐ°":3276,"ÑĩÑĥ":3277,"ĠÑģÐ¸Ñı":3278,"ĠÐ´ÐµÑĤÐµÐ¹":3279,"ĠÐ¸Ð½Ð¾Ð³Ð¾":3280,"ĠÐ³ÑİÑĢ":3281,"ĠÐ¿ÑģÐº":3282,"ĠÐ¼Ð°ÑĤÑĥ":3283,"Ð½êĻĭÑİ":3284,"ĠÐ³ÑģÐ´ÑĢÑİ":3285,"ĠÐ²ÑģÑ£Ð¼Ð¸":3286,"Ð´ÐµÐ¼ÑĬ":3287,"ÑĪÐµÐ½ÑĸÐµ":3288,"ĠÐ²ÐµÐ´Ð°":3289,"Ð¼ÑĮÑĢ":3290,"ÑīÐ°ÑĤÐ¸":3291,"ĠÐ¿Ð¾Ð²Ð°ÑĢ":3292,"Ð´ÑĥÑĤ":3293,"ÑħÐ¾Ñĥ":3294,"ÑĢÐ¸ÑĤÑĮ":3295,"ĠÐ¼Ð¸ÑĢÐ°":3296,"ĠÑģÐºÐ¾Ð½ÑĩÐ°":3297,"Ð½ÑĨÐµ":3298,"Ð¼êĻĳ":3299,"Ð±Ð¾Ð¹":3300,"Ð¸ÑĤÑģÑı":3301,"ÑĩÐµÐ¹":3302,"ĠÐ²Ð°Ð¼":3303,"ĠÐ±Ð¾Ð»Ð³Ð°ÑĢ":3304,"ÐµÐ´Ð¸":3305,"ÑģÑĤÑĸÑİ":3306,"ĠÐ¿ÑĢÑĢ":3307,"ĠÐ²ÐµÐ»Ð¸ÐºÐ¸Ð¸":3308,"ĠÑģÐ¸Ðµ":3309,"ĠÐ¼Ñ¹Ð¶ÑĮ":3310,"ĠÐ¯ÐºÐ¾":3311,"ÑĤÐ¸Ð½Ðµ":3312,"ĠÐ¿Ð¾ÑģÑĭÐ»Ð°":3313,"ĠÐ¿Ð¾ÑģÐ»êĻĭÑĪÐ°":3314,"ĠÐ½Ð¾ÑīÐ¸":3315,"ĠÑĩÐ»Ð²":3316,"ĠÐ½ÐµÐ¼êĻĭ":3317,"Ð½Ð¸Ð°":3318,"ĠÐ´ÑĥÑħÐ¾Ð²":3319,"ĠÐ»ÑİÐ´Ð¼Ð¸":3320,"ĠÐ²ÐµÐ»ÐµÑĤÐ¸":3321,"ĠÐ¿Ð¾ÑĢÑ¹":3322,"ÑĤÑ¹":3323,"ĠÐ¿Ð¾ÑĩÐ°":3324,"ĠÑħÑĬ":3325,"ĠÑĤÑĢÐµÑĤÐ¸":3326,"ĠÐ²ÑģÑ§ÐºÐ°Ñ§":3327,"ĠÑģÐ¾Ð½":3328,"Ð³Ð¾Ð²Ð°":3329,"Ð²Ð°Ñı":3330,"ĠÐ¼ÐµÑĩ":3331,"Ð²ÑĢÐ°Ð°":3332,"ĠÐ³ÑĢÐ¸Ð²ÑĮÐ½ÑĬ":3333,"ĠÐ³Ð¾Ð²Ð¾ÑĢÐ¸ÑĤÑĮ":3334,"ĠÐ½ÐµÑģ":3335,"ĠÑ¥ÑģÐ¼ÑĮ":3336,"ĠÐ±Ð¾Ð»Ðµ":3337,"ĠÐ¿ÐµÑĩÐ°Ð»Ð¸":3338,"ÑĢÐ¸Ð½Ñĥ":3339,"ÑĨÑ£ÑħÑĬ":3340,"ÑģÑĤÑĮÐµ":3341,"ĠÐºÐ»Ñ§":3342,"Ð½Ñ£ÑħÑĬ":3343,"Ð½ÑĮÐ¸":3344,"Òĩ.":3345,"ĠÑĤÐ°Ð¼":3346,"ĠÑĤÑĢêĻĭ":3347,"ĠÐ²ÑģÑ§ÐºÐ¾Ð³Ð¾":3348,"ĠÐºÑĢÑ£Ð¿Ð¾":3349,"ĠêĻĳ":3350,"ÑĢêĻĳ":3351,"ĠÐ½Ð°Ð¾Ñĥ":3352,"ÑģÑĤÐ¸ÑĤÑĮ":3353,"ĠÐĶÑĢÑĥ":3354,"ĠÐ¿ÐµÑĢÐ²":3355,"ĠÐ±ÑĢÐ°ÑĤÑĥ":3356,"ĠÐ¡ÐµÐ³Ð¾":3357,"ÐºÐ¾Ð²Ðµ":3358,"Ð³Ð½Ñ£":3359,"ĠÐ±ÑĭÑĤÑĮ":3360,"ĠÑĨÐ°ÑĢÑ§":3361,"ĠÑģÐ¼ÐµÑĢÑĤ":3362,"ĠÐºÑĢÑĥ":3363,"ĠÑ¡Ð½":3364,"ĠÐ¿Ð¾ÑģÑĢÐµ":3365,"ĠÐ³ÑĢÐ¸Ð²Ð½Ð°":3366,"ĠÐ²Ð¸Ð´Ñ£ÑĤÐ¸":3367,"ÑĮÐµ":3368,"ĠÐ¶Ð¸Ð²Ð¾ÑĤÑĬ":3369,"ĠÐ²Ñ§":3370,"ÑģÑĤÐ¾Ð²":3371,"ÑģÑĤÐ½Ð¾":3372,"ÑħÑĭ":3373,"ĠÐ¼Ð»Ð°":3374,"Ð½Ð¸Ñħ":3375,"ĠÐ±Ð»Ð°Ð³Ð¾ÑģÐ»Ð¾Ð²":3376,"ĠÐ³ÑĢÐ°Ð¼Ð¾ÑĤÐµ":3377,"ÑĦÐ°Ð½Ð°":3378,"ĠÐ¿Ð¾ÑģÐ»ÑĥÑĪÐ°":3379,"ĠÐ¾Ð±Ðµ":3380,"Ð²Ð°Ð¸":3381,"ĠÐ²Ð¾Ð»Ñİ":3382,"ĠÐ½Ð°Ð¼Ðµ":3383,"ĠÑıÑĢÐ¾ÑģÐ»Ð°":3384,"ĠÑĤÐµÐ¿":3385,"ĠÐ±Ð°ÑĤ":3386,"ĠÐ´Ð²Ðµ":3387,"Ð¿Ð¸ÑģÐºÐ¾Ð¿":3388,"ĠÐ½Ð¾Ð²ÑĬ":3389,"ÑĪÐ¾":3390,"ĠÐ²Ñ£ÐºÑĬ":3391,"ĠÐ´Ð°Ð´Ðµ":3392,"ĠÑ¤":3393,"ĠÑĥÐ·":3394,"ĠÐ´Ð¾Ð±ÑĢÑĭÑħ":3395,"ĠÐ¼Ð¸ÑĤÑĢÐ¾Ð¿Ð¾Ð»":3396,"ĠÑĤÐ²ÐµÑĢ":3397,"ĠÐ¶ÐµÐ½Ñĥ":3398,"ĠÐºÐ°ÑĢÐ°":3399,"ĠÑĢÑĥÑģÑĮ":3400,"ĠÑĨÐ°ÑĢÑģÑĤÐ²Ð¾":3401,"ĠÑĤÑ£Ð»Ðµ":3402,"ĠÐ»Ñ§":3403,"ĠÐ²ÑĬÑģÐ°":3404,"ĠÐ¢ÑĬ":3405,"ÑĦÐµ":3406,"ÑĢÐ°Ð³Ð¼ÐµÐ½":3407,"Ð³êĻĳ":3408,"ĠÐ¼Ð°Ð»Ñĭ":3409,"ĠÑ¡Ð¿":3410,"ĠÐ¿Ð¾Ð¼Ñĭ":3411,"ĠÐ´ÑĮÑģÑ§":3412,"ĠÐºÐ¾ÑĥÐ½ÑĬ":3413,"Ð±êĻĭ":3414,"ĠÐµÑħÐ°":3415,"ĠÑģÐ²Ñ£ÑĤÐ°":3416,"ĠÐ¿Ð¾ÑģÐ»Ñ£Ð´":3417,"Ð³Ð½ÑĮ":3418,"ĠÐ±Ð»ÑĬ":3419,"ĠÐ¿Ð¾ÑģÐ°Ð´Ð¸":3420,"Ð³Ð¾ÑĤ":3421,"ĠÐĲÐ·":3422,"ÑĤÐ°Ð¸":3423,"ÑĢÑıÐ¼Ð°":3424,"Ð½ÑĹÐµ":3425,"ĠÐ½ÐµÑĩÐ¸":3426,"ĠÑģÐ¾ÑħÑĢÐ°":3427,"ĠÐ»Ð°Ð²":3428,"Ð²Ð°Ð½Ð°":3429,"ĠÑĤÑ£Ñħ":3430,"ĠÐºÐ¾Ð»Ñ£":3431,"ĠÑģÐ²Ð¾Ñ¥Ð¼Ñĥ":3432,"ĠÑģÑĤÐ°ÑĢÑ£Ð¸":3433,"ĠÐ³Ð¾ÑĢÐ¾Ð´ÐµÑħ":3434,"ĠÐ²Ð¾Ð»Ð¾Ð´Ð¸Ð¼ÐµÑĢÑĬ":3435,"ĠÑģÐ¼Ðµ":3436,"ÑħÐ¾ÑĤÑ£":3437,"ĠÐ±Ð»Ð°Ð³Ð¾ÑģÐ»":3438,"ĠÐĽÐ¸":3439,"ĠÐ±Ð¾Ð¶Ðµ":3440,"ÑĪÑĸÐ¸":3441,"ĠÐ³ÑĢÑĬ":3442,"Ñ«ÑīÐµ":3443,"ÑĤÐµÐ¹":3444,"ĠÑģÐ»Ð°Ð²Ñĭ":3445,"ĠÐ¼ÑĥÐ¶ÑĮ":3446,"Ð½ÐµÐ½":3447,"ĠÑ¡Ð»":3448,"ĠÐ´Ð¾Ð¿ÑĢÑıÐ¼Ð°":3449,"Ð´Ð¾Ð¼Ð¾":3450,"ÑĨÐ¾Ð²ÑĬ":3451,"Ð´Ñ£Ð¶Ðµ":3452,"ĠÑĤÐ²Ð¾ÑĢÑ§":3453,"Ð¸ÑĨÐ°":3454,"ĠÐ¸ÑĤÐ¸":3455,"ĠÐ¾ÑĤÐ¸":3456,"Ð°ÑĢÑ£":3457,"ÑģÐºÐ¾Ñĥ":3458,"ĠÑĤÐ²Ð¾Ð¸Ð¼ÑĬ":3459,"ĠÐ¼êĻĭÐ¶":3460,"È¥":3461,"ĠÐ±Ð³Ð°":3462,"ĠÐ³Ð»Ðµ":3463,"ÐºÐ°Ñħ":3464,"ÑĢÐ¸Ð»Ð°":3465,"Ð¼Ð°ÑĤÐ¸":3466,"ĠÐ¼ÑĥÐ¶":3467,"ÑĤÐ¾Ð¼":3468,"Ñ«ÑĤÑĬ":3469,"ĠÐ³Ð¾Ð»Ð¾Ð²Ñĥ":3470,"ĠÐºÑ¹Ð¿":3471,"ĠÑ¡Ð±Ñ£":3472,"ĠÑĢÐ°ÑĤÑĮ":3473,"Ð¸ÑĤÐµÐ»Ð¸":3474,"ĠÐ»ÑİÐ´ÑĮÐ¼Ð¸":3475,"Ð´Ð¾Ð¼ÑĬ":3476,"ĠÐ½Ð°ÑģÐ¸":3477,"ÑģÐºÐ¸Ð¼Ð¸":3478,"ĠÐ¼Ð¾ÐµÐ¸":3479,"ĠÑ¸":3480,"Ð´Ð¸Ð½Ð°":3481,"ĠÐľÑĭ":3482,"Ð¸Ð¼Ð¸":3483,"Ð²ÐµÐ»Ð¸":3484,"ĠÑĥÐºÑĢÐ°":3485,"ÑĢÐ¾Ñĩ":3486,"ĠÐ¿ÐµÑĤÑĢÑĬ":3487,"ĠÐ²ÑģêĻĹ":3488,"ĠÑģÑĭÑīÐµÑĤÑģÑı":3489,"ĠÐ¿ÑĥÑģÑĤÐ¾":3490,"ÑİÐ±":3491,"ĠÐµÐ³Ð¾Ð¶Ðµ":3492,"Ð²Ð°Ð»ÑĬ":3493,"ĠÐĲÐ¹":3494,"Ð¾Ð²ÑĭÐ¼":3495,"ĠÑģÐ°Ð¼Ð¾Ð³Ð¾":3496,"ĠêĻĸÐºÐ¾Ð¶Ðµ":3497,"Ð³Ð¾Ð´Ð°ÑĢ":3498,"Ð³Ð¾Ð²Ð¾ÑĢ":3499,"ĠÐĺÐ¶Ðµ":3500,"ĠÐĴÐµÐ»Ð¸":3501,"ĠÐ²ÑģÑ§ÐºÑĸÐµ":3502,"ĠÐ½Ð¾Ð²Ð³Ð¾ÑĢÐ¾Ð´ÑĮ":3503,"Ð²Ñĸ":3504,"ÑİÑĩÐ¸":3505,"ĠÐ¾Ð¿Ð°":3506,"ĠÐ¶ÑĬ":3507,"Ð²Ñ£Ð´Ñ£":3508,"ĠÐ²Ð°Ð¼Ð¸":3509,"ĠÐ±Ð¾Ð¶ÑĮ":3510,"ĠÐ¿ÑĢÐ¸Ñı":3511,"ĠÑħÐ¸ÑĤ":3512,"ĠÑģÐ¸ÑĢ":3513,"ĠÐ½Ð°ÑĢÐ¸ÑĨÐ°":3514,"Ð»ÐµÐ½Ð°":3515,"ĠÐ½êĻĳÐ½Ñ£":3516,"Ð²Ñ«":3517,"ĠÑģÑĭÑģÐºÑĥ":3518,"ĠÐ´Ð²ÑĮ":3519,"Ð½Ð¸Ð½":3520,"Ð²Ð°ÑĤ":3521,"ĠÐ¿Ð°Ðµ":3522,"ĠÐ½Ð°ÑĪÐ¸ÑħÑĬ":3523,"Ð½ÐµÑĤÑĬ":3524,"Ð½Ñĳ":3525,"ÑĭÐ¹":3526,"ĠÐ¼Ð°Ð»Ð°":3527,"ĠÐĳÑĭ":3528,"Ð½ÑıÐ·ÑĮ":3529,"Ð¸Ð½Ð°":3530,"ÐºÐ¸ÑĤÐ¸":3531,"ĠÑĢÐ°Ð´Ð¾ÑģÑĤÑĮ":3532,"ĠÐ³Ð»Ñ§":3533,"ĠÐ¼Ð½Ð¾":3534,"ĠÐºÐ°Ð´":3535,"ĠÐ³Ð¾ÑĢÐµ":3536,"ĠÑģÐ¾ÑĤÐ²Ð¾ÑĢÐ¸ÑĤÐ¸":3537,"ĠÐ¿Ð»ÑĮ":3538,"ĠÐ´Ð²Ð¸":3539,"ÑģÑĤÐ¸Ð½":3540,"Ð´Ð¾Ñİ":3541,"ĠÑ¹Ð¼":3542,"ĠÑģÑ£Ð´Ñ§":3543,"Ð´ÑĢ":3544,"ĠÐ´Ð²Ñĥ":3545,"ĠÑĤÑĢÑ¹":3546,"ĠÐ¿ÑĢÐ¾Ð¼Ðµ":3547,"ĠÐ²Ð¾Ð»Ð¸":3548,"ĠÐ¿ÑĢÐ¾Ð·":3549,"ÑĤÐ¸ÑģÑ§":3550,"ĠÑ¿Ð½Ñİ":3551,"ĠÐ±Ñ£Ð»":3552,"ĠÑĦÐµÐ´Ð¾ÑĢ":3553,"ĠÑĤÐ¾Ð²Ð¾":3554,"ÑĩÐ°Ð»":3555,"ÑģÐ¿Ð¾Ð´Ð¸Ð½Ñĥ":3556,"ĠÐ½Ð¸Ð¼ÑĮ":3557,"ĠÐ¿Ð¾ÐºÐ»Ð¾Ð½Ð¸":3558,"Ð±Ñ¹":3559,"ĠÑģÐ»êĻĳ":3560,"ĠÐ¼Ð¸Ð¼Ð¾":3561,"ĠÐ²Ñ£ÑĢÐ¾Ñİ":3562,"ĠÐ²Ð¾Ð·ÑĢÐ°":3563,"ĠÐ²ÑģÑ§ÐºÑĹÐµ":3564,"ĠÐĽÐ°Ð·Ð°":3565,"ĠÐ³ÑĬ":3566,"ĠÐµÑģÑĮ":3567,"Ð²Ð¸Ð´Ñ£":3568,"ĠÐĶÑĥ":3569,"ĠÐ³Ð¾ÑĢÑĭ":3570,"ĠÑĩÐ°ÑģÑĤÑĮ":3571,"ĠÑĤÐ²Ð¾ÐµÐ¸":3572,"ĠÐ´ÑĢÐµÐ²":3573,"ÑīÐµÐ¼ÑĬ":3574,"ĠÑĢÑĥÑģ":3575,"ĠÐ·Ð¾Ð»Ð¾ÑĤ":3576,"ÑĤÐ½Ð¾":3577,"ĠÐ¿Ð¾Ð»Ð¾Ñĥ":3578,"Ġ4":3579,"ÑĢÐºÐ¾Ð²ÑĮ":3580,"Ð²Ð°ÐµÑĤ":3581,"ĠÑģÐ»Ñ¹Ð¶":3582,"ĠÐ½Ð°Ñĥ":3583,"ĠÑģÐµÐ±Ñ§":3584,"ĠÐ½Ð°ÑĩÐ°ÑĪÐ°":3585,"ĠÐºÐ°Ð·Ð°Ðº":3586,"Ð½ÐºÐ°":3587,"ĠÐ½Ð¾Ð³Ð¸":3588,"ĠÑģÑĤÐ¸":3589,"ĠÐºÐ¾ÑĢÐ¾Ð»ÑĮ":3590,"ĠÐ²Ð¾ÑĤÑĩÐ¸Ð½Ð°":3591,"ĠÐ½ÐµÐ¿ÑĢÐ°Ð²":3592,"ĠÑģÐ»ÑĭÑĪÐ°Ð²ÑĬ":3593,"ĠÑĨÐ¸":3594,"ĠÐ¿ÑĢÐ¾Ñĩ":3595,"ÑĤÑģÑı":3596,"ĠÑģÐ»ÐµÐ·Ð°Ð¼Ð¸":3597,"ĠÐ¿ÑĢÑ§":3598,"ĠÐ¶ÐµÐ½Ñ¹":3599,"Ġâ¸±":3600,"ĠÑĤÐ°Ð¼Ñ¡":3601,"ĠÐ´ÐµÐ²Ð¸":3602,"Ð´ÑĢÑ£":3603,"ĠÐ¿ÑĢÐ¸Ð³Ð¾Ð¶Ðµ":3604,"Ð±Ð¾Ñİ":3605,"ĠÑģÐ¾Ð»Ð¾Ð¼":3606,"ĠÑĢÐ°Ð·ÑĥÐ¼Ñ£":3607,"Ð¸Ð·":3608,"ĠÑĢÐ°ÑģÑĤ":3609,"ĠÐ¼Ð¾ÐµÐ¼Ñĥ":3610,"ĠÐ¿ÑĢÐ¾ÑģÑĤ":3611,"ĠÑĤÐ²Ð¾ÐµÐ³Ñ¡":3612,"ĠÐ´Ð¾ÑĢÐ¾Ð³":3613,"ÑĤÐ¾ÑĢÐ°":3614,"ĠÑĤÐ¾Ð»ÑĮÐºÐ¾":3615,"êĻĹÑĤÐ¸":3616,"ĠÐĽÐ°Ð·Ð°ÑĢÐµÐ²Ð¸":3617,"ĠÐ¸Ð¼Ð¸":3618,"ÐºÑĢÑ£":3619,"ĠÑģÑĤÑĥ":3620,"ĠÑĢÑĬ":3621,"ĠÑĪÑĥ":3622,"ĠÑģÐºÐ¸":3623,"ĠÑĨÑĢÑĬ":3624,"ĠÐ³Ð»Ð°Ð³Ð¾Ð»Ñ§":3625,"ĠÐľÑĥÑĢÐ¾Ð¼":3626,"ÑĤÐ¾Ð¼ÑĬ":3627,"ĠÐºÐ°ÑĤÐ¾":3628,"Ð²ÑĭÐ¼ÑĬ":3629,"ÑģÐºÐ¾Ñİ":3630,"ĠÐ²Ð»Ð´":3631,"Ð´Ñ¡":3632,"ÑĩÐºÑĥ":3633,"ÑĪÐ¸Ð¼ÑĬ":3634,"ÑĩÐ°ÑĤÐ¸":3635,"ĠÑģÐ²Ð¾ÐµÑı":3636,"Ð°ÑĤÐ¸":3637,"ĠÐĴÐ°ÑģÐ¸Ð»Ð¸Ð¹":3638,"Ð½Ð¸Ð¼ÑĬ":3639,"ÐºÐ¸Ð¼Ð¸":3640,"ÑĦÑĬ":3641,"Ð¸ÑĤÑĥ":3642,"ĠêĻĹÑĢÐ¾ÑģÐ»Ð°":3643,"Ð´Ð¾Ñħ":3644,"ĠÐ¿Ð¾Ð¼ÐµÑīÐ¸":3645,"Ð³Ð¾ÑĢÐ¸":3646,"ĠÐ²Ð½Ðµ":3647,"ÑĩÑĸÑİ":3648,"ÑģÑ£ÑħÑĬ":3649,"ĠÐºÐ¾ÑĤÐ¾ÑĢÐ¾Ð¸":3650,"ĠÐ±êĻĳÑģÑĤÑĬ":3651,"ĠÐ´Ð¾Ð¼Ñĥ":3652,"ĠÐ¶ÐµÐ½Ð¾Ñİ":3653,"ĠÑĤÑĬÐ³Ð´Ð°":3654,"ĠÐ¿Ð¾ÑĩÐ¸ÑĤÐ°":3655,"ĠÐ±Ð¾Ð³Ð°ÑĤÑĭÑĢ":3656,"Ð²Ð»Ñı":3657,"ĠÑĤÐ²Ð°":3658,"ĠÑģÑĤÑĬ":3659,"Ð±Ð¸Ð»Ð¸":3660,"ĠÑĪÐ»Ð¾":3661,"ĠÐ¿ÑĢÐ°Ð²ÑĮ":3662,"Ð¸ÑĢÐ°":3663,"ĠÐļÑĤÐ¾":3664,"ÐµÐ½ÑĮÑİ":3665,"ĠÐºÐ¾Ð»ÐºÐ¾":3666,"ĠÐ³Ð»Ñ£":3667,"Ð¶Ð´Ñĭ":3668,"ĠÐ²ÐµÑĩÐµÑĢ":3669,"ĠÐ¢Ð¾Ð³Ð¾":3670,"ĠÐ³ÑĢÑ£ÑħÐ°":3671,"ĠÐ²Ð¸Ð´Ñ£Ð²ÑĬ":3672,"ĠÑĥÐ¶Ðµ":3673,"ĠÐ¿ÑĢÐ¾ÑģÑĤÐ¸":3674,"ĠÐ¿Ð¾Ð³Ð¸Ð±":3675,"ĠÐ´Ð¾ÑģÑĤÐ¾":3676,"ĠÐ³Ð»Ð°Ð²Ñĭ":3677,"ĠÐ¿ÐµÑĢÐµÑģ":3678,"ĠÐ¡Ñĥ":3679,"ĠÑģÐ¸Ð»Ñĥ":3680,"ĠÐ¿Ð¾Ð³êĻĭ":3681,"ĠÐºÑĢÐ¾Ð²ÑĮ":3682,"ĠÐ³Ð½Ñ£Ð²ÑĬ":3683,"ĠÐ²ÑģÑ§ÐºÐ°Ð³Ð¾":3684,"ĠÐ¿ÑĢÐ¸Ð±Ð»Ð¸":3685,"ĠÐ¡ÑĤÑĢÐ°":3686,"ĠÐ¢Ðµ":3687,"ÐµÑĢÐµÐ¸":3688,"ĠÑģÑĥÐ´Ñĥ":3689,"ĠÐ¼Ð¾ÑģÐº":3690,"ĠÐµÐ·":3691,"ĠÑģÐ»Ð¾Ð²ÐµÑģ":3692,"ĠÑĢÐ¾ÑģÑĤÐ¸":3693,"ÑĤÑĸÐ°":3694,"ĠÐ¿ÑıÑĤÐ¸":3695,"ĠÐ´ÑĢÑ£":3696,"ĠÐ´Ð°ÑĢÑĥ":3697,"ĠÐĳÐ°":3698,"ÑģÑĤÑĭÐ½Ñİ":3699,"ĠÐĴÐ¸Ð´Ñ£":3700,"ĠÐ³Ð¾ÑģÑĥÐ´Ð°ÑĢÐµÐ²Ð°":3701,"ĠÐĶÐ¾Ð±ÑĢÑĭÐ½Ñı":3702,"ĠÑģÑĸÐ¸":3703,"ĠÑĩÐ°ÑĢ":3704,"ĠÐŁÐ¾Ðº":3705,"ĠÑħÐ¾Ð´Ð¸ÑĤÐ¸":3706,"Ð²Ð¾Ð´Ð¸":3707,"ĠÑ¡ÑģÑĤÐ°Ð²":3708,"ĠÑģÐ¸Ð»ÑĮ":3709,"ĠÑĢÐµÑīÐ¸":3710,"Ð±Ð¸ÑĢÐ°":3711,"ĠÑĤÐ¾Ð¶Ðµ":3712,"ĠÐ²Ð¾Ð·Ð²ÑĢÐ°ÑĤÐ¸":3713,"ĠÑĢÑĥÐºÐ¸":3714,"ĠÐ²Ð»Ð°ÑģÑĤÑĮ":3715,"ĠÐ¸Ð¼Ñĥ":3716,"ĠÐºÐ»Ð°Ð½Ñ§Ñİ":3717,"ĠÑķÑ£":3718,"ĠÐľÐ¾ÑģÐºÐ²Ðµ":3719,"ĠÐ°Ð»ÑĤÑĭ":3720,"Ð½Ð½Ð°":3721,"Ð½ÐµÐ½Ð°":3722,"Ð¶ÐµÐ½Ð¸":3723,"Ð½Ð¾Ð¼Ð¾Ñĥ":3724,"ÑıÐ½Ðµ":3725,"ĠÑ¥Ð¶Ðµ":3726,"Ð½Ð¸ÐºÑ¹":3727,"ÑģÑĤÑ£Ð¸":3728,"ÑĨÐ¾Ñĥ":3729,"ÑĩÐ¸Ð½Ð¸":3730,"ÑĩÐ°Ð¸":3731,"ĠÐºÐ¾ÑĢÐ¼":3732,"ĠÑĤÑ£Ð¼ÑĮ":3733,"ĠÐ±Ð³ÑĬ":3734,"ÐºÐ»Ð¸":3735,"Ð²Ð°ÑĪÐµ":3736,"Ð´Ð¾Ð¼":3737,"ĠÐ³Ð»Ñĥ":3738,"ĠÐ·Ð»Ð°ÑĤÐ°":3739,"Ð³Ð¾Ð¼ÑĬ":3740,"Ð¶ÐµÐ½ÑĸÐµ":3741,"ĠêĻģÐ½Ð°":3742,"ĠÐ½Ñ£ÐºÐ¾Ðµ":3743,"ĠÐ¿ÑĢÐ¸ÑĪÐµÐ´ÑĬ":3744,"Ð½Ð¾Ð¿":3745,"ĠÐ»Ð¾Ð²":3746,"ĠÑĩÐ°Ñģ":3747,"ĠÑ¯":3748,"Ð·Ð½Ð¾":3749,"Ð½Ð¸ÑĩÐ¸":3750,"ĠÑħÐ²Ð°Ð»Ð¸":3751,"ĠÐĿÑ«":3752,"ĠÐ¿Ð¾ÑģÐ»Ð¾Ñĥ":3753,"ĠÐ±êĻĭÐ´êĻĭÑĤÑĬ":3754,"ĠÐĲÐ·ÑĬ":3755,"ÑģÑĤÐ°Ð²ÑĬ":3756,"ĠÐĴÐ¾Ð·":3757,"ĠÐ²ÑĮÑģ":3758,"ĠÐ´ÐµÑģÑ§ÑĤÑĮ":3759,"Ð°Ñ§":3760,"ĠÐľÐ¸ÑħÐ°Ð¹":3761,"Ð²Ñ¡":3762,"Ñ§Ð»Ðµ":3763,"ÑĩÑĤÐ¾":3764,"ĠÐ³ÑĢÑĮ":3765,"Ð¶ÐµÑĤÑĮ":3766,"ĠÐĲÐ¼Ð¸":3767,"Ð½Ñ£Ð¼ÑĮ":3768,"ĠÑĦÐ¸Ð»Ð¸":3769,"ĠÐ±ÐµÑĢÐµÑĩÐ¸":3770,"ĠÐ²Ð¼ÐµÑģÑĤÐ¾":3771,"Ð¿ÑĢÐ¾ÑĤÐ¸":3772,"ÐµÐ½Ñ£":3773,"ĠÐ¾Ð³Ð½ÑĮ":3774,"Î½":3775,"ĠÐºÑĤ":3776,"ÐµÐ½Ñĥ":3777,"ÑģÑĤÐ¸Ð¸":3778,"ĠÐ²ÐµÐ·":3779,"ÑĤÑĭÐ¸":3780,"ĠÐºÐ½ÑıÐ³Ð¸":3781,"ĠÑģÐµÑĢÐ´ÑĨÐ°":3782,"ÐºÐ²Ð°":3783,"ĠÐ´Ð¾Ð¼Ñ¹":3784,"Ð¾ÑģÑĮ":3785,"ÑĢÐµÐ¹":3786,"ĠÑģÐ»Ð¾Ñĥ":3787,"êĻĳÑħÑĬ":3788,"ĠÐ²Ð¿ÐµÑĢÐµÐ´":3789,"ĠÐ½Ð°Ð¼Ñ£":3790,"ĠÑģÑĤÑ§":3791,"ĠÐ»Ð¾":3792,"ÐºÐ¸Ð¸":3793,"ĠÐ¿Ð¾Ð»Ð¾Ð²Ð¸":3794,"ĠÐºÑĬÐ½Ñ§":3795,"ĠÑģÑĤÑĢÐ°Ð½Ñĭ":3796,"ĠÑĩÐ¸Ð½Ð¸ÑĤÐ¸":3797,"ĠÑģÐ¾ÑĢÐ¾Ðº":3798,"Ð¿Ñĭ":3799,"êĻģÐ½Ð°":3800,"ĠÐ·Ð°Ð¿Ð¾Ð²Ñ£Ð´Ð°":3801,"ĠÑĢÐ°Ð±Ð¾ÑĤÐ°":3802,"Ð´Ð°Ð»Ð¸":3803,"ĠÑ¿ÑĤ":3804,"Ð°ÐºÑĥ":3805,"ĠÐ¿Ð¾Ð»ÑĮ":3806,"ĠÐ´Ñ£Ð»Ñ§":3807,"ĠÐ¿ÑĢÑ£Ð´":3808,"Ð½Ð¸ÐºÑĭ":3809,"ĠÐ´Ð¾Ð¸":3810,"ĠÐķÐ¶Ðµ":3811,"ĠÑĨÑ£Ð»Ð¾Ð²Ð°":3812,"ĠÐ¼Ð¾Ð»Ð¸ÑĤÐ¸":3813,"ĠÐºÐ½Ñ§Ð·Ñİ":3814,"ÑĥÐ´Ñĭ":3815,"ÑĪÑĤÑı":3816,"ĠÐ±Ð¾ÑĢÐ¸ÑģÐ°":3817,"Ð´ÐµÑĤÐµ":3818,"ÑĪÐ¸ÑĤ":3819,"Ð¿Ñģ":3820,"ĠÐ²Ñ£ÑģÑĤÑĮ":3821,"Ð¿ÑĢÐ¾Ñģ":3822,"ĠÐ²ÐµÑģÐµÐ»":3823,"ĠÐ¿Ñ§ÑĤ":3824,"ĠÐ±Ð¾Ð¶":3825,"ĠÐ¿ÑĢÐµÐ»":3826,"ĠêĻĹÐ²":3827,"ĠÑģÐ¸Ñħ":3828,"ĠÐ²ÐµÐ»Ð¸ÐºÐ¾":3829,"ĠÐ¿ÑĭÑĤÐ°":3830,"Ð¿ÑĢÐ¾":3831,"ĠÐ·Ð¼Ð¸":3832,"ĠÐ¶ÐµÑĢ":3833,"ĠÑħÐ¾Ñĥ":3834,"ĠÑĢÑĭÑĨ":3835,"ĠÎĻ":3836,"ĠÐ´Ð¾Ð¼Ð¾Ð²":3837,"ĠÐµÐ´Ð¸Ð½":3838,"ĠÐ°Ð½Ð³":3839,"ĠÐ¼Ð¾Ð½Ð°ÑģÑĤÑĭÑĢÑĮ":3840,"ĠÐ¿Ð¾ÑĪÐ»Ð¸Ð½Ñĭ":3841,"ĠÐ¥ÑĢÐ¸ÑģÑĤ":3842,"ĠÑĤÑİÑĢ":3843,"ĠÑıÐ·":3844,"ĠÐ¿Ð¾Ð´ÑĮÑı":3845,"Ð´Ð¸Ð½Ð¾":3846,"ĠÐ´Ñ£Ð»ÑĬ":3847,"ĠÐ¼Ð¾Ð½Ð°ÑģÑĤÑĭÑĢÑı":3848,"Ð»Ð°ÑģÑı":3849,"Ð»Ð¾ÑģÑĤÐ¸":3850,"ĠÑĢÐ¾Ð´Ñĥ":3851,"ĠÑĢÐµÐºÐ¾ÑĪÐ°":3852,"Ð¼Ð½":3853,"Ð³Ð¾ÑĤÐ¾Ð²Ð°":3854,"ĠÐĳÑĢÐ°":3855,"ĠÑģÐ¼ÐµÑĢÑĤÑĮ":3856,"ĠÐ³ÑĢÐ¸Ð²ÑĮÐ½Ñ£":3857,"Ð»ÑĸÐ°":3858,"ĠÑĢÑı":3859,"ÑĥÐ´Ñĥ":3860,"Ð±Ð¾ÑĢÐ¾ÑĤ":3861,"ĠÑģÐ½Ð¸":3862,"ĠÐ´ÑĢÑĮ":3863,"Ð»ÐµÐ·":3864,"ĠÐ²Ð¾Ð·Ð´Ð°":3865,"ĠÑģÐºÐ²ÐµÑĢ":3866,"Ð´Ñ§ÑĤÑĬ":3867,"ĠÐºÐ¾ÑĥÐ½Ñ£":3868,"ĠÐ´Ð¾Ð²ÐµÐ´":3869,"ĠÑģÐ¼Ð¸ÑĢ":3870,"Ð¿Ð¾Ñĥ":3871,"ĠÐ²ÑģÑ§ÐºÐ¾":3872,"ĠÐ±ÐµÐ·Ð·":3873,"Ð²Ð½Ð°":3874,"ÑĤÑĮÑģÑı":3875,"ĠÐļÑĬ":3876,"ĠÐ¼ÐµÐ¶Ð¸":3877,"ÑķÑ£":3878,"ĠÐĺÐ»ÑĮÑı":3879,"ĠÐ½Ð°Ð¼ÐµÑģÑĤ":3880,"Ð»Ð¸ÑĤÐ¸":3881,"ĠÐ¾ÑĥÐ¼Ñ£":3882,"ÑīÐ¸Ð¼":3883,"ĠÐ±ÐµÐ·Ð¾":3884,"ÐµÐ²Ð¸ÑĩÐ°":3885,"ĠÐ½ÐµÐ½Ð°Ð²Ð¸":3886,"ÑħÐ¾ÑĤ":3887,"ÐºÐ¾ÑĪÐ°":3888,"ĠÑ¡ÑĩÐ¸":3889,"ĠÐ¿ÐµÑĢÐµÐ´ÑĬ":3890,"ÑģÑĤÐ¾Ñĥ":3891,"Ð³Ð¾Ð²Ñ£":3892,"ĠÐµÐ²":3893,"ĠÐ¡Ð²Ñı":3894,"Ð´Ñ£Ð¸":3895,"ĠÐ¿ÑĢÐ°Ð·Ð´":3896,"ĠÑħÐ¾ÑīÐµÑĪÐ¸":3897,"ĠÐ½ÐµÐ±Ð¾":3898,"ĠÑĤÐ°ÑĤÑĮ":3899,"ĠÑĦÐ¸":3900,"ĠÐ²ÐµÐ»ÑĮÐ¼Ð¸":3901,"ĠÐ¸Ð½ÑĭÑħ":3902,"ĠÐ±Ð¶Ð¸":3903,"ĠÐºÑĭÐµ":3904,"ÑĪÐµÐ½Ð°":3905,"Ð·Ñı":3906,"Ñ¹Ð±":3907,"Ð°ÑĢÑ§":3908,"ĠêĻģÐ°Ðº":3909,"ĠÐ¼Ñ¹Ð¶Ð°":3910,"ĠÑĤÐ¾Ð»Ð¸ÐºÐ¾":3911,"ÑĤÑĢÑĬ":3912,"Ð½ÑĤ":3913,"ĠÐ¾Ð´Ðµ":3914,"Ð½Ð¸ÑĨÑİ":3915,"ĠÐ¾ÑĤÐ´Ð°ÑĤÐ¸":3916,"ĠÐľÐ¾Ð»":3917,"ĠÐºÐ°Ð·Ð½Ð¸ÑĤÐ¸":3918,"ĠÐ¿ÑĢÐ¸ÐºÐ°Ð·Ðµ":3919,"ÑĮÑİ":3920,"ĠÑĥÐ¶":3921,"ĠÐ±Ð¾Ð»ÑĪÐ¸":3922,"ĠÑģÐ½ÑĬ":3923,"ĠÐ·Ð´Ðµ":3924,"ĠÐ±ÑĭÐ²ÑĪ":3925,"Ð»ÑĮÑİ":3926,"ĠÐ¿ÑĢÐµÐ±Ñĭ":3927,"ĠÑģÑĢÐ´":3928,"ĠÐºÐ½Ñ§Ð·Ñ§":3929,"ĠÐºÐ²Ð°":3930,"ĠÑĢÐ¾Ð¶Ðµ":3931,"ÑģÑĤÐ¾Ñĩ":3932,"ĠÑģÑĭÐ½Ðµ":3933,"ÑĢÑ«":3934,"Ð±Ð¾Ñĥ":3935,"ĠÐ³Ð¾Ð½":3936,"ĠÑ¥Ð¼Ñ¹":3937,"Ð¾Ð²Ð¾Ð¸":3938,"Ð¸ÑĤÐµÑģÑ§":3939,"ÑĸÐµÐ¼ÑĮ":3940,"Ð²ÑĥÑİ":3941,"ĠÑģÑ¹Ð´Ñĭ":3942,"ĠÐ±Ñ¹Ð´Ð¸":3943,"ÑģÑģ":3944,"ĠÐ¸Ð´Ð¸":3945,"ĠÐºÐ¾Ð³Ð´Ð°":3946,"ĠÐ¼ÑģÑĤÐ¸":3947,"Ð½Ð¸ÑĨÐµ":3948,"ĠÑĨÐ¾Ð»":3949,"ĠÑģÐµÐ³Ñ¡":3950,"ÑģÐ»Ð°Ð²Ð¸":3951,"ĠÑķÑĸÑģ":3952,"ĠÐ½Ð¾Ð³":3953,"Ð´Ð¾Ð²":3954,"ÐµÐ½ÑĸÐ°":3955,"ĠÑħÐ¾Ñĩ":3956,"ĠÐĵÐ¾ÑģÑĥÐ´Ð°":3957,"ĠÑģÐµÐ´Ð¼ÑĮ":3958,"ĠÑģÐ¼Ð¾ÑĤÑĢÑ§":3959,"ĠÑĢÐ¾Ð±":3960,"ĠÑ±":3961,"Ð»ÐµÐ½Ð¾":3962,"Ñ³Ð¸":3963,"ĠÐ½Ñĸ":3964,"ĠÐ¸ÑģÐ¿ÑĢÐ°Ð²":3965,"ĠÐ¼Ð°ÐºÐµÐ´":3966,"iÐµ":3967,"ÐºÐ¼Ð¾":3968,"ĠÐ¿ÑĢÐ¸Ð³":3969,"ÑĪÐµÑİ":3970,"ĠÑģÐ²Ð¾ÐµÐ¼êĻĭ":3971,"ĠÐ¢Ð¸":3972,"ĠêĻģÐ»Ð°":3973,"ĠÐ¿Ð¾Ð¼Ð¾Ð»Ð¸":3974,"ÑģÐºÐ°Ð°":3975,"ÑģÑĤÐ²Ð¾Ð²Ð°ÑĤÐ¸":3976,"Ð´êĻĭÑĤÑĬ":3977,"ĠÑħÐ»Ñ£Ð±ÑĬ":3978,"ĠÐ½ÐµÐ±ÐµÑģ":3979,"ĠÐ³Ð½Ðµ":3980,"Ð½ÑĭÐ°":3981,"Ñ¡Ð°":3982,"ĠÐŀÐ½Ð¸":3983,"ĠÐ³Ð¾ÑģÐ¿Ð¾Ð´ÑģÑĤÐ²Ð¾":3984,"ĠÑħÐ»ÐµÐ±":3985,"Ð·ÑĢÑ£":3986,"Ð¶ÑĥÑĤ":3987,"ÑĤÑĢÐµ":3988,"ÑģÐ²":3989,"Ð²ÑĢÐ¸":3990,"Ð²ÑģÑı":3991,"ĠÐ¿ÑĢÐ¸Ð·Ð²Ð°":3992,"Ð½Ð¸ÐºÑĮ":3993,"ĠÐ¿ÑĢÐ°Ð²Ð¾ÑģÐ»Ð°Ð²":3994,"Ð»êĻĳ":3995,"ĠÑĤÐ¾Ð¶":3996,"Ð½Ð¸ÑĨÑĥ":3997,"ĠÐ¾ÑĥÐ¶Ðµ":3998,"ĠÑģÐ²ÑıÑĤ":3999,"ÑıÑģÑı":4000,"ĠÐ¼Ð°Ð¸":4001,"ÑģÐºÐ°Ñ§":4002,"ĠÐ±êĻĳÐ»Ð¾":4003,"Ð¾ÑĢÐ¾ÑĤÐ¸":4004,"ĠÐ±Ð»Ð¸Ð¶":4005,"ĠÑĤÐ¾Ð²Ð°ÑĢÑĬ":4006,"ĠÑ³ÐµÑ¡Ð´":4007,"ĠÐ¸Ð³Ð½Ð°":4008,"ĠÐ·Ñ£Ð»Ð¾":4009,"Ð¾Ð²Ð¸Ñİ":4010,"ĠÐ¼Ð½Ð¾Ð³Ñĭ":4011,"ĠÐ±Ð»Ð°Ð³Ð¾Ð´Ð°":4012,"ĠÐ¸Ð½ÑĭÐµ":4013,"ĠÑĢêĻĭÐºêĻĭ":4014,"ĠÐ¸Ð¼ÑĮ":4015,"Ð»Ð°ÑģÑĮ":4016,"ĠÑĥÐºÐ°Ð·Ð°":4017,"ĠÑģÑĬÐ±ÑĢÐ°":4018,"Ð³Ð¾ÑĢÐ¾Ð´Ñ£":4019,"ĠÐ²Ð¿ÑĢÐµ":4020,"ĠÐºÑĢÐµÑģÑĤÑĮÑıÐ½Ðµ":4021,"Ð¸ÑģÑ§":4022,"ÑĩÐµÐ½ÑĬ":4023,"ĠÑĩÐ¾Ð»":4024,"Ð¾Ð²Ð¾Ñİ":4025,"Ð±ÑĶ":4026,"Ð¾ÑģÐ°":4027,"ĠÐ¿Ð¾Ð»Ð¾Ð¶":4028,"Ð´ÑĭÐ¸":4029,"ĠÑĪÐ¸ÑĢÐ¾Ðº":4030,"ĠÐ°Ð¿Ð¾ÑģÑĤÐ¾Ð»":4031,"Ð»ÑĭÐµ":4032,"ĠÑģÑĤÑĢÐµÐ»":4033,"ĠÐºÑ£":4034,"ÑĤÑĮÐ¸":4035,"ÑĢÐ¸Ñİ":4036,"ĠÐ¾ÑĥÐ±Ñ¡":4037,"ĠÐ±ÑĭÐ²ÑĬ":4038,"Ð¼Ð°Ð½":4039,"ÐµÐ½Ð¾Ðµ":4040,"ĠÑģÐµÐ½":4041,"ĠÐ±ÐµÐ´":4042,"ĠÐ´Ð°ÑĢ":4043,"ĠÐ´Ð°ÑĤÑĮ":4044,"ĠÐŁÐ¾Ð½Ðµ":4045,"ĠÐ¡Ð¾Ð»":4046,"ĠÐ±Ñ¹Ð´ÐµÑĤÑĬ":4047,"ĠÐ¼Ð½Ñ¡Ð³Ð¾":4048,"ĠÐ¿Ð¾Ð³Ð¾":4049,"Ð³Ð¾Ð½":4050,"ĠÑģÑĤÑĢÐµ":4051,"ÑĢÐµÑĨÑĬ":4052,"Ð»ÐµÐ¶Ð°":4053,"ĠÑģÑĤÑĢÐ°Ð½Ð°":4054,"Ð¼ÑĭÑĪ":4055,"ĠÐ´ÑĮÐ½ÑĮ":4056,"Ð¾ÑģÐ»Ð°Ð²":4057,"ĠÐ³ÑģÐ´ÑĢÑ§":4058,"ĠÐµÑİ":4059,"ĠÐ¿Ð¾Ð³Ñĭ":4060,"ÑĤÐ²Ñĭ":4061,"ĠÐ½Ñ§":4062,"ÑıÑħÑĥ":4063,"ĠÐ¿ÑĢÐ¸ÑıÑĤ":4064,"ĠÐľÐµ":4065,"ĠÑĦÑĢÐ°Ð³Ð¼ÐµÐ½":4066,"ĠÐ²Ð¾Ð¸Ð½":4067,"ĠÐ¸Ð´ÐµÐ¶Ðµ":4068,"ĠÑĤÐµÐ»ÐµÑģ":4069,"ĠÐ¿Ñ§ÑĤÐ¸":4070,"ĠÑĥÐ¼ÐµÑĢ":4071,"Ð½ÐµÐ¹":4072,"Ð¿ÑĢÐ°Ð²Ð¸":4073,"ĠÐ¸ÑģÐºÐ°ÑĤÐ¸":4074,"Ð»ÑĤÐ°":4075,"ĠÐ²â¸¯":4076,"ĠÐŀÐ±Ð¾ÑĢÐ¾ÑĤ":4077,"ĠÐ±ÑĥÐ´ÐµÑĤÑĬ":4078,"Ñ³ÑĬ":4079,"ĠÐ¼Ð¾Ð¸ÑħÑĬ":4080,"ĠÐ±ÑĮÑĸ":4081,"ĠÐ±ÑĮÑĢÐºÐ¾Ð²ÑĮ":4082,"ĠÐĸÐµ":4083,"Ġ{":4084,"ĠÐ±Ð¶ÑĤÐ²":4085,"ĠÑĤÐ¾Ð¼Ð¾Ñĥ":4086,"ĠÐ½Ð±Ñģ":4087,"Ð´Ð¾Ð±":4088,"ĠÐ¼Ñĸ":4089,"ÒĨ,":4090,"ĠÐ¿Ð¾ÑħÐ¾":4091,"ĠêĻĨ":4092,"ĠÐ¼ÐµÑĩÑĮ":4093,"ĠÐ½Ð¸ÐºÑĤÐ¾Ð¶Ðµ":4094,"ÑħÐ²Ð°":4095,"Ð´Ð°Ð»":4096,"ĠÑĶÐ¶Ðµ":4097,"ĠÑĢÐ¾Ð¶Ð¸":4098,"Ð»Ð¸Ð¼ÑĬ":4099,"ÑĸêĻĹ":4100,"ĠÐ³Ð»Ð°Ð³Ð¾Ð»Ð°ÑĤÐ¸":4101,"ÐºÐ°ÐºÐ¾":4102,"ĠÑĢÐµÑĩÐ¸":4103,"Ð²êĻ¿":4104,"Ð¿ÑĢÐµ":4105,"Ð´ÐµÑģ":4106,"Ð½ÐµÑĪÐ¸":4107,"ĠÑĢÐµÐ·Ð°":4108,"ĠÐ±Ð»Ð³Ð¾":4109,"ĠÐ¼Ð¾Ð¸Ð¼ÑĬ":4110,"ĠÐ¸Ð½Ð°":4111,"ÐºÐ¾Ð¼ÑĮ":4112,"ÑĪÐµÐ¸":4113,"êĻģÐ½ÑĮ":4114,"ĠÐ¡Ð°Ð¼":4115,"Ð»ÐµÐ¹":4116,"ÑĪÐ¸ÑħÑĬ":4117,"ĠÑĢÐµÐºÑĥ":4118,"Ð¿Ð¸Ñģ":4119,"êĻĹÑĪÐµ":4120,"ĠÐ¼Ð¾Ð»Ðµ":4121,"ĠÐ¿Ð»Ð°Ñĩ":4122,"ĠÐ±Ð¾Ð³Ð°ÑĤ":4123,"ĠÐ½Ð°Ð¼Ð¾":4124,"ĠÐ½ÐµÐ²Ð¸Ð´Ð¸":4125,"ÐºÐ¾ÑĤÐ¾ÑĢ":4126,"ĠÐ³Ð»Ð°Ð³Ð¾Ð»ÑİÑīÐµ":4127,"ĠÑĢÐ¾ÑģÑĤ":4128,"ĠÑĥÑĩÐ¸Ð½Ð¸":4129,"ĠêĻĢÐ°":4130,"ĠÑĢêĻĳ":4131,"ĠÐ¡Ð¾":4132,"Ð¼ÐµÐ½ÑĬ":4133,"ĠÐºÐ½Ð¸Ð³Ð¸":4134,"ĠÐ³Ð»Ñİ":4135,"Ð´ÐµÑģÐ°":4136,"ÑĥÐ¼":4137,"ÑĤÐµÐ»Ð¸":4138,"ĠÐ½Ð¸ÐºÐ¾Ð»Ð¸":4139,"ĠÑģÐ²Ð¸Ð´Ñ£":4140,"ĠÑģÑĬÐ²ÑĢÑĬ":4141,"ÑģÐºÑĸÑ§":4142,"ĠÐ¢Ñĥ":4143,"ĠÐĵÐ¾Ð²Ð¾ÑĢÐ¸ÑĤ":4144,"ÑģÑ«":4145,"ÑĪÐµÐ½ÑĬ":4146,"ĠÑĢÑ§":4147,"ĠÐ±ÑĢÐ°ÑĤÑĮÐµ":4148,"ĠÐ²ÑĢÐµÐ¼ÐµÐ½Ð¸":4149,"ĠÐ¿Ð¾ÑģÑĤÐ¸":4150,"ĠÐ¿Ð¾Ð»Ñı":4151,"ĠÑģÑĤÐ¾Ð»ÑĬ":4152,"ĠÐ´Ð¾Ð»Ð³Ð¾":4153,"Ð»Ñ«":4154,"ĠÐ½Ð°Ð´ÑĬ":4155,"ÑģÑĨÑ£":4156,"ĠÐ¿Ð¾ÑģÑĤÑĢÐ°":4157,"Ð¸ÑĤÑģÑ§":4158,"ĠÐ¿ÑĢÐµÑģÑĤÐ°Ð²Ð¸":4159,"ĠÑĢÐµÐºÐ»ÑĬ":4160,"ĠÐ½Ð°ÐºÐ°Ð·Ñ¹":4161,"Ð¾ÑĢÑĭ":4162,"ĠÐ·Ð°Ñħ":4163,"ÑģÑĤÑĮÑİ":4164,"ĠÑĢÐ°ÑĤÐ¸":4165,"ÑĩÐµÑĢÐ°":4166,"Ñ¥Ð²Ð°":4167,"ĠÐ³Ð¾Ð²Ð¾ÑĢ":4168,"ĠÑħÐ¾ÑĢÐ¾ÑĪÐ¾":4169,"ĠÐ¶ÐµÐ½ÑĬ":4170,"ÑģÐºÐ¾Ð¼Ñ¹":4171,"ÑŃÑĤÑĬ":4172,"ĠÑĢÐ°Ð´Ð¾ÑģÑĤÐ¸":4173,"ÏĦ":4174,"ĠÐ²Ð¾Ð½":4175,"ĠÑĩÐ¸ÑģÐ»Ð°":4176,"ĠÐ³Ð¾ÑĢÐ¾Ð´Ðµ":4177,"ĠÐ¿Ð¾Ð¼Ð¾ÑīÐ¸":4178,"ĠÐ½Ð°ÐºÐ°Ð·Ð°Ð½Ð¸Ðµ":4179,"ÑĢÐµÑĤ":4180,"ĠÑ¿Ð²ÐµÑĢ":4181,"ÑĪÐ¸Ð¸":4182,"ĠÐ·Ð°Ð¿Ð¾Ð²Ñ£Ð´Ð¸":4183,"ĠÐ¾Ð±ÑĬÑı":4184,"ĠÐ¸ÑģÑĤÐµ":4185,"ÑĪÐºÐµ":4186,"ÑĢÐ°Ð¼":4187,"ĠÑĥÐ³Ð¾Ð´":4188,"ĠÐĳÐµ":4189,"ĠÐĳÑĥ":4190,"ĠÐ³Ð»Ð°ÑģÑĬ":4191,"ĠÐĽÐ°Ð·Ð°ÑĢÐµÐ²Ð¸ÑĩÑĮ":4192,"êĻĩ":4193,"Ð¾ÑĢÑĮ":4194,"Ð¾ÑĢÑĤÐ¸":4195,"ĠÐ»Ð¾Ðº":4196,"Ð²ÑĭÐ¹":4197,"ĠÑģÑĤÐ°Ð»Ð¸":4198,"ĠÐºÑĢÐ¾Ð²":4199,"ĠÐ´Ð²Ð´":4200,"ÑĢÐ¼":4201,"ĠÐ¼ÐµÐ»":4202,"Ð½Ð¸Ñ§":4203,"Ð¾Ð´ÐµÑĢ":4204,"ĠÐ¿Ð¾ÑĩÐµ":4205,"ĠÐ¿ÑĢÐ¸Ð´Ð¾ÑĪÐ°":4206,"ĠÑĢÐ°Ð·Ð»Ð¸Ñĩ":4207,"ĠÐºÐ¾Ð½ÑĨÐ°":4208,"ĠÑĤÐ¾ÑĤÑĬ":4209,"ĠÐ¡Ð°Ð´":4210,"ĠÐ½Ñİ":4211,"Ð²Ñ£ÑĪÑĤÐ°":4212,"Ð½ÑĥÑĤÐ¸":4213,"ĠÑĤÐ°ÑĤ":4214,"Ð¶Ð¸ÑĤÐ¸":4215,"ĠÑģÑĥÐ´Ðµ":4216,"ĠÐ²Ð¾Ð»Ð¾ÑģÑĤÐ¸":4217,"ĠÐ¿Ð¾Ð»Ð¾Ð²ÑĨÐ¸":4218,"Ð¼Ð°ÑĤÑĮ":4219,"ĠÑģÐ¸Ð¼":4220,"ĠÐ¿Ð°Ð¼ÑıÑĤÐ¸":4221,"ĠÐ·Ð°ÐºÐ¾Ð½ÑĬ":4222,"ĠÐ¿ÑĪÐµÐ½Ð¸":4223,"Ñ§Ð½Ð°":4224,"ĠÐ¾ÑĥÐ´Ð°":4225,"ĠÐ²ÑģÑ§ÐºÐ¸Ñħ":4226,"ĠÐ²Ð¾Ð·Ð´Ð²Ð¸":4227,"ĠÐ¿Ð¾ÑĤÐ¾Ð¼":4228,"ĠÐ´Ð¾Ð¿ÑĢÐ°Ð²Ð¸ÑĤÐ¸":4229,"ĠÑĦÐ°ÑĢÐ°":4230,"ĠÐ¿ÑıÑĤÑĮ":4231,"ĠÐ¿ÑĢÐ¸Ð¸Ð´Ðµ":4232,"Ð²Ñ£ÑĤÐ°":4233,"Ð¸ÑĤÐµÐ»Ñİ":4234,"ĠÐ²Ð´Ñ£":4235,"ĠÐ³Ð¾ÑģÑĥÐ´Ð°ÑĢ":4236,"ĠÑĢÑĥÐ±Ð»Ñı":4237,"ĠÐ¿Ð¾Ð»Ð¾ÑĤ":4238,"ÑģÑĤÑĭÐµ":4239,"ĠÐ±Ñ¹Ð´Ñ¹":4240,"Ð¾Ð¼Ð¸Ð½Ð°":4241,"ĠÐ´Ñ£ÑĤÐµÐ¼ÑĬ":4242,"ĠÑģÐ¿ÑĢÐ°ÑĪÐ¸":4243,"ÑĢÐµÑĤÑĮ":4244,"ÑĪÑĤÑĮ":4245,"ÐºÐ°Ñ§":4246,"Ð¶ÐµÑĤÑĬ":4247,"Ð¾Ð¿ÑĬ":4248,"ĠÐ²Ð·Ñ§ÑĤÐ¸":4249,"ĠÑĩÐµÐ»Ð¾Ð²Ñ£ÐºÐ°":4250,"ĠÐ²Ð¾ÑĤÑĩÐ¸Ð½Ñĥ":4251,"ÑĢÑĸÐ¸":4252,"ĠÐ¿ÑĢÐ¸Ð¸Ð¼":4253,"ĠÐ²Ð¾ÑģÑĤ":4254,"ĠÐ±Ñ¹Ð´ÐµÑĤ":4255,"ĠÑģÑ£Ð´Ðµ":4256,"ĠÑĤÑıÐ³":4257,"ĠÐ´Ð¾Ð¼Ð°ÑĪ":4258,"ĠÐ¿Ñĭ":4259,"ĠÐ»ÐµÐ´":4260,"ĠÐ¶Ð¸Ð²Ñĥ":4261,"Ð»Ñ§ÑĤÐ¸":4262,"ĠÐºÑĢÐ°Ð»ÐµÐ²Ð½Ð°":4263,"ĠÐºÐ¾Ð²":4264,"Ð½Ð¸ÑĨÑ£":4265,"Ñ¡Ð±ÑĢÐ°":4266,"Ð²Ñ£ÑģÑĤÐ¸":4267,"ĠÑĤÑĢÐ¾Ð¸":4268,"ĠÐŁÐµÑĤÑĢÑĬ":4269,"Ð²Ð°ÑİÑĤ":4270,"ĠÐ¿ÑĢÐ¸ÑģÐ»Ð¸":4271,"ĠÐ²ÑģÑ§ÐºÑĬ":4272,"ĠêĻģÐ²Ñ£":4273,"ĠÐ¿ÑĥÑĤÑĮ":4274,"ĠÐ¿ÐµÑĩÐ°ÑĤ":4275,"ĠÐĵÐ¾Ð²Ð¾ÑĢÐ¸":4276,"Ð´Ð±":4277,"Ð´Ñĸ":4278,"Ð½Ð°Ð¼Ð¸":4279,"ĠÐºÐ°Ð¼ÐµÐ½Ð¸":4280,"ĠÐ²ÐµÐ»Ð¸ÐºÑĥÑİ":4281,"ĠÐ³ÑĢÐ°Ð´Ñĭ":4282,"ĠÐĵÐ°":4283,"ĠÐ¿ÐµÑĢÐµÐ¼":4284,"ĠÑģÑ¹ÑĤÑĮ":4285,"ĠÐ¿ÑĥÑĤÐ¸":4286,"Ð¾Ð¿Ð¾Ð»ÐºÑĬ":4287,"ĠÑģÐ»Ð¸":4288,"ÑĪÐµÐ²":4289,"ĠÐķÑģÑĤÑĮ":4290,"ĠÐ´Ð¸Ð²":4291,"ĠÐ·Ð°Ð¿Ð°ÑģÑĬ":4292,"ÑĤÐ¾Ñĥ":4293,"ÑĤÐ¾ÑĢÐ¾":4294,"ĠÐ²ÐµÑĢÐµ":4295,"Ð¶Ñ«":4296,"Ð³Ð°ÑĤÐ¸":4297,"ĠÐ³ÑĢÐ°Ð´Ñĥ":4298,"ĠÐłÐµÑĩÐµ":4299,"ĠÑģÑĬÑģâ¸¯":4300,"ĠÑĢÐ°Ð±Ñĭ":4301,"ĠÑģÑĬÐ¼Ñ£":4302,"ĠÐ¡ÑĮ":4303,"Ð¿Ð¸ÑĤÑĮ":4304,"ĠÐ±êĻĳÑĤÐ¸":4305,"ĠÐ½ÐµÐ¿ÑĢÐ°Ð²ÐµÐ´":4306,"ĠÐ½Ð¾Ð²Ð°":4307,"Ð·Ð´Ð¾":4308,"ÑīÐµÑĢ":4309,"Ð¾Ð³Ð¾Ð²":4310,"ĠÐ¶Ð¸Ð²êĻĭ":4311,"ĠÐ¼Ð½Ð¾Ð¶ÐµÑģÑĤÐ²Ð¾":4312,"ĠÐ¿ÑĢÐµÑĩÐ¸":4313,"ĠÐ¿Ð¾Ð²ÐµÐ»Ðµ":4314,"ĠÑģÐ¾ÑĥÑĤÑĮ":4315,"ĠÐ½Ð°Ð¼ÑĮ":4316,"ĠÐ»ÑİÐ´ÑĸÐ¸":4317,"ĠÐ¼Ð°ÐºÑģÐ¸":4318,"ĠÑĤÑĢÑĬ":4319,"ĠÐºÐ½ÑĥÑĤ":4320,"ĠÐĴÑģÑ§":4321,"ĠÑ§ÐºÐ¾":4322,"ĠÐ¿Ð¾Ð±Ñ£Ð´Ð¸":4323,"ĠÐ¿Ð¾Ð»Ð¾Ð¶Ðµ":4324,"ĠÐ±Ñ£Ð¶Ð°":4325,"ĠÐ´Ð¾Ð±ÑĢÐ¾Ð³Ð¾":4326,"ĠÐ½Ð°ÑĪÐ¸Ñħ":4327,"ĠÐºÐ¾Ð»Ð¸ÐºÐ¾":4328,"ĠÐ¿Ð¾ÑģÑĢÐµÐ´Ñ£":4329,"ĠÐ½Ð¾Ð²ÑĬÐ³Ð¾ÑĢÐ¾Ð´":4330,"Ð°Ð½Ð´":4331,"ĠÑĢÐ°Ð¸":4332,"ĠÐ¿Ð¾Ð»Ñ¹":4333,"ĠÑ¡ÑģÑĤÐ°Ð²Ð¸":4334,"ÑĢÐµÑĩÐµÐ½":4335,"ĠÑģÐ²Ð¾ÐµÐ¼":4336,"Ð²ÐµÑģÑĤÐ¸":4337,"ĠÐ½Ð¾Ð½ÑĮ":4338,"ĠÐ¾Ð¹":4339,"ĠÑĢÐ¾Ð¶ÑĮ":4340,"ĠÑģÐ»Ð¾Ð²Ñ£":4341,"ĠÐ±ÑĢÐ°Ð½Ð¸":4342,"ĠÑģÐ°Ð¼Ð¾Ð¼Ñ¹":4343,"ĠÑķÑ£Ð»Ñ¡":4344,"ÑĩÑ§":4345,"ĠÐ²Ñ£ÐºÑĭ":4346,"ĠÑģÑĤÐ°Ð»":4347,"ĠÑĥÑĩÐ¸Ð½Ð¸ÑĤÐ¸":4348,"ĠÐ³Ð¾Ð²Ð¾ÑĢÐ¸Ð»":4349,"ÑħÐµ":4350,"ÑĢÐ¸Ð»":4351,"ĠÐ¿ÑĢÐ¸ÑģÐ¿Ñ£":4352,"ĠÑķÐ²Ñ£":4353,"Ð½ÑĭÐ¸ÑħÑĬ":4354,"ĠÐ±Ð¸Ð»Ð¸":4355,"ĠÐĵÐ¾ÑģÐ¿Ð¾Ð´Ð°":4356,"ĠÑĢÐ°Ð·Ñ¹":4357,"ĠÐµÑģÐ¼Ð¾":4358,"ÑĢÐ¾Ð´":4359,"ÑĨÑ«":4360,"ĠÐ¿Ð°Ð´Ðµ":4361,"ĠÐ²ÐµÐ»Ð¸ÐºÐ¾Ñİ":4362,"ĠÐ²ÑģÐµÑı":4363,"Ð½ÑİÑİ":4364,"ĠÐ¿Ð¸ÑģÐ°ÑĤÐ¸":4365,"ĠÑĢÑĭÐ±Ð°":4366,"ĠÐ½ÐµÐ´ÐµÐ»":4367,"ĠÐ´Ð¾ÑģÐ°":4368,"ĠÐ¾ÑĤÐ²ÐµÑĤÑĩÐ¸Ðº":4369,"ĠÐ´Ñĸ":4370,"Ð¶ÐµÐ¼ÑĬ":4371,"ÑĢÐ¸Ñı":4372,"Ð±ÑĢÐ°Ð½":4373,"ÑģÑĭÐ¿Ð°":4374,"ĠÐ·Ð»Ð°ÑĤÐ¾":4375,"ÑĤêĻ¿":4376,"ĠÐµÑµ":4377,"ÑĢÑ£ÑĤÐ¸":4378,"ĠÐ¼Ð°ÑĤÑĮ":4379,"ĠÑĨÐ°ÑĢÑģÑĤÐ²Ð°":4380,"ĠÐ¿ÑĢÑ£Ð¶Ð´Ðµ":4381,"ĠÑģÐºÐ¾Ð»ÐºÐ¾":4382,"ĠÑĢêĻĭÑĨÑ£":4383,"ĠÐ¸Ð³ÑĢÐ°":4384,"Ð»Ð¸Ð¸":4385,"êĻĹÐºÐ¾":4386,"ĠÑģÐ¸Ð¸":4387,"Ð²ÑĭÐµ":4388,"ĠÐ´Ð°Ð²êĻĳ":4389,"ĠÑĢÐ°Ð·êĻĭÐ¼Ñ£":4390,"Ð±ÑĢÑı":4391,"ÑīÐµÐµ":4392,"ÐºÐ»Ð¾Ð½Ð¸":4393,"ĠÐ´Ñ¹":4394,"ĠÐĲÐ´Ð°":4395,"Ð¸ÑĤÑĭ":4396,"ĠÑĤÐ°ÑĤÐ°":4397,"Ð¿Ð¾Ð´Ð¾Ð±Ð¸":4398,"ĠÐ´ÐµÑĤÐµÐ¼":4399,"ĠÐºÐ½ÑĥÑĤÐ¾Ð¼":4400,"ĠÐºÑĭ":4401,"ĠÐºÐ¾Ð±Ñĭ":4402,"Ð±ÑĢÑ§":4403,"ĠÑĤÑĢÐµÑĤ":4404,"ĠÑĤÐ¾ÑĢÐ³Ð¾Ð²":4405,"ĠÐ±Ð»Ð¸Ð·":4406,"ĠÐ´ÑĢÑĥÐ¶Ð¸Ð½Ñĥ":4407,"ĠÐ¸Ð½ÑĬ":4408,"Ð·Ñ§":4409,"ÐµÐ½ÑĸÐ¸":4410,"ÑģÐºÑ¹":4411,"ĠÐ²Ñ£ÑĢêĻĭ":4412,"ĠÐºÐ¾ÑĤÐ¾ÑĢÐ¾Ðµ":4413,"ĠÐ¼Ð¾ÐµÐ³Ñ¡":4414,"ÑģÑĤÑĥÐ¿Ð°":4415,"ĠÐ¼Ð¾Ð»Ð¾Ð´ÐµÑĨ":4416,"Ð²Ð»Ð°":4417,"ÑģÑĤÑĸ":4418,"ĠÐ¿ÑĢÐ¸ÑĪÑĮ":4419,"ĠÐ¾ÑĥÐ³":4420,"ÑģÐºÐ²ÐµÑĢ":4421,"ĠÑģÐ»Ð°Ð´":4422,"ĠÐ¼ÑĭÑģÐ»Ð¸":4423,"ĠÐĲÐ»ÐµÐºÑģÐ°Ð½Ð´ÑĢÑĥ":4424,"ĠÐºÐ»ÐµÐ²ÐµÑĤ":4425,"Ð»Ð½Ð¾":4426,"ĠÐ¶ÐµÐ½ÑĮ":4427,"Ð½ÐµÑģÐµ":4428,"ĠÑģÐ¾Ð»ÑĮ":4429,"Ð²Ð°Ð°":4430,"Ð²Ð°Ñ§":4431,"ĠÐ´Ð°ÑĢÑĬ":4432,"Ð¾ÑĥÐ¼Ð¾Ñĥ":4433,"ĠÑħêĻĭ":4434,"ÑĩÐ¸ÑĤÑĮ":4435,"ĠÐ²Ð¸Ð´Ñ§":4436,"Ð½ÑĭÐ¸Ñħ":4437,"Ð¼Ð¾Ð¶Ðµ":4438,"ĠÐ´Ð»ÑĬ":4439,"ĠÐ¿ÑĢÐ¾ÑĢÐ¾":4440,"ĠÐ·ÐµÐ»":4441,"ĠÐ¶ÐµÐ½Ð¸":4442,"ĠÐ³Ð»Ð°Ð²Ñĥ":4443,"ĠÐ±Ð¾Ð»ÐµÐ·":4444,"ĠÐ°ÑĢÑħÐ¸Ðµ":4445,"ĠÐ¸Ð³Ñ¹":4446,"ĠÐ¿Ð¾ÑģÐ»Ð°Ð»ÑĬ":4447,"ĠÐ¥Ð¾":4448,"ĠÐ¿Ð¾ÑĪÐ»Ð¸Ð½":4449,"ĠÐ´Ð¾Ð±ÑĢÐµ":4450,"ĠÐ¿Ð»Ð¾Ð´":4451,"ÑıÐ¹":4452,"ĠÐ¿Ð¾ÑĩÐ¸":4453,"ĠÐ·Ð¾Ð²":4454,"Ð½Ð¾Ñ¥":4455,"ĠÐ¼Ð¾Ñī":4456,"ĠÐ¿ÑĢÐ¾ÑĪ":4457,"ĠÐ²ÐµÐ»Ð¸ÐºÑĭ":4458,"ĠÑģÑ«ÑĤÑĬ":4459,"ĠÐ°Ð½ÑĤ":4460,"ĠÐĺÐ²Ð°":4461,"ÑģÑĤêĻĭÐ¿Ð¸":4462,"ÑĩÑĬ":4463,"ÑĨÐµÐ¼ÑĮ":4464,"ÑĪÐ°Ð¸":4465,"Ð½Ð¸ÐºÐµ":4466,"ĠÐ¼Ð¾ÑĢÑİ":4467,"ĠÐ»ÑİÐ´ÑĮÐµ":4468,"ĠÐ¿Ð¾Ð¸ÑĤÐ¸":4469,"ĠÑĥÐºÐ°":4470,"ĠÐ¿ÑĢÐ¾Ñħ":4471,"êĻĭÐ´êĻĭ":4472,"ĠÐ±Ð¾Ð»ÑĮÑĪÐ¸":4473,"ĠÐķÑĢÑĥÑģÐ»Ð¾Ð½":4474,"ĠÑģÐ¾Ð¿":4475,"ĠÐ´ÑĪÐ°":4476,"ÐºÐ¸Ð¹":4477,"ĠÐ²ÑĢÐ°ÑĤÐ°":4478,"ÑĢÐ¸ÑĤ":4479,"Ð²ÑıÑĤ":4480,"ĠÐ¿Ñ«":4481,"ĠÐ´Ð°ÑĢÐ¾Ð²Ð°":4482,"ÑĢÐ¸ÑĩÑĮ":4483,"Ð¾ÐºÑĥ":4484,"Ð¾Ð²Ð¸ÑĩÑĮ":4485,"ĠÑĢÑĥÐ±Ð»Ñ§":4486,"ĠÐ²Ð¾Ð·Ð»ÑİÐ±Ð»ÐµÐ½":4487,"Ð¸Ð½Ñĥ":4488,"Ñ§Ð½":4489,"ĠÑ¡Ð²Ð¾":4490,"ÐµÐ´ÑĮ":4491,"Ð³Ð¾ÑĢÐ¾Ð´Ð°":4492,"ĠÑĤÐ¾Ð±Ð¸":4493,"ĠÐ¢Ð°ÐºÐ¾Ð¶Ðµ":4494,"ĠÐ±ÐµÑģÐ¿":4495,"ĠÑĢÐ¾Ð´Ð¸ÑĤ":4496,"ĠÐ½Ð°Ð¿Ð¸ÑģÐ°Ð½Ð¾":4497,"Îµ":4498,"ĠÐ½Ð°ÑģÑĤÐ°Ð²":4499,"ÑģÑĤÐµÐ¸":4500,"ĠÑ³Ðµ":4501,"ĠÑĤÐµÐ¼Ð¸":4502,"ĠÑģÐ²ÑıÑīÐµÐ½":4503,"ÑĢÐ¾Ð²ÑĬ":4504,"ÑĪâ±ķ":4505,"ĠÐ¿Ð¾ÐµÑħÐ°Ð»":4506,"ÐºÐ°Ñı":4507,"ĠÐŁÐµÑĢ":4508,"ĠÑģÐ¸Ñĩ":4509,"Ð½ÐµÐ¼Ñĥ":4510,"Ð»ÐºÐ¸":4511,"Ð¶êĻĭ":4512,"ĠÐ´Ð°Ð²Ð°ÑĤÑĮ":4513,"ÑĩÐµÐµ":4514,"ĠÐ¿Ð¾ÑģÐ»Ð¸":4515,"ÑĶÐ½":4516,"ĠÐ²Ð¾Ð´Ð¾Ñİ":4517,"ĠÐ¶ÐµÑĢÐµÐ±ÑĮ":4518,"ĠÐ¸ÐºÐ¾Ð½":4519,"ĠÐ¸Ð¼ÐµÐ½Ð¸":4520,"ĠÐ¾Ð½Ð¾":4521,"ÑĤÐ¸Ñİ":4522,"ĠÑĩÐµÑĢÐµ":4523,"ĠÐĿÑĭ":4524,"ĠÐ¿Ð¾Ð»Ñİ":4525,"ÑĩÐ°Ñİ":4526,"Ð³Ð¾ÑĢÐ°":4527,"ĠÑģÑ£Ð¼Ð¾":4528,"ĠÑĢÐ¾Ð·Ð±Ð¾Ð¹":4529,"ĠÑĢÐ¸Ð·Ñĭ":4530,"ĠÐ³ÑĢÐ¸Ð²ÑĮÐ½Ð¾":4531,"ÐµÐ²Ðµ":4532,"Ð´Ð¾ÑģÑĤÑĮ":4533,"ĠÑģÑĤÐ°Ð»ÑĬ":4534,"Ð±ÑĭÑĤ":4535,"ĠÐ¿Ð»Ð¾ÑĤ":4536,"Ð»ÑŃ":4537,"ĠÐ½Ð°Ð·Ð°":4538,"ĠÐ¼Ð¾Ð»Ñİ":4539,"ĠÑģÐ¾Ð±Ñ§":4540,"ĠÑĩÐµÑĢÐ½Ð¸":4541,"Ð´ÑĨÐ°ÑĤÑĮ":4542,"ÑĤÐ¾Ð»":4543,"Ð±ÐµÑĢ":4544,"Ð¾Ð³Ð¸Ð²Ð°":4545,"ĠÐ¼ÑĬÐ½":4546,"ÑĦÑ£":4547,"Ð»ÑĸÐµ":4548,"ĠÐ²ÑĮêĻģ":4549,"ĠÐ³ÑĢÑ£ÑĪÑĮ":4550,"Ð¸Ð´Ð¾ÑĪÐ°":4551,"ĠÐ¿Ð¾ÑĤÐµ":4552,"ĠÐ´Ð¾ÑĩÑĮ":4553,"ĠÐ³ÑĢÐ¸Ð³Ð¾ÑĢÐ¸":4554,"ĠÐ»Ð°Ð·":4555,"ĠÑħÑĢÐ¸ÑģÑĤÐ¾ÑģÑĬ":4556,"Î¿Ï":4557,"ÐµÐ½Ð¸Ðµ":4558,"ĠÐ½ÐµÑİ":4559,"Ð»Ð¸Ð½Ð°":4560,"ÑĢÐ¸Ñ§":4561,"ĠÐ¾ÑĥÐ¿":4562,"ĠÑĤÐ²Ð¾ÐµÐ¼Ñĥ":4563,"ĠÐ²ÑĮÑģÑ§":4564,"ĠÑģÐ²Ñ£Ð¸":4565,"ĠÐ´ÑĢÑĥÐ³Ð¾Ð¹":4566,"ĠÑģÑī":4567,"Ð¾Ð¼Ð¾Ð»":4568,"Ñ§ÑĤÑģÑ§":4569,"ĠÐ¿êĻĭÑĤÐ¸":4570,"ĠÐ´Ð¾Ð²Ð¾Ð»":4571,"ĠÐļÐ¸ÐµÐ²":4572,"ÑĪÐµÐ½Ð¾":4573,"ĠÐ²ÑģÐµÐ¸":4574,"ĠÑĩÐ¸Ð½Ð¾Ð²":4575,"ĠÑģÐºÐ¾ÑĢÐ±":4576,"Ð»Ñĳ":4577,"ÑıÐ½Ð¸":4578,"ĠÐºÐ°ÐºÐ¾Ðµ":4579,"ĠÐºÐ°Ð±Ð°Ð»Ñĭ":4580,"ĠÐ²ÑĬÐ·ÑĮÐ¼Ð¸":4581,"ÑĨÑı":4582,"ĠÐ´Ð°Ð½Ñĭ":4583,"ĠÐ¼Ñ£ÑģÑĤÐµ":4584,"ĠÐ¿Ð¾Ð¼Ð¾ÑīÑĮ":4585,"ĠÐĴÐ¾Ð»Ð¾Ð´Ð¸":4586,"ĠÐ¾Ð·":4587,"ĠÐ¶ÐµÑĢÐµÐ±":4588,"ĠÑ¡Ð»Ðµ":4589,"Ð²Ð¸Ð¸":4590,"ĠÑĨÑģ":4591,"ĠÐ¿Ð»Ð°ÑĤÑĮÐµ":4592,"ĠÐ²Ð»Ð°ÑģÑĤÐ¸":4593,"ĠÐ¼Ð»ÑģÑĤÑĮ":4594,"ĠÑģÐºÐ°Ð¶ÑĥÑĤ":4595,"ĠÐ¼Ð¾Ð»Ð¸ÑĤÐ²Ð°":4596,"ÑĪÐµÐ½Ð¸Ðµ":4597,"Ð»Ñ£Ð½":4598,"ĠÐ²Ð¸Ð½Ñĭ":4599,"ĠÑĥÑĩÐ¸Ð½Ð¸ÑĤ":4600,"ĠÐ¼Ð¸ÑħÐ°Ð¸Ð»Ð°":4601,"ÑģÐ½Ð°":4602,"Ð´Ð½Ð°":4603,"Ð´ÑĢÑĮ":4604,"ĠÐ¾ÑģÑĤÑĢ":4605,"ĠÐ½ÐµÐ³Ñ¡":4606,"Ð»Ð¸Ð¼":4607,"ĠÐ¿ÑĢÐ¸êĻĹ":4608,"ĠÐ¿ÑĢÐ¸Ð¿Ð°":4609,"ĠÑħÐ¾Ð»Ð¾Ð¿Ð°":4610,"ĠÐ¿Ð¾Ð²ÐµÐ»Ð¸":4611,"Ð´Ð¸ÑĤÑĬ":4612,"ĠÐ½Ð¾Ð²Ñ£":4613,"Ð³Ð¾Ð´Ð°":4614,"ÑģÐµÑİ":4615,"ĠÐļÐ¾ÑĤ":4616,"ĠÐ´Ñ£Ð»Ð¾Ð¼ÑĬ":4617,"ĠÐºÐ¾Ð½Ñ§":4618,"Ð±Ð»Ðµ":4619,"ĠÑģÑĬÐº":4620,"ĠÑĤÐ¾Ñİ":4621,"ĠÐ´Ñ£ÑĤÑĮ":4622,"ĠÑģÐ²Ð¾Ð¸Ð¼Ð°":4623,"ÑģÑĤÑĥÐ¿":4624,"ÐºÑĮÑĸ":4625,"ĠÐ¿ÐµÑĩÐ°Ð»ÑĮ":4626,"ÑĪÑĤÐ¾Ñĥ":4627,"ĠÐ¿ÑĪÐµ":4628,"ÑģÑĤÐ²ÑĬ":4629,"ÑıÑħ":4630,"ĠÐ½Ð°Ð¿Ð¾":4631,"ĠÐ·Ð°ÐºÐ»Ð°Ð´":4632,"ÑĤÐ°Ñı":4633,"ĠÐ¡Ð»":4634,"ĠÑģÑĤÐ°Ð²Ð¸ÑĤÐ¸":4635,"ÑħÐ¾Ð´Ñ§":4636,"ĠÐ¸ÑģÑĨÑ£":4637,"ĠÑĢÑĭÐ±":4638,"ĠÐ¼Ð°Ð½Ð°ÑģÑĤÑĭÑĢÑĮ":4639,"Ð³Ð½Ð¸":4640,"ĠÐ¾ÐºÐ°":4641,"Ð²Ñ£Ðµ":4642,"ĠÑĸÑģ":4643,"ĠÐķÐ³Ð¾":4644,"ĠÐ²ÑģÑ§ÐºÑ¹Ñİ":4645,"ĠÐ¿ÑĢÐ¾Ð¼ÑĭÑģÐ»":4646,"ÑĥÑģÑĤÐ¸":4647,"ÑıÐ¼":4648,"ĠÐ½Ð°ÑĢÑ§":4649,"Ð²Ð°ÐµÑĤÑĮ":4650,"ĠÐ¾ÑĤÐ²Ðµ":4651,"ÑīÐ¸Ð¸":4652,"ĠÐĳÐ¾Ð»":4653,"ĠÐ¾Ð±ÑĢÑı":4654,"ĠÐ¸ÑģÑĨ":4655,"ĠÐ´Ð¸Ñı":4656,"ĠÐ´Ð¾ÑģÑĤÐ°":4657,"ĠÐºÐ½ÑıÐ¶Ðµ":4658,"ĠÐ³ÑĢÐ¸Ð²Ð½Ð¸":4659,"ÑĳÑĤ":4660,"ĠÑģÐµÑĢÐ³":4661,"ĠÐ¿Ð¾Ð¹":4662,"Ð¾Ð´Ðµ":4663,"ĠÐ¿Ð¸ÑĤÑĮÐµ":4664,"ĠÐ±Ð¾Ð³Ð¾ÑĢÐ¾Ð´Ð¸":4665,"ĠÐ½Ð°Ð´Ð¾Ð±":4666,"ĠÐ·Ð°Ð¿Ð°Ñģ":4667,"Ð»Ð¾ÑģÑı":4668,"ĠÐ±Ð»Ð°Ð³Ð¾Ð´Ñ£":4669,"ĠÐ¿Ð¾Ð¼ÑĭÑģÐ»Ð¸":4670,"ĠÑģêĻĭÐ´":4671,"ĠÑģÑĥÐ´Ð¸":4672,"ĠÐ·Ð°Ð¿Ð»Ð°ÑĤÐ¸":4673,"Ð»Ð¼Ð°":4674,"ÑĨÑ¹":4675,"ĠÐ°Ð»ÐµÑ¯":4676,"ĠÐ¶Ð¸Ð»Ð¸":4677,"ĠÑĤÐ¾Ð¼êĻĭ":4678,"ĠÐºÐ½Ñ§Ð·Ð¸":4679,"Ð½ÑĨÐ°":4680,"ĠÐ½ÐµÑĩÐµÑģÑĤÐ¸":4681,"ÑģÐ»Ñĭ":4682,"Ð¾Ð²ÑĭÐ¼ÑĬ":4683,"ĠÐ¸Ð¼Ð°ÑĪÐ¸":4684,"ĠÑģÑĤÐ¾Ñ§":4685,"ĠÑģÐµÐ»Ðµ":4686,"Ð½Ð¸Ð¼":4687,"ĠÑģÐ¸Ñİ":4688,"ĠÑģÐ²Ñ£ÑĤÐ¸":4689,"ĠÐĵÐ¾ÑģÐ¿Ð¾Ð´Ð¸":4690,"ĠÐ°Ð±ÑĸÐµ":4691,"ÑģÐºêĻĳÐ¸":4692,"Ð¼Ñ£ÑħÑĬ":4693,"ĠÐ¶Ð¸Ð·Ð½ÑĮ":4694,"Ð±Ð°Ð²":4695,"ĠÐ´Ð²Ð¾ÑĢÐµ":4696,"ĠÑĩÑĤÐ¾Ð±ÑĬ":4697,"ĠÐ®":4698,"Ð½ÐµÐ½ÑĬ":4699,"ÑģÑĤÐ¾Ð¼ÑĬ":4700,"ĠÐ½ÐµÐ´Ñ£":4701,"Ð²ÐµÑģÐµÐ»Ð¸":4702,"ĠÐ¿Ð¾Ð´Ð»Ð¸Ð½":4703,"ÐµÐ»ÐµÐ¸":4704,"ĠÐ´Ð°Ð²ÑĸÐ´ÑĬ":4705,"ĠÐŁÐ¸ÑģÐ°":4706,"ĠÐ¿ÑıÑĤ":4707,"ÑĩÑı":4708,"Ð½Ð¸ÑĤÑĬ":4709,"ÐºÐ°Ð²":4710,"ĠÐ²ÐµÐ»Ð¸ÐºÐ¾Ðµ":4711,"ĠÑģÑĭÐ½Ñĥ":4712,"ĠÐ±êĻĳÑģ":4713,"ĠÑģÐµÑĢÐµÐ±ÑĢÐ¾":4714,"ĠÑģÑĤÐ¾ÑĢÐ¸":4715,"ĠÑ¡Ðº":4716,"ĠÑĤÐ¾Ñı":4717,"ĠÐ¿Ð¾Ð¼Ñ£":4718,"ĠÑģÐ¾Ð±Ð°":4719,"ĠÑĤÐ²Ð¾Ð¹":4720,"ÑģÐ»Ñ£":4721,"ĠÑĤÑ¡":4722,"ÑĪÑ¹":4723,"ÑħÐ¶Ðµ":4724,"ĠÐ²ÑģÐµÐ´":4725,"ÐºÐ¸ÐµÐ²":4726,"ĠÐ´Ð¾Ð¼Ñĭ":4727,"ĠÐ»ÑİÐ±Ð¾Ð²Ð¸Ñİ":4728,"ÑĪÐµÐ½ÑĮÐºÐ¾":4729,"ĠÐĶÐ¾Ð±ÑĢÑĭÐ½ÑİÑĪÐºÐ°":4730,"ÑĪÐµÑĤÑĮ":4731,"ĠÐ²ÑĮÑģÐ¸":4732,"ĠÐ±ÑĢÐ°ÑĤÑĸÐµ":4733,"ĠÐ¼Ð¾Ð¶ÐµÑĤÑĮ":4734,"ĠÐ¿Ð¾Ð¼Ð¸Ð»Ð¾Ð²Ð°":4735,"ÐºÐ¾Ð²Ð¾":4736,"ÑĩÐ½Ð¾Ðµ":4737,"ĠÐ¿ÑĢÑĸÑ§":4738,"ÑĩÐ¸Ð¼":4739,"ÑĩÐ°Ð´":4740,"ĠÐĵÐ¾":4741,"ĠÐ¿ÑģÐ°":4742,"ĠÐ¿Ð¾Ð²Ñĭ":4743,"ÑĪÐ¸ÑĤÑĮ":4744,"ĠÐĶÐ¾":4745,"ĠÑģÑĤÐ°Ð²":4746,"ĠÐ¿ÑĢÐ¿Ð´Ð±":4747,"ĠÑģÑİ":4748,"ĠÐ¸ÑģÑĨÑĥ":4749,"ĠÐ³ÑĢÐ¸Ð²ÐµÐ½ÑĬ":4750,"ĠÐ¿Ð¾Ð±Ð¸":4751,"ĠÐ³Ð¾Ð´ÑĬ":4752,"ĠÐºêĻĭÐ¿":4753,"ĠÐ¾ÑĤÐ¿ÑĥÑģÑĤÐ¸":4754,"ĠÐŁÐ¾Ð¼":4755,"Ð±Ð¸Ðµ":4756,"Ð¾Ð²Ð¸ÑĩÑİ":4757,"ĠÐ²ÑĮÑģÑĮ":4758,"ĠÑİÐ¶Ðµ":4759,"Ð¾ÑģÐ»Ð°Ð²ÑĬ":4760,"ĠÐ²Ñ£ÑĢÐ¾Ð²Ð°":4761,"ÑĢÐ°Ð¼Ð¸":4762,"êĻĭÑİ":4763,"ĠÐ¿ÑĢÐµÑģÑĤÐ°":4764,"ĠÑĩÐ¸ÑģÐ»Ð¾":4765,"ĠÐĽÑĥ":4766,"ÑģÐ°ÑĢ":4767,"ĠÐ¸Ð³":4768,"êĻĭÐ´Ð¸":4769,"ÑīÐ¾Ñĥ":4770,"ÐºÐ°ÑĤÐ¸":4771,"ĠÐ¾Ð±Ð¾ÑĢ":4772,"Ð»ÐµÐ½Ñĭ":4773,"Ð´Ñ§ÑĤÑĮ":4774,"ĠÐ´ÑĥÐ±":4775,"ĠÐ¼ÐµÑĢÑĤ":4776,"ÑĢÑĤÐ¸":4777,"ÑĢÐµÐ¼ÑĬ":4778,"ĠÐ´Ð²ÐµÑĢ":4779,"ĠÐ¾ÑĥÑĩÐµ":4780,"ÑĪÐ¸ÑģÑı":4781,"Ð¾Ð·ÐµÐ¼":4782,"ĠÑģÐ»ÑĭÑĪ":4783,"ĠÐ²Ñ£ÑĢÑĭ":4784,"ĠÐ¼Ð¾Ð»ÑĩÐ°":4785,"ĠÐ¼ÑĮÐ½ÑĮ":4786,"ĠÐ³Ð½Ñ£Ð²Ð°":4787,"ĠÐ±Ð°ÑĤÑİ":4788,"ĠÑ¡Ð¶Ðµ":4789,"ĠÐ²Ð¾Ðµ":4790,"ĠÐ¾ÑĤÐ¿Ð¸":4791,"ĠÐ±Ð»Ð°Ð¶ÐµÐ½":4792,"ĠÐ¿Ð¾ÑģÐ»Ð°ÑĪÐ°":4793,"ĠÑģÐµÐ¼ÐµÐ½":4794,"ÐºÐ¾Ð²Ð¸":4795,"ÑĩÐ¸Ðµ":4796,"ĠÑĤÐ°ÐºÐ¾Ðµ":4797,"ĠÐ½Ð°Ð´Ð¾Ð±Ðµ":4798,"ĠÐ¿Ð¾Ð¼Ð¸Ð½Ð°":4799,"ĠÐ±ÑıÑĪÐµ":4800,"ÐºÑĥÐ¿":4801,"ĠÑģÐ²Ð¾ÐµÑ§":4802,"Ð¿ÑĢÐ¾ÑģÐ¸":4803,"ĠÐ±Ñ«Ð´ÐµÑĤÑĬ":4804,"Ð³Ð¾Ð¼":4805,"ÑīÑ«":4806,"êĻģÐ´Ð°":4807,"Ð²Ð¾Ð»ÑĬ":4808,"ĠÐ§Ñĥ":4809,"ĠÑĤÐ¾ÑĢÐ³Ñ¹":4810,"ĠÑģÑµ":4811,"Ð¿Ð¾Ð²Ñ£":4812,"ĠÐ¿Ð¾ÑĨ":4813,"ĠÐ¿ÑĢÐµÐ´Ñ£":4814,"ĠÐ³ÑĢÐ¸Ð²ÐµÐ½Ðµ":4815,"ĠÐ¾Ð±ÑĭÑģÐº":4816,"ĠÐ²Ð½Ð¸Ð´Ðµ":4817,"Ð²ÑĪÐ°Ð³Ð¾":4818,"ĠÐ²Ð¾ÑĢÐ¾ÑĤÐ¸":4819,"ĠÐ¿ÑĢÑĩ":4820,"ĠÐ¼ÐµÑģÑı":4821,"ĠÐ±Ð»Ð°Ð³Ð°":4822,"ĠÐ±Ð¾ÑĢÐ¸Ñģ":4823,"ĠÐ½Ð¸ÐºÐ°ÐºÐ¾Ð¶Ðµ":4824,"ĠÐ²Ð°ÑĪÐ¸ÑħÑĬ":4825,"Ñ¡ÑĤ":4826,"ĠÐ²Ð¸Ð½Ð¾":4827,"Ð¼ÐµÑĪÐ¸":4828,"ĠÐ¸ÑħÑĮ":4829,"ĠÐ³ÑİÑĢÑĮ":4830,"ĠÐŁÐ¾Ð½ÐµÐ¶Ðµ":4831,"Ð´Ð¸Ð»":4832,"ÑĤÐ²êĻĭ":4833,"ĠÐ¼Ð¾Ð¶ÐµÑĤ":4834,"ĠÑģÐ¿Ð°ÑģÐµ":4835,"ÑģÑĤÑ¹Ð¿":4836,"Ð·Ñİ":4837,"ÑĩÐµÐ¼":4838,"Ð²Ð¾Ñ¥":4839,"Ð¶Ñ¹":4840,"ĠÐ¿ÑĢÐ¸ÑĪÐµ":4841,"Ð´Ð¸Ð»Ð¸":4842,"ĠÐ¶Ñ§":4843,"ĠÐ¿ÑĢÐµÐ¿Ð¾Ð´Ð¾Ð±":4844,"ĠÐ±Ð¾Ð»Ð³Ð°ÑĢÐ¸":4845,"ĠÐºÑĢÐ¾Ð²Ð¸":4846,"Ð²ÑĢÐ°ÑīÐ°":4847,"ĠÐ¿Ð¾Ð±Ðµ":4848,"ÐºÐ¾Ð½ÑĮ":4849,"ĠÐ²Ð¾ÑĢÐ¾Ð²":4850,"ĠÐ²Ð°ÑĪÐµÐ³Ð¾":4851,"ĠÐ¿ÑĢÐ¾Ð¿Ð¾Ð²Ñ£Ð´Ð°":4852,"Ñ§ÑģÑ§":4853,"ĠÐ¿Ð¾Ð¾Ñĥ":4854,"ĠÐ»Ð¶Ð¸":4855,"ĠÐ¿Ð¾Ð»ÑĤÐ¸Ð½Ð°":4856,"ÑĤÑĭÑħ":4857,"ĠÐ¸ÑģÐ¿Ð¾Ð²Ñ£Ð´Ð°":4858,"Ð»Ð¾ÑģÑĮ":4859,"ĠÐ²Ð·ÑıÐ»":4860,"ĠÐ¿ÑĢÐ¸ÐºÐ°Ð·ÑĬ":4861,"ĠÐ½Ð°Ð¿ÑĢÐ°ÑģÐ½Ð¾":4862,"ÑĤÐ¾Ðº":4863,"êĻĥ":4864,"ĠÐ¾Ð±Ð¾":4865,"êĻģêĻĳ":4866,"ĠÑģÐ»Ñ¹Ð³ÑĬ":4867,"ĠÐ³ÑİÑĢÐ³":4868,"ĠÐħ":4869,"ÑıÑīÐµ":4870,"Ð¾Ð²Ñ¹":4871,"ÑĪÐ¸Ð½Ð°":4872,"Ð²Ñ£ÑģÑĤ":4873,"ĠÐ²ÑģÑ£Ð¼":4874,"ĠÑģÑĤÐ¾Ð¸":4875,"ĠÐ³Ð¾ÑĢÐ¾Ð´Ð¾Ð²":4876,"ĠÐ·Ð°Ð¿Ð¾Ð²Ðµ":4877,"ĠÑĢÐ¾ÑĥÑģÐ¸":4878,"Ð»ÐµÑĤÑĬ":4879,"ÐºÐ°Ð³Ð¾":4880,"Ð¼Ð¸ÑĢÐ¸":4881,"Ð»ÐµÐ²Ð°":4882,"Ð»ÑİÐ±Ð¸":4883,"ĠÐ¿Ð¾ÐºÐ¾":4884,"ĠÐ±Ð¾Ð»Ñ§":4885,"ÐµÐ½ÑĭÑħ":4886,"ĠÐ½Ð°ÑĪÐ¸Ð¼":4887,"ĠÑħÑĢÐ¸ÑģÑĤÐ¸ÑıÐ½":4888,"ÑĸÑĶ":4889,"ĠÑģÐ»ÑĮ":4890,"ÑģÐ¿Ð¾Ð»":4891,"ĠÐ½Ñ£ÑĤÑĬ":4892,"ĠÑģÑ£Ð¼Ñ§":4893,"ĠÐ½Ð°ÑĪÐ¸Ð¼ÑĬ":4894,"ĠÐ²Ð½Ñĥ":4895,"ĠÐŁÐ¾Ð¿":4896,"Ð½ÑĥÐ»":4897,"ÑĢÐ¾ÑĪÐ°":4898,"ĠÐ¿Ð¾ÐºÐ¾ÑĢ":4899,"ĠÐ¿Ð¾ÑĤÑĢÐµ":4900,"ĠÑĢÑĥÐ±Ð»ÐµÐ²ÑĬ":4901,"ĠÑĩÐµÐ»Ð¾Ð²ÐµÐºÑĥ":4902,"ĠÐ¿Ð¾ÐºÐ°êĻģÐ°":4903,"ĠÑģÐ»Ð¾Ð²ÐµÑģÑĬ":4904,"ĠÑģÑĤÐ°Ð½ÐµÑĤ":4905,"ĠÐ¿Ð¾ÑĤÐ¾Ð¼ÑĬ":4906,"ĠÑĤÑĢÐ¾Ñĥ":4907,"ĠÐ¿Ð¾ÑĪÐµÐ»":4908,"ĠÐ¿Ð¾ÑģÑĬÐ»Ð°":4909,"Ð»êĻ¿":4910,"êĻģÐµ":4911,"Ð°ÐºÑĬ":4912,"ĠÐ²Ñ£ÑĢÐ°":4913,"ĠÐ¿Ð¸Ð²":4914,"ĠÐĽÑİ":4915,"ĠÐ´ÐµÑģÑ§ÑĤÐµ":4916,"ÐµÐ²Ñĥ":4917,"ÐºÐ¸Ð¼ÑĬ":4918,"ĠÑģÐ°Ð¼ÑĮ":4919,"ĠÐ²Ð°Ð²":4920,"Ð·Ð°Ð½":4921,"ĠêĻħ":4922,"ĠÐĶÐ°Ð½Ð¸":4923,"ÑĤÑĭÐµ":4924,"ĠÐ½Ð¸ÑħÐ¶Ðµ":4925,"ĠÑĢÐ¾Ð´ÑĬ":4926,"ĠÑĸÑ¡Ð°":4927,"ĠÐ¿Ð°ÐºÐ¾ÑģÑĤÐ¸":4928,"Ïģ":4929,"ĠÐ¿Ð¾Ð²Ð°":4930,"Ð¾ÑĢÐ¾Ð´":4931,"ĠÐ¼Ð¸ÐºÐ¸":4932,"ĠÐ¸Ð·Ð¾":4933,"ĠÐ²ÐµÐ»ÐµÐ½Ð¾":4934,"ĠÐ²ÑģÐµÐ¼Ð¸":4935,"Ð´ÐµÑģÑıÑĤ":4936,"ÐµÐ»Ñĭ":4937,"ĠÐ¿ÑĢÐ¸Ð·":4938,"ĠÐĿÑĮ":4939,"Ð»ÑĥÐ¸":4940,"ĠÐ±Ð¸Ð»ÑĬ":4941,"ĠÐ¿ÑĢÑĸÐµÐ¼":4942,"ĠÐºÑĢÑ£Ð¿ÐºÐ¾":4943,"ĠÐ´ÐµÐ½ÐµÐ³ÑĬ":4944,"ÑģÑĸ":4945,"ĠÐºÐ°ÑĢ":4946,"Ð°ÑĢÑİ":4947,"ĠÐ²ÐµÑĩ":4948,"Ð»ÑĮÐº":4949,"ĠÑģÐ°Ð¿":4950,"ÑħÐ¾Ð´Ð¸ÑĤ":4951,"ÑģÑİ":4952,"Ð³Ð¾Ðµ":4953,"ĠÐ·Ð°Ð±":4954,"Ð´ÐµÐ»Ð¸":4955,"ÑĪÐ¸Ð¼":4956,"ÑģÐºÑ«":4957,"Ð¾Ð´Ð¸ÑĤÐ¸":4958,"ĠÐ¼Ð½Ð¾Ð¶ÑĮ":4959,"ĠÐ¶Ð¸Ð²ÑĬ":4960,"ĠÑģÐ¾Ð±Ð»Ñİ":4961,"ĠÐ½Ð°ÑĪÐµÐ¼Ñĥ":4962,"ĠÐ¼ÑĬÐ½Ñ£":4963,"ÑİÑīÑĸÐ¸":4964,"ĠÑħÐ¾ÑīÐµÑĤÑĮ":4965,"ÑģÑĤÐ²Ð¸Ðµ":4966,"ĠÐ¾ÑĤÐµÑĨÑĬ":4967,"ĠÐ½ÐµÐ¶ÐµÐ»Ð¸":4968,"ĠÐĵÐ»Ð°Ð³Ð¾Ð»":4969,"ĠÐ´ÑĸÐ°":4970,"ĠÐ±Ð¾Ð±Ñĭ":4971,"ĠÑģÐ¸Ð»Ðµ":4972,"ĠÑģÐ°Ð¶Ðµ":4973,"ĠÑģÑĤÑĢÐ°Ð´":4974,"ĠÐ¿Ð¾Ð³ÑĥÐ±Ð¸":4975,"ĠÐ±Ð¾Ð±":4976,"Ð¾Ð³Ð´Ñĭ":4977,"ĠÐ´Ð°ÑĢÑĭ":4978,"ĠÑģÑĤÐ³Ð¾":4979,"ĠÐ¿ÑĢÐ¸ÐµÑħÐ°":4980,"ÑĸÐ¸Ð¼ÑĬ":4981,"ĠÐ²Ñ£ÐºÐ¸":4982,"Ð±ÑĢÐ°ÑĤÐ¸":4983,"ĠÑĩÐ°ÑģÑĤÐ¸":4984,"ÑģÐµÑĢ":4985,"ĠÐ¿ÑĢÐ¾Ð»Ð¸":4986,"ĠêĻĭÐ±Ð¾":4987,"ĠÐ³Ð¾Ð²Ð¾ÑĢÐ¸ÑĤ":4988,"ĠÐľÑĥÑĢÐ¾Ð¼ÐµÑĨ":4989,"ĠÑģÐ¼ÑĮ":4990,"ÑĢÐ°Ð²ÑĬ":4991,"ĠÑĥÑģÑĤÐ°":4992,"ÑĹÐ°":4993,"ĠÐ²ÑĮÑģÑı":4994,"ÑģÐ»Ð°Ð²Ñĥ":4995,"ĠÐ¼êĻĭÐ¶ÑĬ":4996,"ĠÐ¾ÑĤÑĢÐ¾ÐºÑĬ":4997,"ĠÐ¸Ð´Ñĥ":4998,"ĠÐ¿ÑĢÐ¸ÑĩÐ°":4999,"Ð´Ð¸Ðµ":5000,"ĠÐ·Ð°Ð´":5001,"ĠÐ¿Ð¾ÑħÐ²Ð°Ð»Ð¸":5002,"ĠÑģÐ¿Ð°Ñģ":5003,"ĠÐ½Ð°Ð¿Ð¾Ð»":5004,"ĠÐ±ÑĢÐ°ÑĤÑĮÐµÑİ":5005,"ÑĤÐ¾Ð³Ð¾":5006,"ÑģÐ¾Ð¶Ðµ":5007,"Ð¼Ð»Ñ§":5008,"ĠÐ³êĻĭ":5009,"ĠÐ¾ÑĥÑĩÐ¸":5010,"ĠÑģÐ»Ð¾Ð±":5011,"ĠÑ¥Ð¼Ð¾Ñĥ":5012,"Ð²ÐµÑģ":5013,"Ð±ÐµÐ¶Ð°":5014,"ĠÑģÑĤÑĢÐ°ÑħÑĬ":5015,"ĠÐ´Ñ£Ð»Ð°ÑĤÐ¸":5016,"ĠÐ¿Ñ£Ñģ":5017,"ĠÑħÐ¾ÑīÐµÑĤ":5018,"ĠÐ¸Ð·Ñ§ÑģÐ»Ð°Ð²ÑĬ":5019,"Ð»ÐµÑĤÐµ":5020,"ĠÐ·Ð¼Ðµ":5021,"Ð²Ð°Ð¹":5022,"ÑĦÑĮ":5023,"Ð·Ð¸ÑĢÐ°":5024,"ĠÑĩÐµÐ»Ð¾Ð²Ñ£ÑĩÐµ":5025,"ĠÐºÐ°Ð±Ð°Ð»":5026,"ĠÐ¿ÑĢÐ¾ÑģÐ»Ð°Ð²Ð¸":5027,"ĠÐ¼Ð¾Ð»ÐµÐ±":5028,"ĠÐ¼ÑĢÐ°":5029,"Ð½Ñ£Ðµ":5030,"ĠÐ¾Ð±ÑĮ":5031,"ĠÑĢÑĥÑģÐ¸":5032,"ĠÑĢÐ°Ð·Ð´Ñ£":5033,"ĠÐ³ÑĢÑ£ÑħÐ¸":5034,"ĠÐ³Ð¾Ð»Ð¾Ð²Ð°":5035,"ĠÐ³Ð¾ÑģÐ¿Ð¾Ð´ÑģÑĤÐ²Ð°":5036,"ĠÐ¼Ð½Ð¾Ð³Ð¸Ñħ":5037,"Ð²êĻĳÐ¸":5038,"ĠÐ´Ð°ÑĪÐ°":5039,"ĠÐ²Ð¾Ð·ÑĮ":5040,"ĠÑĩÑİÐ´Ð¾":5041,"ĠÐ¼Ð½Ð¾Ð³Ð¸Ð¼Ð¸":5042,"ĠÐ©":5043,"ÑĤÑĸÐµ":5044,"ĠÐ¼ÑĢ":5045,"Ð²Ð¸ÑĨÐ°":5046,"ĠÑģÐµÐ»Ð¸":5047,"ÑĶÐ½ÑĸÑ§":5048,"ÑĪÑĤÐ¸Ð¸":5049,"Ġ12":5050,"ĠÐ´ÐµÑĢÐµÐ²Ð½Ð¸":5051,"ĠÐ²ÐµÐ»Ñ£Ð»ÑĬ":5052,"ĠÐ¿Ð¸ÑĤÐ°":5053,"ÑħÐ¾Ð¶Ð´Ð°":5054,"Ð¾Ð½Ñ§":5055,"ĠÐ²ÑģÐµÐ»ÐµÐ½":5056,"ĠÐºÐ°Ð»Ð¸":5057,"ĠÑģÑĤÐ°Ð»Ð¾":5058,"ĠÐ´ÑĢÑĥÐ³Ð¸":5059,"ĠÑĤÐ²Ð¾ÐµÑ§":5060,"ÑĢÐ¾ÐºÐ°":5061,"ĠÐ¼Ð»ÑĤ":5062,"ĠÑ¡Ð±Ð»Ð°":5063,"ĠÐ¾Ð±ÑĢÐ°Ð·":5064,"Ð»ÐºÐ¾":5065,"ĠÐ¿ÑĢÐ¸Ð»Ñ£":5066,"ĠÑĥÐ»Ð¸":5067,"ĠÑĥÑĩÐµ":5068,"ĠÐ±Ð¾Ð¸":5069,"ĠÐ¶Ð¸Ð´":5070,"ĠÑĤÐ°ÐºÐ¾Ð¶Ð´Ðµ":5071,"ĠÑĤÑ£Ð¼":5072,"ĠÐºÐ¾ÑĤÐ¾ÑĢÐ¾Ð³Ð¾":5073,"ĠÐ¿ÑĥÑģÑĤÐ¸":5074,"ĠÐ½ÐµÐ¼Ð¶Ðµ":5075,"Ð°ÑīÐµ":5076,"ĠÐ·Ñĥ":5077,"ĠÑģÐ¸Ð»Ñ£":5078,"ĠÐºÐ°Ð¼":5079,"ĠÐ¿Ð°ÑĤÑĢ":5080,"ĠÐ¼Ð°Ð»Ñ£":5081,"ĠÐºÑĥÐ·":5082,"Ð²ÑĢ":5083,"ĠÑģÐ»ÑĬ":5084,"ĠÐºÐ½Ñ£":5085,"Ð±Ñ«":5086,"Ð½Ð¸ÐµÐ¼ÑĮ":5087,"Ð¶Ð¸ÑĤÑĬ":5088,"ÑĦÐ°Ð½":5089,"ĠÑģÐ²Ñ£ÑĤÑĮ":5090,"ĠÐ¾ÑĩÐ¸Ð¼Ð°":5091,"ÑģÑĤÐ²ÑĮ":5092,"ĠÐºÑĢÐµÐ¿":5093,"ĠÑģÐ»ÑĥÑĪÐ°":5094,"ĠÐ·Ð´Ñ£Ð»Ð°":5095,"ÑĢÐ¾Ð¿":5096,"ĠÐ¾Ð´Ð¸":5097,"ÐµÐ¼ÐµÐ½":5098,"ĠÑ¡Ð±ÑĮ":5099,"ĠÐ½Ð¸Ð·":5100,"ĠÐ¼Ð¾Ð¶ÐµÑĤÑĬ":5101,"Ð½Ð¾Ð²ÑĬ":5102,"ĠÑĨÐ¾":5103,"Ð´Ð¾ÑģÑĤÐ°":5104,"ĠÑĪÑİ":5105,"ĠÑģÑĤÐ°ÑĢÑĨÐ°":5106,"ĠÐ´Ð¾Ð±ÑĢÑĭÐµ":5107,"ĠÑĨÐµÑĢÐºÐ¾Ð²ÑĮ":5108,"ÐµÑĪ":5109,"Ð»ÐµÑĤÑĮ":5110,"ĠÑģÐ¼ÐµÐ½":5111,"ĠÐºÐ´ÑĮ":5112,"ÑīÐµÑĤÑĮ":5113,"ĠÐµÑĢÐµ":5114,"Ð¶Ð¾":5115,"ÐºÐ¸ÑħÑĬ":5116,"Ð´Ñ£Ð»Ð°":5117,"ĠÑıÐ²Ð¸":5118,"ĠÐ²ÑģÐµÑħÑĬ":5119,"ĠÑģÐµÐ¼Ð¾Ñĥ":5120,"ĠêĻ©Ð²":5121,"ĠÐ¿Ð¾Ð¼ÐµÑģÑĤ":5122,"ĠÐ³ÑĢÐ²Ð½Ð°":5123,"ĠÐ´ÑĮÑģÑ§ÑĤÑĮ":5124,"Ð¼Ð¾Ðµ":5125,"Ð¸Ð¼Ð°ÑĢ":5126,"ĠÑħÐ»Ñ£Ð±Ñĭ":5127,"ĠÐ´ÑĢêĻĭÐ³":5128,"ÑģÑĤêĻĭÐ¿":5129,"ĠÐ´ÑĢÑĥÐ¶Ð¸Ð½Ð°":5130,"ĠÐ¿Ð°Ð²Ð»Ð°":5131,"ĠÐ¶ÐµÑĢÐµÐ±Ðµ":5132,"ĠÐ½Ð¾ÑģÐ¸":5133,"ÑĩÐµÑĤÑĬ":5134,"Ð½Ð¸ÑĩÑĮ":5135,"ĠÐ´Ð°Ð»Ð¸":5136,"ĠÐ½Ð¸Ð¶":5137,"ĠÐ¾ÑĥÐ±Ð¸":5138,"ĠÐĴÐ¾Ð»ÑĮ":5139,"ĠÑģÑĤÑĢÐ°Ð½":5140,"ĠÐĽÑ£":5141,"Ð¾ÑĤÐ¸":5142,"Ð½Ð´Ñĥ":5143,"ÐºÐ¾ÑĢÐ¸":5144,"ĠÐ»ÐµÑĤÐ°":5145,"ĠÐ´Ð°ÑģÑĤ":5146,"Ð´Ð¸ÑĪÐ¸":5147,"ĠÑĩÐ°ÑģÑĤÐ¾":5148,"ĠÑģÐ¼Ð¾Ð»ÑĮ":5149,"ĠÑģÑĤÐ¾Ð¸ÑĤ":5150,"ĠÐ´Ð°Ð»ÐµÑĩÐµ":5151,"ĠÑģÑĤÑ§Ð¶Ð°":5152,"ĠÐ¼Ð°ÐºÐµÐ´Ð¾Ð½":5153,"ĠÑģÐµÐ¼Ñĥ":5154,"ÑĪÐ°Ð²ÑĬ":5155,"ĠÐ¿Ð¾ÑģÑĥ":5156,"ĠÐ¿Ð°Ñģ":5157,"ĠÐ¿Ð¾ÐºÐ¾Ð¸":5158,"ĠÐ³Ð»Ð°Ñģ":5159,"ĠÑģÐ²Ñ§ÑĤ":5160,"ĠÐ¿Ð¾Ð³ÑĢÐµÐ±":5161,"ĠÐ¾Ð¿ÑĢÐ¸ÑĩÑĮ":5162,"ĠÐµÑģÑĤÐ²Ñĭ":5163,"Ð´ÐµÐ»":5164,"ÑģÑĤÑĸÐ¸":5165,"Ð½Ñ§ÑĤÐ¸":5166,"ÑģÐ»Ð¾Ð²":5167,"ÐµÐ½ÑĮÑı":5168,"ĠÐ²ÑĮÐ·":5169,"ĠÐ¿ÑĢÐ°Ð²Ð¸ÑĤÐ¸":5170,"ĠÑĤÐ¾Ð¼Ð¾":5171,"ĠÐ¼Ð¾ÑģÐºÐ²Ðµ":5172,"ĠÐºÐ»ÑİÑĩÐ½Ð¸ÐºÑ¹":5173,"ĠÐ±ÐµÐ·Ð·Ð°ÐºÐ¾Ð½":5174,"ÑĤÐºÐ¾":5175,"ĠÐ¾ÑĢÑĥ":5176,"ĠÐ¿ÑĢÐ²":5177,"ĠÐ°Ð½Ð´ÑĢÑ£":5178,"ĠÐµÑģÑĤÐ²Ñ¹":5179,"ĠÐ¾ÑĥÑģ":5180,"Ð¶Ð°ÑĪÐµ":5181,"Ð¾Ð»Ð¸ÐºÐ¾":5182,"ĠÑĩÐµÑĤÐ¸":5183,"ĠÐ´ÑĢÑĥÐ³ÑĬ":5184,"ÑĪÐµÐ»":5185,"ÐµÐ½ÑĸÑ§":5186,"ĠÐ´Ð°Ð¼ÑĬ":5187,"ĠÐ¯ÐºÐ¾Ð¶Ðµ":5188,"ĠÑĢêĻĭÐºÐ¸":5189,"ĠÐ¸Ð»ÑĮ":5190,"Ñ¡Ð¼":5191,"ĠÐ±ÑĭÐ²ÑĪÐµ":5192,"ÑĩÐ¸Ð½Ñĭ":5193,"ĠÑģÐ°êĻĭ":5194,"ĠÐ³Ð¾ÑĢÐ¾Ð´Ñĥ":5195,"ĠÐ±ÑĥÐ¹":5196,"ĠÑģÐ¾ÑĤÐ²Ð¾ÑĢÐ¸ÑĪÐ°":5197,"Ð½Ð¾Ð³ÑĢÐ°":5198,"ĠÐ¼Ñ¡ÑµÑģÐµÐ¸":5199,"Ñ£ÑħÑĬ":5200,"ÑīÑĭ":5201,"ĠÐ²ÑĬÐ¿":5202,"Ð´Ð¸Ð¼ÑĬ":5203,"êĻĳÑĪ":5204,"ĠêĻĹÐ²Ð¸":5205,"Ð¶Ð¸Ðµ":5206,"ÑģÐºÐ°ÑĤÐ¸":5207,"ĠÑģÑĤÐ°Ð½Ð¸":5208,"ĠÐºÐ¾ÑĤÐ¾ÑĢÑĭÐ¼":5209,"ĠÐ²ÑģÐµÐ²Ð¾Ð»Ð¾Ð´ÑĬ":5210,"ĠÐ´Ð¾Ð¼Ð¾ÑĩÐ°Ð´":5211,"ĠÑĳ":5212,"ÑĩÐ½":5213,"Ð»Ð°Ð°":5214,"Ð½ÐµÑĨÑĮ":5215,"ĠÑģÑĬÐ²Ñ£":5216,"ĠÐ±Ð¾Ñ§":5217,"Ð´Ð¾ÑħÑĬ":5218,"ĠÐ¿Ð¸ÑīÐ°":5219,"Ð½Ð¸Ð½ÑĬ":5220,"ĠÐµÑģÑĤÐ¸":5221,"ÑĢÐµÐ´":5222,"ĠÐ¡Ð»Ð°":5223,"ĠÐ³Ð»Ð°Ð³Ð¾Ð»Ñı":5224,"Ð¼ÑĭÐ¸":5225,"ÑĢÐ¾ÐºÑĬ":5226,"ĠÑĢÐ°êĻģÐ¾ÑĥÐ¼Ñ£":5227,"ĠÐ²ÑĬÐ´Ð°Ð»Ðµ":5228,"ĠÐ¿Ð°Ð¼Ñ§ÑĤÑĮ":5229,"ĠÑĤÐ¾Ð¿ÐµÑĢÑĮ":5230,"ĠÐ½ÐµÐ²":5231,"ĠÐ²ÑģÐµÐ¼Ñĥ":5232,"ÑīÐµÐ½Ð¸Ðµ":5233,"ÑħÐ°Ð½":5234,"ĠÐ¼Ð°ÑģÑĤÐµÑĢ":5235,"ÑģÐ»Ð°Ð²ÑĮ":5236,"Ð¾Ð²ÑĭÑħÑĬ":5237,"ĠÐ²ÑĬÐ·Ð´Ð°":5238,"ĠÑģÑĤÐ¾êĻĹ":5239,"ĠÐ²ÑĢÐ°Ð³ÑĬ":5240,"ĠÑĸÑ¡Ð°Ð½":5241,"ĠÐ¡ÑĭÐ½Ñĥ":5242,"ĠÐ´Ð¾Ð¶":5243,"ĠÐ´Ñ£Ð¸":5244,"ĠÐ»Ñ£Ð¿Ð¾":5245,"ĠÑģÐµÐ¼Ð¾":5246,"ĠÐ´ÑħÐ°":5247,"ĠÐ½Ð°ÑģÑĤÐ¾":5248,"ĠÑģÐ²Ð¾ÐµÐ¼ÑĮ":5249,"ĠÐ¿Ð¾ÑģÐ»Ð°Ð½":5250,"ĠÑģÐ»Ð¾Ð²ÐµÑģÐ¸":5251,"ĠÐ³Ð¾Ð»Ñĥ":5252,"Ð»Ð¾ÑģÐµÑĢ":5253,"ĠÑĢÑĭÑĨÐµÑĢ":5254,"ĠÐ²Ð¿ÑĢÐµÐ´ÑĮ":5255,"ĠÐ½ÐµÐ´ÐµÐ»ÑīÐ¸":5256,"ĠÐ·Ð°Ð¿Ð¸ÑģÐ°":5257,"ÑģÐºÐ¾Ð¼êĻĭ":5258,"ĠÑģÐ°Ð¼Ðµ":5259,"ÑĳÐ¼":5260,"ĠÐ»ÑİÐ±Ð¾Ð²":5261,"ĠÐ³Ð¾Ð´Ñĭ":5262,"ĠÐ³Ð¾ÑģÐ¿Ð¾Ð´Ð¸Ð½ÑĬ":5263,"ĠÐ²Ð¾Ð»Ð¾ÑģÑĤ":5264,"000":5265,"ĠÐ½ÐµÐ´Ð¾ÑģÑĤÐ¾Ð¸":5266,"ĠÑģÑģÑĭ":5267,"ĠÐ¾ÐºÐ¾":5268,"Ð¾Ð»Ñĭ":5269,"Ð¾Ð»ÑİÐ±Ð¸":5270,"ĠÐµÑĥ":5271,"ĠÐ¶ÐµÐ»ÐµÐ·":5272,"ĠÑıÑĢÐ¾Ð¿Ð¾Ð»":5273,"ĠÐĳÐµÑĢ":5274,"ĠÐ³Ð»ÐµÑĤÑĮ":5275,"ĠÐ·Ð°Ð¿Ð¸ÑģÑĮ":5276,"ĠÐ²ÑĮÑģÑ£ÑħÑĬ":5277,"ĠÐ¿Ð¾ÑģÐ»Ñ¹ÑĪÐ°":5278,"ÑģÑĤÑĢÐ¸":5279,"ĠÐ½ÐµÑı":5280,"Ñ¡ÑģÐ¸":5281,"êĻģÐ¾Ñĥ":5282,"ĠÐ¿Ð¾ÑģÐ»Ð°ÑĤÐ¸":5283,"ĠÐ¿ÑĢÐµÐ´ÑĬ":5284,"ĠÐ²ÑĢÐµÐ¼Ðµ":5285,"ĠÐ·Ð½Ð°Ð¼ÐµÐ½":5286,"ĠÐ´Ð¸êĻĹ":5287,"ĠÑģÐ»Ð¾Ð²Ð¾Ð¼ÑĬ":5288,"ĠÐ²ÐµÐ»Ð¸ÑĩÐµÑģÑĤÐ²Ð¾":5289,"ÐºÐ°Ð¼Ð°":5290,"ĠÐ²ÐµÑīÐ¸":5291,"ĠÑĢÑĥÐºÐ°Ð¼Ð¸":5292,"ÑģÑĤÐµÐ»Ð¸":5293,"ĠÐ³ÑĢÐ¾Ð·":5294,"ĠÐ¾Ð²Ð¾":5295,"êĻģÐ½Ð¸":5296,"ĠÐ±ÑĭÑĤ":5297,"Ð²ÑĭÐ¼":5298,"ĠÐļÑĥ":5299,"ĠÐ²ÑĬÐ·Ð²ÑĢÐ°ÑĤÐ¸":5300,"ĠÑĤÑ§Ð¶":5301,"ĠÑĤÐ²Ð¾ÑĢÐ¸ÑĪÐ¸":5302,"ÑİÑīÐ¸ÑħÑĬ":5303,"ĠÐºÐ¾ÑĢÐ¾Ð»Ñı":5304,"--------":5305,"ÑģÑĤÑĢÐµ":5306,"ĠÑĢÐ¾Ð´Ð°":5307,"ĠÐ·Ð»Ð¾Ð±":5308,"Ð¼Ð¸ÑĢÑĥ":5309,"ĠÐ²ÑģÐµÑ§":5310,"ĠÑģÑĥÐº":5311,"ÑĤÐ²Ñ¹":5312,"ĠÐ»Ñ¹ÑĩÐ¸ÑĤ":5313,"ĠÐ¿Ð¾ÑĢÑ§Ð´Ð½Ñ§":5314,"Ð²Ð»Ðµ":5315,"Ð»ÐµÐ²ÑĭÑħÑĬ":5316,"ĠÐ¿Ð¾ÑĩÑĤÐ¾":5317,"ĠÑģÐ²Ð¾ÑĶ":5318,"ÑĪÐ¸Ð½":5319,"ĠêĻĹÐ·ÑĬ":5320,"ĠÐ½Ñ£ÐºÐ¾":5321,"ĠÐµÐ´Ð¸Ð½Ð¾Ð³Ð¾":5322,"ĠÑĨÐµÑĢÐºÐ¾Ð²":5323,"Ð½ÑĭêĻĹ":5324,"ĠÐ¼Ð¾ÐµÐ¼êĻĭ":5325,"ĠÐ¼ÐµÑģÑĤÐ°":5326,"ĠÐ»ÑİÐ´ÐµÑħÑĬ":5327,"ĠÐºÐ½Ñ§Ð¶Ðµ":5328,"ĠÑħÑĢÐ°Ð½Ð¸ÑĤÐ¸":5329,"ĠÐĲÐ»ÐµÐºÑģÐ°Ð½Ð´ÑĢÐµ":5330,"ĠÐ¼Ð°ÑĤÐµÑĢÑĮ":5331,"ĠÐ°ÑĢÑħÐ¸Ð¼Ð°ÑĢ":5332,"Ð¿Ð¾ÑĤ":5333,"ĠÐ¿ÑĢÐ¸ÐµÑħÐ°Ð»":5334,"ĠÐ¼Ð¾êĻĹ":5335,"ĠêĻģÑ£Ð»Ð¾":5336,"ĠÐ±ÑĮÑİ":5337,"ÑģÑĤÑĢÐ¾Ð¸":5338,"ĠÐ±Ð¾Ð»ÑĮÑĪ":5339,"ĠÐ¤Ð¸Ð»Ð¸":5340,"ĠÐ´ÐµÐ»ÐµÑħ":5341,"Ð³Ð¾Ð²Ð°ÑĢÐ¸":5342,"Ð½Ð¾Ð¿Ð»ÐµÐ¼":5343,"ĠÐ½Ð°ÑģÑĭ":5344,"ĠÐ¿ÑĢÐµÑĤ":5345,"Ð½Ð¸ÑĨÑĮ":5346,"Ð¹ÑģÑı":5347,"ĠÐ²Ñ£Ð´Ñ£":5348,"ĠÑĩÐ°ÑģÑĬ":5349,"ĠÐ³ÑĢÐ¸Ð²ÐµÐ½Ð¾":5350,"ĠÐ¿Ð¾Ð¸Ð´Ð¸":5351,"ĠÑģÑĤÐ¾ÑĢÐ¾Ð½":5352,"ĠÐ´ÑĢÐµÐ²Ð¾":5353,"ĠÐºÐ¾Ð½ÑİÑĪ":5354,"ĠÑĤÑİÑĢÐ¼Ñĥ":5355,"iÐ°":5356,"Ð¼ÑĢÑĮ":5357,"ĠÐ¶ÐµÐ»":5358,"ĠÐ¿ÑĢÐ¸Ð²Ð¾Ð´":5359,"Ð°ÐºÐ¾Ð½Ð¸":5360,"ÑĩÐµÑİ":5361,"ĠÐ³Ð¾ÑĢÐ¾Ð´Ð¸":5362,"ĠÑıÐ·ÑĭÐºÑĬ":5363,"ĠÐ¿ÑĤÐ¸ÑĨÐ°":5364,"ĠÐ¸Ð³Ð¾ÑĢ":5365,"ĠÐ¿Ð¾Ð¶Ðµ":5366,"ĠÐ³Ð¾ÑĢÐ¾":5367,"ĠÐ³Ð»Ð°Ð²Ð°":5368,"ĠÐ±ÑĢÐ°ÑĤÑĸÐ¸":5369,"ĠÐ¾ÑģÐ¼Ð¸":5370,"ĠÐ¿ÑĢÐ¸Ð²ÐµÐ·":5371,"ĠÐĶÑĢÑĥÐ¶":5372,"ÑĢÐ¾Ð¼ÑĬ":5373,"ĠÐ¼Ð¾Ð³Ð¸":5374,"Ð¿ÐµÑĤ":5375,"Ñ¥Ð¼":5376,"ĠÐ¸Ð·Ð²Ð¾Ð»Ð¸":5377,"ĠÐ´Ð²Ð¾ÑĢÑı":5378,"ĠÐ¿Ð¾Ð´Ð¾Ð±Ð°ÐµÑĤÑĬ":5379,"ĠÐ²ÑģÑ§ÐºÐ¸Ð¼ÑĬ":5380,"ĠÑĪÐµÐ´ÑĬ":5381,"ĠÐºÑĢÐ¾":5382,"Ð²Ð°ÐµÑĤÑĬ":5383,"ĠÑģÐ²Ð¾êĻĹ":5384,"ĠÑĨÐµ":5385,"Ð»ÐµÑĪÐ¸":5386,"ĠÐ²Ñ£ÑĢÑ¹":5387,"ĠÑģÑĥÐ´Ð¸ÑĤÐ¸":5388,"ÑİÑĤÑģÑ§":5389,"ĠÐ²ÑģÑ§ÐºÐ¸ÑħÑĬ":5390,"Ð¼ÑĢÐµ":5391,"Ñ§Ð»Ð¸":5392,"ÑĪÑĭ":5393,"Ð±Ð¾Ð¶":5394,"Ð¶Ð»Ð¸":5395,"Ð´Ð¸Ð»ÑĬ":5396,"ĠÐŁÐ¾Ð²":5397,"ĠÐ±Ð¾êĻĹ":5398,"ĠÐ²Ð¸Ð´Ñı":5399,"ĠÐ¶Ð¸Ð²ÐµÑĤ":5400,"ÑģÑĭÐ²Ð°ÑĤÐ¸":5401,"ĠÐ¼ÐµÐ½ÑĶ":5402,"Ð»êĻĭÐ¸":5403,"ĠÐ±Ð»Ð°Ð³Ð¾Ð²Ñ£":5404,"Ð°Ð°":5405,"Ð°Ð¸":5406,"ĠÑģÑĸÑİ":5407,"ĠÐ¸ÑĤ":5408,"ÑģÑĤÐ¸ÑĤ":5409,"ĠÐ½Ð°ÑģÐ»Ð°":5410,"Ñ¥Ð¼ÑĮ":5411,"ĠÑ¹Ð¶Ðµ":5412,"ĠÐľÐ½":5413,"Ð±Ð°Ð¼Ð¸":5414,"ĠÑķÐ»Ð°":5415,"ĠÐ¿Ð¸ÑģÐ°Ð»":5416,"ĠÐ½Ð¸ÐºÑĤÐ¾":5417,"ÐºÐ¾Ð»Ð¾":5418,"ĠÐĿÐ¸ÐºÐ¸ÑĤÐ¸":5419,"Ð²Ð¾Ð²Ð°":5420,"ĠÑĤÐµÐ¼ÑĬ":5421,"ĠÐ¾Ð´Ð¸Ð½":5422,"ÑĩÐ½ÑĭÐµ":5423,"ĠÐ½ÐµÐ¼Ñ¹":5424,"ĠÐ´Ð°Ð»Ð°":5425,"ĠÑħÑĢÐµ":5426,"ÑģÑĤÐ°ÑģÑĮ":5427,"ĠÐ¼Ð¸ÑĢÑĮ":5428,"ÑĤÑ£Ð¸":5429,"ĠÐ±Ñ¹Ð´ÐµÑĤÑĮ":5430,"ÑİÑīÐ°Ð³Ð¾":5431,"ĠÐ½Ð°ÑģÐ»Ñ£Ð´":5432,"ĠÐĶÑĢÑĥÐ¶Ð½ÐµÐ²":5433,"Ð¸Ð½":5434,"Ð´Ð°Ð½Ð°":5435,"ÑĩÐ°ÑĤÐ°":5436,"ÑīÐ¸ÐºÐ¸":5437,"ĠÐĸÐ¸":5438,"ÐºÑĢÐµÑģÑĤÑĬ":5439,"ĠÐ´ÑĢÑĬÐ¶Ð°":5440,"Ð´ÑĢÐµ":5441,"ÑĪÐµÐ¼ÑĬ":5442,"ĠÑĩêĻĭ":5443,"Ð´Ð°Ð¸":5444,"ĠÑħÑĥ":5445,"Ð»Ñ£Ð´ÑĬ":5446,"ĠÐ²Ñ£ÑĢÑ£":5447,"ĠÐ¿ÑĢÐ¾ÑĩÑĮ":5448,"ĠÐ´Ð¾Ñĩ":5449,"Ñ³Ðµ":5450,"ÑħÐ¾Ð´Ñı":5451,"ĠÐ³Ð¾Ð»Ð¾Ð²Ñĭ":5452,"ĠÑĤÐ²Ð¾ÑĢÐ¸ÑĤÑĮ":5453,"ĠÐ¿êĻĭÑĤÑĮ":5454,"ĠÐ»Ð¾ÑĪÐ°Ð´Ð¸":5455,"ĠÐºÑĸ":5456,"Ð»Ð¸Ð¼Ñ£":5457,"ÑĸÐ¼ÑĬ":5458,"ÐºÐ°êĻģÐ°":5459,"ĠÐ¿ÑĢÐ¸Ð±Ñĭ":5460,"ĠÐļÐ½ÑıÐ·ÑĮ":5461,"êĻ¿Ð¶Ðµ":5462,"ĠÐ¿ÐµÑĢÐ²Ð¾Ðµ":5463,"ĠÐºÑĢÐµÑģÑĤÐ¸":5464,"Ð¾ÑģÐ»Ð°Ð²Ð°":5465,"ĠÐ¼êĻĭÐ¶Ð°":5466,"Ð½Ð¸Ð¹":5467,"ĠÐ°Ð³":5468,"ĠÐĲÑĢ":5469,"ĠÑĥÑĤÐµ":5470,"êĻģÑ¹":5471,"ĠÐ¿ÑĢÐ¾ÑĩÐ¸":5472,"ĠÐºÐ½ÑıÐ·Ð¸":5473,"ĠÐ²Ð·ÐµÐ¼":5474,"Ð´ÐµÑģÑ§ÑĤÑĬ":5475,"ĠÐ³ÑĥÐ±":5476,"ĠÐķÑĢÑĥÑģÐ»Ð¾Ð½ÑĬ":5477,"Ñ§Ð»Ð¾":5478,"ĠÐ¼ÑĢÑĮ":5479,"ĠÑ¿Ð¸Ð´Ðµ":5480,"ĠÑ¿Ð¿êĻĭ":5481,"ĠÑģÑĤÐ°ÑĤÐ¸":5482,"Ð¼Ð¾ÑĤÑĢÐ¸":5483,"ĠÑģÑĤÑĢÐ°ÑħÐ¾Ð¼ÑĬ":5484,"ÐµÐ½Ð°Ð³Ð¾":5485,"Ð²Ð°Ð½Ð³":5486,"ĠÐ¸Ð½Ð¾Ð·ÐµÐ¼":5487,"ÑĸÐ°ÑĢ":5488,"ĠÐŁÐ°Ðº":5489,"ĠÐĶÐµÐ²":5490,"ĠÐ³ÑĢÐ¸Ð²Ð½Ñ£":5491,"ĠÐ´Ð²Ð°ÑĤÑĨÐ°":5492,"Ð³Ð»Ð°Ð³Ð¾Ð»":5493,"ĠÐ¿Ð¾Ð´Ð¾Ð±Ð½Ð¾":5494,"ÂŃ":5495,"Ð°Ñı":5496,"êĻĳÑģÐ»Ð¸":5497,"ĠÐ¾ÑĤÑĨÑĥ":5498,"ĠÐ¿Ð°Ð»Ð°":5499,"ĠÐ´Ð¾Ð±ÑĢÑĬ":5500,"ĠÑĢÐ°Ð·ÑģÑ¹":5501,"ĠÐ»Ñ£ÑĤÐµ":5502,"ĠÑģÐºÐ°Ð¶ÐµÑĤ":5503,"ĠÐĳÐ¾Ð³Ð¾ÑĢÐ¾Ð´Ð¸":5504,"Ð³ÑµÐ¿ÐµÑĤ":5505,"ĠÑħÑĢÑģÑĤÑĹÑ§":5506,"ĠÑĦÑĢÐ°Ð³Ð¼ÐµÐ½ÑĤ":5507,"ĠÐ²Ð¿Ð°":5508,"ĠÐ´ÐµÑĤÐ¾":5509,"ĠÐ´Ð°Ð¹":5510,"ĠÐ¶Ð¾Ð½":5511,"ĠÐ¿Ð¾Ð»ÑĤÐ¸Ð½":5512,"ÑĩÐ°Ð»Ð¸":5513,"ĠÑ»ÑģÐ¿Ð¾Ð´Ð¸Ð½Ðµ":5514,"ĠÐ¼Ð¾Ð»Ð¾Ð²Ð¸":5515,"Ð¼Ð¾ÑĤÑĢ":5516,"ĠÐºÐ¾ÑĥÐ½Ðµ":5517,"ĠÐ¿ÑĢÑĸÐ¸Ð´Ð¾ÑĪÐ°":5518,"ĠÐ³ÑĢÐ¸Ð²ÑĮÐ½Ð¾Ñĥ":5519,"ĠÐłÐ°Ð·":5520,"ĠÒĩ":5521,"Ð½Ð½Ð¾":5522,"Ð¾Ð²Ð¾Ð¹":5523,"ÑĩÐµÐ½ÑĸÐµ":5524,"Ð´Ð°ÑĤÑĮ":5525,"Ñ¥ÑĪÐ¸":5526,"ÑĥÐ´ÑĬ":5527,"ĠÐ±ÐµÐ³":5528,"ĠÐ²Ð¾Ð·Ð²ÑĢÐ°":5529,"ĠÐ²ÐµÐ»ÐµÐ»":5530,"ĠÐ´ÐµÐ½ÑĮÐ³Ð¸":5531,"ĠÐ¿ÑĢÐ¾Ð¼Ñĭ":5532,"ĠÐ²Ð°Ð²Ñµ":5533,"Ð²Ð¾Ð½":5534,"Ð»Ð¸ÐºÐ¾":5535,"Ð½ÑĭÑ«":5536,"ĠÐºÐ¾Ð½ÐµÐ¹":5537,"ĠÐ¸Ð¼Ð°Ð¼ÑĬ":5538,"ĠÐ»ÑİÐ´Ð¸Ðµ":5539,"ĠÐ²ÐµÑĢÑħ":5540,"ĠÑģÐ²Ñ§ÑīÐµÐ½":5541,"ĠÑħÑĢÑģÑĤÑĸÑ§":5542,"Ð²ÑģÑ§":5543,"ÐºÐ¾Ð¿":5544,"ĠÐºÑİ":5545,"ĠÐĺÑģÐ¿":5546,"ĠÐ¿Ð¾ÑģÐ¿Ñ£":5547,"ĠÐ¸Ð·Ð¼Ñ£":5548,"ÑħÐ¾Ð´Ñ§Ñī":5549,"ĠÑģÐ¼ÑĢ":5550,"ĠÐ¿ÐµÑĢÐµêĻĹ":5551,"ĠÑĤÐ²Ð¾ÑĢÐ¸ÑĤÑĬ":5552,"ĠÐ´ÐµÐ½ÐµÐ³":5553,"ĠÐ°Ð½Ð´":5554,"ĠÐ°êĻģÑĬ":5555,"ĠÐµÐ·Ð´":5556,"Ð»ÑĭÐ¼":5557,"Ð»ÑĥÑİ":5558,"ĠÐ±Ð»Ð°Ð³Ð¾Ð²":5559,"ĠÐ½Ð°ÑĪÐµÐ¸":5560,"ĠÐ±ÐµÑģÑĩÐµ":5561,"ĠêĻģÐµÐ¼Ð»":5562,"ĠÑĤÑĢÐµÑħ":5563,"Ð³Ð½Ñ£Ð²Ð°":5564,"ÑĤÐ¾ÑĢÐ¾Ðµ":5565,"ĠÐ¿ÑĢÐ¾Ð¶":5566,"Ð½Ð¾Ñģ":5567,"ĠÐĺÐ½":5568,"ĠÑĥÐ²Ð¸":5569,"ĠÐ·ÐµÐ¼Ð»Ñ£":5570,"ĠÐ´Ð½ÑĸÐ¸":5571,"ĠÐ¿Ð¾Ð»Ð¾ÑĤÑĮ":5572,"ĠÐ¼ÑģÑĨÐ°":5573,"ÑĩÐµÑĤÐµ":5574,"ĠÐ°Ð²ÑĢÐ°":5575,"ÐµÑĤÑĨÐ°":5576,"ĠÐ²ÐµÑīÑĮ":5577,"Ð½Ñ§Ñ§":5578,"ĠÐ¿ÑĢÐ¾Ð¼ÑĭÑĪ":5579,"ĠÐ¿ÑĢÐ¸ÑĪÐµÐ»ÑĬ":5580,"ĠÐ´ÑĢÑĥÐ³ÑĥÑİ":5581,"ĠÑģÐ¾Ð²Ñ£ÑĤ":5582,"ĠÐ¿Ð¾ÑģÑĬÐ»Ð¸":5583,"ÑĤÑĢÑ£":5584,"ĠÐ±Ð¶ÑĮ":5585,"ĠÐºÐ»Ñ£":5586,"Ð½Ð¸Ð»Ð¸":5587,"ĠÐµÐ´Ð°":5588,"Ð¶Ð´Ð¸":5589,"ĠÐ¿ÑĢÐ¸Ð³Ð¾Ð´":5590,"ĠÑĶÑģÑĤÑĮ":5591,"ĠÑĢÐµÐ·":5592,"ĠÑģÑĭÑģÐºÐ¸":5593,"ĠÑĤÑ£Ð»Ð°":5594,"ĠÑģÐ¾Ð±Ðµ":5595,"ĠÐ¿Ð¾Ð³ÑĢÑ£":5596,"ĠÐ¿Ð¾Ð¸Ð´Ð¾ÑĪÐ°":5597,"ĠÐ±Ð¸Ñİ":5598,"ĠÐ³Ð°Ð²ÑĢÐ¸":5599,"ÑĩÐµÐ½Ñ£":5600,"Ð»Ð¾ÑģÐ¾":5601,"ĠÐ¼Ð½Ð¾Ð³Ð¸Ðµ":5602,"ĠÐ´ÐµÑĢÐµÐ²Ð½Ñı":5603,"ĠÑģÐ¼ÐµÑĢÑĤÐ¸Ñİ":5604,"ÑĢÐ»":5605,"ĠÐ°ÐºÐ¾":5606,"ĠÐ¿Ð¾Ñı":5607,"ÐµÑĢÐ²Ð°":5608,"ĠÐ¿ÑĢÐ¸Ð·ÑĭÐ²Ð°":5609,"ĠÑģÐ²Ð¾Ñ«":5610,"ĠÐ¶ÑĶ":5611,"ĠÑĤÐµÐ±ÑĶ":5612,"ĠÐľÐ½Ð¾Ð³Ð¾":5613,"ĠÐ´Ð²Ð¾ÑĢÑıÐ½":5614,"ĠÐ±Ð¾Ð³Ð¾Ñĥ":5615,"ĠÐ²Ð¾Ð´Ñĥ":5616,"ĠÐ¿ÑĢÐ¸Ð²ÐµÐ´Ðµ":5617,"ĠÐ³ÑĢÑ£ÑħÐ¾Ð²ÑĬ":5618,"Ð»ÑĶÐ²Ñĭ":5619,"ĠÐ½Ð¸ÐºÐ¾Ð»Ð¸Ð¶Ðµ":5620,"Ð²ÐµÐ»":5621,"ĠÑģÐ¾ÑĢÐ¾":5622,"ÐºÐ¾ÑĢÐµ":5623,"Ð½Ð¸ÑĨêĻĭ":5624,"ĠÐ¿ÑĢÐ¸Ð±Ñ£":5625,"ÑģÐºÐ¾ÑĢ":5626,"ĠÐ²ÑģÐµÑİ":5627,"ĠÐ²ÐµÐ»ÐµÐ½ÑĮÑİ":5628,"ĠÐ¸ÑģÐ¿ÑĢÐ°":5629,"ĠÐµÐ´Ð¸Ð½Ð°":5630,"ĠÑģÐµÑĢÑĮ":5631,"ÑģÐ²Ð¾":5632,"Ð¿Ð¾Ð¼":5633,"ĠÐ½ÐµÑģÑĬ":5634,"ÐµÑĢÐµÐ¼":5635,"ĠÑĥÐ±Ñĭ":5636,"ĠÐ¡ÐµÑĢ":5637,"ĠÐ»Ð¸ÑĨÐµÐ¼ÑĬ":5638,"ĠêĻģÐ°ÐºÐ¾Ð½":5639,"ĠÐľÐ°ÑĢ":5640,"ĠÐ±êĻĳÐ²ÑĬ":5641,"ĠÐ²Ð»Ð°ÑģÑĤ":5642,"ĠÐºÐ°Ð±Ð°Ð»Ð°":5643,"ĠÐ¿Ð¾Ð»Ð°Ð³Ð°":5644,"ĠÐ²Ð¾Ð·Ð»ÑİÐ±Ð¸":5645,"ĠÐºÑĤÐ¾Ð¼êĻĭ":5646,"ĠÐ¸ÑģÑĤÐµÑĨ":5647,"ÐºÐ¸ÐµÐ²ÑģÐºÐ¾Ð¹":5648,"ĠÑĤÑĢÑ£Ð±":5649,"ÑĤÐ¸Ñ§":5650,"ĠÐ¿ÑĢÐ¸Ð¸Ð¼Ð°":5651,"Ð´ÐµÐ»Ð°":5652,"ĠÑĤÐ¸Ñĥ":5653,"ĠÐ¼Ñ§Ñģ":5654,"Ð½Ñ«ÑŃ":5655,"ĠÐľÐ°Ð³Ð¸":5656,"ĠÐ¸Ð¼ÐµÐ½ÐµÐ¼ÑĬ":5657,"Ð´Ð¾ÑĢ":5658,"ĠÐ²ÑģÐ°":5659,"ĠÐ³Ð¾ÑĢÑĮ":5660,"Ð±Ð°Ð²Ð¸":5661,"ĠÐ¼ÐµÑģÑĤÐµ":5662,"ĠÐ³ÑĢÑ¹":5663,"ĠÐ³Ð¾ÑĢÐ¾Ð´Ñĭ":5664,"ĠÐ½Ð¸ÐºÐ¾Ð³Ð¾":5665,"ĠÑģÐµÐ¼Ð¸":5666,"ĠÐ§Ð°":5667,"ĠÐ¸ÑģÐ°":5668,"ÑĪÐµÐ»ÑĬ":5669,"ĠÐ¾Ñĩ":5670,"ÑĩÐ¸Ð»":5671,"ĠÐ¿ÐµÑīÐµÑĢ":5672,"ĠÐ¿Ð¾Ð¼Ð¾Ñī":5673,"Ð»Ð¾Ð²Ð¸Ñĩ":5674,"Ð²Ð»Ñ£":5675,"ÐµÐ½ÑĸÐµÐ¼ÑĬ":5676,"ĠÐ¿Ð°Ð½":5677,"ĠÐ²ÐµÐ»Ð¸ÐºÑĥ":5678,"ĠÐ¾Ð±Ð»Ð¸":5679,"ÑģÑ£Ð¸":5680,"ĠÐ¿Ð¾Ð¿ÑĬ":5681,"ĠÐ¶Ð¸Ð²Ð¾ÑĤÑ£":5682,"ĠÑĢÐ¾Ð´Ð¸ÑĤÐµÐ»":5683,"ĠÐ´ÐµÑĢÐ¶Ð°ÑĤÑĮ":5684,"ĠÐ·Ð°Ð¿Ð¸ÑģÐ¸":5685,"ĠÐ´Ð½ÐµÑģÑĮ":5686,"ĠÐ¸Ð½Ð¸":5687,"ÐµÐ½ÑĹÐµ":5688,"ĠÐ¿ÐµÑĩ":5689,"ĠÐ½Ð°Ð¿ÐµÑĢÐµÐ´":5690,"ĠÐ¿ÑĢÐ¸ÑģÑĬÐ»Ð¸":5691,"ĠÐ¼Ð¾ÑīÐ½Ð¾":5692,"ĠÐ²ÑĬÐ½Ð¸":5693,"ĠÑĥÐµÐ·":5694,"ĠÐ¼Ð¸ÐºÑĥ":5695,"ÑĤÐµÑĨÑĬ":5696,"ĠÐ¿Ð¾Ð´Ð¿Ð¸":5697,"ĠêĻģÐ»":5698,"ÐµÐ½ÐµÑĢÐ°":5699,"ĠÐ¼Ñ§ÑģÐ¾":5700,"Ð²Ð¾Ð»Ð¾":5701,"ĠÐ¶Ð¸Ð²Ð¾ÑĤÑĭ":5702,"ĠÑģÐ½Ð¾Ð²Ð¸":5703,"ĠÐ³Ð¾ÑģÐ¿Ð¾Ð´Ð¸Ð½Ð°":5704,"ĠÐ·Ð´Ñ£ÑģÐµ":5705,"ĠÐ¿Ð¾Ð´Ð¾Ð±Ð°ÐµÑĤ":5706,"ĠÑģÑĬÐ¼ÑĢÑĮ":5707,"ĠÑģÑ¡":5708,"ÐºÑĸÐ¸":5709,"ĠÐ²Ð½Ñ£":5710,"ĠÐ·Ð°Ð¼Ñĥ":5711,"ĠÑĤÐ°ÐºÐ¾Ð²":5712,"Ð³Ð¾ÑĢÑ£":5713,"Ð¸Ð¼Ð¸ÑĤ":5714,"ĠÐĲÐ»ÐµÐºÑģÐ°Ð½Ð´ÑĢÐ°":5715,"ĠÑĩÑİÐ´Ð¾ÑĤÐ²Ð¾ÑĢÑĨÐ°":5716,"Ð²Ð¾Ð´Ð°":5717,"Ð´Ð°Ð»Ðµ":5718,"Ð¶ÐµÐ½Ð¾":5719,"ĠÑ¡Ð½Ð°":5720,"ÑĢÐ¸ÑĪÐ¸":5721,"Ð»Ð¾Ðµ":5722,"ĠÑĤÐ²Ð¾ÐµÐ¼ÑĬ":5723,"ĠÐ¶Ð¸ÑĤÑĮ":5724,"ĠÐĶÐ°ÑĢÐ¸":5725,"ĠÐ¿Ð¾ÑģÐ»Ð°Ð»":5726,"ĠÐ´ÑĢÑĥÐ³Ñĥ":5727,"ĠÐ³Ð¾ÑģÑĤ":5728,"ĠÐ½Ð°ÑĢÐµÑĩÐµ":5729,"Ð²Ð»ÑĮ":5730,"ĠÐ¿ÑĢÑı":5731,"Ð½Ð¾ÑģÑĤÐ¸":5732,"ĠÑĥÐ³":5733,"ĠÐ·Ð°ÑĤ":5734,"ĠÐ¾ÑĥÐ³Ð¾Ð´":5735,"ĠÑģÐ°Ð´Ð¸":5736,"Ð¾Ð²Ð¾Ðµ":5737,"Ð¾Ð´Ñ£Ð¸":5738,"ĠÐ»Ð°ÑĤÐ¸Ð½Ðµ":5739,"ĠÐ½Ð°ÑĢÐ¾Ð´Ð°":5740,"Ð»Ð²":5741,"ĠÐ½Ð¾Ñĥ":5742,"Ð³Ð¾Ð²Ð¸":5743,"ĠÐ°Ð·ÑĮ":5744,"Ð²Ð°Ð»Ð°":5745,"Ð´Ð¸Ð²ÑĬ":5746,"ĠÐļÐ°ÑĢ":5747,"ĠÐ³Ð¾Ð²Ð¾ÑĢÐ¸ÑĤÐ¸":5748,"ĠÐ´Ð¾ÑģÐ¿Ñ£":5749,"ĠÐ¼êĻĭÐ¶ÑĸÐµ":5750,"ĠÐ¡Ð°Ð´ÐºÐµ":5751,"ĠÐ½Ð¸ÑĩÐµÐ³Ð¾":5752,"ĠÐ±ÑĭÑħ":5753,"ĠÐ¿Ð¾Ð»ÑĥÑĤ":5754,"ĠÐ¿ÑĢÐ¾Ð¸":5755,"ĠÑ¹Ð±":5756,"ĠÐ¾Ð½Ð¾Ð³Ð¾":5757,"ĠÐĴÑĬêĻģ":5758,"ĠÐ·Ð°Ð¿Ð»Ð°":5759,"ĠÐ¼Ð¾Ñ¥Ð³Ð¾":5760,"ĠÐ¼ÐµÐ¶Ð´êĻĭ":5761,"Ð»Ð¾Ð²ÑĬ":5762,"ĠÐ¿Ð¾ÐµÐ´":5763,"Ð³Ð¾Ñİ":5764,"ĠÐ¿Ð¾Ð»êĻĭ":5765,"ĠÐ±ÐµÐ»Ð°":5766,"ĠÐ´ÐµÑĪÐµ":5767,"ĠÐ³ÑĢÐ¸Ð³Ð¾ÑĢ":5768,"ĠÑĤÐ²Ð¾Ð¸Ñħ":5769,"ĠÑģÑĢÐµÐ±ÑĢÐ¾":5770,"ĠÐ½Ð¾Ð²Ñ£Ð³Ð¾ÑĢÐ¾Ð´Ñ£":5771,"Ð´Ð¾Ð²ÑĬ":5772,"ÑīÐµÑĤÑĬ":5773,"Ð¶Ð´êĻĭ":5774,"ĠÐ´Ð°Ð»ÑĮ":5775,"ĠÐ¡ÑĤÑĢ":5776,"ĠÐ±Ð¾Ð»ÑĪ":5777,"ĠÐ²ÑĢÐ°Ð³Ð¸":5778,"ĠÑĢÑĭÐ±Ñĭ":5779,"ĠÐºÐ½Ð¸Ð¶":5780,"ĠÐ¸ÑģÑĤÐ¸Ð½Ñ£":5781,"ĠÐ±Ð¾ÑıÑĢÑģÐºÐ¸Ñħ":5782,"ÐºÑĢÐµÐ¿":5783,"ĠÐ´Ð¾Ð²ÐµÐ´ÐµÑĤÑģÑı":5784,"Ġ6":5785,"ĠÐ²Ð»ÑĬ":5786,"ÑĩÐ½ÑĭÐ¼":5787,"ÑĨÐºÐ¾Ð³Ð¾":5788,"ĠÐ¿Ð¾Ñ§":5789,"ÐºÐ°Ð¼":5790,"ÑģÐ°ÑĤÐ¸":5791,"ĠÐĶÑ£":5792,"ĠÐ¿ÑĢÐ¾Ðµ":5793,"ĠÐ¿ÐµÑĢÑĮ":5794,"ĠÐ±ÑĥÐ´ÐµÑĪÐ¸":5795,"ĠÐ¼êĻĭÐ¶ÐµÐ¸":5796,"ĠÐ¿Ñ£ÑĤÐ¸":5797,"ĠÐ²Ð½Ð¸Ð¼Ð°":5798,"ĠÐ¸Ð½Ñĭ":5799,"ÑħÑģÑ§":5800,"ĠÐ³Ð¾Ð´Ð¸":5801,"ÑĤÐ¸ÑĤ":5802,"ĠÐ´Ð°Ð½":5803,"ĠÑ¡ÑĤÑĬ":5804,"ĠÑģÐ²Ð¾ÐµÐ¼Ñ¹":5805,"ĠÐĿÐ¾Ð²":5806,"ĠÐºÐ°Ð¿Ñ¹":5807,"ĠÐ¿ÑĢÐµÑģÑĤÐ¾Ð»":5808,"ĠÑģÑĭÐ½Ñĭ":5809,"ĠÐ´ÑĥÑĪÐ°":5810,"ĠÐ³Ð¾ÑģÑĥÐ´Ð°ÑĢÐµÐ²Ðµ":5811,"ĠÑ¿Ð½ÑİÐ´":5812,"ĠÐ³ÐµÐ½ÐµÑĢÐ°":5813,"êĻĭÐ´Ðµ":5814,"ĠÑĦÐµ":5815,"ÑħÐ¾Ð´Ðµ":5816,"Ð½êĻĳÑ§":5817,"ĠÐ¿ÑĢÐ¸ÐºÐ°Ð·Ñĥ":5818,"ÑĪÑĤÐ°Ð°Ð³Ð¾":5819,"ĠÑģÐ¼ÐµÐ½Ð°":5820,"ĠÐ½Ñ¥":5821,"ÐºÐ°ÑħÑĬ":5822,"ĠÐ¿Ð¾Ð»Ð¾Ð½":5823,"ĠÐ²ÐµÐ»Ð¸ÑĨÑ£":5824,"ĠÐĳÐ¾Ð¶Ðµ":5825,"ĠÑģÑĤÑĢÐ°ÑħÐ°":5826,"ĠÑĢÑ£ÑĩÐ¸":5827,"Ð¾ÑģÐ¸Ð¸":5828,"ĠÑģÐ¾ÑĤÐ²Ð¾ÑĢÐ¸ÑĪÐ¸":5829,"ĠÑģÐ¾Ð»Ð½ÑĨÐµ":5830,"ĠÑģÐµÑĢÐµÐ±ÑĢ":5831,"ĠÐ¶Ð¸ÑĤÑĸÐµ":5832,"ĠÐ²ÑĢÑ£Ð¼Ñ§":5833,"ÐºÐ»Ñİ":5834,"ÑĭÑĤ":5835,"ÑģÑĤÑ¡":5836,"ĠÐµÐ»":5837,"ĠÑħÐ°ÑĢ":5838,"ĠÑĢÐ°Ð´ÑĬ":5839,"ÑģÐ¸Ñİ":5840,"ĠÐ¼Ð¾ÐµÐ¼ÑĬ":5841,"Ð¶Ð°Ð»Ð¸":5842,"ĠÐ¿ÑĢÐ¾ÑĩÐ°":5843,"ĠÐ²Ð¾Ð·Ð»Ð¾Ð¶Ð¸":5844,"ĠÑģÐ¼Ð¾Ð»":5845,"ĠÐ²Ð°ÑĢÑ§":5846,"ĠÐ±Ð»ÑİÑģÑĤÐ¸":5847,"ÑĤÐµÐ½":5848,"ĠÐºÐ¾Ð³Ð°":5849,"Ð¿ÐµÐ·":5850,"ĠÑĢÐ¾Ð¼Ð°":5851,"ÑĩÐ¸Ð¼Ð°":5852,"ÑĦÐ¾Ð½":5853,"ĠÑģÐ²ÑıÑĤÐ¸":5854,"Ð´ÑĭÑħÐ°":5855,"Ð¿ÑĢÐ°ÑĪÐ°":5856,"ĠÑħÐ¾ÑĩÐµ":5857,"ĠÐ¼Ð»ÑģÑĤÐ¸":5858,"ĠÐ½Ð°ÑĩÐ°ÑĤÑĬ":5859,"ĠÑĢÐ°Ð·ÑĥÐ¼":5860,"ĠÑĤÑĢÑ£":5861,"ĠÐ½ÐµÑĤÑĥ":5862,"Ð²Ð°Ñİ":5863,"ÑĩÐµÑģÐºÐ¸":5864,"ĠÑĤÑĭÐ¸":5865,"ĠÑģÐ»Ð°Ð²Ñĥ":5866,"ĠÐ²ÐµÐ»Ð¸ÐºÐ¸Ð¼ÑĬ":5867,"ĠÑģÑĤÐ¾ÑĢÐ¾Ð½Ñĥ":5868,"ĠÐ¼Ð¾Ð½Ð°ÑģÑĤÑĭÑĢ":5869,"ĠÑģÑĤÐ¾Ð»ÑĮÐ½Ðµ":5870,"ĠÐ±Ð»Ð°Ð³Ð¾ÑģÐ»Ð¾Ð²Ð¸":5871,"Ð½ÑĹÑ§":5872,"ĠÐºÐµ":5873,"Ð±ÐµÐ·":5874,"Ð±Ð°ÑĩÐµ":5875,"ĠÑģÑĤÑĢÐ°Ð½Ñ£":5876,"Ñ³Ñ£":5877,"ĠÑ¡Ð±ÑĢÑ§":5878,"ĠÐ³Ð¾ÑģÐ¿Ð¾Ð´Ð°":5879,"ĠÐ¿ÑĢÐ¾ÑģÐ²Ñ£":5880,"ĠÐ¸Ð²Ð°Ð½Ð¾Ð²Ð¸Ñĩ":5881,"ĠÐ¢Ñ£Ð¼ÑĮÐ¶Ðµ":5882,"ĠÐ¾ÑĤÐ´Ð°Ð²Ð°ÑĤÐ¸":5883,"ĠÐ¾ÐºÐ¾Ð»Ð¾":5884,"êĻĳÑĢÐ¸":5885,"ĠÐ±Ð¾Ñİ":5886,"ĠÐºÐ°Ð¼Ðµ":5887,"ĠÐ¢ÑĢÐ¾":5888,"ĠÐ»Ð¸ÑħÐ¾":5889,"ĠÐ²ÑĬÐ·Ñ§":5890,"ĠÐ±Ð¾ÑĥÐ´ÐµÑĤÑĮ":5891,"ÑĤÐ¸Ðµ":5892,"Ð½Ð¸ÐºÐ¾Ñĥ":5893,"êĻĭÐ¼":5894,"ĠÑĥÐ¼ÑĬ":5895,"ĠÐ¼Ð½Ð¾Ð¶Ð°":5896,"ĠÐ³ÑĢÐ°Ð´Ðµ":5897,"ĠÐ¿Ð¸ÑĢÑĥ":5898,"Ð³ÑĭÐ¸":5899,"ĠÐ¿ÑĮÑĢ":5900,"ĠÐ¿Ð¾Ð»Ð¾Ð¶Ð¸ÑĤÐ¸":5901,"ÑĪÐ½Ð¾":5902,"ÑıÐ´":5903,"ĠÑĢÐ¸Ð¼":5904,"ĠÐ»Ñ«":5905,"Ð²Ð°ÑĢ":5906,"Ð¾Ð±Ð¾":5907,"ĠÑģÑĬÐ¼ÑĮÑĢ":5908,"ÑĩÐµÐ½Ð¸Ðµ":5909,"ĠÐ²Ð·ÑıÑĤÑĮ":5910,"ĠÐ¿ÐµÑĩÐ¸":5911,"ĠÑģÑĤÐ¾ÑĢÐ¾Ð½Ñĭ":5912,"ĠÑĤÐ¾ÑĥÑĢ":5913,"ĠÐ³Ð¾ÑģÑĥÐ´Ð°ÑĢÐµÐ²ÑĭÑħ":5914,"ĠÐ¿ÑĢÐ¸Ð½ÐµÑģÐµ":5915,"Ð½ÑĹÐ¸":5916,"ĠÐ¸Ð´ÐµÑĤ":5917,"ĠÐ´Ñĭ":5918,"ĠÑĤÑ«":5919,"ĠÑģÑĬÐ±Ð¾ÑĢ":5920,"ĠÑģÐ¸Ð¼ÑĮ":5921,"ĠÐ¿ÑĢÐµÐ·":5922,"Ð¼Ð¾ÑĤÑĢÐ¸ÑĤÐ¸":5923,"ĠÐ»ÐµÑģ":5924,"ĠÐ»ÐµÑµ":5925,"ĠÑĤÑĬÐºÐ¼Ð¾":5926,"ĠÑģÐµÐ¼Ñ¹":5927,"Ð´Ñ¹ÑĤÑĬ":5928,"ĠÐ´êĻĭÐ¼Ð°":5929,"ĠÐ¼Ð»Ð°Ð´ÐµÐ½":5930,"ĠÐłÑĥÑģÐ¸Ð¸":5931,"ĠÑģÐ¾Ð´":5932,"ĠÐ²ÐºÑĥ":5933,"Ð´êĻ¿":5934,"Ð±Ð»Ñı":5935,"ĠÐ¾Ð¶Ð¸":5936,"ĠÐ³ÐµÑĢ":5937,"Ð¾Ð»Ñİ":5938,"ÑģÐºÑĮ":5939,"ĠÐ¿Ð¾ÑģÐ»Ñĭ":5940,"ĠÑģÑĤÐ°ÑĢÐ¸":5941,"ĠÑĩÐ¸Ð¼ÑĬ":5942,"ĠÑģÑ¹Ð´Ð°":5943,"ĠÑħÑĢÐ°Ð¼ÑĬ":5944,"ĠÐ½ÐµÐ¿ÑĢÑ£":5945,"ĠÐ¡Ð¸ÑĨÐµ":5946,"ĠÐ¿Ð¾ÑĢÑĥÐºÐ¸":5947,"ĠÑģÑĤÐ°ÑĢÐ¾ÑģÑĤÑĮ":5948,"ĠÑģÑĢÐµÐ±ÑĢÐ°":5949,"ĠÐ³Ð¾Ð´Ð°":5950,"Ð¿Ð¾Ñģ":5951,"ĠÐ·ÐµÐ¼ÐµÐ»ÑĮ":5952,"ĠÐ¼ÐµÑģÑĤ":5953,"ĠÑģÐ¾Ð±Ð¾ÑĢ":5954,"ĠÑģÑĮÐ¼ÑĮ":5955,"Ð»ÐµÐºÑģÐµ":5956,"ĠÐºêĻĭÐ½Ð¸ÑĨÐ¸":5957,"ĠÐ½Ð¾Ð²Ð³Ð¾ÑĢÐ¾Ð´ÑĮÑĨÐ¸":5958,"ÐºÑĢÑ£Ð¿":5959,",.":5960,"ĠÐºÐµÐ¼":5961,"ĠÐºÐ¾Ð»ÑĮ":5962,"ÑīÑ£":5963,"ÑīÐµÐ½Ð¾":5964,"ĠÐ´Ð°Ð½Ð°":5965,"ĠÐ½Ð¸ÐºÐ¾ÑĤÐ¾ÑĢ":5966,"ĠÐºÐ°ÐºÐ¾Ð²Ð°":5967,"ĠÐ½Ð°ÑĪÑĥ":5968,"ĠÐ²Ð¾Ð¸ÑģÐºÐ°":5969,"ĠÐ²Ð°ÑĢÑĪÐ°":5970,"ĠÐĴÐ°ÑģÐ¸Ð»ÑĮ":5971,"Ġâģĺ":5972,"ĠÐ¿ÑĢÐ¿Ð±Ð½Ð°Ð³Ð¾":5973,"ĠÐ²Ð¿ÐµÑĢÐµÐ´ÑĮ":5974,"Ġ5":5975,"ÑģÐµÐ´":5976,"ĠÐ²ÑĢÑĬ":5977,"ĠÐ·ÐµÑĢ":5978,"ĠÑģÑĤÑĭÐ¸":5979,"ĠêĻĹÐ²Ñ£":5980,"ĠÑ§ÐºÐ¸":5981,"Ð·ÑĭÐ´Ðµ":5982,"ĠÐ¼Ð½Ð¾Ð³Ð¸ÑħÑĬ":5983,"ĠÐ½ÐµÐ¸Ð·":5984,"ĠÐ²Ð°Ð²ÑµÐ»Ñ¡":5985,"ÑħÐ¾Ð¶":5986,"ÑĩÐµÐ½Ð°":5987,"ĠÐ´Ð°Ð½Ð¾":5988,"Ð¶ÐµÐ½Ð¸Ðµ":5989,"ĠÑģÐ»Ð°Ð²Ñ£":5990,"ĠÐ²ÑĬÐ·Ð¼":5991,"ĠÐ³ÑĢÐ¸Ð²Ð½Ðµ":5992,"ĠÐ³ÑĢÐ¸Ð²Ð½ÑĮ":5993,"ĠÐ³ÑĢÐ¸Ð²ÐµÐ½Ð°":5994,"ĠÐ±Ð¾Ð³Ð°ÑĤÑĮ":5995,"ĠêĻ©ÑģÐ¿Ð¾Ð´Ð¸Ð½Ðµ":5996,"ĠÐ¿Ð¾Ð·ÐµÐ¼Ð°":5997,"ÑħÐ¾Ð´Ð¸ÑĤÐ¸":5998,"ĠÐºêĻĭÐ½Ðµ":5999,"ĠÐ¿ÑĢÐ¾ÑĤÐ¸Ð²êĻĭ":6000,"ĠÐļÐ°ÐºÑĬ":6001,"ĠÑĢÑ¹ÐºÐ¾Ð´":6002,"ĠÑĨÐµÑĤÐ²ÐµÑĢÑĤÐµ":6003,"Ð°Ð»":6004,"Ð¸Ð´Ð¸":6005,"ÑģÐ½":6006,"ĠÐ¿Ð¾Ð´Ð¸":6007,"ĠÐ½ÑĶ":6008,"ÑīÑĭÐ¼ÑĬ":6009,"ÐºÐ°Ð¼ÑĬ":6010,"ĠÑ¡ÐºÐ°":6011,"ĠÑĢÐ°Ð½Ð¾":6012,"ĠÐ·ÐµÐ¼Ð»ÑĮ":6013,"Ð´Ñ§ÑĪÐµ":6014,"ĠÐ»ÑİÐ±ÑĬ":6015,"ÑģÑĸÐ¸":6016,"Ð¼ÐµÑĤÑĬ":6017,"Ð¶Ð°Ð¸":6018,"ĠÐ´Ñ£Ð»Ñ£":6019,"ĠÑģÑĭÐ¸":6020,"ĠÐ½Ð¾Ñī":6021,"ĠÐĵÑĥ":6022,"ĠÐĵÑĢÐ°":6023,"â¸±.":6024,"ĠÐ¼ÑĥÐ¶Ñĥ":6025,"ĠÐ³ÑĢÐ¸Ð²ÐµÐ½":6026,"ĠÐ²Ð¸Ð´Ñ£ÑħÑĬ":6027,"ĠÐ²ÐµÐ»Ð¸ÐºÑĸÐ¸":6028,"ĠÐ»ÑİÐ±Ð²Ð¸":6029,"ĠÐ±êĻĭÐ´Ð¸":6030,"ĠÐºÑĢÐµÐ¿Ð¾ÑģÑĤÐ¸":6031,"Ð°Ð¼":6032,"ĠÐ¸Ð´Ñ£Ð¶Ðµ":6033,"Ð³Ð¾Ð»Ð¸":6034,"ÑħÐ¾Ð²ÑĬ":6035,"ĠÐ½Ð°Ð´Ð¾":6036,"ĠÐ¿ÑĢÐ¸Ð»Ðµ":6037,"ĠÑĥÑģÐ»ÑĭÑĪÐ°":6038,"ĠêĻĹÐº":6039,"ĠÐ¿Ð¾ÐºÐ»Ðµ":6040,"ĠÐļÑĢÐ°":6041,"ÐºÐ¾Ð²Ñĥ":6042,"ĠÑĩÐµÐ»Ð¾Ð²ÐµÐºÑĬ":6043,"ĠÐ¿ÑĢÐ°Ð²Ð´Ð°":6044,"ĠÐĴÐ»Ð°Ð´Ð¸Ð¼Ð¸ÑĢÑĥ":6045,"ĠÐ¿Ð¾Ð¶Ð°Ð»Ð¾Ð²Ð°Ð»":6046,"ĠÑ¡Ð¿Ñ§ÑĤÑĮ":6047,"ĠÐ·Ð°ÑĤÐ²Ð¾ÑĢÐ¸":6048,"êĻģÐ¾":6049,"ĠÑģÐºÐ¾ÑĢÐ±ÑĮ":6050,"ĠÑģÑĤÐµÐ¿Ð°Ð½Ð°":6051,"ĠÐ´Ð¾Ð²Ð°":6052,"Ñ§Ð½Ðµ":6053,"ĠÐ½Ð°Ð·":6054,"ĠÐ½Ð°Ð¼Ð°":6055,"ĠÐ½Ð¸ÑĩÐµ":6056,"ĠÐ¾ÑĥÐ·":6057,"ÑĨÐµÐ²Ð¸":6058,"ĠÐºÐ¾Ð½Ñ£":6059,"ĠÑłÐ½":6060,"ÑħÐ¾Ð´Ð¸Ð»":6061,"ĠÑģÐ¾ÑħÑĢÐ°Ð½Ð¸":6062,"ĠÐ³Ð»ÑĥÐ±":6063,"Ð°Ð½Ð°":6064,"ĠÐ¼ÑĢÑĬ":6065,"ĠÐ¼Ð¾ÑĢÐ¸":6066,"ĠÐ¼Ð¾Ð¶Ð°":6067,"ĠÑ¡ÑĨÐ°":6068,"ĠÑģÑĬÑħÑĢÐ°":6069,"ĠÐ´ÐµÐ¸":6070,"Ð´Ñ§ÑĤ":6071,"ĠÑĤÐ²Ð¾ÑĢÐ¸ÑĤ":6072,"ĠÑĨÐ°ÑĢÐ¸ÑĨÐ°":6073,"ĠÑģÐ²ÑıÑĤÑĭÑħ":6074,"ĠÐ¿Ð»ÐµÐ¼ÑıÐ½":6075,"ĠÐ¼ÑĮÑģÑĤÐ¸ÑģÐ»Ð°Ð²ÑĬ":6076,"ĠÐ¿ÑĢÐ¸ÐºÐ°Ð·Ð°Ð½Ð¾":6077,"ĠÐ²Ð´Ð¾Ð²Ð°":6078,"Ð¾Ð¼Ñĭ":6079,"ĠÐ½ÐµÐ´Ñ¹":6080,"ÑĨÐ¾Ð²ÑĭÑħ":6081,"Ñ«ÑĤ":6082,"ÑĪÐ¸ÑģÑ§":6083,"Ð·Ð°ÑĤÐ¸":6084,"ĠÐ¿Ð¾Ð´ÑĢÐ°":6085,"ĠÐ±Ð»Ñ¹Ð´":6086,"ĠÐ¼Ñ£Ð´Ñ§":6087,"ĠÐ¿ÑĢÐ¾ÑĢÐ¾ÐºÑĬ":6088,"ĠÐľÐ¸ÑħÐ°Ð¹Ð»Ð¾":6089,".âĢ":6090,"âģ":6091,"Ð»ÑĤ":6092,"ĠÐ±ÑĢ":6093,"ĠÐ½ÐµÐ¼Ð°":6094,"ÐµÐ½Ñ§":6095,"Ð¶Ð´Ñ«":6096,"Ð¾ÑģÐ»Ð¾Ð²":6097,"ĠÐ¿ÑĢÐµÑģ":6098,"Ð½ÑıÑĤ":6099,"ĠÐ³Ð»Ð°ÑģÐ°":6100,"Ð·ÑĭÐºÑĬ":6101,"ĠÐ´ÑĥÑĪÐ¸":6102,"ĠÑģÐµÐ¼êĻĭ":6103,"ĠÐ¿Ð¾ÑģÑĤÐ°Ð²Ð¸ÑĪÐ°":6104,"ĠÐ²Ð¾Ð·Ð¼ÐµÑĤ":6105,"ĠÐºÐ¾ÑĢÐ°Ð±Ð»ÑĮ":6106,"ĠÐ½ÐµÐ¼Ð¾Ñī":6107,"ĠÐ¶ÐµÐ»Ñ£Ð·":6108,"ĠÐ¡Ð»ÑĭÑĪÐ°":6109,"ĠÑĤÐ¾Ð³Ð¸Ð²Ð°":6110,"ÑħÑ£":6111,"ĠÐ½Ð°êĻĭ":6112,"ĠÐ¿Ð¾ÑĤÐ°":6113,"ĠÐ·Ð»Ñĭ":6114,"ÑĤÐ¾Ð¸":6115,"ĠÑĢÐµÐºÐ»Ð°":6116,"ĠÐ¼Ð¸ÑĢÑ£":6117,"ĠÑģÐºÑĢÑĭ":6118,"ĠÐ¸ÑģÐ¿ÑĢÐ°Ð²Ð¸":6119,"ĠÑħÑĢÐ°Ð¼Ð¸":6120,"ĠÐĵÐ¾Ð²Ð¾ÑĢÐ¸Ð»":6121,"ĠÐºÑĸÐ¸":6122,"ÑıÐ½ÑĬ":6123,"Ð»Ð°Ð¼Ð¸":6124,"Ð½Ð°ÑħÑĬ":6125,"ĠÑĨÑĢÑĤ":6126,"ĠÐºÑĢÑĤ":6127,"Ð¸Ð¼Ñ¹":6128,"ĠÐµÑģÐ¼Ñı":6129,"ĠÑģÑĭÐ½Ñ¡Ð¼ÑĬ":6130,"ĠÐ¿Ð¾Ð¼ÐµÑģÑĤÐµÐ¹":6131,"ÑİÑīÐ¸Ð¼ÑĬ":6132,"ĠÐ³ÑİÑĢÑĮÐ³":6133,"Ð´Ð°Ð»Ð°":6134,"Ð½ÐµÑħ":6135,"ĠÑģÐµÑģÑĤÑĢÐ°":6136,"ÑĪÐ¸Ð²Ð°ÑĤÐ¸":6137,"ĠÐ¿Ð¾Ð»ÑĤÐ¸":6138,"ĠÐ»Ð¸Ñħ":6139,"ĠÐ¿Ð°Ð´":6140,"ĠÑĢÑĥÑĨÑ£":6141,"ĠÐºÐ¾ÑĥÐ¿":6142,"ĠÐ·Ð°Ð¿Ðµ":6143,"ĠÑħÑĢÐ°Ð½Ð¸":6144,"ÐµÐ²Ð¸ÑĩÑĮ":6145,"ĠÐ½ÐµÐ¿Ð¾Ðº":6146,"Ð³Ð¾Ð²Ð¾ÑĢÐ¸":6147,"ĠÑĩÐµÐ»Ð¾Ð±Ð¸ÑĤÑĮÑİ":6148,"Ð²ÑĸÐ¸":6149,"ÑĸÑ«":6150,"ĠÐ·Ð¾Ð±":6151,"Ð½Ð¾ÑģÐ¸":6152,"ÑĤÐ¾Ñİ":6153,"Ð½ÐµÐ³Ð¾":6154,"ÑīÐ°Ð°":6155,"Ð±Ð¸Ð»":6156,"Ð³Ð°Ð¼Ð¸":6157,"ĠÑĢÑ£ÑħÑĬ":6158,"ĠÐ¿ÐµÑĤÑĢ":6159,"ĠÐ¼ÑĨÑģÐ°":6160,"ĠÏ":6161,"ĠÐ¿ÑĥÑĤ":6162,"Ñ§ÑĤÐµ":6163,"ÑģÑĤÑĢÑ£":6164,"ĠÑĥÐ¼Ñĭ":6165,"ĠÑģÑĬÐ±Ð»Ñİ":6166,"Ð¼Ð°Ð³Ð¾":6167,"ĠÐŁÐ¾ÑģÐ»Ð°":6168,"ÑīÐ°Ñı":6169,"ĠÐ³ÑĢÐ¸Ð³Ð¾ÑĢÑĮ":6170,"ĠÐ¿ÐµÑĢÑģÑĤ":6171,"ĠÐ´Ð²Ð¾ÑĢÑĭ":6172,"ĠÐ±Ð¾ÑıÑĢÐ¸Ð½Ñĥ":6173,"ĠÐ¸Ð½Ð¾Ð³Ð´Ñĭ":6174,"ĠÐ½ÐµÐ²Ñ£ÑĢ":6175,"Ð»Ð°Ð½":6176,"Ð³Ð¾Ð¸":6177,"ĠÑħÐµÑĢ":6178,"ĠÐ¾ÑĥÐ²Ñ£":6179,"ĠÐ²ÐµÐ»Ð¸ÐºÑĭÐ¸":6180,"ĠÐ´Ñ£Ð»Ñĭ":6181,"ĠÑģÑĬÑĤÐ²Ð¾ÑĢÐ¸ÑĤÐ¸":6182,"ĠÐ¿Ð°Ð¼Ñ§ÑĤ":6183,"ĠÐ¿Ð¾ÑģÑĤÑĢÐ¸":6184,"Ð»ÑĸÑ§":6185,"Ð²Ð»Ð¸":6186,"ĠÐ½Ð°ÑģÑĤÐ°":6187,"ĠÐ´Ð°Ðº":6188,"ÑĪÐ°Ñı":6189,"ÑĪÐµÑģÑı":6190,"ĠÑģÐ²Ð¾Ð°":6191,"ĠÑĢÐ°Ð½Ñĭ":6192,"ÑģÐºÑĸÐµ":6193,"ĠÑģÐ¸Ð´Ð¸ÑĤ":6194,"ĠÐ²Ñ£ÑģÐ¸":6195,"ĠÑģÐ²Ð¾Ð¸Ð¼ÑĮ":6196,"ĠÑ»Ð½":6197,"ĠÐ³ÑĢÐ¾Ð±Ð°":6198,"ĠÐ¿Ð¾Ð¿Ð¾ÑĢÑĤÐ¸":6199,"ĠÐ¼ÑĭÑģÐ»ÑĮ":6200,"ĠÐ¿ÑĢÐ¾ÑĤÐ¸Ð²ÑĬ":6201,"ĠÐ½Ð°ÑĩÐ°Ð»":6202,"ĠÐ´ÑĬÐ²Ñ£":6203,"ĠÐĹÐ°ÑīÐ¾":6204,"ĠÐ´ÑīÐµÑĢÑĮ":6205,"ĠÐ³ÑģÐ´ÑĢÐ½Ñ§":6206,"ĠÐ±Ñ§ÑħêĻĭ":6207,"Ð¼ÑĢ":6208,"ÑħÐ²Ð°ÑĤÐ¸":6209,"ĠÐ¼êĻĭÐ´":6210,"Ð¸ÑĤÐ¾Ð²":6211,"ĠÑħÐ¼":6212,"Ð»ÐµÐ²Ð¸":6213,"ĠÐĴÐµ":6214,"ĠÐ¿Ð¾Ð»ÐµÐ·":6215,"ĠÑĤÐ°Ð¹":6216,"ĠÐĳÐ¾":6217,"ĠÐ±Ð¾ÑĥÐ´Ð¾Ñĥ":6218,"ĠÐ¾Ð±ÑĭÑĩÐ°":6219,"ĠÐ»Ñ¹Ñĩ":6220,"ÑĢÐ³Ð¸":6221,"ÐºÐ¾Ð½Ð°":6222,"Ð¾Ð²Ñ£Ð¸":6223,"ĠÑĢÐ°êĻģÑ¹":6224,"Ð½ÐºÑĥ":6225,"ĠÐ¸Ð½ÑĭÐ¼":6226,"ĠÑĩÑı":6227,"ĠÑģÐµÐ¹":6228,"ĠÐ¿Ð°ÑĪ":6229,"ĠÑĤÐ²Ð¾ÐµÐ¼êĻĭ":6230,"ĠÐ¿ÑĢÐµÑģÑĤÐ°Ð²":6231,"ĠÑĩÐ¸ÑģÑĤÐ°":6232,"ĠÐ¿ÐµÑĩÐµÐ½Ñ£":6233,"Ð¿ÑĢÐ°Ðº":6234,"ĠÐ¸ÑģÑĨÐ¾Ð¼":6235,"ĠÑĤÐ²Ð¾ÐµÐ¹":6236,"ÐºÐ»Ð°Ð´Ñĭ":6237,"ĠÐ¿ÑĢÐ¸ÑĪÐµÐ»":6238,"ĠÐ°Ð¼Ð¸Ð½ÑĮ":6239,"Ð²â¸¯":6240,"Ð·Ð½":6241,"ĠÐ¾Ð¶ÑĮ":6242,"ĠÑĢÐµÐ²":6243,"ĠÐ²ÑĭÑģÐ»Ñĥ":6244,"ĠÐ¿Ð¾ÑĢÐ¾Ñĥ":6245,"Ð¼ÐµÑĢÑĬ":6246,"ĠÐ¾Ð±ÑĢÑ£ÑĤÐµ":6247,"ĠÐºÐ¾ÑĢÐ¼Ð¸ÑĤÐ¸":6248,"Ð¾Ð°Ð½":6249,"ĠÐ¼ÐµÑĤ":6250,"ĠÐ¿ÑĢÐ¸ÐµÑħÐ°Ð»Ð¸":6251,"ĠÐ·Ð°Ñģ":6252,"Ð½ÐµÑģÑĤÐ¸":6253,"ÑģÐºÑ£":6254,"Ð½ÑĮÑģÑĤÐ²Ð¾":6255,"ĠÑĤÐ°ÐºÐ¸Ð¼":6256,"ĠÐ¶Ð¸Ð·Ð½Ð¸":6257,"ÑĦÐ¾ÑĢ":6258,"ĠÐ±Ð»Ð°Ð³Ð¾ÑĩÐµÑģÑĤÐ¸":6259,"ÑĤÐ¾Ð²":6260,"ÑģÐ»Ðµ":6261,"ĠÐ³Ñĭ":6262,"ÑīÐµÐ½Ñĭ":6263,"ÑĪÐ°Ð°":6264,"ÑĪÐµÐ³Ð¾":6265,"ĠÐ¡Ñ£":6266,"Ð¿Ð¾ÑģÑĤÐ°":6267,"ĠÑħÐ¾ÑĤÐµ":6268,"ĠÐ²ÐµÐ»Ð¸ÐºÐ¾Ð¼":6269,"ĠÐłÐ°êĻģ":6270,"ĠÐ²ÑĢÑ£Ð¼Ðµ":6271,"ĠÐ°Ð²Ð³Ñĥ":6272,"ĠÐ·ÐµÐ¼Ð»ÐµÑİ":6273,"ĠÑ©":6274,"Ð½ÑĨ":6275,"Ð²ÐºÐ¸":6276,"ÐµÑĢÑĬ":6277,"Ð¶ÐµÐ½Ð°":6278,"ĠÐĲÑĪÑĤÐµ":6279,"ĠÑģÑĬÐ¿Ð°":6280,"ĠÐ¿Ð¸ÑĤÑĮ":6281,"ĠÐ±Ñ£Ð³Ð°":6282,"ĠÐ´Ð²Ð¾ÑĢÑ£":6283,"Ð¿Ñ£ÑĤÐ¸":6284,"ĠÑģÐ»Ð¾Ð²ÐµÑģÑĭ":6285,"ĠÑħÐ»Ñ£Ð±Ð°":6286,"ĠÐ±ÑĢÐ°ÑĪÐ½Ð°":6287,"ĠÐ²Ð»Ð¾Ð¶Ð¸":6288,"Ð»Ð¸ÑĤÑĮ":6289,"ĠÐºÐ¾ÑģÑĤÑ§":6290,"ĠÐ¶Ð¸Ð²Ð°":6291,"ĠÐŀÑĤÑĬ":6292,"ĠÐ´Ð²Ð¾ÑĢÐ¾Ð²":6293,"ĠÑĩÑİÐ¶Ðµ":6294,"ĠÐ³Ð¾Ð»Ð¾Ð²":6295,"ĠÑĢÑĭÐ´Ð°":6296,"ÑİÑīêĻĭ":6297,"ĠÑĨÐ°ÑĢÐµÐ²Ð¸":6298,"ÑģÑĤÑ«Ð¿":6299,"ĠÐ¿ÑĢÐµÐºÑĢÐ°ÑģÐ½Ð°Ñı":6300,"Ð»Ð¾Ð±Ð¸":6301,"Ð´ÑĢÐ¸":6302,"ĠÐ¿Ð¾Ñ£":6303,"ÐµÐ¼Ñĭ":6304,"ĠÐ´Ð°Ð¶Ð´ÑĮ":6305,"ĠÑ¿Ð²Ñ£":6306,"ÑīÐ°Ñ§":6307,"ÑħÐ°ÑĤÐ¸":6308,"ÑģÐ»êĻĳ":6309,"ÑĩÑĮÑİ":6310,"ĠÑģÐºÐ²Ð¾Ð·":6311,"ĠÑĩÐ¸Ð½ÑĬ":6312,"ĠÐ³Ð»Ð°Ð³Ð¾Ð»Ñİ":6313,"ĠÐ¥Ð¾ÑĤ":6314,"ĠÑģÑĤÐ°ÑĢÐ¾ÑģÑĤÐ°":6315,"ĠÐ°ÑĢÑħÐ¸ÐµÐ¿Ð¸ÑģÐºÐ¾Ð¿":6316,"ĠÐ¿Ð°ÑĤÑĢÑĸÐ°ÑĢ":6317,"ÑħÐ¾Ð¶Ð°":6318,"ĠÑĢÐ¾Ð³":6319,"Ð½Ñ£Ð¹":6320,"ĠÐ²ÐµÑģÑĤÐ¸":6321,"ĠÑģÐ¸Ð½Ñĳ":6322,"ĠÐĶÑİ":6323,"ÑģÐ»Ð¾Ð²Ðµ":6324,"ĠÑģÐ¿Ñģ":6325,"ĠÑħÐ¾ÑĨÐµ":6326,"ĠÐ²ÑģÑıÐºÐ¾Ð³Ð¾":6327,"ĠÐ¿ÑĢÐ¾ÑģÑ§":6328,"ĠÑĢÑ£Ð·Ð°Ð½Ñ£":6329,"ĠÐºÑĢÑ£Ð¿Ð¾ÑģÑĤÑĮ":6330,"ĠÑıÑĢÐ¾ÑģÐ»Ð°Ð²ÑĬ":6331,"ĠÒĦ":6332,"ĠÐ´Ð½Ñ£":6333,"ÑĩÐµÑĤÑĮ":6334,"ÐµÐ½Ñİ":6335,"ĠÐ»Ð¾Ð¶":6336,"ĠÑ¡ÑģÑĤÑĢ":6337,"ÑĢÐµÐµ":6338,"êĻĳÑĤÐ°":6339,"ĠÐ¿ÑĢÑ£Ð»ÑĮ":6340,"ĠÐ¿Ð¾ÑģÐ»Ð°Ð»Ð¸":6341,"ĠÐ¿ÑĢÐ°Ð²Ð´Ñĥ":6342,"ĠÐºÑ¹Ð¿Ð¸":6343,"ĠÐ¼Ð¾Ð¶ÐµÑĪÐ¸":6344,"ĠÑ¡Ð»ÐµÐ³ÑĬ":6345,"ÑĥÑģÐ°":6346,"ÑıÑĤÑĬ":6347,"Ñ¡Ð¼ÑĮ":6348,"ĠÐŁÑĢÐ°":6349,"ĠÑĨÐ°ÑĢÐµÐ¼ÑĬ":6350,"ĠÐ±Ð»Ñ¹":6351,"ĠÐ±ÐµÐ·ÑĥÐ¼":6352,"ĠÑģÐ°Ð¼Ð¾Ð´ÐµÑĢ":6353,"ĠÐ¿ÑĢÐ¾Ð´Ð°Ð¸":6354,"ĠÐ¦Ð°ÑĢÑĮ":6355,"ĠÐ±êĻĭÐ´Ðµ":6356,"ĠÐ±Ð¾Ð¹":6357,"ĠÐ¿ÑĢÐµÐ»ÑĮ":6358,"ÑĤÐ¸Ð½Ñĭ":6359,"Ñ¡Ð±":6360,"ĠÑĥÑģ":6361,"ĠÑħÑĥÐ´":6362,"ÑģÐ»ÑĭÑĪ":6363,"ĠÐľÐ°Ðº":6364,"ĠÐ¿ÑĢÑ£ÑģÑĤÐ°":6365,"ĠÐ¼Ð¾Ð»Ñ§":6366,"ĠÑģÐ°Ð¼Ð¾Ð¼Ñĥ":6367,"ĠÐ·Ð´ÑĢÐ°Ð²Ð¸":6368,"ĠÐ¿Ð¾Ð»Ð¾Ð¶Ð¸ÑĪÐ°":6369,"ĠÐ²Ð¾Ð·Ð¼Ð¾Ð¶Ðµ":6370,"ĠÐ½Ñ¹Ð¶":6371,"ĠÑģÐ¸ÑĩÐºÑĭ":6372,"Î·":6373,"Ñ±":6374,"Ð½ÑĹ":6375,"ĠÐ²Ñ¡":6376,"Ñ§Ð½ÑĬ":6377,"ÑĩÑ£":6378,"ĠÐ»Ð¾Ð´Ð¸":6379,"ĠÑ¡Ð³":6380,"ĠÑĥÐ±ÑĮ":6381,"ĠÐ¼Ð¸Ð»":6382,"ĠÑĤÐ°ÑĤÐ¸":6383,"ĠÐ²Ð°ÑĪÑĬ":6384,"ĠÐ´Ð¾ÑģÑĤÐ¸":6385,"ĠÑĪÑĤÐ¸":6386,"ĠÐ¿Ð¾Ð²ÐµÐ»":6387,"ĠÑģÑĤÐ¾Ð»Ð°":6388,"ĠÐ´Ð¾Ð±ÑĢÑĭÐ¼ÑĬ":6389,"ĠÐ¿Ð¾Ð¼ÐµÑģÑĤÑĮÐµ":6390,"ĠÐ¿Ð¾ÑħÐ¾ÑĤ":6391,"ĠÐ½Ð¾Ð³Ð°ÑĤÑ£":6392,"ĠÑħÐ¸ÑĤÑĢÐ¾ÑģÑĤÐ¸":6393,"ĠÐ´Ð¾Ð²Ðµ":6394,"ĠÐ»Ð¾Ð½ÑĮ":6395,"ĠÑ¡Ð³Ð½ÑĮ":6396,"ĠÐ±Ñ£ÑĪÐ°":6397,"ĠÑĢÐ°Ð·Ð±Ð¾Ð¸":6398,"ÑĨÑ£Ð¼ÑĬ":6399,"ĠÐ³Ð»Ð°Ð³Ð¾Ð»ÐµÑĤÑĬ":6400,"ĠÐ¾ÑģÐ¼ÑĮ":6401,"ĠÐ¶Ð¸Ð²ÐµÑĤÑĬ":6402,"ĠÐ²ÐµÑĤÑĪÐ°":6403,"ĠÐ¿Ð°ÑĢÐ¾Ð±":6404,"ĠÑ¡Ð±Ð¸ÑħÐ¾Ð´ÑĬ":6405,"ĠÐ¿Ð»Ð°ÑĤÐ¸ÑĤÑĮ":6406,"ĠÐ¼ÑĥÑĢÐ·Ð°":6407,"ĠÐ¸ÑīÐµ":6408,"ĠÐ½Ð°ÑģÐ°":6409,"ĠÐ´Ð°ÑģÐ¸":6410,"ĠÑ¹Ð±Ñ¡":6411,"ĠÐ¿Ð¾ÑĢÑĭ":6412,"ĠÐ±ÑĢÐ°ÑĤÑĸÑ§":6413,"ĠÐ¿ÑĢÐ¾ÐºÐ»Ñ§":6414,"ĠÐ¿ÑĢÐµÐ¼êĻĭÐ´":6415,"ĠÐ·Ð°ÐºÐ¾Ð½Ð°":6416,"ĠÐ¼Ð°ÑĤÑĥÑĪÐºÐ°":6417,"ĠÐļÐ¾ÑĤÐ¾ÑĢ":6418,"ĠÐ¿Ð¾Ð½Ð°":6419,"ÑħÐ°ÑĢ":6420,"ĠÐ¾Ð»Ð¸":6421,"ÐµÐ»Ñı":6422,"Ð¶Ð¸Ð¼ÑĬ":6423,"Ð±Ð¸Ñ¥":6424,"ĠÐ²Ð¾Ð»Ñ§":6425,"Ð»ÑĥÑĩÐ¸":6426,"êĻĻÑĤÑĬ":6427,"ĠÐ²Ð°ÑģÐ¸Ð»Ð¸":6428,"ĠÐ»Ð¸ÑĤÐ¾Ð²":6429,"ÐºÑĤÐ¾":6430,"Ð´ÑĢÐ¾":6431,"Ð»Ð¸Ð¼Ð°":6432,"Ð´Ð¸ÑĪÐ°":6433,"ĠÐ²ÐµÑĩÐµÑĢÐ°":6434,"ĠÐ²Ð¸Ð½Ñ£":6435,"ĠÐ²Ð¾Ð»Ñħ":6436,"Ð½Ð¸Ñ¥Ð¼ÑĮ":6437,"ÑİÑīÐ¸Ð¼":6438,"ÑĤÐ²Ð°Ð¼Ð¸":6439,"ĠÑģÐ»ÑĥÐ¶Ð±Ñĭ":6440,"ĠÐ¸Ð±Ð¾":6441,"ĠÐ¸Ð½ÑĭÑħÑĬ":6442,"ÑħêĻĳ":6443,"ĠÐ½Ð°ÑĩÐ¸Ð½Ð°":6444,"ĠÐ²ÑģÐºÐ¾ÑĢÐµ":6445,"ÑĪÐµÑģÑ§":6446,"ĠÑĤÐ¾ÑĩÐ¸":6447,"ĠÐºÐ°Ð¶Ðµ":6448,"Ð³Ð°Ñ§":6449,"ĠÑĢÑĥÐºÐ¾Ñİ":6450,"ÑĢÐ¾ÐºÐ¸":6451,"ĠÐ¿ÐµÑĢÐµÐ²Ð¾Ð·":6452,"ĠÑĢÐ°Ð±Ð¾ÑĤ":6453,"ĠÐ¾ÑĤÐ´Ð°ÑĤÑĮ":6454,"ĠÐ¾ÑĤÐµÑĩÐµ":6455,"ĠÐ¿ÑĢÐ¸Ð±Ð»Ð¸Ð¶Ð¸":6456,"ĠÐ¿ÑĪÐµÐ½Ð¸ÑĨÐ¸":6457,"ĠÐ´ÐµÑĤÑĮ":6458,"ÑıÐ½Ð¸Ðµ":6459,"ÐºÐ¾Ñģ":6460,"ĠÑħÑĢÑĮ":6461,"ĠÑģÑĬÐ¿":6462,"Ð»ÑİÑĤ":6463,"ÑĨÐ¸Ð½Ð°":6464,"ĠÐºÐ¾ÑĤÐ¾ÑĢÐ°Ñ§":6465,"ĠÑģÑĮÑĢ":6466,"ÐµÐ»ÐµÐ¹":6467,"ĠÐ»ÐµÑģÑĥ":6468,"ĠÐ²ÑĢÐ°Ð³Ð°":6469,"ÑİÑīÐ¸Ñħ":6470,"ĠÑģÐºÐ¾ÑĢÐ±Ð¸":6471,"ĠÑ¥ÑģÐ¼Ðµ":6472,"ĠÐ½Ð¸ÐºÐ°ÐºÐ¾":6473,"ĠÑģÑĤÐ°ÑĢÐ¾ÑģÑĤÐ¸":6474,"Ð°Ð½ÑĬ":6475,"ÑģÑĸÐ°":6476,"Ñ§Ð½ÑĮ":6477,"Ð³Ð½êĻĭ":6478,"ÑĤÐ¸ÑĤÑĮ":6479,"ĠÑĢÐ¾Ð²":6480,"ĠÐ°êĻģÑĮ":6481,"ÑĤÑĮÑ¥":6482,"Ð²Ð°Ð»Ðµ":6483,"ÑĪÐ°Ñ§":6484,"ÑĤÐµÑħÑĬ":6485,"ĠÐ´ÐµÐ¶Ðµ":6486,"ĠÐ¿Ð»Ð°ÑĤÐµ":6487,"ÑģÑĤÐ°Ð²Ð¸ÑĤÐ¸":6488,"ĠÐ´ÑĥÐ¼":6489,"ĠÐ³Ð¾ÑģÑĤÑ§":6490,"ĠÐ´Ð²ÐµÐ½Ð°":6491,"ĠÐ´Ð¾ÑĢÐ¾Ð³Ð¾":6492,"ĠÐ½Ð°ÑĢÐ¾Ð´":6493,"ĠÐ½Ð¸ÑĩÑĤÐ¾":6494,"ĠÐ¥ÑĢÐ¸ÑģÑĤÐ°":6495,"ĠÐ²ÐµÐ»Ð¸ÑĩÐµÑģÑĤÐ²Ð°":6496,"Ð²ÐµÐ½ÑĬ":6497,"ĠÑģÐµÐ»Ñ£":6498,"ĠÐ±Ð¾Ð³Ð¾":6499,"ÐµÑĢÐ¾":6500,"ĠÐ·Ð°ÑīÐ¾":6501,"Ñ«ÑĤÑĮ":6502,"ĠÑģÐ¸êĻĹ":6503,"ĠÐĶÐµ":6504,"Ð²ÑĮÑĸ":6505,"ĠÐ´Ñ£ÑĤÐµÐ¸":6506,"ÑĶÑĤÑĮ":6507,"êĻ¿Ð½Ð¾":6508,"ÑĦÐ¾Ð½Ð¾Ñģ":6509,"ÑĢÑ§ÑĤÐ°":6510,"ĠÐ¿Ð°Ð²Ð»Ð¾Ð²":6511,"ĠÐ¿ÑĢÐµÐ¼ÑĥÐ´":6512,"ÑĮÐ¸":6513,"ÐºÐ½Ñĥ":6514,"ĠÐºÐ½Ð¾":6515,"ÑıÐ½Ð°":6516,"ĠÐ·ÑĮ":6517,"ĠÐ·Ð²Ð°":6518,"ĠÐ¾ÑĥÐºÑĢÐ°":6519,"ÑģÐºÐ¾Ð²Ð°":6520,"ĠÑĢÐµÐºÐ°":6521,"ĠÐ´Ð²Ð¾ÑĢÐµÑĨ":6522,"ĠÐ¿Ð¾Ð½Ð¾":6523,"ĠÑĦÐ°ÑĢÐ¸":6524,"ĠÐ¿Ð»ÑĬÑĤÑĮ":6525,"ĠÐºÐ»Ð°Ð½Ñ§ÑİÑģÑ§":6526,"ĠÐ»Ð¾ÐºÑĤÐ¸":6527,"ĠÐ²Ð¾Ð´Ð¸":6528,"ĠÐ½Ð±Ð¾":6529,"ĠÐ°Ð½Ð°":6530,"ĠÐ¡Ð²ÑıÑĤ":6531,"ĠÐºÑĬÑĤÐ¾":6532,"ÐµÐ½ÐµÑĨÑĬ":6533,"ĠÐĽÐµ":6534,"ĠÐºÐ¾ÑĥÐ½":6535,"ĠÐ²Ñ£ÑĢÐ¾Ñĥ":6536,"ĠÑģÐ¾Ð²ÐµÑĢÑĪÐ¸":6537,"ÑģÐ¿Ð¾Ð´Ð¾":6538,"ĠÐ¡Ð»ÑĭÑĪÐ¸":6539,"Ġ+":6540,"Ð¾Ð³Ñ¡":6541,"ĠÐ²ÑĬÐ¿Ð°":6542,"êĻģêĻĭ":6543,"ĠÐºÐ¾ÑģÑĤÐ¸":6544,"ĠÐŀÐ»Ñĳ":6545,"ĠÐ´ÐµÐ¶Ð¸":6546,"ÑķÐ¸":6547,"ĠÐ³Ð¾ÑĢÐ¾Ð´Ð¾":6548,"ĠÐ´Ð¾Ð±ÑĢÐ¾Ðµ":6549,"ĠÑħÐ¾Ð´Ð¸Ð»ÑĬ":6550,"ĠÑĨÐµÐ»Ð¾Ð¼ÑĬ":6551,"Ð¿ÑĢÐ°Ð²Ð´Ð°":6552,"ĠÐ»ÑİÐ±Ð¸ÑĤÐ¸":6553,"ĠÑģÑĤÑĮÐ¿Ð°":6554,"ĠÑĩÐµÐ»Ð¾Ð±Ð¸ÑĤÑĩÐ¸ÐºÐ¸":6555,"ĠÐ±ÑĮÑĢÐºÐ¾Ð²ÑĮÑģÐºÐµ":6556,"ĠêĻ©Ð²ÑģÐ°":6557,"ĠÑŃ":6558,"ĠÑģÐ½Ðµ":6559,"ĠÑģÐ¾Ð´Ñ£":6560,"ĠÑĤÐ¾Ð³Ð°":6561,"ĠÐ»ÐµÐ²":6562,"ĠÐ²ÑĬÐ¼Ñ£":6563,"ÑĪÐ°Ð°Ð³Ð¾":6564,"ĠÐ¡Ð¿Ð°":6565,"âĢĻ":6566,"ĠÑģÑĤÐ°ÑĪÐ°":6567,"ÐºÑ¡Ð²ÑĬ":6568,"ĠÐ±Ð¾ÑıÑĢÑģÐºÐ¸Ðµ":6569,"ĠÐĴÐ»Ð°Ð´Ð¸Ð¼Ð¸ÑĢÐ°":6570,"ĠÐ±Ð»Ð°Ð³Ð¾ÑģÐ»Ð¾Ð²Ðµ":6571,"Ð¸Ñİ":6572,"ÑģÐ¾Ð²":6573,"Ð³Ð¾Ð²Ð¾":6574,"ÑħêĻ¿":6575,"ĠÐ¼ÐµÐ½ÑĮ":6576,"ÑĩÐºÐ¾":6577,"ĠÑĢÑ¡":6578,"ĠÐ¿Ð¾ÑģÑĤÑĬ":6579,"Ñ«ÑīÐ¸":6580,"ĠÐºÐ°Ð¿":6581,"ĠÑ»ÑģÑĤÐ°":6582,"ĠÑģÑĤÐ°Ð´Ð¾":6583,"ĠÐºÐ°ÐºÑ¡":6584,"ĠÑģÑĤÑĢÐ°ÑħÑ¹":6585,"ĠÐ»ÑİÐ´Ð¸Ð¸":6586,"ĠÐ¶Ð°Ð»Ð¾":6587,"ĠÑĩÑĮÑĤÐ¾":6588,"ĠÐ·Ð°Ð½ÐµÐ¶Ðµ":6589,"ĠÐµÐ´Ð²Ð°":6590,"ÑĢÐ°Ð¸":6591,"ĠÐ¶ÐµÐ½êĻĭ":6592,"ÑĢÐµÑĩÐµ":6593,"Ð½ÐµÑħÑĬ":6594,"ĠÑĶÐ´Ð¸":6595,"ĠÐºÐ°ÑĤ":6596,"ĠÐ²ÑĮÑĢÑĮ":6597,"ĠÑģÑĥÐ½Ð´Ñĥ":6598,"ĠÐ¿ÐµÑĢÐµÑı":6599,"ĠÐ¼Ð¸Ð»Ð¾ÑģÑĤÑĭÐ½Ñİ":6600,"ĠÐºÐ°Ð·Ð½Ð°":6601,"ĠÐ´êĻĭÑĪêĻĭ":6602,"ĠÐ²Ð¾ÐµÐ²Ð¾Ð´Ñĭ":6603,"ĠÑģÐ¾ÑĤÐ²Ð¾ÑĢÑİ":6604,"ĠÐºÐ»Ð°ÑģÑĤÐ¸":6605,"ĠÑĤÑĭÑģÑ§ÑīÑĬ":6606,"Ġ7":6607,"ÑĢÐ¸ÑĤÐµ":6608,"ĠÐ¶ÐµÑģÑĤÐ¾Ðº":6609,"ĠÐ¾ÑĥÑģÑĤÐ°":6610,"Ð»ÐµÐ½Ð¸Ñı":6611,"Ġ:-":6612,"ĠÐºÐ°Ð´ÑĮ":6613,"ĠÐ¸ÑħÐ¶Ðµ":6614,"ĠÐ²Ð·ÐµÐ¼ÑĬ":6615,"ĠÑĤÐ¾Ð³Ñ¡":6616,"ÑģêĻĳ":6617,"Ð²Ð»Ñİ":6618,"ÑĪÐ»Ð°":6619,"ĠÐĺÐ±Ð¾":6620,"ÑĤÐ¾ÑĪÐ°":6621,"ĠÐ»Ð¸ÑģÑĤÑĬ":6622,"ĠÐ¿ÑĢÐ¾ÑģÑĤÐ¾":6623,"ĠÐ´Ð¾Ð¸Ð´Ðµ":6624,"ÐºÑ¡Ð¼ÑĬ":6625,"ĠÐ±Ð¾ÑıÑĢÐµ":6626,"ĠÐ´Ð¾Ð±ÑĢÐ¾Ð¸":6627,"ĠÐ´êĻĭÑĪÐ°":6628,"ĠÐ²Ð¾ÑĢÐ¾Ð½":6629,"ĠÐ¿Ð¾Ð¿ÐµÑĨÐ°":6630,"ĠÐ²Ð½ÐµÐ³Ð´Ð°":6631,"Ð½Ð½Ð¾Ðµ":6632,"Ð´Ð¾Ð±ÑĮ":6633,"ĠÐºÐ¾Ð±":6634,"ÑħÐ¾Ð¼ÑĮ":6635,"Ð¾Ð²Ð¾Ð»":6636,"Ð»Ð¸Ð²Ð°ÑĤÐ¸":6637,"ĠÐ²ÑĬÐ·ÑĬ":6638,"ÐºÐ¸Ð½Ð°":6639,"Ð½ÐµÑĪ":6640,"ĠÐ½Ð¸Ð±":6641,"ĠÐŀÐ½ÑĬ":6642,"ĠÑģÑĤÐ°ÑĢÐµÑĨÑĬ":6643,"ÑĤÐ²ÑĢÑĬ":6644,"ĠÐ´Ð¾Ð±ÑĢÐ°Ð³Ð¾":6645,"ĠÐľÐ¸ÑħÐ°Ð¸Ð»Ð°":6646,"ĠÐ³Ð¾ÑĢÐ°Ð·Ð´Ð¾":6647,"ĠÐ¾ÑĥÑģÑĤÑĢÐ¾Ð¸ÑĤÐ¸":6648,"ĠÐ»êĻĭÐºÐ°":6649,"ĠÑĤÐ²Ð¾Ñ¥Ð³Ð¾":6650,"Ð»ÑĸÐ¸":6651,"Ð²Ð½Ñ£":6652,"Ñ£ÑĪÐµ":6653,"ĠÐ´Ð²Ð¾Ñİ":6654,"ÑĩêĻĭ":6655,"ĠÐ½ÐµÐ²Ðµ":6656,"Ð¶Ð¸ÑĤÐµ":6657,"ĠÐ¿ÑĢÐ¸Ñ£ÑħÐ°":6658,"ĠÐ·Ð°Ð±Ñĭ":6659,"ÑĩÐ¸Ð²ÑĬ":6660,"ÑĩÐµÐ¸":6661,"ĠÐ¾ÑĤÑĤ":6662,"ĠÐĴÐ¾Ñģ":6663,"ÑĨÐ°Ð¼Ð¸":6664,"ĠÐ²Ñ£Ð²ÐµÑĢÐ¸":6665,"ÑģÐµÑħ":6666,"ĠÐ²ÑģÐµÐ»Ð¸":6667,"ĠÐ³Ð¾ÑĢÑĥ":6668,"ÑĶÐ²ÑĬ":6669,"Ð¾Ð²ÑĭÐ¼Ð¸":6670,"ĠÑģÐµÑĢÐµÐ´":6671,"ĠÐ¿ÑĢÐ¾Ð´Ð°Ð¶Ð¸":6672,"Ð½Ñ«Ñ§":6673,"ĠÑĢÐ¸Ð·Ñ£":6674,"ĠÐ¿ÑĢÐ°Ð²Ð´Ñ£":6675,"ĠÐ²Ð¾ÐµÐ²Ð¾Ð´":6676,"ĠÐ´ÑĢÑĥÐ¶Ð¸Ð½Ð¾Ñİ":6677,"ĠÐ¿ÑĢÐ¸Ð³Ð¾Ð´Ð¸ÑĤ":6678,"ĠÐ²ÐºÑ¹":6679,"ĠÐ¿ÑĢÐµÐ»Ñİ":6680,"ÑĤÐ¸Ð½ÑĬ":6681,"ÑĸÑĸ":6682,"ĠÐ·êĻĭ":6683,"ÑĢÐµÑĨ":6684,"ĠÐ·Ð°Ð»Ð¾Ð¶Ð¸":6685,"Ð´ÐµÐ¹":6686,"ĠÐ¾ÑĥÑĩÐ¸ÑĤÐ¸":6687,"ĠÐ¼Ð¾Ð°":6688,"Ð²ÐµÐ´Ð¸":6689,"ĠÐ´Ñ£Ð»Ðµ":6690,"ÑģÐºÐ°êĻĹ":6691,"ĠÑĩÐ°ÑģÐ°":6692,"ÑıÑĤÑģÑı":6693,"ĠÐ³ÑĢÐ¸Ð²Ð½Ñĭ":6694,"ĠÐ·Ð»Ð°ÑĤÑĭ":6695,"ĠÐ¿Ð°Ð¼ÑıÑĤÑĮ":6696,"ĠÐ½Ð°ÑĢÐ¾Ð´ÑĬ":6697,"ĠÐĳÐ¾Ð¶Ð¸Ñı":6698,"ĠÐ¿Ð»ÑĮÑģÐº":6699,"ĠÐ¼Ð¾ÑģÐºÐ²Ñ£":6700,"ĠÑģÑĢÑĮ":6701,"ÑĮÐ½Ð¾":6702,"Ð¼Ð½Ð¾":6703,"ĠÑĤÑĸÐ¸":6704,"ĠÐ¾ÑĨÐ°":6705,"Ð»Ð¸Ð²ÑĬ":6706,"ĠÑĥÐ²Ðµ":6707,"Ð»ÑİÐ±":6708,"Ð²ÑĮÑĢÑĮ":6709,"ÑģÐ¿Ðµ":6710,"Ñ³Ð¸Ð¼":6711,"ĠÐ²ÑĬÐ·Ð¼Ð¸":6712,"ĠÐºÑĢÐ¾ÑĤ":6713,"ĠÐºÑĢÐ¾Ð²Ð°":6714,"ĠÐ¼Ð¾ÐµÐ¹":6715,"Ð²Ð¾Ð»Ð°":6716,"ĠÐ½Ð°ÑĩÐ°Ð»ÑĮ":6717,"ĠÐ½Ð°Ð´Ð¾Ð±Ñ£":6718,"ĠÐ¶ÐµÐ½Ð°Ð¼":6719,"ÑĢêĻĭÐ¶":6720,"ĠÑģÑĤÐ¾Ð»Ñ£":6721,"ĠÐ½Ð°ÐºÐ°Ð·ÑĭÐ²Ð°ÑĤÐ¸":6722,"ĠÐ²Ð¸Ð´Ð¸ÑĪÐ¸":6723,"ĠÑģÐ»ÑĥÐ¶Ð±Ñĥ":6724,"ĠÐ¿ÑĢÐ¸Ð²ÐµÐ´Ð¾ÑĪÐ°":6725,"ĠÐ±Ð¾Ð³Ð¾ÑĢÐ¾Ð´Ð¸ÑĨÑĭ":6726,"Ð°ÑĤÑĬ":6727,"ÑģÐ¸ÑĤ":6728,"ÑģÐ¾Ðº":6729,"ÐºÑĤÐ°":6730,"ÐºÐ½Ñ¹":6731,"ĠÐºÑµ":6732,"ĠÐ½ÐµÑĤÑĬ":6733,"Ð½Ð°ÑĤÑĨÐ°":6734,"Ð°ÑĢÑı":6735,"Ð¼Ð°ÑĤ":6736,"ĠÐ²Ñ£Ð´Ð¾Ð¼Ð¾":6737,"ĠÐ´Ñ£Ð²Ð¸":6738,"Ð¼ÐµÑĢÐ°":6739,"Ð½ÑĭÑħÑĮ":6740,"ĠÐ³ÑĢÑ£ÑħÐ¾Ð¼ÑĬ":6741,"Ð·Ð¸Ð¸":6742,"ĠêĻģÐ°Ð¿Ð¾Ð²Ñ£":6743,"ĠÐ½ÐµÐ±ÐµÑģÑĮ":6744,"ĠÐ¿Ð¾ÑĥÑģÑĤÐ¸":6745,"ĠÑĤêĻĭÑĢ":6746,"ĠÐ³ÑģÐ´ÑĢÐ½Ð¸":6747,"ĠÐ½ÐµÐ±ÑĢÐµ":6748,"ĠÑģÐ»êĻĳÑĪÐ°":6749,"ĠÐ¿ÑĭÑĤÐºÐ¸":6750,"Ð¼ÐµÑĤÑĮ":6751,"ĠÐ°Ð»ÐµÐºÑģÐ°Ð½Ð´":6752,"ĠÑĩÑĥ":6753,"Ð´Ð°Ð½ÑĬ":6754,"ĠÑ¡Ð´Ñ£":6755,"ĠÑħÑģ":6756,"ĠÐ¿Ð¾ÑģÐ¾Ð»":6757,"ĠÑ¥Ð´Ð¸":6758,"ÑĨÐµÑħ":6759,"ĠÐ¿Ð¸Ð²Ð¾":6760,"ĠÐ¿Ð¾Ð³Ð¾Ñĥ":6761,"Ð²ÑĪÑİ":6762,"ĠÐ±ÑĥÐ´ÑĥÑĤÑĮ":6763,"ĠÐľÐ¾ÑģÐºÐ¾Ð²":6764,"ĠÐ°Ð»ÑĤÑĭÐ½":6765,"Ð´Ð¾Ð²Ð¸":6766,"ĠÐ¾Ð²ÑĮ":6767,"ĠÐ¿Ð¾ÑģÑĤÐ°":6768,"Ð¾Ð³Ñĥ":6769,"ĠÐ¿ÑĢÐ¸ÐµÐ´":6770,"ĠÑģÐµÐ´Ðµ":6771,"ĠÑģÑĬÐ²":6772,"ĠÐ²ÑģÐµÑģ":6773,"ĠÑģÑĭÑĢÑĥ":6774,"ĠÐ¼ÑĥÐ¶ÑĬ":6775,"ĠÐ±Ð¾ÑıÑĢÐ¸Ð½Ð°":6776,"ĠÐ¶ÐµÐ½Ð°Ð¼Ð¸":6777,"ĠÑģÐ»Ð°Ð²êĻĭ":6778,"ĠÑģÐ¾ÑĤÐ²Ð¾ÑĢÐ¸ÑĤÑĬ":6779,"ĠÐ½Ñ£ÐºÐ¾ÐµÐ³Ð¾":6780,"ĠÈ¥":6781,"ĠÐ»Ð¾Ð´ÑĮ":6782,"Ñ«ÑīÐ°":6783,"Ð½ÑĥÑĤÑĮ":6784,"ÑīÐ¸ÐºÐ¾Ð¼":6785,"ĠÐ¶Ð¸Ð²Ð¸":6786,"ĠÐºÑĥÐ½Ñĭ":6787,"ĠÑĩÐ¸ÑģÑĤÑĭ":6788,"ĠÑģÑĤÐ°ÑĢÑ£":6789,"ĠÑīÐ°":6790,"ĠÐ´Ð¾Ð±ÑĢÐ¾Ð¹":6791,"Ð³Ð¾ÑĢÐ¾Ð´Ñĥ":6792,"ĠÐ½ÐµÐ¿ÑĢÐ¸":6793,"ĠÑħÐ¾Ð»Ð¾Ð¿Ð¸":6794,"ĠÑĤÐ¾Ð²Ð°ÑĢÑĭÑīÐ¸":6795,"ĠÐ¿ÐµÑĢÐµêĻĹÑģÐ»Ð°Ð²":6796,"Ð²Ð¾Ð»ÑĮ":6797,"ĠÑĤÑĥÑİ":6798,"Ð·Ð´Ñĭ":6799,"ĠÐ°Ð¼":6800,"Ð½Ð°Ð¼ÑĬ":6801,"Ð²Ð°ÑĢÐ¸":6802,"ĠÐ²ÑĬÑģÐ¸":6803,"Ñ«Ñ§":6804,"ĠÐ±ÑĭÐ²ÑĪÐ¸":6805,"ÑģÐºÑĮÑĸ":6806,"ÑģÐµÑħÑĬ":6807,"ĠÑĨÑĢÑİ":6808,"ĠÐ¿Ð¾Ð²ÐµÑĢ":6809,"ĠÐ´ÑĮÑĢ":6810,"ĠÐ±ÑĮÐµÑĤ":6811,"ĠÐ½Ð°ÑĪÐµÐ³Ñ¡":6812,"ÑĪÑĤÑİ":6813,"ĠÐ±Ð¾Ð»Ñ£Ð·Ð½Ð¸":6814,"ÑĩÐ¸ÑĤÑĬ":6815,"ĠÐ°Ð¶ÑĮ":6816,"Ð¾Ð³Ð¾Ð¶Ðµ":6817,"ĠÐ¶ÐµÐ¼":6818,"ĠÑ¡ÑĢ":6819,"ĠÐ·Ð°ÐºÐ»Ð°":6820,"Ð´Ñ£ÑħÑĬ":6821,"ĠÑĤÐ°ÐºÐ°":6822,"Ð´Ð¾ÑģÑĤÐ¸":6823,"ĠÐ²ÑģÑ£Ð²Ð¾Ð»":6824,"ÑģÐºÑĭÑı":6825,"ĠÑĢÑĥÐ±Ð»Ð¸":6826,"ÑİÑīÑ¹":6827,"ĠÐ¤Ð¸":6828,"ĠÐ¼Ð°ÑĤÐµÑĢÐµ":6829,"Ð´Ð°Ñİ":6830,"ĠÐ½Ð¸ÑĩÑĮ":6831,"ĠÐ¿Ð°Ð³Ñĥ":6832,"Ð¿Ð°ÑĩÐµ":6833,"ĠÐ½Ñ£ÑĤÑĥ":6834,"ĠÐ¸Ð¼ÑıÐ½":6835,"ĠÑĨÑĢÐºÐ²":6836,"ĠÑģÐ¾ÐºÑĢêĻĭ":6837,"ĠÑħÐ¾ÑĢÐ¾Ð±":6838,"ĠÑģÐ¾ÑģêĻĭ":6839,"ÑĤÐ²Ñ£":6840,"Ð³Ð¾Ð½Ð¸":6841,"ÑĪÐµÐ½Ñĭ":6842,"ĠÐ»Ð°Ðº":6843,"ĠÑĥÐ¼Ð¸":6844,"êĻĳêĻĹ":6845,"Ð½ÐµÑĨ":6846,"ÑĸÐ¸ÑħÑĬ":6847,"ĠÑĤÐµÐº":6848,"ĠÑģÐ¿Ð¾ÑĢ":6849,"ĠÐµÑģÐ¼ÑĬ":6850,"ĠÑģÐ¼Ð¾ÑĤÑĢÑı":6851,"ÑĨÐµÐ¼Ñ£":6852,"ĠÐ¸Ð½Ñ£ÑħÑĬ":6853,"Ð´Ð½Ð¸":6854,"ÑĩÐ½Ð°":6855,"ÑĩÐµÐ½Ñĭ":6856,"ĠÐ½ÐµÐ²Ð¾Ð»":6857,"ĠÑĢÑĨÑĭ":6858,"ĠÐĺÑģÑĥ":6859,"ÑĢÐµÐ½Ð¸":6860,"ĠÐĳÐµÐ·":6861,"ĠÐ¸Ð¼Ð°ÑĤÑĬ":6862,"Ð½ÑĸÐµÐ¼ÑĮ":6863,"ĠÐ·Ð°Ð¿Ð°ÑģÐµ":6864,"ĠÑĢÐ¾ÑģÐ¿ÑĢÐ¾Ñģ":6865,"ĠÐ¿Ð¾ÑģÑĤÐ°Ð²Ð¸ÑĤÐ¸":6866,"ĠÐ²Ð·Ñ§Ð»ÑĬ":6867,"Ġi":6868,"Ð´ÐµÐ¼":6869,"Ð´Ð¾Ð²Ð°ÑĤÐ¸":6870,"ÑĩÐµÐ¼ÑĬ":6871,"ĠÐµÐ²Ð°Ð½Ð³":6872,"Ñ¡Ð½êĻĭ":6873,"ĠÑħÑ£":6874,"Ñ¥Ð²Ð¸":6875,"ĠÑģÐ°Ð²Ð°":6876,"ĠÐ¸Ð·Ð²Ð°":6877,"Ð¿Ð°Ð»Ð¸":6878,"ĠÑģÐ²êĻĻ":6879,"ĠÑģÑĤÐ°Ð»Ð°":6880,"ĠÐ²Ð¾Ð»Ð¾Ðº":6881,"ĠÑģÑ£Ð²ÐµÑĢ":6882,"ĠÑĤÑĥÑĢ":6883,"ĠÑĢÑ¹Ð±Ð°":6884,"ĠÑģÐ»Ñ¹Ð³Ð¸":6885,"ĠÐ¸Ð²Ð°Ð½ÑĬ":6886,"ĠÐŁÐ°ÐºÐ¸":6887,"ĠÑĩÐ»Ð¾Ð²Ñ£ÐºÑĬ":6888,"ĠÑ¿Ð½ÑİÐ´ÑĬ":6889,"ÑĤÐ¾Ð±Ñĭ":6890,"Ð½ÐºÑĬ":6891,"ĠÐ¸Ð´Ð¾ÑĪÐ°":6892,"ÐºÐ½ÑıÐ·ÑĮ":6893,"ĠÐ²Ð¾Ð¶":6894,"ĠÐ½Ð¾Ð¶":6895,"ĠÑĢÐ°Ð±Ð¸":6896,"ĠÐ¡Ðº":6897,"ĠÐ²Ñ£Ð¶Ð»Ð¸":6898,"Ð±Ð¸ÑĤÑĮ":6899,"ĠÐ¿Ð¾ÐºÐ¾ÑĢÐ¸":6900,"ĠÐ²ÑĭÐºÑĥ":6901,"ĠÐ²Ð¾Ð·Ð°":6902,"ĠêĻģÐ´Ðµ":6903,"ĠÐ¿ÑĢÐ°êĻģ":6904,"ĠÐ¼Ñ¹Ð¶Ðµ":6905,"ÑħÐ¾Ð´Ð¸ÑĤÑĮ":6906,"ĠÐ´ÑĬÐ¼Ð¸ÑĤ":6907,"ĠÐ½ÐµÐ´Ð¾Ð±":6908,"ĠêĻģÐµÐ¼Ð»Ñİ":6909,"ĠÐ´Ð¾ÑĢÐ¾Ð³Ð¸":6910,"ĠÑĨÐµÑĤêĻĳÑĢÐ¸":6911,"ĠÐµÐ¼Ð»Ð¸":6912,"ÑģÐºêĻĭÑİ":6913,"ĠÑģÐ°Ð¼Ð¾Ð¸":6914,"ĠÑĢÑ¹ÐºÐ¾Ð´Ñ£Ð»ÑĮ":6915,"Ð»ÐµÐ¼ÑĬ":6916,"ĠÑħÐ²Ð¾":6917,"ĠÑĢÐµÐºêĻĭ":6918,"ĠÐ³Ð»Ð°ÑģÐ¾Ð¼ÑĬ":6919,"ĠÑģÑĮÐ´Ðµ":6920,"ĠÐ²Ð¸Ð´Ñ£Ð²ÑĪÐµ":6921,"ĠÑĢÐ¸Ð·":6922,"ĠÑģÐ»ÑĭÑĪÐ°Ð²ÑĪÐµ":6923,"ĠÐ¸Ð´ÐµÑĪÐ¸":6924,"ĠÐ¢Ñ£Ð¼Ð¶Ðµ":6925,"ĠÐ½ÐµÐ¼Ð¾ÑīÐ¸":6926,"ĠÐ·Ð°ÑħÐ°ÑĢÑĮ":6927,"ÑĤÐµÐ¼ÑĬ":6928,"Ð¼ÑĸÐ°":6929,"ÐºÐ²Ñĭ":6930,"ĠÐ²Ð¾Ð´Ñ£":6931,"Ð±Ð¸ÑĤÐ°":6932,"Ð·Ð»Ð¸":6933,"ĠÐ¿ÑĢÑĹ":6934,"ĠÐ¿ÑĢÐ¾Ð¿Ð°":6935,"ÑĢÐ°Ð½":6936,"ĠÐ°Ð±Ð¸Ðµ":6937,"Ñ¡Ð°Ð½":6938,"ĠÐ¿ÑĢÐ¾ÑģÑĤÐ°":6939,"ÑĢÑĥÑİ":6940,"ÑģÐµÐ¹":6941,"ĠÐ¿Ð¸ÑĪÐµÑĤ":6942,"ĠÑģÐ¾Ñĩ":6943,"ĠÑĤÐ²Ð¾ÐµÑİ":6944,"ĠÐ²ÑģÑıÐºÐ¸Ðµ":6945,"ĠÐ·Ð»Ð°Ñı":6946,"ÑĤÐµÐ»Ñİ":6947,"ĠÑĢÐ°Ð´Ð¾ÑģÑĤ":6948,"ĠÐ¼Ð¸ÑħÐ°Ð¸Ð»Ñĥ":6949,"ĠÐ¿ÑĢÐ¸Ð²ÐµÑģÑĤÐ¸":6950,"ĠÐ²Ð´Ð²Ð¾Ðµ":6951,"Ð±ÑĢÑ£ÑĤÐµ":6952,"ĠÐ¸ÑİÐ»Ñı":6953,"ĠÐ²ÑģÐµÐ´ÐµÑĢ":6954,"ĠÐ¸ÑĤÑĤÐ¸":6955,"ÑĢÑĸÐµ":6956,"ĠÑģÑĢÑĬ":6957,"ĠÐ¸Ð½Ð¾Ðµ":6958,"Ð¼Ð¾Ð¼ÑĬ":6959,"Ð³Ð¾Ð²ÑĬ":6960,"Ð¾Ð¼Ð°Ð½":6961,"Ð´Ð¸Ð¼":6962,"Ð²ÑĬÐ·":6963,"ÑĤÐ°ÑĤÐ¸":6964,"ĠÑ¹ÐºÑĢÐ°":6965,"ĠÑģÐ¿ÑĢÐ¾ÑģÐ¸":6966,"ÑģÐºÑĭÑħ":6967,"ĠÐ¼Ð½Ñ¡Ð³Ð°":6968,"ĠÐ¿Ð»Ð¾ÑĤÑĮ":6969,"ÐºÐ¾ÑĢÐ¼Ð¸":6970,"ĠÑģÑĢÐ¾ÐºÑĥ":6971,"ĠÐ¿ÑĭÑĤÐ°ÑĤÐ¸":6972,"ĠÐºÑĸÐ¸Ð¶Ð´Ð¾":6973,"ĠÐ²Ð¸ÑĤÐµ":6974,"Ñ§Ð½ÑĸÐµ":6975,"ÑģÑĤÐ¾Ð»ÑĮ":6976,"Ð³Ð»ÑĮ":6977,"Ð¾Ð²êĻĭ":6978,"ĠÐ¿ÑĢÐ¾Ð´":6979,"Ð¿Ð¾Ðº":6980,"ĠÐ½ÐµÐ¼Ðµ":6981,"ĠÐ½ÐµÐ¼Ð¾Ñĥ":6982,"ÑĢÐ°Ð²Ð°":6983,"êĻĹÐºÐ¾Ð¶Ðµ":6984,"êĻĳÐ¼ÑĬ":6985,"Ð´ÐµÑħ":6986,"ĠÐ²Ñ£ÑģÑĤÐ¸":6987,"Ð½ÑıÑı":6988,"ĠÐľÐ½Ð¾Ð³":6989,"ĠÐ½Ñ£ÐºÑĭ":6990,"ĠÑĤÑ£Ð¼Ð¸":6991,"ĠÐ²ÐµÐ»Ð¸ÐºÐ¾Ð¹":6992,"ĠÐ¼ÑĬÐ½Ð¾Ð³":6993,"ĠÐ¿êĻĭÑģÑĤÑĭÐ½Ð¸":6994,"ĠÐ´ÑĢÐ°Ð³Ð¸":6995,"ÑĪÐ¸ÑĤÐµ":6996,"ÑĤÐ¸Ð¸":6997,"ĠÑ¡Ð¿Ð°":6998,"ĠÑĥÐ¼Ðµ":6999,"ĠÑ¿Ð¸":7000,"ĠÐ¶Ð²Ð¾":7001,"Ð½ÑĮêĻĹ":7002,"ÑĩÐ°Ð»ÑĬ":7003,"ĠÐ¸Ð·Ð±Ñĭ":7004,"ĠÐ¿Ð»Ð°ÑĩÑĮ":7005,"ĠÑĩÐµÑģÑĤÐ¸":7006,"ĠÑīÑĮ":7007,"ĠÐ³ÑĢÐ¸Ð²ÑĮÐ½ÑĮ":7008,"ĠêĻģÐµÐ¼Ð»Ð¸":7009,"ÑĪÐµÐ´ÑĪÐµ":7010,"ĠÐ¼Ð¾Ð»Ð¾Ð´ÑĨÐ°":7011,"ĠÑħÐ²Ð°ÑģÑĤÐ°":7012,"ÑĤÑĶ":7013,"ÑĤÑĸÑİ":7014,"Ð²ÐµÐ»ÑĬ":7015,"ĠÐ¿ÑĢÐµÐ»Ðµ":7016,"ĠÐ¿Ð¾ÑĩÐ¸Ð½":7017,"Ð¶Ð´Ñĥ":7018,"ĠÐ¡ÑĤÐ°ÑĢ":7019,"ĠÐļÑĢ":7020,"ÑĦÑĥ":7021,"ĠÑģÑĤÐ°Ð³Ð¾":7022,"ÑģÑĤÐ²ÑĸÐµ":7023,"ÐµÐ½Ð°Ñ§":7024,"ĠÐ¸Ð¼Ð°ÑĤ":7025,"Ð°Ð½Ð´Ð°":7026,"ĠÐ´ÐµÑĢÐ·":7027,"ĠÐºÐ¾Ð»Ðµ":7028,"ÑħêĻĭÑģÑ§":7029,"êĻĳÐ¸ÑħÑĬ":7030,"ĠÐ¿ÑĢÑĸÐ¸Ð´ÐµÑĤÑĬ":7031,"ĠÐ´Ñ£ÑĤÐ¼Ð¸":7032,"ĠÐ¾Ð±Ñ£ÑīÐ°":7033,"ĠÐĳÐ°ÑĤÑĭ":7034,"ĠÐ°Ð»ÐµÑ¯Ð°Ð½Ð´":7035,"Ð¾Ñħ":7036,"ÑĢÐ¼Ð¸":7037,"ÑĤÐ¸ÑĢÐ°":7038,"ÐµÐ½Ñı":7039,"ĠÐ²ÑĬÑģÑĤ":7040,"ĠÐ²ÑģÐ»Ñ£Ð´ÑĬ":7041,"Ð²ÑĬêĻģ":7042,"Ð²ÑĬÑĪÐ¸":7043,"ĠÑģÐºÑĢÑĬ":7044,"ĠÐ±ÐµÐ·Ð±Ð¾Ð¶":7045,"Ð½Ð¸ÐºÑ£":7046,"ĠÐĿÐ°ÑģÑĤÐ°ÑģÑĮ":7047,"ĠÑĤÑĢÑ¹Ð´":7048,"ĠÐ²Ð¾ÑģÐºÑĢÐµ":7049,"ĠÐ£Ð¶Ðµ":7050,"ĠÑĢÐ¾Ð·Ð±Ð¾":7051,"Ð¿ÑĥÑģÑĤÐ¸":7052,"ĠÐºÐ°Ð±Ð°Ð»Ñĥ":7053,"ĠÐ¸Ð´ÐµÑĤÑĮ":7054,"ĠÐ¿Ð¾Ð¶ÑĮ":7055,"ĠÑĤÑīÐ°":7056,"Ð³ÑĢÑ§":7057,"ĠÐ½ÐµÐµ":7058,"ĠÐ¿Ð¾ÑĩÑĮ":7059,"ĠÑ¡ÐºÐ¾Ð»Ð¾":7060,"ĠÐ¾ÑĥÐºÐ°":7061,"ĠÐ²Ð°Ð²Ð¸":7062,"ĠÐ¿ÑĢÐµÐ¸":7063,"ÑģÐ»Ð¾Ð²Ð¸":7064,"ĠÐ³Ð¾ÑĢÐ´Ñĭ":7065,"ÑĪÑĮÐ´ÑĬ":7066,"ĠÑĩÐ¸Ð½Ñ¹":7067,"ĠÐ³Ð»Ñģ":7068,"ĠÐĴÑĬÐ·":7069,"ĠÐŁÐ¾ÑĩÑĤÐ¾":7070,"ĠÑĤÐ²Ð¾ÑĢÐ¸ÑĤÐµ":7071,"ĠÑģÐºÐ°Ð·ÑĭÐ²Ð°":7072,"ĠÐ²ÑģÐµÐ¼Ñ¹":7073,"ĠÐ²Ð·Ñ§ÑĪÐ°":7074,"ĠÐ²Ñ£Ð´Ð°Ñİ":7075,"ĠÑĤÐ²Ð°ÑĢÑĮ":7076,"ÑģÐ°ÑĢÑĮ":7077,"ĠÐ½ÐµÐ·":7078,"ĠÑģÑĤÑĢÑı":7079,"ĠÐ²Ð¸Ð½Ðµ":7080,"ĠÑĢÑ£ÑĨÑ£":7081,"ĠÐ²Ð¾ÑĢÐ¾ÑĤÐ°":7082,"ĠÐ¿Ð»Ð¾ÑĤÐ¸":7083,"Ñ¿Ð²Ñ£":7084,"ĠÐ²ÑĮÑģÑ£Ð¼ÑĬ":7085,"ĠÑģÑĤÑ£Ð½Ñĭ":7086,"Ð³Ð¾ÑĤÐ¾Ð²":7087,"Ð²Ð¾Ð¼ÑĬ":7088,"ĠÑĥÑĤ":7089,"ĠÐ²Ñ£Ð½":7090,"ĠÐ²Ñ£ÑĩÑĮ":7091,"ĠÐ¼Ð°ÑĢÐ¸":7092,"ĠÐ¿ÑĢÑ£Ð¶Ðµ":7093,"ĠÑĤÑĢÐµÑĤÐµ":7094,"ĠÑģÑ¹Ð´":7095,"ĠÐ´ÑĮÐ½Ð¸":7096,"ĠÐµÑģÐµÐ¼Ð¾":7097,"Ð°Ð½ÑĨÑĭ":7098,"ĠÐ´ÑĥÑĪÐµ":7099,"ĠÑĩÑİÐ´ÐµÑģÐ°":7100,"ĠÐ±Ð¾Ð³Ñĥ":7101,"ĠÑģêĻĭÐ´ÑĬ":7102,"ĠÑĪÐ°ÑĤÐµÑĢ":7103,"ĠÑģÑĤÐ°ÑĢÑ£Ð¸ÑĪÐ¸":7104,"ĠÑĦÐ¸Ð»Ð¾ÑģÐ¾":7105,"ĠÐ¸Ð¼ÐµÐ½Ð°":7106,"ĠÐ²ÐºêĻĭ":7107,"Ð³Ð»Ð¾":7108,"ĠÐ¶ÐµÑĢÑĤ":7109,"Ð¶ÐµÑİ":7110,"ĠÑ¡Ð±Ð°":7111,"Ð¼Ð°Ð½ÑĬ":7112,"ĠÐ¶ÑĢÑĬ":7113,"Ð½ÑıÐ³Ð¾":7114,"ĠÐ³Ð¾ÑĢÐ¾Ð´Ñ£":7115,"ÑĢÑĭÐ½Ð¸":7116,"ĠÑĩÐ°ÑģÑĭ":7117,"ĠÐºÑĢÐ¾ÑĤÐ¾":7118,"Ð½Ð¾Ð¼Ð¾":7119,"ĠÑĤÑĬÑĢ":7120,"ĠÐ±Ð¸ÑĤÑĮ":7121,"ĠÐ¼Ð°Ð½Ð°ÑģÑĤêĻĳ":7122,"ĠÑģÐ°ÑĢ":7123,"ÑģÑĤÐ¾Ð¹":7124,"ĠÐ³Ð¾Ð½Ð¸":7125,"Ð½Ð¸ÑĨÑ§":7126,"Ð´Ð°Ð»ÑĬ":7127,"ĠÐ±ÑĭÑħÑĬ":7128,"ÑĩÐ¸ÑģÐ»":7129,"ĠÑĤÐ°ÐºÐ¸Ðµ":7130,"ĠÐ±Ñ£ÑģÐ¸":7131,"ĠÐ§Ðµ":7132,"ĠÐ¼ÑĮÐ½Ñ£":7133,"ĠÑģÑĥÐ´ÑĬ":7134,"ĠÑģÑĤÐ¾Ð»Ð±":7135,"ĠÑģÐ¾Ð²ÐµÑĤ":7136,"Ð¶Ð´ÐµÐ½":7137,"ÑģÐ²Ð¸":7138,"Ð·Ð´ÑĬ":7139,"ĠÐ³ÑĢÐ¾":7140,"ĠÐĲÑĦÐ°Ð½Ð°":7141,"ĠÑģÐ²Ð¾ÐµÐ¼Ð¾Ñĥ":7142,"ĠÐ¾ÑĥÐ²":7143,"ĠÐ¾ÑĥÐ¿ÑĢÐ°":7144,"ÑĩÐ°ÑĤÑĮ":7145,"ĠÑıÐ·ÑĬ":7146,"ĠÐ±ÐµêĻģÑĬ":7147,"ĠÐ»Ð¸ÑĪ":7148,"Ð¼Ð¾Ñİ":7149,"ĠÑģÑĤÐ°ÑĢÐ¸Ð½":7150,"Ð´ÑĥÐ¼Ð°":7151,"ĠÐ³ÑĢÐ°Ð¼Ð¾ÑĤÐ¾Ñĥ":7152,"ĠÐ¿ÑĢÐ°Ð²Ð´Ñĭ":7153,"ĠÑ¡Ð±ÑĢÐ°Ð·":7154,"ĠÑģÐºÐ°Ð·Ð°ÑĤÐ¸":7155,"ĠÐ½Ð°ÑģÐ¸Ð»ÑĮ":7156,"ĠÑ¡Ð»ÑĮ":7157,"ÑģÐºÐ¾Ð²Ð¾":7158,"Ð¼Ð°Ð½Ð°":7159,"ĠÑĤÐ¾Ñ§":7160,"ĠÐ¸Ð·Ð¼ÐµÐ½":7161,"Ð¶Ð°ÑĤÑĮ":7162,"ĠÐ¿ÑĢÐµÑģÐ»Ð°Ð²":7163,"ĠÐºÐ¾ÑĢÐ¾Ð±Ð¸":7164,"ĠÐ¼Ñ£ÑģÑĤÑĬ":7165,"ĠÑĨÑĢÑģÑĤÐ²Ð¾":7166,"ĠÑģÑĤÐ°ÑĢÐ¾Ð¹":7167,"ĠÐ±êĻĳÐ²Ð°":7168,"ĠÐ¿Ð»Ð¾Ð´ÑĬ":7169,"ĠÑħÐ¾Ð»Ñ¡":7170,"Ð²ÑĪêĻĭ":7171,"Ð´ÐµÑģÑ§ÑĤ":7172,"ĠÐ´ÑĢêĻĭÐ³Ð°":7173,"ĠÑħÐ¾ÑīÐµÑĤÑĬ":7174,"ĠÐ¢ÑĬÐ³Ð´Ð°":7175,"ĠÐ¿Ñĸ":7176,"ĠÐ²êĻ¿":7177,"ĠÐ¾ÑģÑĤÐ°Ð½":7178,"ĠÐ½Ð°Ð»Ñ£":7179,"ĠÐ¿ÑĢÐ¾ÐºÐ°":7180,"ĠÐ¿Ð¾êĻģÐ½Ð°":7181,"ĠÐ¶Ñĭ":7182,"ĠÐ¾ÑĤÑĨÐ¾Ð²":7183,"ĠÑģÐ¸Ð¼Ð¸":7184,"ĠÑģÐ¸ÑĢÑ£":7185,"Ð¶Ð°ÑĤ":7186,"ĠÐºÐ¾ÑģÑĤ":7187,"Ð³Ð°Ñħ":7188,"ÑĶÑĤ":7189,"Ð»ÐµÐ½ÑĸÐ¸":7190,"ĠÐ¿Ð¾ÑģÐ»Ð°Ð»Ðµ":7191,"ĠÑħÐ¾ÑīÐµ":7192,"ĠÎ¹Ð»Ð¸":7193,"ĠÐ¿ÑĢÐ¾Ð¿Ð¾Ð²Ñ£":7194,"ĠÑĨÐµÐ»Ð¾Ð²Ð°Ð»":7195,"ĠÐ¿Ð¾Ð¼ÑĭÑĪÐ»Ñı":7196,"ÐºÑĪÐ¸":7197,"ÑģÑĤÐ¾Ð¼":7198,"ÑģÑĤÐ¾ÑĤ":7199,"Ñħâ¸¯":7200,"ĠÐ·ÐµÐ»Ð¾":7201,"Ð¾ÑĥÑĤÑĮ":7202,"Ð´Ð¸Ð»Ð°":7203,"ÑĩÐ°ÑĪÐµ":7204,"ĠÐĶÐ¸":7205,"ĠÐĳÑĥÐ´":7206,"ĠÐ²ÑĭÐ¼Ñĭ":7207,"ĠÐ³Ð»Ð°Ð³Ð¾Ð»Ð°ÑĪÐµ":7208,"Ð»ÐµÐºÑģÑ£":7209,"ĠÐ±Ð¸Ð»Ð¾":7210,"ÑīÐµÐ½ÑĸÐ°":7211,"ĠÐ³Ð¾Ð»Ñ£":7212,"ĠÐĿÐ¸Ðº":7213,"ĠÐ¸Ð²Ð°Ð½Ð¾Ð²Ð¸ÑĩÐ°":7214,"ĠÐ²ÑĬÐ´Ð°Ð¸":7215,"ĠÐ¿Ð¾Ð¶Ð°Ð»Ð¾Ð²Ð°ÑĤÐ¸":7216,"ĠÑĥÐºÐ°Ð¶ÐµÑĤ":7217,"ÑĤÐ¾Ð¹":7218,"Ð½Ð¾Ð²Ñ£":7219,"ÐºÐ²ÑĮ":7220,"ÑħÑĢÐ¸":7221,"ĠÐ½ÐµÐ¿Ð¾Ð´Ð¾Ð±":7222,"ĠÐ¿ÑĢÐ¸Ð¸Ð¼ÑĬ":7223,"ĠÑ¿Ð¿Ð°":7224,"Ð½ÐµÑĪÑĮ":7225,"ÑīÐµÐ¹":7226,"ĠÐ¡ÑĤÐµ":7227,"Òĩ,":7228,"ĠÐ´Ð¾Ð±ÑĢÐ¸":7229,"ĠÐŀÐ¶Ðµ":7230,"ĠÐ»ÐµÐ³":7231,"ĠÐ³Ð°Ð»Ð¸":7232,"ĠÐ±ÑĭÐ²Ð°ÐµÑĤ":7233,"ĠÐ´ÑĢÐµÐ²Ð°":7234,"ĠÐ³ÑĢÑ£ÑħÑĭ":7235,"ĠÐ´ÑīÐµÑĢÐ¸":7236,"ĠÐ¸Ð·Ð±Ð°Ð²Ð¸":7237,"ĠÐ¿ÑĢÐ¾ÑĢÐ¾Ðº":7238,"Ð¿ÑģÐ²Ð°":7239,"ÑģÑħÐ¾Ð´":7240,"Ñ§Ð½Ð¾":7241,"Ð¶Ð½Ð¸":7242,"ÐµÐ»Ñ§":7243,"Ð´Ð¸Ð¸":7244,"Ð°ÐºÐ¾Ð½ÑĮ":7245,"ĠÐ¾ÑĤÑĢÐ¾":7246,"ĠÐ¼Ð¸Ð»Ð¾ÑģÐµÑĢ":7247,"ĠÐ²Ñ£ÑĤ":7248,"ĠÐ²Ð°ÑĢÐ¸ÑĤÐ¸":7249,"ÑĶÐ¸":7250,"ĠÐ¿Ð¾Ð¼Ð¾Ð¶Ðµ":7251,"ĠÐ¿Ð¾ÑĢêĻĭ":7252,"Ñ³Ð¾Ð½":7253,"ĠÐ²ÑĬÐ·Ð´Ð²Ð¸":7254,"ĠÐ²ÑĢÐµÐ¼ÐµÐ½Ð°":7255,"ĠÐ±Ñ«Ð´Ñ«":7256,"ĠÐ±ÑĢÐ°ÑĤÑĮÐ¸":7257,"ĠÑĪÑĮÑģÑĤÑĮ":7258,"ÑĤÑ«":7259,"ÑĢÐ¾Ð´Ð¸":7260,"Ð³Ð´Ðµ":7261,"ĠÐ¿ÑĢÐ¾Ð»":7262,"âĢĵ":7263,"ĠÐ¿Ð¸Ð²Ð°":7264,"ĠÐ¿Ð¾Ð³Ñ¹Ð±":7265,"ÑķÐ°":7266,"ĠÐ±ÐµÑĢÐµÐ¶Ðµ":7267,"ĠÑĢÐ°Ð±Ð¾ÑĤÑĭ":7268,"ĠÐ¤ÐµÐ´":7269,"ĠÐ²Ð¾ÑģÐ¿Ð¸ÑĤÐ°":7270,"ĠÐ½Ð¸Ð±ÑĥÐ´ÑĮ":7271,"ĠÐ²ÑģÐµÑģÐ¾Ð¶":7272,"us":7273,"âŁ":7274,"Ł¦":7275,"ĠÐ²ÑģÑĤÐ°":7276,"ĠÑĤÐ²ÑĮÑĢ":7277,"ĠÐ·Ð²ÐµÑĢ":7278,"ĠÐµÐ²Ð°Ð½Ð°":7279,"Ð½Ð°Ð¸":7280,"ĠÑģÑĤÐµÑĢ":7281,"ĠÑ¡ÑģÐ¿Ð¾Ð´Ð¸Ð½Ðµ":7282,"ĠÑģÑĬÐºÐ¾Ð½ÑĮ":7283,"ÑĨÐ°Ð¼ÑĬ":7284,"ĠÐ¿ÑĢÐ¾êĻģ":7285,"ÑģÑĤÐ²ÐµÐ½Ñĭ":7286,"ĠÐ³ÑĢÐ¸Ð²Ð½êĻĳ":7287,"Ð½Ð¸ÑĨÐ°ÑħÑĬ":7288,"ĠÐºÑ¹Ð´Ñĭ":7289,"ĠâŁ¦":7290,"ĠÐ¼Ð¾Ð¶ÐµÐ¼ÑĬ":7291,"ĠÐ´ÑĢÐ¾ÑĥÐ³Ð°":7292,"ĠÐ´Ð¾ÑģÑĤÐ¾Ð¸Ð½ÑĬ":7293,"ĠÐ»Ð¾ÑģÐ¾ÑģÐ¸":7294,"ĠÑħÑĢÐ°Ð±ÑĢÑĭ":7295,"ĠÐ½Ð¾Ð²ÑĬÐ³Ð¾ÑĢÐ¾Ð´ÑĬ":7296,"ĠÐ¾Ð±Ð¾ÑĢÐ¾ÑĤ":7297,"ĠÑģÑĤÑĢÑıÐ¿":7298,"âŁ§":7299,"ÑģÑĢ":7300,"ĠÐ¸Ð½Ð¾Ð¹":7301,"ĠÐ²ÑĤÐ¾ÑĢÐ¾Ðµ":7302,"Ð±ÐµÐ»ÑĮ":7303,"ĠÐ·Ðµ":7304,"ĠÑĥÐ²Ñ£":7305,"ĠÑĢÐ°Ñĥ":7306,"Ð¿Ð°Ð½":7307,"ĠÐ±Ñ£Ð»ÑĬ":7308,"ÑĥÑĤÑĩÐ¸":7309,"ĠÑģÐ¼Ñĭ":7310,"ÑģÑĭÐ»Ð°":7311,"ĠÐ»Ð°Ð´":7312,"ĠÐ²ÑģÑıÐºÐ¸Ð¼Ð¸":7313,"ĠÐ¼êĻĭÐ¶Ðµ":7314,"ĠÐ¿Ð°ÐºÑĮ":7315,"ĠÑģÐ»ÑĥÐ¶Ð±Ðµ":7316,"ĠÐ²Ð¾Ð¹ÑģÐºÐ°":7317,"ĠÐ°Ð²Ð³ÑĥÑģÑĤÐ°":7318,"ĠÑĤÐ¾ÑĩÐ¸Ñİ":7319,"),":7320,"ĠÐ²Ð¾Ð½ÑĮ":7321,"ÑħÐ½Ð¸":7322,"ĠÐµÑ§":7323,"ĠÑģÑĤÐ¾Ñĥ":7324,"ÑģÑĤÐ¸êĻĹ":7325,"ĠÐ¼Ð¸Ðº":7326,"ĠÐ²Ð¾Ð»ÐµÑİ":7327,"ĠÑģÑĤÑĢÐ°Ñħ":7328,"ÑĤÑ£ÑħÑĬ":7329,"ĠÐ±ÑĭÐ²Ð°ÐµÑĤÑĬ":7330,"ĠÐ¼Ñ«Ð¶ÑĮ":7331,"ĠÑģÑĤÐ²Ð¾ÑĢÐ¸ÑĤÐ¸":7332,"ĠÐ¿ÑĢÐ¾Ð¼ÐµÐ¶":7333,"ĠÐ¿ÑĢÐ°Ð²ÑĮÐ´ÑĮ":7334,"ĠÐ»ÐµÑµÑĸ":7335,"ÑĢÐ¾Ð»":7336,"Ð²Ð½Ð¸":7337,"Ð³Ñ«":7338,"ĠÐ³Ð¾Ð²Ñ£":7339,"Ð»Ð°ÐºÐ°":7340,"ĠÐ»ÐµÑĤÐ¾":7341,"ĠÐ·Ð°ÑģÑĤÐ°":7342,"ĠÑĨÑĢÑ§":7343,"ÑĩÐ¸Ð»Ð¸":7344,"ÑĩÐ¸Ð½Ñĥ":7345,"ÑħÐ°Ð»Ð¸":7346,"ÑģÑĤÐ¾Ñı":7347,"ĠÐ±Ð»Ð¶":7348,"ĠÐ¿Ð¾ÑĤÐ¾Ð¿":7349,"ĠÐ¿Ð¾ÑĤÑĢÑ£Ð±":7350,"Ð½êĻĳêĻĹ":7351,"ĠÐºÐ¾Ð»Ð°":7352,"ĠÐ¼Ð¾ÑĢÑı":7353,"ĠÐ¼Ð½Ñ¡Ð³Ð¸":7354,"Ð¾Ð¿Ð¸ÑģÐ°":7355,"ĠÐ¿Ð¸ÑģÐ¼Ð°":7356,"Ð¸Ð¼ÑĮ":7357,"ĠÑ¦":7358,"ĠÐ¸Ð³êĻĭ":7359,"ÑģÑĤÐ¸ÑĤÐµ":7360,"ĠÐ¿Ð¾ÑīÐ°":7361,"ĠÐ»Ð¾Ð½Ð¸":7362,"ÑĪÐ°ÐµÑĤ":7363,"Ð½ÐµÑĨÑĬ":7364,"ĠÐ²Ð¾Ð·Ð´ÐµÑĢÐ¶Ð°":7365,"ĠÐ¶Ð°Ð»Ð¾Ð±":7366,"ĠÐ¼Ð½Ð¾Ð³ÑĬ":7367,"ĠÐ´Ð¾Ð±ÑĢÑĭÐ¹":7368,"ĠÐ¿ÐµÑĩÐ°ÑĤÐ¸":7369,"ĠÐ¾Ð¿ÑıÑĤÑĮ":7370,"ĠÐ¡ÑĤÑĢÐ°ÑĤÐ¸":7371,".âĢł":7372,"ÑĩÐµÐ¼Ñĥ":7373,"ĠÐµÐ¿Ð¸ÑģÐºÐ¾Ð¿":7374,"ĠÑĩÑĤÐ¸":7375,"ĠÐĲÑħ":7376,"Ð¼Ð°ÑĤÑĢÐ¸":7377,"ĠÐ¿ÑĢÐ¾Ð¸Ð·":7378,"ÐºÑĥÐ»Ð¸Ñĩ":7379,"ĠÐ³ÑĢÐ¸Ð²ÑĬ":7380,"ĠÐ¸ÑģÐ¿ÑĭÑĤÐ°":7381,"ĠÐ¶Ð¸Ð²ÑĥÑĤ":7382,"ĠÐ´Ð¾Ð¼Ð°Ð¶Ð¸":7383,"ĠÐ¾Ð±Ð¸Ð´Ñĥ":7384,"Ð½Ð¸ÑĨÑ«":7385,"ĠÐ¿Ð¾Ð³ÑĢÐµÐ±Ðµ":7386,"ĠÐ·Ð´ÑĢÐ°Ð²ÑģÑĤÐ²Ñĥ":7387,"ĠÐ²êĻģ":7388,"Ð´Ð¾ÑĢÐ°":7389,"ĠÐ¿ÑĢÐ¾Ð±":7390,"Ð¾ÑĢÑ§":7391,"ĠÐ¿Ð¾ÐµÑħÐ°":7392,"ĠÐ¶ÐµÐ·":7393,"ĠÑģÑĤÑĢÑĥ":7394,"ĠÑ¡Ð³Ñ¹":7395,"Ð±Ð¸Ð»ÑĬ":7396,"ÑĶÑĢÐ¸":7397,"ĠâĢĻ":7398,"Ð»ÐµÐ½Ðµ":7399,"ĠÐ²ÑĬÐ·Ñ§ÑĤÐ¸":7400,"ĠÐ³Ð»ÑĤÑĮ":7401,"ÑģÐºÑĭÐ¼":7402,"ĠÐ¶Ð¸ÑĤÐ¸Ðµ":7403,"ĠÑģÐºÐ°Ð·Ð°Ð»ÑĬ":7404,"ĠÐ²Ð¾Ð·Ð¼Ð¾Ð¶Ð½Ð¾":7405,"ĠÐ¼ÑĮÑģÑĤÐ¸ÑģÐ»Ð°Ð²":7406,"Ïĥ":7407,"ÑĤÐ½Ð°":7408,"ÑĤÐ²Ð¾Ñİ":7409,"Ð»ÐµÐ²ÐµÑĤ":7410,"Ð½ÑĮÑĸÐ¸":7411,"ĠÑĤÐµÐ±Ñ§":7412,"ĠÑ¥Ð³Ð¾Ð¶Ðµ":7413,"ĠÑģÐ»Ð°Ð²Ð¾":7414,"ĠÐ¿Ð¾ÑĤÑĢÑ£":7415,"ĠÐ±Ð¶ÑĸÐ¸":7416,"ĠÑģÑĤÐ¾Ð¸ÑĤÑĬ":7417,"Ð³Ð¾Ð´Ð½Ð¾":7418,"ĠÑģÐºÐ°Ð¶Ð¸":7419,"ĠÑģÐºÐ¾ÑĢÑ£":7420,"ĠÑĢÐµÑĩÐµÑĤÑĬ":7421,"ĠÑĪÐ°ÑĤ":7422,"ĠÐŁÐ¾ÑģÐ»Ñĥ":7423,"ĠÐ·Ð¸Ð¼Ñ£":7424,"ĠÐºÑ¡Ð½":7425,"Ð¸Ð»":7426,"ĠÑģÐºÐ°Ð·":7427,"ĠÐ²ÑĬÐ¿ÑĢÐ°ÑĪÐ°":7428,"Ð´Ð°Ð½":7429,"Ð´ÐµÑħÑĬ":7430,"ÑĩÐ¸Ð»ÑĬ":7431,"ĠÐ²ÐµÑī":7432,"ĠÐ¼Ð¸ÑĢÐ¾":7433,"ĠÐ¼Ð¾ÑīÐ¸":7434,"ĠÐ¿Ð¸ÑģÑĮ":7435,"Ð·ÑĭÐ²Ð°ÑĤÑĮ":7436,"ĠÐ¸Ð¼Ñ¹":7437,"ĠÐ²ÑĬÐ·Ð»Ð¾Ð¶Ð¸":7438,"ĠÑģÐ¿Ñĥ":7439,"ĠÐ±ÑĢÐ°ÑĤÐ¾Ð¼":7440,"ĠÐ¼Ð½Ð¾Ð³Ð¾ÑĨÑ£":7441,"ĠÐ¶Ð°Ð»Ñĥ":7442,"ĠÑĨÑ£Ð»Ð¾":7443,"ĠÐ´êĻĭÑĪÐ¸":7444,"Ñ§ÑīÑĸÐ¸":7445,"ĠÐ½Ð°Ð¿Ð¸ÑģÐ°Ð½Ñĭ":7446,"ĠÐ¿Ð¾ÑĢÑĥÐºÑĥ":7447,"ĠÐ¢Ñ£Ð¼":7448,"Ð¶Ð¸ÑĤÐµÐ»ÑĮ":7449,"ĠÑĥÐ´Ð°ÑĢÐ¸":7450,"ĠÐ´Ð¾ÑģÑĤÐ¾Ð¸ÑĤÑĮ":7451,"ĠÐ²ÑĮÑģÐµÐ³Ð¾":7452,"ĠÐ·Ð´Ð¾ÑĢÐ¾Ð²ÑĮ":7453,"ĠÐ»Ð°Ð²ÐºÐ¸":7454,"ÑĢÑĸÐ°":7455,"ÑĢÐ¸ÑĤÑĬ":7456,"ÑģÐ¾ÑĤ":7457,"ĠÑĥÐ²":7458,"ĠÑĨÑİ":7459,"Ð»ÐµÐµ":7460,"ĠÑĢÐµÐºÐ¸":7461,"ĠÐ¶Ð¸Ð»":7462,"ĠÐĵÐ¾ÑĢÐµ":7463,"ĠÐ¿Ð¾ÑģÐ»Ð°Ð½Ð¾":7464,"ĠÑģÑ¹ÑĪÐ¸":7465,"ĠÐ±êĻĳÐ»ÑĬ":7466,"ĠÐºÐ¾Ð»ÐµÑģ":7467,"ĠÐ¿Ñ£ÑģÐ½Ð¸":7468,"ĠÐ¶Ð¸Ð²Ñ¹":7469,"ĠÐ²ÐµÑĤÑĩÐ°":7470,"ĠÐ·Ð°Ð¿Ð¾Ð²Ñ£Ð´ÑĮ":7471,"ĠÑĥÐ±Ð¾Ð¹":7472,"ĠÑģÑĩÐµÑĤÐµ":7473,"ĠÐ¿ÐµÐ½ÑĮ":7474,"ĠÐ´ÑĪÐµ":7475,"ĠÐ´Òį":7476,"ÐµÑĤÑ£":7477,"ĠÐ»Ð¾Ð²Ñ£":7478,"Ð¾Ð³Ñ¹":7479,"ÑĩÐ¸Ð¼ÑĬ":7480,"ĠÐ²Ð¾Ñ¥":7481,"ĠÐ²Ñ£ÑĤÑĢÑĬ":7482,"Ð±Ð¾ÑĪÐ°":7483,"ÑģÐ¿Ð¾Ð²Ñ£Ð´Ð°":7484,"ĠÐ¿Ð¾Ð¼ÑĭÑģÐ»":7485,"ĠÑģÑĭÑĢ":7486,"ĠÐ²ÑĬÐ·Ñ§Ð»Ðµ":7487,"ĠÑĤÐ¾Ð±Òį":7488,"ĠÐ²ÐµÑĢÑħÑĬ":7489,"ĠÑĢÐ°êĻģÐ¾Ñĥ":7490,"ĠÐ´Ð¾Ð±ÑĢÑĭÐ¼":7491,"ĠÐ¼Ð¾ÑĢÑ§":7492,"ĠÑħÐ¾Ð»Ð¾Ð¿ÑĬ":7493,"Ð·ÐµÑĢÐ°":7494,"ĠÐ´Ð¾Ð±ÑĢÐ°Ñ§":7495,"ĠÐ²Ð´Ð¾Ð²Ð¸":7496,"ĠÐºÐ½Ð¸Ð³Ð°Ñħ":7497,"ĠÐ´Ð¾Ð¼Ð¾ÑĩÐ°ÑĤ":7498,"Ð¼ÐµÑĤÐ°":7499,"ÐºÑĢÑĮ":7500,"ĠÐ´Ð¾ÑĢÐ¾":7501,"ĠÐ½Ð°Ð¹":7502,"ĠÐ¿ÑĢÑĹÐ¸":7503,"ĠÐ·ÑĢÑ§":7504,"ĠÑģÐ¸Ð±Ð¸":7505,"ĠÐ¼Ð°ÑģÐ»Ð¾":7506,"Ð·Ð°Ð½Ð¾":7507,"ĠÑĤÑĭÑħ":7508,"ĠÐ¿ÑĢÐ¾ÑģÐ¸ÑĤÐ¸":7509,"ĠÐ¼Ð¸Ð»Ð¾ÑģÑĤÐ¸Ñİ":7510,"ĠÐ²ÐµÐ·Ð´Ñ£":7511,"Ð¸ÑģêĻĭ":7512,"Ð½Ð¾Ð¼ÑĮ":7513,"ĠÐ¾Ð½Ñĭ":7514,"Ð¶Ð´ÑĬ":7515,"ĠÐ¿ÑĢÐ¸Ð»":7516,"ÑģÐ¸Ð¼":7517,"ĠÑĶÑģ":7518,"ĠÐ²Ñ£ÑģÑĤÐµ":7519,"ÑģÐ»Ñ¹":7520,"ĠêĻģÑĮ":7521,"ĠÑĩÐµÐ»Ñ§":7522,"ĠÑīÐµÐ´":7523,"ĠÐ²ÐµÑĢÑĥ":7524,"ĠÐ±Ð¾Ð³Ð¾Ð¼Ð¾Ð»":7525,"ĠÐ±Ñ¹Ð´ÐµÑĪÐ¸":7526,"ĠÐ±Ð¾ÑıÑĢÐ¸Ð½":7527,"ĠÑģÐ»ÑĭÑĪÐ°ÑĤÐ¸":7528,"ĠÐ±ÐµÐ»Ð¾ÐºÐ°":7529,"ĠÐºÑĢÑ£Ð¿Ð¾ÑģÑĤÐ¸":7530,"Ð°êĻĹ":7531,"ĠÐ¼Ð¾Ðº":7532,"ĠÐ´Ð°Ñİ":7533,"ĠÑģÑĬÐ²ÑĢÑĮ":7534,"ĠÐ¿Ð¾ÑģÑĢÑ£":7535,"ĠÑıÑģ":7536,"Ð¼Ñ£ÑĢ":7537,"Ð¾Ð²Ð¸ÑĤÐ¸":7538,"ĠÑ¡Ð±ÑĢÐµ":7539,"ĠÐ§ÐµÑĢ":7540,"ĠÑģÑĥÐ´ÑĮÑı":7541,"ĠÐ¶Ð¸Ð²Ð¾Ð½Ð°":7542,"ĠÐºÐ¾ÑĢÐ¾Ð»Ñİ":7543,"ĠÐ¼Ð°ÑĢÑĤÐ°":7544,"ĠÐ¼ÐµÐ´ÑĬ":7545,"ĠÑĢÐµÐºÑĪÐµ":7546,"ĠÐµÐ»Ð¸ÐºÐ°":7547,"ĠÐ¾ÑĤÑĢÐ¾ÐºÐ°":7548,"ĠÐ¿Ð¾Ð»Ð¾Ð²Ð¸Ð½Ð°":7549,"ĠÐºÑĸÐ²Ñ¡":7550,"ĠÐ±ÐµÐ»Ð¾ÐºÐ°Ð¼ÐµÐ½":7551,"ÑĢÐµÐ½Ð¸Ðµ":7552,"ĠÑħÐµ":7553,"Ð½ÑĮÑģÑĤÐ²Ð°":7554,"Ð¾Ð¶ÐµÐ½":7555,"Ð½Ñ§Ñħ":7556,"ĠÑĢÐ°Ð·Ð²Ñ£":7557,"ĠÐºÑĥÑĢ":7558,"ĠÑģÑ£Ð´":7559,"ĠÐ²ÑģÑ§ÐºÑĸÑ§":7560,"ĠÑĤÑĥÑĢÐ°":7561,"ĠÐ²Ð¾ÑģÑħÐ¾ÑĤÑ£":7562,"ĠÐ¿Ð¾Ð»Ð¾ÑĩÐ°":7563,"ÐºÐ¾Ð»Ñİ":7564,"ĠÑģÐµÐ´Ð»Ð°":7565,"ĠÐ»Ð²ÐºÑĬ":7566,"ĠÑĩÐ¸ÑģÑĤÐ¾Ð¼":7567,"ĠÐ¿Ð¾ÑħÐ²Ð°Ð»Ð°":7568,"Ð¿ÑĢÐ¾ÑĤÐ¸Ð²":7569,"ĠÐ²ÐµÑĩÐµÑĢÐµ":7570,"ĠÐ¼Ð½Ð¾Ð¶ÑĮÑģÑĤÐ²Ð¾":7571,"Ïī":7572,"ÑģÑ¡":7573,"Ð¼ÑĢÐ°":7574,"ĠÐ´Ð¸Ð¼Ð¸ÑĤ":7575,"ÑģÑĤÐ¾ÑĢ":7576,"ÑģÑĤÑĢÑĬ":7577,"Ð±Ð¸ÑĤ":7578,"ĠÐ½Ð°Ñ¹":7579,"ĠÐ»Ñĸ":7580,"ÑģÑĤÐ°Ð½Ð¸":7581,"ĠÐºÐ¾ÑģÑĤÐ°Ð½":7582,"ĠÐļÐ°Ð½Ð´Ð°":7583,"Ð½Ñ§Ð³Ð¾":7584,"ÑģÐ»Ð°Ð±Ð»ÐµÐ½":7585,"ĠÐ¿ÑĢÑ£ÑģÑĤÐ°Ð²Ð¸":7586,"ĠÑĤÐ°ÐºÐ¾Ð²ÑĭÑħ":7587,"Ð³Ð¾ÑĢÐ¾Ð´Ðµ":7588,"ĠÐ½ÐµÐ¿ÑĢÐµ":7589,"ĠÐ¾Ð±ÑĭÑģÐºÑĥ":7590,"ĠÐ±ÐµÐ»Ñĭ":7591,"ÑģÑĤÐ²Ð¸Ñı":7592,"ĠÐ¸Ð¼ÐµÐ½ÐµÐ¼":7593,"Ġ30":7594,"ÑĥÐ±Ð¾":7595,"ĠÐ·Ð´Ð°":7596,"Ð½Ð°Ð´ÐµÑģÑ§ÑĤÑĮ":7597,"ĠÐĲÐ½ÑĤÐ¸":7598,"ĠÐ¾ÑĤÐºÑĥÐ¿":7599,"ĠÐ¿Ð¾ÐºÑĥ":7600,"ĠÐºÐ¾ÑĢÐ¾Ð±":7601,"ĠÐ´Ð²Ð°Ð´ÐµÑģÑ§ÑĤÑĮ":7602,"ĠÑģÐ¾Ð»Ð½Ñĭ":7603,"ĠÐ±Ð¾ÑĥÐ´Ðµ":7604,"Ð´ÐµÑģÑ§ÑĤÐ¸":7605,"ĠÑĤÐµÑĢÐ¿":7606,"ĠÐ¿ÑĢÐ¸ÑĪÐ»Ð°":7607,"ĠÐ¼Ð¾Ð»Ð¸ÑĤÐ²Ñĥ":7608,"ĠÐ±Ð¾Ð³Ð°ÑĤÑĭÑĢÑı":7609,"ĠÐ±ÑĢÐ°ÑĤÐ¸Ð¸":7610,"ĠÑģÑĢÐ°Ð¼":7611,"ĠÐ³ÑĢÐ¾Ð±ÑĬ":7612,"ĠÐĶÑĢÑĥÐ¶Ð½ÐµÐ²Ð½Ð°":7613,"ĠÐ±ÐµÐ»Ðµ":7614,"ĠÐ¼Ð¾Ð³Ð¾":7615,"Ð¶Ð¾Ñĥ":7616,"ĠÐ¿Ð¾Ð»Ñ£":7617,"ĠÑıÑģÑĤÐ¸":7618,"ĠÑ¹Ð´Ð°":7619,"Ð»Ñ§ÑĤ":7620,"ÑģÑĤÐ²ÑĥÑİ":7621,"ĠÑģÑĤÑĢÐ°ÑģÑĤÐ¸":7622,"Ð½Ð¾Ð²Ð°ÑĤÐ¸":7623,"ĠÐ¸Ð²Ð°Ð½ÐºÐ°":7624,"ĠÐ¾ÑĤÑĮÑĨÑĮ":7625,"ÑĮÑĨÑĮ":7626,"ĠÐ´ÑħÑĬ":7627,"ĠÐºÐ»ÐµÐ½":7628,"Ð¿Ð¾Ð²":7629,"Ð½Ð¸ÑĪÐ°":7630,"ÐµÐ¼Ð»Ñİ":7631,"ĠÑħÐ²":7632,"ĠÑĨÑĢÐ°":7633,"Ð½ÑĮÑģÐºÑĥ":7634,"ÑĤÐ°Ð°":7635,"ÐµÑĤÑĮÑģÑı":7636,"ĠÐ¸Ð·Ð²Ð¾Ð»":7637,"ĠÐŀÐ»Ðµ":7638,"ĠÐ¿Ð¾Ð¼Ñ§":7639,"êĻ¿ÑĤÐ¾":7640,"Ð´ÑĥÑĤÑĮ":7641,"ĠÐºÐ¾ÑĥÐ¿Ð¸":7642,"ÑģÐºÑĭÑ§":7643,"ĠÐ»ÑİÐ±Ð²Ðµ":7644,"ĠÐ¼ÑĬÐ½Ð¾Ñİ":7645,"ĠÐ¸Ð½Ð´Ð¸":7646,"ĠÐ¿êĻĭÑģÑĤÐ¸":7647,"ĠÑİÐ½Ð¾ÑģÑĤÐ¸":7648,"ĠÐĵÐ¾ÑģÑĥÐ´Ð°ÑĢÑĮ":7649,"ĠÑĥÐ±ÑĭÑĤÐºÐ¸":7650,"Ð½ÑĹÐµÐ¼ÑĬ":7651,"ĠÐ¸ÑģÑĤÐ¾":7652,"Ð´Ð²Ð°":7653,"Ð½Ð¸Ð¼Ð¸":7654,"ĠÐ°ÑģÑ£":7655,"ÐºÐ°Ð°":7656,"Ñ¡Ð´":7657,"Ð¾ÑģÐµ":7658,"ĠÑĥÐ¶Ð°":7659,"ĠÑģÑĬÑģÑĤÐ°Ð²":7660,"Ð¾Ð·Ð°":7661,"ÑĶÑĢ":7662,"Ġ..":7663,"ĠÐ¼Ñ§ÑģÐ°":7664,"ĠÐ¸Ð½Ð¾Ð¼Ñĥ":7665,"ĠÐ¿Ð¾ÑĢÑĥÑĩ":7666,"ĠÑĤÐ°ÐºÐ¾Ð²Ð°Ð³Ð¾":7667,"ĠÐ¿Ð»Ñ£Ð½":7668,"ĠÐ²ÑĢÐµ":7669,"ĠÐ²ÑĢÑĮ":7670,"ĠÐ±ÐµÐ»Ð¾":7671,"ĠÐ½Ð°ÑĢÑı":7672,"Ð»Ð°Ñı":7673,"Ñ¹Ð´Ð°":7674,"ĠÐ·Ð»Ñ£":7675,"ĠÑħÐ¸":7676,"ĠÑģÐµÐ³Ð°":7677,"ÑģÐºÑ¹Ñİ":7678,"ÑģÐ¸Ñı":7679,"ÑĩÐ°ÑħÑĬ":7680,"ĠÐ²Ð¸Ð½":7681,"Ð´Ð¾ÑħÐ¾Ð¼ÑĬ":7682,"ĠÐĳÐ¾Ð²Ñĥ":7683,"ĠêĻģÐ»Ð¾":7684,"ĠÐ¾Ð±ÑĢ":7685,"ĠÑĢÐ°Ð·Ð¾ÑĢÐ¸":7686,"ĠÐºÑĥÐ½êĻĳ":7687,"Ð½ÑĭÐ¸Ð¼ÑĬ":7688,"Ð¼êĻĭÑĤÑĬ":7689,"ĠÑģÑĤÐ°ÑĢÐ¾Ð³Ð¾":7690,"ĠÐ¼ÑĭÑĪ":7691,"ĠÐ²Ð»Ð°Ð´êĻĳ":7692,"ĠÑģÐµÑĢÐ´Ðµ":7693,"ĠÐ¿ÐµÑĩÐ°ÑĤÑĮ":7694,"ĠÑĢÐ°Ð´Ð¾ÑģÑĤÐ¸Ñİ":7695,"ĠÐºÑĥÐ¿Ð»ÐµÐ½":7696,"ĠÐ¾ÑĤÐ²ÐµÑĤÑĩÐ¸ÐºÐ°":7697,"ĠÐŁÐ¾ÑĤÐ°Ð½ÑĨÑĭ":7698,"ĠÑĤÐ²Ð°ÑĢÐ¸":7699,"Ð¾ÑŃ":7700,"ĠÐ½êĻĭ":7701,"Ð¾Ð²Ð½ÑĭÑħ":7702,"ÑīÐµÑĤÐµ":7703,"ÐµÐ»ÐµÐ¼":7704,"ĠÐ¸Ð·Ð²Ðµ":7705,"ÑīÐ¸ÐºÐ¾Ð²":7706,"ÑĤÐ²ÑĢÑĮ":7707,"ĠÑĢêĻĭÐºÐ¾Ñİ":7708,"ĠÐ²Ð¾Ð»Ð¾Ð´Ð¸Ð¼Ð¸":7709,"ĠÐ¿ÑĢÐ¾ÐºÐ»Ñı":7710,"ĠÐ²Ð¾ÐµÐ²Ð¾Ð´Ð°Ð¼":7711,"Ð±Ð¾Ð»":7712,"ĠÐ½Ð°Ð¸Ð¼":7713,"ĠÐ¡ÑĤÐ¾":7714,"ĠÐĶÐ¼Ð¸ÑĤ":7715,"ĠÐ¿Ð¾ÑģÐµ":7716,"Ð¿Ð¸ÑģÑĮ":7717,"ĠÐ²Ñ£Ð½ÑĮ":7718,"ĠÐ²ÑĭÑĤÐ¸":7719,"ÑĶÑİ":7720,"ĠÐ³Ð»Ð°Ð²Ñ£":7721,"ĠÐ²Ð·Ð¸Ð¼Ð°":7722,"ĠÐ·Ð½Ð°Ð¼Ðµ":7723,"ĠÐ¿ÑĢÐ°Ð²Ð´Ð¾Ñİ":7724,"ĠÐ±Ð»Ð¸Ð·ÑĬ":7725,"ĠÑĩÐ»Ð¾Ð²Ñ£ÐºÐ°":7726,"ĠÐ½Ð°Ð¿Ð¸ÑĪÐµÑĤ":7727,"ĠÐĿÑ£ÑģÑĤÑĮ":7728,"ĠÐ¿Ð¾ÑģÐ»Ð¾ÑĥÑĪÐ°":7729,"ÏĤ":7730,"ĠÑĤÐ¾Ð½":7731,"Ñ§ÑħÑĬ":7732,"Ð³ÑĢÐ¸":7733,"Ð³ÑĢÐµ":7734,"êĻĭÐ´Ð°":7735,"ĠÐ¿Ð¾ÑĤÑĬ":7736,"ĠÐ¿Ð¾Ð¸Ð¼":7737,"ĠÑģÑĤÑĢÑ§":7738,"ĠÐ¿Ð¸ÑĢÑĬ":7739,"ĠÐ±Ñ£Ð°":7740,"ĠÑģÑĤÐ°ÑĢÐ°":7741,"ĠÑģÑĮÑĤÐ²Ð¾ÑĢÐ¸":7742,"ĠÑłÑĤ":7743,"ĠÑħÑĢÐ¸ÑģÑĤÐ°":7744,"ĠÐºÐ¾ÑĢÐ¾Ð»ÐµÐ²Ð¸Ñĩ":7745,"ĠÑĮÑĤÐ¾":7746,"ĠÐ²ÑĬÑģÐºÑĢ":7747,"ĠÐ¿Ð¾ÑģÑĭÐ»Ð°ÑĤÐ¸":7748,"ĠÐŁÐ¾ÑĤÐ¾Ð¼ÑĬ":7749,"ĠÐ´Ð¼Ð¸ÑĤÑĢÐµ":7750,"Ð½Ð¾Ð¿Ð»ÐµÐ¼ÐµÐ½":7751,"ĠÐ´Ð¾ÑĩÐµÑĢÐ¸":7752,"ĠÐ¸Ð»":7753,"ÑģÑĤÑĢÐµÐ¼":7754,"ÑĪÐ»Ð¾":7755,"ĠÐ°Ð²ÑĢÐ°Ð°":7756,"ĠÐµÑĢ":7757,"Ð¾Ð³Ð»Ð°":7758,"ĠÐ·Ð°ÐµÐ¼":7759,"êĻģÑ«":7760,"ĠÐºÐ°Ð¿Ð¸":7761,"ĠÑıÐ²Ð»Ñı":7762,"ĠÐ¸Ð·ÑĮ":7763,"ĠÐ¸Ð·Ð²Ñ£":7764,"ĠÐ¸Ð·Ð³Ð½Ð°":7765,"ĠÐ¢Ð²Ð¾ÑĢ":7766,"ĠÑĤÐ¸ÑħÐ¾":7767,"ÑĶÐ¼":7768,"ĠÐ±ÐµÐ·Ñģ":7769,"ĠÐ²ÐµÐ»Ð¼":7770,"ĠÐµÐ´Ð¸Ð½Ñĥ":7771,"ĠÐ¼Ð½Ð¾Ð³Ð¾Ðµ":7772,"ĠÐ¸Ð²Ð°Ð½Ðµ":7773,"ĠÐ¶Ð¸ÑĤÐµÐ»ÑĮ":7774,"ĠÐ½Ð¾Ð³Ð°Ð¼Ð°":7775,"ĠÐ½ÐµÐ±ÐµÑģÐ¸":7776,"ĠÑĪÐ°ÑĤÑĢÐ°":7777,"ĠÑĩÐµÑĤÐ²ÐµÑĢÑĤÐ¸":7778,"ĠÐµÑħÐ°ÑĤÑĮ":7779,"Ð»Ð¾Ð¼ÑĮ":7780,"ÐºÑĸ":7781,"ĠÐ²Ð²ÐµÑĢ":7782,"Ð³Ñ£":7783,"ÑĩÐµÐ½ÑĮ":7784,"ĠÐ³Ð²Ð¾Ð·":7785,"ÐºÐ°ÑĤÑĮ":7786,"ĠÑĥÑĤÐ²ÐµÑĢ":7787,"ÑīÐ°ÐµÑĤ":7788,"Ð²ÐµÐ½Ð¸":7789,"ĠÐ½Ñ£ÑĩÑĤÐ¾":7790,"ĠÑķÑ£Ð»Ð¾":7791,"ĠÐ¿Ð»Ð°ÑĤÑĮÑ§":7792,"ĠÐ¸ÑģÑĨÐ¾Ð²":7793,"ĠÐ´ÑĢÐ¾Ð²Ð°":7794,"ĠÑģÐ°Ð¼Ð¾Ð²":7795,"ĠÐ±ÐµÑģÐµÑĢ":7796,"ÑĪÐµÐ½ÑĸÐ¸":7797,"ĠÑģÐµÐ´Ð¼Ð¸":7798,"Ð·ÑĥÐ¼Ñ£":7799,"ÑĪÐµÐ½ÑĮÐºÐ°":7800,"ĠÐ¿ÑĢÐ¾Ð³Ð½Ñ£":7801,"ĠÐ¾ÑĥÑģÑĤÑĢÐ¾Ð¸":7802,"ĠÐ¼Ð°Ð¸Ñı":7803,"ĠÐľÐ°ÐºÐµÐ´":7804,"ĠÐ¿ÑĥÐ´":7805,"ÑĪÐºÐ¾Ð²":7806,"ÑħÑģÑı":7807,"ĠÐ½Ð°ÑĢÐ¸":7808,"ĠÑĢÐ¶Ð°":7809,"ĠÐ°Ñģ":7810,"Ð´Ð°Ð¹":7811,"ÑĩÐ¸Ð»Ð°":7812,"ÑĩÐµÐº":7813,"ĠÐ¿Ð¾Ð»Ð¾Ð²Ðµ":7814,"Ð»ÑĭÑı":7815,"ĠÐłÑ£":7816,"ĠÐºÑĢÐ°ÑģÐ½Ð¾":7817,"ĠÑĤÑĢÐ¸ÑģÑĤÐ°":7818,"ĠÐ³Ð¾Ñĩ":7819,"ĠÐºÑĢÐ°ÑģÐ½Ð°":7820,"ĠÐ¸ÑģÐºÑ¹":7821,"ĠÐ±Ð¾Ð¶ÑĮÑģÑĤÐ²":7822,"ĠÐ´ÐµÑĤÑĮÐ¼Ð¸":7823,"Ã·":7824,"ĠÐ¸Ð½Ñ£":7825,"Ð³ÐµÐ½Ð¸":7826,"Ð¸ÑĤÑĨÐ°":7827,"ĠÐ¾ÑĥÑĤÑ£":7828,"ĠÑģÑĬÐ±Ð»Ð°":7829,"Ð¾Ð²Ð¸ÑĤÑĮ":7830,"ĠÐ²ÑĭÐ±Ð¾ÑĢ":7831,"ĠêĻĬ":7832,"ĠÐ¿Ð¾Ð¼Ð¾Ð»":7833,"ĠÑĢÑĥÐºÐ°":7834,"ĠÐ½Ð¾ÑĩÐ¸":7835,"ĠÐĵÐ»":7836,"ĠÐ½Ñ£ÑģÑĤÑĬ":7837,"ĠÐºÐ¾ÑĤÐ¾ÑĢÑĭÐ¸":7838,"ĠÐ³ÑĢÐ°Ð¼Ð¾ÑĤÑ£":7839,"ĠÐ²Ð»Ð°Ð´Ðµ":7840,"ĠÐ¿ÑĢÐ¾Ð´Ð°ÑģÑĤÑĬ":7841,"Ð¿Ð¸ÑģÐ°ÑĤÐ¸":7842,"ĠÑģÐ»Ð¾Ð²ÐµÑģÐµ":7843,"ĠÐ½ÐµÐ±ÐµÑģÐµ":7844,"ĠÐ½Ð¾Ð²Ð³Ð¾ÑĢÐ¾Ð´ÑĨÐ¸":7845,"ĠÐ¼êĻĻ":7846,"ÑĩÑĪÐµ":7847,"ĠÐ¼Ð¸ÑĢÑĥ":7848,"ĠÐ¿Ð°ÑģÑĤÑĭ":7849,"ĠêĻĭÑĩÐ¸":7850,"ĠÐ¼Ñ£ÑģÑı":7851,"ĠÐ¿ÐµÐ°":7852,"ĠÑģÐ¿Ð¾Ð»":7853,"ĠÐ¿Ð°ÐºÑĮÑĸ":7854,"ĠÑĢÐ¾ÑģÑħÐ¾Ð´":7855,"Ġ10":7856,"ĠÑģÐ¼Ð¾ÑĤÑĢÐ¸ÑĤÐ¸":7857,"ĠÑĤÑĢÐ°Ð¿ÐµÐ·":7858,"ĠÐ±Ð»Ð°Ð³Ð¾Ð´Ð°ÑĤÑĮ":7859,"ĠÐ·Ð°Ð¿Ð¾Ð²ÐµÐ´Ð¸":7860,"ĠÐ½Ð°Ð¿ÐµÑĢÐµÐ´ÑĮ":7861,"ĠÑģÐ¾Ð¶":7862,"Ð¼Ð¾ÑĢ":7863,"ĠÐ²Ð»ÑĮ":7864,"ĠÑĩÐ¾Ñĥ":7865,"ĠÑĤÐ°Ð¼ÑĬ":7866,"ĠÐºÑĬÐ½Ð¸":7867,"ĠÐ¢ÑĢÐ¸":7868,"ĠÐ³Ð»Ð°Ð²êĻĭ":7869,"ĠÐ³Ð»Ð°Ð³Ð¾Ð»Ð¸":7870,"ĠÑģÑĤÐ¾Ð¸ÑĤÑĮ":7871,"ĠÐ½Ð¸ÐºÐ¾Ð³Ð´Ð°":7872,"ĠÐ±Ð¾ÑıÑĢÑģÐºÐ¸Ð¼":7873,"ĠÐºÐ¾Ð½ÐµÑĨÑĬ":7874,"ĠÐ¼Ñ¡ÑµÑģÐµ":7875,"ĠÐŁÐ°ÐºÑĭ":7876,"Ð°ÑĢÐ¸":7877,"Ð¾Ð¼êĻĳ":7878,"ÐµÑĢÑ£":7879,"ĠÐ²ÑĬÐ»ÑĬ":7880,"ĠÐ¿ÑĢÐ¸Ð¿":7881,"ĠÐºÑĬÐ´Ðµ":7882,"ĠÐ¿ÑĢÐ¾ÑĩÐµÐµ":7883,"Ð¾Ð»Ð¸ÑĤÐ¸":7884,"ÑģÑ£Ð¼ÑĬ":7885,"ĠÑĢÐµÑĩÐµÑĪÐ¸":7886,"â¸¯ÐºÐ¾":7887,"Ð½êĻĳÑħÑĬ":7888,"Ð²ÑĢÐ°ÑĤ":7889,"ĠÑģÐ»ÑĥÐ³Ð°":7890,"ÑİÑīÑİ":7891,"ÑģÑ¹Ð´":7892,"ĠÑģÑĢÑĨ":7893,"ĠÑĥÐ±Ð¸Ð¹":7894,"Ð³Ð½ÐµÐ¼ÑĬ":7895,"ĠÐºÐ¾ÑĢÐ°Ð±Ð»Ð¸":7896,"Ð·êĻĭÐ¼Ñ£":7897,"ĠÐºÐ»ÑİÑĩÐ½Ð¸ÐºÐ°":7898,"ĠÐ·Ð°Ð²Ð¸Ð´Ð°":7899,"ĠÑĩÐµÐ»Ð¾Ð±Ð¸ÑĤÑĩÐ¸ÐºÐ¾Ð¼":7900,"ÑĢÑĨÑĭ":7901,"ÑĮÑĢ":7902,"ĠÐ¿Ð¾Ð½Ð¸":7903,"ĠÐºÑĥÐ´":7904,"ĠÐ³ÑģÑĮ":7905,"ĠÐ¿ÑĢÐ¸ÑĪÑĬ":7906,"ĠÑıÐ±":7907,"ĠÐ¸Ð·Ð¼Ð°":7908,"ĠÑĤÐ¸ÑħÐ°":7909,"ĠÐ¼Ð¾Ð»Ð¾Ð´Ð°":7910,"ĠÐ¿Ð»Ð°ÑĤÐ½Ð¾":7911,"ĠÐ¼ÑĬÐ»ÑĬ":7912,"ĠÑĩÑĮÑģÑĤÑĮ":7913,"ĠÑĨÑĢÐºÐ²Ð°":7914,"ĠÐ¦ÑĢ":7915,"ĠÐ±ÑĢÐ°ÑĤÐ¸Ñı":7916,"ĠÑģÐ¾ÐºÑĢÐ¾Ð²Ð¸":7917,"ĠÐ½Ð¾ÑģÐ¸ÑĤÐ¸":7918,"ĠÑģÐºÐ²Ð¾Ð·Ñ£":7919,"Ð¶Ð±Ð°":7920,"ĠÐ²ÑģÐµÐ¼êĻĭ":7921,"ÑĢÑĥÐ¶ÑĮ":7922,"ÐºÑĥÐ¿Ð¸":7923,"ÑģÐ»Ð¾Ñĥ":7924,"ĠÐ±ÐµÐ·Ñĥ":7925,"ÑģÑĤÑĭÐ½Ñ§":7926,"ĠÐ¸Ð½Ð¾ÑĩÐµ":7927,"ĠÐ´ÑĥÑĪÑĥ":7928,"ĠÑĤÐ²Ð¾ÑĢÑ§ÑīÐµ":7929,"ĠÐ²ÑĬÑģÑħÐ¾ÑĤÑ£":7930,"Ð¾ÐºÐ¸Ðµ":7931,"ĠÐ½Ð¾Ð²Ð°Ð³Ð¾ÑĢÐ¾Ð´Ð°":7932,"ĠÐ´Ñ¡":7933,"ĠÐºÐ¾Ð¿Ð°":7934,"ÑīÐµÐ½Ð°":7935,"ĠÑģÑĤÑ¹Ð´":7936,"ĠÐ·Ð°ÑĢÐ°":7937,"Ñ¥ÑĤÐµ":7938,"ĠÐ¸Ð·Ð¸":7939,"ĠÐ²Ð¸Ð´Ð¸ÑĤÐµ":7940,"ĠÐ¼Ð½Ñı":7941,"ĠÐ²ÑĭÐ¸":7942,"ĠÑĤÐ°ÐºÐ¾Ð¶":7943,"ĠÑģÑĥÑīÐ°":7944,"ĠÑħÐ¾ÑĤÑ§Ñī":7945,"ĠÑĤÐ²Ð¾ÑĢÑ§ÑĤÑĮ":7946,"ĠÑłÐ½Ð¸":7947,"ĠÑģÐ¿Ð°ÑģÐ°":7948,"ĠÐ¼Ð¾Ñ¥Ð¸":7949,"ĠÐ²Ñ£ÑĩÐ½Ñ¹Ñİ":7950,"ĠÐ·ÐµÐ¼Ð»ÑıÑħ":7951,"ĠÐ³ÐµÑĢÐ°":7952,"ĠÐ¡Ð»Ð¾Ð²Ð¾":7953,"ÑĤÑĸÐ¸":7954,"Ð²Ð½":7955,"ĠÑģÐ¾Ð·Ð¸":7956,"ĠÐ½Ð¾Ð½Ñ£":7957,"ÑĪÑĸ":7958,"ÑİÑģÑ§":7959,"ĠÐ½Ð°Ð²Ñĭ":7960,"êĻĭÑĤÑĬ":7961,"Ð½Ð¾ÑĥÑİ":7962,"Ð¾Ð±ÑĬ":7963,"Ð»ÐµÑİ":7964,"ÑĢÑĭÐ¸":7965,"ĠÐ¾Ð±Ð»Ðµ":7966,"ĠÑĢÐ°Ð·Ð´":7967,"Ð³Ð¸Ð¿":7968,"ĠÑģÑ£Ð½Ð¾":7969,"ĠÐ¶Ð¸Ð²Ð¾ÑĤÐ²Ð¾ÑĢ":7970,"ĠÐ·Ð½Ð°Ñİ":7971,"ĠêĻģÐµÐ¼Ð»Ñ§":7972,"ĠÐ·Ð¾Ð»Ð¾":7973,"ĠÐ²ÑĬÑģÐºÐ¾ÑĢÑ£":7974,"Ġ40":7975,"Î»":7976,"ÑĤÑĨ":7977,"ĠÐ¸Ð½Ñ¹Ñİ":7978,"ÑģÑĤÐµÐ½ÑĬ":7979,"ÑĨÑĸÐ¸":7980,"ÐµÑĤÑģÐµ":7981,"ĠÐ·Ð²":7982,"ĠÐµÑģÑĤÐ°":7983,"ĠÐ¿ÑĢÐ¸ÑģÑĤÑĥÐ¿Ð¸":7984,"ĠÐ²Ð¾ÑħÐ¾":7985,"ĠÐ¼Ð¾Ð¸Ð¼":7986,"ĠÐºÐ¾ÑģÑĤÑĮ":7987,"Ð±Ð¸Ð¸":7988,"ĠÐ¿ÑĢÐ¾ÑģÑĤÑĢÐ°":7989,"ÑģÐµÐ³Ð¾":7990,"ĠÐŀÐ¿ÑĢÐ°Ðº":7991,"ĠÐ²ÑĮÑģÐ°":7992,"ĠÐµÑģÐ¼Ñĭ":7993,"ĠÐ±Ð¸Ð»":7994,"ĠÐ³ÑĢÐ¸Ð²ÑĮÐ½Ð°":7995,"ĠÐ±ÐµÑĢÐµÐ¶Ð½Ð¾":7996,"ĠÑĩÐµÑĤÐ²ÐµÑĢÑĤÐµÐ¹":7997,"ĠÐ±Ñ£ÑģÐ¾Ð²":7998,"ĠÐ¸Ð·Ñ§ÑģÐ»Ð°Ð²":7999,"ĠÐ¿Ð¾ÑĤÑĢÐµÐ±Ñĥ":8000,"ĠÑĤÑĭÑģÑıÑĩ":8001,"ĠÐºÑĭÑ¥":8002,"ĠÐ´Ð²ÐµÐ½Ð°Ð´ÑĨÐ°ÑĤÑĮ":8003,"ĠÐ¿ÑĢÐµÐ»ÑİÐ±":8004,"ÑĢÐ¾Ð´Ð°":8005,"ĠÐ²Ð½êĻĭ":8006,"Ð¶Ð¸ÑĤÐµÐ»":8007,"Ð¾Ð³Ñĭ":8008,"ÑĢÐµÐ²ÑĬ":8009,"ÑģÐºÐ¾Ð¼Ð¾Ñĥ":8010,"Ð¾Ð²Ñ£ÑĢ":8011,"Ð²ÑĭÑı":8012,"ĠÐ¿Ð¾Ð¼Ð¾Ð³Ð°":8013,"ĠÐ²Ð¾Ð»ÑĬ":8014,"ĠÑĩÐ¸ÑģÑĤÑĥ":8015,"ĠÑģÐ¼ÑĢÐ°":8016,"ĠÐ¸ÑģÑħÐ¾Ð´":8017,"ĠÑģÐ¿Ð¾Ð´Ð¸":8018,"ĠÑħÐ¾ÑĤÐ¸":8019,"ĠÐµÐ´Ð¸Ð½Ð¾Ð¼Ñĥ":8020,"ĠÐ°ÑĢÑĪÐ¸Ð½":8021,"ĠÐ´Ð¾ÑĥÑĪÐµ":8022,"ĠÐ´ÑĢÑ¹Ð³Ð°":8023,"ĠÐ¿Ð¾Ð»Ð°ÑĤÑĭ":8024,"ĠÐ¿Ð¾Ð´Ð¾Ð±Ð°ÐµÑĤÑĮ":8025,"ĠÐ´ÐµÑĤÐµÐ¸":8026,"ÑĤÑıÐ±ÑĢÑı":8027,"ĠÐ¿ÑĢÐ¾Ð³Ð½Ð°":8028,"ĠÐ¿ÑĢÐ¸Ð»Ð¾Ð¶Ð¸Ð»":8029,"ÐºÑĢÑ£Ð¿Ð¸":8030,"ĠÐ´Ð¾Ð¼Ð¾Ð²Ð¸ÑĤ":8031,"ĠÑĩÐ¾Ð»Ð¾Ð²Ðµ":8032,"ÑĤÐ°Ðº":8033,"ĠÑģÑīÐµÐ½":8034,"Ð¼êĻĻ":8035,"Ð±Ð¾Ð³Ð°":8036,"ĠÑĢÐ¾ÑĤ":8037,"ĠÑĢÐ¾ÑĤÑ£":8038,"Ð»Ð¸Ñİ":8039,"ÐµÑĤêĻ¿":8040,"êĻģÐ°Ð½":8041,"Ð»ÑĮÑĸ":8042,"ĠÑĤÐ°Ð¶Ðµ":8043,"ĠÐ²Ñ£ÐºÐ¾Ð¼ÑĬ":8044,"ĠÐ´Ñ£Ð»Ñı":8045,"ĠÐ²Ð¾Ð·Ð²Ñ£ÑģÑĤÐ¸":8046,"ĠÐºÑĢÐ°Ð»Ð¸":8047,"ĠÐ»ÐµÐ±":8048,"ĠÐ²Ð¸Ð´Ñ£ÑĪÐ°":8049,"ĠÐ²ÑģÑıÐºÐ¸Ñı":8050,"ĠÑģÐ²Ð¾Ñ¥Ð¸":8051,"ÑĪÐµÐ½ÑĸÐ°":8052,"ĠÐ¸ÑģÑĤÐ¸Ð½ÑĮ":8053,"ĠÐ¼Ñ«ÑĩÐµ":8054,"ĠÐ¼ÐµÐ´Ñĥ":8055,"ĠÑĢÑ«ÑĨÑ£":8056,"ĠÐ²Ð½ÐµÐ·Ð°":8057,"ĠÐ³Ð¾Ð²Ð¾ÑĢÐ¸ÑĤÑĬ":8058,"ĠÑģÑĮÑĢÐ´ÑĮ":8059,"Î¼":8060,"Ð¾ÑħÑĬ":8061,"ĠÑģÐºÑĬ":8062,"Ð¿ÐºÐ°":8063,"Ð¾ÑĢÐ¾Ð½":8064,"ÑĨÐºÐ¸Ñħ":8065,"êĻĭÐ´ÐµÐ¸":8066,"ĠÐ¶ÐµÑģÑĤ":8067,"Ð¸ÑĤÑ£":8068,"Ð¸ÑĤÐ¾Ðº":8069,"Ð´Ð¸Ð²Ð¸":8070,"ĠÐ¿Ð°Ð´Ð¾ÑĪÐ°":8071,"ĠÐ¿Ð¾ÐºÑ¹":8072,"ĠÐ½Ð¾ÑĩÑĮ":8073,"Ð¼Ð¾ÑĤÐ°":8074,"ĠÐºÑĢÐ¾Ð²Ðµ":8075,"ĠÑģÑ¹ÑīÐ°":8076,"Ð±ÑĮÑĸ":8077,"ĠÑĩÑİÐ¶Ð¸":8078,"ĠÑģÐ»Ñ¹ÑĪÐ°ÑĤÐ¸":8079,"ĠÐ¿ÑĮÑ§":8080,"ÑģÐ¿Ð¾Ð´Ð¸Ð½ÑĮ":8081,"ÑĦÐ¸Ð¸":8082,"ĠÐ¼Ð¾Ñ¥Ð¼Ñĥ":8083,"ĠÐ¿ÑĢÐµÑĩÐ¸ÑģÑĤÑĭÐµ":8084,"ĠÑ³ÐµÐ¾Ð´":8085,"ĠÐ¿ÑĢÐ¾Ð¼ÑĭÑģÐ»Ñ¹":8086,"ÑĤÐ¾ÐºÑĬ":8087,"ÐºÐ¾Ð±":8088,"ÐºÑĸÐ°":8089,"ĠÐ²ÑħÐ¾Ð´":8090,"ĠÐºÐ¾Ð¼êĻĭ":8091,"ĠÐ¶ÑĢÐµÑĨÑĬ":8092,"ÑĢÐ¾ÑģÑĤÐ¸Ñİ":8093,"ĠÐ¿Ð°Ð½Ð°":8094,"ĠÐ¶Ð¸Ð²Ðµ":8095,"ĠêĻģÑĭ":8096,"ĠÐ´ÑĮÐ½Ðµ":8097,"ÑĪÑĤÐµÑĪÐ¸":8098,"Ð³Ð¾Ð²Ð¾ÑĢÐ¸ÑĤ":8099,"Ð½Ð¾Ð²ÐµÐ½":8100,"ĠÐ´Ð¾Ð»Ð¶":8101,"ĠÐ¡Ð¸Ñı":8102,"ĠÐ¾Ð±ÑĢÐ°Ð·ÑĬ":8103,"ĠÐ±Ð¾ÑıÑĢÐ¾Ð¼":8104,"ĠÑģÐºÐ¾ÑĤÐ°":8105,"Ñ»ÑĢ":8106,"ĠÐ²Ð¾Ð¹ÑģÐºÐ¾":8107,"ĠÐ·Ð´ÑĢÐ°Ð²ÑĸÐµ":8108,"ĠÐ´Ð¾ÑĢÐ¾Ð³Ðµ":8109,"ĠÑĢÐ°Ð·Ð´Ñ£Ð»Ð¸":8110,"ĠÐ±ÐµÑģÑĩÐµÑģÑĤÑĮÐµ":8111,"ĠV":8112,"ÐµÐ²Ñ£":8113,"Ð½Òį":8114,"Ð¼Ð¾Ð½":8115,"Ð³Ð¾Ð´Ð¸":8116,"ÑħÐ¾Ð²ÑĮ":8117,"ĠÐ¾Ð½ÑĮ":8118,"ĠÐ´Ð°Óı":8119,"Â·âĢĲ":8120,"ĠÑĥÐ¿Ð¾Ð²Ð°":8121,"ÑĢÑ£Ð²ÑĬ":8122,"ĠÑģÐ¸ÑħÐ°":8123,"ĠÑĸÐµÑĢ":8124,"ĠÐ±Ñ£Ð»Ð¾":8125,"ĠÐ±ÑĥÐ´ÑĮ":8126,"ĠÑ§Ð±":8127,"ĠÑ§ÐºÑĬ":8128,"Ð·ÑĭÐ²Ð°Ð»Ð¸":8129,"ĠÐ²ÑĬÐ·ÐµÐ¼Ð¸":8130,"ĠÐ´Ð¾Ð¼Ð¸ÑĤ":8131,"ĠÐ´ÑĢÑĥÐ³Ñĭ":8132,"ĠÑĤÐ¾Ð±ÑĮ":8133,"ĠÑģÐµÐ¼Ñ£":8134,"ĠÑĢÐ¾Ð·Ð¼Ð¸ÑĢÐ¸":8135,"Ð½Ñ«Ñ«":8136,"ĠÐ²ÐµÐ»Ð¸ÐºÐ¸ÑħÑĬ":8137,"ÑİÑīÑĥ":8138,"ÑĪÑĤÑ«":8139,"ĠÐ¿Ð¾ÑĩÐµÑĢ":8140,"ĠÐ±ÑĭÐ²Ð°ÐµÑĤÑĮ":8141,"ĠÐºÐ°Ð±Ð°Ð»Ðµ":8142,"ĠÐ½Ð¾Ð³Ð°ÑĤÑĮ":8143,"ĠÐ»Ð¾ÑĥÐºÑ£":8144,"ĠÐ´ÑĢÐ¾ÑĥÐ¶Ð¸":8145,"ÑģÑĤÐ²Ð¸Ð¸":8146,"ĠÑģÐ¾ÑĢÐ¾ÐºÐ°":8147,"ĠÐ»Ð¾ÑģÐ¾ÑģÑĮ":8148,"ĠÐºÐ¾ÑĢÐ¾Ð±ÑĮÐ¸":8149,"ĠÐ¿ÑĢÐ¸ÑħÐ¾Ð´Ð¸ÑĤÐ¸":8150,"ĠÐ¿Ð¸ÑĢÐ¾Ð³Ð¸":8151,"ĠÐºÑ«Ð½Ñ£":8152,"ĠÑĤÑ£Ð»ÐµÑģ":8153,"ĠÐ½Ð°Ð´Ð¾Ð±Ð½Ð¾":8154,"ĠÑ¡Ð³Ñ¹ÑĢÑĨÑĭ":8155,"Ð½Ð¾ÑĢ":8156,"ĠÐ½Ñ¡":8157,"ĠÐºÐ´Ñ£":8158,"ĠÐºÐ¾Ð¼Ð¸":8159,"ÑĩÐ¸ÑĤÐ°":8160,"ĠÐ³ÑĢÑı":8161,"Ð¾ÑĥÑİ":8162,"ÑĪÐ°ÑĪÐµ":8163,"ĠÑħÑĭ":8164,"ĠÐ¾ÑĥÐ»Ð¸":8165,"ĠÐ²Ð¾Ñİ":8166,"ĠÑĤÐ²Ð¾êĻĹ":8167,"ĠÐ³Ð»Ð°Ð²":8168,"ÑģÑĤÐ²Ð¾Ð¼ÑĮ":8169,"ĠÑģÑĤÑĢÐ°Ð½Ñĥ":8170,"ĠÑķÐ»Ð¾":8171,"ĠÐ¿Ð¸ÑģÐ°Ð½ÑĸÐµ":8172,"ĠÐ¿Ð»Ð¾Ð´Ð°":8173,"Ð²ÑĪÑĥ":8174,"ĠÐ±Ð¾ÑĥÐ´Ð¸":8175,"ĠÐºÐ½Ð¸Ð³Ð°Ð¼":8176,"ÑĤÐ¾ÑĢÐ¸":8177,"Ð½ÑĶ":8178,"Ð»Ð¾Ð²Ñ£":8179,"ĠÑģÐµÐ»ÑĮ":8180,"ĠÐ²Ð¾Ð½ÑĬ":8181,"ÑģÑĤÐ½Ð¾Ðµ":8182,"ĠÐºÐ»ÐµÐ²":8183,"Ð±Ð¾ÑĤÐ°":8184,"ĠÐ½Ð°Ð°":8185,"ÑīÐµÐ½ÑĬ":8186,"ĠÐ¿Ð¾ÐµÑħÐ°Ð»Ð¸":8187,"ĠÐµÑģÑĤÐ²Ð¾":8188,"Ð²Ð°Ð½ÑĬ":8189,"Ñ¡Ð½ÑĮ":8190,"ĠÐ¿ÑĢÐ¸ÐµÐ·":8191,"ĠÐ·Ð°Ð¾Ñĥ":8192,"ĠÑĨÐ²ÐµÑĤ":8193,"ĠÐºÐ°Ð¼Ð¾":8194,"ĠÐ²Ð¸Ð´Ð¸ÑĤ":8195,"Ð»ÑİÐ±Ð»ÐµÐ½":8196,"ĠÐ´Ð¾Ð±Ñĭ":8197,"ĠÐľÑĬ":8198,"ĠÐ±Ñ£Ð»Ñ£":8199,"ĠÐ±Ñ£ÑģÑĬ":8200,"ĠÐ´ÐµÐ»Ð°ÑĤÐ¸":8201,"ĠÐ¿ÑĢÑ£Ð±êĻĳ":8202,"ĠÐ¼Ð¾ÐµÑİ":8203,"ĠêĻĩÐ»Ð¸":8204,"ĠÑģÐ²Ð¾Ñ¥Ð¼ÑĮ":8205,"ÐºÐ¾Ð»ÑİÐ±Ð¸":8206,"ĠÐ¤Ðµ":8207,"ĠÐ¿Ð»ÐµÐ¼ÐµÐ½Ðµ":8208,"ĠÐ¼Ð¾ÑģÐºÐ²Ñĭ":8209,"ĠÐ°Ð¿Ð¾ÑģÑĤÐ¾Ð»ÑĬ":8210,"Ð¾Ð³Ð¾Ð²Ð¾ÑĢ":8211,"ÑĢÑħÑĸ":8212,"ĠÑģÐ½Ð¾":8213,"ĠÑģÐ¿Ð¾Ð´Ð¾Ð±Ð¸":8214,"ĠÐ²Ð»Ñ£":8215,"ĠÐ½Ð¾Ð²Ðµ":8216,"ĠÐ½Ð°ÑĢÐ¾":8217,"ĠÐ³ÐµÐ½":8218,"ĠÐĲÐ»Ð¸":8219,"Ð¾ÑĤÐ¾Ñİ":8220,"ĠÐ²ÑģÐºÐ¾ÑĢ":8221,"ĠÑ¿Ð²Ñ£ÑĤÑĬ":8222,"Ð¾ÐºÐ¾Ñĥ":8223,"ĠÐŁÐµ":8224,"ĠÐ²Ð°Ð¼Ð¾":8225,"ĠÑ¥Ð³Ð´Ð°":8226,"ĠÐ´Ð¾ÑħÐ¾Ð´":8227,"ĠÐļÐ¾Ð»":8228,"ĠÑģÑĤÐ°Ð´Ð°":8229,"ĠÐºÐ¾ÑĤÐ¾ÑĢÐ°Ñı":8230,"Ð»ÑĥÐ¹":8231,"Ð½Ð¸ÑĤÐ¸ÑģÑı":8232,"ĠÐ±ÑĢÐ°ÑĤÑĮÑı":8233,"ĠÐ³Ð¾ÑĤÐ¾Ð²Ð¾":8234,"ĠÐ¿Ð¸ÑĤÑĸÐµ":8235,"ĠÐ¿ÑĢÐ¸ÑģÑĤÐ°Ð½Ð¸":8236,"ĠÑģÐ²Ð¸Ð´Ñ£ÑĤÐµÐ»ÑĮ":8237,"ĠÐ¼Ð½Ð¸ÑĤ":8238,"ĠÐ¿ÑĢÑ¡":8239,"ÑĤÐ¸Ð²ÑĬ":8240,"ÑĨÐºÐ¾Ð¸":8241,"ĠÐ»Ð¾Ð¶Ð°":8242,"ĠÑĥÑĪÐ¸":8243,"ĠÑģÑĬÐ´Ñ£":8244,"Ð¼Ð°Ð»Ð¸":8245,"ĠÑ¥Ð´Ð¸Ð½ÑĬ":8246,"ĠÐ±Ñ£Ð´":8247,"ĠÐ¿ÑĢÑ£Ð±ÑĭÐ²Ð°":8248,"ÑĤÑĭÐ¹":8249,"ĠÑģÐºÐ¾Ð±Ðµ":8250,"ĠÑĦÐµÑ¡":8251,"Ð±ÑĮÑ¥":8252,"ĠÐ²ÑĢÐµÐ¼ÐµÐ½":8253,"ĠÐ¼Ð½Ð¾Ð³Ð¸Ñı":8254,"ÑĪÑĤÐ¸Ð¸Ð¼ÑĬ":8255,"ĠÐľÐ°ÑĢÐ¸Ð½":8256,"ĠÑģÐ¼Ñ£ÑĢ":8257,"ĠÑ¡Ð±ÑĢÐ°Ð·Ñĭ":8258,"ĠÑĤÐ¾ÐºÐ¼Ñ¡":8259,"ĠÐ¿Ð¾Ð´Ð²Ð¸Ð·Ð°":8260,"ĠÐŁÐ¾ÑĤÐ¾Ð¼":8261,"ĠÐ¿Ð¾Ð¼Ð°Ð³Ð°":8262,"Ð´ÑĢÑĬÐ¶Ð°":8263,"ĠÐĶÑĥÐ½Ð°":8264,"Ð³Ð¾Ð²Ñ£ÑĢ":8265,"ĠÐĵÐ¾ÑģÑĥÐ´Ð°ÑĢÑİ":8266,"ĠÑĩÐ¾Ð»Ð¾Ð¼ÑĬ":8267,"ĠÐĶÐµÐ²Ð³ÐµÐ½Ð¸":8268,"âģĺ":8269,"Ð¸Ð»Ðµ":8270,"ĠÐ¸ÑģÐºÐ¾Ñĥ":8271,"ÑģÑĤÐ½Ñ£":8272,"ĠÐ°Ð´":8273,"ĠÑ¿ÑĨÑĮ":8274,"Ð¼Ð¸Ð½Ð°":8275,"ĠÑħÐ¾Ð¶Ðµ":8276,"ĠÑĢÐ°ÑģÐº":8277,"ĠÐ±Ð¾ÑĩÐºÐ°":8278,"ĠÑĤÐ°ÐºÐ¸Ñı":8279,"ĠÐ²Ð°ÑĪÑĮ":8280,"ĠÐ¿ÑĢÐ°Ð²ÑĬ":8281,"ĠÑĤÐ°ÐºÐ¾Ð¹":8282,"Ð»ÐµÐ½ÑĸÑ§":8283,"ĠÑĦÑĸ":8284,"ĠÑĢÑ£ÐºÐ¸":8285,"ĠÐ½Ð°ÑĪÐ¾Ð³Ð¾":8286,"ĠÐ±Ð¾Ð³ÑĮ":8287,"ĠÐ±Ñ¹Ð´Ðµ":8288,"ĠÑģÐ¾Ð»Ð¾Ð´Ñĥ":8289,"ĠÐ¢Ð°Ð¶Ðµ":8290,"Ð½Ð¸ÑĨÐ°Ñħ":8291,"ĠÐ½Ð°Ð¿Ð¸ÑģÐ°ÑĤÐ¸":8292,"ĠÐ¾Ð¿Ñ§ÑĤÑĮ":8293,"ĠÐ±ÐµÐ»ÑĭÐµ":8294,"ĠÐĵÐ¾ÑģÐ¿Ð¾Ð´Ñĥ":8295,"ĠÐ¿Ñ¹ÑĤÐ¸":8296,"ĠÐ¾ÑĤÐ¿ÑĥÑģÐº":8297,"ĠÐ´ÐµÐ»Ñĥ":8298,"ĠÐ¿ÑĢÐ¾ÑģÑĤÐ¸ÑĢÐ°":8299,"ĠÐ´ÑĢÑ£Ð²Ð¾":8300,"Ð²ÐºÑĬ":8301,"Ð´ÑĸÐ°":8302,"Ð·Ð¾ÑĪÐ°":8303,"ĠÐ¾ÑĢÐ°":8304,"ĠÐ½Ð°Ð½ÑĮ":8305,"ĠÐ¿ÑĢÑĪÐµ":8306,"Ð½Ð¸Ð²ÑĬ":8307,"Ð¾Ð´Ñ¹":8308,"Ð¾Ð´ÑĢÑĬ":8309,"Ñ¹Ð¼":8310,"ĠÐµÐ³":8311,"ĠÑ¡Ð±Ðµ":8312,"ĠÐ¿ÑĢÐ¸Ð´ÐµÑĤÑĮ":8313,"Ð´Ñ£ÑĤÑĮ":8314,"ĠÐ»Ð¸Ð¿ÑģÐ²Ð°":8315,"ĠÑ¥ÑģÑĤÐµ":8316,"ĠÐ¼Ð°ÑģÐ»Ð°":8317,"ĠÑĢÐ°Ð·Ñģ":8318,"ĠÐłÐ¾":8319,"ĠÐºÑĢÐ°Ð»ÑĮ":8320,"ĠÐ¿Ð¾Ð¿Ñĥ":8321,"ĠÐ¼Ð¾ÐµÑ§":8322,"ĠÐ¼ÑĬÐ½Ðµ":8323,"ĠÑĩÐµÑĢÐ½ÑĭÑħ":8324,"ĠÑħÐ¾Ð»Ð¾Ð¿ÐµÐ¹":8325,"ĠÑĤÑĢÐµÐ¿Ðµ":8326,"ĠÐ²Ð¾Ð»Ð¾Ð´Ð¸Ð¼ÐµÑĢÐ¸":8327,"ĠÐ¿Ð¾Ð¶Ð½Ð¸":8328,"ĠÐ¶Ð°Ð»Ð¾Ð²Ð°Ð»":8329,"ĠÑģÑĤÑĢÐ°ÑĪÐ½Ð°Ð³Ð¾":8330,"ĠÑģÐ¾Ð³ÑĢÑ£ÑĪÐ¸":8331,"ĠÐ³ÑİÑĢÐ³Ð¸":8332,"ĠÐ³Ð»Ñ£Ð±Ð°":8333,"ĠêĻģÐ»Ð°ÑĤÐ¾":8334,"ĠÐ¿Ð¾ÑģÑĤÑĢÐ°Ð´Ð°":8335,"ĠÑģÐ»Ð¾Ð±Ð¾Ð´":8336,"Ð½Ð¾ÑĢÐ¸":8337,"ĠÑģÐ±Ð¾ÑĢ":8338,"Ð¼Ð¾Ð¶Ð½Ð¾":8339,"Ñ£Ð¼ÑĬ":8340,"ĠÐ½Ð½Ñ£":8341,"ĠÐºÐ¾Ð¿Ð¸":8342,"Ð±Ð»Ñ£":8343,"ĠÐ¿ÑĢÑĸÐ°":8344,"ĠÐ¿Ð¾ÑĤÐ¾":8345,"Ð¶Ñĭ":8346,"Ð²Ð°ÑİÑĤÑĮ":8347,"êĻĹÑĤÑĮ":8348,"Ð»ÐµÑģ":8349,"Ð¼Ð°Ñı":8350,"ĠÐ¿Ð°Ð»Ð¸":8351,"Ð¾Ð²Ð¸ÑĩÐ¸":8352,"ĠÐļÐ¾Ð½":8353,"ĠÐ±Ð³Ñ¹":8354,"ĠÑģÑĤÑĢÐ°Ð½ÑĬ":8355,"ĠÐ¼ÑĭÑģÐ»":8356,"ĠÐĸÐµÐ½Ð°":8357,"Ð·Ð¾ÑģÑĤÑĮ":8358,"ĠÐ´ÐµÑģÑ§ÑĤÐ¸":8359,"ÑģÑĤÐ¾Ð»ÑİÐ±Ð¸":8360,"ĠÐ½Ð°ÑĩÐ½ÐµÑĤÑĮ":8361,"ĠÐ´Ð¾ÑģÑĤÐ¾Ð¸Ð½Ð¾":8362,"ĠÐ¿ÑĢÐµÐ»ÑģÑĤÐ¸":8363,"ĠÐºÑĭÐµÐ²Ñ£":8364,"Ð°Ðµ":8365,"Ð²ÑĢÑ£":8366,"Ð¼Ð¾Ð³Ð¾":8367,"Ð¼Ð»Ñİ":8368,"ĠÐ½Ð°ÑģÑĮ":8369,"ĠÐ³ÐµÑ¡":8370,"Ð¿Ð»ÑĮ":8371,"ÑĨÐºÐ¸Ðµ":8372,"ĠÐ¿Ð¾Ñ¥":8373,"ÑĪÐµÐ½Ð¸Ñı":8374,"ÑģÑĤÐ¾Ðµ":8375,"Ð´ÑĮÑĢ":8376,"Ð»ÑıÐ´Ð¸":8377,"Ð³Ð¾Ð»Ñ£":8378,"ĠÑģÑ£Ð´Ð¸":8379,"ĠÑģÑ¹ÑīÐµ":8380,"ĠÑĢÑ£ÐºÐ°":8381,"ĠÐ¡ÐµÐ³Ñ¡":8382,"ĠÐ±ÐµÑģÑĩÐµÑģÑĤÐ¸":8383,"ĠÑ¾Ð²Ñ£ÑīÐ°":8384,"ĠÑģÐµÑĢÐ´ÑĨÑĭ":8385,"ĠÑģÑĤÐµÑĦÐ°":8386,"ĠÐ½Ð°ÐºÐ°Ð·Ð°Ð½ÑĸÐµ":8387,"ĠÑħÐ¾ÑīÐµÑĤÐµ":8388,"ĠÐ¿Ð¾Ð³Ð¸Ð±Ðµ":8389,"ĠÑĤÑĢÐ°Ð¿Ðµ":8390,"ÑĤÐµÐ»Ðµ":8391,"ĠÑĤÐµÐ»":8392,"Ð±ÑĢÐ¾":8393,"Ð·Ð°ÑĢ":8394,"Ð½Ð¸ÑģÑ§":8395,"ÑĨÐºÐ¾Ð¹":8396,"ĠÐ°Ð½Ð¾":8397,"ĠÐ°Ð»ÑĮ":8398,"ĠÐ°ÐºêĻĳ":8399,"ĠÑĩÐµÐ¼Ñ¹":8400,"ĠÐĺÐ³Ð½Ð°":8401,"ĠÐ¿ÑĢÐ¸ÑģÑĤÐ°Ð²Ð¸":8402,"ĠÐ¿ÑĢÐ¸Ð»ÐµÐ¶Ð°":8403,"ĠÐ·Ð°Ð²Ñ£ÑĤÑĬ":8404,"ĠÑĶÑģÐ¼ÑĮ":8405,"ĠÐ¿Ð¾Ð»ÐºÑĬ":8406,"Ð¿Ð¸ÑģÐ¸":8407,"âĢ¦":8408,"ĠÐ²ÑĭÐ´Ð°":8409,"ĠÑĢÐ°Ð·Ð³Ð½Ñ£Ð²Ð°":8410,"Ð½êĻĭÑĤÑĬ":8411,"Ð¼ÑĭÑģÐ»Ð¸":8412,"ĠÐ½Ð¸ÐºÐ¾Ð¼Ð¾Ñĥ":8413,"ĠÐºÐ½Ð¸Ð³Ñĭ":8414,"ĠÑħÐ¾Ð´Ð¸ÑĤÑĮ":8415,"ĠÐ²ÐµÐ»Ð¸ÐºÐ°Ñı":8416,"ĠÑģÑĢÐ¾Ð´":8417,"ĠÐ¼Ð¸ÑħÐ°Ð¸Ð»Ð¾":8418,"ĠÐ¿ÑĢÐ¿Ð±Ð½ÑĭÐ¸":8419,"ĠÐºÐ¾ÑĢÐ¾Ð»ÐµÐ²ÑģÐºÐ¾Ðµ":8420,"ĠÐ¼ÑĥÐ´ÑĢÑĭ":8421,"ĠÐ´Ð¾ÐºÐ»Ð°":8422,"ĠÑ¡Ð±Ñ£ÑīÐ°":8423,"Ð½â¸¯":8424,"ĠÑģÑħÐ¾Ð´":8425,"ÑĮÑĨÐ¸":8426,"ĠÑĤÑī":8427,"ĠÐ¾ÑģÐ°":8428,"ÑĩÐºÐµ":8429,"ĠÐ½ÐµÐº":8430,"ĠÐ½ÐµÐ¿Ð¾":8431,"ĠÐ¿ÑĢÐ¸Ð²":8432,"ĠÑĥÑĤÑĢ":8433,"ÑģÐ¸Ð¼Ð°":8434,"ĠÐŁÐµÑĢÐµ":8435,"ĠÐĴÑģÑı":8436,"Ð½ÑıÑĤÑĮ":8437,"ĠÑĪÐ»Ð¸":8438,"Ð»ÐµÐ½ÑĸÐ°":8439,"Ð¾Ð½Ð¸Ð¸":8440,"ĠÐĲÐ»ÐµÐºÑģÐ°Ð½Ð´ÑĢ":8441,"ĠÐ¾Ð´Ð½Ð°":8442,"ĠÐ²Ð·ÑıÐ»ÑĬ":8443,"ĠÑħÐ¾Ð´Ð¸ÑĤ":8444,"ĠÐ¿Ð¸ÑĤÐ¸Ðµ":8445,"ĠÑģÑĤÑĢÐ°ÑĪÐ½Ð¾":8446,"Ð¾Ð¼ÐµÑģÑĤ":8447,"ĠÐ½Ð°Ð¸Ð¿Ð°ÑĩÐµ":8448,"ĠÐ²Ð·ÐµÐ¼ÑĪÐµ":8449,"ĠÐ²Ð½Ð¸ÑĤÐ¸":8450,"Ð´Ð¾Ð¹":8451,"ĠÐ´Ð²Ð¾Ð¸":8452,"ÑĨÑĢ":8453,"ĠÐ°Ð±":8454,"ĠÐĺÐµÑĢ":8455,"Ð¶ÐµÐ½ÑĮ":8456,"ÑĢÐµÑħÑĬ":8457,"ĠÐĴÑģÐ¸":8458,"ĠÑģÐ»Ð½":8459,"ĠÐ¢Ð¾Ð»ÑĮÐºÐ¾":8460,"ĠÐ²Ð°ÑĪÑ§":8461,"ÑģÐºÐ°Ð³Ñ¡":8462,"ĠÑģÑ¹ÑģÑ£":8463,"ĠÐµÐ´Ð¸Ð½ÑĮ":8464,"ĠÐ²ÑĢÐ°Ð¶":8465,"ĠÑģÐµÑĢÐ´ÑĨÐµÐ¼ÑĬ":8466,"ĠÐºÑĥÐ¿Ð»Ñİ":8467,"ĠÐ¼Ð¾Ð»Ð¾Ð´Ð¾Ð¹":8468,"ĠÐ¿Ð¾Ð½Ð¾Ñģ":8469,"ĠÐ²ÑĬÑģÑ£ÑħÑĮ":8470,"ĠÐ¿ÑĢÐ¸Ð¸Ð´Ð¾ÑĪÐ°":8471,"ĠÐ¸ÑİÐ½Ñı":8472,"ĠÐ¿Ð°ÑĤÑĢÐ¸Ð°ÑĢÑħÐ°":8473,"ĠÐ´Ð²Ð¾Ðµ":8474,"ĠÑĤÑĸ":8475,"Ñ§ÑĤÑ£":8476,"ĠÐ±ÑĢÑ£":8477,"ĠÐ±Ð»Ñ§":8478,"ÑİÑģÑı":8479,"ÑĩÐ½ÑĭÑħ":8480,"ĠÑĥÐ¼ÑĭÑĪ":8481,"ĠÑĤÐ°ÑĤÑı":8482,"ÑħÐ°Ð»ÑĬ":8483,"ĠÑĢÐ°Ð·Ð¾ÑĢ":8484,"ĠÐºÑĥÐ¿Ðµ":8485,"ĠÐ¿ÐµÑĩÐµÑĢ":8486,"ÑŃÑĪÑĤÐµ":8487,"ÑħÐ¸Ðµ":8488,"ĠÐ´ÑĬÐ²Ð°":8489,"ĠÐ¿Ð¾Ð´Ð°ÑĤÐ¸":8490,"ĠÐ»ÑĮÑģÑĤÐ¸":8491,"ĠÐĺÐ·Ñ§":8492,"ĠÑģÐ²Ñ§ÑĤÑĭ":8493,"ĠÐ²Ð°ÑģÐ¸Ð»ÑĮÑİ":8494,"ĠÑģÑĤÑĢÑ£Ð»":8495,"ĠÐ²Ð¸Ð´ÐµÑĤÐ¸":8496,"ĠÐ³ÑĢÐ¸Ð³Ð¾ÑĢÐ¸Ð¸":8497,"Î¿ÏĤ":8498,"ĠÑĥÑĩÐ¸Ð½Ð¸ÑĤÑģÑı":8499,"ÑĤÐ²Ðµ":8500,"ĠÐ½Ð¾Ð½":8501,"ĠÐ½Ð¾Ð³Ð¾":8502,"Ð·Ð½Ñ£":8503,"ĠÐ»Ð¾Ð´":8504,"ĠÑĩÑ§":8505,"ĠÐ´Ð°Ð±Ñĭ":8506,"Ð´Ð°ÑĪÐµ":8507,"ĠÑħÐ²Ð°Ð»":8508,"ÑģÑĤÑĮÐ¸":8509,"ĠÑĢÐ°Ð¶Ð°":8510,"ÑģÐ¸Ð»":8511,"ÑĩÐ°Ð»ÑĮ":8512,"ĠÐºÐ°Ð½":8513,"ĠÐºÐ°ÐºÐ¸Ñħ":8514,"ĠÐ¿Ð¾ÑģÐ¼Ñ£ÑħÑĬ":8515,"ĠÐ²Ð¾Ð·Ð½ÐµÐ½Ð°":8516,"ĠÑĢÑĥÐº":8517,"Ð½Ð¸ÐºêĻĳ":8518,"ĠÑģÑĥÐ¶Ð´Ð°":8519,"ĠÐ¿Ð¾Ð¶Ð°Ð»êĻĭÐ¸":8520,"ĠÑĢÐ°Ð´Ð¾Ð²Ð°ÑĤÐ¸":8521,"ĠÐ¸Ð³ÑĥÐ¼ÐµÐ½Ð°":8522,"ĠÐ´ÐµÑģÑıÑĤÑĮ":8523,"ĠÐ¿ÑĥÑģÑĤÐ¾ÑĪÐ¸":8524,"ĠÑĢÐ°êĻģÑ¹Ð¼Ñ£":8525,"ÑĢÐ³":8526,"ĠÑĤÑĸÐ°":8527,"ĠÐ¿Ð¾ÑģÐ¼Ñ£":8528,"ĠÐ²Ñ£Ð´":8529,"ĠÐ»Ð¸ÑĪÐµ":8530,"ĠÑĪÑĬ":8531,"ĠÑĨÐ°ÑĢÑģÑĤÐ²Ñĥ":8532,"ĠêĻĭÐ±Ñ¡":8533,"ĠÐ¿Ð¾ÑĢÑĥÑĤÑĩÐ¸":8534,"ĠÐ¼Ð»ÑģÑĤ":8535,"ĠÐ¿ÑĢÐ¾Ð´Ð°Ð¶Ñ£":8536,"ĠÐ½Ð°ÑģÐ»Ðµ":8537,"ĠÐ·Ð½Ð°Ð»Ð°":8538,"ÑīÐµÐ½ÑĸÑ§":8539,"ÑĪÑĤÐµÐ¼ÑĬ":8540,"ĠÐ¿ÑĮÑı":8541,"ĠÐ¸Ð²Ð°Ð½Ð¾Ð²Ð¸ÑĩÑİ":8542,"ĠÐ±Ð¾Ð¶Ð¸Ñİ":8543,"ĠÐºÐ¾Ð¶Ñİ":8544,"ĠÐ°Ð½ÑĤÐ¾Ð½":8545,"ĠÐĿÐ¾Ð²Ð³Ð¾ÑĢÐ¾Ð´":8546,"Ð»ÐµÐ½ÑĮ":8547,"ĠÑģÐ¾Ð½ÑĬ":8548,"ÑĮÑĤÐ¾":8549,"ĠÐ½Ð¾Ð²Ð¾":8550,"ĠÐ´Ð»ÑĮ":8551,"ĠÐ´Ð²ÐµÑĢÐ¸":8552,"ĠÐ´Ð²Ð¾Ñ¥":8553,"ÒĨ:":8554,"ĠÐ¿ÑĢÐ¸Ñ§":8555,"Ð½Ñ£ÑĤÐµ":8556,"ĠÑĢÐµÐ´Ð°":8557,"ĠÑĤÐµÑħÑĬ":8558,"ĠÐ²Ñ£Ð¼ÑĬ":8559,"ĠÐ²Ñ£ÑĤÑĢ":8560,"ĠÐ²Ð¾Ð·Ð²ÐµÑģÐµÐ»Ð¸":8561,"ĠÐ¿ÑĢÐ°Ð²ÑĥÑİ":8562,"ĠÑħÐ¾ÑĤÑ§ÑīÐµ":8563,"ÑĳÑĢ":8564,"ĠÐ²Ð¾Ð»Ð¾Ð´Ð¸Ð¼ÐµÑĢÑĥ":8565,"ĠÑģÐ¾ÑĤÐ²Ð¾ÑĢÐ¸ÑĤ":8566,"ĠÑģÐ»ÑĥÐ¶Ð¸Ð»ÑĭÑħ":8567,"ĠÑģÑĢÐ¾ÐºÑĬ":8568,"Ñ¡Ð½Ð°Ñ³Ð°":8569,"ĠÐ±Ð¾Ð¶Ð¸Ñı":8570,"ĠÐ¿Ð¾Ð»Ð¾Ð¶Ð¸ÑĤ":8571,"ĠÐ§Ð°Ð´Ð¾":8572,"ÑĢÐ¿Ð¸":8573,"ĠÐ¸ÑģÑĤÑĮ":8574,"ĠÐ¸ÑģÑĤÐµÑĢ":8575,"Ð´ÑĨÐµ":8576,"ÑģÑĤÐ°ÑĢ":8577,"ÑģÑĤêĻ¿":8578,"Ð±Ñĸ":8579,"Ð²Ð°ÑħÑĬ":8580,"ÑĩÐ¸ÑĪÐ¸":8581,"ĠÐ¾ÑĤÐ²Ñ£ÑīÐ°":8582,"ĠÐ¸Ð·Ð±Ð¸":8583,"ĠÑĤÐ²Ð¾Ð°":8584,"Ð´ÑĮÑĸ":8585,"Ð¸ÑĤÐµÑģÑı":8586,"ĠÑģÑĤÐ°Ð½Ñĥ":8587,"ĠÑĨÑĢÐºÐ²Ð¸":8588,"ĠÐ³Ð¾ÑģÐ¿Ð¾Ð¶Ðµ":8589,"Ð²ÑĪÐ¸Ð¼":8590,"ĠÐ¾Ð´Ð½Ð¾Ð³Ð¾":8591,"ĠÐ²Ð·ÑıÐ»Ð¸":8592,"ĠÑģÐ²Ð¾Ð±Ð¾Ð´Ð¸":8593,"ĠÐ¿ÑĢÐ¸Ð¸Ð¼Ð¸":8594,"ĠÐ¿ÑĢÐ¸Ð½ÐµÑģÑĤÐ¸":8595,"ĠÐĺÐ²Ð°Ð½Ð¾Ð²Ð¸Ñĩ":8596,"Ġ20":8597,"Ð±ÑĭÑĤÐ¾ÐºÑĬ":8598,"ĠÐ²ÑĢ":8599,"ÑĪÑĤÑĬ":8600,"ĠÐµÐ¿Ð¸":8601,"ÑĤÑĮÑĸ":8602,"ÐºÐ¾ÑĪÐµ":8603,"ĠÑģÑĤêĻĳ":8604,"ĠÑ¡Ð»Ð¾Ð²":8605,"ÑģÑĤÐ°Ð³Ð¾":8606,"Ð¾Ð²Ð°ÑĤÑĮ":8607,"ĠÑģÐ°Ð¼Ñ£":8608,"ĠÐ¢Ð¾Ð»ÐºÐ¾":8609,"ĠÐ¼Ð°Ð³":8610,"ĠÐļÐ½Ñ§":8611,"ĠÐŀÐ±":8612,"ĠÐ¼Ð¾Ð»Ð²Ð¸":8613,"Ð½ÑĭÐ¸Ð¼ÑĮ":8614,"ĠÐ¸ÑģÐ¿Ð»ÑĬ":8615,"ĠÐ´ÑĬÐ»":8616,"ĠÐ¸Ð½Ð´Ñ£":8617,"Ð»Ñ¡Ð¼ÑĬ":8618,"Ð½ÐµÑģÐ¾ÑĪÐ°":8619,"Ð¼êĻ¿Ð¶Ðµ":8620,"ĠÐ½Ð°Ð¼Ñ£ÑģÑĤ":8621,"ĠÐ¢Ð¸Ð¼Ð¾":8622,"ĠÐ´Ð²Ð°ÑĤÑĨÐ°ÑĤÑĮ":8623,"ĠÐ±ÐµÐ³Ð»ÑĭÑħ":8624,"Ð°Ð²ÑĬ":8625,"ÑĤÑĨÑĭ":8626,"ÑģÐµÐ¼ÑĬ":8627,"ÑģÑĤÐ¸ÑĤÑĬ":8628,"Ð·ÐµÐ¼":8629,"ĠÐ¾Ð´Ñ£":8630,"ÑīÐµÐ¼":8631,"Ð¾Ð±Ð¾ÑĢ":8632,"ÑĩÐ¸ÑīÐ°":8633,"Ð²Ñ£ÑĢ":8634,"ĠÐ¾ÑĤÐ²ÐµÑĢ":8635,"ĠÐ¾ÑĤÐµÑĨ":8636,"ĠÐ²Ð°ÑĢÐ¸":8637,"ÑģÐ¿Ð¾Ð²Ñ£":8638,"ĠÐ²Ð¾Ð·Ð¼Ñĥ":8639,"ĠÑ¹Ð¼ÑĬ":8640,"ĠÐºÐ¾ÑĢÐµÐ½ÑĮ":8641,"Ð·ÑĭÐºÐ¸":8642,"ĠÐ¸ÑģÑĨÐ°":8643,"ĠÑ³Ð¸Ð»Ð¸":8644,"ĠÐ¿Ð»Ð¾Ð´Ñĭ":8645,"ĠÐ¶ÐµÐ½Ð°Ð¼ÑĬ":8646,"ĠÐĴÐ°ÑģÐ¸Ð»ÑĮÑİ":8647,"ĠÐ¿Ð°Ð²ÐµÐ»ÑĬ":8648,"ĠÑĤÑĢÐ°Ð²Ð°":8649,"ĠÐ¼Ñ¡ÑµÑģÐµÑİ":8650,"ĠÐ¿ÑĢÐ¸ÑģÑĤÐ°Ð²Ð°":8651,"ĠÐ½Ñ£ÐºÑĤÐ¾":8652,"ĠÑħÑ¹Ð´Ð¾":8653,"ĠÐ¸Ð³ÑĥÐ¼ÐµÐ½Ñĥ":8654,"ĠÐ´Ð¾Ð±ÑĢÐ¾Ð´Ñ£ÑĤÐµÐ»":8655,"ĠÐ´ÐµÐ²Ð¸ÑĨÐ°":8656,"ĠÐŁÐ¾ÐºÐ»Ð¾Ð½":8657,"ĠÐ¿ÑĢÑıÐ¼Ð¾":8658,"Ð°ÑħÑĬ":8659,"Ð¼ÑĥÐ´":8660,"ĠÑĤÐµÐ»ÑĮ":8661,"ÑģÑĤÑĢÑĮ":8662,"ĠÐºÐ¾Ð´":8663,"ĠÐ»Ñĭ":8664,"Ð²Ð°ÑĪÐ°":8665,"ĠÐĺÑģ":8666,"Ð¸ÑĤÑı":8667,"ĠÐ¿ÑĢÐ¸ÑĤÐ¸":8668,"ĠÐ¿ÑĢÐ¸Ð¼Ñ£":8669,"ÑģÐ°Ð½":8670,"ĠÐ¡Ð²Ñ£":8671,"ĠÑģÐ»Ð°Ð²Ð¸":8672,"ĠÐ¾ÑĤÑĬÐ²Ñ£ÑĪÑĤÐ°":8673,"ĠÐ²ÑģÑıÐºÐ¾Ð¼Ñĥ":8674,"ĠÐºÐ°Ð·Ð½ÑĮÑİ":8675,"ĠÐ´ÑħÐ¾Ð²":8676,"ĠÐ´ÑĪÑ«":8677,"ĠÐ¼Ð¾Ð½Ð°ÑģÑĤÑĭÑĢÐ¸":8678,"ĠÐ²Ñ£ÑĢÑ«":8679,"ĠÑ¥ÑģÐ¼Ð¸":8680,"ĠÐ´Ð¾ÑĥÑĪÐ°":8681,"ĠÐ»Ñ¹ÐºÐ°":8682,"ĠÐ³ÑĢÐµÑĩÐµ":8683,"ĠÐ²Ð°ÑĪÐ¸Ð¼ÑĬ":8684,"ĠÑģÐ²Ñ£ÑĤÐ»Ð¾":8685,"ĠÑįÑĤÐ¾":8686,"ĠÐ¼Ð»Ð°Ð´Ð°":8687,"ĠÑģÐ²Ð¸Ð´Ñ£Ð½ÑĸÑ§":8688,"ÑĤÑ¡":8689,"Ð»Ð¾Ð¹":8690,"Ð»ÐºÑĥ":8691,"ĠÑģÐµÐ½Ð°":8692,"ĠÐºÐµÑģ":8693,"Ð¾Ð»Ð¾Ð¿":8694,"ĠÑĨÐµÑĤÐ¾":8695,"ĠÑĢÐ°Ð´Ñĥ":8696,"ĠÐ¿Ð¾Ð»Ñĳ":8697,"Ð²ÑĭÑ§":8698,"ĠÐ²Ð¾Ð·Ð¾Ð¿Ð¸":8699,"ÑĨÐµÐ²ÑĬ":8700,"ÑĶÐ³Ð¾":8701,"ĠÐ±Ñ£Ð´Ð°":8702,"ĠÐºÐ°ÐºÑĮ":8703,"ĠêĻĭÐ¼":8704,"Ð½Ð¸ÐºêĻĭ":8705,"ĠÐ¼Ñ§ÑĤÑĮ":8706,"ÑĳÐ½":8707,"Ð´Ñ§ÑīÐµ":8708,"ĠÐ»Ð°Ð²ÐºÐ°":8709,"ĠÐ²ÑĢÐ°Ð¶Ð´Ð°":8710,"ĠÑģÐµÐ¼ÐµÐ½Ð°":8711,"ÑĤÐµÑĢÐ¸":8712,"ĠÑģÑĢÑĨÐµ":8713,"ĠÑĩÐ»Ð¾Ð²Ñ£ÑĩÑĮ":8714,"ĠÐ¿Ð¾Ð³Ð¸Ð±Ð»Ð¸":8715,"ĠÐ²Ð¾ÑģÐ¿Ð¾Ð¼":8716,"ĠÐ»Ð¾ÑĪÐ°Ð´ÑĮ":8717,"ĠÑİÑĢÑĮÑİ":8718,"ĠÑĩÐµÐ»Ð¾Ð±Ð¸ÑĤÑĮÑı":8719,"ĠÐ¢ÐµÐ±Ðµ":8720,"ĠÐľÐ°ÑĢÐºÐ¾Ð±":8721,"ĠÐĶÐ°ÑĢÐ¸Ð¹":8722,"ĠÐĶÑİÐº":8723,"Ð»Ð½Ð°":8724,"ĠÐ¸ÑģÑĤÐ¾Ñĩ":8725,"ÐºÐ¾Ð¶":8726,"ÑıÐ½Ð¸Ñı":8727,"ĠÐ½Ð°Ð³Ð°":8728,"ĠÐ³Ð½Ð°":8729,"Ð¿Ð¾Ð¼ÑĬ":8730,"ÑĢÐ°Ð´Ð¸":8731,"ĠÐ´Ð°Ðµ":8732,"ĠÐ½Ð¸Ð·ÑĬ":8733,"ĠÐ¡ÐºÐ°":8734,"Ð¼ÑĮÑĸ":8735,"ĠÐ¢Ð¾Ð¼ÑĮ":8736,"ĠÐ¼Ð½Ð¾Ð·Ñ£":8737,"ĠÐ³ÑĢÐ°Ð¶Ð°":8738,"ĠÑ§ÐºÐ¾Ð²Ð°":8739,"ĠÑĤÑ£ÑħÑĮ":8740,"Ð»ÑĭÑħÑĬ":8741,"ÑģÑĤÑĭÐ½":8742,"ĠÐķÐ´Ð°":8743,"ĠÐ¿ÑĢÑĸÐ¸ÑĤÐ¸":8744,"ĠÐ´Ð¾Ð±ÑĢÑĭÐ¼Ð¸":8745,"ÑħÐ¾Ð´Ð¸Ð»Ð¸":8746,"Ð»Ð¾ÑģÑ§":8747,"ĠÐºÑĢÐ°ÑģÐ¾ÑĤÑĥ":8748,"ĠÑıÐ·ÑĭÐºÐ¸":8749,"ĠÐ¿Ð¾ÑĢÐ°Ð·Ð¸":8750,"ĠÑģÐ»ÑĥÐ¶Ð¸ÑĤÐ¸":8751,"ĠÐ½ÐµÐ´Ð¾ÑģÑĤÐ°":8752,"ĠÑĩÐ°ÑĢÑĥ":8753,"ĠÑĩÐµÑĢÐ½Ð¸Ð³Ð¾Ð²":8754,"ĠÐ´ÐµÑĪÐµÐ²Ð¾":8755,"Ð´ÐµÐ½Ð°":8756,"ĠÐ±Ð¾ÑĢÐ°":8757,"ĠÐ¼ÐµÑĤÐ°":8758,"ĠÐ»ÑĥÑĤ":8759,"ĠÑĩÐ¾":8760,"ĠÑģÑĬÐºÑĢÑĭ":8761,"ĠÐ¼Ð°ÑİÑĤÑĮ":8762,"Ð³Ð°Ð»Ð¸":8763,"ĠêĻĭÑĩÐ¸Ð½Ð¸":8764,"ĠÑĩÐ¸ÑģÑĤÑĬ":8765,"ĠÑĦÐ»Ð°":8766,"ĠÐ¿ÑĢÐµÐ´Ð¾":8767,"ĠÑĤÑĮÑĩÑĸÑİ":8768,"ÑĤÐµÐ»Ñ§":8769,"ĠÐ²Ð¾Ð·Ð¼ÐµÑĤÑĬ":8770,"ĠÐ²Ð°ÑĪÐµÐ¸":8771,"ĠÐ¾ÑĤÐ¸Ð´Ðµ":8772,"ĠÑģÐ½Ð¸Ð´Ðµ":8773,"ĠÐ»ÐµÐ´Ñ¹":8774,"ĠÐ¼Ð¾Ð»Ð¸ÑĤÐ²Ð°Ð¼Ð¸":8775,"Ð°Ð¼ÑĬ":8776,"ÑĢÐºÐ°":8777,"ĠÑģÑģ":8778,"ĠÐºÐ½Ð°":8779,"ĠÐºÐ»Ñı":8780,"ÑħÐ¼Ð°":8781,"Ð±ÐµÑĢÐµ":8782,"Ð²Ð¸Ðµ":8783,"Ð°ÑĢÑĭ":8784,"ÑģÐ¸ÑĤÑĮ":8785,"ĠÐ¿Ð°Ð½ÑĬ":8786,"ÑīÐ¸Ð¼Ð¸":8787,"ĠÐ¼Ð°Ð»ÑĬ":8788,"Ð³Ð°Ð¼ÑĬ":8789,"ĠÐ¶Ð¸Ð²Ñĭ":8790,"ĠÐ¾Ð±Ñı":8791,"ĠÐ´Ð²Ð¾ÑĢÑ§Ð½Ð¸":8792,"ĠÐ³ÑĢÐ¾Ð±Ñ£":8793,"ĠÐ±êĻĳÑĪÐ°":8794,"ĠÐ²Ð»Ð°ÑģÑĭ":8795,"ĠÐ³Ð¾ÑģÑĤÑı":8796,"ĠÑģÐ¾ÑĤÐ²Ð¾ÑĢÐ¸Ð»ÑĬ":8797,"ĠÑĢÑ¹ÑģÑĮ":8798,"ĠÐ¼Ð½Ñ¡Ð³Ñĭ":8799,"ĠÑģÐ¾Ð²Ð¾ÐºÑĥ":8800,"ĠÐ±Ñ«Ð´Ðµ":8801,"Ġ100":8802,"ĠÐ¿ÐµÑĢÐµÑıÑģÐ»Ð°Ð²":8803,"Ð²ÑĸÐ°":8804,"ÑĥÑģ":8805,"ĠÐ´Ð²Ð¾":8806,"ĠÑĤÑĢÑı":8807,"ÑģÑĤÑĸÐµ":8808,"Ð³Ð½Ñĥ":8809,"ÑĩÐ¾":8810,"Ð»Ð°ÑĤÐ°":8811,"ĠÑĩÐµÐ¼Ñĥ":8812,"ĠÐĺÑħÐ½Ð¸":8813,"ĠÑģÑĤÐµÐ½Ð°":8814,"Ð»ÐµÐ½Ð¸Ð¸":8815,"ĠÐĴÐ¾Ð¸":8816,"ÑĸÐµÑİ":8817,"Ð³Ð°Ð»ÑĬ":8818,"ĠÐ¼Ð½Ð¾Ð¶":8819,"Ð²ÑĭÑĪÐµ":8820,"ĠÐºÐ¾ÑĢÐ¾Ð²Ð°":8821,"ĠÑģÑ£Ð½":8822,"ĠÐ²ÐµÐ»ÐµÐ»ÑĬ":8823,"ÑħÑĥÑĤÑĮ":8824,"ĠÐ½Ð°ÑĪÐµÐ¼Ñ¹":8825,"ĠÐ±ÑĥÐ»Ð°ÑĤ":8826,"ĠÐ¿ÑĢÐ¾ÑģÑĦÐ¸":8827,"ĠÐ²ÐµÐ»Ð¸ÐºÐ¸Ðµ":8828,"ĠÐ½ÐµÐ´ÐµÐ»ÑĮ":8829,"ĠÐ¿Ð¾ÑģÐ°Ð´Ð½Ð¸ÐºÐ°":8830,"ĠÑĢÐ°ÑĤÐ¼Ð°":8831,"ĠÐ²ÑĬÑģÐ¿ÑĢÐ¸":8832,"ĠÐ»Ð²ÐºÐ°":8833,"ĠÐŁÐµÑĤÑĢÐ°":8834,"ĠÐ¼ÐµÑĩÐµÐ¼ÑĬ":8835,"ĠÐĳÐ¾Ð»Ð³Ð°ÑĢ":8836,"ÑģÐ»ÑĭÑĪÐ¸":8837,"ĠÑģÑĥÐºÐ½Ð°":8838,"ĠÑģÑ¡ÑĤÑĬ":8839,"ĠÐľÐ°ÑĢÐºÐ¾Ð±ÑĢÑĥ":8840,"ĠÐ¬":8841,"Ð¸Ð¶Ðµ":8842,"ĠÑģÑģÑ¹":8843,"Ð¿ÐµÑĢ":8844,"ĠÐ½ÐµÐ·Ð½Ð°":8845,"ĠÐ°Ð»Ðµ":8846,"ĠÐ°Ð±Ñĭ":8847,"ĠÐ¿Ð¾êĻĹ":8848,"ĠÑģÑĬÐ²ÑĬ":8849,"ÑģÐ°ÑĢÐ°":8850,"ÑģÐ°Ð½Ð°":8851,"ÑģÐ¸Ð»Ð°":8852,"ĠÐŁÐ¾ÑĢ":8853,"ĠÐ»ÑİÑĤÐ°":8854,"ĠÑģÐ¸Ð°":8855,"ĠÐ¿Ð¾ÑģÐ¼Ð¾ÑĤ":8856,"Ð¿Ð¸ÑĪÐ¸":8857,"ĠÐ²Ñ£ÐºêĻĳ":8858,"ĠÐ²Ð°Ñİ":8859,"ĠÐ»Ð¸ÑģÐ¸":8860,"ÑĢÑĥÐ´Ð¸":8861,"ĠÐºÐ°ÐºÐ¾Ð¹":8862,"ĠÐºÑĢÐµÑģÑĤÐ°":8863,"ĠÐ½Ð¸ÑħÑĤÐ¾":8864,"ĠÐ¿Ð¾Ð´Ð»Ð¸Ð½Ð½Ð¾":8865,"ĠÐ¼Ð»ÑĬ":8866,"ÑĢÐ°êĻģ":8867,"Ð¾Ð´Ð¾":8868,"Ð¼ÑĬÐºÐ°":8869,"ĠÑ¿Ð¿Ñ¹":8870,"Ð»ÐµÑħ":8871,"ÑīÐµÐ½Ð¸":8872,"ÑģÐºÑĹÐ¸":8873,"Ñ¥Ð³Ð¾":8874,"ÑĤÐµÑģÑ§":8875,"ĠÑĤÑ£Ð¼Ð¶Ðµ":8876,"ĠÐ¼Ñ£ÑģÑ§":8877,"ĠÑģÑĮÑĤÐ²Ð¾ÑĢ":8878,"ĠÐ¿Ð¾ÑĤÑĢÐ¾":8879,"ĠÑģÑ¹Ð´Ð½Ð¾":8880,"ĠÐ¸ÑģÐ¿Ðµ":8881,"ĠÐ¸ÑģÐ¿Ð¾ÑĢÑĤÐ¸":8882,"ĠÑĤÑĥÑĤÑĬ":8883,"ĠÐ±Ð¾Ð³Ð¾Ð¼":8884,"ĠÐ¿Ð¾ÐºÐ°Ñ§":8885,"ĠÑĨÑ£ÑģÐ°ÑĢÑĮ":8886,"ĠÐ²Ð·Ñ§Ð»Ð¸":8887,"ĠÐ²Ð´Ð¾Ð²Ñĭ":8888,"ĠÐ¿Ð¾Ð²Ñ£Ð¶ÑĮ":8889,"ĠÑĨÐ°ÑĢÐ¸ÑĨÑĭ":8890,"ĠÑĩÐ»Ð²ÐºÑĬ":8891,"Ð¼Ð¾Ð²Ð°":8892,"ĠÐ´Ð¾Ð·Ð¸":8893,"Ð³Ð»ÑĬ":8894,"ĠÐ½Ð°ÐºÐ¾ÑĢÐ¼Ð¸":8895,"ĠÐ½ÐµÐ»Ð¸":8896,"ĠÐ·ÑĢÑı":8897,"ĠÐ¶ÐµÐ½Ð¾":8898,"ĠÐ´Ð°Ð²Ñĭ":8899,"Ð¾ÑģÑĭ":8900,"ÑĢÐµÑħ":8901,"ĠÑħÐ¾Ð´Ð°":8902,"ĠÐ¾ÑĤÑĩÐµ":8903,"Ñ¥Ñİ":8904,"ĠÐ»Ð¸ÑĪÑĮ":8905,"ĠÐ¿Ð°Ñµ":8906,"ÑĦÐ¾ÑĢÐ°":8907,"Ð½Ð¸ÐºÑ¡Ð²ÑĬ":8908,"ĠÐ±Ð¾Ð»Ñı":8909,"ĠÐºÑĢÐ¾ÑĤÑĬ":8910,"ĠÐºÑĢÐ°Ð´":8911,"ĠÐ´ÑĢÑĥÐ·Ð¸Ð¸":8912,"Ð±ÑĮÐµ":8913,"ĠÐ»Ð°ÑĢÐ¸":8914,"ÐºÑ¹ÑĤÑĬ":8915,"ĠÐ³Ð¾ÑģÑĥÐ´Ð°ÑĢÑĮÑģÑĤÐ²Ð°":8916,"ĠÐ¿Ð¾ÑĪÐ»Ð°":8917,"ĠÑģÑĤÐ²Ð¾ÑĢÐ¸ÑĪÐ°":8918,"ĠÐ±êĻĭÐ´ÐµÑĪÐ¸":8919,"ĠÐºÑĢÐµÑģÑĤÑĮÑıÐ½Ð¸Ð½Ð°":8920,"ĠÐ²Ð·ÑĭÐ´Ðµ":8921,"ĠÐ±ÑĢÐ°ÑĪÐ½Ð¾":8922,"ĠÑĪÐ¸ÑĢÐ¾ÐºÐ¸":8923,"ÐµÑĨÑĮ":8924,"Ñ§Ð½Ñĥ":8925,"Ð½Ð¸Ð´Ðµ":8926,"ĠÐĺÐ¼Ñ£":8927,"êĻĹÐ¸":8928,"Ð¾ÑĤêĻĭ":8929,"ĠÑ¿Ðº":8930,"ĠÐ±ÐµÑģÐº":8931,"ĠÐ²Ð¸Ð½Ñĥ":8932,"ĠÐ²ÐµÐ»Ð¸ÑĤ":8933,"ĠÐ¾Ð±Ð¸ÑĤÐµÐ»Ð¸":8934,"ĠÐ¿Ð¾ÑĢÐ¾Ð·":8935,"ĠÐ¸ÑģÐ°Ðº":8936,"ÑĤÐ²Ð¾Ð²Ð°":8937,"ĠÐ½Ð¾Ð²Ñĥ":8938,"ĠÑģÐ¼Ñ£ÑĤÐ¸ÑĤÐ¸":8939,"ĠÐ¼Ð¾Ð»Ð¸ÑĤÐ²Ñĭ":8940,"ĠÑħÐ°Ð½Ð°":8941,"ĠÐ±ÐµÑģÑ£Ð´Ð¾Ð²Ð°ÑĤÐ¸":8942,"ĠÐ¾Ð±ÑĢÑ£ÑĤÐ°":8943,"Ð²Ð¸ÑĤÑģÑı":8944,"ĠÑģÐ»Ñ£Ð´ÑĬ":8945,"ĠÑĢÑ¹ÐºÐ¾Ð´Ñ£Ð»":8946,"ĠÑģÑĤÐ²Ð¾ÑĢÑ§":8947,"ĠÐ·Ð°Ð¿ÐµÑĩÐ°ÑĤÐ°":8948,"ĠÐ²ÐºêĻĭÐ¿Ñ£":8949,"Ð½ÐµÐ¼ÑĮ":8950,"ÑĮÑģÑĤÐ¸":8951,"ĠÐ¸Ð¼ÑĮÐ¶Ðµ":8952,"Ð³ÑĢ":8953,"ÑıÐ½Ñĥ":8954,"Ð¾Ð²Ð¾ÑĢ":8955,"ÑīÑĭÑ§":8956,"ĠÐ·Ð²Ð°ÑĤÐ¸":8957,"Ð¾Ð½Ð¾Ð¼ÑĬ":8958,"êĻĹÐ½Ð°":8959,"ĠÑ¡Ð³Ð½":8960,"ÑĢÐµÐº":8961,"Ð¼Ð°Ð»":8962,"ĠÐ¼Ð¾ÐµÐ¼":8963,"Ð¶Ð¸ÑĪÐ¸":8964,"ĠÐ²ÐµÐ»Ð¸ÑĩÐ°":8965,"ÑĶÑĤÑĬ":8966,"ĠÐ±Ñ£Ð°ÑĪÐµ":8967,"ĠÐ´ÐµÐ±":8968,"Ð¾Ð²ÑĭÑı":8969,"ĠÐ¼ÐµÑīÐ°":8970,"ĠÐ·Ð°Ð¿Ð¾Ð²":8971,"ĠÑĢÑ¹ÑĨÑ£":8972,"ĠÐ½ÐµÐ¿Ð¾Ð²Ð¸":8973,"ĠÑĢêĻĭÐºÐ°":8974,"Ð¿ÑĢÐ¾Ð²":8975,"ĠÐ¼Ð¸ÑħÐ°Ð»Ñ§":8976,"ĠÐºêĻĭÐ¿Ð¸":8977,"ĠÐ°Ð½ÑĤÐ¸":8978,"ĠÐ¿Ð¾Ð½Ð¾Ð¼":8979,"ĠÐ¶Ð¸ÑĤÐ¸Ð¸":8980,"ÑģÑĤêĻĭÐ¿Ð°":8981,"ĠÐŁÐµÑĤÑĢ":8982,"ĠÐ²Ð¾ÑģÑĤÐ°Ð²ÑĬ":8983,"ĠÐ·Ð´Ð¾ÑĢÐ¾Ð²Ð¾":8984,"ĠÐ¸Ð´Ð¾Ð»":8985,"ĠÐĳÑĥÐ´Ð¸":8986,"ĠÐ¿Ñ£ÑģÐ½ÑĮ":8987,"ÑĢÐºÑĬ":8988,"Ð»Òį":8989,"Ð²Ð½Ð°Ð³Ð¾":8990,"ÑħÐ¾Ð´Ð°":8991,"Ð±Ð°Ðº":8992,"ĠÐ¾Ð»ÑĮ":8993,"ÑĩÐºÐ¾Ð²":8994,"ĠÐ½ÐµÐ²Ð¾Ð·":8995,"ĠÐ¿Ð¾ÑĩÐµÑģÑĤ":8996,"ĠÐ´Ð°ÐµÑĤÑĬ":8997,"ĠÐ´Ð°Ð¸ÑĤÐµ":8998,"ĠÑģÑĤÐµÐ½Ñĭ":8999,"ÑĢÐ¸Ð»Ð¸":9000,"ĠÑĥÐ¿ÑĢÐ°":9001,"ÑĢÐµÐ²Ð°":9002,"ĠÐ²ÐµÑģÑĥ":9003,"ĠêĻĹÐ²Ð»Ñ§":9004,"ĠÐ³Ð¾ÑģÑ¹Ð´Ð°":9005,"ĠÐ¶Ð¸ÑĢÐ¾":9006,"ĠÐ²ÑĭÑĤÐµÑĢ":9007,"ĠÐ²ÑĭÑģÑ¹":9008,"ĠÐ¼ÐµÐ¶Ñİ":9009,"ĠÐ¿Ð¾ÑĤÐ¾Ð¼ÑĮ":9010,"ĠÐµÑģÐ²Ñ£":9011,"ĠÐ¿Ð¸ÑģÐ°Ð½":9012,"ĠÐ½ÐµÐ¿Ð¾ÑĢÐ¾":9013,"ĠÐļÐ°Ð±Ñĭ":9014,"ĠÑħÐ¾Ð»Ð¾Ð¿ÑģÑĤÐ²Ð¾":9015,"ĠÐ·Ð°Ð¿Ð°ÑģÑ¹":9016,"ĠÐ¿Ð°Ð¼Ñ§ÑĤÐ¸":9017,"âĢĿ,":9018,"ĠÐ¢Ñ£Ð¼ÑĮ":9019,"ĠÑĥÐ¼ÑĢÐµÑĤ":9020,"ĠÐ¿ÑĢÐµÐ¼Ñ£":9021,"ĠÐļÐ¸ÐµÐ²Ðµ":9022,"ĠÐºÑĢÑĬÐ²ÑĮ":9023,"ĠÑĤÐ¾Ð²Ð°ÑĢÐ¸":9024,"ĠÑ¡ÑģÑĤÐ°ÑĤÐºÐ¸":9025,"ĠÐºêĻĳÑ¥":9026,"ĠÐ¿Ð¾ÑĢÑ§Ð´Ð½Ð¸":9027,"ĠÑ¡Ð±ÑĢÑ£ÑĤÐ°":9028,"ĠÐºÐ¾ÑĢÐ¾Ð±ÑĮÑ§":9029,"ĠÐ¿ÑģÐºÐ¾Ð²":9030,"ĠÐ¿Ð¾ÑħÐ¾ÑĩÐµÑĤ":9031,"Î¿Ïħ":9032,"ĠÑģÐ²Ñ£Ð¸ÑģÐºÐ¸Ðµ":9033,"ĠÐºÐ°Ð±Ð°Ð»Ð°Ð¼":9034,"ĠÐ·Ð°ÑĤÑħ":9035,"ĠÐºÐ°Ð¿Ñ¹ÑģÑĤÐ°":9036,"ĠÐ²Ð°ÑĢÑĪÐ°Ð²Ñĭ":9037,"ĠÑĢÑ¹ÐºÐ¾Ð´ÐµÐ»":9038,"ĠÑ¡Ð»Ð¾Ð²Ñ§":9039,"ÐºÐ¾Ð²Ñ£":9040,"ĠÑĤÐ¼Ð°":9041,"ĠÐ±ÑıÑħÑĥ":9042,"ÑİÑİ":9043,"ĠÐ¼êĻĹ":9044,"ĠÐ³Ð»ÑĮ":9045,"ÐµÐ¼Ð¾Ðµ":9046,"Ð²Ð°Ð°ÑĪÐµ":9047,"ĠÑĩÑģÑĤ":9048,"Ð½Ð¾Ñī":9049,"Ñ¡Ð²Ñ£":9050,"ĠÑĥÑħÐ¾":9051,"ĠÐ¡Ð¾Ðº":9052,"ĠÑĢÐµÑĩÐµÐ½":9053,"ÑĢÐ¾ÑĨÐ¸":9054,"ĠÑ¥ÑģÑĤÑĬ":9055,"ĠÐ¿Ð¾Ð´Ð»Ðµ":9056,"ĠÐ¿Ð¾Ð´Ð²Ð¾ÑĢ":9057,"ĠÐ¿Ð¾ÐºÑĢÐ°":9058,"ĠÐ²Ð¾Ð·ÑĬ":9059,"ÑģÐºÐ¸Ð¸Ñħ":9060,"ĠÐ¿Ð¾Ð¼Ð¾Ð·Ð¸":9061,"ĠÐ±Ð»ÑĥÐ´":9062,"Ð»ÑıÑħ":9063,"ĠÐ´Ð¾Ð±ÑĢÐ¾Ð¼":9064,"ĠÐºÑ¹Ð¿Ð¸ÑĤÐ¸":9065,"ĠÐ±Ð»Ð³ÑĤÑĮ":9066,"ĠÐ´ÑĢÑ¹Ð³Ñ¹":9067,"ĠÑģÐ¾ÑĤÐ²Ð¾ÑĢÐ¸ÑĤÐµ":9068,"ĠÐ±ÐµÑģÑ£Ð´Ð¾Ð²Ð°":9069,"ĠÐ¼Ð»Ð°Ð´Ñĭ":9070,"ĠÑģÐºÐ¸Ð½ÑĸÐ¸":9071,"ĠÐ±ÑĥÐ¹Ð½Ñĥ":9072,"Ð½Ð¾Ð¶Ð¸":9073,"ÑģÐ¼ÑĬ":9074,"Ð´Ð¾Ð²Ñĥ":9075,"ĠÐ´Ð¾Ð·":9076,"ÑģÑĤÐ¾Ð»Ñ£":9077,"ĠÐºÐ¾Ð¶Ð¸":9078,"ĠÐ»Ñı":9079,"ĠÐĺÐ¾Ð°Ð½":9080,"ĠÐ¿ÑĢÐ¸Ð²Ð¾Ð´Ð¸":9081,"Ð»ÐµÐ°":9082,"ĠÐ¼Ð°ÑģÑĤ":9083,"ĠÐ²Ð¸ÑĪ":9084,"ÐµÑĢÐµÐ¹":9085,"ĠêĻģÐ»Ñ£":9086,"ĠÑģÐºÐ¾Ð»ÑĮÐºÐ¾":9087,"ĠÐ½Ñ£ÐºÐ°ÐºÐ¾":9088,"ĠÐ¼Ð¾Ð»Ð¾ÑĤÐ¸":9089,"ĠÑĦÐ¾Ð¼Ñ£":9090,"ĠÐ±Ð»Ð°Ð³Ñĭ":9091,"ĠÑģÐ¼Ð¾Ðº":9092,"ĠÐ´ÑĮÐ¶ÑĮ":9093,"Ð½êĻĳÐ¸ÑħÑĬ":9094,"ĠÑĤÐ²Ð¾ÐµÑı":9095,"ĠÐ¼Ð¾Ð¸Ð¼Ð¸":9096,"ĠÐµÐ´Ð¸Ð½Ð°Ð³Ð¾":9097,"ĠÐ²Ð¾Ð»Ð¾Ð´Ð¸Ð¼ÐµÑĢÑĮ":9098,"ĠÐ´ÐµÐ»Ð¾Ð¼":9099,"ĠÐ¿ÑĢÐ¸Ð½ÐµÑģÐ¾ÑĪÐ°":9100,"ĠÐºÐ¾Ð¶Ð´Ð¾":9101,"ĠÐ²Ð¼Ñ£ÑģÑĤÑ¡":9102,"ĠÐ¼ÐµÑģÑıÑĨÐ°":9103,"ĠÑĤÐ¸ÑħÐ°Ð½Ð¾Ð²Ð¸":9104,"Ð¾Ñ«":9105,"ÑĤÑİ":9106,"ĠÑģÐ²ÑĬ":9107,"Ð´ÑĸÐ¸":9108,"Ð´Ñ¡Ð½Ð°":9109,"ĠÐ½Ð¾Ð·Ñ£":9110,"ĠÐ½ÐµÑīÐ°":9111,"ĠÐ°ÑĤÐ°":9112,"ĠÐ²ÑĬÐºÐ¾Ñĥ":9113,"ĠÐ¿ÑĢÐ¸Ð±Ð°":9114,"Ð¼Ð¸ÑĢÐ¾":9115,"ĠÐ¼Ð¾ÑĩÐ½Ð¾":9116,"Ð¿Ð¸Ñı":9117,"ĠÐ´Ñ£Ð»":9118,"ĠÐ½Ñ£Ð¼":9119,"ĠÑĩÐ¸ÑģÐ»":9120,"ĠÑĩÐ»ÐºÑĮ":9121,"ĠÐ±ÑĢÐ°ÑĤÑĸÐ°":9122,"ĠÐ³Ð¾ÑĢÐ¾Ð´Ð¾Ð¼":9123,"ĠÐºÐ½ÑıÐ·ÐµÐ¹":9124,"ĠÐ¿Ð°ÐºÑĬ":9125,"ĠÑģÐ²ÑıÑĤÐ°Ð³Ð¾":9126,"ĠÐºÐ½Ð·":9127,"ĠÐ´ÑĢêĻĭÐ³ÑĬ":9128,"ĠÐ²ÑĬÑģÑ£Ð¼ÑĮ":9129,"ĠÐ´ÐµÐ½ÐµÐ¶":9130,"ĠÑħÐ»ÐµÐ±Ð°":9131,"ĠÐ½Ñ£ÐºÐ¾Ð³Ð´Ð°":9132,"ĠÐºÑĢÑĭÐ»ÑĮ":9133,"ĠÐ¿ÑĢÑ§Ð¼Ð¾":9134,"ĠÐ¿Ð¾Ð³Ð¸Ð±Ð»Ð¾":9135,"ĠÑģÐ°êĻĭÐ»ÑĬ":9136,"80":9137,"ÐµÐµ":9138,"Ð²Ð½Ñĭ":9139,"ĠÐ¿Ð»Ð¸":9140,"ĠÐ²Ð·Ð°":9141,"ĠÐ´Ð¾Ð³Ð¾Ð²Ð¾ÑĢ":9142,"ĠÐºÐµÐ»Ð°":9143,"ĠÐ°ÑĤ":9144,"ÐµÐ½Ñĸ":9145,"ĠÐµÐ³Ð°":9146,"Ð½Ð¾ÑģÑ§":9147,"ĠÑĨÑĢÐ¸":9148,"ĠÑģÐµÐ¶Ðµ":9149,"ĠÐ¶Ð¾Ð»":9150,"ĠÐĴÐ°ÑĢ":9151,"ĠÐ²Ð°ÑģÐ¾":9152,"Ð½Ñ§Ð³Ñ¡":9153,"Ð½ÑıÐ»":9154,"ÑĢÑĭÐµ":9155,"ĠÐºÐ¾ÑĤÐ¾ÑĢÑĭÑı":9156,"ÑģÑĤÑĭÑı":9157,"ĠÐķÐ²":9158,"ĠÐ¸ÑģÐ¿Ð¾Ð²Ñ£":9159,"ĠÑīÑĥ":9160,"ĠÐ±ÑĮÑİÑĤ":9161,"ĠÐ¿Ð¸ÑģÐ°Ð»ÑĬ":9162,"ĠÑģêĻĭÐ±":9163,"Ð½Ñ«ÑĤÐ¸":9164,"ĠÐ±Ð¾ÑĢÑĤ":9165,"ĠÐ²Ð¾Ð»Ð¾ÑģÑĤÑĮ":9166,"ĠÑģÐ»Ñ£Ð¿":9167,"ĠÐ¿Ñ§ÑĤÐµ":9168,"ĠÑĩÐµÐ»Ð¾Ð±Ð¸ÑĤÑĮÐµ":9169,"ĠÑĤÑĢÐµÑĤÐ¸Ð¸":9170,"ĠÐ¼Ð¸ÑĤÑĢÐ¾Ð¿Ð¾Ð»Ð¸ÑĤÐ°":9171,"ĠêĻģÐ½Ð°Ð¼ÐµÐ½":9172,"ĠÐ¥ÑĢÐ¸ÑģÑĤÐ¾Ñģ":9173,"ĠÐ½ÐµÐ½Ð°Ð²Ð¸Ð´Ñ§":9174,"ĠÐľÐ¾Ð»Ð¾Ð´":9175,"ĠÐ¼ÑģÑĤÐ¸ÑģÐ»Ð°Ð²ÑĬ":9176,"ĠÐ¿Ð¾Ð³ÑĭÐ±":9177,"ĠÑĩÐµÑĢÐµÐ·":9178,"ĠÑħÑĢÐµÑģÑĤÐ¸":9179,"ĠÑģÑĬÐ¼ÑĮÑĢÑĤÑĮ":9180,"Ð¸Ð¼Ñ£":9181,"ÑĤÑĢÐ¾Ðº":9182,"Ð²ÑĨÑĭ":9183,"Ð´ÑĸÐµ":9184,"ĠÐ½ÐµÑģÑĤÐµÑĢ":9185,"Ð½Ð¸ÑĩÐ°":9186,"ĠÐ¿Ð¾ÑģÑĤÑĭ":9187,"ĠÐ²ÑĬÑģÑ§":9188,"Ð´Ð°Ð»ÑĮ":9189,"Ð¾ÑģÐ»":9190,"ĠÐ¾ÑĥÐº":9191,"ĠÐ¾ÑĥÐ¶Ð°":9192,"ÑĩÐ¸ÑħÑĬ":9193,"ĠÑģÐ¸Ð»êĻĭ":9194,"ĠÐºÑĬÑģ":9195,"ĠÐ¿ÑĢÐ¾ÑĪÑĥ":9196,"ÑĩÑĮÐºÐ°":9197,"ĠÑĩÐ¸Ð½Ð¸":9198,"ĠÑĩÐ°Ð´ÑĬ":9199,"ĠÐ¿ÐµÑĨÐ°":9200,"ĠÐ¾Ð½Ð¾Ð¼Ñĥ":9201,"ÑŃÑīÐµ":9202,"ĠÑħÐ¾ÑĤÑ§ÑĪÐµ":9203,"ĠÐ¼Ñ¹Ð¶Ð¸":9204,"ĠÐ½Ð°ÑĪÑ§":9205,"ĠÐ½ÐµÐ¿Ð¾ÑĤ":9206,"ĠÐ¿Ð¾ÑħÐ²Ð°Ð»":9207,"ĠÐ¸Ð²Ð°Ð½Ñĥ":9208,"ĠÑģÑĬÑĤÐ²Ð¾ÑĢÐ¸Ð»ÑĬ":9209,"Ð´ÐµÑĢÐ¶Ð¸":9210,"ĠÐ¿Ð¾Ð¶Ð°Ð»ÑĥÐ¸":9211,"ĠÐ¿Ð¾Ð¼Ð°Ð·Ð°":9212,"ĠÐ¾Ð±ÐµÑģ":9213,"ÐºÐ²Ð°Ð¼ÑĬ":9214,"ĠÑģÐ¾ÑĢÐ¾ÑĨÐ¸":9215,"ĠÐ½Ð¾Ð½ÑĩÐµ":9216,".:":9217,"Ð´Ð¾Ð»":9218,"ĠÐ´Ñ«":9219,"ĠÐ³Ð½ÑĮ":9220,"ÑĨÐ¾Ð¼ÑĬ":9221,"ĠÐ´Ð°ÑħÑĬ":9222,"ĠÐĲÐ½Ð°":9223,"Ð½ÐµÐ±Ðµ":9224,"ĠÑĨÐ²Ñ£ÑĤ":9225,"Ð°ÑĢÑĸ":9226,"ĠÐºÐ°Ð´Ð¸":9227,"Ñ¥Ð¸":9228,"ĠÑģÐ°Ð¼Ñĭ":9229,"ĠÐ¸Ð·Ð±ÑĢÐ°":9230,"ĠÐ¼Ð°ÑģÐ»":9231,"ÑĩÑĮÐµ":9232,"ĠÑģÑĤÑĢÐ°Ð½êĻĭ":9233,"ĠÐ¿ÐµÑĢÐµÑĤ":9234,"ĠÐ¼Ñ§ÑĤÐµ":9235,"ĠÑģÐ²Ñ£Ð´Ñ£":9236,"ÑĢÐµÐ¼ÐµÐ½":9237,"ÑİÑīÑĭÐ¼ÑĬ":9238,"ĠÐºÐ°Ð·Ð½Ð¸":9239,"ĠÐ½Ð¸ÐºÐ°ÐºÐ¾Ð²Ð°":9240,"ĠÑ³ÐµÐ´Ð¾ÑĢÐ°":9241,"ĠÑģÑĬÐ¼ÑĢÑĬ":9242,"ĠÐ¿ÑĢÐ¸Ð¸Ð¼ÐµÑĤÑĮ":9243,"Ð½ÐµÐ½Ñĭ":9244,"ĠÐ²Ñ¹":9245,"ĠÐ²ÑĶ":9246,"ĠÐ±Ð¶Ðµ":9247,"ĠÐ¾ÑģÑĥ":9248,"ĠÐ½Ð°Ñ§":9249,"ĠÐ½Ð°Ð±":9250,"ÐµÐ¼Ñ£":9251,"ĠÑģÑĤÑĢÐ¾Ðº":9252,"ÑĪÐ°êĻĹ":9253,"ĠÑ¿Ð¼":9254,"ĠÑģÐµÑ§":9255,"ÑĪÐ¸Ð¼Ð¸":9256,"ĠÐĴÑģ":9257,"ĠÑģÐ»Ð¾Ð½":9258,"âĢ»":9259,"ĠÐ²Ð¸Ð½Ð¾Ð³ÑĢÐ°":9260,"Ð³Ð°ÑĤÑĭ":9261,"ĠÐ¿Ð¾Ð´Ð¾Ð±ÑĮ":9262,"Ð½Ñ§ÑĤÑĬ":9263,"Ð´ÑĮÐµ":9264,"Ð³Ð¸Ð¸":9265,"ĠÑĩÐ¸Ð½Ñĥ":9266,"Ð¾Ð²ÑĭÐ¸":9267,"ĠÑģÑ£Ð´Ñ£":9268,"ĠÐ³ÑĢÑĨÐ¸":9269,"ĠÐ¿Ð¾Ð±Ð°":9270,"ÑģÐºÑĭÐ¼Ð¸":9271,"ĠÑ£ÐºÐ¾Ð¶Ðµ":9272,"ĠÑģÑĥÐ´Ð¾Ð¼":9273,"Ð¿ÑĢÐ¾Ð´Ð°":9274,"ĠÐ¾ÑģÐµÐ½ÑĮ":9275,"ĠÐ¡Ð°Ð»ÑĤÐ°":9276,"ĠÐ²Ñ£ÑĢÐ¾Ð²Ð°ÑĤÐ¸":9277,"ĠÐ±ÐµÐ»Ñĥ":9278,"Ð³Ð»Ð°ÑģÐ¸":9279,"ĠÐºÑĥÐ¿Ð¸Ð»ÑĬ":9280,"ĠÑİÑĢÑĮÑ¥Ð²Ð¸":9281,"ÑģÐ»ÑĥÑĪÐ°":9282,"Ð»ÐµÑ¯Ð°Ð½Ð´":9283,"ĠÑĢêĻĳÐ±Ð°":9284,"ĠÐ¾ÑĥÐ´Ð°ÑĢÐ¸":9285,"ĠÐŁÐ¾Ð²ÐµÐ»Ñ£":9286,"ĠÐ·Ð°Ð¼ÑĥÐ¶":9287,"ĠÐ¢ÑĢÐ¾Ð¸":9288,"Ð²ÑĨÐ°":9289,"ĠÐ½ÐµÑ§":9290,"Ð²Ð°Ð²ÑĬ":9291,"ĠÑ¡ÑģÐ¿Ð¾Ð´Ð¸Ð½Ñĥ":9292,"ÑĢÐ¸Ð»Ð¾":9293,"ĠÐ¿ÑĢÐ¸Ð»Ð°Ð³Ð°":9294,"ÑĩÐ°Ð¹":9295,"ÐµÐ´ÑĬ":9296,"Ð½ÑĥÐ»ÑģÑı":9297,"ĠÐ¸Ð·Ð»Ð¸":9298,"ĠÐ¾Ð±Ð²Ð¸":9299,"ĠÑĤÐ°ÐºÑĥÑİ":9300,"ĠÐ¿Ð¾Ð³êĻĳ":9301,"ĠÐ±ÑĮÑĢÑĮ":9302,"ĠÐ·Ð´ÑĢÐ°Ð²ÑĬ":9303,"ĠÑĢÐ¾ÑģÐ¿ÑĢÐ°":9304,"ĠÑĩÐµÑĤÑĭÑĢÐ¸":9305,"ĠÐ´Ð¾Ð²Ð¾Ð»Ð½Ð¾":9306,"ĠÐ±Ð¾Ð³Ð°ÑĤÑĮÑģÑĤÐ²Ð¾":9307,"ĠÐ´Ð½Ñ£Ð¿":9308,"Ð½ÐµÐ¼Ñ¹":9309,"Ð»Ð¾Ð´":9310,"Ð¼Ð¾Ð¼":9311,"Ð³Ð»Ðµ":9312,"ĠÐºÑĥÐ´Ð°":9313,"ĠÐ°ÑĦ":9314,"ĠÐµÐ´Ð½Ð¾":9315,"ĠÐ»Ð¾Ð½Ðµ":9316,"ĠÐĺÐ²Ð°Ð½Ð°":9317,"ĠÐ·Ð°ÐºÑĥ":9318,"ÑĤÑĬÐºÑĬ":9319,"ĠÐ¿ÑĢÐµÐ²Ð¾Ð·":9320,"ĠÐ¿ÑĢÐµÐ·ÑĢÑ£":9321,"ĠÐ¾Ð±ÑĢÐ¾Ðº":9322,"ĠÐ¿Ð¾Ð¼ÐµÑĢ":9323,"ĠÑģÑĤÐ°Ð³":9324,"ĠÑģÐºÑ¹":9325,"ĠÐ±ÐµÐ·êĻĭÐ¼":9326,"ĠÐ¸Ð¼Ð¶Ðµ":9327,"ĠÐ´ÑĮÐ²":9328,"ĠÐºÑĢÐµÑģÑĤÑĬ":9329,"ĠÐ¿Ð¾ÐºÐ°êĻĹ":9330,"ĠÐ¶Ð¸ÑĤÐ¾":9331,"ĠÐ½Ð¾Ð³Ð°ÑĤÐ°":9332,"ĠÐ»Ð¾ÑĥÐºÑĬ":9333,"ĠÐ²Ð¾ÑģÐ¿Ð¾Ð¼Ð¸Ð½Ð°":9334,"ĠÐºÐ¾Ð½ÐµÑĨÑĮ":9335,"ĠÑĥÐ±Ð¾Ð³":9336,"ÑĢÐ¾ÑĩÐ½ÑĭÐµ":9337,"ĠÐĴÐ¸Ð´Ñ£Ð²ÑĬ":9338,"ĠÐºÑĭÐµÐ²Ñĥ":9339,"ĠêĻģÐ°ÐºÐ¾Ð½ÑĬ":9340,"ĠÑģÐ¾Ð¿ÑĢÐ¾ÑĤÐ¸":9341,"ĠÑģÑĭÑģÐºÐ¸Ð²Ð°ÑĤÐ¸":9342,"Ð´Ð½":9343,"Ñ§ÑīÐ¸":9344,"ĠÐºÐ½ÑĮ":9345,"ĠÐ¾ÑģÐ¿Ð¾Ð´Ð¸Ð½Ñĥ":9346,"ĠÐ³Ð¾Ñĥ":9347,"Ð¿Ð¾ÑĢÑĭ":9348,"ĠÐ½ÐµÑ¡":9349,"ĠÑĢÐ±Ð»ÑĮ":9350,"ĠÐµÑĢÐµÑĤÐ¸":9351,"êĻĳÑħÐ¾":9352,"ĠÐ½Ð¸ÐºÐ¾Ðµ":9353,"ĠÑĢÐ°Ð²Ð½Ð¾":9354,"Ġ::":9355,"ĠÐ¡ÑĤÐµÑĢ":9356,"ĠÐºÐ°Ð¸":9357,"ĠÐ¼Ð¾Óı":9358,"ĠÑ¥Ð¸":9359,"ĠÐ´Ñ£Ð¶Ñ£":9360,"ĠÐ³Ð¾ÑĢÑĬ":9361,"ĠÐ±Ñ£Ð´Ñĭ":9362,"ĠÑĢÑĥÑĨÑĮ":9363,"ĠÑģÐ¾ÑĨ":9364,"ĠÑ»ÑģÐ¿":9365,"ĠÑ»ÑģÐ¿Ð¾Ð´Ð¸Ð½Ñĥ":9366,"ĠÑ§ÑĤÐ¸":9367,"ÑģÑĤÐ²ÑĸÑ§":9368,"ĠÐºÐ¾ÑĢÐ¾Ð±Ñ£":9369,"ÑģÐºÐ¾ÑĩÐ¸":9370,"ĠÐ±ÑĮÐ·":9371,"ĠÐºÐ¾ÑĥÐ·":9372,"ĠÐ½Ð°ÑĪÐµÐ¼ÑĬ":9373,"ĠÑĢÐ¾Ð·Ð´Ð°":9374,"ĠÑĢÐ¾Ð·Ð¼Ð¸ÑĢÐ¾":9375,"ĠÐ´Ð¸Ð²Ð¸":9376,"ĠÐ½Ð°Ð´Ð¾Ð±Ð¸":9377,"ĠÑĢÐ¸ÑģÑĥ":9378,"ĠêĻ©Ð½Ð´ÑĢÑ£":9379,"ĠÐ¿Ð¾Ð·Ð²Ð°Ð»Ðµ":9380,"ĠÐ³ÑĢÐ¸Ð²ÑĮÐ½Ðµ":9381,"ĠÐ±Ð¾ÑĥÐ´ÑĮ":9382,"ĠÑģÑĤÐ¾ÑĢÐ¾Ð¶Ðµ":9383,"ĠÐ´ÐµÑĢÐ¶Ð°ÑĤ":9384,"ĠÐ½ÐµÐ´Ñ«":9385,"ĠÐ²ÑĬÐ´Ð°Ðµ":9386,"ĠÐ¼Ð¾Ð»Ð¾Ð´Ð¾Ð³Ð°":9387,"ĠÐ³ÑĢÐ²Ð½Ðµ":9388,"ĠÐ³ÑĢÐ²Ð½Ñ£":9389,"ĠÐ½Ð¾Ð³Ð°ÑĤÐ¾":9390,"ĠÑĨÐµÑĤÐ²":9391,"ĠÐ¿Ñ¹ÑĤÑĮ":9392,"ĠÐŁÐ°ÑĩÐµ":9393,"ĠÐ¿ÑĢÐ¾Ð¿Ñĥ":9394,"ĠÑĤÑĢÑĮÑĤÐ¸Ñ§":9395,"ĠÐ¿Ð¾Ð²Ð¸Ð½Ñ¹":9396,"ĠÑĨÐµÑĤÐ²ÐµÑĢÑĤÐ¸":9397,"ĠÐ¡ÑĭÐ½Ð¾Ð²Ðµ":9398,"ĠÐ¿ÑĢÐ¸ÑĪÐµÐ´ÑĪÐµ":9399,"ĠÑĤÐ¾Ð³Ð´Ñĭ":9400,"ĠÐ¿Ð¾Ð»Ð¸ÑĩÐ½Ð¾Ðµ":9401,"ĠÐ²Ð¸Ð´ÐµÐ»Ð¸":9402,"ĠÐ¿ÑĢÐ¸ÑģÑĬÐ»ÐµÑĪÐ¸":9403,"ĠÑģÐ»ÑĭÑĪÐ¸":9404,"ĠÐ´ÑĢÐµÐ²Ð»Ðµ":9405,"ĠÐ½ÐµÐ¿ÑĢÐ°Ð²Ð´Ñĭ":9406,"ĠÐĴÐ¾Ð»Ð¾Ð´Ð¸Ð¼ÐµÑĢÑĬ":9407,"ĠÐ¾Ð²ÑĮÑģÐ°":9408,"ĠÐ¤Ð¸Ð»Ð¾Ð½":9409,"ĠÑģÐ¾Ð»Ð½ÑĭÑĪÐºÐ¾":9410,"ĠÑģÐ¸ÑħÐ°Ð¸Ð»ÑĬ":9411,"ĠÑģÑĢÐ¾":9412,"ĠÑģÐ¾Ð²Ðµ":9413,"ĠÐ½ÑĢÐ°Ð²":9414,"ĠÐ´ÑĪÐ¸":9415,"ĠÑĤÑĢÑ§":9416,"ĠÐ¿ÑĢÐ¾ÑĢÐµ":9417,"ÑĤÐ¸Ð²Ð¾":9418,"ĠÐ½ÐµÐ¼Ð¸":9419,"ĠÐ½ÐµÐ²ÐµÑĢ":9420,"êĻĹÐ½Ðµ":9421,"ĠÐ·Ð°Ð±êĻĳ":9422,"ÑģÐºÑĭÐµ":9423,"Ð¾Ð·Ðµ":9424,"Ð½ÑĮÑ§":9425,"Ð¾Ð¿ÑĤÐ°":9426,"ĠÑĤÐ¾êĻĹ":9427,"ĠÑģÐ°ÑĢÐ°":9428,"ĠÐ¿Ð¾Ð´Ð¾":9429,"Ð½ÑıÑĤÐ¸":9430,"ÑĨÐ¸Ð¸":9431,"ĠÑĢÐ°Ð·Ð±Ð¸":9432,"ĠÐºÐ¾ÑĢÐ¼Ð¸ÑĤ":9433,"ÑĨÑĭÐ¸":9434,"ĠÐ²Ð¾Ð»Ñı":9435,"ĠÑģÑĤÑĢÐ°ÑģÑĤÑĮ":9436,"ĠÐ²ÑĢÐ°ÑĤÑĬ":9437,"ĠÐ²Ð¾Ð´êĻĭ":9438,"ĠÐ²Ð¾ÑĤÑĩÐ¸Ð½Ðµ":9439,"ĠÐ³Ð¾ÑģÐ¿Ð¾Ð´Ð¸Ð½ÑĮ":9440,"ĠÐ·Ð¾Ð»Ð¾ÑĤÐ°":9441,"ĠÐĳÐ¾Ð¶Ð¸Ñİ":9442,"ĠÐ¿Ð¾Ð³ÑĢÐµÐ±Ð°":9443,"ĠÐ¾Ð±ÐµÑīÐ°":9444,"ĠÐ³Ð»Ñ£Ð±ÑĬ":9445,"ĠÐ±Ð¾Ð»ÐµÐ·Ð½ÑĮ":9446,"ĠÐ·Ð½Ð°Ð¼ÐµÐ½ÑĸÐµ":9447,"ĠÐ¶ÐµÑģÑĤÐ¾ÐºÐ¾Ðµ":9448,"Ð»ÑĸÑİ":9449,"Ð´ÐµÐ½ÑĬ":9450,"ĠÐ±Ð°ÑĢ":9451,"ĠÐ±Ð¾Ð³Ð´Ð°":9452,"ÑĪÐºÐ¾Ð¹":9453,"ĠÑĩÐ¸ÑĤÐ°":9454,"Ð½Ð¾ÑģÑĤÑĮ":9455,"Ð¾Ð±ÑĢÑ£":9456,"ÑĩÐµÐ½Ð¸":9457,"ĠÐ²ÐµÐº":9458,"ĠÐ¢Ð¾Ð¸":9459,"ĠÐ³Ð¾ÑĢÐºÐ¾":9460,"ĠÐ½Ð¾Ñı":9461,"ĠÑģÐºÑĢÑĮ":9462,"ĠÐ²ÑĬÐ·ÑĢÐ°":9463,"ĠÐ¸Ð¼Ð°Ð¼":9464,"ĠÐ²Ð»Ð°Ð´":9465,"ĠÐ¿ÑĢÐ¾Ð´Ð°ÑĤÐ¸":9466,"ĠÐ²Ð¾Ð´Ñ¹":9467,"ĠÐ±êĻĭÐ´ÐµÑĤÑĮ":9468,"ĠÐ½Ð°Ð´Ð¾Ð±ÑĮ":9469,"Ð¸ÑĤÐµÐ»Ñı":9470,"ÑİÑīÐ°Ñ§":9471,"ĠÐ¿Ð¾ÑĥÑĤÐ¸":9472,"ĠÐ¿Ð¾ÑĪÐµÐ»ÑĬ":9473,"ĠÑĥÐ±Ð¸ÑĤ":9474,"ĠÐ·Ð°ÐºÐ»Ñİ":9475,"ĠÐ¶Ð¸Ð²Ð¾ÑĤÐ¾Ð²":9476,"ĠÑģÐµÑģÑĤÑĢÐ¸":9477,"ĠÑĤÐ²ÐµÑĢÐ´Ð¾":9478,"ĠÑĤÑĢÐµÑĤÐµÐ¹":9479,"Ð°ÑĤÑĮ":9480,"ĠÐ¾ÑģÐ¸":9481,"ĠÐ½ÐµÐ¶Ð¸":9482,"ÑĨÐºÐ°":9483,"ĠÐ·Ð¸Ð¼Ñ¹":9484,"Ñ¡Ð½Ð¸":9485,"ĠÑ¿Ð»êĻĭ":9486,"ĠÑ¿ÐºÑĢÑĭ":9487,"ĠÐ»ÑİÑĤÑ£":9488,"Ð³Ð°Ð»Ð°":9489,"ĠÐ¿ÑĢÐµÐ´Ð¸":9490,"ĠÐ²ÑģÐµÐ¹":9491,"ĠÐ²ÑĭÑĤ":9492,"ĠÐ³Ð»Ð°Ð²Ð¾Ñİ":9493,"ĠÐºÐ¾ÑĢÐ¼ÑĬ":9494,"ÑĨÑĮÐ¼ÑĮ":9495,"ĠÑģÐ¾Ð±Ð¸ÑĢÐ°":9496,"ĠÐ³Ð»Ð°Ð³Ð¾Ð»ÐµÑĤÑĮ":9497,"ĠÐ¿Ð¾ÑģÐ»Ð°Ð²ÑĬ":9498,"ĠÐ´Ð¾Ð±ÑĢÐ¾Ð¼ÑĬ":9499,"ĠÐ³Ð¾Ð´Ð¾Ð²":9500,"ĠÐ²Ð°ÑģÐ¸Ð»ÐµÐ¸":9501,"ĠÐ¿Ð¾ÑĩÐµÐ»ÑĬ":9502,"ĠÑģÐ²ÐµÑīÐµÐ½":9503,"ĠÐ²ÐµÐ»ÑĮÐ¼":9504,"ĠÐ¿ÑĢÐ¾ÑģÐ¸ÑĤÑĮ":9505,"ĠÐ¸Ð³ÑĥÐ¼ÐµÐ½ÑĬ":9506,"ĠÑģÐ¼Ð¸ÑĢÐµÐ½":9507,"ÐºÑĢÐµÐ¿ÐºÐ¾":9508,"ĠÑĤÑĸÐµ":9509,"Ð³Ð¾Ð¿":9510,"ÑĩÐ½Ð¾Ð¹":9511,"ÑĨÐºÐ¾Ð¼Ñĥ":9512,"ĠÐµÐ´Ñĥ":9513,"Ð¾Ð³Ð¾Ð¶":9514,"Ð¶ÐµÑĪÐ¸":9515,"Ð¾ÑĤÑ«":9516,"Ð²Ð¸Ð½Ð°":9517,"ĠÐ²ÐµÑģÐ¸":9518,"Ð¿Ð°Ð»Ð¾":9519,"ĠÐ²ÑģÑ§ÐºÐ¾Ñİ":9520,"Ð´ÑĬÑĪÐµ":9521,"ĠÐ¿ÐµÑĢÐ²ÑĭÐ¸":9522,"ĠÐ¿Ð»Ð°ÑĩÐ°":9523,"ĠÑģÐ¾ÑĤÑĬ":9524,"ĠÑģÑĤÐ¾Ðµ":9525,"Ð°Ð½ÑĸÐ°":9526,"ĠêĻĸÐ¶Ðµ":9527,"ĠÐ³Ð¾ÑģÑĥÐ´Ð°ÑĢÐµÐ²Ð¾":9528,"ĠÑĢÐ°êĻģÐ´Ñ£":9529,"ĠÐ³Ð¾ÑģÐ¿Ð¾Ð´Ð¸Ð½Ñĥ":9530,"ÑĦÐ¸Ð¼ÑĮ":9531,"ĠÐ¿ÑĢÐ¾ÑģÐ»Ð°Ð²":9532,"ĠÐ¿ÑĢÐ¾ÑĩÑĸÐ¸":9533,"ĠêĻĹÑĢÐ¾ÑģÐ»Ð°Ð²ÑĬ":9534,"ĠÐ¼ÑĬÐ½Ð¾Ð³Ð°":9535,"ĠÐ½Ð¸ÑĩÐµÐ²Ð¾":9536,"ÐµÐ¶":9537,"ÑģÐ¾Ð²ÑĬ":9538,"ĠÐ¸ÐºÐ¾Ð½Ð°":9539,"Ð³Ð¾Ð¶":9540,"Ð±Ð¸ÑĤÑĬ":9541,"Ð²Ð°ÑİÑīÐµ":9542,"ĠÑĩÑĥÐ´":9543,"Ð¶ÐµÐ½Ñĭ":9544,"Ð½ÑĭÐ¼ÑĮ":9545,"ĠÐ¿ÑĢÐ¸Ð´Ð°":9546,"Ð¼Ð¸Ð½ÑĮ":9547,"ĠÐŁÐ»Ð°":9548,"ĠÑģÐ°ÑħÐ°ÑĢ":9549,"Ð¶Ð°ÐµÑĤ":9550,"ÑģÐµÐ½Ð¸":9551,"Ð´Ð¾ÑģÑĤÐµ":9552,"Ð¼ÐµÐ»Ð¸":9553,"ĠÑģÑĭÑģÐºÐ°":9554,"ĠÑĨÐ°ÑĢÑģÑĤÐ²Ð¾Ð²Ð°":9555,"ÑģÐ»Ð°Ð²Ð¾Ñĥ":9556,"Ð·ÑĭÑĨÑĭ":9557,"ĠÑĨÑĢÑĤÐ²Ð¾":9558,"ĠÐ¿ÑĢÐ¾Ð´Ð°Ð¶Ðµ":9559,"ĠÐ½ÑĭÐ½ÑĮ":9560,"ĠÐ·Ð»Ð°ÑĤ":9561,"ĠÐ·Ð½Ð°ÐµÑĤÑĬ":9562,"ĠÐĿÐ¸ÐºÑĥÐ»Ð¸Ñĩ":9563,"ĠÐ·Ð°ÐºÐ¾Ð½Ñĥ":9564,"ĠÑħÐ¾Ð´Ñı":9565,"ĠÐŁÐ¾ÑģÐ»Ðµ":9566,"ĠÑĢÐ°ÑĤÐ½ÑĭÑħ":9567,"ĠÐ·Ð°Ð¼ÐºÐ½Ñ¹":9568,"ĠÐ¼Ð¸ÑĤÑĢÐ¾Ð¿Ð¾Ð»Ð¸ÑĤ":9569,"ĠÐ´ÑĬÐ¼Ð¸ÑĤÑĢÐ°":9570,"ĠÑĤÑĢÑ¹Ð´Ð¾Ð²ÑĬ":9571,"Ïħ":9572,"ÑĤêĻĳÐ¸":9573,"ÑģÐ²Ñ£":9574,"ĠÑģÐ±":9575,"Ð¼Ð½Ñ£":9576,"ĠÐ¿ÑĸÑ§":9577,"ĠÑĤÐ¾Ð»ÑĮ":9578,"ĠÐºÑĥÐ´Ñĭ":9579,"ÑĩÐµÐ»":9580,"ĠÐ½ÐµÐ³Ð¾Ð¶Ðµ":9581,"Ð»Ð°Ð¼ÑĬ":9582,"Ð¾Ð´Ð¸ÑĤ":9583,"ĠÐ²ÑģÐ¿":9584,"ĠÐ¿ÑĢÐ¸Ð¿Ð»":9585,"ÑĪÐ°ÑİÑĤ":9586,"ĠÐ¸Ð·Ð±ÑĢÐ°Ð½":9587,"Ð¿Ð°ÑĤÑĮ":9588,"ĠÐ²ÐµÐ»Ð¸ÐºÐ¾Ð¸":9589,"ÑĨÐµÑħÑĬ":9590,"êĻ¿ÑĪÐµ":9591,"ĠÐ»Ñ£Ð¿":9592,"ÑĥÑĤÑģÑı":9593,"ĠÐ¿ÐµÑĢÐ²Ð¾":9594,"ĠÐ¿ÐµÑĢÐ²Ð°Ð³Ð¾":9595,"ĠÑģÑ£Ð½ÑĮ":9596,"ĠÑģÐ»Ð°Ð²ÑĮ":9597,"ĠÑģÐ¼ÐµÑĤ":9598,"ĠÐµÑģÐ¼Ðµ":9599,"Ð¿Ð¸ÑģÐ°Ð½Ð¾":9600,"ÐµÐ²Ð¸ÑĩÑİ":9601,"ĠÐ±Ð¾Ð³Ð°ÑĤÑĭÑĢÑĮ":9602,"ĠÑģÐºÐ¾ÑĤÑĬ":9603,"ĠÑĤÐ¾Ð²Ð°ÑĢÐ°":9604,"ĠÐ¿Ð¾Ð¼ÑĭÑĪÐ»Ñ§":9605,"ĠÑģÑĢÐ´ÑĨÐµ":9606,"ĠÑģÐ¾Ð±Ð°ÐºÐ°":9607,"ĠÐºÐ°Ð»Ð¸ÐºÐ¸":9608,"Ð´Ñ¡Ð½Ð°Ñĸ":9609,"ĠÑģêĻĭÐ±Ð±Ñ¡":9610,"ÑĤÐµÐ½ÑĸÐµ":9611,"Ð½Ê¼":9612,"ĠÐ¸ÑģÐºÐ¸":9613,"ĠÑĤÐµÑĤ":9614,"ÑģÑĤÐ½Ð°":9615,"ĠÐºÐ»ÑĮ":9616,"ÑıÐ¼Ð¸":9617,"Ð·Ð±Ð°Ð²Ð¸":9618,"ĠÐ¾Ð²Ð¸":9619,"ÑĤÑĮÑĨÑĮ":9620,"ĠÑĩÑģ":9621,"Ð¼Ð¸Ð¸":9622,"ÑĩÐ¸ÑģÑĤÐ¸":9623,"Ð¶Ð°Ñħ":9624,"ĠÐ¼Ð½Ñİ":9625,"Ð»Ñ§ÑĤÑĮ":9626,"Ð»ÑıÑĤÑĮ":9627,"ĠÐºÐ¾ÑĤÐ¾ÑĢÐ¾Ð¼":9628,"ĠÐºÑĥÐ½":9629,"ĠÐ¼ÐµÐ¶ÑĮ":9630,"ĠÐ¼Ð¾Ð¸Ñħ":9631,"ĠÐ²ÐµÐ»Ð¸ÐºÐ¾Ð¼ÑĬ":9632,"ĠÑĤÑĬÐ¸":9633,"ĠÐ±Ð¾Ð³Ð¾Ð¼ÑĬ":9634,"ĠÑħÑĢÐ°Ð½Ð¸ÑĤ":9635,"ĠÑĢÑ¹ÐºÑ¹":9636,"ĠÑĩÑĮÑĢÑĮ":9637,"ĠÐ²ÑĬÑģÐ°Ðº":9638,"ĠÐ±Ñ«Ð´ÐµÑĤÑĮ":9639,"ĠÐ¶Ð°Ð»Ð¾Ð²Ð°Ð½ÑĮÐµ":9640,"ĠÐ¿ÑĢÐ¸ÑħÐ¾Ð´Ð¸ÑĤ":9641,"ĠÐ´ÑĮÑıÐºÑĥ":9642,"ĠÑģÐ»Ð¾Ð²Ð¾Ð¼":9643,"ĠÐ¸ÑģÐºÐ°ÑĤÑĮ":9644,"ĠÑĤÑĭÑģÑ§Ñĩ":9645,"ĠÐ½Ð°Ð¿Ð°ÑģÑĤÐ¸":9646,"ĠÑ¡Ð±ÑĭÑĩÐ°":9647,"ĠÐ²ÐµÑĩÐµÑĢÑĬ":9648,"Ð¾ÑħÐ°":9649,"ÐµÑģÑĤÑĮ":9650,"ÑĢÐºÑĥ":9651,"ĠÐ¸Ð³Ð¾ÑĢÑĮ":9652,"ĠÐ²ÐºÐ¸":9653,"ĠÐ½Ð´":9654,"Ð³Ð¾Ð´Ñ£":9655,"ĠÐ½Ð°Ð»Ðµ":9656,"ĠÐ½Ð°ÐºÑĢÐµÐ¿ÐºÐ¾":9657,"ĠÐ°Ð¸":9658,"Ð¾Ð³Ð¾ÑĢ":9659,"ĠÑ¡ÑĤÐ¸":9660,"ĠÑ¡ÑĢÑĥÐ¶ÑĮ":9661,"ĠÐ¿ÑĢÐ¸Ð»Ð¾Ð¶":9662,"ĠÑħÑĢÑ£":9663,"ĠÐ¾ÑĥÑĤÑĢ":9664,"ÑĪÐ¸Ð»ÑĬ":9665,"ÑģÑĤÐ¸Ðµ":9666,"ĠÐ²Ñ£ÑĨÑ£":9667,"ĠÐ¿ÑĢÐ¾ÐµÐ·":9668,"ĠÑĪÐ¾Ð»":9669,"ĠêĻģÐµÐ¼ÑĮ":9670,"ÑģÑĮÐºÐ°":9671,"ĠÑģÐ²ÐµÑĤÐµ":9672,"ÑģÐ»Ð°Ð²Ðµ":9673,"ĠÐ¿ÑĢÐ°Ð²Ð¸ÑĤÑĮ":9674,"ĠÐ½Ñ£ÐºÑĭÐ¸":9675,"ĠÑģÑĤÑĢÐ°ÑĪÑĮ":9676,"ĠÑķÐ¸":9677,"ĠÑĩÐ°ÑģÑĥ":9678,"ĠÐ³Ð»Ð°Ð³Ð¾Ð»ÐµÑĤ":9679,"ĠÑģÑĤÐ°ÑĢÐ¾Ð¼Ñĥ":9680,"ĠÑĢÑ£ÑĩÑĮ":9681,"ĠÐ¼Ñ¹Ð¶ÐµÐ¼ÑĬ":9682,"ĠÐ»ÑĥÐº":9683,"ĠÑħÑĢÑĤ":9684,"ĠÐĹÐ°Ð½Ðµ":9685,"ĠÐ´Ð¾ÑĥÑĪÐ¸":9686,"Ð±ÑĢÑ£ÑĤÐ¾":9687,"ĠÐ¶Ð°Ð»Ð¾Ð²Ð°ÑĤÐ¸":9688,"ĠÐ²Ð¾Ð¿ÑĢÐ¾ÑĪÐ°":9689,"ĠÐ²ÐµÐ»Ð¸ÑĩÐµÑģÑĤÐ²Ñĥ":9690,"ĠÐ½Ð°Ð¿ÑĢÐ°Ñģ":9691,"ĠÐ½Ð°ÑģÐ¸Ð»":9692,"ĠÑģÐ¸ÑĢÐ¾ÑĤÑĬ":9693,"ĠÐ°Ð»ÑĤÑĭÐ½Ð°":9694,"ĠÐºÐ»ÐµÐ²ÐµÑĤÑĮ":9695,"ĠÐ¢Ð¸Ð¼Ð¾ÑĦÐµ":9696,"Îº":9697,"ÐµÐ´Ð°":9698,"ÑĤÐ¾Ð¶":9699,"Ð·Ð±ÑĢÐ°":9700,"Ð½Ð¸Ð¼ÑĮ":9701,"ĠÐ°ÑĨÐ¸":9702,"ÑīÑ§":9703,"ĠÐ¿Ð¾Ñ£ÑħÐ°":9704,"Ð²Ð°Ð½Ðµ":9705,"ĠÐ¿ÑĢÐ¸ÐºÐ»Ñİ":9706,"ĠÐ·Ð°ÑĥÑĤ":9707,"êĻģÐ½":9708,"ÑĩÐ¸ÐºÐ¸":9709,"ÑĩÐµÐ²":9710,"ĠÑĤÐ¾ÑĩÑĸÑİ":9711,"ĠÐ±Ð¾ÑĩÐµ":9712,"Ð´Ð¾ÑĪÐµ":9713,"ĠÐ±ÑĢÐ°Ð»":9714,"ĠÐĳÐ¶":9715,"ĠÐ²ÑĭÐ´Ð°ÑĤÐ¸":9716,"ĠÑ»ÑĤÐ¸":9717,"ĠÐºÐ¾ÑĢÐ¾Ð²Ñĭ":9718,"ĠÐºÐ°ÐºÐ¾Ð²Ð¾":9719,"ĠÐ¼Ð¾Ð»ÑĮ":9720,"ĠÑģÑĥÑīÑİ":9721,"ĠÑģÐ¼ÑĭÑģÐ»":9722,"Ð¼êĻĭÐ¶Ðµ":9723,"ĠÐ»ÐµÐ±Ðµ":9724,"ĠÐ»Ð°Ð·Ð°":9725,"ĠÐ±Ð°Ð³Ð°ÑĤÑĭ":9726,"ĠÐ³Ð°Ð²ÑĢÐ°":9727,"ĠÑģÐ»ÑĭÑĪÐ°Ð²":9728,"Ð²ÑĪÑĸÐ¸":9729,"ĠÐ¼Ð¾Ð½Ð°ÑģÑĤÐ¸":9730,"ĠÑĪÐµÑģÑĤÐ¸":9731,"ĠÐ¿Ð¾Ð´Ð°ÑģÑĤÑĬ":9732,"ĠÑĢÐ°Ð·ÑĥÐ¼ÑĬ":9733,"ĠÐ´Ð½ÐµÑħÑĬ":9734,"ĠÐ´ÐµÐ²ÐºÐ°":9735,"ĠÑĦÐµÐ´Ð¾ÑĢÐ°":9736,"ĠÐ´Ð¼Ð¸ÑĤÑĢÐ°":9737,"ĠÑģÑĢÐµÐ±ÑĢ":9738,"ĠÐ²Ñ§ÑĩÐµ":9739,"ĠÐ¿Ð¾Ð´ÑĮÑıÑĩÐµÐ¼Ñĥ":9740,"ĠÑģÐ°Ð´Ð¸Ð»ÑģÑı":9741,"ÐµÐ¶Ðµ":9742,"ÑĢêĻĹ":9743,"Ð²Ð¾Ð¼":9744,"Ð³Ð¾Ð²Ðµ":9745,"ÑĪÐµÐ½Ðµ":9746,"Ð·êĻĳ":9747,"Ð»Ð°Ñ§":9748,"ĠÐĺÐ´Ð¾Ð¹":9749,"ĠÑģÑĤêĻĳÐ¸":9750,"ĠÐĲÐºÐ¸":9751,"ÑĢÐ¸Ðµ":9752,"ÑĢÐ¸Ð»ÑĬ":9753,"ĠÐ·Ð°Ð½":9754,"ĠÐ·Ð°Ð²Ñ£ÑĤÐ°":9755,"ĠÐ½Ð¸ÑīÐ°":9756,"ĠÐ¾ÑĥÑĤÐ²ÐµÑĢ":9757,"ĠÐ±ÑĭÐ²ÑĪÐ°":9758,"ÑĩÐ°ÐµÑĤ":9759,"ÑĤÐµÐµ":9760,"ĠÐ²Ñ£Ñģ":9761,"ĠÐ¿ÑĢÑ£ÑģÑĤÐ¾Ð»":9762,"ĠÑģÐºÐ¾Ð¿":9763,"ĠÐ¸Ð¼Ð¾Ñĥ":9764,"ĠÐ²ÑĬÐ·Ð»ÑİÐ±Ð¸":9765,"ĠÑĩÐµÑģÑĤÐ¸Ñİ":9766,"Ð½Ð´Ñ¹":9767,"ĠÐ±êĻĳÐ»Ðµ":9768,"ÑģÑĭÐ»Ð°ÑĤÐ¸":9769,"ĠÐ²ÑĢÐ°Ð·Ð¸":9770,"ĠÐ²ÐµÑĢÑĮ":9771,"ĠÐ±Ð¾Ð³Ð°ÑĤÑĬ":9772,"ĠÐŁÑĢÐ¸ÐµÐ·Ð¶Ð°":9773,"ĠÐ´êĻĭÑħÑĬ":9774,"ĠÑģÐ»Ð°Ð²Ñ«":9775,"ĠÐ¿Ð¾Ð½Ñ£":9776,"ĠÐ²Ð·ÑıÐ²":9777,"ĠÐ±Ð¾Ð³Ð°ÑĤÑĭÑĢÐ¸":9778,"ĠÐ¿Ð¾ÐºÐ»Ð°Ð½Ñ§Ñİ":9779,"Ð²ÑıÐ·Ð°":9780,"ĠÑĨÑĮÑĤÐ¾":9781,"ĠÐ¿Ð¾ÐºÑĢÑĭÑĤÐ¾":9782,"ĠÐºÐ¾ÑĢÐ¾Ð»ÐµÐ²Ð½Ð°":9783,"ĠÑĨÐ¾Ð»Ð¾Ð¼ÑĬ":9784,"ĠÐ¿ÐµÑĩÐ°ÑĤÐ½ÑĭÑħ":9785,"ĠÑķÐ»Ð°Ñ§":9786,"ĠÐºÑİÑĢÐ¸":9787,"ĠÐ¿Ð¾Ð¿ÐµÑĨÐ°Ð»Ñĥ":9788,".âĢĿ":9789,"Ġ;":9790,"ĠÑ²":9791,"ÐºÐ¾Ð²ÑĭÐµ":9792,"ÑĥÑĤÑĮ":9793,"Ñ§ÑħêĻĭ":9794,"ĠÐºÐ»":9795,"ÑħÑĢ":9796,"ÑħÐ¸ÑĤ":9797,"ĠÐ¾Ð²Ðµ":9798,"Ð½Ð°Ð²ÑĬ":9799,"Ð²Ð°Ðµ":9800,"ĠÐ¿ÑĢÐ¸Ð·ÑĭÐ²Ð°ÑĤÐ¸":9801,"Ñ«Ñ«":9802,"ĠÑĢÐ°Ð¶Ð´Ð°":9803,"Ñ¥Ð¼Ð¾":9804,"ĠÑıÐºÐ¾Ð²":9805,"ÑīÐ°ÑĪÐµ":9806,"Ð¶Ð¸Ð³Ð°":9807,"ĠÐ¿Ð°Ð²ÑĮ":9808,"ĠÐ¼Ð°Ð»Ðµ":9809,"Ð»ÑİÑīÐµ":9810,"ĠÑ¹Ð³Ð¾Ð´":9811,"ÑĦÐ¾Ð»":9812,"ÑĤÑĭÑħÑĬ":9813,"ĠÐºÐ¾ÑĢÑĭ":9814,"ĠÐ¼ÐµÑĩÐ°":9815,"ĠÐ±Ð¾ÑıÑĢÑĬ":9816,"ĠÐ¼ÐµÐ½Ñ§":9817,"ĠêĻģÐ°Ð²Ð¸":9818,"ĠÐºÐ°Ð·Ð½Ñĭ":9819,"ĠÑģÐ»Ð°Ð²Ð½ÑĭÐ¹":9820,"ÑģÑĤÐ°Ð½ÐµÑĤÑĮ":9821,"ĠÐ¿Ð¾ÑģÐ»Ñ£Ð´ÑĮ":9822,"ĠÑĨÑĢÐºÐ²Ðµ":9823,"ĠÐ¦Ñ£":9824,"ĠÐ±Ñ«Ð´Ð¸":9825,"ĠÐ´ÐµÑĤÐµÐ¼ÑĬ":9826,"ĠÐĶÑĥÑħÐ°":9827,"ĠÐ¼Ð°ÐºÑģÐ¸Ð¼":9828,"ĠÐ´ÐµÑĢÐµÐ²Ð½ÑıÐ¼Ð¸":9829,"ĠÐ²Ð°Ð²ÑµÐ»Ñ¡Ð½":9830,"ÑģÐ¼Ñĭ":9831,"Ð»ÐºÐµ":9832,"Ð³Ð¾Ð²ÑĮ":9833,"ĠÐ¾Ð¸":9834,"ÑĢÐ°Ð·êĻĭÐ¼Ñ£":9835,"ĠÐ·Ñ§ÑĤ":9836,"ĠÐ²ÑĬÐ¸":9837,"ĠÐ²ÑĬÐ¸Ð½Ñĥ":9838,"ĠÑ¡Ð½Ð¾":9839,"ÑĪÐ°ÐµÑĤÑĬ":9840,"ĠÑģÐ»Ð½ÑĨÐµ":9841,"ĠÐ¿Ð°Ð´Ð°":9842,"ĠÐļÐ¾Ð»Ð¸":9843,"ĠÐľÑ£":9844,"ĠÑģÑĭÐ½êĻĭ":9845,"ĠÐĵÑĢÐ¸":9846,"ĠÐ¼ÐµÑģÐµ":9847,"ĠÐ¿Ð»Ð°ÑĤÑ§":9848,"ĠÐ±êĻĳÐ»Ð°":9849,"ĠÐ±ÑĢÐ°ÑĤÑĸÑİ":9850,"ĠÐ½Ð°ÑĩÐ°Ð»Ðµ":9851,"ÑĪÑĤêĻĻ":9852,"ĠÑĢÐ°Ð±Ð¾Ñĥ":9853,"ĠÐ¾Ð¿ÑıÑĤ":9854,"ĠÑģÐºÐ°Ð·Ð°Ð»":9855,"ĠÐ¸Ð¼ÐµÐ½Ðµ":9856,"ĠÑħÑĢÐ¸ÑģÑĤÐ¾Ñģ":9857,"ĠÐ»Ð¾ÑĪÐ°Ð´":9858,"ĠÐ±Ð¾Ð¶Ð¸Ð¸":9859,"ĠÐ½ÐµÐ¿ÑĢÐ°Ð²ÑĮ":9860,"ĠÐŁÐ¾Ð´Ð¾Ð±Ð°":9861,"ĠÐ´ÐµÑģÑıÑĤÐ¸":9862,"ĠÐ¿Ð¾Ð¶Ð¸Ð²Ðµ":9863,"ĠÑĤÐµÐ¿ÐµÑĢÑĮ":9864,"ĠÑĤÑĢÑ¹Ð´Ñĭ":9865,"ĠÐ½ÐµÐ´Ñ£Ð»Ñİ":9866,"ĠÑ¿Ð¿êĻĭÑģÑĤÐ¸":9867,"ĠÐ¶ÐµÐ¼ÑĩÑİ":9868,"ĠÑģÑĭÑĢÐ¾Ð¹":9869,"ÐºÐ²":9870,"ÐºÑ§":9871,"ĠÐ²ÐµÐ½ÑĸÐ°":9872,"ĠÐ´ÑīÐ¸":9873,"ÑĩÑĭ":9874,"Ð¿Ð¾ÑĢ":9875,"Ð»Ð°ÑĤÑĬ":9876,"ÑĸÐ½Ð°":9877,"ĠÑĥÐ¼Ð°":9878,"Ð´ÐµÑĨÑĮ":9879,"ĠÐ½Ð¸Ð¼Ð°":9880,"ĠÑĢÐ°Ð´êĻĭ":9881,"ĠÑĢÐµÑĪ":9882,"ÑģÐµÑ§":9883,"ÑĦÑĢÐ°":9884,"ĠÑĢÐ°Ð·Ð³ÑĢÐ°":9885,"ĠÑĤÐ°ÐºÐ¶Ðµ":9886,"ĠÑģÑ£Ð¼ÑĬ":9887,"ĠÑĩÐ°Ð´":9888,"Ñ³ÑĮ":9889,"ĠÑģÐ¼Ð¾Ð»Ð¸":9890,"ĠÐ´ÑĢÑĥÐ¶":9891,"ĠÑģÑĤÐ°ÑĢÑĭÐµ":9892,"ĠÐ´ÑĮÑ§":9893,"ĠÐµÐ´Ð¸Ð½Ð¾Ð¹":9894,"ĠÐ»Ð°ÑĤÐ¸":9895,"ĠÐ³Ð¾ÑĢÐ¾Ð´ÑĮ":9896,"ĠÐºÐ½Ñ§Ð¶ÑĮ":9897,"ĠÐ²ÑģÐ¸Ñħ":9898,"ĠÐ²ÐµÐ»Ð¸ÐºÐ¸Ñħ":9899,"ĠÐ¸ÑģÑĤÐ¸Ð½Ð°":9900,"ĠÐ²Ð°ÑĢÐ¸ÑĤ":9901,"ĠÑĤÐµÑĢÐ¿Ñ£":9902,"ĠÐ¿Ð¾ÑģÐ»Ñ£Ð´Ð¾Ð²Ð°":9903,"ĠÐ±ÑĢÐ°ÑĤÑĮÑİ":9904,"ĠÐ²Ð¸Ð´Ð¸ÑĤÑĮ":9905,"ĠÐ½ÐµÐ¼Ð¾ÑīÑĮ":9906,"ÑģÑĤÑ«Ð¿Ð¸":9907,"ĠÐµÑħÐ°ÑĤÐ¸":9908,"ĠÐ³ÑĬÑĢ":9909,"ĠÑģÐ¿ÑĢÐ°ÑĪÐ¸Ð²Ð°ÑĤÐ¸":9910,"ĠÐ¿ÑĢÐ¾ÑħÐ»Ð°Ð´":9911,"ĠÐĿÑĭÐ½Ðµ":9912,"ĠÐ´Ð²ÐµÑĢÑĮ":9913,"ĠÐ±Ð°ÑĤÑİÑĪÐºÐ°":9914,"Ð¼ÑĢÐµÑĤÑĬ":9915,"ĠÑģÐ¾ÑģêĻĭÐ´Ñĭ":9916,"ĠÑ¡Ð»ÑĮÐ³Ð°":9917,"ĠÐ²ÑģÐºÐ¾ÑĢÑ£":9918,"Ð»ÐºÑĬ":9919,"ĠÑģÐ¿ÑĢÐ°Ð²":9920,"ÐºÑĸÐµ":9921,"ĠÐ½ÑĪ":9922,"ÑħÐ½Ð°":9923,"ÑĩÑĶ":9924,"Ð¿Ð»Ð°":9925,"ĠÐ´Ð°ÑĪÑĮ":9926,"ĠÐ¿ÑĢÐ¸ÐºÐ¾Ñģ":9927,"ĠÐ¾ÑĥÐ±Ñĭ":9928,"Ð¼Ð°Ð¼ÑĬ":9929,"ĠÐĵÐ´":9930,"Ñ³ÐµÐ¸":9931,"ÑħÐ¾Ð´Ð¾Ð½Ð¾Ñģ":9932,"ĠÐ´Ð²Ð¾ÑĢÐµÑħ":9933,"ĠÐ³ÑĢÐ¸Ð²Ð½ÑĬ":9934,"ĠÐ²ÑģÑıÐºÐ¸Ð¼":9935,"ĠÐ¿Ð¸ÑģÐ°Ð½Ð¸Ðµ":9936,"ĠÐ³ÑģÐ´ÑĢÐ¸":9937,"ĠÑĩÐµÐ»Ð¾Ð²Ñ£ÑĩÑĮ":9938,"ĠÑģÑĤÐ¾Ð»Ð¿ÑĬ":9939,"ĠÐ¯ÑĢÐ¾ÑģÐ»Ð°":9940,"ĠÐ¼Ð¾Ð³ÑĬ":9941,"ĠÐ¿Ð¾ÑģÑĤÐ°Ð²Ð¸Ð»Ð¸":9942,"ĠÐ¾Ð±ÑĢÐ°ÑĤÐ¸":9943,"Ð¶ÐµÐ½Ð½ÑĭÐ¸":9944,"ĠÐ°Ð¿Ð»ÑĬ":9945,"ĠÐ°Ð³Ð³Ð»ÑĮ":9946,"ĠÑģÑĤÑĢÐ¾Ð¸ÑĤÐ¸":9947,"ĠÐ½ÐµÐ½Ð°ÐºÐ°Ð·Ð°":9948,"ĠÐ²Ð¾Ð¿ÑĢÐ¾ÑģÐ¸":9949,"ĠÑģêĻĳÐ½ÑĬ":9950,"Ð¿Ð¸ÑģÐºÐ¾Ð¿Ð°":9951,"ĠÐ¿Ð¾Ð²Ð°ÑĢÐµÐ½":9952,"ĠÐ±Ð»Ð°Ð¶ÐµÐ½Ð½ÑĭÑı":9953,"ĠÑģÐµÑĢÑĮÐ±ÑĢÐ°":9954,"ĠÐ¿Ð¾ÑħÐ¾ÑĤÑıÑĤ":9955,"ĠÑĢÐ¾Ð²Ð½Ð¾":9956,"ĠÐ¢Ð¾Ð¼ÑĮÐ¶":9957,"ÐºÐ¼":9958,"ĠÑĤÐ»Ñ£Ð½":9959,"Ñ§ÑĤÐ¾":9960,"ÐµÐ½Ð½Ð¸ÑĩÐµ":9961,"Ð¾Ð³ÑĢÐ°":9962,"ĠÐ²ÑĬÐ½Ð¸Ð¼Ð°":9963,"ĠÐ´Ð°Ð½ÑĸÐ¸":9964,"Ð¾ÐºÐµ":9965,"ĠÐ¾ÑĥÑĩÐµÐ½":9966,"ĠÑĢÐ°ÑģÑĤÐ¾":9967,"ĠÐ¶ÑĢÐµÐ±":9968,"ĠÐ¡ÑĸÑ§":9969,"ÑĤÐµÑħ":9970,"ĠÑģÐ°Ð½Ð¸":9971,"ĠÐ³ÑĢÐ°Ð¼Ð¾":9972,"ĠÐ¿Ð¸ÑĪÐµ":9973,"ÑĦÑĢ":9974,"ĠÐĵÐ´Ðµ":9975,"Ð»ÑĭÐ¹":9976,"ĠÐ¼ÐµÐ¶Ñĥ":9977,"ĠÐºÑĢÐ°Ð¸":9978,"ĠÑħÐ¾ÑĨÑĮ":9979,"ÑģÐºÑĭÐ°":9980,"ĠÐ±Ð¾Ð³Ð°ÑĤÐµ":9981,"ĠÐ±êĻĭÐ´ÐµÑĤÐµ":9982,"ĠÑĤÐ¾Ð»Ð¾Ðº":9983,"ĠÐ·Ð°Ð¿Ð°Ð´":9984,"ĠÐ²Ð¾ÑĢÐ¾ÑĤ":9985,"ĠÐ²ÑĭÑģÐ¾":9986,"ĠÑĨÑĢÐºÐ²ÑĮ":9987,"ĠÐ»Ñ¹ÐºÐ°Ð²":9988,"ĠÐ±ÑĢÐ°ÑĤÐ¸Ñİ":9989,"ÑģÑĤÑ¹Ð¿Ð¸":9990,"Ġâģĸ":9991,"ĠÐ³ÑĢÑ£ÑħêĻĳ":9992,"ĠÐ·Ð»Ð¾Ðµ":9993,"ĠÑģÑĢÐ°ÑĩÐ¸":9994,"ĠÐ¿ÑĢÐµÐºÑĢÐ°ÑģÐ½Ð¾Ð¹":9995,"ĠÐ¿ÑĢÐ¸ÑıÑĤÐµÐ»ÑĮ":9996,"ĠÐ¶ÑĶÐ½Ñĭ":9997,"ĠÐ¡ÐµÑĢÐ³Ð¸":9998,"ĠÑģÐ°Ð¼Ð¾Ð²Ð»Ð°":9999,"Ð½Ð½ÑĭÐ¸":10000,"Ð½Ð½Ð°Ð³Ð¾":10001,"Ð¼Ñ§ÑĤ":10002,"Ð´Ð¾Ð½":10003,"Ð´ÑĢÐ¾ÑģÑĤÐ¸":10004,"ĠÐ´Ð¾Ð½Ðµ":10005,"Ð³Ð½Ñ¹":10006,"ĠÐ±Ñķ":10007,"ĠÐ½ÐµÑĥ":10008,"ÑĨÐºÐ¸Ð¸":10009,"Ð³Ð¾ÑģÑĤÐ¸":10010,"ÐºÐ°Ð»Ð°":10011,"ĠÐ·Ð°ÑħÐ°":10012,"Ð²Ð¸Ð»":10013,"ĠÐ¾ÑĥÐ¼ÑĬ":10014,"ĠÑģÐµÑı":10015,"ÑĩÐµÐ²Ð¸":10016,"Ð¾Ð¶Ñİ":10017,"ĠÐŁÐ¾ÐºÐ°":10018,"ĠÐ»ÑİÐ±Ñĭ":10019,"ĠÑıÐ±Ð»":10020,"Ð¶Ð°Ñ§":10021,"ĠÐ¿Ð¸ÑĪ":10022,"Ð»Ñ§Ð´Ð°":10023,"ĠÐľÐ¾":10024,"ĠÑģÑĤÑĢÐ°ÑģÑ£":10025,"ĠÑķÐ°":10026,"ĠÑģÑĥÐ±":10027,"Ð¿Ð¾Ð´Ð¾Ð±ÑĮ":10028,"ĠÐ³ÑĢÐ¾Ð¼":10029,"Ð½Ð´ÑĢÐµ":10030,"ĠÐ¿Ð¾Ð¿ÑĢÐ°Ð²":10031,"ĠÑĢÑ£ÐºÑĭ":10032,"ĠÐ½Ð¸ÐºÐ¾Ð»Ð°":10033,"ĠÑħÑĢÐ°Ð¼Ð°":10034,"ĠÐ±Ð¾ÑĥÐ´ÐµÑĤ":10035,"ĠÐ½ÐµÐ´ÐµÐ»Ñİ":10036,"ĠÐ¿Ð¾Ð±Ñ£Ð³Ð¾ÑĪÐ°":10037,"Ð¾Ð¿Ð¸Ñģ":10038,"ĠÐ¼Ñ«Ð¶Ð°":10039,"ĠÐ´ÑĢÑĬêĻģ":10040,"ĠÐļÐ¸ÐµÐ²Ñĥ":10041,"ĠÐ¼Ð¸ÑĤÑĢÐ¾":10042,"ĠÐ¼Ð¸ÑĤÑĢÐ¾Ð¿":10043,"ĠÐ¾ÑĥÐ±Ð¾Ð³Ð¸":10044,"ĠÑ³ÐµÐ´Ð¾ÑĢ":10045,"ĠÐĳÑĭÑģÑĤÑĮ":10046,"Ġ9":10047,"Ð½Ðº":10048,"ÑĪÐºÐ¾Ð¼ÑĬ":10049,"ÑĩÐ½Ð°Ñı":10050,"ĠÐ½ÐµÐ²Ð¸":10051,"Ð½Ð¸ÑĨÑĬ":10052,"ĠÐ¿Ð¾Ñ¹":10053,"ĠÑĥÐ±Ðµ":10054,"ĠÑ¿Ð½":10055,"ĠÐ·Ð°ÑĤÐ²Ð¾ÑĢ":10056,"ĠÑģÑĬÐºÑĢ":10057,"ĠÐºÐ°ÐºÐ°Ñ§":10058,"ĠÐ»Ð¸ÑĪÐ¸":10059,"ĠÐºÐ¾ÑĤÐµÐ»":10060,"ĠÐºÐ¾ÑĤÐ¾ÑĢÑĭÐ¼Ð¸":10061,"ĠÐ³Ð»êĻĭ":10062,"ĠÐ³Ð»Ñ¹":10063,"ĠÑģÑĤÐ°ÑĢÑĨÑĭ":10064,"ĠÐ¿Ð¸ÑģÐ°ÑĤÑĮ":10065,"ĠÐ¶Ð¸Ð²Ð¾ÑĤÐ¸Ð½Ðµ":10066,"ĠÑħÑĢÐ°Ð½Ñ§":10067,"ĠÐ²ÐµÐ»Ð¸ÐºÐ¸Ð¼":10068,"ĠÐ¿Ð¾Ð±Ñ£Ð¶Ðµ":10069,"ÑħÐ¾Ð¼ÑģÑı":10070,"ĠÑĢÐ°Ð·ÑĥÐ¼Ð°":10071,"ĠÐ¢Ñ£Ð¼ÑĬ":10072,"ĠÑģÑĤÑĢÐµÐ»Ðµ":10073,"ĠÐ±Ð¾Ð»Ñ£Ð·Ð½ÑĮ":10074,"ĠÐ³Ð¾ÑĤÐ¾Ð²Ð°":10075,"ĠÐ¿Ñ§ÑĤÐ°":10076,"ÑģÐºêĻĳÑ§":10077,"ĠÑģÐ¸Ð´Ð¾ÑĢÐ°":10078,"ĠÐ³Ð¾ÑĢÐ¾Ð´Ð¸Ñī":10079,"ĠÐ½ÐµÐ¸Ð·ÑĢÐµÑĩÐµÐ½":10080,"Ð»ÑĤÐ°ÑĢÑĮ":10081,"Ð²Ð¾Ð²ÑĬ":10082,"Ð²ÐµÐ½ÑĸÐµ":10083,"ĠÑģÐ´Ñ£":10084,"ÑĮÑģÑĤÐ²Ð¾":10085,"ĠÐ¸ÑģÑĬ":10086,"Ñ§ÑīÐ°Ð³Ð¾":10087,"ĠÐºÐ¾Ð¶Ðµ":10088,"ĠÐ¼Ð»ÑĮ":10089,"ĠÐ¾ÑģÑĤ":10090,"ĠÑĢÑİ":10091,"Ð¶ÑĶ":10092,"ĠÐĺÐ¾ÑģÐ¸":10093,"ĠÑ¿Ð²Ðµ":10094,"ĠÑģÐ²Ð¾ÑŃ":10095,"Ð²ÑĬÑĪÑİ":10096,"ĠÑģÐ»Ð¾Ð²ÑĬ":10097,"Ð»ÑĮÑĪÐµ":10098,"ĠÑıÐ²":10099,"ĠÑĤÐ°Ð»Ð°Ð½":10100,"ÑħÐ°Ð¶Ð¸":10101,"ĠÐ²Ð¾Ð·Ð»":10102,"ĠÐ¿ÑĢÑ£Ð¼Ñ«":10103,"ĠÑ§Ð²Ð»Ñ§":10104,"êĻĻÑĪÑĤÐµ":10105,"Ñ³Ñĥ":10106,"ĠÐ¿Ð¾Ð³Ð½Ð°":10107,"ĠÐ²ÐµÐ»Ð¸ÐºêĻĳÐ¸":10108,"ĠÑīÐ¾ÑĤÐ¾":10109,"ĠÐŁÐ¾Ð¸":10110,"ĠÐ½Ð°ÑĪÐµÐ¼êĻĭ":10111,"ĠÐ»ÑİÐ±Ð¸ÑĤ":10112,"ĠÐ²ÑĬêĻģÑĮ":10113,"ĠÑģÐ¼ÐµÑĢÑĤÑĮÑİ":10114,"ÑģÑĤÑĢÐ°ÑĪÐ¸":10115,"ĠÐ¡Ð°Ð¼ÑĬ":10116,"ĠÐŀÑĤÑĩÐµ":10117,"ĠÐ¿Ð¾Ð¼Ð¾ÑĩÑĮ":10118,"Ð³Ð»Ð°Ñģ":10119,"ĠÑħÐ¾ÑīÑĥ":10120,"ĠÐ½ÐµÐ±ÐµÑģÑĬ":10121,"Ð¶Ð´ÐµÐ½ÑĬ":10122,"ĠÑĮÑģÑĤÑĮ":10123,"ĠÐ¿Ð¸ÑĤÑĹÐµ":10124,"ĠÐ¿ÑĢÐ¸ÑģÐ»Ð°Ð»ÑĬ":10125,"ĠÑĢÑ£Ð·Ð°Ð½ÑĬ":10126,"ĠÐ¿ÑĢÐ¾Ð²Ð¾Ð¶Ð°":10127,"ĠÑ¿ÑĤêĻĭÐ´êĻĭ":10128,"ĠÐĶÑĥÐ½Ð°Ð¹":10129,"ĠÐ´Ð¾ÐºÐ»Ð°Ð´Ñĥ":10130,"ÑģÐ½Ð¾Ð²Ð°":10131,"ÑģÐ²Ñ§":10132,"ĠÐ½Ð°ÑĩÐ¸":10133,"ĠÐ½Ð°Ð·ÑĭÐ²Ð°":10134,"Ð»Ð¸ÑĨÐ°":10135,"ĠÐ»Ð¾Ð¶ÑĮ":10136,"ĠÐ´Ð°Ð´Ð¸ÑĤÐµ":10137,"ĠÑ¡Ð·":10138,"Ð·Ð°Ð½ÑĮ":10139,"ĠÐ³Ð¾ÑĢêĻĭ":10140,"ĠÐ½Ñ£ÐºÐ¾Ð¸":10141,"ĠÐºÑĢÐ°Ð»ÑĬ":10142,"ĠÐ¿Ð¾ÑĤÐ¾Ð¼Ñ¹":10143,"Ð½Ð¸ÑĤÑģÑ§":10144,"ĠÐ²ÑĬÐ´Ð°ÑģÑĤÑĮ":10145,"ĠÐ±Ð¾Ð³Ð°ÑĤÑĭÑĢÐµÐ¹":10146,"ĠÐ´Ð¾Ð¿ÑĢÐ°":10147,"ĠÐľÐ¾ÑģÐºÐ²Ñĭ":10148,"ĠÑĤÑĢÐ°Ð²Ñĥ":10149,"ĠÐ°Ð´Ð°Ð¼Ð°":10150,"ĠÑģÐ¾Ð½Ð¼ÑĬ":10151,"ÑĢÐ¾Ð½":10152,"ĠÐ¿Ð¾Ð²Ð¾Ð¸":10153,"ĠÐ²Òį":10154,"ÑħÑĸÐ¸":10155,"ĠÐ½Ð°Ð²Ð¾Ð·":10156,"ĠÐ¿ÑĢÐ¾Ð²Ñ£":10157,"ĠÐ½ÐµÐ´Ð¾Ñĥ":10158,"ĠÐ²ÑĬÐ½Ñ£":10159,"Ð¶ÐµÐ¼":10160,"ĠÑ¡Ñĩ":10161,"ÑĢÐ¸Ð»ÑĮ":10162,"ĠÑ¿ÑģÑ£":10163,"ĠÐ¾ÑĥÐ²Ñ£Ð´Ñ£":10164,"Ð½ÑĮÑģÐºÐ°":10165,"ĠÐ¸Ð·Ð±Ð¸ÑĪÐ°":10166,"ÑīÐ¸Ðº":10167,"ÑīÐ¸ÐºÐ°":10168,"ĠÐ¼Ð°Ð¼":10169,"ĠÐ²Ð¸Ð´Ð°":10170,"ÐµÑĢÐµÑĤÐ¸":10171,"ĠÐ³Ð»Ð°Ð´":10172,"ĠÑģÑĤÐ°ÑĢÐµ":10173,"ĠêĻĭÐ·":10174,"ĠÐ±Ð»Ñ«":10175,"ĠÐ¼ÐµÑĩÐ¸":10176,"Ð»Ð¾Ð½Ð¸":10177,"ÑģÑĤÐ°Ð²Ð»ÐµÐ½":10178,"ĠÑĤÐ¾Ð±Ð¾Ð¹":10179,"ĠÐ»ÐµÐ²ÑĬ":10180,"ĠÎ¹Ð½Ð¾":10181,"ĠÐ²Ð»Ð°Ð´Ñ£":10182,"ĠÑĤÐ²Ð¾ÑĢÑ§ÑĪÐµ":10183,"ÑħÑĥÑģÑı":10184,"ĠÐ´Ð¾Ð±ÑĢÐ¾ÑĤÑ£":10185,"ĠÐ¿ÑĢÐ°Ð²Ð´êĻĭ":10186,"ĠÐ´Ð¾Ð±ÑĢÑĭÑħÑĬ":10187,"ÐºÐ¾Ð»Ð°":10188,"ĠÐ¿ÑĮÑĢÑĮ":10189,"ĠÑĩÑĮÑĢ":10190,"ĠÑĢÐ¾ÑģÐ¾Ð»ÑĬ":10191,"ĠÑģÐºÐ¾ÑĤ":10192,"ĠÐºÐ¾Ð¿ÑĮ":10193,"ĠÑĤÐ°Ð¸Ð½Ð¾":10194,"ĠÐ²Ð¾ÑĤÑĩÐ¸Ð½Ð½Ð¸ÐºÐ¾Ð²":10195,"ĠÐ¾ÑĥÐ±ÑĢÑ¹":10196,"ĠÑ¡Ð±Ð¸ÑħÐ¾Ð´Ðµ":10197,"ĠÑ¡Ð±Ð¸ÑħÐ¾Ð´Ñ£":10198,"ĠÑ¡Ð±Ð¸ÑħÐ¾Ð´Ñ¹":10199,"ĠÐ¿Ð¾ÑĢÑ§Ð´Ð»Ð¸":10200,"ÑĤÐºÐ°Ð¼ÑĬ":10201,"ĠÐ¿ÑĢÐ¸Ð±Ð»Ð¸Ð¶Ð°":10202,"ĠÐ¿Ð¾Ð¼ÐµÑģÑĤÐ½ÑĭÑħ":10203,"ĠÐ´Ð¾Ð¼Ð¾ÑĩÐ°Ð´ÑĨÐ¾Ð²ÑĬ":10204,"ĠÐ¿Ð¾Ð¿Ð¾ÑĢÑĤÐ¸Ð»Ð¾":10205,"ĠÐ»Ñ¹ÑĩÑĪÐµÐµ":10206,"ĠÐºÐ¾Ð¼Ð¸ÑģÐ°ÑĢ":10207,"ĠÐ·Ð°ÑĤÑħÐ»Ð¾":10208,"ÐºÐ»ÑĬ":10209,"Ð´ÐµÐ½ÑĸÐµ":10210,"ĠÐºÐ¾Ð²Ð¾":10211,"Ð±Ð¾Ð³":10212,"ĠÐ½Ð°Ð²Ð°":10213,"ÑīÑĶ":10214,"Ð¶Ð½ÐµÐ¼Ñĥ":10215,"ĠÑģÑĤÐ¾Ñİ":10216,"Ð´Ð¸Ð½ÑĮ":10217,"ÑĩÐµÐ²ÑĬ":10218,"Ð²Ñ£Ð¸":10219,"ĠÑĶÐ¼Ð¾Ñĥ":10220,"ÑĩÐ°Ð»Ð°":10221,"ÑĩÐ°ÑĤÑĭ":10222,"ÑĨÐµÐ¹":10223,"Ð´ÑĥÑīÐµ":10224,"ĠÐ¸ÑģÑĨÐµ":10225,"ÑģÑĤÐ°Ð²Ð¸ÑĪÐ°":10226,"ĠÐ¿Ð¾ÑģÐ»Ð°Ð½ÑĬ":10227,"ÐºÐ°Ð·Ñĥ":10228,"ĠÐ±ÑĢÐ°ÑĤÑı":10229,"ĠÐ¿ÑĥÑģÑĤ":10230,"ĠÐ¼Ð¸Ð»Ð¾ÑģÑĤÑĭ":10231,"Ð³Ð¾ÑģÐ»Ð¾Ð²Ð¸":10232,"ĠÐ¼Ð°ÑĢÐºÐ°":10233,"ĠÐ¿Ð¾Ð»Ð¾Ð¶Ð¸Ð»":10234,"ĠÐ´ÑĢÐ¾ÑĥÐ³ÑĬ":10235,"ĠÐĳÐ¾Ð¶Ð¸Ð¸":10236,"ĠÑģÐ½Ð°Ð±":10237,"ĠÑģÑĢÐµÐ´Ñĭ":10238,"ĠÑģêĻĳÐ½Ð°":10239,"ĠÐºÑĢÐµÐ¿Ð¾ÑģÑĤÑĮ":10240,"ĠÑģÐµÑĢÐµÐ±ÑĢÑı":10241,"ĠÐ½ÐµÑĩÐ¸ÑģÑĤ":10242,"ĠÐ²Ð¾Ð·Ð²ÑĢÐ°ÑĤÐ¸ÑģÑ§":10243,"ĠêĻĹÐ²Ð»êĻĹ":10244,"ĠÐ·Ð¼ÐµÐ¸":10245,"ĠÐ¡Ð»Ð°Ð²Ð°":10246,"ĠÑĥÐµÐ·Ð´Ðµ":10247,"ĠÐĳÐ¾Ñı":10248,"ĠÑģÐ»Ð°Ð²Ð¾ÑģÐ»Ð¾Ð²":10249,"ĠÐ·Ð´Ð¾ÑĢÐ¾Ð²ÑĮÐµ":10250,"ĠÐ¶Ð¸Ð²Ð¾Ð½Ð°ÑĩÐ°Ð»":10251,"ĠÐ¸Ð´Ñ£":10252,"Ð´ÑıÑĤ":10253,"ÑħÐ¾Ð½":10254,"ĠÐ¾ÑĢÐ¾Ñĥ":10255,"Ð¾Ð»ÑİÐ±":10256,"ÑĢÐ°Ð¼ÑĬ":10257,"ĠÑĢÐº":10258,"Ð¾Ð´Ð¾ÑĢ":10259,"ĠÐ´Ð°Ð¼":10260,"Ñ¡Ð²Ñĭ":10261,"ĠÑ¡Ð½Ð¾Ð³Ð¾":10262,"Ð´Ð¸Ð½Ð°Ð³Ð¾":10263,"ĠÐ½Ð¸ÑĮ":10264,"ĠÐ¸Ð·Ð±Ñ£":10265,"ÑīÐ¸Ð¼ÑĮ":10266,"ĠÐ²Ð¾Ð·Ð±ÑĢÐ°":10267,"ÑĶÑģ":10268,"ĠÐķÐ¼Ñĥ":10269,"ĠÑģÐ¾Ð±Ñı":10270,"ÐºÐµÑħ":10271,"ĠÐ²Ð»Ð°Ð³Ð°":10272,"ÑģÐºÑĭÐ¹":10273,"ĠÑĩÐµÐ»Ð¾Ð²Ñ£ÐºÑĥ":10274,"ĠÐ´Ñ£Ð»Ð°ÑİÑĤ":10275,"ĠÑĤÑĮÑĸ":10276,"ĠÐ³ÑĢÐ°Ð´Ð¾Ð¼ÑĬ":10277,"ĠÐ²ÑĢÑ£Ð¼Ñı":10278,"ĠÐ¼Ñ¡Ð°":10279,"ĠÑģÐ¾Ð²Ñ£ÑĤÑĬ":10280,"ĠÐ¼Ð½Ð¸ÑĪÐµ":10281,"ĠÑĤÑĭÑģÑıÑĩÐµÐ¹":10282,"ĠÐ¼ÑĥÑĢÐ·Ñĭ":10283,"ĠÐ¿Ð°ÐºÐ¾ÑģÑĤÑĮ":10284,"ĠÑģÐ¾Ð±Ð°ÐºÐ¸":10285,"ĠÐ¿ÑĢÐµÐ´Ñ£Ð»Ñĭ":10286,"ĠÐ²Ð¾Ð·ÑĮÐ¼Ð¸":10287,"ĠÐ¿ÑĢÐµÑģÑĤÐ¾Ð»ÑĬ":10288,"ĠÑģÐºÑĬÑĢ":10289,"..":10290,"Ð°Ð½ÑĸÐµ":10291,"ÑĢÑĤÑĮ":10292,"ÑĢÐ¾Ð±":10293,"ÑģÐµÐ½ÑĮ":10294,"ÑıÐ½Ñĭ":10295,"ÑĩÐ½Ð°Ñ§":10296,"ÑĤÐ¸Ð½Ð¾Ñĥ":10297,"ĠÐ´Ð°Ð¶ÑĮ":10298,"ĠÑģÑĤÑĥÐ´":10299,"ĠÐ²ÐµÐºÐ¸":10300,"ÑĤÐ°Ð¹":10301,"ĠÐ¼Ð¾ÑģÑĤÐ¾Ð²":10302,"ÑīÐ°êĻĹ":10303,"ĠÐ¿Ð¾Ð´ÑĮ":10304,"ÑĦÑĢÐµÐ¼":10305,"ĠÑīÐ¸":10306,"ĠÐ²Ð»Ð°Ð´Ð¸":10307,"ĠÐ²ÑĢÐ°Ð³Ñĭ":10308,"ĠÐ´ÐµÑĢÐ¶Ð¸":10309,"ÑĤÐ²ÐµÐ½":10310,"ÑĤÐ²Ñ«":10311,"ĠÐ¼ÑĬÐ½Ð¾Ð³Ð¾":10312,"ĠÑģÑ«Ð´":10313,"ĠÐºÐ°Ð·Ð½ÑĮ":10314,"ĠÐ¾ÑģÐ½Ð¾Ð²Ð°":10315,"ĠÑħÐ°Ð»":10316,"ĠÑ¡Ð±ÑĢÐ°ÑĤÐ¸":10317,"ĠÑģÐºÐ°Ð·Ð°ÑĤÑĮ":10318,"ĠÑĤêĻĭÐºÐ°":10319,"ĠÑģÐµÐ»Ñĥ":10320,"ÑģÑĤÑĥÐ¿Ð¸ÑĪÐ°":10321,"ĠÑ¡Ð±ÑĢÑ£ÑĤÐµ":10322,"ĠÐ´ÑĢÑĥÐ³Ð°Ñı":10323,"ĠÐºÑĢÐµÐ¿Ð¾ÑģÑĤÑı":10324,"ĠÐ¸Ð·ÑĭÐ´Ðµ":10325,"ĠÐºÐ¾Ð»Ñ£Ð½Ð°":10326,"ĠÐ±Ð¾Ð¶ÐµÑģÑĤÐ²":10327,"ĠÑģÐµÑĢÐµÐ±ÑĢÐ¾Ð¼ÑĬ":10328,"ĠÐ¿Ð»Ð°ÑĤÐµÐ¶ÑĮ":10329,"ĠÐ³Ð¾ÑĩÐºÐ¾Ð¼ÑĮ":10330,"ÐµÑĪÑĬ":10331,"Ð½ÐºÐ¸":10332,"ÑģÐ¾Ð²Ð°":10333,"ĠÐ¸Ð½Ð¸Ð¸":10334,"ĠÐ¿Ñı":10335,"ÑĥÐ»":10336,"ĠÑĤÐ°ÑĢ":10337,"ĠÑĤÐµÑĢÐµ":10338,"Ð¿Ñĸ":10339,"Ð¿Ð½Ð¾":10340,"Ð»Ð¸ÑĤ":10341,"ĠÐ¾ÑĥÑĩÐ°":10342,"ĠÐ¾ÑĥÑĩÐ¸ÑĤ":10343,"ĠÑĢÐ°Ð±Ð¾":10344,"ĠÑģÐµÐµ":10345,"ĠÐ»ÑİÐ±Ðµ":10346,"ĠÐĴÑĤÐ¾ÑĢ":10347,"ĠÐ±Ð¾ÑĩÐºÐ¸":10348,"Òĩ:":10349,"ĠÐ¸Ð·Ð¸Ð´Ðµ":10350,"Ð¿Ð°Ð´Ð°":10351,"Ð»ÑİÑĤÑĮ":10352,"Ð´Ð¾ÑħÐ°":10353,"Ð½Ñ§Ð½ÑĬ":10354,"ĠÐŀÐ²":10355,"ĠÐ¿Ð¸Ð»Ð¸":10356,"ĠÐ²Ð¾Ð»ÑĮ":10357,"ĠÐ¼Ð¾Ð»Ñ§ÑĪÐµ":10358,"ĠÐ¿Ð»Ð°Ð²Ð°":10359,"ĠÐ¼ÑĥÑĩÐµ":10360,"ĠÐ³Ð»Ð°Ð³Ð¾Ð»Ñĭ":10361,"Ð¼ÑĭÑģÐ»":10362,"ĠÐ·Ð½Ð°ÑĤÐ¸":10363,"ĠÐ²ÑģÐ¸Ð¼ÑĬ":10364,"ĠÐľÐ¸ÐºÐ¸ÑĤÐ¸":10365,"ĠÐ¿Ð¾ÑģÐ»ÐµÐ´":10366,"ĠÐ²Ð¾ÑĢÐ¾Ð½Ð°":10367,"ĠÐµÑģÑĤÐµÑģÑĤÐ²Ð¾":10368,"ĠÐ²Ð°ÑģÐ¸Ð»ÑĮÑı":10369,"ĠÐ¡ÑĤÐ°Ð»":10370,"ĠÐ¾Ð±Ð°ÑĩÐµ":10371,"ĠÐ¾ÐºÐ¾Ð»ÑĮ":10372,"ĠÐ²ÑĸÐ½Ð¾Ð³ÑĢÐ°":10373,"ĠÐ¼ÑĥÐ¶ÐµÐ¹":10374,"ĠÐ¿Ð¾Ð¼ÐµÑīÐ¸ÐºÐ¾Ð²":10375,"ĠÐ¿ÑĭÑĤÐ°ÑĤÑĮ":10376,"ĠÑĦÐ°ÑĢÐ°Ñ¡":10377,"ĠÐ¿Ð¾Ð»Ð¾Ð¶ÐµÐ½Ð¾":10378,"ĠÑħÐ¾Ð»Ñ¡Ð¿ÑĬ":10379,"ĠÐĶÐµÐ²Ð³ÐµÐ½Ð¸Ð¹":10380,"ĠÐ²ÐµÐ½ÑĸÐ°Ð¼Ñĸ":10381,"ĠÒħ":10382,"Ð½Ð¾Ðº":10383,"ĠÐ¸Ð´Ð¾Ñĥ":10384,"ĠÐ¿ÑĤÐ°":10385,"ĠÐºÐ´Ðµ":10386,"ĠÐ¾Ð³Ð¾Ð²Ð¾ÑĢ":10387,"ĠÐ¾Ð»ÑĮÐº":10388,"ĠÐ½Ð°ÐµÐ¼":10389,"ÑĨÐ°ÑĢÑĮ":10390,"êĻĳÐ²Ð°":10391,"Ð½ÐµÐ³Ð´Ð°":10392,"ĠÐ»ÑİÐ±ÐµÐ·":10393,"ĠÑĢÐµÐ±ÑĢÐ°":10394,"ÑīÐ°ÑİÑĤ":10395,"ĠÐ¿Ð¾Ð´Ðº":10396,"ĠÐ¿ÑĢÐµÐ¿Ð¾":10397,"ĠÐ±Ñ£Ð»Ð°":10398,"ĠÐºÐ¾ÑĢÐ¾Ð²":10399,"ĠÑģÐ»Ð°Ð´Ð¾ÑģÑĤÑĮ":10400,"Ð¼ÑĭÐ¹":10401,"ĠÑģÑĤÐ¾Ñ§ÑĤÐ¸":10402,"ĠÑģÐ°Ð¼Ð°ÑĢ":10403,"ĠÐ½Ð¸ÐºÐ¾Ð»":10404,"ĠÑ¡Ð±Ð»Ð¸":10405,"ĠÐ³Ð¾ÑģÐ¿Ð¾Ð¶Ð°":10406,"ĠÑģÐ¾Ð»Ð½":10407,"Ð³ÑĢÐ°Ð´Ð°":10408,"ĠÑĩÐµÑĢÐµÐ½":10409,"Ð»Ñ¹Ð¸":10410,"ÑģÑĤÐ°Ð½ÐµÑĤÑĬ":10411,"ĠÑģÑĤÑĢÐµÐ»Ð¾":10412,"ĠÑĢÑĮÑĨÐ¸":10413,"ĠÐ¼Ð¾ÑĥÐ¶ÑĮ":10414,"ĠÐ¾Ð¿Ð°Ñģ":10415,"ĠÐµÑģÑĮÐ¼ÑĮ":10416,"ĠÐ¸Ð³Ñ¹Ð¼ÐµÐ½ÑĬ":10417,"ĠÐµÑĥÐ°":10418,"ĠÐ¿ÑĢÐ¾Ð¶Ð¸ÑĤÐ¾":10419,"ĠÑħÐ¾ÑĨÐµÑĪÐ¸":10420,"Ð½ÐµÐ½Ð¾":10421,"Ð»Ð¾Ð¼Ð°":10422,"ĠÐ¿Ð»ÐµÐ½":10423,"ÐºÑĸÑ§":10424,"Ð´ÑĢÐ°Ð²":10425,"ĠÐ½Ð¾Ð½Ðµ":10426,"ĠÐ´Ð¾Ð³":10427,"Ð³Ð½Ðµ":10428,"Ð·Ð¾ÑĢ":10429,"ĠÐ½Ð°Ñİ":10430,"ĠÐ¿ÑĢÑ¹":10431,"ĠÐ¿Ð¾Ðµ":10432,"ĠÐ²ÑģÑĮ":10433,"ĠÑ¿Ð²":10434,"ĠÐ·Ð°êĻĭ":10435,"ÑģÐ°Ð°":10436,"ĠÐ²ÐµÐ´Ð¾Ð¼Ð¾":10437,"Ð¾Ð¿Ð¾":10438,"ÑĤÐµÑĩÐµ":10439,"ĠÐ¿Ð¾ÑģÑĢÐ°Ð¼Ð¸":10440,"ĠÐ±ÐµÑģÑĬ":10441,"ĠÐ²Ð¸Ð¶Ð´ÑĮ":10442,"ĠÑģÑĭÐ½Ð¾Ð¼":10443,"ĠÐ¼Ð¾Ð»Ð¾":10444,"ĠÑģÑ£Ð¼ÐµÐ½Ðµ":10445,"ĠÐłÑĭ":10446,"ĠÐ´ÑĢÑĥÐ³Ð¾Ð¸":10447,"ĠÐ¸Ð½Ð¾Ð¸":10448,"ĠÐ²Ð¸Ð´Ñ£Ð»ÑĬ":10449,"ĠÐ¿Ð¸ÑģÐ°Ð½Ð°":10450,"ĠÐ¿ÑĢÐ¾Ð´Ð°Ð¶Ð°":10451,"Ð¼ÐµÑĢÑĤ":10452,"ĠÐ¿Ð¾Ð·Ð¾Ð²":10453,"ĠÐ½Ð±ÑģÐµ":10454,"Ð·ÐµÐ¸":10455,"ĠÑĪÐ¸ÑĢ":10456,"Ð±ÑĥÐ´Ð¸":10457,"ĠÐ¼Ð°Ð»Ð¾Ðµ":10458,"ĠÐ±ÑĢÐ°ÑĤÐ¸êĻĹ":10459,"ĠÑĤÑĢÐµÑĤÑĮÐ¸":10460,"ĠÑĤÑĢÐµÑĤÑĮÑı":10461,"ĠÐ¿ÑĢÐ¸ÑĤÑĩÐ°":10462,"ĠÐĳÐ»Ð°Ð³Ð¾ÑģÐ»Ð¾Ð²":10463,"ĠÐ¾Ð»ÑĤÐ°ÑĢ":10464,"ĠÐ¶ÐµÑĢÑĤÐ²êĻĭ":10465,"ĠÑĢÐ°Ð·Ñ¹Ð¼Ñ£":10466,"ĠÐ³ÐµÑĢÐ°ÑģÐ¸Ð¼Ð°":10467,"ĠÐ¾Ð±ÐµÑģÑĩÐµÑģÑĤ":10468,"Ð½ÐµÑĤÐµ":10469,"Ð²ÑĸÐµ":10470,"ĠÐ¿Ð»Ñİ":10471,"Ð´Ð½Ðµ":10472,"ĠÑĤÐ²ÑĢÑĮ":10473,"ÑģÑĤÐµÐ½":10474,"ÑĪÐ¸ÑĤÑĬ":10475,"ÑıÐ»Ð¸":10476,"Ð·Ð¼Ñ£":10477,"Ð½Ð¸ÑĨÐµÑİ":10478,"ÐµÐ¼ÑĭÐ¸":10479,"ÐµÑĢÑ§":10480,"ĠÐ´Ð°Ð´ÑĥÑĤ":10481,"ÑĪÐµÐ¹":10482,"Ð»ÑĮÐ¼Ð°":10483,"ĠÐºÐ°ÑĪÐ°":10484,"ĠÑ¹ÑģÑĤÑĢÐ¾":10485,"ĠÑ¹Ð¿Ð¾Ð²Ð°":10486,"ĠÑĤÑĭÐµ":10487,"ĠÑ»ÑĤ":10488,"Ð½Ð¸ÐºÑ¡Ð¼ÑĬ":10489,"ÑģÑĤÐ°Ð²Ð¸Ð»Ð¸":10490,"ĠÐ¿Ð¾ÐºÐ»Ð¾Ð½Ñı":10491,"ĠÑģÐºÐ°ÑĤÐµÑĢ":10492,"ĠÐ´ÑĢêĻĭÐ³êĻĭ":10493,"ĠÐ´Ð¾ÑĥÑħÐ°":10494,"ĠÐ²Ð·ÑıÑĤÑĭ":10495,"ĠÑģÑĤÑĢÐµÐ»ÑĮ":10496,"ĠÐºÐ¾Ð¿ÑĮÐµ":10497,"ĠÐ½Ð°Ð¿Ð°ÑģÑĤÑĮ":10498,"ĠÐ¶ÐµÐ»Ñ£Ð·Ð¾":10499,"ĠÑģÐ²ÑıÑĤÐ¾Ð³Ð¾":10500,"ĠÐ´Ð°Ð²êĻĳÐ´Ð°":10501,"ĠÐĿÑĭÐ½Ñ£":10502,"ĠÐ½Ð°Ð·Ð°Ð´":10503,"ĠÐ¶Ð¸Ð´Ð¾Ð²Ðµ":10504,"ĠÑĤÐ¾ÑĥÑĢÐºÑĭ":10505,"ÑģÐµÑĤ":10506,"ĠÑģÐ´Ðµ":10507,"ĠÐ±Ð³Ð¾":10508,"ÑħÐ¾Ð¶Ðµ":10509,"ÑİÐ¶Ðµ":10510,"ÒĨÒĨ":10511,"ÑıÑīÐ°":10512,"Ð¾Ð²Ð½Ð°Ð³Ð¾":10513,"ĠÐ³Ð½Ð¸":10514,"Ð¿Ð°Ðº":10515,"ĠÐ½ÐµêĻģ":10516,"ÑīÐµÐ½ÑĮ":10517,"ĠÑģÑĤÐ¾Ð¿Ð°":10518,"ÑĢÐ¸Ð°":10519,"ĠÑģÐ²Ð¾Ñ£":10520,"ĠÑģÐµÐ¿":10521,"ÑĩÐ¸ÑĪÐ°":10522,"ĠÐ¶êĻĭ":10523,"ĠÑĤÐ¸Ð²Ñĥ":10524,"ĠÐ¿ÑĢÐµÐ±":10525,"ĠÐ´Ñ£Ñ§":10526,"ĠÐ¿Ð»Ð°ÑĩÑİ":10527,"ĠÑģÑĥÑīÐµ":10528,"ĠÐ»ÐµÐ¶Ð¸ÑĤÑĮ":10529,"ĠÐ²ÑģÑ§ÐºÑĹÑ§":10530,"ĠÐ´ÑĥÑĪÑı":10531,"ĠÐ²Ð¾ÑģÑħÐ¾":10532,"ĠÑģÐ»ÑĥÐ³Ð¸":10533,"ĠÐ±êĻĭÐ´ÐµÑĤ":10534,"ĠÑģÐ¾Ð»Ð¾Ð¼Ð°":10535,"ĠÐºÐ½Ð¸Ð³":10536,"ĠÐ½Ð±ÑģÑĮ":10537,"ĠÐ²ÑģÑ§ÐºÐ°Ð³Ñ¡":10538,"ĠÐ´ÑĢÑ¹Ð³":10539,"ĠÐ±Ð»ÑİÐ´Ð¸":10540,"ĠÐ¿Ð¾Ð²Ñ£Ð´Ð°ÑĪÐ°":10541,"ĠÐ¿Ð¾ÑħÐ²Ð°Ð»Ñı":10542,"ĠÐ¼Ð¾ÑģÐºÐ¾Ð²ÑģÐºÐ¸Ñħ":10543,"ĠÐŁÐ¾Ð»ÐºÐ°":10544,"ĠÑĤÑ£Ð»ÐµÑģÐ°":10545,"ĠÑĢÐµÐºÑĥÑīÐµ":10546,"ĠÐ¿Ñ«ÑĤÑĮ":10547,"ĠÑģÐ²ÑıÑĤÐ¸ÑĤÐµÐ»":10548,"ĠÐŁÐ¾ÑĤÐ°Ð½ÑĨÑĭÑıÐ½Ð°":10549,"ĠÐºÐ¾Ð´ÑĢÐ°":10550,"ÑģÑĨ":10551,"ÑģêĻĻ":10552,"ĠÐ¸Ñī":10553,"ĠÐ³Ñ¡":10554,"Ð¾ÑĢÐ¾Ð²":10555,"ĠÐ½ÐµÑĩÑĮ":10556,"ĠêĻĹÑĢÐ¾Ð¿Ð¾Ð»":10557,"ĠÑĶÑģÐ¸":10558,"ĠÐ¼Ð¾ÑģÑĤ":10559,"ĠÑģÐ°Ð¼êĻĭ":10560,"ĠÐ¿Ð°Ð³êĻĭ":10561,"Ð¼Ñ£ÑĤÐµ":10562,"ĠÐ±ÑĢÐ°ÐºÑĬ":10563,"ÑģÐ¿ÑĢÐ°Ð²":10564,"ĠÑĤÐ°ÐºÐ¾Ð³Ð¾":10565,"ĠÐºÑĢÑģ":10566,"ĠÑģÐ²Ñ£ÑĤÑ£":10567,"ĠÑģÐ¿Ñ£":10568,"ÑİÑīÐµÐµ":10569,"ĠÐ¼Ñ¹Ð¶ÐµÐ¸":10570,"ĠÑĩÑİÐ´Ðµ":10571,"ĠÐ´Ð¾Ð±ÑĢÐ¾Ð¼Ñ¹":10572,"ĠÐ²Ð¾Ð´ÑĬ":10573,"ĠÐ½Ð°ÑĩÐ°Ð»Ð¾":10574,"ĠÑĢÐ°êĻģÐ»Ð¸":10575,"ĠÐ¿ÑĢÐ°Ð²Ð¾Ð¹":10576,"ĠÑģÐ²ÑıÐ·Ð°":10577,"ĠÐ²Ð¾Ð»Ð¾Ð´Ð¸Ð¼ÐµÑĢÐ°":10578,"ĠÐ¿ÑĢÐ¾ÑĤÐ¸Ð²Ñ«":10579,"ĠÐ¼Ð¾Ð»Ð¸ÑĤÐ²Ñ£":10580,"ĠÐ¿Ð¾ÑģÐ»Ñ£Ð´Ð¸":10581,"ĠÐ¾ÑĩÐ¸Ñİ":10582,"ĠÐ´ÑĢÑĥÐ¶Ð¸Ð½Ñ£":10583,"ĠÐ´ÐµÑĢÐµÐ²ÐµÐ½ÑĮ":10584,"ĠÐ±ÐµÑĢÐµÑĤ":10585,"ĠÐ¼ÐµÐ¶Ð´Ñĥ":10586,"ĠÐ¸Ð·ÑĭÐ¼Ð°":10587,"ĠÑĢÐ¾ÑģÑĤÐ¸ÑģÐ»Ð°Ð²Ð¸":10588,"ĠÐ¸Ð¼ÑĥÑĤÑĮ":10589,"ĠÐ½Ð°Ð¿Ð¾Ð¸":10590,"Ġ000":10591,"Ð¸ÑĨÐµ":10592,"ÑĤÐ½Ñĭ":10593,"ÑģêĻ¿":10594,"ĠÑģÐ»Ð¾":10595,"ĠÐºÐ¾Ð¼ÑĬ":10596,"ĠÐºÐ¾Ð¶Ð°":10597,"ĠÐºÐ¾Ð´ÑĮ":10598,"ĠÐ¼Ð¾Ð½Ðµ":10599,"ĠÐ¾ÑĨÑĮ":10600,"ĠÐ¾Ð»ÐµÐºÑģÐ°Ð½Ð´":10601,"ĠÐ½Ð°Ð³Ð¾":10602,"ĠÐ¿ÑĢÐ´Ðµ":10603,"ÑĢÐ°ÐºÑĬ":10604,"ÑĸÑħÑĬ":10605,"ÑĢÐ¸Ð²ÑĬ":10606,"ĠÐ¿ÑĢÐ¸ÑģÑĤêĻĭÐ¿Ð¸":10607,"ĠÐ¶Ð¾":10608,"ĠÐ²ÐµÐ´":10609,"ĠÐŁÑĥ":10610,"Ð´Ñ£Ð»ÑĬ":10611,"ĠÐ²Ð°Ð¼ÑĮ":10612,"Ð²ÑĮÐ½Ð¾":10613,"ĠÐ¶Ð¸ÑĢÑĬ":10614,"ĠÐ²ÑĭÐ²ÐµÐ´":10615,"ĠÐľÐ¾Ð¸":10616,"ĠÐ¿ÑĢÐ°Ð²Ð°":10617,"ĠÐµÑģÑĤÑĮÐ»Ð¸":10618,"ÑĨÑĮÐºÐ°":10619,"ĠÐ¸ÑģÑĨÑĭ":10620,"ĠÐ´Ð¾Ð¼Ð¾Ñĥ":10621,"Ð²ÑĪÐµÑģÑı":10622,"ĠÐ²Ð¾ÑģÐ¾Ð»Ð¸":10623,"ĠÐ§ÑĤÐ¾Ð±Ñĭ":10624,"ĠÐ¼ÑĮÐ½Ðµ":10625,"ĠÑĢÐ°êĻģêĻ¿":10626,"Ð°ÑĢÑĮÑİ":10627,"Ð¿ÑĥÑīÐµÐ½Ñĭ":10628,"ĠÑĤÐ¾ÑĢÐ³Ñĥ":10629,"ĠÐ¼Ð¾Ð³êĻĭ":10630,"ĠÐºÑĢÐ°ÑģÐ¾ÑĤÑĭ":10631,"ĠÑ¥ÑģÐ¼ÑĬ":10632,"ĠÐ·Ð°Ð¿Ð¸ÑģÑı":10633,"ĠÐ¼Ð°Ð½Ð°ÑģÑģ":10634,"ĠÑĩÐ»Ð¾Ð²Ñ£ÐºÑĥ":10635,"ĠÑģÑĢÐµÐ´Ñ£":10636,"ĠÑģÐ»ÑĥÐ¶Ð¸Ð»ÑĭÐµ":10637,"ĠÐ½Ð°Ð¿Ð°Ð´Ðµ":10638,"ĠÐ´Ð°Ð²ÑĸÐ´êĻĭ":10639,"ĠÑģÐ¾Ð²ÐµÑĢÑĪÐµÐ½":10640,"ĠÐ¿Ð¾Ð³ÑĥÐ±Ð¸ÑĤÐ¸":10641,"ĠÐµÐ¿Ñģ":10642,"ĠÐ¿Ð¾Ð¼ÐµÑīÐ¸ÐºÐ¸":10643,"ĠÐ±Ð¾Ð»Ñ§ÑĢÐµ":10644,"ĠÐ°ÑĢÑħÐ¸Ð¼Ð°ÑĢÐ¸ÑĤÑĥ":10645,"ĠÐ½Ð°ÑģÐ»Ñ£Ð´ÑĸÐµ":10646,"Ð¸ÑģêĻĭÑģÑĬ":10647,"ĠÐ½ÐµÐ¿ÑĢÐµÑģÑĤÐ°Ð½":10648,"ĠÑĦÐµÑ¡Ð´":10649,"ĠÐºÐ»ÐµÐ²ÐµÑĤÑĮÐ½Ð¸ÐºÐ°":10650,"ĠÑħÐ¾ÑĨÑĮÑĪÐ¸":10651,"ĠÐ¸Ð½ÑĭÐ¸":10652,"Ñ£Ð·":10653,"ĠÑĤêĻĻ":10654,"ĠÑĤÑĢÐ°Ð²":10655,"ÑģÑĤÐ²Ñĭ":10656,"ĠÐ³ÑĢÑĥÐ´Ð¸":10657,"ĠÐ½ÐµÑģÑĤ":10658,"Ð»Ð¸ÑĨÐ¸":10659,"Ð»Ð¸ÑĨÑĭ":10660,"ĠÐ°ÑĤÐ¸":10661,"Ð½Ð°ÑĤÐ°":10662,"ĠÐ´Ð°ÑģÑĤÐµ":10663,"ĠÑ¿Ð±Ñ£":10664,"ĠÑģÑĬÐ±":10665,"Ð°ÐºÐ¾Ð½ÑĬ":10666,"ÑĩÐ¸Ð½ÑĬ":10667,"Ð¼Ð°ÑĪÐ¸":10668,"ĠêĻĹÐºÑ¡":10669,"ĠÐ¾ÑĤÐºÐ°":10670,"ĠÐ»Ð¸ÑģÑĤÑĮ":10671,"ĠÑĸÐ²Ð°Ð½":10672,"Ð³Ð°Ð»":10673,"Ð±Ñ£ÑīÐ°":10674,"ÑģÑĤÐ²ÑĸÐ°":10675,"ĠÑģÑ£ÑĩÐ°":10676,"ÑģÑĤÐ°Ð²Ð»Ñ§":10677,"ĠÑģÑ¹Ð´ÑĬ":10678,"ĠÐ±êĻĳÑģÑĤÑĮ":10679,"ĠÐ²Ð¾ÑģÐºÑĢ":10680,"ĠÐ¼Ð½Ð¾Ð³Ñ¡":10681,"ĠÑĢÐ¾Ð´Ð¸ÑĤÐ¸":10682,"ĠÐ¿Ð¾ÑĪÐ»Ð¾":10683,"ĠÐºÑĢÐµÑģÑĤÑĮÑıÐ½Ð¾Ð¼":10684,"ĠÐ½ÑĭÐ½ÐµÑĪ":10685,"ĠÐ±ÐµÑģÑ£Ð´Ñĭ":10686,"ĠÐ¸Ð·Ð±Ð°Ð²Ð»Ñ§":10687,"ĠÐ·Ð»Ð¾Ð±Ð°":10688,"ĠÐ½ÐµÐ²Ð¸Ð´Ð¸Ð¼Ð¾":10689,"ĠÑıÑĢÐ¾Ð¿Ð¾Ð»ÐºÑĬ":10690,"ĠÑĢÐ¾Ð¼Ð°Ð½Ð°":10691,"Ð°ÑĢÐ°":10692,"Ð»ÑģÑ§":10693,"Ð¼Ð½Ð°":10694,"Ð´Ð¾Ð»Ñ£":10695,"ĠÑĤêĻĹ":10696,"ÑħÐ¾Ð²Ð°":10697,"ĠÐ¾ÑĩÐµÐ¹":10698,"ÑĤÐ¸ÑĤÑĬ":10699,"Ð²Ð°ÑİÑĤÑĬ":10700,"ĠÐ²ÑĬÐ´":10701,"êĻĹÑĤ":10702,"Ñ¡Ð±Ð¸":10703,"ĠÑ¡Ð±Ð¾":10704,"ĠÑ¡ÑģÑ¹":10705,"ĠÐ¿ÑĢÐ¸ÑıÑĤÐ¸":10706,"ĠÐ·Ð°Ð²":10707,"Ñ«ÑŃ":10708,"ĠÐ½Ð¸ÐºÐ¾":10709,"ĠÐ¾ÑĥÐ¼ÑĮ":10710,"ÑīÐµÐ½Ð¸Ð¸":10711,"ÑĩÐµÑĪÐ¸":10712,"Ð½ÑĥÑĪÐºÐ°":10713,"ĠÑıÐ¸":10714,"Ð»Ñ£Ð·Ðµ":10715,"ÑīÐ°Ð¸":10716,"Ð¶Ð¸Ð¸":10717,"ÑīÐ¸ÑģÑı":10718,"Ð³Ð°ÑĤ":10719,"ĠÑ¹Ñĩ":10720,"ĠÐ¿Ð¾Ð¼êĻĳÑĪ":10721,"ĠÐ³Ð¾ÑģÑĥÐ´Ð°ÑĢÑĭ":10722,"ĠÐ¿Ð¾Ð³ÑĢÐ°":10723,"ĠÐĽÐµÐ²":10724,"ĠÐ¿ÑĢÐµÐ´ÑģÑĤÐ¾":10725,"Ð½Ð¾ÑĥÐ¾ÑĥÐ¼Ð¾Ñĥ":10726,"ĠÑģÐ»ÑĥÑĩÐ¸":10727,"ĠÐ±Ð¾ÑıÑĢÑĭ":10728,"ĠÐ²Ð¾Ð´Ñ§":10729,"ĠÐ¼ÑĬÐ»":10730,"ĠÑģÐ²ÑıÑĤÐµÐ¸":10731,"ĠÐ¿ÑĢÐ¸ÐºÐ°Ð·Ð½ÑĭÐ¼":10732,"ĠÐ²Ñ£ÑĢêĻĳ":10733,"ĠÐ¿Ð¾Ð±Ñ£Ð´":10734,"ĠÐ´Ð¾ÑĢÐ¾Ð³Ð°":10735,"ĠÐ±ÐµêĻģÐ°ÐºÐ¾Ð½":10736,"ĠÐ¶Ð°Ð»Ð¾Ð²Ð°Ð½ÑĮÑı":10737,"ĠÐ¾Ð±ÑĢÑ£ÑģÑĤÐ¸":10738,"ĠÑģÐ¸Ð»Ð½Ð¾":10739,"ĠÐ¾Ð²ÑģÐ°":10740,"ĠÐ²ÑĬÑģÑĤÐ°Ð²ÑĬ":10741,"ĠÑĢÐ¾Ð¶Ð´ÑĮ":10742,"ĠÐ¿ÑĢÐ¸Ð³Ð¾Ð¶Ð°":10743,"ĠÑĥÐ¼ÐµÑĢÑĪÐ¸Ñħ":10744,"ĠÐµÑµÐ°":10745,"ĠÐºÐ¾Ð±ÑĭÐ»":10746,"ĠÐ½Ð°Ð´Ð¾Ð±ÐµÑĤ":10747,"ÑĤÐ²ÑĮÑĢ":10748,"Ð½Ð½Ñĭ":10749,"ĠÐ¸Ð²ÐµÑĢ":10750,"ÑģÑĤÑĢÑĥ":10751,"Ð¿Ð»ÑĬ":10752,"Ð¾Ð»Ð½Ðµ":10753,"ĠÑĢÐµÐ´":10754,"ĠÐµÑĸ":10755,"ĠÐ»Ð¾Ð¶Ðµ":10756,"Ð½Ð°ÑĤÐ¸":10757,"ĠÐ´Ð°ÑĢêĻĭ":10758,"ÑĢÐ¸Ð½Ðµ":10759,"Ð¾ÐºÑĮ":10760,"ĠÑĢÐ°Ð´Ð°":10761,"ĠÑĢÐ°Ð´Ð¾Ñĥ":10762,"ĠÑģÑĬÐ½Ñ£":10763,"ĠÑģÐ¸â¸¯":10764,"ÑĢÑĮÑİ":10765,"ĠÐ²Ñ£Ð´Ñ£ÑĤÐ¸":10766,"ÑīÐ°Ñİ":10767,"Ð¶Ð¸Ð¼":10768,"Ð²ÐµÐ¸":10769,"ĠÐ¿Ð¾Ð´ÑĢÑĥ":10770,"ĠÑģÐ²ÐµÐ´":10771,"ĠÑĢÐ°Ð·ÑĬ":10772,"ÑĤÑĭÑ§":10773,"ÑģÑĤÐµÑħ":10774,"ĠÑģÐ»Ð°Ð²Ð¾Ñİ":10775,"Ð¿ÑĢÐ°Ð²ÑĮ":10776,"ĠÐ³ÑĢÑ£ÑģÐ¸":10777,"ĠÐ¼Ð¾ÐµÑı":10778,"ÑģÑĤÑ£ÑħÑĬ":10779,"ĠÐ·Ð½Ð°Ð¼ÐµÐ½ÑĮ":10780,"ĠÑĤÑĮÐ¼Ð°":10781,"ĠÐ½Ð¾Ð²Ñ¹":10782,"Ð»Ð¾ÑĥÑİ":10783,"Ð¾Ð²Ð¸ÑĩÑĥ":10784,"ĠÑħÐ¾Ð´Ð¸Ð»":10785,"ĠÑĥÑĩÐ¸Ð½Ð¸ÑĤÑĮ":10786,"ĠÐ±ÑĭÐ²Ð°ÑİÑĤÑĮ":10787,"ĠÐ´ÑĢÐµÐ²Ðµ":10788,"ĠÑĨÐ°ÑĢÐµÐ¹":10789,"ĠÐ³Ð¾ÑģÑĥÐ´Ð°ÑĢÐµÐ²ÑĭÐ¼":10790,"ĠÐ¿ÑĢÑĬÐ²Ñ£Ðµ":10791,"ĠÐ¿ÑĢÐ¸Ð½Ð¾ÑĪÐµÐ½":10792,"ĠÐ¿ÑĢÐ¸Ð²ÐµÐ´ÑĥÑĤ":10793,"ĠÐ¿Ð»ÑĬÑĤÐ¸":10794,"ĠÑįÑĤÑĥ":10795,"ĠÐ²Ð´Ð°Ð»ÑĮ":10796,"ĠÑ¡Ð²ÑģÐ°":10797,"ĠÑĢÐ¾Ð·Ð±Ð¾Ðµ":10798,"ĠÑģÐ¿Ð¾Ð»Ð½Ð°":10799,"ĠÑĩÐµÑĢÐ½Ð¸Ð³Ð¾Ð²Ñĥ":10800,"Ð¼â¸¯":10801,"ĠÐ¾Ð²Ð°":10802,"ĠÐ¾ÐºÐ»Ð°":10803,"ÑĨÑĶÐ²ÑĬ":10804,"Ñ¹Ð¸":10805,"ĠÐ¶ÐµÐ½Ð¾Ñĥ":10806,"ĠÑģÑĤÑĢÐµÐ¼":10807,"ĠÐĲÐºÑĭ":10808,"ĠÐ¿ÑĢÐ¸Ð´ÐµÑĤ":10809,"Ð²Ð¸Ð»Ð¸":10810,"ÑģÑĤÐ¸Ð»ÑĬ":10811,"ĠÑģÑĬÐºÐ°êĻģÐ°":10812,"ĠêĻĹÐ·":10813,"ĠÐĴÐ¾ÑĤ":10814,"ĠÐºÐ°ÑĪ":10815,"Ð¼Ñ£Ð¸":10816,"ĠÐ¿Ð¾ÐºÐ»Ð¾":10817,"ĠÑĨÐ°ÑĢÑ£":10818,"Ð±Ð°Ð»":10819,"ĠÑģÑĤÐ°Ð½ÐµÑĤÑĬ":10820,"Ð¼ÐµÐ½ÐµÐ¼ÑĬ":10821,"ĠÒĨÒĨ":10822,"ĠÑĨÑĢÑĤÐ²":10823,"ĠÐ¿ÐµÑĢÐµÐ¼Ðµ":10824,"ĠÑģÐ¾Ð±Ð¸":10825,"Ð·ÑĮÑĸ":10826,"ĠÑģÑĤÐ°ÑĢÐ¾Ð¸":10827,"ĠÐ¸ÑģÐ¿Ð¾ÑĢ":10828,"ĠÑĤÐ²Ð¾ÑĢÑı":10829,"ĠÐ´Ð¾Ð±ÑĢÑ¹":10830,"Ð½ÑĸÑĶ":10831,"ĠÐ¥Ð¾Ð»Ð¾Ð¿":10832,"ÐºÐ¾Ð¼êĻĭ":10833,"ĠÐ½ÐµÐ¿ÑĢ":10834,"ĠÐ¼Ð¾ÑĢÑĮ":10835,"ĠÑģÐ»Ð°Ð²Ñ§":10836,"ĠÐĴÐ»Ð°Ð´Ñĭ":10837,"ĠÐ²Ð¾Ð»Ð¾Ð´Ð¸Ð¼ÐµÑĢÑİ":10838,"ĠÐ²Ð½Ð¸Ð´Ð¾ÑĪÐ°":10839,"Ġ1000":10840,"ĠÑĩÐµÑĤÐ²ÐµÑĢÑĤÑĮ":10841,"ĠÑģÑĢÐ°Ð¼Ð¾ÑĤ":10842,"ĠÐ´Ð²Ñ£Ð¼Ð°":10843,"ĠÐ¿Ð¾ÑĤÑĢÐµÐ±Ñ¹":10844,"ĠÐ¸ÑģÐ¿Ð¾Ð»Ð½Ð¸":10845,"ĠÐ´Ð°Ð²Ð°Ð»ÑĬ":10846,"ĠÐ¾Ð±Ð»Ð°Ð´Ð°":10847,"ĠÑģÐ¾Ð»Ð¾Ð¼Ñ¡Ð½ÑĬ":10848,"ĠÐ´Ð¾ÑģÑĤÐ¾Ð¸ÑĤÑĬ":10849,"ĠÐ½ÐµÐ¿ÑĢÐ°Ð²ÐµÐ´Ð½Ð°Ð³Ð¾":10850,"ĠÐ²Ð¾ÐµÐ²Ð°ÑĤÐ¸":10851,"ĠÑĢÐ¾ÑģÐ¿ÑĢÐ¾ÑģÐµ":10852,"ĠÐºÐ¾Ð»Ð°ÑĩÐ¸":10853,"ĠÐ½ÐµÑīÐ°Ð´Ð½Ð¾":10854,"Ð»Ð½Ð¸":10855,"ĠÐ¸Ð½ÑĭÑı":10856,"Ð¼ÐµÐ»":10857,"ĠÐ²Ñı":10858,"ĠÐºÐ¾Ð»ÑĮÐºÐ¾":10859,"ÑĪÑĶ":10860,"ĠÐ½Ð°ÐºÐ»Ð°":10861,"ĠÐ¿ÑĢÐ¾Ñĥ":10862,"Ð¼ÑĬÐºÐµ":10863,"êĻĹÐ¶Ðµ":10864,"Ð¾ÑĤÐ¾Ñĥ":10865,"ĠÐ¿ÑĢÐ¸Ð¼Ð¾Ð»":10866,"Ð´ÐµÑĪÑĮ":10867,"ĠÑĨÐ²Ñ£":10868,"ĠÐ¾ÑĥÐ¼Ð°":10869,"ĠÑģÐ¸Ð½Ð¾":10870,"ĠÑģÐ¸Ð»ÐµÐ½ÑĬ":10871,"ĠÐ¿Ð¾ÑģÐ»Ð¾Ð²ÑĬ":10872,"ĠÐ´Ð¾ÑģÑĤ":10873,"Ð±ÐµÐ¶Ð¸ÑĤ":10874,"ĠÐĳÐµÐ»":10875,"ĠÐľÐ¸ÑĤ":10876,"ÑģÐºÐ°Ð°Ð³Ð¾":10877,"ĠÐ»Ñ£Ð¿Ð¾ÑĤ":10878,"ĠÐºÐ¾Ð½Ð´ÑĢÐ°":10879,"ĠÑĦÑĢÑ§":10880,"ĠÐµÐ¼ÑĥÐ¶Ðµ":10881,"ĠÐ¿Ð¾Ð²Ð¾Ð»":10882,"ĠÐ´ÑĮÐ¼ÑĮ":10883,"ĠÐµÑģÐ¼Ñ§":10884,"ĠÐ¶Ð¸Ð²Ð¾ÑĤÐ¸Ð½Ð°":10885,"ÐµÐ½ÑĭÐ¸":10886,"ĠÐºÐ¾Ð»Ð¾":10887,"ĠÑģÑĤÐ¾Ð»Ðµ":10888,"ĠÑģÐ¾ÑĥÑīÐµ":10889,"ĠÐ½ÐµÐ¸Ð¶Ðµ":10890,"ĠÐ¸Ð´ÐµÑĪÑĮ":10891,"ĠÐŀÑĤÐ¿ÑĥÑīÐµÐ½Ñĭ":10892,"ĠÐ¶Ð¸ÑĤÐ¸Ñı":10893,"ĠÐ´ÑĢÑ¹Ð¶Ð±Ð°":10894,"ĠÐĴÐ¾ÐµÐ²":10895,"ĠÐ²Ð·ÑĭÑģÐºÐ°":10896,"ĠÐ¿Ð¾Ð³ÑĢÐµÐ±Ñ£":10897,"ĠÐ¿ÑĢÐ°Ð²Ð¸Ð»Ð°":10898,"ĠÐĳÐ»Ð³":10899,"ĠÐ·Ð²Ñ£ÑĢÐ¸":10900,"ĠÐµÑģÑĮÐ¼ÑĬ":10901,"ĠÑĢÐ¾ÑģÑĤÐ¸ÑģÐ»Ð°Ð²":10902,"ĠÐ²ÐµÑĢÐµÑĪÑĮ":10903,"Ð¾Ð³Ð¾Ð²Ð¾ÑĢÐ¸ÑĤ":10904,"ĠÑĤÐ°ÑĤÐ°ÑĢÐ¸Ð½Ð°":10905,"ĠÑĢÐ¾Ð·Ð±Ð¾Ð¹Ð½Ð¸ÐºÐ¸":10906,"ĠÐ¿Ð¾ÑĨÐµÐ»":10907,"ĠÑģÐ¼ÐµÐ½Ð¾Ð²Ð°":10908,"ĠÐ¾Ð¶Ð¸Ð´Ð°":10909,"ĠÐ³Ð»ÑĥÐ±Ð¾ÐºÐ¸Ðµ":10910,"ĠÐºÐ¾ÑģÑĤÑ§Ð½ÑĤÐ¸":10911,"ĠÐ²ÑĮÑĢÑĮÑĪÑĮ":10912,"ĠÐ²ÑģÑ£Ð²Ð¾Ð»Ð¾Ð´ÑĬ":10913,"ĠÐĲÑĦÐ°Ð½Ð°ÑģÐ¸Ñİ":10914,"Ð»Ð¾Ð¼Ð¸":10915,"ĠÐ²ÐµÐ½":10916,"Ð·Ð¾Ð²Ð°":10917,"ĠÐ¾Ð»Ðµ":10918,"ĠÐ³ÑģÐ¸":10919,"ĠÐ½ÐµÐ´Ñĥ":10920,"ĠÐ½ÐµÐ´êĻĭ":10921,"Ð»Ð¸Ñħ":10922,"Ð»Ð¸ÑħÑĬ":10923,"ÐµÐ½ÑĹÑ§":10924,"Ð´Ð°Ð²ÑĬ":10925,"Ð¸ÑĤÐ²Ð°":10926,"êĻģÐµÐ¼":10927,"ĠÐ½Ð¸ÐºÐ¸":10928,"ĠÐ¶ÑĢÑĮ":10929,"ĠÑ¹ÐºÐ°":10930,"ÑĨÐ¸Ð½Ð¸":10931,"Ð»ÑıÐ¹":10932,"ĠÐ¿Ð¾Ð³Ñ¹":10933,"ÐµÐ²Ð½Ð°":10934,"ĠÎµ":10935,"ĠÑģÐ¿ÑĢÐ¾Ñģ":10936,"ĠÐ³ÑĢÐ°Ð¼Ð¾ÑĤêĻĭ":10937,"ĠÐ¸ÑģÐ¿ÑĢÐ°Ð²Ð¸ÑĤÐ¸":10938,"Ð½ÑĸÑı":10939,"ĠÑĢêĻĭÐ±Ð»Ñ§":10940,"ÐµÐ½Ð¸êĻĹ":10941,"ĠÑĤÑĢÐµÐ¿":10942,"ĠÑģÐ¾ÐºÐ¾Ð»":10943,"ĠÐºÑĢÐµÑģÑĤÑĮÑıÐ½Ð¸Ð½":10944,"ĠÐ±ÑĥÐ´ÑĥÑĩÐ¸":10945,"ĠÐ´ÑīÑĶÑĢÐ¸":10946,"ĠÐ¾ÑĤÐµÑĨÑĮ":10947,"ĠÐ´Ð¾ÐºÐ»Ð°Ð´":10948,"ĠÑĩÑĢÐµÐ·":10949,"ĠÐ´Ð²ÑĮÑĢÐ¸":10950,"ĠÐ¿Ð¾Ð³Ð¸Ð±ÐµÐ»ÑĮ":10951,"ĠÐ¸Ð½Ð°ÐºÐ¾":10952,"ĠÐ·Ð°ÑħÐ°ÑĢ":10953,"Ð»Ð¸Ð¼Ð¿Ð¸Ñı":10954,"ĠÐ¿ÑĢÐ¿Ð´Ð±Ð½Ð°Ð³Ð¾":10955,"ĠÐ¼Ð¾Ð»ÐµÐ±Ð½Ð°Ñ§":10956,"ĠÐ²Ð¾Ð½ÑĮÐ¶Ðµ":10957,"ÑĤÐ¾Ð²ÑĬ":10958,"Ð½Ð¾Ð¶":10959,"Ð»Ð¾Ð³Ð¾":10960,"Ð»â¸¯":10961,"Ð²Ð½Ð¾Ðµ":10962,"Ð²Ð½ÑĭÐ¸":10963,"ĠÐ¸Ð´ÐµÑĤÑĬ":10964,"ĠÐ½Ð½êĻĹ":10965,"ÑģÑĤÐ¾Ð²ÑĬ":10966,"Ð³ÐµÐ»Ð¸":10967,"ÑĩÑĤ":10968,"Ð¿Ð¸ÑĤ":10969,"ÐµÐ¼Ð°Ð³Ð¾":10970,"ĠÐ·Ð¾Ð²Ðµ":10971,"ĠÐ´Ð°ÑĤ":10972,"ĠÐ´Ð°ÑĢÑ¹":10973,"Ð´Ð¸Ð½Ð°Ð³Ñ¡":10974,"êĻĳÑ§":10975,"ĠÑĢÐ°ÑģÑĤÐ°":10976,"ĠÑĢÐ°Ð´Ð¾Ð²Ð°":10977,"ĠÐ¾ÑĤÑģÐµ":10978,"Ð½ÑĮÑ¥":10979,"Ð²ÐµÑĨÑĬ":10980,"ĠÐļÐ¾ÑĢ":10981,"ĠÐļÐ¾Ð½Ðµ":10982,"ĠÐ²Ð¾Ð·Ð´ÑĭÑħÐ°":10983,"ĠÑ§Ðº":10984,"ĠÐ´Ð¾Ð¼ÑĮ":10985,"ĠÐ»ÑİÐ´Ñĸ":10986,"ĠÑħÐ¾ÑĤÑ§ÑĤÑĮ":10987,"ĠÐ»ÐµÑģÑĤÑĮ":10988,"Ð»ÐµÐºÑģÐ¸":10989,"ĠÐ¿ÑĢÐ¾Ð´Ð°Ð²Ð°ÑĤÐ¸":10990,"Ð¿Ñ£Ð»Ð¸":10991,"ĠÐ³Ð°Ð»Ð°Ð°":10992,"ĠÑģÐ»Ð°Ð²Ñ¹":10993,"ĠÐ½Ð°ÐºÐ°Ð·Ð°ÑĤÐ¸":10994,"ĠÐ²Ð°ÑĢÐ²Ð°":10995,"ĠÐ±Ð¾ÑĢÐ·Ð¾":10996,"ĠÐ¿ÑĢÐ¸ÑĪÐ»Ðµ":10997,"ĠÐºÐ°Ð¼ÐµÐ½Ðµ":10998,"ĠÐĴÑģÐµÐ³Ð´Ð°":10999,"ĠÐ¿Ð»Ð°ÐºÐ°ÑĤÐ¸":11000,"ĠÐ¿Ð¾ÐºÐ»Ð°Ð½Ñı":11001,"ĠÐ¿Ð¾Ð»Ð¾ÑĨÐºÐ¾Ð³Ð¾":11002,"ĠÐ¿ÑĢÐ¾ÑĩÐ¸Ð¸":11003,"ĠÑģÐ¾Ð²Ñ£ÑĤÐ¾Ð²Ð°ÑĤÐ¸":11004,"ĠÑĤÐ¸ÑĥÐ½Ð¾Ð¼":11005,"ĠÏĢ":11006,"Ð¾ÑģÑĤÐ°":11007,"Ðµn":11008,"Ð¸Ð½Ð¾":11009,"ĠÐ²ÑĤÐµ":11010,"ÑĥÐ¼Ð¾Ñĥ":11011,"ÑĩÐ½Ñĭ":11012,"ĠÐ½Ð°Ð²êĻĭ":11013,"ĠÐ³ÑĢÑĭ":11014,"Ð»Ð¸Ðµ":11015,"Òĥ.":11016,"Ð¶ÑĸÐµ":11017,"Ð¾Ð³ÑĮ":11018,"ÐºÐ°Ð»Ð¸":11019,"Ð¼Ð¸ÑĤÑĮ":11020,"ĠÑħÑ¹Ð´":11021,"ĠÑħÐ°ÑĢÑ£":11022,"ĠÐ½Ð¸Ð½Ðµ":11023,"Ð½ÑĮÑĨÐµ":11024,"ĠÐºÐ°Ð»ÐµÐ½":11025,"ĠÐºÐ°Ð¼Ñ§":11026,"ĠÐ¿Ð¾ÑģÑĢÐ°Ð¼":11027,"ĠÐ±ÑĢÐ°Ð½":11028,"ĠÐļÑĢÐµ":11029,"ÑģÑĤÐ¾Ñİ":11030,"ÑĪÑĮÐºÑ£":11031,"ĠÐ±ÐµÐ·Ð°ÐºÐ¾Ð½Ð¸":11032,"ĠÐķÐ³Ð¸Ð¿":11033,"ĠÐ¿ÐµÑĢÐµÐ»":11034,"ĠÑģÑ£ÑģÑĤÐ¸":11035,"Ñ³Ð°Ð½":11036,"ÐµÐ½Ð¾Ð¸":11037,"ĠÐ¿Ð¾ÑģÐ»Ð°Ð½Ñĭ":11038,"ĠÑģÑĤÐ°ÑĢÑĭÐ¹":11039,"Ð·Ð¸ÑĢÐ°ÑĤÐ¸":11040,"Ð¾ÑĢÐ°Ð·":11041,"ĠÐ·Ð»Ð°ÑĤÐ¾Ð¼ÑĬ":11042,"ĠÐ·Ð½Ð°Ð¼ÐµÐ½Ð¸":11043,"ĠÐ¿ÑĢÐ¾ÑģÐ²Ñ£ÑīÐ°":11044,"ĠÑĩÑĮÐ¸":11045,"ĠÑģÑĤÐµÐ¿":11046,"ĠÐ°Ð½Ð³Ð»":11047,"ĠÐ·Ð°ÐºÐ¾Ð½Ñ¹":11048,"ĠÐ¿ÑĢÐ°Ð²ÐµÐ´Ð½Ð°Ð³Ð¾":11049,"ĠÐ±ÑĢÐ°ÑĤÐ¸Ðµ":11050,"ĠÐ»Ð¾ÑĥÐ±Ð¾":11051,"ĠÑģÐ²ÑıÑĤÑĭÑħÑĬ":11052,"ĠÑĤÑĭÑģÑ§ÑīÑĭ":11053,"ĠÐ±Ñ£ÑģÐ¾Ð²ÑĮ":11054,"ĠÐ¿Ð¾ÑħÐ²Ð°Ð»Ñĭ":11055,"ĠÐ³Ð¾ÑĢÐ°ÑħÑĬ":11056,"ĠÐ¡ÑĤÑĢÐ¾ÐºÐ°":11057,"ĠÑģÐ¸Ð´Ð¾ÑĢÐµ":11058,"ĠÐ¿ÑĢÐ°Ð·Ð½Ð¸ÐºÐ¸":11059,"ĠÑģÐ¼Ð¸Ð½Ð°":11060,"ĠÑģÐ¿Ð°ÑģÐµÐ½Ð¸Ðµ":11061,"ĠÐ¿ÑĢÐ¸ÐµÑħÐ°Ð»ÑĬ":11062,"ÐºÐ¾ÑĢÐ¸Ð·":11063,"ĠÐ³ÐµÐ½ÐµÑĢÐ°Ð»Ñĭ":11064,"ir":11065,"Ð°Ð½Ðµ":11066,"ĠÐ´Ñı":11067,"Ð³Ð¾Ð¹":11068,"ÑĪÐµÐ¼Ñĥ":11069,"ĠÐ½Ð°êĻģÐ½Ð°":11070,"ĠÐ¿ÑĢÐ¸ÑĤÑĬ":11071,"Ð¿Ð¾Ð±":11072,"Ð¾ÑĢÐ¾Ð¼ÑĬ":11073,"ĠÐ½ÐµÐ»":11074,"Ð»Ð°Ð½Ñı":11075,"ÑĸÑĤÐ¸":11076,"Ñ¹ÑīÐ°":11077,"ĠÐµÑ³Ð¸Ð¼":11078,"ĠÐ»Ð¾Ð¶Ð¸":11079,"ĠÑģÑĤÐ³":11080,"ÑĢÐ¸ÑģÑ§":11081,"Ð²Ð¸ÑĨÐ¸":11082,"ĠÐ½Ð¸Ð½Ñ£":11083,"ĠÐºÐ°Ñ§":11084,"ĠÐ¿ÑĢÐ¾ÑĩÐ¸Ñħ":11085,"ĠÐĳÐ¸":11086,"ĠÑ¹ÑĤÑ£":11087,"ĠÐ¾Ð±ÑĢÑ§":11088,"ĠÐ±Ñ£ÑħÑĬ":11089,"ĠÑģÑĤÑĢÐ°ÑĤÐ¸":11090,"ĠÑĩÐ¸Ð½Ð¸ÑĤÑĮ":11091,"ĠÐ¿ÐµÑģ":11092,"Ð½ÑĭÐ¸Ð¼":11093,"ĠÑģÑĥÑģÑ£":11094,"ÐµÐ²ÑĢÐ°":11095,"ĠÐ´Ð²Ð¾ÑĢÐ¾":11096,"ĠÐ´ÑĢÐ¾Ð²":11097,"ĠÐµÐ´Ð¸Ð½Ð¾Ñİ":11098,"ĠÐ²ÑĬêĻģêĻ¿":11099,"ĠÐ¼ÑĮÑĢÑĤ":11100,"ĠÑħÑĢÐ°Ð¼Ñ£":11101,"Ð½Ð¾Ð²ÐµÐ½ÑĸÐµ":11102,"ĠÐ½êĻĳÐ½êĻĹ":11103,"ĠÑģÐ¿Ð°ÑĤÑĮ":11104,"ĠÑģÐ¿Ð°ÑģÐµÐ½":11105,"ĠÐ¾Ð±ÑĭÑĩÐ°Ñİ":11106,"ĠÑĪÐ¸ÑĢÐ¸Ð½":11107,"ĠÐ²Ð¾Ð»Ð¾ÑģÑĤÐµÐ»Ð¸":11108,"ĠÑģÐ²Ð¸Ð½ÑĮÐ¸":11109,"ĠÑħÐ²Ð°Ð»Ñı":11110,"ĠÐĳÐ¾Ð¶Ð¸Ð¹":11111,"ĠÐ´ÐµÐ½Ð³Ð°":11112,"ĠÐ²Ð¸Ð½Ð¾Ð²Ð°ÑĤ":11113,"ĠÐ²Ð¸Ð½Ð¾Ð²Ð°ÑĤÑĬ":11114,"ĠÐ±Ð¾Ð»Ð³Ð°ÑĢÑģÐºÐ¸":11115,"ĠÐĽÑĥÐºÐ°":11116,"ĠÐĺÑģÐ¿ÑĢ":11117,"ĠÑ¡ÑģÑĤÑĢÐ¾Ð²Ðµ":11118,"ĠÐ·Ð´ÑĢÐ°Ð²Ð¸Ðµ":11119,"Ð½Ð°ÑĤÑĨÐ°ÑĤÐ¸":11120,"mus":11121,"tÐµ":11122,"âĪĻ":11123,"ĭ®":11124,"Ð¼Ð¾Ð²":11125,"Ð¼ÑĸÐ¸":11126,"ĠÐ²Ð½":11127,"ĠÐ¾Ð´Ð¸Ð½ÑĬ":11128,"ĠÐ½Ð°ÑĨÐ°":11129,"ĠÐ½ÐµÑģÑĤÑĮ":11130,"ÒĥâĢĲ":11131,"ĠÐ¿Ð¾Óı":11132,"ĠÐ¿Ð¾ÐµÐ´Ð¸":11133,"ĠÐ´Ð°Ð²ÑĬ":11134,"ĠÑ¡Ðµ":11135,"ĠÐ¿ÑĢÐ¸Ð¼ÐµÑĤ":11136,"ĠÑģÑĬÐ¼Ð¾ÑĤ":11137,"Ġ:Â·":11138,"ÑĩÐ¸Ð½Ðµ":11139,"ĠÐ²ÐµÑģÑĤÐµ":11140,"ÑĤÐ°ÐºÐ¾":11141,"ĠÑģÐ¸ÑħÑĮ":11142,"ĠÑģÐ¸Ð³Ð¾Ð²Ð¾":11143,"ĠÐ¼Ð¸ÑħÐ¸":11144,"ĠÐ¼Ð¸ÐºÐ¾Ñĥ":11145,"Ð´Ð¾ÑħÐ¾Ð¼":11146,"ĠÐ²Ð¾Ð·Ñ§ÑĤÐ¸":11147,"ĠÐ²Ð¾Ð·ÐµÐ¼Ð¸":11148,"ĠÐ³Ð¾ÑĢÑİ":11149,"ÑĦÑĸ":11150,"ĠÐ±Ñ£Ñİ":11151,"ĠÐ±Ñ£Ð»Ð¾Ð½":11152,"ĠÐ´ÐµÐ¶Ñ§":11153,"ÑĩÑĮÑģÐºÑĭÐ¸":11154,"ĠÐ½Ñ£Ð¶ÑĮ":11155,"Ð»ÑĭÐ¸":11156,"ĠÐºÑĥÐ¾Ð½ÑĮ":11157,"ĠÐ¸Ð¼ÐµÑĤÑĮ":11158,"ĠÑİÐ´Ðµ":11159,"ĠÐ²Ð·ÑıÑĤ":11160,"ĠÐ³ÑĢÑ£ÑģÑ£ÑħÑĬ":11161,"ĠÐ»ÐµÐ¶Ð¸ÑĤ":11162,"ĠÐ³ÑĢÐ¸Ð²Ð½Ð¾":11163,"ĠÐ¿Ð¾Ð±Ð¾Ð¸":11164,"ĠÐ±ÑĮÐ»ÑĬ":11165,"ĠÐ±ÑĮÐ»Ð¾":11166,"ĠÐºÐ¾ÑĥÐ½êĻĳ":11167,"ĠÑĩÑİÐ¶":11168,"ĠÐ²Ð¾ÑģÐºÑĢÑĮ":11169,"ĠÐ»ÑİÐ±Ñ§":11170,"ĠÐ¿ÑĢÐ¾Ð´Ð°Ð»Ðµ":11171,"ĠÐ¿Ð»Ñ¡":11172,"Ð¾Ð±Ð¸ÑĤÑĮÑ¥":11173,"ĠÑĤÑĮÐ±ÑĮ":11174,"ĠÐ³Ð¾ÑģÐ¿Ð¾Ð´ÑģÑĤÐ²êĻĭ":11175,"ĠÐ½êĻĳÐ½ÑĮ":11176,"ĠÐ¼Ð¸ÑħÐ°Ð¸Ð»Ð¸":11177,"ĠÐ¿ÑĮÑĪÑĮ":11178,"ĠÐ²Ð¾Ð´Ð°Ð¸":11179,"ĠÐĶÐ¾Ð±ÑĢÐ¾":11180,"ĠÐ²ÑĬÑģÑħÐ¾":11181,"ĠÐłÐ°Ð´Ñĥ":11182,"ĠÐ±ÑĬÑĢÑĬ":11183,"ĠÐ³ÑĢÐ²Ð½Ð¾":11184,"ĠÐ±Ð»Ð°Ð³Ð¾Ð¿":11185,"ĠÑ¥ÑģÐ¸ÑĦÑĥ":11186,"ĠÑĤÐ¾ÑĥÐ´Ð¾ÑĢ":11187,"ĠÐ¼Ð¾Ð»Ð¸ÑĤÐ²Ð¾Ñİ":11188,"ĠÐ¤ÑĢÐ°Ð³Ð¼ÐµÐ½":11189,"ĠÐ³ÑİÑĢÐµ":11190,"ĠÑĨÐ°ÑĢÐµÐ²Ð°":11191,"ĠÐ¢Ð°ÐºÐ¾Ð²Ð°":11192,"Ð¶Ð´ÐµÐ½ÑĸÐµ":11193,"ĠÐºÐ»ÑİÑĨ":11194,"ĠÑĢÐ¾ÑĥÐ±Ð»Ñ§":11195,"ĠÐ¿Ð¾Ð»Ð°ÑĤÑĥ":11196,"ĠÐºÑĢÑĮÐ½Ð¸":11197,"ĠÐ¿Ð¾Ð¼ÐµÑģÑĤÑĮÑıÑħ":11198,"ĠÐłÑĥÑģÐ¸":11199,"ĠÐ½êĻĳÐ½ÐµÑĨÐ°":11200,"ĠÐºÐ¾ÑĢÐ¾Ð±ÑĮêĻĹ":11201,"Ñ§ÑīÐ°Ñ§":11202,"ĠÐºÑ«Ð½ÑĬ":11203,"Ð»ÑĶÐ²ÑĭÐ¼ÑĬ":11204,"ÐºÐ¾Ð²ÐµÐµ":11205,"ĠÐ²Ñ§ÑĨÑĮ":11206,"ĠÐ¿ÐµÑĤÑĢÑĬÐºÐ¾Ñĥ":11207,"ĠÑĢÐµÐ·Ð°Ð½Ð°":11208,"ĠÑĢÐµÐ·Ð°Ð½Ð¾":11209,"ĠÐ¿ÐµÑĢÐµÐ¼Ñĭ":11210,"ĠÐ·ÐµÐ»ÐµÐ½Ð°":11211,"ÑħÐ¾Ð¶Ð´Ð°ÑĪÐµ":11212,"ĠÐĳÐ¾Ð³Ð¾ÑĢÐ¾Ð´Ð¸ÑĨÐ°":11213,"ĠÑĢÐµÐ·Ð²Ñĭ":11214,"ĠÐ¸ÑģÐ¿ÑĢÐ°Ð²Ð¸ÑĤÑĮ":11215,"ĠÐļÐ°ÑĢÑĤÐ°":11216,"ĠÐ·Ð¾Ð±Ð½Ð¸ÑĨÐ°":11217,"ĠÑħÐ¼ÐµÐ»":11218,"ÑĦÐ¾Ð½Ð¾ÑģÑĥ":11219,"ĠÑģÑĤÑĮÐ¿Ð°Ð½Ð°":11220,"ĠÐºÐ¾Ð±êĻĳ":11221,"ĠÑħÑ£ÑĢÐ¸":11222,"ĠÑģÑĤÐ¾Ð»Ð±ÑĨÐµ":11223,"ĠÑĤÑĥÑĢÐ°Ð±ÑĮÑ¥":11224,"ĠÑģÐ¿Ð¾Ð´Ð¸Ð½Ðµ":11225,"ĠVir":11226,"ĠÑĢêĻĳÐ±Ð°ÑħÑĬ":11227,"ĠÑħÐ°ÑĢÑ£ÑĤ":11228,"ÑĢêĻ¿":11229,"ÑģÐµÐ»":11230,"ÑģÐ°Ðº":11231,"Ð´Ð¾Ð²Ðµ":11232,"ÑħÑĢÑĸ":11233,"Ð±Ð»ÐµÐ½Ð¸Ðµ":11234,"ĠÐ¾Ð³ÑĢÐ°":11235,"ĠÐ¿ÑĢÐ¸ÑĤÐµ":11236,"ĠÐ³Ð»Ñı":11237,"ĠÐ½ÐµÐ¾Ñĥ":11238,"Ð½Ð¸ÑĩÐ¸Ñħ":11239,"ÑīÐµÐ¼Ñĥ":11240,"ÑīÐµÐ½ÑĮÐµ":11241,"ĠÐµÑ«":11242,"Ð²Ð°Ð°Ð³Ð¾":11243,"ÐºÐ°Ð»":11244,"ĠÑģÑĤÐ¾Ð¿":11245,"Ð¾ÑĤÑ¹":11246,"ĠÑ¡Ð½Ð´ÑĢÑ£":11247,"Ð¼Ð¸Ð½ÑĬ":11248,"ÑĢÐµÐ²":11249,"ÑģÐ¸Ð²ÑĬ":11250,"ĠÑģÐ¸ÑĢÐµ":11251,"ÑĩÐ°ÐµÑĤÑĬ":11252,"ĠÐ¸Ð·Ð½ÐµÐ¼":11253,"ĠÑĸÐ½":11254,"Ð¾Ð²Ð¸ÑĨÐ°":11255,"ĠÐ¿Ð¾ÐºÑĢÐ¾Ð²":11256,"ĠÐľÐ½Ðµ":11257,"ĠÐºÐ¾ÑĢÐ½Ð¸":11258,"ĠÑĤÑĢÐ¸ÑĤÑĨÐ°":11259,"Ð²ÐµÐ´Ð¾ÑĪÐ°":11260,"ĠÐ»Ð°ÑĤÑĭ":11261,"ĠÐ¿Ð¾Ð¸Ð´ÐµÑĤÑĮ":11262,"ĠÐ¿ÑĢÐ¾Ð´Ð°Ð²Ð°ÑĤÑĮ":11263,"ĠÑģÑ«ÑīÐ°":11264,"ĠÐ²êĻĳÑĪÑĮ":11265,"ÐºÐ¾Ð»ÑİÐ±":11266,"Ð½Ð¸ÑĨÐ°Ð¼Ð¸":11267,"ĠÐ¾Ð±ÑĭÑĩÐ°Ð¸":11268,"ĠÐ´ÑĢÐ¾ÑĥÐ³Ð¾":11269,"ĠÑ¡ÑģÑ«":11270,"ĠÐ±Ð¾Ð»Ñ£Ð·":11271,"ĠÐ±ÐµÑģÑ£Ð´Ñĥ":11272,"ĠÑĤÐ°ÐºÐ¾Ð²Ð¾Ðµ":11273,"ĠÐ¾ÑĥÑĩÐ¸ÑĤÑĬ":11274,"ĠÑģÐ¸Ð´Ð¾ÑĢÑĥ":11275,"ĠÐ¿ÑĢÐ°Ð·Ð½Ð¸ÐºÑĬ":11276,"ĠÐ¿ÐµÑĢÐ²Ð¾Ð¹":11277,"ĠÐ´Ð¾ÑĢÐ¾Ð³Ñĥ":11278,"ĠêĻĹÑĢÐ¾ÑģÐ»Ð°Ð²Ð°":11279,"ĠÐ²ÐµÐ·Ð´Ðµ":11280,"Ð·Ð½ÐµÐ½Ð¾":11281,"ĠÐĿÐ°ÑģÑĤÐ°ÑģÑĮÑı":11282,"ĠÐ³ÐµÐ½Ð²Ð°":11283,"âĢ»âĢ»":11284,"Ð»Ð¾Ð²Ð¾":11285,"ĠÑĩÐµÑĤÑĬ":11286,"êĻĹÐ½Ð¸":11287,"ĠÑĥÐ·Ð½Ð°":11288,"ĠÑħÑĮ":11289,"ÑģÑĤÑĮÑĸ":11290,"ÑĩÐ¸ÑģÑ§":11291,"Ð½Ñ£Ð¼":11292,"ĠÐ¶Ð¾Ð½Ð°":11293,"ĠÐ¾ÑĤÐºÑĥ":11294,"ĠÐĴÐ´Ñ£":11295,"Ð»ÑĮÐ½Ð¸":11296,"ĠÑĤÐ°ÑĦ":11297,"Ð¾Ð´Ð¸ÑĤÑĮ":11298,"Ð¿Ð¸Ð»ÑĬ":11299,"ÑħÐ°ÑĤÑĮ":11300,"ĠÐ±ÐµÐ·Ð´":11301,"ĠÑģÑĤÑĢÐ°ÑħÐ¾Ð¼":11302,"ĠÐ²ÐµÐ»ÐºÑĭ":11303,"ĠÐ³Ð»Ð°Ð³Ð¾Ð»ÑİÑīÐ¸":11304,"ĠÐ¿Ð¾Ð¿ÑĢÐ¸":11305,"ĠÐ¼ÑĭÑĤ":11306,"ĠÐ¿Ð¾Ð¸Ð´Ð¾Ñħ":11307,"ĠÐ²Ð¾ÑģÑħ":11308,"ĠÐ´ÐµÑĢÐ¶Ð¸ÑĤ":11309,"ĠÑĩÐµÐ»Ð¾Ð²ÐµÐºÐ¾Ð¼":11310,"ĠÐºÐ½Ð¸Ð³ÑĬ":11311,"ĠÐ³Ð¾ÑģÐ¿Ð¾Ð´Ð¸Ð½êĻĭ":11312,"ÑĢÐ¾Ð¼Ðµ":11313,"ĠÐ²ÑĬÑģÐºÑĢÑ£":11314,"ĠÐ¾ÑĥÐ¼ÑĢÐµ":11315,"ĠÐ¿ÑĢÐ¿Ð±Ð½Ñĭ":11316,"ĠÐ¡ÑĭÐ½Ðµ":11317,"ĠÐĺÐ»ÑĮÐ¸":11318,"ĠÐ±ÑĥÐ´ÐµÑĪÑĮ":11319,"ĠÑĪÐµÐ´ÑĪÐµ":11320,"ĠÑĤÑĢÐµÐ±Ñĥ":11321,"ĠÑĤÐ°Ð¼Ð¾Ð¶ÐµÐ½":11322,"ĠÐ½Ð°Ð¼Ñ£Ñģ":11323,"Ð¼Ð½Ð¾Ð¶Ð¸":11324,"ĠÐ±Ð»Ñ¹Ð´ÑĬ":11325,"ĠÐ²ÑģÐµÐ´ÐµÑĢÐ¶Ð¸ÑĤÐµÐ»ÑĮ":11326,"ĠÑīÑĮÑĤÑĮ":11327,"ĠÑģÐµÐ»ÑĬ":11328,"ĠÑģÐ¿Ð¾Ð´Ð¾Ð±":11329,"Ð´ÑĢÐ¾ÑģÑĤÑĮ":11330,"Ð±ÐµÐ½":11331,"ĠÐ³Ð»Ð¸":11332,"ĠÐ½ÐµÐ²Ð¾":11333,"ĠÑĢÐ¾Ð±Ð°":11334,"ÑĨÐµÐ½":11335,"ĠÐ·Ñ£":11336,"ĠÐ·Ð±ÐµÐ¶Ð°":11337,"ÑĢÐµÐ²Ñ¹":11338,"Ð¼Ð°ÑĪÐµ":11339,"ÑĤÐ°Ð°Ð³Ð¾":11340,"ĠÐ¿Ð°ÑģÑĤÐ¸":11341,"ÑīÐ¸Ð¸ÑħÑĬ":11342,"ĠÐ´Ñ£Ð²":11343,"ĠÑĢÑĥÑĨÐµ":11344,"ĠÑĩÐµÐ»Ð¾":11345,"ĠÑ»Ð±":11346,"Ð´ÑĭÐ¹":11347,"ĠÐºÐ¾ÑĤÐ¾ÑĢÐ¾Ð¼Ñĥ":11348,"ĠÑĤÑĢÑĸÐµ":11349,"ĠÑģÐ¿Ð¾Ñģ":11350,"ĠÑħÐ¾ÑĪÑĮ":11351,"ĠÑģÐ°Ð¼Ð¾Ð´ÑĢÑĬ":11352,"ĠÑģÐµÐ¼Ðµ":11353,"ĠÐ¿ÑĢÐ¾Ð´Ð°ÑĤÑĮ":11354,"ĠÐ²ÑģÐ¸ÑħÑĬ":11355,"ÐºêĻĭÑİ":11356,"ĠÑģÐºÐ°êĻģÐ°":11357,"ÑĪÑĤÐ¸Ð¸ÑħÑĬ":11358,"ĠÐ´ÑĢêĻĭÐ³Ð¸":11359,"ĠÑĤÑ¹ÑĤÐ¾":11360,"ÑĩÐ¸ÑĤÑģÑı":11361,"ĠÑĩÐµÐ»Ð¾Ð±Ð¸ÑĤÐ½Ð¾Ð¸":11362,"ĠÐ¿ÑĢÐ¸Ð½Ð¾ÑģÑ§":11363,"ĠÑħÑĢÐ¸ÑģÑĤÐ¸Ð°Ð½":11364,"ĠÑĢÐ¾Ð¶Ð´ÐµÐ½":11365,"ĠÐ»ÑĥÐºÐ°Ð²":11366,"ĠÐĵÐ»Ð°Ð³Ð¾Ð»ÐµÑĤÑĮ":11367,"ĠÐ²ÐºÑĥÐ¿Ñ£":11368,".}":11369,"ÑĤÐ²ÑĬ":11370,"Ð½ÐµÐ½ÑĸÐµ":11371,"ĠÐ´Ð¾Ð²Ñ£":11372,"Ñ§Ð½ÑĸÑ§":11373,"ÑıÐ½Ð¾Ð¼":11374,"Ð·Ð¾Ñĥ":11375,"ĠÐ³Ð¿":11376,"Ð¿ÑģÐ°":11377,"ÑĨÐ°ÑĢ":11378,"ÑĨÐºÑĥÑİ":11379,"ĠÑ¡ÑĤÐ¾":11380,"ĠÑĥÑħÐ²Ð°ÑĤÐ¸":11381,"ĠÐ¸Ð·Ð±":11382,"Ð¶Ð°Ð»":11383,"ĠÐ¢êĻĳ":11384,"ÑĨÐµÐ²":11385,"ĠÑĢÐ°Ð·ÑģÑ£":11386,"ÑģÑĤÐµÑħÑĬ":11387,"ĠÒĨ.":11388,"Ð±ÑĢÐ°Ð½Ð¾":11389,"ĠÑģÑ£Ð´Ð¾ÑĪÐ°":11390,"Ñ³Ð¾ÑĢ":11391,"ĠÐºÑĢÑ¹":11392,"ĠÐ³ÑĢÐ°Ð¼Ð¾ÑĤÐ¾Ñİ":11393,"ĠÐ²Ð»Ð°ÑģÑĤÐµÐ»Ð¸":11394,"ĠÐ¿Ð¸ÑģÐ°Ð»Ð¸":11395,"ĠÐ¿Ð¸ÑģÐ°Ð½ÑĸÐ°":11396,"ĠÐŁÐ¾Ð¸Ð´Ð¸":11397,"ĠÐ¿Ð¾ÐºÐ»Ð¾Ð½Ð¸ÑĤÐ¸":11398,"ĠÐ¼ÑĮÑĸ":11399,"ĠÐ´Ð¸Ð²Ð½Ð¾":11400,"ĠÑĤÑıÐ¶":11401,"Ð½Ð¸ÑĤÑģÑı":11402,"ĠÐŁÑĢÑĸÐ¸":11403,"ĠÐºÑĥÐ¿Ð»Ð¸":11404,"ĠÐ¶Ð¸ÑĤÑĸÐ¸":11405,"ĠÑĨÐ°ÑĢÐµÐ²Ñĥ":11406,"ĠÐ¿Ð°Ð²Ð»Ðµ":11407,"ĠÐŁÑĢÐµÑĩÐ¸":11408,"ĠÑĢÑ¹ÐºÐ¾Ð´Ñ£Ð»ÑĮÑİ":11409,"ĠÑģÐµÑģÑĤÑĢÑĥ":11410,"ĠÐ±ÑĢÐ°ÑĪÐ¾Ð²":11411,"ĠÐ²ÑĤÐ¾ÑĢÐ¾Ð¹":11412,"ĠÐ¼Ð°ÐºÑģÐ¸Ð¼Ð°":11413,"ĠÐľÐ°Ð³Ð¸Ð»ÐµÐ½Ð°":11414,"ĠÐ·Ð°Ð¿Ð»Ð°ÑĤÐ¸ÑĤÐ¸":11415,"ĠÐ½Ð¾Ð²ÑĥÐ³Ð¾ÑĢÐ¾Ð´Ñĥ":11416,"Ð»Ð¾Ð²Ð¸ÑĩÐ°":11417,"ÑĭÐ½Ð¸":11418,"ĠÐºÐ¾Ð¼Ð¾Ñĥ":11419,"ĠÐ¾Ðµ":11420,"Ð¾Ð³êĻĳ":11421,"Ð´Ð°ÑĤ":11422,"ĠÐĲÐ²ÑĢÐ°Ð°":11423,"ĠÑ¡ÑģÐº":11424,"ĠÐ²ÑģÐµÐ¼ÑĮ":11425,"ĠÑ¿Ð¸Ð´Ð¾ÑĪÐ°":11426,"ÑĢÐµÑīÐ¸":11427,"ĠÐ¾ÑĥÐ±ÑĮ":11428,"ÑĩÐ¸Ðº":11429,"Ð¼Ð°ÑĤÐ°":11430,"ĠÐ²Ð¾ÑģÑĤÐ¾Ñĩ":11431,"ĠÐ¾ÑĤÑĨÑĭ":11432,"Ð¾Ð¿ÑĢÐµ":11433,"ĠÐ¿Ð¾Ð»ÑĤÐ¾ÑĢÐ°":11434,"ÑĢÑĮÑĸ":11435,"Ð»Ñ£Ð½ÑĮ":11436,"ĠÐ±ÐµÐ³Ð°Ñħ":11437,"Ð±Ð¸ÑĢÐ°ÑĤÐ¸":11438,"ĠÐ¿ÑĢÐµÐ´Ð°ÑĤÐ¸":11439,"ÑĹÐ¸Ð¼ÑĬ":11440,"ĠÐ²Ð¾Ð·Ð½ÐµÑģ":11441,"ĠÑ¹Ð²Ñ£":11442,"ÑģÐºÐ¸Ð¼Ð°":11443,"Ð»Ñ§ÑĪÐµ":11444,"êĻ¿Ð½Ð°":11445,"Ð±Ð°ÑĤÐ¸":11446,"ĠÑĢÐ°Ð·Ð±Ð¾Ð¹":11447,"ĠÑģÑĤÐ°Ð°Ð³Ð¾":11448,"ĠÑħÐ¾ÑĤÑĮ":11449,"Ð²ÐµÐ´ÑĬ":11450,"ĠÐºÐ¾Ð»Ð¾Ð¼":11451,"ĠÐºÐ¾Ð»Ð¾Ðº":11452,"ĠÑĤÑĮÑĢ":11453,"ĠÑģÐºÐ°Ð¶Ñĥ":11454,"ĠÐºÐ½Ð¸Ð³êĻĭ":11455,"ĠÐ¿ÐµÑĤÑĢÑĥ":11456,"ĠÐ´Ð¾Ð»Ð³":11457,"ĠÑħÐ¾Ð»Ð¾Ð¿ÑģÑĤÐ²Ðµ":11458,"Ð¸ÑĤÐµÐ»Ñ§":11459,"ĠÑģÑĢÑĨÐ°":11460,"ĠÐ¿Ð¾ÑģÑĤÐ°Ð²Ð¸ÑĤÑĮ":11461,"ĠÐ¼Ð¾Ð»Ð¾Ð´ÑĨÑĭ":11462,"ĠÐĶÐ¾Ð±ÑĢÑĭÐ½Ð¸":11463,"ĠÐºÐ»ÑİÑĩÐ¸":11464,"ĠÑģÑĤÐ²Ð¾ÑĢÐ¸Ð»ÑĬ":11465,"ĠÐ²ÑĬÑģÐºÑĢÑĮ":11466,"ĠÐºÐ¾ÑĢÐ°Ð±":11467,"ĠÐ¼Ð¸ÑĢÐ¾Ð¼ÑĬ":11468,"ĠÐ¿ÑĢÐ¸Ð½Ð¾ÑģÐ¸":11469,"Ð½Ð¸ÑĨÐ¾Ñĥ":11470,"ĠÐ¿ÑĢÐµÐ¶Ð½ÐµÐ¼Ñĥ":11471,"ĠÐ´ÐµÑĤÐ¼Ð¸":11472,"ĠÑ¿Ð´Ð°ÑģÑĤÑĬ":11473,"ĠÐ²ÑģÐµÐ²Ð¾Ð»Ð¾Ð´Ð°":11474,"ĠÐĴÑģÐµÐ²Ð¾Ð»":11475,"ĠÐ¿ÑģÐºÐ¾Ð²Ð¸ÑĩÐ¸":11476,"ĠÐ²Ð¾ÑĤÑĩÐ¸Ð½Ð°Ñħ":11477,"ĠÐľÑĥÑĢÐ¾Ð¼ÑĨÐ°":11478,"ĠÐ²Ð¾Ð¸Ð½ÑģÑĤÐ²Ð¾":11479,"ĠÐ³ÑİÑĢÐ³Ñİ":11480,"ĠÑģÐ°Ð¶ÐµÐ½ÑĮ":11481,"----------------":11482,"ĠÐ°Ð½Ð´ÑĢÐµ":11483,"ĠÑģÑĬÐ¼ÑĢÑĮÑĤÑĮ":11484,"ĠÐ²Ð¾Ð»Ð¾ÐºÐ¸ÑĤÑĭ":11485,"ĠÐĳÑĥÐ´ÐµÑĤÑĮ":11486,"ĠÐ¿ÑĢÐ¸ÑģÑĤÐ°Ð½Ð¸ÑīÐµ":11487,"Ð»ÑĤÐ°ÑĢ":11488,"Ð²ÐµÐ½ÑĮ":11489,"Ð´ÑĢÐ¾Ñĥ":11490,"ÑĪÐº":11491,"ĠÑĢÐ¾Ð³ÑĬ":11492,"Ð»Ð¸Ð²":11493,"ĠÐ¿Ð¾êĻģ":11494,"ĠÑ¿Ð´Ð°ÑĤÐ¸":11495,"Ð°ÑĢÐ¾":11496,"ÑģÑĤÐ¸Ð½Ð°":11497,"Ð¾Ð²Ð°Ð»Ð¸":11498,"ÑĤÐ°Ð½Ð°":11499,"ĠÑģÐ°Ð²":11500,"ĠÐ¸Ð·Ð¼":11501,"ĠÐ»Ð¸ÑĨÐµÐ¼Ñ£":11502,"Ð²ÐµÐµ":11503,"ĠÐĳÐ³":11504,"ĠÑĢÐ°Ð·Ð´ÑĢÐ°":11505,"ĠÐ±Ð»Ð³Ð¾ÑģÐ»Ð¾Ð²":11506,"ĠÑĤÐ°ÐºÐ¾Ð¼":11507,"Ð¾Ð²ÑĭÐ¹":11508,"ĠÐ¸Ð¼Ð°ÑĤÐµ":11509,"ĠÑĤÑĢÑĥÐ´":11510,"ĠÐ´Ð¾Ð±ÑĢÐ¾Ð´":11511,"ĠÐ½Ð°ÑģÐ¾":11512,"ĠÐ£ÑģÐ»ÑĭÑĪÐ°":11513,"ĠÑĢÐ¾ÑģÑĤÐ¾Ð²":11514,"ÑģÑĤÐ¾Ð¸ÑĤÑĮ":11515,"ĠÐ²Ð·ÑıÑĤÐ¾":11516,"ĠÑģÐ¾ÑĢÐ¾ÐºÐ¾":11517,"ĠÑģÑĢÐµÐ´":11518,"ĠÐ³ÑĢÑ§Ð·":11519,"ĠÐ¸ÑģÑĤÐ¾ÑĢ":11520,"ĠÐ¿ÑĢÐµÐ¶Ð½Ð¸Ñħ":11521,"ĠÐ¼Ð°Ð»ÐµÐ½ÑĮ":11522,"ĠÑ¡Ð´Ð¾Ð»Ñ£":11523,"ĠÐ¼Ð°ÑĤÑĥÑĪÐºÐ¸":11524,"ĠÐ¿ÑĢÐ¾Ð¼ÐµÐ¶Ñİ":11525,"ĠÑģÐºÐ²ÐµÑĢÐ½Ð¾":11526,"ĠÐ¿Ð¾ÑĩÐµÐ»Ð°":11527,"ĠÑģÐµÑĢÐ³ÑĸÑ§":11528,"ĠÑħÐ¾ÑĩÐµÑĪÐ¸":11529,"ĠÑģÐ°Ð¼Ð¾Ð´ÐµÑĢÐ¶":11530,"ĠÐ³ÐµÑ¡ÑĢÐ³Ð¸":11531,"ÑĤÐ¾ÑģÐ»Ð°Ð²ÑĬ":11532,"ĠÐºÐµÐ´":11533,"Ð·Ð±ÑĢÐ°Ð½":11534,"ĠÐ»Ð¾Ð¶Ð½Ð¾":11535,"Ð´Ð°ÐµÑĤ":11536,"Ð¾Ð±Ñĥ":11537,"Ð¾Ð±Ð¸ÑĤÐ¸":11538,"ĠÑģÑĤÑĢêĻĭ":11539,"ĠÑ¡ÑģÐ»Ð°":11540,"ĠÐ¿ÑĢÐ¸Ð±êĻĳ":11541,"ĠÐ·Ð°Ð¸":11542,"Ð½ÐµÐ½Ð¸Ðµ":11543,"ĠÑĢÐ°ÑģÐ»Ð°":11544,"Ð¼Ð°Ð°":11545,"Ð¾Ð¿Ð»ÐµÐ¼":11546,"ĠÑģÐ»Ð¾Ð¶Ð¸":11547,"ĠÐ²Ñ£Ð»Ð¸":11548,"ÑħÐ°Ð»":11549,"ÑīÐ¸Ð½Ñĥ":11550,"ÑģÐ»Ð¾Ð²Ð¾":11551,"ĠÑ¹Ñģ":11552,"ĠÐľÑĮ":11553,"ÑĪÑĮÐºÐµ":11554,"ĠÑ»ÑģÑĤÐ°Ð²Ð¸":11555,"ĠÐ¿ÑĢÑ£Ð¸":11556,"ĠÑģÐºÐ²ÑĢÑĬ":11557,"ĠÐ²Ð¾Ð»Ð¾Ð´":11558,"ĠÐ¸ÑħêĻ¿Ð¶Ðµ":11559,"Ð¶ÑĮÐ´Ð¾":11560,"Ñ³Ñĸ":11561,"ĠÐ´Ð²Ð¾ÑĢÑ¹":11562,"ÑµÐ¼":11563,"ĠÐ²ÑĬêĻģÑĢÐ°":11564,"ĠÐ½Ð°ÑĩÐ°Ð»Ð°":11565,"Ð»ÐµÐ²êĻĭ":11566,"ĠÐ¼Ð¾Ð¶ÐµÑĤÐµ":11567,"ĠÐ½Ð°Ð¿Ð¸ÑģÐ°Ð½":11568,"ĠÐ·Ð°Ð¿Ð¸ÑĢÐ°":11569,"ĠÐĵÐ¾ÑģÐ¿Ð¾Ð´ÐµÐ½ÑĮ":11570,"ĠÐ¿Ñ¹ÑģÑĤÐ¾":11571,"ĠÑĨÐ°ÑĢÐµÐ¸":11572,"ĠÐ´ÐµÐ²ÑıÑĤÑĮ":11573,"ĠÐŁÐ¾ÑģÐ»Ñ£":11574,"ĠÐ¿ÑĢÐ¸ÑħÐ¾Ð´Ñ§":11575,"ĠÑħÑĢÐ¸ÑģÑĤÐ¾Ð²Ð°":11576,"ĠÑĥÐ´Ð°ÑĢÐ¸Ð»":11577,"ĠÐ¸ÑģÑĤÐ¸Ð½Ð½Ð¾":11578,"ĠÐ²ÑĤÐ¾ÑĢÑĭÐ¸":11579,"ĠÐ¾ÑĥÐ¼Ñ£ÐµÑĤÑĬ":11580,"ĠÐ±Ð¶Ð¸Ð¸":11581,"ĠÐ¿Ð¾Ð³Ð¾ÑģÑĤÑĬ":11582,"ĠÐ´Ð¾Ð¼Ð°ÑĪÐ½ÐµÐ¸":11583,"ĠÐ¼ÐµÑģÑĤÐµÑħ":11584,"ĠÑģÐ¸ÑĢÑ£ÑĩÑĮ":11585,"Ð½Ð½ÑĭÑħ":11586,"ÑģÐµÐ»ÑĮ":11587,"Ð²Ð»Ñĥ":11588,"ĠÑģÐ½ÑĮ":11589,"ĠÐ¸Ð¶":11590,"ÐºÑĤ":11591,"Ð´ÑĤÑĮ":11592,"ĠÑĤÑİ":11593,"ÑģÑĤÑĸÐ°":11594,"ÑħÐ¾Ð¶Ð¸":11595,"ÑıÐ»ÑĬ":11596,"ÑĩÐ½ÑĭÑı":11597,"ÑĤÐ¸Ð»Ð¸":11598,"Ð¶êĻĻ":11599,"ĠÐ²ÑĬÐ¿ÑĢÐ¾ÑģÐ¸":11600,"ĠÐĲÑĩÐµ":11601,"ÑĢÐ¸Ð½Ñĭ":11602,"ĠÐ¿ÑĢÐ¸ÑģÑ£":11603,"ĠÑĥÑĤÑ£":11604,"ĠÐ·Ð°ÑĤÐ¾":11605,"ĠÑĤÐ¾Ð°":11606,"ĠÐ¿Ð¾Ð»ÑģÐºÐ¾Ð¸":11607,"ÑĩÐ°Ñħ":11608,"ĠÐºÐ°ÑĤÐ¾ÑĢ":11609,"ÑĤÐµÑĢÐ°":11610,"ĠÐĶÐ²Ð°":11611,"ĠÐ²Ñ£ÑĢÐ¾":11612,"Ð¶Ð¸Ð¾":11613,"ĠÐŀÐ±ÑĢÐ°":11614,"ĠÐľÐ»":11615,"ĠÑ»Ð½Ð°":11616,"Ð·ÑĭÐ´Ð¾ÑĪÐ°":11617,"ĠÑķÐ»":11618,"ĠÎº":11619,"ĠÐ¸Ð¼Ð°ÑĪÐµ":11620,"ĠÐĽÐ¸ÑĤÐ¾Ð²":11621,"Ð¸Ð¼ÐµÑĤÑĮ":11622,"Ġ---":11623,"ĠÑĨÐ°ÑĢÐ°":11624,"Ð½ÑĸÐµÐ¼":11625,"ĠÐºÐ°Ð·Ð½Ñĥ":11626,"ĠÐ²Ð°ÑģÐ¸Ð»ÐºÐ¾":11627,"ĠÐºÐ¸ÑģÐ»":11628,"ĠÐ±ÑĭÐ²Ð°Ð»Ð¾":11629,"ĠÑģÐ¿Ð°ÑģÑĤÐ¸":11630,"ĠÐŁÑĢÐ¾Ñģ":11631,"ĠÐ²Ð¾Ð·Ð¼ÐµÑĤÑĮ":11632,"ĠÐ½Ð°ÐºÐ°Ð·ÑĬ":11633,"ĠÐºÑĢÐ°Ð»ÐµÐ²Ð½Ñĭ":11634,"ĠÐ°ÑĢÑħÐµ":11635,"ĠÐ·Ð°ÐºÐ¾Ð½Ðµ":11636,"ĠÑģÐµÑģÑĤÑĢÑĭ":11637,"ĠÐ¸Ð¼Ð¸Ð¶Ðµ":11638,"ĠÑĢÑıÐ´":11639,"ĠÐ¿ÑĢÐ¾Ð¶Ð¸ÑĤÐ¾Ðº":11640,"ĠÐ¿ÑĢÐ¾ÑģÐ²Ñ£ÑĤÐ¸":11641,"ĠÐĺÐ³Ð½Ð°ÑĤÑĮ":11642,"ĠÐ½Ð¾ÑıÐ±ÑĢÑı":11643,"ÑĢÐ¼Ñĭ":11644,"ĠÑģÐ¼ÑĮÑĢ":11645,"ĠÐ¸Ð¸":11646,"ĠÐ²Ð¸ÑĤÐ°":11647,"ĠÐºÐ½Ñĸ":11648,"ĠÐºÐ»Ð°Ð´":11649,"ĠÐ¾ÑĩÐµ":11650,"ĠÐ°Ð±Ð¾":11651,"ĠÐ»ÐºÑĬ":11652,"ĠÐ¶ÐµÐ½êĻĳ":11653,"ÐºÐ°ÑĤÐ°":11654,"ĠÑĩÑĤÐ¸ÑĤÐ¸":11655,"ĠÑģÑĤÑı":11656,"ĠÑ¿Ð²ÑĢÐ°ÑĤÐ¸":11657,"Ð¼Ð¸Ñı":11658,"êĻģêĻ¿":11659,"ĠÑģÑĬÐ·Ð´Ð°":11660,"ÑģÑĤÐ°Ð²ÑĮ":11661,"ĠêĻĹÐ²Ð»ÐµÐ½":11662,"ĠÐĴÐµÐ»":11663,"ĠÐ¼Ð¸Ð½Ñĥ":11664,"Ð»Ñ£ÑħÑĬ":11665,"ÑīÐ°Ð³Ñ¡":11666,"ĠÐ¿Ð°ÑĪÐ½Ð¸":11667,"ĠÐ²ÑĭÑĪÐ»Ð¸":11668,"ĠÑ¹ÑģÐ¿Ñ£":11669,"ĠÐ¿Ð¸ÑĤÑĮÑ§":11670,"ĠÐ±ÑĥÐ´ÐµÑĤÐµ":11671,"ĠÑĢÐ°Ð·ÑĢÑĭ":11672,"ÑĤÑĭÑı":11673,"ĠÐĵÑģ":11674,"ĠÑģÐ¾Ð±ÐµÑĢ":11675,"ĠÐºÑĢÑī":11676,"ĠÐ´Ð²Ð¾ÑĢÑıÐ½Ðµ":11677,"ĠÑģÑĤÐ°ÑĢÑĭÐ¼":11678,"ĠÐ¿Ð¾Ð±Ð¸ÑĤÐ¸":11679,"ĠÐ´ÑĥÑĪÑİ":11680,"ĠÑģêĻĭÐ´Ð¸":11681,"ĠÑĩÐµÐ»Ð¾Ð²ÐµÑĩÐµ":11682,"ĠÑĩÐµÐ»Ð¾Ð²Ñ£ÐºÐ¾Ð¼ÑĬ":11683,"Ð»Ð¾Ð¶Ð¸ÑĤÐ¸":11684,"Ð²ÑĪÑ¹":11685,"ĠÑģÑĤÐµÑĦÐ°Ð½Ð°":11686,"ĠÑĢÐ¾ÑģÐ¾Ð»Ðµ":11687,"ĠÐ±Ð¾ÑĢÐ¸ÑģÑĬ":11688,"ĠÐ¿Ð¾ÐºÐ»Ð°Ð½Ñ§Ð½ÑĮÐµ":11689,"ĠÐ½Ð¾ÑģÑĬ":11690,"ĠÑģÑĸÐ¼Ñ¡":11691,"ĠÐ·Ð°Ð¼ÐºÐ¾Ð¼ÑĬ":11692,"ĠÑ¿Ð´Ð°Ð²Ð°ÑĤÐ¸":11693,"ĠÐ¿ÑĢÐ¸ÑĤÑĩÐ¸":11694,"ĠÑĩÑĢÐµÐ·ÑĬ":11695,"Ð³Ð¾ÑĤÐ¾Ð²Ð¸":11696,"ĠÐ¸Ð¼ÑĥÑīÐµ":11697,"ĠÑ¿ÑĤÐ¾Ð»Ñ£":11698,"ĠÐºÑĢÐµÑģÑĤÑĮÑıÐ½ÐµÑħ":11699,"ĠÐĲÐ´Ð°Ð¼":11700,"ĠÐ¿ÑĢÐ¿Ð´Ð±Ð½ÑĭÐ¸":11701,"ĠÐ¿ÑĢÐ¸Ð»ÐµÐ¶Ð½Ð¾":11702,"ÑģÐ»Ð¾Ð²ÐµÑģ":11703,"Ð»ÐµÐ²ÐµÑĤÐ°":11704,"ĠÑģÑĤÐ°ÑĢÐµÑĨÑĮ":11705,"Ħĸ":11706,"ÑĤÐµÐ½ÑĬ":11707,"Ð½ÑģÐºÐ¾Ð³Ð¾":11708,"Ð»ÐµÐ½ÑĮÐµ":11709,"ĠÑģÐ½Ñ§":11710,"ĠÐ½ÑĢÐ°":11711,"ÑĩÐ½ÑĭÐ¸":11712,"ÑĩÐ½Ð¾Ð¸":11713,"ĠÐ½Ð°Ð²Ð¾Ð´":11714,"ĠÐ½Ð°Ð²ÐµÐ´Ðµ":11715,"Ð¿Ð¾Ð»ÑĮ":11716,"ĠÑĢÐ¾Ð³Ð°":11717,"ÑīÐµÐ¼êĻĭ":11718,"ÐµÐ½Ñ¹":11719,"Ð½Ð°Ñ³":11720,"Ð²Ð°Ð³Ñ¡":11721,"Ð½Ð¾ÑŃ":11722,"ĠÑĨÐ¾Ð³Ð¾":11723,"ĠÐ¾ÑĥÐ±ÑĭÑĤÐ¾ÐºÑĬ":11724,"ĠÐ¾ÑĥÐ¿ÑĢÐ¾Ð´Ð°":11725,"ĠÑģÑĬÐ´ÑĢÑĬ":11726,"Ð²ÑĬÑĪÐ°":11727,"ĠÐ²ÐµÐ´ÐµÑĤ":11728,"ĠêĻĹÑĪÐ°":11729,"Ð¾Ð¿ÑĮ":11730,"ĠÑģÐ»Ñģ":11731,"ĠÐ²Ñ£ÑģÑĤ":11732,"ĠÐ¿Ð°ÑĤÐ¾Ðº":11733,"ĠÐ±ÑĢÐ°Ð³Ð°":11734,"ĠÐ¿ÑĢÐµÐ¿Ð¸Ñģ":11735,"ĠÐ¿Ð¾ÐºÐ¾ÑĢÐµ":11736,"ĠÐŀÑĦÐ¸Ð¼ÑĮ":11737,"ĠÑĪÐ²ÐµÐ´":11738,"ĠÑĤÑĭÐ¼":11739,"Ð»ÑıÐ½":11740,"ĠÐ¼Ñ£ÑĢ":11741,"ĠÑĩÐ¸Ð½":11742,"ĠÐķÐ»Ð¸ÐºÐ¾":11743,"ĠÐ¾Ð½Ð±Ð°":11744,"ĠÐ¿Ð¾Ð²Ð¾ÑĢ":11745,"ĠÑģÐ¼ÑĭÑĪ":11746,"ĠÑģÑ¹Ð½Ð´Ñ¹":11747,"ĠÐ±ÑĢÐ°ÑĤêĻĭ":11748,"ĠÐ¼Ñ¹ÐºÐ°":11749,"ĠÐ½Ð¸ÐºÐ¾Ð³Ð¾Ð¶Ðµ":11750,"ĠÐ±Ñ¹Ð´ÑĮ":11751,"ĠÑģÑĭÐ½Ð¾Ð²":11752,"Ð³Ð¾ÑĢÐ¾Ð´Ñ¹":11753,"ĠÐ³Ð°Ð»":11754,"ĠêĻģÐ°Ð¿":11755,"ĠÑĩÐµÐ»Ð¾Ð²ÐµÐºÐµ":11756,"ĠÐ½Ð°ÑĪÐ¸Ð¼Ð¸":11757,"ĠÐ±ÐµÑģÐ¾Ð²":11758,"ÑĤÑĢÐ¾Ð±":11759,"ĠÐ³Ð¾Ð´ÐµÑħ":11760,"ĠÑģÐ»Ñ¹ÑĪÐºÐ°":11761,"ĠÑģÐ¾ÑĥÐ´Ð¸":11762,"ĠÐºÑ¹Ð¿Ð¸ÑĤÑĮ":11763,"ĠâĦĸ":11764,"ĠÐºÐ¸Ð½Ð¾Ð²":11765,"ĠÑĨÐµÑĢÐºÐ²Ðµ":11766,"ĠÐ¿ÑĢÐ¸ÐºÐ°Ð·Ñ¹":11767,"ĠÐ½Ð°ÐºÐ°Ð·Ð°Ð½ÑĹÐµ":11768,"ĠÑĥÑĩÐ¸Ð½ÑıÑĤ":11769,"ĠÐ³Ð¾Ð²Ð¾ÑĢÐ¸Ð»Ð¸":11770,"ĠÑĤÐµÑĢÐµÐ¼":11771,"ĠÐ²Ð¿Ð¾Ð»Ð½Ðµ":11772,"ĠÐ¸ÑģÐºÐµÑħ":11773,"ĠÑĢÐ°Ð´Ð¾ÑģÐ»Ð°Ð²Ð°":11774,"ĠÐ¿Ð¾Ð³Ð¸Ð±Ð°":11775,"ĠÐĴÑĭÑħÐ¾Ð´Ð¸Ð»":11776,"ĠÐ¶Ð°Ð»Ð¾Ð²Ð°Ð»ÑĮ":11777,"ĠÐ³Ð¾ÑĤÐ¾Ð²":11778,"ĠÑģêĻĳÐ½Ð¾":11779,"ĠÐºÑĢÑĬÐ²Ð¸":11780,"ĠÑģÑĤÐ¾Ð»ÑĮÐ½Ñĳ":11781,"ĠÐ³Ñ¹ÑīÐ°":11782,"ĠÐ±Ñ£Ð»ÐºÐ¸":11783,"ĠÐ½Ð°Ð¼ÐµÑģÑĤÐ½Ð¸ÐºÐ¾Ð¼":11784,"ĠÐ±ÑĮÑĸÑĤÐ¸":11785,"ĠÐ¾ÐºÐ°ÑıÐ½":11786,"ĠÐĳÐµÑĢÐ´Ð¾Ð²Ñĥ":11787,"Ð½Ð¾Ð¿Ð»ÐµÐ¼ÑĶÐ½":11788,"ĠÐ¼Ñ§ÑģÐ½Ð°Ñ§":11789,"Ð»ÐµÐºÑģÐµÑı":11790,"ĠÐ²ÑĭÑģÐ»ÑĥÐ¶Ðµ":11791,
[...]
